, 2842631
。 1798518
、 548982
" 528472
的 425245
▁ 329431
和 296604
在 240695
( 175860
等 167524
) 132678
是 119454
:" 118503
中 114042
以 102413
将 100911
对 98357
。" 97935
时 95907
年 94009
与 93548
为 91292
或 91000
1 86171
《 85211
了 83260
后 82362
》 80125
日 79277
月 78949
进行 77930
3 75988
2 74459
▁在 73846
从 71769
通过 71250
5 69157
上 68907
并 68863
及 68217
有 66212
而 62730
4 58433
表示 57177
但 55897
人 55452
被 52669
也 51575
音 49807
到 48029
可以 47645
6 47306
10 47255
名 46485
向 45094
- 44969
使用 44895
▁另外 44883
因此 44327
企业 43324
", 43115
地 41691
7 40627
用 40383
性 40240
韩国 39780
服务 39205
8 38802
第 38688
会 38614
提供 38443
不 37682
作为 37259
由 36442
如果 36215
没有 35934
9 35617
▁但是 35193
技术 35163
公司 34837
因 33722
个 33608
就 33575
来 32756
为了 32694
活动 32462
大 32199
说 32187
市场 31639
G 31445
地区 30677
新 30595
于 30520
还 30033
根据 29784
"," 29748
▁因此 29730
系统 29597
其 29211
20 29152
' 29099
A 28674
该 28541
汽车 28474
前 28470
开始 27814
的人 27788
金 27647
正在 27609
者 27299
都 27081
万 26674
要 26109
管理 26031
计划 25954
利用 25899
事业 25790
一 25132
具有 24792
12 24783
所以 24744
相关 24726
包括 24555
支援 24481
11 24473
▁如果 24267
需要 24220
工作 24124
C 24008
信息 23504
B 23469
教育 23268
开发 23229
比 23208
问题 23035
增加 23028
决定 22977
由于 22937
D 22887
法 22831
销售 22824
内 22722
我 22625
产品 22412
成为 22378
高 22323
K 22292
下 22243
虽然 22188
运营 22117
政府 22070
中的 22051
家 22038
投资 21987
项目 21845
但是 21714
30 21709
日表示 21631
提高 21535
多 21348
时间 21345
AI 21344
所 21272
S 21262
的情况下 21151
我们 21142
他 21124
处理 21082
型 20877
网络 20872
可 20842
着 20775
进行了 20707
亿韩元 20579
点 20522
数据 20146
要求 20079
部分 20078
一样 20076
代表 19942
给 19916
里 19866
认为 19845
以及 19835
化 19824
的话 19661
产业 19570
议员 19330
一起 19306
能够 19305
申请 19298
国内 19290
使 19223
P 19209
获得 19091
▁虽然 19075
车 18913
随着 18901
减少 18813
一个 18798
今年 18797
经济 18777
M 18617
电子 18602
国家 18568
政策 18446
游戏 18431
最近 18318
购买 18310
领域 18159
19 18141
检查 18104
▁特别是 18069
T 18051
参加 18044
▁从 17964
生产 17956
美国 17938
已经 17930
· 17917
研究 17871
平台 17715
中心 17692
调查 17610
支付 17509
安全 17444
▁因为 17372
水 17217
方面 17175
接受 17161
患者 17102
某 17070
内容 17047
之前 17034
扩大 17008
15 16987
发生 16982
们 16915
装置 16885
上的 16875
李 16755
更 16684
设备 16611
自己 16556
合作 16541
车辆 16495
医院 16494
这 16494
部 16488
▁" 16402
各 16368
用于 16345
万韩元 16334
方法 16307
能 16300
应 16277
参与 16275
▁随着 16248
s 16215
之后 16200
委员会 16163
像 16118
外 16094
业务 16050
功能 16022
标准 15989
让 15941
出 15917
出现 15838
不同 15814
无 15814
把 15733
小 15721
R 15683
同时 15671
所有 15671
学校 15663
大学 15609
确认 15595
希望 15463
光 15380
全球 15380
候选人 15253
成 15235
生活 15232
子 15217
天 15210
支持 15206
设计 15180
分 15148
道 15123
各种 15119
▁据 15090
F 15068
非常 15040
的情况 15023
其他 14999
用户 14988
中国 14905
将在 14875
应该 14836
银行 14829
因为 14823
人的 14787
18 14776
只 14694
率 14637
▁为了 14619
权 14614
结果 14598
过 14575
拥有 14537
实现 14519
16 14501
移动 14496
主要 14399
这种 14350
长 14317
▁据悉 14287
去年 14284
13 14280
工会 14186
进入 14176
世界 14169
他们 14035
器 14030
▁根据 14013
L 14002
LG 13995
首尔 13983
是否 13982
连接 13925
50 13901
▁由于 13896
则 13875
费用 13868
学习 13864
环境 13838
社会 13753
执行 13749
区 13724
分析 13702
V 13698
设施 13671
号 13668
三 13634
▁以 13592
层 13527
这是 13520
H 13505
不是 13467
超过 13459
也是 13457
100 13433
现在 13433
性的 13417
17 13402
结构 13357
改善 13353
N 13341
文化 13341
并且 13300
无法 13295
相比 13267
预计 13253
正 13246
治疗 13214
直接 13203
得到 13185
金融 13180
制造 13064
不能 13055
特别 13055
制作 13030
共同 13015
家庭 13002
国民 12992
实施 12972
面 12960
14 12951
个人 12948
公开 12926
," 12911
对象 12880
▁韩国 12848
顾客 12821
控制 12818
24 12813
次 12758
21 12738
▁此外 12726
有关 12721
学生 12701
辆 12696
最 12675
保护 12651
工厂 12639
价格 12638
此次 12561
25 12542
之间的 12538
文 12513
E 12457
式 12410
电池 12398
约 12397
条 12388
举行 12371
品牌 12364
方式 12346
而且 12324
期间 12318
新的 12293
▁S 12291
经营 12271
国会 12235
再次 12231
评价 12209
度 12203
材料 12192
山 12191
▁通过 12169
规定 12163
限制 12156
推进 12108
对于 12105
综合 12092
低 12086
之间 12084
应对 12048
党 12013
的方法 12011
会议 11990
制定 11979
线 11930
选择 11923
正式 11898
量 11864
条第 11829
位 11822
现场 11802
i 11773
预测 11771
导致 11711
形成 11707
商品 11671
机构 11657
自己的 11654
很多 11652
再 11642
情况 11641
▁对于 11628
多种 11627
车型 11611
费 11600
负责 11594
劳动者 11578
机器人 11576
称 11537
制度 11498
是在 11492
选举 11487
的新 11468
即使 11465
企业的 11459
机 11453
手机 11446
W 11440
达到 11436
就会 11424
最终 11420
内部 11413
政治 11409
力 11393
这些 11392
者的 11382
自 11374
运动 11367
只有 11357
从而 11353
室 11312
很 11300
以上 11278
首次 11275
推出 11230
日本 11222
消费者 11207
市 11196
制 11175
持续 11149
德 11140
数 11117
积极 11113
健康 11111
贷款 11106
全 11101
美 11100
想 11092
去 11081
部门 11057
民主党 11044
非 11041
战略 11015
年的 11005
交易 10992
之 10967
组织 10958
当天 10921
O 10919
新冠肺炎 10912
效果 10910
洞 10900
)。 10889
已 10886
准备 10885
保险 10846
程序 10830
集团 10818
I 10786
一直 10784
提出 10779
书 10775
在内的 10742
目前 10723
▁该 10708
智能 10707
朴 10693
本 10684
能力 10649
至 10590
基金 10589
讨论 10588
)、 10587
而是 10571
数字 10563
更加 10549
a 10548
总 10538
国际 10531
必须 10522
状态 10515
确保 10503
相 10482
发展 10480
好 10480
款 10464
e 10461
咨询 10445
达 10445
就是 10433
半导体 10410
事件 10385
▁这是 10371
增加了 10356
资金 10329
处 10315
当 10301
重新 10300
受到 10297
主张 10290
建立 10282
电影 10274
m 10261
东 10252
40 10243
公司的 10219
为基础 10211
体 10208
o 10198
安 10181
心 10149
很难 10134
共 10130
卡 10129
儿童 10101
担任 10093
相关的 10086
种 10031
上市 10020
医疗 10018
全国 10015
媒体 10007
学 10001
做 9999
产生 9989
变化 9976
女性 9975
建设 9971
IT 9970
通信 9968
自动 9964
er 9959
23 9957
请 9954
却 9944
▁M 9942
. 9940
城市 9935
智能手机 9933
访问 9927
X 9926
手 9917
加入 9909
海外 9900
特 9899
市场的 9896
物 9872
SUV 9869
级 9864
期待 9832
努力 9819
培养 9815
未来 9811
防止 9787
电 9778
第一 9770
26 9766
27 9763
▁与 9748
生 9740
基础 9711
▁A 9705
的企业 9699
职员 9693
▁C 9687
视频 9679
空间 9625
强调 9619
存在 9618
左右 9616
劳动 9605
英 9595
& 9592
感 9559
日在 9549
这一 9539
将于 9529
起 9527
条件 9506
28 9497
规模 9460
斯 9450
来看 9448
设置 9446
它 9429
性能 9404
其中 9400
出现了 9396
周 9383
合同 9381
韩 9363
可以在 9359
基 9357
协议 9356
行为 9340
最高 9338
的同时 9338
感染 9335
安装 9301
▁最近 9292
又 9283
影响 9268
? 9245
过程中 9237
y 9228
帮助 9220
成功 9216
团 9214
海 9210
电视 9205
损失 9203
曾 9196
透露 9196
今后 9191
也会 9190
改变 9188
郑 9188
适用 9175
调整 9160
22 9135
出口 9096
期 9092
介绍 9081
委员长 9072
相关人士表示 9065
人员 9063
头 9054
信号 9034
那么 9021
会长 9017
措施 9008
公共 8994
组成 8990
预防 8986
进行的 8976
提交 8960
下降 8959
实际 8944
29 8939
: 8938
地方 8938
组 8930
▁《 8928
方案 8928
应用程序 8925
60 8914
经过 8904
关注 8894
发 8893
U 8878
是指 8871
关于 8862
得 8845
这个 8828
热 8823
林 8802
关系 8797
解决方案 8779
▁B 8770
专家 8767
工资 8755
举行的 8749
场 8743
需求 8734
认证 8733
不仅 8732
你 8724
可能 8719
两 8705
釜山 8704
革新 8690
水平 8683
张 8681
获得了 8667
对策 8653
为中心 8637
引进 8631
尔 8627
看 8623
▁但 8616
国 8616
提出了 8616
拉 8610
c 8579
元 8574
等的 8569
即 8551
竞争 8551
开 8545
设立 8534
▁同时 8531
也将 8512
▁这 8490
团体 8482
人工智能 8469
才能 8466
行业 8466
追加 8460
当时 8446
每年 8445
资料 8443
▁目前 8442
也在 8442
体验 8425
重 8413
模式 8387
▁此前 8384
记录 8378
的是 8363
工程 8357
显示 8355
三星电子 8352
南 8350
b 8341
也可以 8341
增长 8321
担心 8319
未 8315
门 8302
完成 8286
为对象 8285
主 8285
~ 8274
价值 8270
接触 8267
现代汽车 8247
个月 8242
维持 8238
解决 8232
除了 8213
分别 8205
▁对此 8200
还有 8200
的地方 8165
教授 8159
行政 8153
路 8150
多个 8142
上述 8141
负担 8136
亿 8134
韩元 8134
解释说 8125
台 8118
民 8117
症状 8115
软件 8115
全部 8112
宣传 8109
结束 8090
紧急 8089
雇佣 8088
计算 8053
的问题 8048
速度 8037
指定 8030
行驶 8000
展开 7984
不会 7982
t 7957
加强 7955
共享 7953
委托 7940
云 7937
确定 7935
指出 7934
居民 7924
+ 7923
专业 7922
石 7920
克 7913
到了 7909
审查 7901
可能会 7890
受 7887
项 7879
科学 7876
过程 7872
事故 7862
恢复 7856
▁LG 7845
供应 7845
委员 7840
机关 7830
三星 7827
连 7822
流 7818
协会 7817
秀 7806
协商 7803
▁金 7800
利 7800
花 7797
ing 7794
官 7785
降低 7785
收入 7782
▁今年 7780
继续 7765
稳定 7747
作用 7744
使用的 7731
广告 7729
奖 7727
长期 7715
操作 7709
西 7709
马 7708
科 7681
疾病 7671
区厅长 7668
发现 7666
预算 7659
日开始 7657
▁T 7654
构建 7647
▁他 7640
▁对 7631
件 7612
中央 7597
死亡 7584
网 7578
d 7577
化的 7575
), 7566
生物 7553
集中 7551
熙 7549
SK 7519
院 7509
)" 7505
市民 7501
的时候 7500
专门 7475
p 7473
时代 7473
完全 7468
以下简称 7467
检测 7462
发表 7446
广播 7441
电动汽车 7441
还是 7437
判断 7434
的技术 7432
中小企业 7431
31 7423
意见 7422
反应 7421
贤 7421
方 7418
发动机 7411
是因为 7402
法律 7402
地区的 7392
每 7391
韩国党 7391
创造 7384
现代 7374
风 7372
四 7370
扩散 7369
节目 7360
▁D 7348
网站 7348
并在 7347
在线 7327
音乐 7320
住宅 7317
间 7316
考虑 7314
困难 7313
针对 7311
业界 7307
▁也就是说 7306
这样的 7290
in 7288
收购 7278
优惠 7274
最多 7273
们的 7267
厅 7266
能源 7262
新型冠状病毒 7243
连续 7211
业绩 7198
板 7198
米 7198
领域的 7197
▁P 7191
第二 7187
on 7180
驾驶 7157
保持 7153
80 7152
应用 7140
核心 7140
公务员 7133
2017 7107
来说 7090
大型 7083
值 7079
如 7068
现有 7068
白 7063
罗 7062
两个 7057
自由 7055
占 7054
青瓦台 7054
也有 7037
有可能 7031
仅 7029
泰 7025
通知 7025
行 7020
的可能性 7005
过去 7003
投票 7001
"、" 6998
议会选举 6995
技术的 6989
营业 6987
就可以 6979
") 6975
都是 6969
手术 6966
Y 6957
带 6953
报告 6947
负责人 6927
看到 6916
保障 6908
al 6905
文件 6904
崔 6896
创业 6889
建筑 6888
同 6884
接收 6882
化学 6878
且 6876
推出了 6865
阶段 6849
an 6842
登记 6842
郡 6837
联合 6833
迅速 6832
成立 6826
服务的 6826
出售 6825
吗 6820
以下 6817
的时间 6814
的内容 6812
气 6811
▁此次 6806
▁本发明涉及一种 6795
案 6795
可以通过 6784
影像 6779
岁 6777
明 6777
▁当天 6766
考虑到 6763
组合 6756
停止 6754
先 6750
投入 6746
千 6744
方向 6737
外部 6736
信 6730
范围 6728
J 6719
膜 6711
现象 6702
转 6697
五 6667
测试 6665
▁李 6657
的影响 6647
按照 6644
举行了 6638
普通 6634
▁本发明涉及 6632
内的 6631
转换 6629
▁接着 6613
▁作为 6604
的事情 6602
收集 6599
以上的 6577
▁当 6571
展示 6568
万亿韩元 6561
不断 6560
基于 6556
▁我 6550
一种 6549
代 6543
在韩国 6538
不足 6533
病 6530
的方式 6530
青年 6530
运行 6512
效率 6498
入 6493
体系 6483
欧洲 6482
比较 6482
目标 6479
股票 6479
许可 6470
专用 6463
食品 6457
资产 6453
力量 6445
金额 6443
电话 6442
爱 6440
%。 6439
市长 6431
2018 6429
》, 6428
倍 6424
的汽车 6423
管 6396
知道 6394
销售额 6391
▁去年 6384
时期 6382
200 6381
“ 6371
原因 6370
打 6361
电路 6358
诊断 6358
福利 6357
声 6352
按 6350
届 6344
采取 6344
本月 6336
什么 6329
变 6328
想要 6327
工人 6326
符合 6325
才 6322
总统 6313
表 6312
1000 6309
收益 6297
小学 6293
掌握 6290
政党 6288
自然 6281
共有 6280
变更 6278
结算 6276
太 6275
原 6274
宣布 6271
人们 6267
n 6262
发行 6257
系列 6254
h 6240
世 6236
作品 6232
除 6232
推荐 6223
额 6214
的效果 6213
了解 6211
/ 6207
当地 6202
特定 6198
处于 6192
输入 6192
店 6185
平均 6177
大部分 6168
罢工 6163
趋势 6155
电视剧 6154
模型 6152
员 6147
一次 6145
提出的 6143
成长 6140
区域 6136
强化 6132
位置 6131
工作的 6131
的高 6131
的部分 6130
g 6129
u 6126
Galaxy 6115
轮胎 6115
的韩国 6112
事项 6103
▁19 6098
是为了 6096
禁止 6094
• 6092
建议 6092
走 6090
吧 6086
城 6082
反对 6073
亿韩元的 6072
说明 6063
万辆 6060
苹果 6058
波 6057
二 6055
70 6054
单 6051
月份 6040
加 6036
每个 6027
尹 6020
小时 6014
促进 6010
数量 6010
队 6009
快速 6007
就业 6004
如何 6001
危机 6000
青少年 5994
第一次 5992
减少了 5990
基本 5980
系统的 5974
的大 5972
将会 5968
严重 5967
质量 5962
恩 5959
金属 5959
她 5958
课程 5954
具备 5949
上升 5948
事 5947
多名 5946
▁首先 5944
战 5935
界 5934
子女 5933
人类 5932
300 5927
构成 5923
% 5920
器的 5919
甚至 5911
以后 5909
整个 5909
集 5904
创新 5899
法人 5896
性和 5888
▁U 5886
论 5886
商 5884
动 5878
租赁 5876
大邱 5875
演员 5875
500 5872
亲自 5872
流通 5870
通 5868
f 5866
发送 5866
经常 5863
▁R 5862
感到 5861
一般 5856
2000 5852
立即 5852
女 5849
将以 5848
启动 5847
在首尔 5830
年开始 5829
指导 5826
浩 5825
这一点 5821
节 5820
业 5819
拍摄 5810
》。 5795
▁K 5792
赵 5790
分配 5777
结合 5772
税 5770
口 5766
的原因 5763
锡 5763
的信息 5746
工艺 5745
将从 5742
俊 5741
区块链 5740
▁G 5739
的样子 5736
2020 5732
之外 5729
en 5728
站 5727
实时 5722
责任 5722
90 5715
提前 5713
公开了 5711
相同 5707
请求 5707
品 5705
双 5701
小型 5695
是以 5691
相关人士 5687
得到了 5684
竞争力 5681
▁F 5677
家长 5677
交通 5676
因素 5676
后的 5671
吃 5670
龙 5662
实行 5660
活动的 5658
超 5651
人数 5649
识别 5646
有效 5642
资源 5639
姜 5638
病毒 5635
频道 5621
这样 5619
万韩元的 5609
▁三星电子 5605
法案 5605
京畿道 5592
车的 5590
定 5588
系 5585
让人 5585
提高了 5582
SNS 5578
成果 5576
任 5573
诉讼 5571
真 5570
取消 5565
医生 5559
▁H 5558
师 5558
甲 5557
k 5555
观众 5553
华 5551
享受 5547
▁相反 5546
it 5533
所需的 5531
属于 5529
▁现代汽车 5524
任何 5520
位于 5517
确诊患者 5509
经验 5507
洪 5499
利率 5498
演出 5497
将通过 5495
为止 5492
允许 5484
▁为 5481
提供了 5480
传感器 5476
明年 5474
药 5464
残疾人 5463
融合 5461
出席 5454
生命 5454
2016 5452
德国 5452
最大 5452
营销 5452
容易 5444
只要 5440
ar 5439
身体 5427
理解 5420
镇 5419
孩子 5413
-- 5410
采用 5408
机会 5406
合 5405
部的 5405
房地产 5404
违反 5400
工 5398
优秀 5393
强 5388
州 5387
成员 5387
事实 5385
延长 5384
立 5381
新闻 5371
馆 5371
片 5370
但在 5369
▁将 5365
最佳 5365
之一 5363
临时 5360
大众 5360
固定 5356
历史 5353
月开始 5352
▁L 5350
剂 5346
进 5346
工作岗位 5345
公推 5341
作 5340
审议 5337
善 5334
给予 5330
证券 5328
艺术 5326
危险 5323
争议 5320
的金 5319
起亚汽车 5316
缴纳 5310
2019 5307
社长 5302
亚 5297
近 5297
如下 5295
教师 5295
人士 5293
会员 5293
色 5293
电脑 5291
修改 5288
进军 5285
统计 5276
代替 5274
寻找 5269
等多种 5266
在美国 5265
灯 5261
销量 5261
出了 5260
r 5257
为基础的 5251
公 5251
似乎 5249
结束后 5241
电极 5233
此 5223
开发的 5218
or 5210
口罩 5210
▁实际上 5209
KT 5202
目的 5197
挑战 5188
充电 5179
非法 5173
做出 5171
清 5171
黄 5170
%, 5168
在内 5168
数码 5168
只能 5165
也能 5162
日下午 5161
的结果 5158
年内 5157
证明 5157
交流 5155
同意 5153
政府的 5153
教 5152
免费 5151
还将 5151
道路 5148
或者 5145
重要 5145
召开 5136
消费 5136
汽车的 5135
▁政府 5134
进口 5127
正常 5126
无线 5125
被告 5125
的一 5124
产品的 5122
每月 5122
万人 5121
进一步 5120
报道 5119
那 5119
el 5115
w 5111
最大的 5107
充满 5103
▁有 5102
场所 5101
故事 5101
细胞 5101
观察 5101
独立 5091
财政 5088
征收 5085
图像 5075
格 5054
年度 5052
联系 5051
零部件 5048
义务 5046
人力 5046
接近 5039
网上 5038
被称为 5033
》、《 5030
解释 5027
特性 5026
空 5021
极 5019
期限 5018
客户 5015
变得 5011
适用于 5011
的学生 5005
中有 5001
委员会的 5001
并不 4999
成为了 4990
局 4988
根 4983
的活动 4978
万名 4976
油 4973
取得 4972
的事例 4972
轿车 4969
▁因 4968
只是 4966
对此 4958
电力 4957
带来 4956
不要 4953
继 4952
民间 4949
研究所 4947
逐渐 4945
课题 4944
将其 4943
服务器 4942
宇 4941
表面 4934
开放 4925
的前 4917
风险 4916
大量 4914
产 4913
专利 4911
比起 4906
合并 4902
图 4897
物质 4894
村 4885
均 4882
包含 4878
整体 4878
l 4876
信用卡 4875
债券 4874
河 4870
状况 4870
照片 4869
传输 4863
改革 4856
▁根据本发明 4855
补偿 4852
错误 4851
每天 4844
第三 4840
诊疗 4838
难以 4836
条例 4830
▁本发明 4829
传播 4828
语 4828
职业 4825
反 4823
Z 4817
房 4816
火 4810
球 4810
反映 4808
高级 4807
申报 4800
公寓 4799
35 4795
基础设施 4787
首先 4787
▁即使 4782
运输 4777
行动 4775
精神 4773
经 4771
更换 4769
测量 4767
相互 4764
患者的 4762
全体 4760
的方案 4755
充分 4750
评估 4745
我的 4740
星 4740
突然 4737
执政党 4736
特别是 4733
▁本发明是关于 4729
消除 4729
听 4727
类 4726
现有的 4721
发放 4719
奔驰 4714
拒绝 4714
特殊 4709
班 4702
选定 4701
源 4700
谷歌 4699
每周 4691
的事实 4691
分离 4690
布 4689
运营的 4689
单独 4687
中断 4683
子公司 4683
调 4679
机器 4675
原告 4672
保安 4671
差异 4669
输出 4669
朝野 4667
都会 4667
传统 4662
仁 4661
也不 4659
隔离 4658
压力 4655
还可以 4654
塔 4653
年级 4646
现实 4643
投资者 4639
” 4637
基板 4637
一定 4635
不同的 4632
军 4629
永 4624
分为 4621
遵守 4621
导演 4619
京 4618
全面 4618
尼 4616
院长 4616
调节 4614
is 4611
高中 4610
版 4609
也没有 4608
▁他们 4601
注册 4600
边 4596
犯罪 4593
规定的 4586
am 4585
的服务 4585
勋 4578
▁E 4574
半 4573
吸引 4572
朝鲜 4572
搜索 4566
的产品 4563
比赛 4557
的所有 4556
AR 4555
新车 4555
推出的 4554
股 4553
批准 4550
研究院 4546
日程 4539
以来 4536
形式 4535
计划在 4531
的患者 4526
▁其中 4523
经历 4523
出来 4520
保证 4519
履行 4518
财产 4517
参加了 4510
IP 4499
公布 4492
但由于 4490
实 4487
0 4485
存储 4481
放 4479
他的 4471
保健 4467
几 4467
未能 4466
引入 4464
令人 4460
发生了 4456
受到了 4451
设备的 4447
满足 4444
▁美国 4443
钱 4441
2015 4440
命令 4439
比率 4438
老 4438
所属 4434
等级 4429
备受关注 4426
▁据分析 4423
旅行 4421
观看 4421
仍然 4419
出演 4416
平 4416
声音 4413
宝马 4407
纳 4406
回 4396
适合 4392
成本 4391
造成 4391
当选 4390
有必要 4388
宋 4387
机械 4384
温度 4384
45 4383
即将 4382
敏 4380
神 4375
价 4374
初期 4369
et 4367
指数 4366
楼 4361
接 4357
理由 4352
议会 4349
签订 4342
航空 4338
▁这是因为 4335
部长 4335
st 4334
王 4324
开展 4321
的数据 4321
▁当时 4319
日上午 4319
报 4315
单元 4312
承担 4311
将成为 4307
at 4306
职务 4303
英国 4301
社区 4297
回答 4295
发生的 4294
晚 4293
丰田 4292
显示器 4283
发表了 4281
感觉 4280
在国内 4278
质 4273
氢 4269
力的 4268
传染病 4266
实验 4266
判决 4264
画 4264
▁其 4263
验证 4259
使用者 4257
Kakao 4254
审判 4249
排 4248
落 4248
引起 4247
歌手 4246
防疫 4244
消息 4243
黑 4243
身 4239
简单 4237
角色 4233
市场上 4230
首 4227
洙 4226
喜欢 4224
人气 4221
▁W 4220
代理 4215
我们的 4212
商业 4209
知识 4206
据 4204
差 4201
铁 4200
圈 4199
出租车 4195
申 4193
这次 4193
一些 4177
包 4177
首尔市 4176
模块 4173
企划 4169
土地 4168
物品 4168
相对 4167
钟 4165
空气 4161
司机 4154
共同民主党 4153
选 4153
孔 4151
年代 4150
韩国的 4150
侧 4149
▁可以 4141
阿 4140
如此 4139
日至 4138
上涨 4137
实际上 4135
父母 4134
暂时 4131
障碍 4131
距离 4127
驱动 4125
今天 4124
哲 4124
恶化 4124
阻止 4124
传 4116
统合党 4116
而不是 4116
体育 4115
员工 4114
压 4112
居住 4112
的过程中 4112
装 4112
是由 4108
为由 4105
牌 4105
传达 4101
少 4097
证 4097
现金 4088
优先 4085
国会议员 4084
形态 4081
灾难 4081
主导 4080
发挥 4080
52 4078
住院 4077
新型 4076
快 4074
有望 4067
的主要 4061
资本 4056
▁N 4054
试图 4054
结 4052
时隔 4051
世纪 4049
为中心的 4047
亿美元 4046
票 4045
光州 4041
群 4040
▁区厅长 4039
大数据 4039
统一 4039
船 4033
送 4031
雅 4031
令 4028
表现出 4025
0. 4023
旋转 4023
上个月 4022
并没有 4022
▁另一方面 4017
老人 4016
手续费 4014
举报 4013
定期 4011
出的 4008
规则 4008
幸福 4007
辅助 4007
比例 4003
长的 4002
具 3989
签订了 3989
越 3988
然后 3987
大规模 3986
智 3984
将与 3983
▁根据第 3982
义 3982
事例 3982
巴 3981
利益 3978
Q 3977
购物 3975
交换 3974
▁它 3973
试验 3973
工业 3971
曲 3968
保险费 3964
VR 3963
▁SK 3961
写 3961
就能 3959
美元 3959
ICT 3953
有很多 3953
微 3950
表决 3950
最低工资 3949
红 3949
全世界 3948
素 3941
高的 3940
▁我们 3938
派 3938
股价 3938
ic 3931
引发 3929
类型 3929
表现 3928
职 3927
吴 3926
体的 3925
贸易 3922
川 3921
比重 3920
乐 3919
▁新 3918
账户 3915
能否 3905
初 3903
农业 3894
程度 3893
也要 3886
形象 3883
监督 3880
股份 3879
的作用 3877
政 3876
六 3875
的行为 3874
37 3870
提议 3869
见 3869
电信 3867
财团 3867
邀请 3865
并不是 3864
副 3862
鱼 3862
身份 3859
1. 3858
载 3856
附近 3852
动力 3850
以外 3848
伊 3848
法第 3848
二手车 3843
安装在 3838
植 3834
赫 3834
36 3828
物联网 3828
沟通 3827
确诊者 3827
自由韩国党 3824
正在进行 3823
电压 3823
组成的 3822
▁民主党 3821
发言 3815
电动车 3813
一年 3812
举办 3812
剧 3810
ot 3808
周围 3804
任命 3796
有人 3796
吉 3793
度的 3792
大会 3791
柳 3791
死 3787
38 3786
交 3786
5000 3785
起来 3784
矛盾 3783
院内代表 3780
资格 3778
一下 3777
主义 3777
引导 3777
引起的 3777
公里 3776
展现了 3776
皮 3775
亚洲 3770
岛 3770
带来的 3768
阳 3768
福 3764
相似 3760
形 3755
仪式 3754
正确 3753
消失 3750
分钟 3749
旅游 3747
照顾 3747
发布 3745
深 3745
斗争 3743
赛 3743
本身 3741
补贴 3740
▁在这种情况下 3733
了一 3733
工具 3733
具体 3732
制作的 3732
问题的 3732
律师 3731
核 3731
芯片 3731
轮 3726
返还 3726
保健所 3725
对话 3722
奥 3721
相当于 3718
干 3715
国内外 3714
好的 3713
维修 3713
很大 3711
配置 3711
农 3707
座 3706
是通过 3702
装置的 3700
警察 3697
地位 3695
及其 3694
em 3688
协议会 3685
保守 3684
▁V 3683
呢 3683
舞台 3683
津贴 3682
谷 3682
事业的 3681
停车 3681
表明 3679
完 3676
短 3676
视为 3676
达到了 3676
威胁 3673
展开了 3671
症 3671
创意 3670
竞选 3665
面积 3662
例 3660
中心的 3659
偿还 3659
十 3653
便利 3647
同一 3647
来到 3646
接受了 3645
提供的 3643
v 3640
▁朴 3640
不知道 3638
动物 3637
退 3636
宝 3635
本发明 3629
前一天 3628
地方自治团体 3625
面临 3623
00 3622
方针 3619
松 3619
65 3618
情 3618
他们的 3616
活跃 3614
北 3613
弱势群体 3609
血 3608
罪 3606
分享 3604
木 3604
明确 3603
越南 3602
道知事 3602
防 3600
兰 3599
环保 3598
功率 3597
us 3594
开关 3592
建筑物 3590
气体 3590
表演 3587
焕 3586
ed 3582
一名 3580
▁关于 3579
混合 3577
自行 3577
概念 3576
意义 3575
准 3574
现 3574
计算机 3574
法院 3569
的地区 3568
顺 3568
功能的 3566
大幅 3566
天的 3566
庆典 3566
不到 3565
民主 3565
理事 3558
电源 3556
解除 3556
语言 3551
致力于 3547
呼叫 3546
徐 3545
朋友 3545
引领 3543
树 3541
配送 3541
找到 3538
ad 3535
产业的 3534
▁预计 3533
普及 3529
更多的 3528
旧 3525
单位 3524
48 3523
绿色 3521
担保 3520
不仅是 3519
告知 3519
的机会 3519
▁包括 3517
的故事 3516
大的 3515
没 3515
无人机 3514
的研究 3511
士 3502
▁现在 3501
癌症 3500
在野党 3495
前往 3494
孙 3492
图书馆 3491
的工作 3491
人才 3488
日期 3486
比例代表 3486
许多 3486
结构调整 3485
异常 3484
胜 3481
的李 3480
尚 3479
的第 3477
碳 3477
克服 3475
分类 3474
在中国 3473
处分 3471
皮肤 3466
去除 3464
TV 3463
扩大到 3463
权利 3463
脑 3463
的事项 3462
眼 3462
大家 3458
关闭 3456
难 3456
公开的 3454
新冠病毒 3453
宽 3448
物的 3446
批评 3444
电流 3441
训练 3441
几乎 3440
更多 3440
补充 3439
解雇 3439
解 3438
话 3435
PC 3434
候选人的 3434
开设 3434
语音 3434
信息的 3433
会的 3432
层的 3431
珠 3429
▁例如 3427
直到 3423
销售的 3423
席 3422
疫苗 3422
维 3417
酒店 3417
外国 3416
缺陷 3416
一家 3415
升 3415
乙 3410
校 3409
等待 3409
男性 3408
产生的 3406
日的 3405
记者 3405
选拔 3404
打开 3403
满 3403
利息 3401
夫 3398
抑制 3398
昌 3397
卖场 3396
权的 3396
起到 3395
视 3393
il 3389
驾驶员 3389
劳动者的 3387
量的 3380
托 3379
刘 3378
展现 3377
加速 3375
第二次 3375
监视 3374
400 3373
仁川 3373
辞职 3373
雇用 3372
黄代表 3372
盖 3370
角 3370
▁本月 3368
的价格 3367
端 3361
教室 3357
协助 3356
LED 3354
▁而且 3351
总部 3348
首尔特别市 3347
捐赠 3346
现状 3346
的生活 3344
上月 3342
乘坐 3342
还没有 3342
4. 3339
反而 3338
申请书 3335
荣 3334
▁起亚汽车 3332
更新 3332
3000 3328
线的 3325
年龄 3324
超越 3323
嫌疑 3322
的意见 3322
人口 3321
清洁 3320
香 3320
装备 3319
集体 3317
儿 3316
您 3316
普 3316
社 3316
轻 3316
管制 3315
户 3314
围绕 3311
的安全 3311
正义党 3310
展示了 3308
检察机关 3308
范围内 3304
问 3304
冲击 3303
英语 3301
un 3300
下列各项 3296
未来统合党 3296
远 3296
转换为 3293
奇 3292
招聘 3291
架 3287
住 3286
原则 3286
过的 3286
使用了 3284
案件 3282
较 3281
我国 3279
并将 3278
孩子们 3277
党的 3276
立场 3275
OS 3274
休息 3274
终端 3274
制造商 3271
MS 3265
明显 3265
状 3264
心理 3263
部门的 3262
指 3259
鼓励 3254
手段 3249
远程 3246
纳米 3245
教育厅 3244
歌曲 3243
物流 3243
▁这种 3242
类似 3241
▁由 3234
韩国国内 3233
尖端 3232
体制 3230
刺激 3228
速 3228
都在 3228
的不 3227
消极 3226
地球 3224
▁这些 3223
最后 3222
与否 3221
主题 3221
减 3221
结果显示 3221
▁2 3219
应当 3219
学院 3217
战争 3216
的理由 3216
回收 3215
攻击 3215
画面 3215
段 3213
神经 3213
设定 3213
差距 3212
z 3211
▁与此同时 3207
九 3207
生存 3207
39 3205
展 3205
推迟 3203
可能性 3202
医疗机构 3201
频率 3201
▁此后 3200
假 3199
田 3198
多岁 3197
火灾 3197
汉 3195
注意 3194
委任 3189
75 3188
就像 3188
强烈 3187
室内 3186
反复 3185
的核心 3178
os 3177
被选为 3177
避免 3176
下午 3175
实践 3174
直 3174
叶 3172
纸 3171
即可 3170
换 3170
乐天 3169
人事 3167
当局 3167
意识 3167
在今年 3166
开始了 3166
福特 3165
34 3164
容量 3164
脚 3164
接连 3163
缩短 3161
被认为是 3157
区的 3156
见面 3154
来自 3153
酸 3153
ra 3152
意 3152
江 3151
讲师 3150
ch 3148
运用 3148
雷 3148
上学 3146
承 3145
▁不 3144
个别 3144
发电 3144
诺 3141
冷 3138
占据 3137
多数 3137
互联网 3135
时的 3135
失败 3133
家人 3133
别 3132
雨 3132
保 3129
利润 3129
年末 3129
指示 3128
在没有 3125
广泛 3125
亲 3124
le 3123
食物 3121
公社 3120
优势 3118
办公室 3118
增加到 3116
旨在 3116
超过了 3115
劳资 3114
收到 3114
银行的 3114
公告 3113
子的 3112
的合作 3103
▁第 3102
卫生 3102
印度 3101
推 3101
外国人 3099
幼儿园 3099
是一个 3099
两人 3096
混乱 3096
沙 3095
承诺 3094
登场 3094
家电 3093
掉 3093
支撑 3093
来的 3092
消费者的 3090
组装 3090
联 3090
药物 3089
om 3087
精 3086
制造方法 3085
个人信息 3084
预 3084
本人 3083
um 3082
液 3082
中间 3079
瑞 3079
放弃 3077
年间 3075
尽快 3074
圣 3072
IC 3069
播放 3069
柱 3067
55 3066
涉及 3066
考试 3062
天线 3061
制定了 3060
公园 3059
发明 3057
的各种 3055
娱乐 3053
柴油 3053
食 3052
▁除了 3050
测定 3049
临床 3046
在国会 3046
允 3045
玻璃 3045
块 3044
建 3042
承认 3041
歌 3039
济州 3039
陷入 3039
自我 3036
根据第 3035
▁希望 3034
▁本 3034
以前 3034
护士 3034
3. 3033
积累 3031
re 3028
零 3028
商务 3027
流行 3027
日产 3026
的电 3025
者和 3025
轴 3023
▁他说 3022
事务 3022
im 3021
6. 3020
以便 3020
ent 3019
债务 3016
一天 3015
动作 3015
离开 3009
稳定的 3009
?" 3008
出身的 3008
飞 3008
吸收 3006
Naver 3004
罚款 3002
2014 2997
科学技术 2997
参选 2996
▁据调查 2995
怀疑 2994
废除 2993
成分 2993
盘 2991
之所以 2990
选区 2989
算法 2988
支出 2987
款的 2987
扩张 2981
处罚 2980
▁为此 2978
加工 2978
团队 2978
取得了 2975
大韩民国 2975
屏幕 2975
的社会 2975
的顾客 2975
的小 2974
预约 2974
收 2973
早 2971
是一种 2971
移动通信 2970
研究开发 2969
整理 2965
累计 2965
法国 2963
科技 2963
读 2963
ON 2958
京畿 2955
元件 2955
烈 2955
采用了 2955
并通过 2952
方便 2951
款规定 2950
2. 2949
兆 2946
硅 2945
进口车 2945
无需 2944
本部 2944
很高 2943
的经济 2942
的教育 2941
试 2941
艺 2940
内容的 2939
事先 2938
复杂 2937
燃料 2936
实现了 2935
构筑 2933
47 2932
堂 2932
49 2931
买 2930
庆南 2930
大企业 2929
字 2929
领取 2929
▁郑 2927
生活的 2927
框架 2926
母亲 2923
自主 2923
▁首尔 2922
这里 2922
保险公司 2919
变动 2919
党内 2916
很有可能 2916
春 2914
那里 2912
景 2911
的变化 2908
最低 2907
生成 2905
言 2904
停 2901
很多人 2901
银 2900
年前 2899
▁还 2895
哈 2894
继承 2894
引擎 2892
▁请 2890
能量 2890
我们将 2889
准备了 2887
and 2886
es 2885
运 2885
授课 2882
▁c 2880
ay 2879
任务 2879
委 2879
ol 2877
兼 2877
库 2876
蔚山 2876
ro 2874
卢 2874
项目的 2873
失 2872
投 2869
草 2869
底 2867
详细 2867
零件 2867
恶 2866
YouTube 2865
史 2864
奖金 2864
珍 2862
官方 2861
150 2860
下半年 2860
倒 2860
下调 2859
平时 2858
是从 2858
谁 2858
过度 2857
SW 2855
东西 2855
通常 2855
各自 2854
培训 2854
切 2853
▁KT 2852
信用 2852
开始的 2852
机的 2852
相机 2852
彻底 2850
电动 2850
日宣布 2849
疑惑 2849
舞蹈 2849
国立 2847
领导 2845
▁三星 2844
完成了 2844
是不 2843
集会 2843
医学 2841
在一起 2841
旭 2840
都可以 2840
▁10 2839
抗 2838
国家的 2837
联盟 2837
事态 2835
排放 2835
转移 2835
八 2833
巨大的 2833
前的 2832
妍 2830
并于 2830
奎 2829
流入 2829
颜色 2828
也很 2825
坚持 2825
餐厅 2822
箱 2821
推测 2820
准确 2818
基因 2817
▁被 2816
指标 2816
赔偿 2813
的声音 2812
肉 2811
用户的 2809
33 2807
发光 2806
相关法律 2805
加密货币 2803
治疗剂 2803
邑 2803
小组 2802
青 2802
新型冠状病毒感染症 2800
,000 2799
父亲 2799
▁X 2798
制造业 2797
觉得 2797
议长 2797
技术开发 2796
酒 2794
骨 2794
适当 2793
▁5 2791
作家 2790
部和 2788
分散 2785
设 2785
面的 2783
与其他 2782
46 2781
激活 2781
的发展 2780
等地 2778
IS 2777
卖 2777
本部长 2777
理论 2777
车辆的 2777
会上 2776
股市 2774
▁大 2773
参考 2772
自身 2771
的销售 2770
大学医院 2768
上调 2767
振兴 2767
汽油 2767
顺利 2767
左右的 2764
提案 2759
重复 2757
▁当然 2755
缓解 2755
32 2751
环 2749
必要 2748
预定 2747
制的 2745
年轻 2743
夜 2742
存款 2742
2010 2741
为主 2741
as 2740
认识 2740
ur 2739
无人驾驶 2739
至少 2738
将对 2737
的立场 2737
活 2736
op 2734
因此可以 2734
牛 2734
▁国内 2733
夏 2733
▁再加上 2731
双龙汽车 2731
老师 2729
正未来党 2728
粉丝 2725
明星 2724
查询 2724
娜 2722
聚 2722
统合 2721
中小 2720
康 2719
便 2718
取 2718
多人 2718
迪 2718
情况下 2716
寺 2709
还要 2709
雪 2709
许 2708
2008 2707
相同的 2705
曹国 2704
魅力 2704
认可 2702
创建 2699
者们 2698
飞机 2697
也被 2694
孝 2694
庆北 2694
安排 2693
韩流 2693
亚马逊 2692
思考 2691
振 2691
短期 2691
犯 2690
维护 2690
2012 2689
转让 2689
造 2688
下的 2687
金融公司 2687
增大 2686
的国家 2686
破坏 2686
妈妈 2684
分子 2683
2013 2682
ri 2679
对方 2679
惠 2679
收益率 2679
背 2679
进步 2679
而被 2678
周边 2675
致 2674
通报 2673
引起了 2672
股东 2672
尚未 2671
数学 2671
患有 2670
MC 2669
▁4 2669
立法 2669
通过在 2669
50% 2668
支援金 2667
末 2667
模拟 2667
顺序 2666
会计 2664
应用于 2664
朝 2664
▁考虑到 2662
加热 2661
回归 2661
毫米 2660
上市的 2659
想法 2658
▁一 2657
应在 2657
文在寅总统 2657
选手 2657
2011 2655
土 2655
宇宙 2655
高速 2654
称为 2651
宗 2650
相信 2650
意味着 2648
表达 2648
贝 2648
技术和 2646
消防 2646
列 2645
强度 2644
相反 2644
相应 2644
,《 2643
99 2643
华为 2642
百 2642
,5 2641
七 2641
放电 2641
设有 2641
▁共同民主党 2639
指责 2637
讲 2637
讲座 2637
和韩国 2636
减免 2635
10% 2634
一定要 2634
储存 2634
的位置 2634
动向 2631
搭载 2630
订单 2627
上诉 2626
岩 2626
离 2623
此前 2622
叫 2621
名单 2621
海洋 2621
货 2621
那样 2621
江原道 2620
受害 2619
密 2619
失去 2618
结婚 2617
主体 2615
保存 2615
无论 2615
预备 2615
冷却 2614
SM 2613
冰 2613
最好 2613
体现 2612
区分 2612
高性能 2610
▁之后 2609
服装 2607
的使用 2605
达成协议 2604
发射 2603
物理 2602
负 2601
本校 2600
号格式 2599
的政策 2599
GM 2598
母 2598
纪念 2598
传送 2597
停车场 2595
指南 2595
补助金 2594
果 2593
人物 2592
失业 2592
注射 2590
塞 2589
仍 2586
痛苦 2586
相当 2586
是什么 2585
适应 2585
图案 2584
污染 2583
磁 2580
▁s 2579
合约 2579
好像 2579
缩小 2579
记 2579
安保 2578
做出贡献 2576
学生的 2575
改编 2574
离子 2574
路线 2574
尽 2573
多少 2572
学生们 2572
篇 2572
很大的 2571
氢气 2571
介绍了 2570
萨 2570
但如果 2568
较高的 2568
支 2567
植物 2567
男 2567
短信 2567
证据 2567
ap 2566
CEO 2565
演技 2565
常 2564
用作 2562
电气 2562
古 2560
衣 2560
起诉 2560
还会 2560
kakao 2559
的结构 2559
科长 2558
大多数 2557
关心 2556
2009 2555
月的 2552
高度 2551
客 2550
20% 2549
萎缩 2547
首席 2546
,19 2545
; 2545
所需 2545
细 2544
随时 2544
医疗院 2542
文总统 2541
尝试 2539
延迟 2539
再加上 2538
姆 2537
味 2535
在于 2535
插入 2534
自动驾驶 2534
追求 2534
为准 2533
庆 2532
在第 2531
笔 2531
的标准 2530
并进行 2529
主管 2528
一样的 2527
道歉 2527
池 2525
确诊 2524
也不会 2521
创业企业 2520
门户网站 2520
需 2520
工会成员 2518
菌 2518
▁道知事 2517
位的 2517
信任 2515
成了 2515
饭 2515
循环 2514
卡车 2513
打造 2512
保管 2511
演讲 2511
▁中国 2510
上映 2508
威 2507
为基准 2505
富 2505
管辖 2505
的事业 2504
不得不 2503
id 2501
医院的 2501
感情 2501
条款 2500
第四 2500
发掘 2499
条规定 2499
第一个 2499
▁自 2498
选民 2497
▁现代 2496
摆脱 2494
我认为 2493
有效地 2493
园区 2492
定为 2492
步 2492
▁O 2491
的项目 2491
进入了 2491
巨大 2489
盛 2489
两种 2488
生产的 2488
透明 2488
香港 2488
上班 2487
余 2486
警告 2486
一个月 2484
接到 2484
的系统 2484
越来越 2484
任期 2483
势 2483
弹 2483
往 2483
论坛 2483
听到 2482
稳定性 2481
创 2480
首都圈 2479
轻松 2478
淑 2477
附加 2476
有机 2475
寿命 2473
选举法 2473
IN 2469
可以根据 2469
▁前 2468
森 2468
不得 2466
朱 2466
超级 2466
召回 2465
鲁 2465
数据的 2464
有助于 2464
新一代 2463
贞 2463
人和 2462
复合 2462
护理 2462
教会 2462
▁3 2460
ang 2458
志 2458
江南 2458
▁m 2456
智能工厂 2456
CO 2454
事前 2454
咖啡 2454
俄罗斯 2451
区长 2451
敦促 2451
英寸 2451
要素 2451
佛 2449
服 2447
.5 2445
势力 2445
ion 2442
的政治 2442
MBC 2439
激光 2439
振动 2438
公共机关 2437
大赛 2437
▁本发明是 2436
思 2436
▁利用 2435
日之前 2435
的形式 2435
实施的 2434
了对 2433
的要求 2432
唱 2431
报告书 2431
晶片 2431
POP 2430
舆论 2430
30% 2429
照明 2429
礼 2429
端子 2428
营业利润 2428
长官 2427
不良 2425
将被 2425
的投资 2425
是将 2423
游 2423
地址 2422
St 2421
积分 2421
修 2420
导 2419
最新 2419
转移到 2419
为了让 2418
增 2418
Facebook 2417
脸 2417
快速通道 2416
经费 2416
大韩 2414
雄 2414
洛 2413
仁川广域市 2412
厚 2412
无关 2412
疼痛 2412
范 2412
女儿 2411
研讨会 2411
的车辆 2410
从事 2408
有所 2407
奥迪 2406
理 2406
提 2404
货币 2403
发现了 2401
例如 2400
归 2400
强制 2399
KBS 2398
器和 2398
情绪 2398
突破 2398
惩戒 2397
月末 2397
博士 2396
天气 2396
的中 2395
伤 2394
关 2393
发表的 2393
发言人 2393
收取 2393
玉 2393
的移动 2393
镜 2393
低于 2391
另外 2390
赛车 2390
名称 2389
必要的 2389
奖励 2388
晚上 2388
和平 2387
线上 2387
折扣 2386
石油 2384
索 2384
索纳塔 2384
套 2383
探索 2381
部长官 2381
批判 2379
双方 2378
纯 2378
丈夫 2377
诗 2377
氧化 2376
没能 2376
会有 2375
到的 2375
援助 2374
圭 2373
梦想 2373
交易所 2372
正面 2369
的设计 2369
通用 2369
x 2368
曼 2367
私 2367
优点 2365
倾向 2365
ia 2363
专辑 2363
排名 2363
蒂 2363
被告人 2362
年后 2361
采访 2361
附件第 2361
KB 2360
莱 2360
企业和 2359
吸引了 2359
玩 2359
名的 2358
减轻 2356
法的 2356
▁I 2354
性质 2354
某的 2354
安全性 2353
游客 2353
周末 2352
回到 2352
予以 2351
照 2351
从今年 2350
会议上 2350
温 2349
瞬间 2349
制裁 2348
勒 2348
两次 2347
切断 2347
变成 2346
下月 2345
的电影 2343
编码 2342
降 2342
j 2341
知 2341
能力的 2341
并向 2339
连接到 2337
持有 2336
引 2335
标志 2335
区民 2332
升级 2332
养 2331
雷诺三星 2331
里的 2330
间的 2330
出现的 2328
劳 2328
岁的 2328
引发了 2327
本田 2327
触 2327
数的 2326
断 2325
船舶 2324
缺乏 2322
瓦 2320
含有 2319
校长 2317
聚集 2315
兴趣 2314
版本 2312
用的 2312
地下 2310
天内 2309
突出 2308
上了 2307
野 2307
销 2307
痛 2305
澳大利亚 2304
损坏 2303
模 2303
认知 2301
不便 2300
最小化 2299
确认了 2298
面板 2298
议员的 2297
噪音 2296
家族 2295
接种 2293
的水 2293
', 2292
▁本方案涉及 2292
呈现 2292
及其制造方法 2291
读书 2290
合理 2289
等方面 2289
呼吸 2288
灵 2288
包装 2286
氛围 2286
通过与 2286
"2019 2285
▁p 2285
延 2284
机场 2284
的有 2282
万美元 2281
击 2281
斗 2281
算 2281
儿子 2280
感的 2280
家的 2279
拿 2279
借 2278
发出 2278
的规定 2278
转向 2278
金融监督院 2278
一边 2277
产生了 2275
点的 2275
在去年 2274
oo 2273
系统中 2273
通话 2273
饮食 2273
乘客 2272
地说 2270
故障 2270
效 2270
AT 2269
态度 2269
退休 2269
圆 2268
是不是 2268
认定 2268
▁就 2267
休假 2267
特征 2267
墙 2266
记载 2266
良好 2264
600 2262
学会 2261
all 2259
梁 2259
园 2257
联合会 2257
"、 2254
监控 2253
配件 2253
100% 2251
AP 2251
one 2250
加上 2250
商店 2250
成立了 2250
担忧 2250
餐 2250
变化的 2249
为什么 2247
结构的 2247
贴 2246
云计算 2244
做出了 2244
出入 2244
参观 2243
增强 2243
季度 2243
它们 2243
影 2243
决议 2242
赋予 2242
品质 2241
对决 2241
派遣 2241
流动 2241
等各种 2241
ID 2240
加快 2240
拥有的 2239
杰 2239
局长 2238
章 2238
蚀刻 2238
▁b 2237
健康保险 2237
改 2237
的功能 2237
便利性 2236
修订 2236
省 2236
生态系统 2235
著名 2235
电池的 2234
电视台 2232
自动化 2231
的特性 2230
线下 2230
年为止 2229
播出 2227
的世界 2227
苏 2227
即使在 2225
计划通过 2225
届国会 2224
疾病管理本部 2224
受理 2221
就要 2221
订购 2221
人权 2220
电动机 2220
警方 2220
感谢 2219
按钮 2219
眼睛 2219
使用费 2218
劳务 2218
持 2218
规模的 2218
紧张 2217
,3 2216
吸引了人们的视线 2216
求 2216
规制 2216
进行调查 2216
薄 2215
CP 2214
地图 2214
形状 2214
ig 2213
三个 2213
炳 2213
都有 2212
▁韩国党 2210
了在 2210
兵 2210
和管理 2210
尺寸 2210
薄膜 2210
虚假 2209
时候 2208
暴露 2207
沃尔沃 2207
ut 2206
ST 2205
虚拟 2205
混合动力车 2204
兴 2202
居 2201
所属的 2201
替代 2201
的主 2201
IoT 2200
交涉 2200
伤害 2200
妨碍 2199
感受到 2199
一致 2197
工作人员 2197
文章 2197
肯定 2197
起到了 2197
开始就 2196
月在 2196
健康的 2194
的家庭 2194
菜 2194
赠送 2192
的需求 2191
▁然而 2190
背景 2189
绝对 2188
排除 2186
呈 2185
截至 2185
预备候选人 2185
发热 2182
指挥 2182
接触者 2182
的第一 2182
条规定的 2181
真正 2180
确保了 2180
亨 2179
放在 2178
日在首尔 2178
那个 2178
创下了 2177
的网络 2177
肺炎 2177
垫 2176
好奇 2176
作业 2175
原子 2175
AM 2174
▁韩 2174
到达 2174
一直在 2172
伦 2172
使得 2172
刻 2171
▁所以 2170
公司和 2170
开发了 2169
观 2169
受害者 2168
桥 2166
爱情 2166
的公司 2165
增长率 2164
论文 2164
ER 2163
支援事业 2163
跟 2163
真实 2162
今年的 2161
时间的 2161
ab 2160
强调说 2160
款规定的 2160
出道 2159
税金 2159
耳 2159
上传 2157
人在 2157
祭 2155
议员们 2155
刑 2154
并表示 2154
晶圆 2153
还在 2152
都没有 2152
完善 2150
丽 2149
塑料 2149
总裁 2148
众多 2147
各个 2147
店铺 2147
搭载了 2147
卫星 2146
夫妇 2145
的消息 2145
监察 2145
85 2144
打击 2143
盐 2142
招募 2141
用途 2139
精密 2139
为期 2138
移 2138
预告 2137
既 2135
增进 2134
异 2134
施工 2134
财务 2134
附表 2134
宰 2133
秘密 2133
粉丝们 2133
角度 2131
跳 2129
伯 2128
的水平 2128
▁结果 2127
容 2127
杆 2127
穿 2127
的过程 2126
监查 2126
纤维 2126
▁首尔市 2125
妻子 2125
ine 2124
微生物 2124
网站上 2124
新产品 2121
脱 2120
阵容 2120
ip 2119
地进行 2119
导航 2119
演 2118
的人气 2118
▁继 2116
大小 2116
周期 2114
形成的 2114
重量 2114
OLED 2112
设施的 2112
响应 2110
当初 2110
总理 2110
雷诺 2109
的半导体 2108
行使 2108
68 2106
听取 2106
免疫 2105
不需要 2104
个月的 2104
正确的 2104
课 2104
》( 2103
性别 2102
地区社会 2101
泽 2101
绝缘 2101
重大 2101
出资 2099
采取了 2099
武 2098
散 2097
政权 2096
服用 2096
研发 2096
纽约 2096
剧增 2095
贡献 2094
art 2093
丰富 2093
守护 2093
空调 2093
▁使用 2089
填写 2089
的光 2089
大幅增加 2088
号码 2087
个体户 2086
64 2085
拍 2085
消耗 2082
若 2082
形成了 2081
种类 2081
给了 2081
上半年 2080
的调查 2080
迷 2079
▁演员 2077
计 2077
复 2076
希 2076
毛 2076
便携式 2075
用品 2075
的增加 2075
要想 2074
和金 2073
款第 2073
视觉 2073
不仅可以 2072
北朝鲜 2071
约为 2071
顶 2071
od 2070
▁高 2070
坐 2070
日常 2070
雪佛兰 2070
为了防止 2068
流感 2068
上午 2067
提取 2067
汽车公司 2067
减小 2066
开发出了 2066
弱 2066
为目的 2065
苦恼 2065
然 2064
将进行 2063
干事 2063
欢迎 2063
示威 2063
出身 2062
呈现出 2062
他还 2061
混合动力 2060
副会长 2058
导致的 2058
广 2057
整车 2057
材料的 2056
商用化 2054
毫无 2054
灿 2053
舒适 2053
下来 2050
摄像头 2050
都能 2050
67 2048
ES 2048
等相关 2048
追踪 2048
▁J 2047
脱离 2047
获得的 2047
1% 2045
不正当 2045
实力 2045
病房 2045
饰演 2045
下载 2044
事业者 2044
工作时间 2044
日公布 2042
杯 2042
莫 2042
选出 2042
部件 2042
更大 2041
细菌 2040
分析说 2039
存 2039
美术 2039
不可 2038
77 2037
习惯 2037
湿 2037
! 2036
高端 2036
日到 2035
的公 2035
的危险 2035
纷纷 2035
营养 2035
达成 2035
丝 2034
目 2034
研究员 2034
露 2034
标 2033
生的 2033
的扩散 2033
台湾 2032
时代的 2030
方向盘 2029
为契机 2028
至今 2028
附近的 2028
万个 2026
依据 2026
就任 2026
提问 2026
某在 2026
偏 2025
治愈 2024
同样的 2023
大田 2023
")。 2021
有些 2021
燃料电池 2020
举 2019
出生 2019
并提供 2019
料 2019
为目标 2018
会出现 2018
合作伙伴 2018
CJ 2017
约定 2017
营造 2017
MO 2016
名字 2016
介入 2015
可在 2015
整 2015
出院 2014
主动 2013
宗教 2013
冬季 2011
安全的 2011
下个月 2010
协调 2010
梅赛德斯 2010
DC 2009
严重的 2009
供给 2009
权力 2009
的基础 2009
长时间 2009
大奖 2006
狗 2006
理事长 2006
的电子 2006
The 2005
值得 2005
带来了 2005
的生产 2004
获取 2004
▁有人指出 2003
查 2003
参与的 2002
个小时 2001
工会的 2000
那些 2000
的代表 1999
和运营 1998
在不 1998
暴力 1998
添加 1998
证券公司 1998
信息技术 1995
真空 1995
宪 1994
尊重 1994
明细 1994
留下 1994
li 1993
▁除此之外 1993
加盟店 1993
公团 1992
直播 1992
争论 1990
刹车 1990
水平的 1990
韩国公司 1990
命 1989
喜 1989
ag 1988
每次 1988
注入 1988
街 1987
耐 1986
显示屏 1984
的两 1984
▁本发明涉及一种用于 1983
不可能 1983
勇 1983
金的 1983
实务 1982
痴呆症 1982
糖 1982
联动 1982
初中 1981
化妆品 1981
强调了 1981
发病 1980
急剧 1980
最高委员 1980
▁8 1978
活动中 1978
曝光 1976
欧 1973
电缆 1973
电阻 1973
词 1972
检察官 1971
的运营 1971
遭受 1969
com 1968
挖掘 1968
来提高 1968
的可 1968
糖尿病 1968
节目中 1968
飞行 1968
不安 1967
卷 1967
无人 1967
血液 1967
评论 1967
也表示 1966
扩展 1966
▁本方案 1965
被确诊 1965
入境 1964
北美 1964
心脏 1964
劳资双方 1963
紧 1963
重建 1963
也不能 1962
度过 1962
政界 1961
的相关 1960
权限 1959
平衡 1958
根本 1958
森林 1958
面貌 1958
的作品 1957
终端机 1957
互相 1956
局面 1953
正在增加 1953
软 1953
部分的 1953
的状态 1952
国民的 1951
建立了 1950
CES 1949
率为 1949
预防接种 1948
和新 1947
法令 1947
审 1946
流行病学调查 1946
通用汽车 1946
的措施 1945
跑 1945
ity 1944
名为 1944
车身 1943
多样的 1942
室长 1942
被指定为 1942
规格 1942
GS 1941
ation 1941
优 1941
聘用 1941
唯一 1940
培育 1940
无效 1940
国产 1939
在全国 1939
展望 1939
案例 1939
简单的 1939
蓝 1939
的意义 1938
等问题 1938
多次 1937
大选 1937
现任 1936
装饰 1936
成绩 1935
的心 1935
郡守 1934
次数 1933
肌肉 1933
集成 1932
专 1931
可以使用 1931
药品 1931
表明了 1931
合成 1930
损害 1930
比去年 1930
率的 1930
名患者 1929
的时期 1929
▁不仅是 1927
严 1927
iPhone 1926
梅 1925
的游戏 1925
窗口 1925
汇 1924
牙 1924
真相 1924
路径 1923
EN 1922
护 1922
友 1921
反射 1920
遗憾 1920
78 1919
▁要 1919
集体感染 1919
党代表 1918
反映了 1918
届议会选举 1918
黄金 1918
44 1917
制动 1917
炎 1917
陈 1916
家属 1915
方面的 1915
▁最终 1914
参 1914
喝 1913
看起来 1913
置 1913
配 1913
信号的 1912
早期 1912
氧 1912
galaxy 1910
公正 1910
胜利 1910
冲突 1909
领先 1909
较高 1908
灵活 1907
净 1906
迎来 1906
2007 1905
▁用 1905
的视频 1905
组长 1905
下去 1904
滑 1904
灾害 1903
▁据说 1902
▁本校 1902
的目标 1902
军队 1901
广场 1901
相结合 1901
也有可能 1900
其余 1900
在与 1900
经销商 1900
施行 1899
错 1899
删除 1898
另一个 1898
通过此次 1898
金融机构 1898
获奖 1897
赞助 1897
AN 1896
创作 1896
多家 1896
泰国 1896
粉 1896
选举中 1896
▁市长 1895
必要时 1895
改为 1895
的最大 1895
居住在 1894
保留 1893
修订案 1893
领 1891
ul 1890
严格 1890
入住 1890
和高 1890
等主要 1889
的基本 1888
ter 1887
保时捷 1887
单一 1887
基站 1887
存储器 1886
雇佣劳动部 1886
顾客的 1886
可靠性 1885
开学 1885
潮 1885
的重要 1885
均衡 1883
动摇 1882
守 1882
虫 1882
ex 1881
控 1881
的全 1881
预期 1881
二氧化碳 1880
待遇 1880
变形 1879
乱 1878
入驻 1878
在此次 1878
埃 1878
▁日本 1877
NC 1876
信访 1876
更大的 1876
特性的 1876
公约 1875
日通过 1875
演唱会 1875
的原 1875
槽 1874
配合 1874
业务的 1873
数值 1873
▁今后 1871
是对 1870
冰箱 1869
各国 1869
留 1869
针 1868
横 1867
陈述 1867
分布 1866
同步 1866
总是 1866
员的 1864
所有的 1864
真的 1864
季节 1863
年金 1863
的外 1863
的法律 1863
的环境 1863
补助 1862
的趋势 1861
覆盖 1861
ers 1860
亏损 1860
由此 1860
全体会议 1859
意志 1859
文化艺术 1859
烟 1859
艺人 1859
,4 1858
iz 1858
事件的 1858
厂 1858
提升 1858
记忆 1858
铁路 1858
以下的 1857
实习 1857
俱乐部 1856
很容易 1854
非常重要 1854
在该 1853
激烈 1852
静 1852
翻 1850
型号 1848
座椅 1847
铜 1846
° 1845
代表性 1845
券 1845
管理系统 1845
一位 1844
新天地 1843
▁事实上 1842
日为止 1842
渠道 1839
IM 1838
丹 1838
当天上午 1838
道德 1838
到目前为止 1837
化和 1837
本公司 1837
58 1836
铉 1835
创立 1834
良好的 1834
个月内 1833
日益 1833
AC 1832
救 1832
场面 1831
小的 1831
杨 1831
舞 1830
损伤 1828
杂志 1828
流动性 1828
世宗 1827
干部 1827
2021 1826
政府和 1826
医疗人员 1825
融资 1825
1, 1824
一半 1824
结束了 1824
CC 1823
下跌 1823
劝告 1823
链 1823
69 1822
一点 1822
会在 1822
协议体 1822
左 1822
困难的 1821
自行车 1821
劳动界 1820
峰 1820
废 1820
益 1820
可以将 1819
地铁 1819
对韩国 1819
延期 1819
摄像机 1817
效应 1817
教育监 1817
优秀的 1816
使其 1816
板的 1815
特斯拉 1815
有人指出 1814
赞成 1814
音响 1814
AS 1812
▁除 1812
出发 1812
周年 1812
的全球 1812
的对象 1811
苦 1811
年在 1810
教育课程 1809
正在推进 1809
登 1809
盒 1809
风格 1809
接受治疗 1808
都要 1808
垂直 1807
退出 1807
收费 1806
顿 1806
2% 1805
平方米 1805
追 1805
59 1804
为主题 1804
咳嗽 1804
等原因 1804
患 1803
右 1802
议案 1802
问卷调查 1802
回忆 1801
战斗 1801
族 1801
的人物 1801
久 1800
EC 1799
定义 1799
矿 1799
私人 1799
为例 1798
的空间 1798
初创企业 1797
感性 1797
流量 1796
少数 1795
较低 1794
印 1793
自治 1793
贵 1793
部位 1792
呼吁 1791
管理人员 1791
ET 1790
抓住 1789
面对 1789
4000 1788
查看 1788
ell 1787
依次 1787
插 1787
特点 1787
职场 1787
表现出了 1787
集团的 1787
付 1786
参与了 1786
的未来 1786
壁 1785
巴西 1785
的关注 1785
的大型 1785
株 1784
号患者 1783
夹 1783
将推出 1783
民族 1783
站在 1783
完美 1782
氏 1782
DA 1780
准备的 1779
前后 1778
弹性 1778
笑 1778
的业务 1777
秋 1776
涉嫌 1775
家企业 1774
重点 1773
从去年 1771
数十 1771
最初 1771
的一部分 1771
的人员 1771
年里 1770
▁不仅 1769
的商品 1769
还计划 1769
首席执行官 1769
70% 1768
釜山市 1767
ge 1766
心的 1766
看着 1766
新增 1765
团结 1764
施加 1764
活力 1764
爆发 1764
线路 1764
艾 1764
修正案 1763
吸烟 1763
淡 1763
▁他还 1762
制药 1762
回避 1762
宪法 1762
敬 1762
▁7 1761
供 1761
感知 1759
为单位 1758
公交车 1758
杀 1758
的事件 1758
菲 1757
通信公司 1757
限 1757
NA 1756
公示 1756
副社长 1756
呼叫中心 1755
术 1755
120 1754
强烈的 1754
▁主要 1753
剧场 1753
情报 1752
与韩国 1751
供餐 1751
新冠肺炎的 1751
革命 1751
丁 1750
可以向 1749
性地 1749
新冠疫情 1749
有着 1749
去了 1748
在家 1748
综艺节目 1748
的后 1747
等共 1747
买卖 1746
仅为 1746
单纯 1746
意向 1746
秒 1746
脂肪 1746
得以 1745
浦 1745
等进行 1745
快递 1743
编 1743
公益 1742
好评 1742
全南 1741
交通事故 1740
哲学 1740
查明 1740
刀 1739
创业公司 1739
捐款 1739
42 1738
休 1738
剩余 1738
务 1738
地点 1738
很好 1738
设计的 1738
代表理事 1737
当选人 1735
岁以上 1734
独自 1734
祖 1734
合适 1733
的自 1733
▁釜山 1732
DI 1731
领导层 1731
洗 1730
私募基金 1729
人工 1728
活性 1728
ec 1727
受伤 1727
昌原 1727
阶层 1725
雷克萨斯 1725
宗旨 1724
的一环 1724
硕 1724
简化 1724
63 1723
中介 1723
名誉 1723
指定为 1723
适当的 1723
剩下的 1722
合作公司 1721
地的 1721
侧面 1719
处方 1719
扩充 1719
▁尽管 1718
中学 1718
印度尼西亚 1717
智能城市 1717
运转 1717
副作用 1716
喜爱 1716
太阳 1716
下降了 1714
事情 1714
印刷 1711
汇款 1711
播出的 1710
ong 1709
▁各 1707
截止到 1707
压缩 1706
时尚 1706
连接器 1706
键 1706
商品券 1705
文学 1705
肠 1705
te 1704
▁像 1704
日和 1704
文字 1703
并且可以 1701
前议员 1700
啊 1700
团长 1700
感兴趣 1700
抗议 1700
的现象 1700
轻易 1700
优化 1699
年初 1699
找 1699
未来韩国党 1699
到期 1697
本案 1697
热情 1697
燮 1697
▁双龙汽车 1696
第二天 1696
镐 1696
ac 1695
▁本发明的 1695
佳 1695
将提供 1695
料理 1695
ant 1694
害 1694
▁St 1693
的战略 1693
上下 1692
振兴院 1692
阅读 1692
停滞 1691
尾 1691
800 1690
修理 1690
加拿大 1690
新设 1690
的一位 1690
的非 1690
通讯 1690
的多 1689
66 1688
95 1688
之日起 1687
涉及一种 1687
逻辑 1687
误 1686
黑色 1686
的国内 1685
议会选举中 1685
粘 1684
金融科技 1684
为了提高 1683
光学 1682
携带 1682
数据库 1682
的开发 1682
一次性 1681
从业人员 1681
茶 1681
2006 1680
▁你 1679
倍以上 1679
可以进行 1679
一周 1678
的方向 1678
司法 1677
几乎没有 1676
现在的 1676
调查结果 1676
乡 1675
湖 1675
闵 1675
决 1674
出现在 1674
并将其 1674
2005 1673
博览会 1673
坏 1673
多的 1673
帕 1673
干燥 1673
疾病的 1673
临床试验 1672
博物馆 1672
更具体地 1672
要在 1672
世界上 1671
以下称 1671
低迷 1671
汽车产业 1671
绿 1671
厚度 1670
大脑 1670
更高 1670
出来的 1669
检查结果 1669
积极参与 1668
视线 1668
仪 1667
分割 1667
暗 1667
,2 1666
180 1666
GB 1666
泄露 1666
引进了 1665
易 1665
还表示 1665
麦 1665
家长们 1664
康复 1664
汽车制造商 1664
怎么 1663
运营商 1663
顾问 1663
吸 1662
样 1662
中型 1661
事实上 1661
的美国 1661
超市 1661
管理的 1660
▁就像 1659
在全球 1659
感染者 1659
支持率 1659
整顿 1659
腿 1659
乌 1658
太阳能 1658
得益于 1658
的市场 1658
通过了 1658
隆 1658
3% 1657
对象的 1657
彩 1657
方面表示 1657
港 1657
熟悉 1657
关税 1656
演奏 1656
集中在 1656
侵害 1655
的用户 1655
ir 1653
博 1653
的事 1653
▁第一 1652
发生变化 1652
音频 1652
强行 1651
数百 1651
树脂 1651
目前正在 1651
DS 1650
微型 1650
走向 1650
▁截至 1649
他人 1649
竣工 1649
被选定为 1649
▁1 1648
实验室 1648
的速度 1648
▁AI 1646
有效的 1646
舍 1646
释放 1646
交付 1645
免 1645
面前 1645
连带 1644
ib 1643
不受 1643
内置 1643
综艺 1643
屋 1642
拍卖 1642
普遍 1642
在日本 1641
诉 1641
想象 1640
慢 1640
的人们 1640
隔 1640
▁TV 1639
党员 1639
分数 1639
听证会 1639
在网上 1639
如果在 1638
幅度 1638
支援对象 1638
满意度 1638
的优点 1638
ver 1637
▁青瓦台 1637
显 1637
的韩 1637
▁上个月 1636
▁没有 1636
停业 1636
我想 1636
iphone 1635
混 1635
_ 1634
新技术 1634
ix 1633
厘米 1633
一代 1632
主席 1632
接着 1631
议 1631
co 1630
原本 1630
治 1630
ow 1629
和李 1629
法定 1629
的热 1629
模特 1628
浓度 1628
氧气 1627
铝 1627
▁之前 1626
下了 1626
发行的 1626
大学教授 1626
应用软件 1626
SBS 1625
播 1625
重组 1625
间接 1625
投资的 1624
原理 1623
晶 1623
的三 1623
研修 1621
谈判 1621
将达到 1619
毒 1619
不满 1618
冠军 1618
选择了 1618
一切 1617
东南亚 1616
和其他 1616
总管 1616
安心 1615
焦点 1615
讲述 1614
一事 1613
部门负责人 1613
教育的 1612
西班牙 1612
▁有人 1611
的劳动 1611
车道 1611
43 1610
构造 1609
蛋白质 1609
备 1608
裴 1608
计划将 1608
▁像这样 1607
传递 1607
虚 1607
微软 1606
息 1606
▁工会 1605
休闲 1605
币 1605
的关系 1605
纠纷 1605
能够在 1605
计划以 1605
▁公司 1604
总公司 1604
日常生活 1604
残疾 1604
确实 1604
信息通信 1603
导电 1603
弗 1603
汽车零部件 1603
57 1602
ob 1602
公平 1602
副委员长 1602
密封 1601
生产线 1601
共同体 1600
病床 1600
登录 1600
编辑 1600
保险金 1599
可能是 1599
外汇 1599
洞的 1599
而在 1599
如果不 1598
审议委员会 1598
总经理 1597
望 1596
的人工智能 1596
参加的 1595
议席 1595
温暖 1594
的工资 1594
而言 1594
不管 1593
中表示 1593
夏季 1593
慢性 1593
什么样的 1592
伦理 1592
膜的 1592
提及 1591
整合 1591
经济的 1591
地面 1590
常务 1590
感动 1590
新加坡 1590
碑 1590
陶瓷 1590
▁尹 1589
商标 1589
指定的 1588
历 1587
绝 1587
变为 1586
可以用 1586
喷 1586
忠 1586
方法的 1586
费的 1586
▁d 1585
愤怒 1585
PS 1584
彬 1584
有限 1584
生长 1584
车展 1584
提供一种 1583
易于 1583
▁委员会 1582
跑车 1582
辛 1582
面向 1582
提到 1581
服务中心 1581
学校的 1580
▁9 1579
欲 1579
的场面 1579
美容 1579
产量 1578
制造的 1578
季 1578
就有 1577
的意志 1577
自杀 1577
ate 1576
是一 1576
材 1576
窗 1576
音源 1576
垃圾 1575
收益性 1575
所在 1574
EV 1573
基金的 1573
改进 1573
▁崔 1572
当事人 1571
量子 1571
凭借 1570
弯曲 1570
条之 1570
▁本方案涉及一种 1569
入学 1569
及时 1568
年来 1568
是为 1568
生态 1568
转换成 1568
人体 1567
名义 1567
逆 1567
驾驶者 1567
济州岛 1565
社会福利 1565
量产 1565
礼物 1564
1.5 1563
开拓 1563
开设了 1563
系统和 1563
ill 1562
教育部 1562
的新车 1562
访问了 1562
NAVER 1561
▁全 1561
起了 1561
力和 1560
太阳能电池 1560
税收 1560
肥胖 1560
高速公路 1560
TS 1559
▁向 1559
▁警方 1558
所谓的 1558
施 1558
的主张 1558
组件 1558
面试 1558
彼此 1556
遵循 1556
中立 1555
并为 1555
无限 1555
79 1554
LE 1554
▁仅 1554
专门企业 1554
年底 1554
肝 1554
警报 1554
以此 1553
出台 1553
出版 1553
待 1553
无线通信 1553
检 1553
终于 1553
的条件 1552
的计划 1552
cc 1551
区间 1551
工人的 1551
选举运动 1551
众 1550
激增 1550
编制 1550
倾斜 1549
汽车市场 1549
碰撞 1549
谈 1549
均匀 1548
市场占有率 1548
疗养 1548
警 1548
CE 1547
▁最后 1546
变数 1546
粒子 1546
naver 1545
▁即 1545
热潮 1545
颗粒 1545
器件 1544
性骚扰 1544
BC 1543
地上 1543
音乐剧 1543
汇率 1542
2004 1541
不已 1541
了很多 1541
清州 1541
▁Z 1540
大法院 1540
展示会 1540
年以后 1540
有线 1540
崩溃 1539
摄取 1539
的演员 1539
阳性 1539
冲 1538
插座 1538
支付的 1538
有利 1538
身上 1538
从未 1537
排气 1537
道内 1537
支援中心 1535
桌 1535
将向 1534
PD 1533
农协 1533
尿 1533
出席了 1532
噪声 1532
摄影 1532
歧视 1532
天堂 1531
的特 1531
之前的 1530
发展的 1530
标记 1530
涂 1530
推进的 1529
目的是 1529
纪录 1529
附属 1528
预算案 1528
之中 1527
处的 1527
建造 1527
消毒 1526
In 1525
依然 1525
地区居民 1525
爆炸 1525
▁f 1524
尽管 1524
节点 1524
蒙 1523
主办 1522
告 1522
束 1522
缺 1522
老年人 1522
职员们 1522
艰难 1522
都不 1522
41 1521
栅极 1521
安装了 1520
开业 1520
独 1520
评价说 1520
浮 1519
夏天 1518
有趣 1518
气候变化 1518
燃油效率 1518
翻译 1518
陆续 1518
ics 1517
棒 1517
费等 1517
前途 1516
库存 1516
忠南 1516
怎样的 1516
的决定 1516
级别 1516
刚 1515
潜在 1515
班级 1515
知识产权 1514
秘书官 1514
元素 1513
将把 1513
戴 1513
,1 1512
ist 1512
储蓄银行 1512
禹 1512
阵营 1512
忧虑 1511
根据本发明 1511
节约 1511
频 1511
因此在 1510
▁原告 1509
多岁的 1509
提交了 1509
职位 1509
ive 1508
会馆 1508
日晚 1508
春节 1508
人生 1507
日播出的 1507
但随着 1506
关系的 1506
活性化 1506
破产 1506
积 1506
250 1505
中国的 1505
在世界 1505
愿 1505
▁业界 1504
▁本发明的目的是提供一种 1504
国防 1504
家公司 1504
汽车保险 1504
这是因为 1504
违法 1504
衣服 1503
鸡 1503
87 1502
ce 1502
当天的 1502
最大限度地 1502
汤 1502
诸如 1502
2022 1501
OR 1501
人们对 1501
应根据 1501
气氛 1501
甜 1501
移植 1501
了与 1500
的对 1500
研究组 1500
移动通信终端 1500
议员在 1500
睡眠 1499
健康管理 1498
▁是 1497
对外 1497
相关人士解释说 1497
线圈 1497
的名字 1496
▁安 1495
律 1495
成人 1495
的车 1495
80% 1494
▁6 1494
洋 1494
的想法 1494
受托 1493
在海外 1493
基地 1493
航空公司 1493
观光 1493
处理器 1492
当天在 1492
无偿 1491
津 1491
美丽 1491
,7 1490
ard 1490
边缘 1490
▁未来统合党 1489
乳 1489
住宿 1489
寄生虫 1489
营 1489
oc 1487
农村 1487
学术 1487
美国的 1487
脸书 1487
mm 1486
资 1486
中也 1485
他说 1485
日举行的 1485
沉积 1485
外观 1484
物体 1484
的态度 1484
驳回 1484
个国家 1483
先进 1483
年轻人 1483
院内 1483
一部分 1482
时间和 1482
梦 1482
议员金 1482
EL 1481
ss 1481
加油 1481
好好 1481
相遇 1481
证明了 1481
▁t 1480
处理的 1480
感染的 1480
自信 1480
动态 1479
如果没有 1479
幅 1479
显示装置 1479
红色 1479
主持 1478
连接的 1478
age 1477
境 1477
雇用保险 1477
的照片 1476
自我隔离 1476
血管 1476
5% 1475
双重 1475
脆弱 1475
2002 1474
上看 1474
民主主义 1474
高于 1474
▁不仅如此 1473
含 1473
图书 1473
渊 1472
济 1471
TE 1470
录 1470
ry 1469
被确诊为 1469
不好 1468
主人公 1468
主办的 1467
曹 1467
辐射 1467
▁参加 1466
吨 1466
带着 1465
文在寅政府 1465
邮件 1465
▁Pay 1464
并以 1464
内需 1463
考 1463
汽车企业 1462
二次电池 1461
减少到 1461
大厦 1461
老年 1461
者中 1461
连任 1461
例子 1460
放宽 1460
政策的 1460
说是 1460
遗 1460
垄断 1459
的评价 1459
结核 1459
补 1459
马上 1458
LA 1457
▁京畿道 1457
医 1457
授予 1457
民主劳总 1457
等人 1457
设置了 1457
▁在韩国 1456
北京 1456
合法 1456
品牌的 1456
地震 1456
方式的 1456
勤 1455
工伤 1455
疫情 1455
码 1455
份 1454
动的 1454
电容器 1454
采购 1454
▁In 1453
传达了 1453
宠物 1453
宫 1453
急救 1453
代表表示 1452
偶像 1451
特例 1451
实施了 1450
▁这次 1449
云端 1449
润 1449
知事 1449
助 1448
是最 1448
袋 1448
1500 1447
以内 1447
当天下午 1447
非正式员工 1447
LO 1446
宁 1446
的支援 1446
重症 1446
▁正如 1445
事务所 1445
人们的 1445
寒 1445
获胜 1445
”。 1444
产业园区 1444
去世 1444
者等 1444
较大的 1444
LS 1443
几个 1442
改善了 1442
男女 1442
坐在 1441
疗养医院 1441
硬件 1441
税务 1441
88 1440
免除 1440
电线 1440
的歌曲 1440
霍 1440
中使用的 1439
协 1439
地方法院 1439
关键 1438
好转 1438
打算 1438
简 1438
韩语 1438
PA 1437
代码 1437
巨 1437
爸爸 1437
设计师 1437
过去的 1437
.8 1436
RO 1436
依照 1436
包括在 1436
密度 1436
愉快 1436
着手 1435
锁 1435
通过将 1434
重要的 1434
增至 1433
假期 1432
分裂 1432
得知 1432
诈骗 1431
随 1430
CR 1429
▁也 1429
工厂的 1429
款的规定 1429
的个人 1429
成长为 1428
是否有 1428
有害 1428
杂 1428
6000 1427
感应 1427
柴油发动机 1427
大学生 1425
购物中心 1425
阴 1425
▁被告 1424
丰富的 1424
人民 1424
浦项 1424
筹集 1424
豪华 1424
金融委员会 1424
强大的 1423
打破 1423
条的 1423
泄漏 1423
电影节 1423
下属 1422
密切 1422
沉 1422
的劳动者 1422
召开的 1421
折叠 1421
选举管理委员会 1421
估计 1420
恶劣 1420
TC 1419
密码 1419
结论 1419
▁乐天 1418
大宇 1418
留言 1418
下达 1417
感染病 1417
风险投资 1417
效力 1416
是韩国 1416
更好的 1416
申请人 1416
的特点是 1416
确诊病例 1416
突 1416
迷你 1416
套餐 1415
召开了 1414
父 1414
环境的 1414
示范 1414
制造企业 1413
前代表 1413
最早 1413
机构的 1413
的消费者 1413
笔记本电脑 1413
腐败 1413
▁过去 1412
信息通信技术 1412
忠北 1412
液体 1411
谴责 1411
额外 1411
,6 1410
健 1410
沈 1410
up 1409
之际 1409
占有率 1409
打印 1409
秩序 1409
设立了 1409
共鸣 1408
菜单 1408
象征 1408
一旦 1407
制定的 1407
旗舰 1407
暴跌 1407
长度 1407
床 1406
朗 1406
竞争力的 1406
讲述了 1406
为对象进行 1405
关节 1405
扬声器 1405
长期化 1405
▁只有 1404
▁那 1404
机关的 1404
送货 1404
LTE 1403
亮 1403
变得更加 1403
安哲秀 1403
样子 1403
游戏的 1403
董事长 1403
斯特 1402
法规 1402
监测 1402
占据了 1401
可以以 1401
意大利 1401
房子 1401
电解质 1401
行业的 1401
锂 1400
发布了 1399
钢铁 1399
准确地 1398
快乐 1398
敏感 1398
正式员工 1398
的电池 1398
内外 1397
安全管理 1397
检察改革 1397
今后将 1396
▁一位 1395
▁自由韩国党 1395
以外的 1395
日举行 1395
的价值 1395
航 1395
Ch 1394
培 1394
家里 1394
行长 1394
56 1393
一同 1393
一带 1393
信息化 1393
正义 1393
信赖 1392
扩大了 1392
疲劳 1392
▁这个 1391
剧本 1391
癌 1390
麻 1390
74 1389
是与 1389
细节 1389
质的 1389
▁汽车 1388
探 1388
武汉 1388
第二季度 1388
消化 1387
▁只要 1386
上海 1386
事业部 1386
停留在 1386
聚会 1386
顶级 1386
复制 1385
像素 1384
江陵 1384
决策 1383
巴士 1383
极端 1383
负债 1383
进行检查 1383
51 1382
ee 1382
优惠券 1382
暴涨 1382
赤字 1382
进展 1382
▁20 1381
于今年 1381
亭 1381
携手 1381
配备 1381
储蓄 1380
哥 1380
的名 1380
▁苹果 1379
信徒 1379
的力量 1379
"( 1378
方法和 1378
起亚 1378
ace 1377
在使用 1377
数据中心 1376
民生 1376
具体的 1375
成员们 1375
汗 1375
特有的 1375
62 1374
正在准备 1374
造船 1374
封装 1373
的健康 1373
等症状 1373
行驶距离 1373
仅限于 1372
到今年 1372
才是 1372
摆 1372
步行 1372
特别的 1372
硬 1372
纠正 1372
诞生 1372
镜头 1372
2003 1371
○○ 1371
会对 1371
加入了 1371
7000 1370
分解 1370
弹劾 1370
沃 1370
▁尽管如此 1369
变速器 1369
学年度 1369
▁Korea 1368
信用卡公司 1368
兄弟 1368
原材料 1368
的智能 1368
的股份 1368
▁金融监督院 1367
再生 1367
折 1367
的支持 1367
运动型多功能车 1367
,10 1366
墨西哥 1365
夜间 1365
网络的 1365
集中于 1365
井 1364
医药品 1364
合作的 1364
壳 1364
惯例 1364
配备了 1364
天然气 1363
学期 1363
第一位 1363
89 1362
凯 1362
号格式的 1362
国政 1362
富川 1362
支架 1362
无人驾驶汽车 1362
智慧 1362
的特殊 1362
炉 1361
越来越大 1361
▁第二 1360
是根据 1360
肺 1360
▁在此次 1359
节省 1359
分红 1358
同事 1358
支援的 1358
说明会 1358
韩元的 1358
急 1357
藏 1357
.7 1356
iv 1356
病例 1356
▁Naver 1355
前面 1355
新冠 1355
检方 1355
猫 1355
体重 1354
势头 1354
班主任 1354
观测 1354
提供给 1353
故 1353
法拉利 1353
采 1353
低价 1352
扫描 1352
陆 1352
EM 1351
佛教 1351
分别为 1351
的大小 1351
表示了 1351
钟路 1351
区别 1350
因此需要 1350
征税 1350
万台 1349
体验活动 1349
坡 1349
新型冠状病毒肺炎 1349
男子 1349
经营者 1349
ub 1348
大楼 1348
掩膜 1348
标签 1348
的时代 1348
诱导 1348
撤回 1347
书的 1346
决心 1346
在釜山 1346
清洗 1346
虚拟现实 1346
.9 1345
▁到目前为止 1345
可以提高 1345
可以获得 1345
在欧洲 1345
的中国 1345
降低了 1345
附 1344
余额 1343
增加的 1343
并对 1343
车展上 1343
较多 1343
实证 1342
接口 1342
方的 1342
胃 1342
UN 1341
app 1341
品种 1341
是利用 1341
本次 1341
特别委员会 1341
转变为 1341
84 1340
US 1340
▁赵 1340
扎 1340
湖南 1340
等离子体 1340
不用 1339
条的规定 1339
est 1338
两位 1338
▁11 1337
三大 1337
体积 1337
办公 1337
开发和 1337
假设 1336
厨房 1336
射 1336
成立的 1336
略 1336
观点 1336
ure 1335
幕 1335
签署了 1335
订阅 1335
诚 1335
匹配 1333
商品的 1333
拘留 1333
真正的 1333
移交 1333
讨论了 1333
催化剂 1332
感冒 1332
▁丰田 1331
。"" 1331
不再 1331
出面 1331
土壤 1331
报道说 1331
新韩 1331
满意 1331
百货商店 1331
签名 1331
被评价为 1331
ie 1330
安全气囊 1330
申请了 1330
受损 1329
度和 1329
油管 1329
票房 1329
书面 1328
很好的 1328
总罢工 1328
▁Pro 1327
和技术 1327
进化 1327
高价 1327
总会 1326
标准的 1326
画质 1326
第一季度 1326
表彰 1326
壮 1325
必须在 1325
的感觉 1325
轨道 1325
,9 1324
保育 1324
外的 1324
探测 1324
现任议员 1324
的医疗 1324
管的 1324
购 1324
原因是 1323
原料 1323
并运营 1323
现代汽车集团 1323
的销量 1323
感和 1322
为对象的 1320
商用车 1320
高达 1320
团的 1319
基准 1319
投标 1319
物价 1319
的东西 1319
科学家 1319
能够通过 1318
足 1318
86 1317
乘 1317
传染 1317
故意 1317
消 1317
的一个 1317
的制度 1317
的朴 1317
▁上述 1316
不少 1316
排列 1316
首尔大学 1316
▁按 1315
司 1315
宣言 1315
对抗 1315
性能和 1315
等其他 1315
事由 1314
仔细 1314
常任 1314
教育活动 1314
最多的 1314
这也是 1314
马来西亚 1313
DB 1312
▁这意味着 1312
在这种情况下 1312
奖学金 1312
弱势群体的 1312
滞纳 1312
ight 1311
江原 1311
金融投资 1311
屏 1310
白色 1310
的上 1310
寻求 1309
开发者 1309
规划 1309
便利店 1308
房价 1308
的装置 1308
供应商 1307
协同效应 1307
将获得 1307
、3 1306
凯迪拉克 1306
差别 1306
密集 1305
同样 1304
套装 1304
生产率 1304
绝食 1303
足球 1303
漏 1301
色的 1301
76 1300
OT 1300
下一代 1299
别人 1299
即使是 1299
思想 1299
座谈会 1298
延续 1298
投资证券 1298
蓝色 1298
须 1298
▁本发明的目的是 1297
出演的 1297
▁她 1296
的手 1296
屏蔽 1295
丙 1294
刷 1294
的重要性 1294
认真 1294
40% 1293
700 1293
少女 1293
江南区 1293
流程 1293
54 1292
▁黄代表 1292
不振 1292
便宜 1292
暴 1292
补充说 1292
钢 1292
一人 1291
国外 1291
豆 1291
赞 1291
废弃物 1290
的责任 1290
练习 1290
而产生的 1290
观众们 1290
股东大会 1289
▁该公司 1288
显著 1288
电子商务 1288
发达国家 1287
移动电话 1287
简便 1287
遗传 1287
53 1286
未来的 1286
电讯 1286
靠 1286
鞋 1286
ak 1285
做的 1285
医护人员 1285
新冠肺炎确诊患者 1285
驻 1285
军事 1284
恐惧 1284
燃烧 1284
的事故 1284
ark 1283
功 1283
开通 1283
的竞争 1283
辉 1283
话题 1282
误差 1282
较大 1282
味道 1281
程 1281
进行协商 1280
▁宝马 1279
丰 1279
器官 1279
90% 1278
农民 1278
外交 1278
的特别 1278
,199 1277
73 1277
饮料 1277
平台的 1276
新年 1276
管理和 1276
诉外 1276
批量生产 1275
因此很难 1274
婚 1274
撤销 1274
机器人的 1274
韩亚 1274
119 1273
一步 1273
切换 1273
判定 1273
多多 1273
始 1273
村庄 1273
性暴力 1272
新冠肺炎疫情 1272
最近在 1272
的多种 1272
酱 1272
陷入了 1272
CT 1271
秘书 1271
院的 1271
并且在 1270
检疫 1270
色彩 1270
▁计划 1269
侵犯 1269
并根据 1269
落选 1269
制度的 1268
的形象 1268
全北 1267
没有任何 1267
的音乐 1267
▁这里 1266
公斤 1266
展厅 1266
很好地 1266
的设备 1266
审计 1265
怀 1265
电视购物 1265
月初 1263
过滤 1263
预售 1263
龙仁 1263
客观 1262
拔 1262
的发言 1262
遇到 1262
代表的 1261
但从 1261
具备了 1261
告发 1261
声明 1261
并与 1261
郭 1261
采集 1261
与其 1260
公调处 1260
可通过 1260
彩色 1260
业主 1259
分歧 1259
奉 1259
的其他 1258
立体 1258
自发 1258
蛋白 1258
是有 1257
法官 1257
谋求 1257
鼻 1257
去年的 1256
宣 1256
市民团体 1256
目录 1256
调查中 1256
闭 1256
io 1255
th 1255
中最 1255
可以减少 1255
层面 1255
当中 1255
离婚 1255
秋天 1255
亮相 1254
国的 1254
缸 1254
深入 1253
▁这样 1252
以防止 1252
可以对 1252
将由 1252
演唱 1252
独特 1252
的角色 1252
董事 1252
述 1252
一个人 1251
信息和 1251
及运营 1251
因新冠肺炎 1251
婴儿 1251
忙 1251
欧盟 1251
药店 1251
主力 1250
属 1250
应急 1250
由区厅长 1250
包含了 1249
所得税 1249
将为 1248
监护人 1248
第三季度 1248
恋爱 1247
net 1246
ore 1246
列车 1246
可以从 1246
商用 1246
目前的 1246
下列 1245
依赖 1245
学生父母 1245
姬 1244
者在 1244
SD 1243
▁18 1243
兹 1243
急诊室 1243
死亡的 1243
海上 1243
签约 1243
于本月 1242
决定在 1242
冻结 1242
哥哥 1241
工学 1241
所长 1241
热烈 1241
约有 1241
高龄 1241
曹长官 1240
稍微 1240
▁金融 1239
他在 1239
元件的 1239
回答说 1239
构件 1239
相关事项 1239
高层 1239
▁Note 1238
们在 1238
募集 1238
另行 1238
玄 1238
穿着 1238
坪 1237
小规模 1237
本条例 1237
疑问 1236
项规定 1236
伪造 1235
契机 1235
想到 1235
也应该 1234
免税店 1234
如果有 1234
文化遗产 1234
72 1233
否定 1233
是否会 1233
BS 1232
NS 1232
感受 1232
扬 1232
新任 1232
现场体验学习 1232
▁姜 1231
投资者的 1231
曾经 1231
般 1231
通道 1231
CD 1230
再现 1230
域 1230
背面 1230
.6 1229
act 1229
可以防止 1229
哪 1229
金融当局 1229
ial 1228
枪 1228
牙科 1228
的儿童 1228
产生影响 1227
封闭 1227
报道称 1227
拍照 1227
可以与 1226
治疗的 1226
泡菜 1226
的反 1226
的期待 1226
经历了 1226
耳机 1226
轨 1226
▁国会 1225
、1 1225
一直以来 1225
命运 1225
残 1225
电话号码 1225
试乘 1225
他表示 1224
十分 1224
基板的 1224
紧急对策委员会 1224
▁两 1223
不错 1223
目标是 1223
题 1223
▁文总统 1222
志愿 1222
破裂 1222
可以说是 1221
供需 1220
后续 1220
所谓 1220
晶体管 1220
种植 1220
防御 1220
不参加 1219
必 1219
有时 1219
通过使用 1219
接受检查 1218
遗属 1218
为了在 1217
体内 1217
另一 1217
告诉 1217
徒 1217
操纵 1217
过失 1217
'。 1216
la 1216
上周 1216
也从 1216
禁 1216
过滤器 1216
控制装置 1215
的费用 1215
稳定地 1215
现场的 1214
聊天 1214
备受期待 1213
更好 1213
败 1213
加重 1212
可见 1212
报纸 1212
档 1212
设备和 1212
设置在 1212
该公司 1212
重视 1212
61 1211
打折 1211
步伐 1211
统 1211
认识到 1211
82 1210
两国 1210
公司内部 1210
在这里 1210
牛奶 1210
过了 1210
交给 1209
多功能 1209
扣除 1209
日起 1209
最大化 1209
权威 1209
疑似 1209
聚合物 1209
认 1209
▁道 1208
做好 1208
克莱斯勒 1208
削减 1208
密码货币 1208
资产管理 1208
巩固 1207
气候 1207
的程度 1207
赶 1207
乐队 1206
带有 1206
承受 1206
排行榜 1206
影响力 1205
比特币 1205
ass 1204
决定是否 1204
前总统 1204
文化信息 1204
理念 1204
诱发 1204
tvN 1203
自律 1203
静坐示威 1203
高尔夫 1203
▁到 1202
▁疾病管理本部 1202
房屋 1202
搞活 1202
遭到 1202
▁据统计 1201
判 1201
南部 1201
少年 1201
▁研究组 1200
哪个 1200
对比 1200
权益 1200
生育 1200
豪 1200
埋 1199
的资金 1199
罐 1199
单纯的 1198
登上 1198
项的 1197
当作 1196
概率 1196
的意思 1196
下一 1195
,20 1194
觉 1194
优质 1193
社会的 1193
终止 1193
行为的 1193
金融圈 1193
▁提供 1192
、5 1192
溶液 1192
要求的 1192
CCTV 1191
会面 1191
和服务 1191
韩华 1191
页 1191
DLF 1190
[ 1190
大厅 1190
干扰 1190
广域 1190
秉 1190
表情 1190
分开 1189
活用 1189
的文章 1189
可以利用 1188
增长了 1188
宽带 1188
恐怖 1188
的概念 1188
群体 1188
被推迟 1188
还能 1188
团员 1187
的内 1187
迎接 1187
预计将 1187
移民 1186
韩国人 1186
大幅减少 1185
展览 1185
se 1184
期望 1184
第四次产业革命 1184
而努力 1184
隐 1184
ick 1183
内存 1183
好奇心 1183
推动 1183
教职员 1183
对应 1182
屋顶 1182
文在寅 1182
皇 1182
英雄 1182
薪 1182
让我 1182
鼓 1182
为了应对 1181
卫星政党 1181
大气 1181
挂 1181
烧 1181
议员和 1181
依靠 1180
到底 1180
教学 1180
环境中 1180
紧急灾难支援金 1180
▁特别是在 1179
积极的 1179
模仿 1178
车型的 1178
▁Ch 1177
大举 1177
之一的 1176
的氛围 1176
维生素 1176
当然 1175
很少 1175
的能力 1175
突破了 1175
NH 1174
▁全国 1174
▁雷诺三星 1174
之路 1174
加剧 1174
后来 1174
抓 1174
深度 1174
腹 1174
质量的 1174
▁尤其是 1173
发烧 1173
商业化 1173
应立即 1173
星期 1173
构建了 1173
校园 1173
的学校 1173
记者招待会 1173
退还 1173
召集 1172
将继续 1172
点击 1172
送到 1172
慎重 1171
技能 1171
,8 1170
BMW 1170
ug 1170
哭 1170
将进一步 1170
放缓 1170
正式开始 1170
的特征 1170
SDI 1169
全额 1169
回应 1169
堆 1169
我会 1169
来了 1169
汝矣岛 1169
痊愈 1169
监管 1169
负载 1169
缘 1168
虽然是 1168
金融服务 1168
MOU 1167
▁还有 1167
▁金融委员会 1167
尤其 1167
潜力 1167
诊断检查 1167
晋州 1166
锂离子电池 1166
随机 1165
鲜 1165
前景 1164
奶奶 1164
提交的 1164
此后 1164
公布了 1163
增强现实 1163
居家隔离 1163
平面 1163
童 1163
莲 1163
重叠 1163
九老区 1162
代表性的 1162
巴黎 1162
育儿 1162
销售了 1162
ep 1161
上次 1161
中小企业的 1161
任意 1161
伙伴 1161
法施行令 1161
申请的 1161
而已 1161
言论 1161
为提高 1160
或其他 1160
承包 1160
籍 1159
OP 1158
Sp 1158
▁本发明提供了一种 1158
人群 1158
变量 1158
民主党候选人 1158
给我 1158
这种情况 1158
▁首尔特别市 1157
一项 1157
医疗器械 1157
基督教 1157
布置 1157
有意义 1157
服务和 1157
格式 1157
看到的 1157
货物 1157
4% 1156
▁如果说 1156
▁曾 1156
不当 1156
业务协议 1156
公务 1156
外出 1156
大约 1156
日对 1156
牺牲 1156
的无 1156
DM 1155
▁歌手 1155
但是在 1155
戏剧 1155
的特点 1155
以为 1154
关心和 1154
态 1154
的魅力 1154
增加到了 1153
缓慢 1153
阴性 1152
也很难 1151
退党 1151
▁KB 1149
听课 1149
委员的 1149
蒙古 1149
设计和 1149
和第 1148
安慰 1148
提交给 1148
畅销 1148
造成的 1148
销售量 1148
隐藏 1148
ue 1147
▁最 1147
下降到 1147
厅长 1147
壳体 1147
的历史 1147
约翰 1147
请愿 1147
大大 1146
炎症 1146
装有 1146
JTBC 1145
今年上半年 1145
后备箱 1145
有关的 1145
本质 1145
爆 1145
的大部分 1145
庆尚北道 1144
支部 1144
汽车和 1144
潮流 1144
环境下 1144
计划的 1144
中区 1143
的立场是 1143
装载 1143
设置的 1143
救济 1142
桑 1142
武器 1142
71 1141
信托 1141
新建 1141
校正 1141
毕业 1141
研究人员 1141
ast 1140
划 1140
就越 1140
清算 1140
的首尔 1140
助理 1139
求职 1139
法庭 1139
黑客 1139
8000 1138
CPU 1138
所需事项 1138
芯 1138
▁位于 1137
所有人 1137
深度学习 1137
竭尽全力 1137
透 1137
风险企业 1137
丢失 1136
二手 1136
激烈的 1136
APP 1135
tech 1135
为开端 1135
将作为 1135
胶 1135
行的 1135
还需要 1135
▁in 1134
作用的 1134
含量 1134
曾在 1134
泥 1134
的超 1134
路虎 1134
间隔 1134
黄教安代表 1134
齐 1134
持续增加 1133
被公开 1133
迈 1133
书中 1132
克斯 1132
可持续 1132
销售额为 1132
类型的 1131
2, 1130
OTT 1130
▁全球 1130
宜 1130
强的 1130
是非常 1130
积极协助 1130
粒 1130
责 1130
一段时间 1129
凌晨 1129
回家 1129
摩托车 1129
有过 1129
附件 1129
TO 1128
▁正在 1128
低收入 1128
容易地 1128
恋 1128
的反应 1128
策略 1128
缺点 1128
ve 1127
凤 1127
制成的 1127
心情 1127
签署 1127
荷 1127
在过去 1126
弘 1126
报酬 1126
的人力 1126
被判 1126
输 1126
鉴定 1126
魅力的 1126
2001 1125
全新 1125
变成了 1125
工程师 1125
教育和 1125
数字化 1125
有了 1125
次官 1125
生活在 1125
联邦 1125
本方案 1124
的领域 1124
钱包 1124
动员 1123
处以 1123
姿势 1123
完全没有 1123
政治圈 1122
日向 1122
某种 1122
珉 1122
▁w 1121
性格 1121
泉 1121
法务部 1121
▁我认为 1120
中使用 1120
怀孕 1120
成熟 1120
ech 1119
免疫力 1119
去过 1119
收视率 1119
证人 1119
频繁 1119
.0 1118
保健当局 1118
干净 1118
悬案 1118
智能型 1118
▁为了让 1117
件的 1117
前任 1117
化合物 1117
否认 1117
溪 1117
▁东 1116
开启 1116
慧 1116
洗手 1116
句 1115
批 1115
提高到 1115
纷争 1115
ash 1114
参与者 1114
定制 1114
意思 1114
亿韩元规模的 1113
提供服务 1113
日报 1113
是谁 1113
国民银行 1112
天然 1112
水的 1112
现代摩比斯 1112
艺术家 1112
这么 1112
阳光 1112
▁问题是 1111
使用该 1111
摩擦 1111
极限 1111
的数字 1111
蔓延 1111
设立的 1111
进行合作 1111
if 1110
不利 1110
南北 1110
另 1110
天后 1110
格局 1110
的人才 1110
表达了 1110
嘴 1109
国民之党 1109
鸟 1109
60% 1108
上升了 1108
个人的 1108
个百分点 1108
场的 1108
造型 1108
▁三 1107
容器 1107
▁如果在 1106
并非 1106
更改 1106
的管理 1106
竞赛 1106
链接 1106
▁g 1105
专务 1105
内部的 1105
房间 1105
聚集在一起 1105
Al 1104
事后 1104
停产 1104
常任委员会 1104
接地 1104
等与 1104
一度 1103
告诉我 1103
固体 1103
小说 1103
不太 1102
专家们 1102
子和 1102
审议会 1102
2.5 1101
▁大部分 1101
于去年 1101
大邱市 1101
阴极 1101
高压 1101
▁只是 1100
▁那么 1100
止 1100
进行讨论 1100
反弹 1099
可以直接 1099
散热 1099
社团 1099
运作 1099
闹 1099
IR 1098
亮度 1098
备受瞩目 1098
必要事项 1098
投票率 1098
抽 1098
缓冲 1098
门槛 1098
▁可 1097
发动机的 1097
和企业 1097
实用 1097
封 1097
摩 1097
服务等 1097
焊接 1097
被视为 1097
请在 1097
适 1097
不知 1096
也需要 1096
周五 1096
演示 1096
特朗普 1096
留下了 1096
研究生院 1096
限度 1096
▁和 1095
▁最重要的是 1095
水分 1095
到来 1094
危害 1094
等新 1094
进程 1094
不确定性 1093
互 1093
友利银行 1093
强势 1093
当前 1093
的心情 1093
的背景 1093
管道 1093
身份证 1093
附页第 1093
可以看到 1092
实物 1092
提到了 1092
波动 1092
现代汽车的 1092
较多的 1092
ax 1091
▁世界 1091
▁这是为了 1091
的大邱 1091
的最 1091
自立 1091
受托人 1090
日本的 1090
测 1090
转包 1090
丧失 1089
以下各项 1089
卫 1089
在此 1089
激 1089
▁~ 1088
也有人 1088
将根据 1088
改造 1088
栋 1088
▁感谢 1087
两家公司 1087
个体 1087
博客 1087
县 1087
灭 1087
的一半 1087
facebook 1086
兆韩元 1086
工资的 1086
接触的 1086
提示 1086
智能手机的 1086
标致 1086
泛 1086
率先 1086
强硬 1085
比前 1085
能力和 1085
半导体器件 1084
在了 1084
旁边 1084
未满 1084
痴呆 1084
"2020 1083
AD 1083
TF 1083
增多 1083
成就 1083
提供了一种 1083
零售 1083
变更为 1082
宽度 1082
的金额 1082
裂 1082
货车 1082
对其 1081
牧师 1081
聘请 1081
返回 1081
通过网络 1081
和美国 1080
安东 1080
常规 1080
缝 1080
良 1080
馆长 1080
▁市 1079
因此对 1079
批评说 1079
本周 1079
演艺 1079
瓶 1079
越来越多 1079
韩国银行 1079
传真 1078
基本法 1078
封锁 1078
并提高 1078
抢占 1078
改装 1078
状态的 1078
非正式职工 1078
乐趣 1076
受欢迎 1076
整车企业 1076
欣赏 1076
坚 1075
正在积极 1075
的家长 1075
组建 1075
违反了 1075
切割 1074
也对 1073
只需 1073
基调 1073
尽可能 1073
形态的 1073
新鲜 1073
猪 1073
过于 1073
ron 1072
原告的 1072
微尘 1072
戴口罩 1072
新款 1072
游说 1072
联合国 1072
键盘 1072
首款 1072
▁。 1071
九老 1071
排出 1071
暖 1071
仅在 1070
圆形 1070
寿 1070
还包括 1070
MV 1069
2030 1068
SO 1068
ung 1068
共存 1068
前进 1068
因涉嫌 1068
大学的 1068
性能的 1068
更高的 1068
最长 1068
▁Kakao 1067
入口 1067
分期付款 1067
疏 1067
的发生 1067
震 1067
存在的 1066
是否属于 1066
生活中 1066
鬼 1066
ust 1065
上课 1065
沿着 1065
界的 1065
ance 1064
引用 1064
数千 1064
调查结果显示 1064
锁定 1064
非面对面 1064
也出现了 1063
等所有 1063
网民 1063
蓝图 1063
效率的 1062
救助 1062
机器学习 1062
管理者 1062
雷达 1062
ok 1061
最多可 1061
胆 1061
解散 1061
▁2019 1060
▁尤其 1060
为标准 1060
但现在 1060
北韩 1060
应将 1060
有点 1060
欺诈 1060
LCD 1059
产业银行 1059
增长势头 1059
径 1059
获 1059
ly 1058
一体 1058
也不是 1058
决赛 1058
办 1058
咸 1058
地区经济 1058
忽视 1058
的判断 1058
的数量 1058
说服 1058
130 1057
▁根据条例第 1057
▁现代汽车集团 1057
两天 1057
体温 1057
加密 1057
同期 1057
外卖 1057
抗体 1057
来源 1057
直接雇佣 1057
运营委员会 1057
远程授课 1057
阿尔 1057
高出 1057
上安装 1056
上形成 1056
捷豹 1056
新药 1056
的电力 1056
▁然后 1055
从本月 1055
原则上 1055
插头 1055
杀人 1055
被分类为 1055
.3 1054
ort 1054
书籍 1054
围 1054
在一个 1054
代理店 1053
传闻 1053
大股东 1053
有一个 1053
的嫌疑 1053
韩进 1053
qu 1052
上涨了 1052
安静 1052
数为 1052
的候选人 1052
的综合 1052
索兰托 1052
预告了 1052
▁h 1051
▁如 1051
会成为 1051
原审判决 1051
和对 1051
和社会 1051
多样 1051
将参加 1051
据点 1051
漫画 1051
线性 1051
ne 1050
、2 1050
为此 1050
债权 1050
将持续 1050
氮 1050
虎 1050
气象 1049
状态下 1049
答案 1049
市的 1048
社交媒体 1048
▁此时 1047
东京 1047
普通人 1047
稳 1047
街头 1047
件数 1046
做了 1046
分公司 1046
孕妇 1046
拿着 1046
损失的 1046
有所不同 1046
网络漫画 1046
阻 1046
DR 1045
Instagram 1045
伊朗 1045
支配 1045
的资料 1045
确立 1045
移动通信公司 1045
翼 1045
▁部分 1044
紧密 1044
观众的 1044
金融市场 1044
青春 1044
DNA 1043
▁pay 1043
中被 1043
以提高 1043
出色的 1043
印刷电路板 1043
掀起 1043
更名为 1043
现行 1043
的选择 1043
钥匙 1043
350 1042
8% 1042
▁受 1042
区块链技术 1042
后面 1042
姐姐 1042
炫 1042
的女性 1042
静电 1042
颁发 1042
划分 1041
地表示 1041
界限 1041
采纳 1041
信用等级 1040
手动 1040
最小 1040
莉 1040
选项 1040
金融集团 1040
高温 1040
▁想要 1039
中长期 1039
举办了 1039
在学校 1039
小工商业者 1039
youtube 1038
但没有 1038
存折 1038
应向 1038
得出 1038
最高的 1038
粗 1038
限额 1038
GT 1037
第一款 1037
系统等 1037
局限性 1036
持有的 1036
新冠肺炎患者 1036
更快 1036
泵 1036
的人中 1036
礼拜 1036
马力 1036
.4 1035
医疗机关 1035
年龄段 1035
欲望 1035
电子邮件 1035
的制作 1035
议会选举的 1035
SI 1034
两年 1034
冬天 1034
劳恩斯 1034
征 1034
正在开发 1034
较少 1034
锐 1034
Un 1033
▁文在寅总统 1033
丽水 1033
先生 1033
怪 1033
生计 1033
的人生 1033
精神健康 1033
臂 1033
荧光 1033
让我们 1033
转账 1033
▁大邱 1032
下面 1032
并从 1032
的地 1032
的经验 1032
赠品 1032
阻碍 1032
麦克风 1032
、4 1031
低利率 1031
尾气排放 1031
甘 1031
金某 1031
.5% 1030
会导致 1030
全体会议上 1030
国民年金 1030
膨胀 1030
专业性 1029
公司债券 1029
力量的 1029
卓越 1029
很有 1029
殿 1029
电动机的 1029
大众汽车 1028
并计划 1028
有的 1028
添加了 1028
抵抗 1027
的存在 1027
捕 1026
数量的 1026
模糊 1026
确定了 1026
第三次 1026
胸 1026
费用的 1026
踏 1026
返 1026
魔 1026
TA 1025
不使用 1025
及管理 1025
定位 1025
州市 1025
正在讨论 1025
理事会 1025
RE 1024
ink 1024
▁在本发明中 1024
为应对 1024
女性的 1024
年以上 1024
页面 1024
上班族 1023
官员 1023
永久 1023
第五 1023
而导致 1023
GV 1022
可以看出 1022
可以确认 1022
合理的 1022
市场营销 1022
有什么 1022
浪 1022
腰 1022
腺 1022
逮捕 1022
▁中央 1021
不顾 1021
便于 1021
售 1021
大韩航空 1021
熊 1021
血压 1021
道路上 1021
阁 1021
2025 1020
HD 1020
吹 1020
▁每 1019
史上 1019
她的 1019
日以 1019
eg 1018
北部 1018
响 1018
推广 1018
收到了 1018
类别 1018
韩国电影 1018
全力 1017
当选者 1017
氧化物 1017
的讨论 1017
科学技术院 1017
预先 1017
默 1017
价格的 1016
庆尚南道 1016
明天 1016
▁电影 1015
▁通常 1015
专注于 1014
交涉团体 1014
春天 1014
杜 1014
泡沫 1014
睡 1014
下周 1013
以下内容 1013
天空 1013
年款 1013
收回 1013
收购了 1013
栏 1013
烹饪 1013
胎 1013
中秋 1012
发电机 1012
更容易 1012
的时 1012
ide 1011
▁12 1011
上帝 1011
人员的 1011
加班 1011
可以实现 1011
柴油车 1011
爱的 1011
相生 1011
进行分析 1011
具有高 1010
瑞典 1010
多样化 1009
放大 1009
核电站 1009
瑟 1009
经理 1009
质疑 1009
上有 1008
公司方面 1008
所有者 1008
正极 1008
泡 1008
熔 1008
社交 1008
end 1007
出现问题 1007
制作了 1007
制成 1007
取决于 1007
地带 1007
手机游戏 1007
控制器 1007
明年的 1007
用地 1007
肿瘤 1007
会发生 1006
特色 1006
登记的 1006
逃 1006
邻居 1006
LPG 1005
呼吸道 1005
委员会的审议 1005
概念车 1005
海报 1005
点是 1005
罩 1005
自愿 1005
og 1004
▁进入 1004
也无法 1004
生态界 1004
阻断 1004
ice 1003
ys 1003
例外 1003
地方税 1003
顺天 1003
Ex 1002
上升到 1002
始终 1002
弟弟 1002
瑞草区 1002
的大规模 1002
▁Y 1001
不在 1001
分左右 1001
的瞬间 1001
随意 1001
也以 1000
所在的 1000
抛售 1000
死亡人数 1000
的总 1000
NO 999
▁他表示 999
刑事 999
单独的 999
安全事故 999
最好的 999
的危机 999
组的 999
RS 998
ev 998
也非常 998
得到认可 998
步骤 998
账号 998
韩亚航空 998
可以让 997
各项 997
带头 997
面对面 997
批发 996
李相 996
破 996
询问 996
] 995
▁这与 995
多媒体 995
奖项 995
志愿者 995
愿意 995
标准化 995
”, 994
值班 994
在全世界 994
很高的 994
微笑 994
悲 994
拆除 994
的名义 994
的比例 994
该方法 994
酒精 994
GA 993
he 993
oom 993
▁福特 993
公认 993
干细胞 993
很重要 993
桶 993
盈利 993
肥 993
追究 993
▁两家公司 992
名确诊患者 992
售出 992
检验 992
项规定的 992
顺利进行 992
减弱 991
君 991
容纳 991
曹候选人 991
究竟 991
空白 991
耗 991
革新的 991
'。" 990
arm 990
▁教育 990
习 990
聚在一起 990
风波 990
ound 989
堡 989
教练 989
000 988
▁企业 988
以来的 988
分担 988
尘 988
当时的 988
接合 988
来进行 988
现代起亚汽车 988
管理层 988
舞台上 988
途径 988
Tech 987
▁比起 987
开发出 987
煤 987
的成果 987
试驾 987
费和 987
首例 987
▁不是 986
和方法 986
废弃 986
控股公司 986
机型 986
此次活动 986
的支持率 986
筛选 986
两大 985
华丽 985
忠州 985
触摸 985
财源 985
▁16 984
价值的 984
同年 984
次产业革命 984
汽车业界 984
油价 984
缓 984
被判定为 984
金议员 984
二次 983
注 983
祝贺 983
轻微 983
"5 982
乐园 982
天安 982
暴露在 982
波长 982
电荷 982
称赞 982
第四季度 982
sh 981
▁他在 981
创下 981
喜剧 981
这就是 981
除外 981
失去了 980
奇怪 980
开始到 980
露出 980
交叉 979
关联 979
最快 979
盲 979
何 978
掌 978
政治家 978
电机 978
筒 978
高血压 978
▁这就是 977
开幕 977
法律第 977
结束的 977
追加更正预算 977
万亿韩元的 976
依 976
出于 976
留在 976
累 976
转变 976
ct 975
▁今天 975
▁在国内 975
冬 975
周六 975
固有 975
思维 975
模范 975
的共同 975
AMG 974
大量的 974
妥协 974
委员长的 974
攻势 974
机制 974
的国民 974
▁甚至 973
名职员 973
尽量 973
年级学生 973
正规 973
不必要的 972
传统的 972
刊登 972
斑 972
浓 972
的平台 972
调查的 972
韩文 972
反映在 971
填充 971
栽培 971
的表情 971
股份公司 971
App 970
住在 970
俗 970
在进行 970
子女的 970
守则 970
年将 970
并要求 970
打电话 970
样本 970
比其他 970
第一名 970
▁所有 969
仓库 969
函数 969
局限 969
批判道 969
海力士 969
灰 969
认为是 969
购买了 969
赛车运动 969
面包 969
▁其他 968
体验学习 968
攻占 968
教育项目 968
正当 968
邦 968
金贤 968
顾 968
▁Talk 967
▁孙 967
和日本 967
帝 967
幼儿 967
本金 967
选任 967
年薪 966
烤 966
PP 965
sp 965
引起了人们的关注 965
蔡 965
▁上月 964
东盟 964
市价 964
平等 964
年和 964
扩散到 964
毫不 964
酷 964
PI 963
不稳定 963
与前 963
劝 963
女子 963
宅 963
应由 963
推特 963
水原 963
研究中心 963
租金 963
道的 963
分泌 962
可以提供 962
实地 962
有所增加 962
直流 962
秘诀 962
霸 962
位居 961
创造了 961
表面上 961
高效 961
宣传活动 960
寄 960
展位 960
监 960
迎来了 960
ck 959
▁当初 959
交通安全 959
基础的 959
无党派 959
碎 959
肩 959
金钟 959
Sh 958
▁ThinQ 958
▁学校 958
国债 958
帧 958
检察 958
的高级 958
研究结果 958
统治 958
▁张 957
不属于 957
副市长 957
害怕 957
幸 957
醒 957
En 956
分发 956
分析称 956
如果是 956
祝 956
负极 956
也曾 955
供货 955
孩子们的 955
已故 955
平泽 955
弥补 955
牵制 955
金泰 955
非正规职 955
▁Fold 954
上面 954
付款 954
公布的 954
投诉 954
散布 954
的高度 954
营业场所 954
认为有必要 954
金钱 954
合同的 953
感染途径 953
李在 953
橡胶 953
炯 953
马达 953
▁把 952
▁正未来党 952
强大 952
有利于 952
系教授 952
语音识别 952
过敏 952
配偶 952
为防止 951
充满了 951
发布会 951
吸附 951
喜爱的 951
头发 951
未经 951
祈祷 951
高管 951
▁雷诺三星汽车 950
刺 950
历史上 950
发达 950
忘记 950
警察厅 950
辈 950
▁专家 949
中期 949
会被 949
全身 949
凡 949
导体 949
VC 948
▁谷歌 948
上传了 948
吕 948
土耳其 948
展示场 948
排名第一 948
显示出 948
树立 948
相当大的 948
雪铁龙 948
飞跃 948
公诉外 947
本国 947
西区 947
超高 947
首播 947
Fi 946
▁统合党 946
中毒 946
为纪念 946
初始 946
剧情 946
和使用 946
斗山 946
构想 946
磨 946
编入 946
设施等 946
▁这一 945
上表示 945
拖欠 945
条件的 945
牙齿 945
请参考 945
CI 944
▁委员长 944
决定将 944
危机的 944
急性 944
所需的事项 944
本地 944
溶 944
灾 944
的路 944
过多 944
CM 943
WHO 943
代表李 943
促 943
债 943
农场 943
分辨率 943
即使没有 943
最高委员会 943
洞长 943
空间的 943
脉 943
说明了 943
谱 943
象 943
▁无论 942
光明 942
可以说 942
总额 942
景气 942
胡 942
解释道 942
问题是 942
lo 941
以往 941
但这 941
合格 941
宿 941
证实 941
单词 940
委托给 940
必要性 940
拯救 940
缩 940
部作品 940
1~2 939
An 939
SA 939
公职选举法 939
刮 939
就业岗位 939
尽最大努力 939
海岸 939
物质的 939
级的 939
金融危机 939
(5 938
IF 938
ind 938
任何人都可以 938
分组 938
定的 938
的优惠 938
的各 938
1、2 937
公共部门 937
和经济 937
在大邱 937
工序 937
日与 937
相应的 937
行星 937
下达了 936
人为 936
商城 936
奶 936
找出 936
独有的 936
理想 936
胜负 936
议员表示 936
韩国经济 936
东区 935
会晤 935
则可以 935
洗涤 935
紧凑型 935
芬 935
ha 934
实的 934
案的 934
照相机 934
的必要性 934
1200 933
98 933
中小型 933
临 933
代理人 933
会长的 933
全租 933
旁 933
熟练 933
玛 933
的演技 933
角度来看 933
迟 933
与美国 932
偶然 932
原来 932
持续的 932
接连不断 932
车和 932
韩日 932
人认为 931
会产生 931
体力 931
和销售 931
在上个月 931
工业园区 931
描述 931
涨 931
纹 931
被诊断为 931
AL 930
摘 930
斋 930
的比率 930
而不 930
补习班 930
被送往 930
铃 930
企业中 929
关键词 929
宾 929
投保 929
放入 929
账 929
通过对 929
KAKAO 928
乐观 928
交替 928
周三 928
将展开 928
月为止 928
来实现 928
硅谷 928
▁如上所述 927
世界的 927
图片 927
市中心 927
控制系统 927
QM 926
▁Plus 926
企业家 926
复杂的 926
失误 926
防疫当局 926
坦 925
引线 925
捷恩斯 925
温暖的 925
的原因是 925
身边 925
分店 924
刘承旼 924
医务人员 924
回顾 924
攻略 924
树木 924
规 924
降至 924
7% 923
ox 923
啤酒 923
就不会 923
市政府 923
法务部长官 923
租 923
360 922
IG 922
▁公开了一种 922
嘉宾 922
复职 922
对立 922
▁本发明提供一种 921
信贷 921
双向 921
外科 921
年到 921
病患者 921
的销售额 921
讨论会 921
2》 920
占用 920
组织的 920
高兴 920
Car 919
ack 919
于是 919
从而提高 919
伦敦 919
佑 919
制造工艺 919
和大 919
媛 919
将该 919
的新一代 919
肺癌 919
足够 919
三种 918
修复 918
写的 918
回购 918
奥斯卡 918
对象是 918
市场规模 918
用于在 918
纪 918
职员的 918
之处 917
录制 917
的方针 917
确诊者的 917
CB 916
OST 916
串 916
周岁 916
哪里 916
很快 916
有人担心 916
电磁 916
集群 916
IPTV 915
av 915
劳动时间 915
各地区 915
年为 915
执照 915
损害保险 915
经验的 915
脂 915
计划书 915
Han 914
佩戴 914
保守统合 914
夫妻 914
意识到 914
朴槿惠 914
140 913
听说 913
周的 913
大师 913
杓 913
样品 913
农产品 912
平安 912
平息 912
的第二 912
策划 912
医疗团队 911
墨 911
大陆 911
学科 911
来防止 911
民心 911
申请者 911
第四次工业革命 911
观众们的 911
IA 910
三星电子的 910
商业模式 910
国内企业 910
而受到 910
节日 910
被确诊为新冠肺炎 910
首都 910
不想 909
占领 909
可根据 909
提交到 909
车内 909
队员 909
▁一般 908
物理学 908
电子设备 908
疑似患者 908
花费 908
龟尾 908
Pro 907
事务总长 907
出色 907
处理装置 907
完整 907
改变了 907
模具 907
每人 907
般的 907
预计会 907
健身 906
款车型 906
琴 906
短期内 906
第二个 906
融 906
退休金 906
6% 905
IB 905
▁of 905
劳动市场 905
地区内 905
情感 905
成长的 905
率和 905
笑声 905
EX 904
ber 904
▁刘 904
▁相关 904
不可避免 904
令人期待 904
会议的 904
创始人 904
加深 904
卢武铉 904
战胜 904
聊天工具 904
跟踪 904
▁但是在 903
▁正义党 903
传唤 903
在接受 903
帮 903
病情 903
署 903
西部 903
首个 903
个月后 902
乔 902
产业界 902
从明年开始 902
危 902
尼亚 902
方便地 902
简单地 902
视频中 902
超声波 902
越来越高 902
辛苦 902
进行管理 902
远远 902
防弹少年团 902
反响 901
四个 901
学生们的 901
审核 901
将于下月 901
差别化 901
参与其中 900
可以轻松 900
器等 900
意图 900
撒 900
板上 900
流媒体 900
移送 900
高丽 900
110 899
9000 899
一条 899
剑 899
在现场 899
并进行了 899
所得 899
无薪休假 899
构成的 899
照射 899
裁员 899
颁奖典礼 899
内心 898
和前 898
将于明年 898
得到改善 898
的事前 898
▁拥有 897
为了预防 897
决定的 897
可以享受 897
对待 897
期间的 897
清楚 897
研 897
际 897
黑暗 897
ey 896
▁现代摩比斯 896
分析了 896
剂的 896
唯一的 896
昨天 896
期的 896
检查中 896
看来 896
英特尔 896
都很 896
做的事情 895
和安全 895
式的 895
录音 895
拍摄的 895
罕见 895
通行 895
重症患者 895
个性 894
产业振兴院 894
人中 894
办公楼 894
对该 894
导致了 894
滥用 894
脏 894
葬礼 894
让他们 894
所属公务员 893
扣 893
执政 893
月中旬 893
美丽的 893
肯 893
On 892
ite 892
▁在这里 892
▁研究 892
全球市场 892
可以在预算范围内 892
巨额 892
引发的 892
念 892
曲线 892
棒球 892
热量 892
片的 892
穆 892
齐心协力 892
Netflix 891
eb 891
ou 891
充 891
公司在 891
加入者 891
基本计划 891
平板电脑 891
摇 891
浪费 891
滞留 891
男人 891
通知书 891
金成 891
雷诺三星汽车 891
两党 890
为首 890
吃饭 890
歌谣 890
午餐 889
和谐 889
对准 889
并说 889
暗示 889
最先 889
的人事 889
硫 889
队的 889
▁教育部 888
▁釜山市 888
内燃机 888
友利 888
婚礼 888
杀菌 888
电子的 888
行情 888
反省 887
型的 887
故乡 887
的选举 887
真是 887
随之 887
▁区 886
不如 886
变速 886
府 886
戏 886
持续下去 886
涌 886
的第一个 886
储 885
加强了 885
参加者 885
同比 885
排在 885
科目 885
非洲 885
▁kakao 884
人类的 884
建筑物的 884
成功的 884
更为 884
疗法 884
的运动 884
运营公司 884
Wi 883
per 883
中东 883
宣告 883
尖 883
庆北地区 883
暑假 883
最后一 883
未来汽车 883
1%。 882
4.15 882
▁年 882
也因 882
充分的 882
公推管理委员会 882
压迫 882
只有在 882
谋 882
选票 882
到明年 881
日后 881
网页 881
访 881
闻 881
▁前一天 880
▁英国 880
一个月内 880
出差 880
反驳 880
天数 880
将利用 880
梨泰院 880
ood 879
主导的 879
今年将 879
值的 879
协定 879
在本月 879
备受 879
室的 879
想起 879
支援项目 879
清扫 879
炼 879
的中心 879
为了确保 878
农户 878
发起 878
呼 878
布线 878
瓜 878
议员李 878
哪些 877
新生 877
日召开 877
省略 877
▁17 876
▁教育监 876
北区 876
只在 876
后再 876
成为话题 876
所说的 876
死亡者 876
活动和 876
RA 875
ero 875
▁本发明公开了一种 875
与现有 875
以在 875
即使不 875
据说 875
文化的 875
清晰 875
漂亮 875
电极的 875
的新闻 875
紫 875
设施和 875
还提供 875
160 874
冠 874
报复 874
主页 873
何种 873
信念 873
的地位 873
2~3 872
充电器 872
探讨 872
欢 872
没有什么 872
资金的 872
▁Hello 871
▁中 871
万韩元左右 871
单方面 871
宿舍 871
符合下列各项 871
索尼 871
评 871
釜山广域市 871
▁申 870
也许 870
云服务 870
就不能 870
悬架 870
散发 870
汽车销售 870
沿 870
腔体 870
评价道 870
食用 870
ost 869
偏好 869
无视 869
会增加 868
委员由 868
点开始 868
说的 868
金委员长 868
▁基于 867
挡 867
旗 867
期限内 867
梁山 867
警卫 867
2.0 866
▁宋 866
场景 866
性等 866
成型 866
扩散的 866
报名 866
日在国会 866
死角地带 866
耐久性 866
踏板 866
97 865
▁梅赛德斯 865
和政府 865
进行比较 865
.5%。 864
pt 864
▁权 864
下届 864
伏 864
全州 864
将于今年 864
并开始 864
瑞士 864
科科长 864
▁区长 863
代价 863
促销活动 863
委员长金 863
搜查 863
的女 863
达成了协议 863
集合 863
但因 862
希望大家 862
日就 862
浪漫 862
等海外 862
警惕 862
销量为 862
4•15 861
中没有 861
介电 861
关注的 861
制药公司 861
应按照 861
意愿 861
抗生素 861
有益 861
经营权 861
过半数 861
金额的 861
lex 860
▁第三 860
合作企业 860
因为是 860
墓 860
读取 860
连锁 860
DRAM 859
My 859
合金 859
的代表性 859
KAIST 858
TADA 858
也在增加 858
但是因为 858
变动性 858
层和 858
找到了 858
滴 858
的现实 858
虐待 858
举办的 857
儒 857
剪 857
各地 857
安全地 857
寺庙 857
就会出现 857
数据分析 857
特区 857
胺 857
解决了 857
课后 857
调解 857
银行和 857
不仅在 856
喷射 856
地方政府 856
将更加 856
恒 856
正在与 856
视角 856
过分 856
饮酒 856
able 855
去的 855
参赛 855
小区 855
永远 855
素材 855
那种 855
出库 854
蔬菜 854
▁在美国 853
公开招募 853
基本工资 853
大规模的 853
是指在 853
的广告 853
远程医疗 853
阶段的 853
25% 852
▁根据本发明的 852
信息保护 852
做出了贡献 852
可变 852
抗诉 852
明确的 852
是没有 852
移动设备 852
竞争对手 852
运营着 852
ka 851
一一 851
之后的 851
原始 851
婴幼儿 851
扣押 851
日内 851
环保汽车 851
螺 851
迹 851
阵 851
▁这时 850
下列各项事项 850
光的 850
出血 850
怎么样 850
污 850
的提问 850
金正 850
限制的 850
900 849
将积极 849
帐篷 849
手册 849
行驶时 849
创业者 848
原创 848
外国劳动者 848
孩子的 848
实体 848
正在考虑 848
证书 848
轿车的 848
运算 848
0% 847
企划财政部 847
公共机构 847
发布的 847
复活 847
就应该 847
描绘 847
的上市 847
看看 847
轴距 847
这一事实 847
ans 846
▁区厅长在 846
口腔 846
气的 846
被排除在 846
默契 846
介绍说 845
公路 845
因新型冠状病毒 845
强有力的 845
活动等 845
的文化 845
国土 844
头痛 844
泳 844
熟 844
PU 843
▁若 843
一职 843
为前提 843
但实际上 843
号房 843
和第二 843
资产运用 843
韩国文化 843
低温 842
保证金 842
出行 842
原封不动地 842
征集 842
忍 842
掌握了 842
收藏 842
文本 842
日开始到 842
条例第 842
门票 842
-1 841
94 841
XM 841
▁Com 841
交易的 841
国产化 841
履历 841
教员 841
新党 841
气温 841
游戏公司 841
琳 841
的上诉 841
相似的 841
短路 841
磁场 841
纳入 841
自豪 841
虽 841
二十 840
凸 840
太大 840
展开的 840
年以来 840
马克 840
ool 839
▁换句话说 839
仅凭 839
体现了 839
册 839
多重 839
被解雇 839
镍 839
项目中 839
190 838
住院患者 838
厨师 838
家庭的 838
就无法 838
控股 838
资产运营 838
和中国 837
拖 837
正在扩大 837
汽车行业 837
被隔离 837
Com 836
und 836
业的 836
无症状 836
核心技术 836
灯的 836
的日本 836
知名 836
耳朵 836
险 836
饭店 836
old 835
为了减少 835
仲裁 835
将扩大 835
柏林 835
检查和 835
检测出 835
清除 835
的车型 835
车主 835
迁移 835
候选 834
原审 834
所示 834
收到的 834
的一家 834
的意向 834
侧的 833
取消了 833
基金会 833
起来的 833
较低的 833
进行确认 833
闪 833
问候 833
龙山 833
2500 832
▁CJ 832
与现有的 832
今后的 832
其具有 832
在医院 832
年首次 832
松坡区 832
逆转 832
83 831
受益 831
敌 831
潜 831
社交网络服务 831
符号 831
粉末 831
迫 831
con 830
享 830
出动 830
单元的 830
扩展到 830
电磁波 830
的性能 830
造假 830
鼠 830
SDS 829
、6 829
信道 829
滤 829
的契机 829
atch 828
oy 828
yn 828
因子 828
毕业生 828
法务 828
脉冲 828
钟路区 828
▁提供了一种 827
图形 827
自动驾驶汽车 827
被认为 827
▁由此 826
保健医疗 826
某些 826
标本 826
涡轮增压 826
灵魂 826
1999 825
下部 825
低的 825
全罗南道 825
协作 825
国务总理 825
学生和 825
审理 825
录用 825
戴姆勒 825
正如 825
的电源 825
神秘 825
粘合 825
说话 825
都被 825
首位 825
于上月 824
以确保 824
光州市 824
和解 824
将于本月 824
异议 824
情况的 824
技 824
陵 824
零食 824
)》 823
our 823
东亚 823
人性 823
煤炭 823
1990 822
Ar 822
办理 822
最适合 822
的批评 822
看不到 822
节奏 822
补充道 822
辩 822
MERS 821
企业等 821
办法 821
同时进行 821
国王 821
肌 821
酶 821
前方 820
折叠式手机 820
揭发 820
磁铁 820
▁Sp 819
占有 819
嘱咐 819
招标 819
空中 819
大门 818
截止 818
月至 818
说法 818
贷款的 818
▁直到 817
传统市场 817
再利用 817
冠状病毒 817
在当天的 817
电算 817
私立 817
见到 817
辞 817
PM 816
也可以通过 816
创造出 816
映 816
朋友们 816
玛莎拉蒂 816
的平均 816
还原 816
项的规定 816
龄 816
反转 815
春川 815
的家 815
被用作 815
bit 814
一角 814
为对象进行的 814
代谢 814
正常化 814
港口 814
国土交通部 813
攻 813
滑动 813
网的 813
茨 813
部队 813
Tr 812
ach 812
个国家的 812
佩 812
周四 812
在网络 812
届议会选举中 812
是用 812
视野 812
选定了 812
锦湖 812
雾霾 812
New 811
不符合 811
国乐 811
序 811
弄 811
温室气体 811
进行支援 811
阴极射线管 811
▁李代表 810
▁经过 810
损害赔偿 810
ens 809
庆州 809
来到了 809
燃 809
的分析 809
的海外 809
网上购物 809
肾 809
量为 809
MB 808
ase 808
区域的 808
发生在 808
政党的 808
条件下 808
混凝土 808
移动的 808
遮 808
门诊 808
何时 807
可再生能源 807
急速 807
AWS 806
固 806
拜 806
放置 806
每日 806
诊 806
交换机 805
正规职 805
辆汽车 805
2%。 804
az 804
ov 804
▁Galaxy 804
▁林 804
不存在 804
两名 804
减肥 804
发现的 804
夫人 804
将举行 804
QLED 803
▁也有 803
▁本田 803
兼职 803
分析认为 803
喜好 803
失望 803
年至 803
感想 803
投机 803
最近的 803
的担忧 803
袭 803
道民 803
集成电路 803
上下班 802
与众不同的 802
为主的 802
城南市 802
平板 802
沉重 802
的身份 802
虽然没有 802
途胜 802
.1 801
ain 801
ik 801
作者 801
信息系统 801
功能和 801
干脆 801
撞 801
狭窄 801
的郑 801
进一步提高 801
先行 800
参加竞选 800
商谈 800
手表 800
武汉肺炎 800
计划从 800
退款 800
道路公社 800
ade 799
三分之一 799
中途 799
在所有 799
基本上 799
学费 799
引人注目 799
端口 799
等全球 799
诉讼中 799
通风 799
驱 799
0.0 798
BI 798
利害关系 798
印象 798
时可以 798
江西区 798
滚 798
虚拟货币 798
▁专家们 797
▁某 797
个地区 797
但对 797
定员 797
悲伤 797
队长 797
.5%, 796
主流 796
前来 796
失业者 796
工人们 796
果断 796
研究的 796
确诊人数 796
经营的 796
BO 795
▁特别 795
公立 795
共识 795
分之一 795
影片 795
投入到 795
有所减少 795
浅 795
钙 795
铺 795
韩亚银行 795
96 794
养育 794
去年年末 794
变身 794
得到了认可 794
焦 794
较小 794
81 793
RI 793
▁区厅长为了 793
中进行 793
利亚 793
周内 793
复苏 793
歪曲 793
炭 793
点左右 793
胜诉 793
西方 793
釜山地区 793
1~ 792
上市后 792
不明 792
免费提供 792
感到非常 792
精确 792
而引起的 792
了以 791
意外 791
葬 791
表面的 791
采访时表示 791
阻挡 791
麻烦 791
为对象进行了 790
住院治疗 790
号的 790
好莱坞 790
截 790
浴 790
的舞台 790
非公开 790
CS 789
pop 789
一线 789
亲切 789
外包 789
有线电视 789
EBS 788
争 788
保险的 788
关怀 788
准确的 788
有多 788
正在对 788
装置和 788
诱 788
负担金 788
转播 788
造成了 788
▁光州 787
号线 787
合适的 787
和网络 787
太多 787
时钟 787
标识 787
特别法 787
独家 787
绕 787
落实 787
迁 787
PE 786
中获得 786
传感器的 786
得到的 786
收看 786
洛杉矶 786
犬 786
解除隔离 786
认证的 786
足以 786
,12 785
▁具有 785
▁国家 785
内科 785
大小的 785
市内 785
洁 785
目的在于 785
租车 785
酷暑 785
错误的 785
very 784
▁朝野 784
创党 784
指向 784
最重要的是 784
栅 784
的事务 784
耶稣 784
腾 784
莎 784
韩国语 784
3%。 783
Super 783
▁30 783
下降的 783
中小风险企业 783
会不会 783
协会会长 783
协同组合 783
在职 783
天前 783
奈 783
万次 782
不了 782
介 782
保全 782
停留 782
友好 782
反馈 782
吞 782
座位 782
惨 782
扮演 782
揭露 782
无罪 782
是指根据 782
滩 782
白天 782
的好 782
的状态下 782
直径 782
簿 782
PB 781
Play 781
▁k 781
一定的 781
倍的 781
偶尔 781
名以上 781
君爵 781
处分的 781
实施例 781
负面 781
ory 780
中坚企业 780
在韩国国内 780
播音员 780
是否可以 780
渗透 780
碱 780
资产的 780
郁 780
15% 779
▁Q 779
▁需要 779
上进行 779
和相关 779
在自己的 779
确认是否 779
菲律宾 779
趣味 779
▁本发明涉及在 778
东部 778
以内的 778
发动机和 778
受到关注 778
固有的 778
在汽车 778
录像 778
电子产品 778
盗 778
过热 778
韩美 778
ONE 777
▁本条例 777
中心负责人 777
唱歌 777
尚属首次 777
投入了 777
金库 777
领导人 777
可用 776
喊 776
尤其是 776
竹 776
紫外线 776
致命 776
儿童的 775
副总裁 775
医疗费 775
半导体器件的 775
周围的 775
涂层 775
生活方式 775
研究机构 775
▁An 774
▁总 774
▁洪 774
多辆 774
大容量 774
情侣 774
投票所 774
李东 774
氢燃料电池 774
氯 774
洗衣机 774
稿 774
缅甸 774
谅解备忘录 774
超出 774
▁他解释说 773
促销 773
委员中 773
方面解释说 773
样的 773
电影院 773
积累的 773
缴 773
选择的 773
亡 772
令第 772
共同开发 772
口号 772
和教育 772
它的 772
已有 772
开了 772
擦 772
有期徒刑 772
金东 772
▁小 771
优点是 771
先导 771
包含在 771
幼 771
排除在 771
紧张感 771
金泉 771
发光二极管 770
堤 770
多层 770
学校生活 770
室外 770
扣押搜查 770
终 770
购买的 770
进军海外 770
阅览 770
面临着 770
》、 769
但最终 769
宣判 769
弱势 769
最后的 769
期货 769
本公司的 769
案件的 769
民主党议员 769
的人士 769
而且在 769
谈论 769
还为 769
之内 768
尊 768
尖端技术 768
法人的 768
第三代 768
下属的 767
产生了影响 767
从去年开始 767
取代 767
教育支援厅 767
的损失 767
盆唐 767
访客 767
购买者 767
▁负责 766
了一个 766
崇 766
无数 766
玩具 766
的程序 766
累积 766
规律 766
驻韩美军 766
MP 765
份额 765
做出的 765
悬 765
相关企业 765
续 765
价格上涨 764
低廉 764
复原 764
所有人都 764
敢 764
模式的 764
涡轮 764
禅 764
等离子 764
著作权 764
1998 763
▁Games 763
展现出 763
工作室 763
抗癌 763
月和 763
泪 763
的说法 763
评选 763
韩国演歌 763
额的 763
▁文 762
尽全力 762
层面的 762
廉价 762
期限为 762
民生党 762
的结果显示 762
看到了 762
第三方 762
获奖者 762
被任命为 762
▁针对 761
浸 761
诊所 761
踩 761
优步 760
周一 760
所述 760
看似 760
看作是 760
磨损 760
辣 760
韩国政府 760
▁New 759
万像素 759
亿韩元和 759
伴 759
体检 759
到处 759
年第 759
患上 759
旨 759
柔性 759
矫正 759
UV 758
ear 758
信仰 758
其中包括 758
其实 758
善良 758
子公司的 758
小幅 758
急需 758
残留 758
水中 758
渔 758
物流中心 758
的主题 758
街道 758
趣 758
重要性 758
面部 758
▁奔驰 757
▁本次 757
三次 757
上升趋势 757
与此 757
业界的 757
伪 757
升高 757
多种多样的 757
屏幕上 757
显示器的 757
经纪人 757
▁被称为 756
南原 756
排名第 756
新罗 756
缺席 756
至今为止 756
跨 756
还决定 756
.2 755
line 755
加强对 755
台风 755
详细内容 755
▁13 754
▁为了防止 754
▁吴 754
临时工 754
临近 754
主任 754
困境 754
将增加 754
早晨 754
水果 754
采访时 754
阴极射线管的 754
4%。 753
CH 753
HA 753
▁用户 753
中首次 753
合计 753
感性的 753
持续进行 753
新村 753
明显的 753
献 753
距 753
FC 752
▁有关 752
▁活动 752
住房 752
山市 752
戈 752
或在 752
新人 752
的风 752
舆论调查 752
蒸汽 752
,11 751
内容是 751
凉 751
已经在 751
最少 751
的现场 751
稀 751
蓝牙 751
被认定为 751
被选 751
1980 750
▁如果是 750
劳动标准法 750
和支援 750
技术的发展 750
教徒 750
派系 750
流失 750
海云台 750
独特的 750
电梯 750
uri 749
主持人 749
便捷 749
动脉 749
原来的 749
家用 749
并使用 749
是关于 749
每当 749
液晶 749
的信号 749
的孩子 749
的比重 749
程序的 749
被评为 749
警察署 749
鹤 749
三维 748
乌兹别克斯坦 748
人以上 748
只剩下 748
号确诊患者 748
学家 748
法则 748
混合动力汽车 748
的图像 748
的情况是 748
盖乐世 748
空气净化器 748
岭 747
延伸 747
打印机 747
政局 747
牧 747
自救 747
裸 747
通信设备 747
隐瞒 747
▁参与 746
▁法院 746
与中国 746
主导权 746
信息通讯 746
可能会出现 746
因此没有 746
团体等 746
抵制 746
晶体 746
给人 746
设备中 746
采取措施 746
从而提高了 745
出现症状 745
大多 745
完成的 745
必然 745
惊讶 745
猎 745
企业主 744
完成度 744
搜索词 744
操作系统 744
群山 744
联系起来 744
车载 744
这个问题 744
黄教安 744
ph 743
▁在此过程中 743
洲 743
身穿 743
▁奥迪 742
上传到 742
仙 742
供电 742
列入 742
和非 742
商圈 742
场合 742
头部 742
扶 742
生命科学 742
腐蚀 742
速度的 742
里程 742
TM 741
▁我想 741
候选人在 741
偶 741
单曲 741
城东区 741
我是 741
所有权 741
投资组合 741
饼 741
fe 740
ise 740
共同市民党 740
所以在 740
日前 740
是可以 740
这不是 740
One 739
▁有分析认为 739
▁正 739
两个月 739
乘车 739
但却 739
出去 739
变革 739
强迫 739
放射线 739
演绎 739
的电极 739
纳税 739
警戒 739
遥控器 739
▁要想 738
一年的 738
一起进行 738
为了使 738
发育 738
在明年 738
基板上 738
将来 738
并行 738
廷 738
按摩 738
方法及 738
镀 738
3, 737
Telegram 737
不得已 737
初创公司 737
发挥了 737
和以 737
商人 737
猛 737
Mobility 736
▁一般来说 736
▁韩亚 736
公开招聘 736
在其他 736
平民 736
榜 736
法理 736
终端的 736
老化 736
诚实 736
近期 736
)", 735
GPS 735
hin 735
▁智能 735
倾 735
器件的 735
国会的 735
增添了 735
对被告 735
射线 735
弹簧 735
强国 735
还与 735
世代 734
城南 734
帽 734
强烈反对 734
课后学校 734
转为 734
队伍 734
92 733
▁公司方面 733
单价 733
木浦 733
运动的 733
霜 733
▁每年 732
上也 732
仪式上 732
卓 732
奥运会 732
局局长 732
这项 732
代表金 731
加盟 731
发电站 731
在过去的 731
子上 731
是国内 731
民主党和 731
登上了 731
的人数 731
的场所 731
竖 731
经纪公司 731
肾脏 731
铅 731
需要的 731
下滑 730
地使用 730
如果将 730
妮 730
收支 730
法人税 730
的话题 730
等企业 730
1.6 729
修改案 729
右侧 729
委员会委员长 729
就没有 729
应以 729
庭 729
形成在 729
成为现实 729
时间内 729
某说 729
轮毂 729
3.0 728
收发 728
相结合的 728
第一天 728
Li 727
Smart 727
一款 727
养老金 727
可以使 727
因此要 727
年左右 727
的不便 727
迎 727
MMORPG 726
替 726
标示 726
电波 726
科斯达克 726
记住 726
万韩元以上 725
各领域 725
学者 725
将有 725
时间里 725
更有 725
灰尘 725
的驾驶 725
相关机构 725
真心 725
计划与 725
负面影响 725
▁执政党 724
不分 724
也可以在 724
产业领域 724
单个 724
居住地 724
感觉到 724
抛光 724
施行规则 724
景观 724
的一般 724
粉丝们的 724
贫 724
金融商品 724
▁更 723
不可避免地 723
中等 723
内饰 723
的儿子 723
的内部 723
相连 723
经济萧条 723
除名 723
MA 722
VIP 722
▁本发明涉及用于 722
丧 722
中坚 722
什 722
俄 722
司机的 722
名牌 722
在大 722
施行令 722
的出现 722
重要的是 722
香烟 722
公众 721
创伤 721
国土交通 721
实现的 721
感受到了 721
愿望 721
新型冠状病毒的 721
旅 721
而且还 721
音译 721
中包含 720
从而可以 720
净利润 720
国会议长 720
国务 720
的节目 720
董事会 720
逐渐增加 720
▁不管 719
▁大韩 719
在京畿道 719
抚养 719
推进了 719
民主党的 719
的成功 719
自己是 719
衍生 719
郎 719
韦 719
ree 718
人都 718
兰博基尼 718
前夕 718
媒体报道 718
昭 718
法修订案 718
的连接 718
选举的 718
韩国通用 718
动画片 717
可以同时 717
在同一 717
强化了 717
新保守党 717
有一 717
正在迅速 717
▁申请 716
下来的 716
及其他 716
和移动 716
和起亚汽车 716
多少有些 716
年以上的 716
是不可避免的 716
的土地 716
种子 716
等领域 716
进口汽车 716
餐饮 716
AV 715
会上表示 715
基础上 715
文明 715
结合了 715
课税 715
附上 715
陌生 715
题材 715
BL 714
XX 714
her 714
▁网络 714
介质 714
优异 714
小时工作制 714
引发了争议 714
握 714
支援等 714
敲 714
是如何 714
的眼神 714
陶 714
▁一个 713
不确定 713
中以 713
为了解决 713
位置的 713
在这 713
拨 713
推算 713
是个 713
本发明的 713
李洛渊 713
膝盖 713
赛道 713
,198 712
9% 712
▁德国 712
▁防疫当局 712
军人 712
动机 712
启动了 712
因此具有 712
堆积 712
引进的 712
恶化的 712
曾表示 712
环境和 712
的协议 712
离开了 712
等方式 712
金前 712
面积为 712
龙山区 712
NE 711
XC 711
产业发展 711
兴奋 711
妇女 711
的报道 711
眼镜 711
结晶 711
行政机关 711
部门的负责人 711
非法行为 711
也开始 710
偏见 710
分之 710
利用率 710
功耗 710
化妆 710
可视 710
搞笑 710
有没有 710
的经营 710
聚焦 710
防卫 710
韩国党的 710
▁Car 709
▁大众 709
为了将 709
同行 709
和利用 709
拆 709
提起 709
新设了 709
的判决 709
的特征在于 709
碰 709
绳 709
越过 709
跟着 709
韩国企业 709
黄色 709
ram 708
为在 708
主演 708
如今 708
将推进 708
岁以上的 708
开放型 708
时期的 708
的扩大 708
的时间里 708
移动到 708
第二季 708
萧条 708
薄弱 708
衡 708
解释称 708
超高速 708
上一 707
新世界 707
晋升 707
的交易 707
的食物 707
紧急情况 707
选定的 707
中选择 706
单纯地 706
同意书 706
环境部 706
降息 706
BA 705
▁金议员 705
中断了 705
亲信 705
南区 705
和治疗 705
在家里 705
增长的 705
客人 705
必需 705
朴成 705
某个 705
比去年同期 705
热门 705
疑 705
的公共 705
系数 705
艇 705
过程的 705
金在 705
陆军 705
Se 704
ae 704
三菱 704
会谈 704
但与 704
劳动合同 704
医疗服务 704
国内的 704
国际标准 704
坛 704
婚姻 704
尤其涉及一种 704
幸福的 704
得票率 704
担任了 704
电池组 704
瘤 704
细致 704
编程 704
这种方式 704
阳川区 704
LP 703
q 703
其它 703
净化 703
到现在 703
劳总 703
匠 703
将减少 703
并发症 703
手指 703
邮政 703
高通 703
Lime 702
PO 702
→ 702
市价总额 702
年均 702
格栅 702
的歌 702
结核病 702
而导致的 702
避 702
2023 701
医院和 701
将正式 701
干涉 701
底部 701
支援了 701
欧元 701
漏洞 701
税额 701
谢 701
IPO 700
东方 700
代表黄教安 700
刊 700
可以得到 700
在家办公 700
正在以 700
程度的 700
专业企业 699
仍然存在 699
休息日 699
只会 699
在当地 699
小时制 699
是否存在 699
月到 699
柜 699
海外旅行 699
的特定 699
行驶性能 699
解决问题 699
贷 699
资本市场 699
辅助系统 699
近距离 699
1997 698
man 698
ud 698
之家 698
伊兰特 698
剧中 698
和在 698
帖子 698
才会 698
执 698
日以后 698
有用 698
熟人 698
直线 698
耦合 698
说道 698
进而 698
API 697
▁st 697
▁想 697
▁日产 697
▁现有的 697
▁看到 697
之地 697
凭证 697
劳动部 697
嘉 697
堤川 697
希望通过 697
建成 697
移动出行 697
ata 696
公募 696
城市的 696
填补 696
扫 696
残疾人的 696
民主和平党 696
烨 696
策 696
而无法 696
记者会 696
▁Bank 695
医学科 695
带动 695
收缩 695
歌词 695
的品牌 695
见的 695
贫困 695
轮廓 695
选为 695
▁本发明提供 694
▁韩华 694
也增加了 694
处置 694
小型车 694
小额 694
检察厅 694
游泳 694
的一种 694
的对策 694
运行的 694
高频 694
SE 693
及方法 693
在对 693
庄 693
的权利 693
相关部门 693
貌 693
跌 693
高涨 693
ME 692
▁14 692
▁大邱市 692
上部 692
也随之 692
住了 692
其在 692
对此表示 692
忠清北道 692
感到很 692
火车 692
知道了 692
行驶的 692
▁Con 691
急剧增加 691
有关人士 691
武装 691
要进行 691
覆 691
透镜 691
邮局 691
为了保护 690
会见 690
低下 690
信息等 690
喜欢的 690
暂停 690
期待感 690
本身就是 690
殷 690
眼泪 690
负荷 690
隧道 690
▁Pl 689
▁庆北 689
女人 689
定律 689
整体上 689
消失了 689
的该 689
考察 689
越高 689
路上 689
违法行为 689
附带 689
靠近 689
LC 688
争夺 688
冻 688
女士 688
定制型 688
抽签 688
揭 688
支持者 688
相关信息 688
▁雇佣劳动部 687
▁雇佣部 687
健全 687
其能够 687
典型 687
和时间 687
和经验 687
左侧 687
收费站 687
施压 687
欺凌 687
海水 687
的因素 687
米的 687
纪录片 687
进一步扩大 687
选择性 687
170 686
KO 686
▁河 686
与去年 686
人是 686
使用许可 686
入侵 686
患者在 686
校内 686
登陆 686
的低 686
看法 686
稍 686
窗户 686
能在 686
脊椎 686
荷兰 686
▁NH 685
▁在此期间 685
为背景 685
人才培养 685
关节炎 685
化等 685
协议案 685
排斥 685
永登浦区 685
的案例 685
等部分 685
经典 685
食材 685
1%, 684
SF 684
▁多 684
▁白 684
交谈 684
人死亡 684
回国 684
增设 684
将实施 684
异物 684
感染症 684
昂贵 684
最低工资上调 684
突出的 684
第六 684
经验和 684
结尾 684
腔 684
自治团体 684
血糖 684
计划于 684
ical 683
主机 683
从今年开始 683
作战 683
发生了变化 683
巡回 683
患者和 683
由韩国 683
电容器的 683
的名称 683
的学生们 683
规范 683
进行投资 683
迫切需要 683
阶层的 683
▁提供一种 682
不应该 682
休业 682
前辈 682
合同工 682
因此不能 682
孙代表 682
服务业 682
的努力 682
胸部 682
该系统 682
遇 682
金海 682
镇压 682
预测说 682
二审 681
产学合作 681
仪表盘 681
公章 681
分会 681
心里 681
本来 681
来改善 681
浮出水面 681
珍贵 681
的一切 681
科学技术信息通讯部 681
筛查诊所 681
轿跑车 681
辩论 681
饰 681
IBM 680
▁15 680
▁Store 680
下一个 680
亲和 680
副议长 680
可能是因为 680
并未 680
所在地 680
接收器 680
显着 680
替换 680
议题 680
部署 680
重返 680
soft 679
▁通过此次 679
启 679
小商工人 679
岳 679
抵 679
教科书 679
死亡率 679
议政府 679
达成了 679
阳极 679
der 678
▁21 678
不够 678
提议的 678
淘汰 678
火箭 678
绩效 678
诊疗费 678
ction 677
但最近 677
发出了 677
招牌 677
的手机 677
等活动 677
粗话 677
组成了 677
虽然在 677
身体的 677
附着 677
顾客提供 677
▁一些 676
▁消费者 676
在议会选举 676
并获得 676
延世大学 676
当天表示 676
找不到 676
最重要 676
染 676
知名度 676
财 676
越野 676
再审 675
字符 675
学历 675
李钟 675
的期待感 675
研究中 675
补偿金 675
量和 675
万件 674
不大 674
似 674
创新的 674
天主教 674
威尔 674
情景 674
控制方法 674
推翻 674
时表示 674
本土 674
的争议 674
的忧虑 674
管理等 674
聚集了 674
菩萨 674
训 674
▁talk 673
▁据推测 673
世界最大的 673
为了克服 673
俞 673
兑 673
党政 673
兵役 673
十二 673
可靠 673
头的 673
形式的 673
影响的 673
派对 673
畜 673
瘫痪 673
的最后 673
的风险 673
脸部 673
葡萄 673
预测的 673
首次亮相 673
▁检察机关 672
▁综合 672
书记 672
在当天 672
地形 672
大型超市 672
序列 672
战略公推 672
抖 672
显得 672
正在展开 672
氢能 672
的心理 672
真诚 672
繁荣 672
越大 672
助威 671
板和 671
▁医院 670
▁按照 670
中东呼吸综合征 670
也备受关注 670
分类为 670
固定在 670
开发院 670
户外 670
既是 670
明确表示 670
点击率 670
疗养院 670
的处理 670
目的地 670
起亚汽车的 670
遭遇 670
-2 669
▁24 669
▁也有人 669
会议室 669
做得 669
另一种 669
如果想 669
居昌 669
平台上 669
得多 669
慢慢 669
支付给 669
本人的 669
破损 669
误解 669
针对性 669
▁韩国银行 668
光源 668
及相关 668
子里 668
接到了 668
瑞草 668
这与 668
通信网 668
7%。 667
▁人们 667
▁柳 667
▁运营 667
不久 667
公里的 667
吸入 667
存在感 667
将分别 667
成的 667
牵 667
现代重工业 667
疏忽 667
竞 667
繁 667
职工 667
调查对象 667
首先要 667
,。 666
3%, 666
▁199 666
传授 666
冒 666
加油站 666
变大 666
团体的 666
就诊 666
文化院 666
新型冠状病毒感染 666
燃油 666
积累了 666
职责 666
说明道 666
身心 666
三家 665
健康检查 665
偷 665
可用于 665
年以 665
开心 665
急剧减少 665
政务 665
日常生活中 665
看点 665
雇佣劳动 665
Be 664
ime 664
▁在首尔 664
咖啡厅 664
妙 664
学校教育 664
时装 664
时速 664
比例代表候选人 664
雕刻 664
颜 664
事前投票 663
从而使 663
偏差 663
告示 663
唐津 663
回生 663
安山 663
实质性的 663
已成为 663
技术等 663
招 663
放弃了 663
的记录 663
等对 663
答 663
裕 663
该项目 663
锦湖轮胎 663
临时国会 662
以前的 662
保护法 662
修炼 662
内容和 662
卵 662
可以选择 662
家长的 662
应用到 662
征兆 662
效率和 662
正在运营 662
爱心 662
石墨烯 662
赛季 662
93 661
互助 661
准确度 661
华城 661
双屏 661
最大规模的 661
李某 661
检查的 661
的主人公 661
经济社会劳动委员会 661
适用了 661
8%。 660
主管部门 660
公职 660
名议员 660
开工 660
懂 660
折磨 660
效果的 660
综合症 660
被发现 660
认为有必要时 660
遗漏 660
邻 660
▁26 659
不断增加 659
事业化 659
今 659
合作社 659
增加趋势 659
宝贵 659
无线电话 659
正在努力 659
爆笑 659
的电视剧 659
管理法 659
颁奖 659
高喊 659
Tra 658
▁这样的 658
人事听证会 658
传达给 658
冒险 658
在最近 658
届国会议员 658
岩石 658
气体的 658
汁 658
界面 658
相关人员 658
磁性 658
社会经济 658
祭祀 658
禁烟 658
落后 658
ream 657
▁虽然是 657
也能够 657
受害者的 657
媒介 657
学习的 657
家人的 657
手术后 657
斜 657
柔和 657
电路板 657
育 657
ail 656
▁从今年 656
▁据韩国 656
▁银行 656
仅通过 656
企业银行 656
充电站 656
昊 656
本身就 656
甲选区 656
疾 656
结局 656
规定了 656
飞行员 656
寒假 655
并不容易 655
旋律 655
棉 655
毫 655
相邻 655
过度的 655
金钟仁 655
食谱 655
IFA 654
MongoDB 654
主体的 654
成品 654
教材 654
株式会社 654
织 654
给予了 654
营业利润为 654
议员等 654
侨民 653
午 653
半导体制造 653
将介绍 653
尺 653
诞生的 653
,2018 652
▁Lab 652
▁其特点是 652
▁经确认 652
一下子 652
仔细观察 652
伐 652
奏 652
尽量减少 652
感染了 652
盆 652
直营 652
规定的事项 652
警察局 652
重力 652
院内代表罗卿瑗 652
▁e 651
▁期待 651
和欧洲 651
小委员会 651
并且具有 651
心动 651
报勋 651
活跃的 651
牵引 651
特朗普总统 651
的爱 651
礼仪 651
绝缘膜 651
饱和 651
EA 650
你的 650
周二 650
在新 650
大致 650
尖锐 650
建立的 650
形成方法 650
无论是 650
的目标是 650
相关公务员 650
资格证 650
都市 650
颗 650
高中生 650
高等 650
开发公司 649
挤 649
支付了 649
日进行 649
死者 649
民俗 649
深夜 649
等多个 649
起的 649
GO 648
Star 648
▁Sh 648
▁在当天的 648
从明年 648
会计年度 648
在德国 648
擅自 648
旗下 648
泊 648
漫游 648
观念 648
都将 648
雇佣保险 648
非正式 648
SC 647
itch 647
▁上 647
世宗市 647
个项目 647
丰富多彩 647
体育馆 647
公民 647
变压器 647
因此备受关注 647
国政监查 647
安卓 647
数据传输 647
电影的 647
确信 647
pl 646
▁水 646
事物 646
卖空 646
喜悦 646
太空 646
放射 646
炸鸡 646
的城市 646
苯 646
酯 646
BM 645
GE 645
▁One 645
但为了 645
和分析 645
托管 645
早上 645
枝 645
生活治疗中心 645
癌细胞 645
相差 645
睡觉 645
精度 645
背后 645
解码 645
RF 644
▁驳回 644
中包括 644
大幅提高 644
惊 644
无条件 644
每小时 644
没有得到 644
瑕疵 644
美国和 644
1600 643
▁比 643
和各种 643
在整个 643
岗位 643
差别化的 643
总监 643
新车的 643
溶解 643
用户提供 643
的职员 643
秘 643
积极利用 643
移动应用程序 643
让观众 643
CN 642
▁新韩 642
中获得了 642
共同研究 642
华丽的 642
可疑 642
文在寅政府的 642
用语 642
经济危机 642
鉴 642
三星电子和 641
中继 641
修正 641
在发生 641
家具 641
平稳 641
恰 641
援 641
毒品 641
秋季 641
等内容 641
等国内 641
结果的 641
而是在 641
自助 641
见面的 641
送往 641
雇佣部 641
韧 641
FM 640
TK 640
▁并且 640
不足的 640
买入 640
协议的 640
外壳 640
已被 640
托管教室 640
拿出 640
排在第 640
法和 640
痕迹 640
的疑惑 640
红外线 640
经济政策 640
ETF 639
ode 639
中秋节 639
为了扩大 639
审查委员会 639
总务 639
恩惠 639
最高水平的 639
每个人 639
脱口秀 639
英菲尼迪 639
不让 638
亲文 638
合唱团 638
干练 638
年级的 638
电动汽车的 638
社会安全网 638
该地区 638
赤 638
转型 638
锅 638
领导能力 638
HO 637
一片 637
为起点 637
保守阵营 637
各部门 637
呼吸困难 637
国会议长文喜相 637
委员们 637
导航仪 637
展开竞争 637
性剥削 637
有潜力的 637
照片墙 637
现在是 637
相互作用 637
第二学期 637
钢琴 637
面谈 637
预想 637
ESS 636
II 636
Youtube 636
lab 636
▁他接着说 636
▁大法院 636
佐 636
停止了 636
克制 636
尤其涉及 636
就连 636
强力 636
愉快的 636
损 636
斥 636
积极地 636
蒸 636
说过 636
铜雀区 636
MD 635
▁他还说 635
▁委员 635
▁认为 635
今晚 635
吐露 635
和发展 635
技巧 635
无限期 635
时刻 635
构 635
桃 635
等信息 635
羊 635
蛋 635
融入 635
防止在 635
FT 634
化学反应 634
官网 634
所以要 634
接入 634
政权的 634
新兴 634
日在美国 634
深刻 634
的人的 634
符 634
筛选诊所 634
统合党候选人 634
MariaDB 633
▁同时还 633
什么时候 633
以使 633
典 633
名学生 633
拒绝了 633
捐赠了 633
最大股东 633
特辑 633
的议员 633
瞄准 633
第二代 633
被感染 633
调制 633
销路 633
露营 633
▁如果将 632
今年下半年 632
体质 632
信赖度 632
常识 632
幻 632
据悉 632
月租 632
登记为 632
的认识 632
确认的 632
联合政党 632
2%, 631
are 631
▁该产品 631
▁通用汽车 631
主打歌 631
减排 631
劳资关系 631
卫生间 631
原判 631
可爱 631
可靠性的 631
台词 631
圆满 631
学生家长 631
病毒的 631
罗院内代表 631
行政安全部 631
▁沈 630
为迎接 630
大数据分析 630
小型化 630
小学生 630
山的 630
成像 630
生产性 630
的治疗 630
相位 630
粮食 630
院内代表李仁荣 630
,2017 629
PCB 629
▁在此 629
体系的 629
在青瓦台 629
多年 629
正在调查 629
没有出现 629
消费者对 629
细腻 629
追加更正预算案 629
金融控股 629
驾驶席 629
,18 628
20%。 628
▁告诉我 628
▁国民 628
一词 628
事业法 628
多样性 628
拘捕令 628
潜伏期 628
计划到 628
转换器 628
非常高 628
Trot 627
加速器 627
合作关系 627
和不 627
大使 627
心灵 627
愧 627
撤 627
败诉 627
贬低 627
频带 627
4%, 626
SS 626
ult 626
▁至此 626
也与 626
伟 626
卷入 626
发送到 626
嫌疑人 626
并且通过 626
拿到 626
正在接受 626
献血 626
生产效率 626
的最高 626
终身教育 626
耶 626
视力 626
这意味着 626
▁中小企业 625
发生事故 625
受惠 625
必须要 625
晓 625
朝着 625
爬 625
的大众 625
的道路 625
确认书 625
等因素 625
罗马 625
美的 625
逊 625
间隙 625
▁Al 624
与去年同期相比 624
企 624
后立即 624
手中 624
柔软 624
稻 624
类似于 624
粘合剂 624
资方 624
防止了 624
▁裁判部 623
两侧 623
之情 623
唱片 623
大会上 623
庞大的 623
当地人 623
曹前长官 623
正在研究 623
演出的 623
的意愿 623
的眼 623
途中 623
阿里巴巴 623
240 622
▁Un 622
一场 622
关门 622
后进行 622
和人工智能 622
完美的 622
尽情 622
手机的 622
杀害 622
画报 622
的大数据 622
的实际 622
的应对 622
着的 622
荫罩 622
OECD 621
▁每个 621
出演了 621
和汽车 621
存储在 621
工厂生产 621
廉 621
昂 621
狂 621
的书 621
的机器人 621
ISO 620
Web 620
du 620
▁但在 620
▁区厅长可以 620
▁非 620
产业技术 620
作出 620
和后 620
将用于 620
带领 620
放射性 620
民事 620
的长 620
芝 620
费用由 620
赠与 620
LIME 619
上限 619
司法改革 619
孤独 619
局势 619
开口 619
或不 619
排放量 619
日子 619
端的 619
这是为了 619
阵列 619
= 618
OO 618
ator 618
ium 618
劳资政 618
医院接受治疗 618
原子能 618
发生时 618
国税厅 618
场外 618
女王 618
妥当 618
总共 618
敦 618
日元 618
的最佳 618
目光 618
英才 618
薛 618
还通过 618
里面 618
PG 617
上市公司 617
因此有必要 617
安装的 617
尸体 617
得不到 617
放映 617
1970 616
1995 616
▁SBS 616
▁很多人 616
任何地方 616
基金运用 616
岭南 616
当选为 616
性犯罪 616
搬 616
油耗 616
电器 616
看待 616
而进行的 616
蓄 616
驾驶座 616
龟 616
▁沃尔沃 615
上级 615
冷冻 615
容量的 615
忍受 615
支部长 615
炸 615
系列的 615
罚 615
舰 615
订 615
运营了 615
▁获得 614
交给了 614
保健福利部 614
光线 614
包容 614
坠落 614
恶性 614
收录 614
的目的是 614
第一届 614
等为 614
继续进行 614
请大家 614
首尔特别市芦原区 614
一致认为 613
上使用 613
两倍 613
使用量 613
公用 613
分科 613
幸运 613
开放民主党 613
提醒 613
渡 613
电视的 613
的影响力 613
的金融 613
相关条例 613
跨国 613
进行研究 613
非营利 613
顺畅 613
▁以前 612
▁游戏 612
会以 612
共振 612
减速 612
反映到 612
只对 612
在其 612
应为 612
性价比 612
技术为基础 612
投影 612
甜蜜 612
第一季度的 612
签 612
美术馆 612
能成为 612
自然而然地 612
进行处理 612
销售公司 612
rem 611
▁应该 611
为一 611
利用了 611
在一 611
工作时 611
巧 611
指令 611
换成 611
柔 611
的高性能 611
▁( 610
专业知识 610
交通工具 610
便携式终端 610
加大 610
压倒性的 610
均匀地 610
材料和 610
瓷 610
竞争公司 610
系统半导体 610
紧随其后 610
罗曼史 610
表格 610
该事件 610
转化为 610
这些人 610
需求的 610
震动 610
no 609
ric 609
▁围绕 609
产物 609
半导体芯片 609
商业银行 609
富川市 609
导演的 609
扑 609
指导方针 609
新生儿 609
水产 609
的不确定性 609
被判定为阴性 609
议会议员 609
1.0 608
卡尔 608
可以要求 608
多岁女性 608
奔跑 608
日志 608
的检查 608
降低成本 608
难度 608
鼻子 608
ATM 607
CBS 607
af 607
但他 607
制造出 607
回帖 607
国籍 607
是具有 607
涌入 607
胡同 607
舱 607
锦 607
1300 606
CA 606
Cl 606
Qu 606
▁v 606
下面的 606
中心和 606
企业在 606
借助 606
做到 606
双龙汽车的 606
因此将 606
投资了 606
放学 606
机关负责人 606
比较好 606
漫 606
的文件 606
的日子 606
臭 606
蔚珍 606
走了 606
越多 606
追悼 606
▁不能 605
▁徐 605
倾听 605
其结果 605
和提高 605
在工作 605
地方检察厅 605
存入 605
突发 605
表示感谢 605
ona 604
▁京畿 604
中型轿车 604
会给 604
储备 604
全罗北道 604
其中的 604
加以 604
国务总理李洛渊 604
地理 604
广播通信委员会 604
开馆 604
挑选 604
等需要 604
观测说 604
▁光 603
▁在这 603
▁车 603
产品和 603
和生活 603
将公开 603
提出申请 603
文档 603
时间段 603
有力 603
服务器的 603
汉江 603
海运 603
的咨询 603
龙仁市 603
Big 602
gen 602
▁与此相关 602
分配给 602
在各 602
坤 602
堵塞 602
声称 602
处理方法 602
层出不穷 602
次的 602
欺骗 602
民众 602
氟 602
车等 602
还准备了 602
齿 602
ake 601
ome 601
▁金融当局 601
不允许 601
中形成 601
低成本 601
制作成 601
唐 601
地板 601
弥 601
提供支援 601
整备 601
昌原市 601
月以后 601
月底 601
水和 601
眼神 601
自治区 601
道具 601
面上 601
FDA 600
ence 600
to 600
▁the 600
▁业界认为 600
光化门 600
共同民主党议员 600
半导体元件的 600
的气 600
的气氛 600
者或 600
而遭受 600
转子 600
项第 600
RPA 599
乃至 599
传开 599
做准备 599
分钟内 599
加利福尼亚 599
可以不 599
安全网 599
放学后 599
梨泰院俱乐部 599
比前一年 599
照顾教室 599
缴纳的 599
至第 599
▁27 598
也有很多 598
他还表示 598
公交 598
发展成为 598
广津区 598
抛 598
拟 598
的限制 598
相关内容 598
稀有 598
预付 598
风景 598
▁GS 597
▁Mobility 597
▁在第 597
▁这也是 597
动力总成 597
救援 597
更正 597
没有其他 597
的他 597
而进行 597
视频会议 597
丰田汽车 596
代表在 596
保持社会距离 596
初选 596
姿态 596
小时的 596
市民的 596
接触到 596
政府将 596
无线电 596
期满 596
煤气 596
的医院 596
示 596
系统中的 596
美洲 596
舒 596
设置为 596
食品医药品安全处 596
▁22 595
主管的 595
只能在 595
年销售额 595
拆卸 595
曾担任 595
现役 595
的父亲 595
经济性 595
节目的 595
运动型多用途汽车 595
金刚 595
365 594
50%。 594
Med 594
▁IT 594
不变 594
人数为 594
价格为 594
例行 594
区政府 594
可爱的 594
喷嘴 594
支援政策 594
教育院 594
法制司法委员会 594
辆车 594
选定为 594
阀 594
限定 594
ame 593
ew 593
ith 593
km 593
▁25 593
产业通商资源部 593
从上个月 593
仓 593
国库 593
国际电影节 593
小时内 593
岁女性 593
总长 593
所说 593
易买得 593
是由于 593
是继 593
毁 593
汽 593
法等 593
海啸 593
环节 593
的政党 593
的老 593
而是以 593
轻型 593
风扇 593
ION 592
air 592
▁已经 592
▁根据法律第 592
中小企业和 592
事业费 592
代币 592
作曲 592
协同 592
墙壁 592
孟 592
恶意 592
破格 592
第二位 592
计量 592
车轮 592
违 592
迫切 592
金英 592
饲养 592
下班 591
从根本上 591
会议记录 591
信心 591
债权人 591
偏向 591
厚的 591
天才 591
失踪 591
如果出现 591
完毕 591
待机 591
扔 591
杂质 591
比去年同期增加了 591
湖北省 591
的事实被 591
的市民 591
的方式进行 591
看了 591
签发 591
赌博 591
金融公司的 591
韩国和 591
高分子 591
220 590
ment 590
ru 590
▁只 590
一部 590
东南 590
并积极 590
怎样 590
旅费 590
狮跑 590
登载 590
碗 590
纵 590
芳 590
规定为 590
韩国党议员 590
麻醉 590
eta 589
区域内 589
协约 589
差额 589
很大的帮助 589
档案 589
河东 589
的疾病 589
的范围内 589
笑容 589
过来 589
▁即使在 588
不起 588
为确保 588
事业部门 588
代案新党 588
们对 588
执行的 588
抵消 588
最重要的 588
比赛中 588
的一面 588
的智能手机 588
的美 588
类似的 588
记者们 588
非接触 588
音箱 588
下降趋势 587
个市 587
乎 587
代表说 587
以色列 587
使用者的 587
创造工作岗位 587
动感 587
同盟 587
广域市 587
职能 587
Mr 586
UI 586
下方 586
为原则 586
人选 586
余力 586
医疗界 586
地方选举 586
姓名 586
字幕 586
实例 586
将按照 586
斯坦 586
日凌晨 586
晶片的 586
的设施 586
等也 586
聊天机器人 586
进行沟通 586
递 586
静止 586
高中的 586
高考 586
▁当天上午 585
个人信息保护 585
乙选区 585
任职 585
优异的 585
伯格 585
半导体装置 585
原定于 585
后辈 585
圣达菲 585
开展了 585
忠清 585
改良 585
滤波器 585
煮 585
生命的 585
的贷款 585
茂 585
解释为 585
预测值 585
BTS 584
▁Tech 584
两人的 584
中央银行 584
健康状况 584
全部或部分 584
写了 584
加快了 584
发生后 584
发送了 584
大米 584
帝国 584
恋人 584
悦 584
教授表示 584
无线电波 584
烛光 584
箭 584
该技术 584
风力 584
WD 583
sc 583
▁2020 583
▁马 583
专业人才 583
伙伴关系 583
传出 583
共同参与 583
分的 583
少的 583
州的 583
已经开始 583
性疾病 583
束缚 583
武汉市 583
线索 583
负责人的 583
跨国企业 583
这是一个 583
高丽大学 583
"。 582
,30 582
IV 582
LL 582
▁Play 582
▁得益于 582
不像 582
全球经济 582
双龙 582
堆叠 582
新冠肺炎确诊者 582
深化 582
热爱 582
生产量 582
的角度 582
的课题 582
盲目 582
美食 582
认定为 582
赏 582
▁2017 581
▁也许 581
不过 581
亿美元的 581
党领导层 581
全体国民 581
十足 581
和地区 581
和支持 581
图像传感器 581
振荡 581
放心 581
机关的负责人 581
燃气 581
的批准 581
缓和 581
被起诉 581
览 581
记得 581
谨慎 581
逼 581
10%。 580
中旬 580
今年年初 580
制作人 580
在家庭 580
将是 580
并被 580
推荐的 580
日公布了 580
毕业于 580
渔业 580
环保车 580
疾病患者 580
的范围 580
筹措 580
终身 580
识 580
辅佐官 580
8%, 579
Air 579
Libra 579
kg 579
ning 579
▁En 579
▁爱 579
▁韩国国内 579
专门机构 579
为了加强 579
主人 579
仅靠 579
僧 579
出租 579
搬迁 579
时间为 579
智英 579
没有必要 579
的一位相关人士表示 579
网吧 579
设备和方法 579
这对 579
万多名 578
不佳 578
他人的 578
但未能 578
假新闻 578
典型的 578
制定并 578
戴着 578
扩建 578
明示 578
社会贡献 578
cell 577
▁当天的 577
出国 577
别的 577
危险的 577
听众 577
国会法 577
将在本月 577
局部 577
杠杆 577
柯 577
民主总工会 577
灾难支援金 577
租赁住宅 577
躲避 577
▁黄 576
也通过 576
共享服务 576
制作公司 576
医师 576
坚固 576
平坦 576
应对方案 576
弱点 576
想要的 576
收受 576
月份的 576
疑似症状 576
相关技术 576
硬币 576
行人 576
记录了 576
▁公开了 575
伸 575
升级为 575
委员长表示 575
岁月号 575
收购合并 575
有罪 575
涂覆 575
激烈的竞争 575
者提供 575
衰退 575
轻症患者 575
Th 574
▁GT 574
▁两人 574
信用信息 574
充实 574
变性 574
干预 574
扶持 574
约会 574
组合成员 574
芦原区 574
远程控制 574
钠 574
险地 574
USB 573
▁一直 573
▁即使是 573
区内 573
及支援 573
发病率 573
在政府 573
型肝炎 573
妇 573
子宫 573
导航系统 573
得出的 573
恢复正常 573
电路的 573
的股价 573
答复 573
虽然有 573
遥控 573
金浦 573
闲 573
4.0 572
▁在此之前 572
发电厂 572
地方公务员 572
执政党的 572
抢 572
时会 572
游戏中 572
用手 572
的诉讼 572
罢免 572
轻松地 572
KOSDAQ 571
MI 571
中出现 571
制约 571
制造公司 571
在市场上 571
基准利率 571
大使馆 571
室等 571
将出演 571
担当 571
放大器 571
珍岛 571
用了 571
的主体 571
的规模 571
的解决方案 571
索引 571
肤 571
金秀 571
韩泰轮胎 571
高敞 571
ire 570
▁如果你 570
售罄 570
国营 570
大胆 570
度过了 570
最大限度地减少 570
的关注度 570
的医生 570
直观 570
石头 570
砂 570
而死亡 570
评价中 570
进行交易 570
附加价值 570
"), 569
9%。 569
▁28 569
▁国际 569
久的 569
会受到 569
传说 569
伤口 569
使命 569
做法 569
历任 569
呼吸道症状 569
在一定 569
大部分都是 569
尊敬 569
就在 569
弼 569
所属公司 569
方形 569
最初的 569
的国际 569
石墨 569
第一大 569
等服务 569
缩减 569
而无需 569
自去年 569
蒸发 569
行列 569
进行了调查 569
重量级 569
▁华为 568
一起去 568
也可能 568
了韩国 568
令人担忧 568
农乐 568
农渔村 568
努力的 568
在前一天 568
惊人的 568
旺 568
某和 568
章程 568
网络和 568
话剧 568
辖区内 568
-3 567
ord 567
road 567
▁fold 567
▁民主劳总 567
偿 567
公务员的 567
化学物质 567
周年的 567
坎 567
增长趋势 567
富平 567
押 567
拜托 567
控制的 567
收纳 567
放松 567
材质 567
模块的 567
民间委托 567
消除了 567
的电压 567
能够以 567
误会 567
这也 567
91 566
Gr 566
▁区厅长应 566
为主要 566
企业也 566
凉爽 566
刷新 566
吵 566
在野党的 566
持续增长 566
改善方案 566
新政 566
横幅 566
相吻合 566
看出 566
选举制 566
cm 565
万张 565
三陟 565
刚开始 565
剥夺 565
和水 565
囊 565
在外 565
扇 565
议席数 565
负责任 565
输送 565
饮 565
SR 564
ower 564
▁经济 564
▁调查 564
三年 564
上诉理由 564
下调利率 564
产品中 564
和投资 564
太大的 564
想的 564
指纹 564
提高对 564
最低工资的 564
最高法院 564
有所下降 564
活动时 564
的正式 564
算是 564
裤 564
辞去 564
通用大宇 564
30%。 563
AND 563
Inter 563
不亚于 563
不仅对 563
两家 563
公式 563
历史最高 563
可能性的 563
学员 563
市场中 563
开票 563
开院 563
彦 563
概 563
浆 563
炮 563
电视机 563
的组织 563
移动通信终端机 563
而发生 563
蔚山市长 563
贷款利率 563
进行咨询 563
郡的 563
预告片 563
领域中 563
一方 562
不论 562
为了帮助 562
为了改善 562
之外的 562
伙食 562
创作者 562
多么 562
工作者 562
很难找到 562
改善的 562
星星 562
期间内 562
棚 562
水准 562
状况下 562
生活质量 562
百姓 562
的电脑 562
目前还没有 562
行政官 562
衡量 562
被取消 562
诸多 562
贪污 562
赵会长 562
Google 561
KCGI 561
▁此 561
低收入阶层 561
公共设施 561
化石燃料 561
回来 561
快速通道法案 561
惩罚 561
感受到的 561
摸 561
未来统合党候选人 561
柬埔寨 561
榜首 561
的一天 561
移动路线 561
等措施 561
精细 561
路面 561
边界 561
重要作用 561
阶级 561
lip 560
▁note 560
上没有 560
世界卫生组织 560
世界经济 560
中规定的 560
以免 560
仿佛 560
国土部 560
多元化 560
它是 560
对象中 560
并利用 560
招商引资 560
漆 560
演员们 560
简易 560
细分 560
苏联 560
账簿 560
进口车的 560
进行评价 560
长途 560
CU 559
orm 559
▁组合 559
一审 559
不仅要 559
主义者 559
叫做 559
可以自由 559
始兴 559
对自己 559
山茶 559
希望的 559
极大 559
汽油发动机 559
细微 559
适当地 559
NT 558
QR 558
为了实现 558
从业者 558
增长动力 558
始于 558
学校暴力 558
应力 558
往往 558
流向 558
特殊雇佣 558
的女儿 558
等于 558
贯 558
NHN 557
ai 557
▁诉讼 557
免受 557
家长会 557
常见 557
怀着 557
接力 557
方向的 557
来控制 557
没收 557
的业绩 557
的区块链 557
研究委员 557
舒适的 557
解决方法 557
越是 557
预示着 557
ll 556
。", 556
业界首次 556
传奇 556
冷静 556
多多参与 556
委托运营 556
将举办 556
小米 556
庆祝 556
朴正 556
电场 556
空缺 556
衰 556
议员说 556
额为 556
鲍 556
▁因为是 555
▁本发明涉及一种在 555
充足 555
加入的 555
可以实时 555
孔的 555
属性 555
巾 555
恰当 555
玩家 555
的电动汽车 555
跃 555
这句话 555
验 555
为预防 554
主持的 554
人座 554
供求 554
剩 554
匿名 554
因此决定 554
国内市场 554
幻想 554
广阔 554
收容 554
政策和 554
硕士 554
等大型 554
解决方案的 554
ble 553
▁ENM 553
。。 553
中国政府 553
予 553
倍左右 553
先发制人的 553
台账 553
吐 553
呆 553
所占 553
扭矩 553
日从 553
星期五 553
柯兰多 553
水库 553
特惠 553
的含义 553
随后 553
首次公开 553
era 552
▁23 552
亲近 552
仁川市 552
兑换 552
其目的是 552
可穿戴 552
各位 552
大幅下降 552
年后的 552
很低 552
所拥有的 552
按下 552
智能手机应用程序 552
电解液 552
荒 552
认购 552
afe 551
世界级 551
写着 551
分行 551
占总 551
和文化 551
委员组成 551
年被 551
引入了 551
未来资产 551
椅 551
沉默 551
电容 551
确诊的 551
结构和 551
雇主 551
GDP 550
优先顺序 550
健全性 550
功劳 550
可以成为 550
向国民 550
和与 550
无法正常 550
是一款 550
显示装置的 550
毒性 550
法施行令第 550
违规 550
选出的 550
ock 549
亲朴 549
仅次于 549
制定并实施 549
半导体元件 549
发酵 549
同一天 549
太平洋 549
将不 549
山林 549
推迟了 549
收获 549
日将 549
暴力的 549
液态 549
的双 549
碳纤维 549
股份的 549
肺部 549
著 549
财富 549
近代 549
防水 549
颈 549
骨折 549
Co 548
下车 548
两周 548
乘务员 548
也是因为 548
决定对 548
切除 548
同一个 548
回到了 548
在购买 548
在这个 548
夸张 548
宣布了 548
将比 548
工资协商 548
弯 548
恒定 548
所学校 548
效率性 548
最新的 548
有限公司 548
芽 548
著名的 548
运动型 548
选择性地 548
题为 548
6%。 547
amp 547
▁他还补充说 547
中低价 547
在一起的 547
夏令营 547
少量 547
快的 547
我在 547
斗山重工业 547
激动 547
直属 547
绿豆 547
自由韩国党代表黄教安 547
西大门区 547
还补充说 547
韩半岛 547
驾驶的 547
Pay 546
人均 546
仁川机场 546
他补充道 546
信用评价 546
债务人 546
分期 546
向区厅长 546
将要 546
小儿 546
平行 546
并制定 546
并提出了 546
旋 546
电子烟 546
的人口 546
资金筹措 546
青少年的 546
齿轮 546
▁Ar 545
▁本发明提供了 545
。"," 545
上演 545
之一就是 545
再次发生 545
加密货币交易所 545
复合材料 545
定义为 545
捷豹路虎 545
的母亲 545
装修 545
这一点来看 545
酚 545
雪莉 545
me 544
▁Star 544
▁更何况 544
▁现代汽车公司 544
▁许 544
些 544
仍在 544
共同代表 544
写有 544
去医院 544
圣母医院 544
壁垒 544
室和 544
并由 544
得很 544
用水 544
短时间内 544
美中贸易 544
雇佣稳定 544
ier 543
▁如果没有 543
▁有分析称 543
付费 543
位居第一 543
办事处 543
发展和 543
室室长 543
并用 543
广津 543
攻防战 543
日正式 543
民官 543
爱国 543
的负担 543
线和 543
读者 543
金基 543
Si 542
Windows 542
ook 542
▁明年 542
一年内 542
之类的 542
任何一个 542
公文 542
关闭了 542
判断为 542
四大 542
大选候选人 542
定期国会 542
实施计划 542
展览会 542
希望能 542
德里 542
忘 542
新冠肺炎的扩散 542
晶体管的 542
月份开始 542
每年都会 542
瑞山 542
病原体 542
的形态 542
的政府 542
的概率 542
相机的 542
荒唐 542
避开 542
陪 542
.4%。 541
.9%, 541
iew 541
▁据此 541
不超过 541
共同住宅 541
可进行 541
底盘 541
抱着 541
日透露 541
时产生的 541
条及 541
注册的 541
清州市 541
福利设施 541
除去 541
▁2008 540
事业场 540
值得关注 540
健康和 540
党权派 540
入场 540
即将到来的 540
吃的 540
小商工 540
形状的 540
电解 540
筋 540
而备受关注 540
计划在今年 540
讨厌 540
让观众们 540
问答 540
首任 540
ING 539
▁Solution 539
▁电子 539
供奉 539
变化和 539
可怕 539
合唱 539
回复 539
家中 539
寒冷 539
对策委员会 539
市民党 539
弃 539
是基于 539
曾是 539
此外 539
民主化运动 539
热的 539
玛丽 539
理由的 539
的证据 539
配线 539
金永 539
▁如果有 538
业界相关人士表示 538
也将在 538
人等 538
优雅 538
制作组 538
址 538
挽救 538
数据和 538
歌剧 538
的质量 538
联手 538
闪存 538
1、 537
IX 537
▁但是随着 537
▁大多数 537
以及在 537
压电 537
御 537
志愿活动 537
提供多种 537
来决定 537
渴望 537
的子公司 537
研究院院长 537
简便结算 537
者进行 537
远的 537
适用的 537
雾 537
7%, 536
▁n 536
三十 536
个人投资者 536
事业等 536
亿韩元以上 536
体裁 536
力学 536
区厅长应 536
品尝 536
就可以在 536
应用程序的 536
很长时间 536
忙碌 536
描绘了 536
新天地信徒 536
标准利率 536
江西 536
源于 536
灯泡 536
点在 536
的电流 536
网络安全 536
要领 536
计划今后 536
讨 536
说的话 536
金额为 536
!" 535
450 535
EST 535
▁另 535
东莱 535
但以 535
公告栏 535
冠岳区 535
分成 535
剩下 535
卸 535
友利金融 535
后期 535
夹具 535
新事业 535
新产业 535
最后一次 535
湾 535
现代汽车公司 535
电力的 535
的安全性 535
的居民 535
股权 535
起火 535
跆拳道 535
骨骼 535
3、 534
Ad 534
UP 534
olution 534
▁Ex 534
▁下面 534
▁本发明在 534
列表 534
十五 534
听证 534
开发事业 534
抚 534
抱歉 534
最低工资委员会 534
有偿增资 534
留下的 534
福利馆 534
腹泻 534
被拘留 534
过半 534
逸 534
钛 534
锂二次电池 534
Tw 533
box 533
举行的第 533
养老 533
厅的 533
大海 533
将展示 533
找回 533
提到的 533
方法等 533
机构投资者 533
权和 533
极大的 533
的在线 533
解放 533
该车 533
费用负担 533
陷 533
▁国立 532
▁如果想 532
▁我国 532
▁本研究 532
中提取 532
公平交易委员会 532
削发 532
图表 532
复发 532
巡 532
排气量 532
新冠肺炎确诊病例 532
生成的 532
由于在 532
臣 532
轿跑 532
.9% 531
int 531
mo 531
▁所 531
不合格 531
今后也将 531
出纳员 531
发挥作用 531
因此有人 531
如上所述 531
并提出 531
报警 531
拉斯 531
热处理 531
秘书室长 531
自然的 531
装置中 531
Me 530
▁CNS 530
▁旧 530
为了培养 530
功能性 530
将从本月 530
生病 530
联动型比例代表制 530
著作 530
这时 530
销售业绩 530
▁可以说 529
▁的 529
与国内 529
凭 529
和朴 529
国防部 529
填 529
小心 529
应答 529
明朗 529
来说是 529
版权 529
的一名 529
移居 529
9%, 528
NASA 528
wa 528
切实 528
恢复了 528
时效 528
月与 528
松坡 528
治疗方法 528
海外市场 528
的国会 528
的申请 528
素质 528
膏 528
苗 528
课堂 528
Lab 527
▁为了提高 527
为了不让 527
传开后 527
体育设施 527
做什么 527
加热器 527
可以为 527
可获得 527
因此预计 527
团体协议 527
在预算范围内 527
大流行 527
奔驰韩国 527
年假 527
建模 527
弹性工作制 527
托儿所 527
氨 527
溶剂 527
的高速 527
蔚山市 527
▁EV 526
▁截止到 526
▁部分人 526
、7 526
交易量 526
劳动力 526
塔吊 526
宣布不参加竞选 526
室内空间 526
强者 526
氧化膜 526
特约 526
的性质 526
▁Net 525
仪器 525
伽 525
保健福利 525
发行了 525
备受瞩目的 525
宥 525
局限于 525
役 525
桥梁 525
段时间 525
点到 525
继续保持 525
SP 524
下半年开始 524
不明确 524
个议席 524
授权 524
洗衣 524
理由是 524
的可能性很高 524
的季节 524
的成员 524
给你 524
能够提高 524
阻力 524
Sc 523
▁2018 523
▁The 523
▁用于 523
上门 523
东大门 523
乐器 523
亿韩元左右 523
侮辱 523
公共住宅 523
分手 523
呼声 523
委员会审议 523
尴尬 523
并不多 523
志愿服务 523
政府对 523
李副会长 523
梯 523
疾病管理 523
的呼声 523
系统地 523
综合管理 523
网上开学 523
耕 523
胳膊 523
销量的 523
.6%。 522
下次 522
举行记者招待会 522
剥离 522
医药 522
塞尔托斯 522
大企业的 522
大受欢迎 522
并给予 522
指出了 522
文物 522
是美国 522
有可能成为 522
有效管理 522
母公司 522
激发 522
生产和 522
生日 522
的股票 522
短暂 522
神经细胞 522
等以 522
紧迫 522
罗卿瑗 522
聪明 522
肠道 522
脱发 522
讲课 522
金正恩 522
50%, 521
▁2019" 521
▁OLED 521
不方便 521
中央会 521
停课 521
其他地区 521
决定向 521
分娩 521
同月 521
否则 521
大体上 521
帅 521
教育等 521
新闻发布会 521
物种 521
过敏性 521
随时随地 521
雇佣率 521
项格式 521
食堂 521
马力的 521
骑 521
10~ 520
Wh 520
ux 520
▁2016 520
全体职员 520
可以委托 520
奴隶 520
性问题 520
或通过 520
支付津贴 520
政改特委 520
留学 520
经营界 520
缩短工作时间 520
菲亚特 520
试点 520
量化 520
UR 519
也很大 519
乡村 519
但并没有 519
像是 519
在北美 519
场地 519
居民的 519
有效运营 519
李代表 519
标明 519
框 519
流体 519
牢 519
班长 519
电网 519
疼 519
的感情 519
的革新 519
祸 519
计算的 519
让步 519
输出的 519
飙升 519
30%, 518
也是如此 518
也比 518
公平交易 518
向上 518
学界 518
定居 518
居住的 518
快捷 518
操作的 518
无限制 518
是拥有 518
次以上 518
渎职 518
的新产品 518
结束时 518
钓鱼 518
预防守则 518
10%, 517
▁现代起亚汽车 517
一半的 517
中大型 517
乳腺癌 517
公演 517
区议会 517
可以更 517
图案的 517
在国会举行的 517
垃圾袋 517
宴 517
就已经 517
引起争议 517
接收机 517
法务部长官曹国 517
流逝 517
生活费 517
的行动 517
科纳 517
综合征 517
谅解 517
转达 517
辅 517
高阳 517
▁国土交通部 516
▁特斯拉 516
为了能够 516
主角 516
交易额 516
但这是 516
佛像 516
全员 516
出口限制 516
后方 516
安全和 516
对象之外 516
开放式 516
惋惜 516
最高水平 516
淳 516
游戏产业 516
的持续 516
羞 516
而准备的 516
联动型 516
自家 516
这些问题 516
重工业 516
钻 516
额外的 516
,2016 515
.7%。 515
ian 515
▁29 515
▁该条例旨在 515
东海 515
中心等 515
中部 515
函 515
制造成本 515
势力的 515
发送和接收 515
微妙 515
或有 515
抓住了 515
永登浦 515
海军 515
涉 515
的准备 515
身材 515
逃避 515
麻痹 515
2、 514
3~4 514
Gen 514
Invossa 514
NU 514
Net 514
—— 514
▁Innovation 514
一看 514
上存在 514
人与 514
大于 514
对因 514
开的 514
焊盘 514
燕 514
维持在 514
联接 514
许可的 514
证明书 514
躺 514
运营计划 514
远离 514
集市 514
1。 513
HU 513
▁保险 513
▁因为在 513
上位 513
书店 513
互联 513
冈 513
呕吐 513
因此有 513
年之前 513
技术人员 513
把它 513
接种疫苗 513
旅客 513
日本汽车 513
服务企业 513
杀死 513
李明博 513
流出 513
眠 513
研讨 513
职权 513
范围内的 513
进来 513
:。 512
▁Man 512
不服 512
丘 512
企业提供 512
减少的 512
名员工 512
增益 512
外交部 512
工会委员长 512
并得到 512
我也 512
支援团 512
电影中 512
确定的 512
突起 512
管理及 512
经济学 512
营销活动 512
行政诉讼 512
长时间的 512
集团会长 512
3.5 511
Good 511
da 511
max 511
pe 511
▁他补充说 511
人民币 511
凌 511
前列 511
实行的 511
布鲁 511
广播通信 511
气球 511
的优秀 511
资源的 511
oney 510
不容易 510
中午 510
从上月 510
变得困难 510
工资和 510
理解和 510
的生物 510
皮革 510
评价为 510
Fin 509
与该 509
也为 509
今天的 509
会根据 509
共和党 509
威廉 509
存在于 509
席卷 509
庭院 509
开放银行 509
当天通过 509
来减少 509
疲惫 509
的青年 509
眼球 509
签证 509
而产生 509
解释了 509
这两个 509
造成的损失 509
野营 509
预订 509
1996 508
不仅仅是 508
个性化 508
可在预算范围内 508
合作公司的 508
市场和 508
帘 508
摊 508
政府在 508
是一部 508
月球 508
板桥 508
的意图 508
的演出 508
确诊患者的 508
遍 508
遭到了 508
阴影 508
音量 508
EU 507
▁所谓 507
但我 507
倾注 507
光电 507
公调处法 507
共同民主党候选人 507
凹 507
利的 507
反驳道 507
奔 507
归属 507
当天的活动 507
执行部 507
李尚 507
殴打 507
的目的 507
竞选中 507
股东大会上 507
那天 507
eal 506
ele 506
▁他还表示 506
、8 506
任何人都 506
作物 506
共生 506
写道 506
创意性 506
助手 506
变换 506
另一方面 506
忠清南道 506
新国家党 506
标榜 506
的安 506
线条 506
老板 506
老龄化 506
芒 506
驾驶者的 506
上任 505
前青瓦台 505
协商后 505
参数 505
发出的 505
在以 505
大势 505
好不容易 505
学业 505
布局 505
开始进行 505
微细 505
我们学校 505
技术领域 505
敞 505
整体的 505
无线耳机 505
流传 505
的现有 505
精彩 505
计划进行 505
让他 505
还推出了 505
▁BMW 504
为了支援 504
争论焦点 504
交易日 504
医疗保健 504
变速箱 504
和三星 504
固态 504
在选举 504
埃及 504
奋 504
审中 504
家畜 504
对手 504
对称 504
就很难 504
时使用的 504
是针对 504
沙盒 504
流通企业 504
第一学期 504
网站和 504
自然灾害 504
薄膜晶体管 504
赚钱 504
跟随 504
遗址 504
GI 503
KC 503
MM 503
ange 503
ath 503
个地方 503
他是 503
侠 503
养殖 503
感染性疾病 503
普锐斯 503
比现有 503
的后续 503
的指责 503
1400 502
CF 502
ins 502
mon 502
▁原 502
▁在该 502
下台 502
中小风险企业部 502
也会增加 502
也进行了 502
制品 502
受到限制 502
咨询服务 502
完全不同的 502
日发表了 502
炸弹 502
番 502
石塔 502
调制解调器 502
这样做 502
遇到了 502
金相 502
.8% 501
ign 501
▁人工智能 501
▁很多 501
不参加竞选 501
争取 501
充当 501
副部长 501
勇气 501
在国际 501
姐妹 501
日举行了 501
李前 501
根除 501
的物质 501
研究和 501
碳酸 501
被确诊的 501
费用和 501
跳舞 501
遥 501
Blue 500
ILO 500
ef 500
▁2010 500
▁几 500
、10 500
一张 500
动力的 500
华盛顿 500
古典 500
天线的 500
完全不同 500
将运营 500
很久 500
投资和 500
月以 500
猜 500
的海 500
皇帝 500
结业 500
育儿休职 500
自主开发的 500
薰 500
螺旋 500
货款 500
鸡蛋 500
-19 499
1800 499
HS 499
LT 499
ima 499
▁市场 499
停职 499
兼任 499
参展 499
反驳称 499
地方自治法 499
有意义的 499
江东区 499
深受 499
的学生父母 499
等在内的 499
筛查 499
网络中 499
节能 499
行政处分 499
调查和 499
逐步 499
非常感谢 499
首歌曲 499
鹿 499
BB 498
Drive 498
ff 498
▁两个 498
专科 498
会议上表示 498
农地 498
南美 498
告吹 498
多晶硅 498
奇迹 498
居民登记 498
并防止 498
恳谈会 498
患者中 498
是一家 498
正是 498
治安 498
漂 498
独一无二 498
的那样 498
看护 498
神经网络 498
第一代 498
能够进行 498
芬兰 498
观察到 498
驾 498
HDC 497
ater 497
▁根据该 497
一件 497
万吨 497
不得超过 497
为主题的 497
会减少 497
出售的 497
占地 497
坚定 497
导师 497
就开始 497
并提交 497
影院 497
担保贷款 497
捕获 497
日开始在 497
是很 497
李泰 497
横向 497
灭火 497
独居老人 497
生效 497
的客户 497
硬化 497
稳定资金 497
ky 496
reen 496
▁在过去的 496
专属 496
中央选举管理委员会 496
人对 496
从外部 496
农协银行 496
动画 496
将支援 496
德尔 496
月火剧 496
次长 496
百分之 496
的首 496
的高端 496
监狱 496
相互合作 496
选民们 496
醇 496
里斯 496
Am 495
Go 495
ile 495
▁本发明的目的是提供 495
一生 495
不应 495
产业灾害 495
会和 495
僵硬 495
医疗保险 495
单一化 495
变身为 495
备份 495
广为人知 495
所以我 495
杆菌 495
的销售量 495
禄 495
聚合 495
被问到 495
韩国劳总 495
Red 494
万部 494
业界认为 494
也有所 494
于此 494
从这一点来看 494
写作 494
出口量 494
告白 494
在各种 494
士兵 494
字段 494
定期存款 494
应对措施 494
把重点放在 494
挺 494
敏捷 494
正在通过 494
火花 494
现政府 494
笑星 494
经历过 494
综合医院 494
网上购物中心 494
耗尽 494
议员总会 494
退休年金 494
de 493
▁为了解决 493
一直保持 493
优越 493
伴随 493
但考虑到 493
分部 493
劳动监督 493
年末为止 493
成为了话题 493
此时 493
的形状 493
相关机关 493
谎言 493
违背 493
酒吧 493
重新开始 493
"1 492
Cloud 492
ED 492
IMF 492
▁MBC 492
一站式 492
不公正 492
亿日元 492
今年以来 492
其特点是 492
创造新的 492
奖的 492
家庭剧场 492
将投入 492
帮我 492
抵制运动 492
摄影棚 492
无党派候选人 492
是自 492
李秀 492
滞 492
独立的 492
相关规定 492
离子注入 492
私募 492
第一项 492
等在 492
腹部 492
转动 492
部分人 492
酒店举行的 492
难道 492
.9%。 491
Hy 491
个班级 491
事务官 491
亲密 491
因为没有 491
开始正式 491
把手 491
拖欠工资 491
有可能会 491
李承 491
电子枪 491
的人类 491
砖 491
端子的 491
美军 491
而使 491
而是通过 491
说要 491
Mar 490
▁罗 490
专门负责 490
中国市场 490
事业领域 490
几次 490
分析和 490
刺激了 490
周年纪念 490
实力的 490
尤为 490
年零 490
抵达 490
日记 490
氢燃料 490
河流 490
深层 490
球队 490
生态系统的 490
罢工的 490
裔 490
诺贝尔 490
迄今为止 490
通过各种 490
部件的 490
驾照 490
高度评价 490
.4%, 489
RC 489
ton 489
▁i 489
▁本发明是关于在 489
乔治 489
具有提高 489
分析结果 489
勉强 489
夺 489
年成立 489
投资者们 489
时使用 489
更具 489
每年都 489
癌症患者 489
的回答 489
确切 489
角度出发 489
角色的 489
路的 489
通过的 489
DP 488
oup 488
▁2009 488
从一开始就 488
供水 488
名是 488
和未来 488
国有 488
好处 488
平凡 488
平方米的 488
幽灵 488
忧郁症 488
恤 488
手套 488
文化和 488
是向 488
是否是 488
来提供 488
浏览器 488
火力 488
特点是 488
生意 488
的下 488
的主要原因 488
的应用程序 488
认证书 488
谈话 488
首席副会长 488
▁Home 487
不仅能 487
不适合 487
主张说 487
之间的关系 487
传真机 487
依赖于 487
保险公司的 487
强劲 487
愤 487
没有太大 487
清道大南医院 487
相关业务 487
积极应对 487
签订合同 487
车站 487
较小的 487
进步阵营 487
进行申请 487
Pl 486
tra 486
▁如果不 486
与以往 486
中对 486
传导 486
估 486
具有通过 486
学年 486
屈 486
投票用纸 486
搭 486
日公开了 486
本研究 486
的朋友 486
的电话 486
碎片 486
而成 486
销售额的 486
Line 485
ale 485
eng 485
▁南 485
专职 485
之类 485
今年第一季度 485
倾向于 485
全境 485
医学院 485
很强 485
日报道 485
粗糙 485
紧固 485
纸质 485
能够实现 485
退休年龄 485
防灾 485
low 484
rain 484
一事表示 484
侵入 484
劣 484
及其方法 484
可能发生的 484
实行了 484
应努力 484
最为 484
检体 484
比特 484
的通信 484
窃 484
自然地 484
超大型 484
韩国汽车 484
鼓舞 484
MySQL 483
▁虽然在 483
休职 483
作品的 483
因为它 483
国策 483
在哪里 483
在家中 483
如果因 483
子等 483
小时候 483
平静 483
扭曲 483
报废 483
电动化 483
穿过 483
练 483
袖 483
评价认为 483
货币政策 483
贴上 483
车队 483
还具有 483
需要进行 483
han 482
《2019 482
一定会 482
与全球 482
以及其他 482
以实现 482
别人的 482
参谋 482
在上述 482
地皮 482
堪 482
多岁男性 482
居民自治 482
按键 482
教堂 482
来解决 482
灵活性 482
熟知 482
的中小企业 482
的同 482
等各 482
终生 482
请求权 482
这一问题 482
迹象 482
途 482
锌 482
题目 482
.8%。 481
1.2 481
ont 481
▁了解 481
即将到来之际 481
引进人才 481
忌 481
愉快地 481
扩大到了 481
投资公司 481
显微镜 481
曹候选人的 481
祝愿 481
设定为 481
诸 481
较弱 481
需要对 481
预计将会 481
.1%。 480
We 480
ube 480
▁同样 480
不包括 480
共产 480
出生的 480
呈阳性 480
奈飞 480
小于 480
悬挂 480
所管 480
承认了 480
摸索 480
汽车等 480
法律界 480
特别注意 480
画廊 480
的症状 480
矿物 480
竞争中 480
虚假事实 480
金融消费者 480
101 479
EB 479
Nex 479
rid 479
▁Facebook 479
▁ch 479
▁国土部 479
▁检方 479
▁驳回原告 479
也可以使用 479
以及使用该 479
体上 479
兽 479
原油 479
反而会 479
售价为 479
多元 479
大战 479
奖品 479
审判决 479
岁以下 479
应通过 479
当事人的 479
梨 479
涩 479
由于没有 479
的不满 479
融化 479
1960 478
Klaytn 478
Mi 478
ert 478
▁中心 478
严厉 478
互动 478
保持着 478
单人 478
商家 478
圣诞节 478
天使 478
对政府 478
慕 478
戒烟 478
搭配 478
收款 478
是不可能的 478
最佳的 478
每年都在 478
真理 478
离职 478
艾滋病 478
被揭发 478
评价称 478
还提出了 478
进行治疗 478
iss 477
▁新型 477
万元 477
不仅有 477
几年 477
刘在石 477
加分 477
厌恶 477
原告承担 477
可以设立 477
可提供 477
平台企业 477
掩盖 477
教导 477
晕 477
果川 477
的可能性很大 477
的影像 477
美中贸易纷争 477
而面临 477
记录在 477
财政支援 477
选举区 477
鸣 477
(= 476
.3%。 476
270 476
▁NAVER 476
乳房 476
事务局 476
以下事项 476
休息室 476
保守党 476
医生的 476
向国会 476
商用化的 476
地球上 476
市民们 476
所必需 476
方式进行 476
水泥 476
该事件的 476
还对 476
进行对话 476
那就是 476
金融市场的 476
防护 476
.8%, 475
4, 475
Coupang 475
MRI 475
live 475
▁代表 475
▁其次 475
▁购买 475
世界各国 475
中可以 475
价格竞争力 475
出货 475
功效 475
千禧一代 475
半导体封装 475
合法的 475
支柱 475
新闻发布会上表示 475
某表示 475
波兰 475
用户在 475
的压力 475
的情况较多 475
的自由 475
肩膀 475
行驶过程中 475
该患者 475
逃跑 475
领取者 475
40%。 474
人物的 474
任命或委任 474
会长表示 474
则是 474
则由 474
原子核 474
另外的 474
各地的 474
合作体系 474
地区和 474
庆尚 474
恩平 474
教授组 474
既然 474
机智 474
柄 474
欢笑 474
水产品 474
电能 474
而闻名 474
蚊子 474
输出功率 474
音乐会 474
.1%, 473
.6%, 473
了约 473
体验到 473
创下了历史最高 473
劲 473
女子组合 473
学校供餐 473
守法 473
所需的时间 473
星巴克 473
满了 473
育儿休假 473
装配 473
说明书 473
酰 473
隐私 473
难题 473
ster 472
yle 472
▁保时捷 472
▁党内 472
不仅会 472
为特征 472
二手车交易 472
产业现场 472
分支 472
听取了 472
大肠 472
如果使用 472
孙鹤圭 472
家电产品 472
对策本部 472
尾气 472
建设现场 472
开幕式 472
支付对象 472
现行的 472
的能量 472
研究所所长 472
纽带 472
缓存 472
车牌 472
通信网络 472
集装箱 472
麻浦区 472
ACK 471
Netmarble 471
RP 471
▁被告人 471
为了给 471
令人好奇 471
利用人工智能 471
包裹 471
和我 471
围棋 471
处长 471
婆 471
家们 471
捐 471
比去年增加了 471
献身 471
的基础上 471
的这种 471
监事 471
神话 471
空气净化 471
约占 471
营业店 471
评分 471
过渡 471
.7%, 470
RV 470
▁庆南 470
不知不觉 470
个席位 470
亲戚 470
人工费 470
几天 470
巨头 470
必要时可 470
摄 470
无线充电 470
明智 470
有机发光 470
温度的 470
湿度 470
的崔 470
的此次 470
落后于 470
认同 470
负担的 470
部部长 470
雇佣劳动部长官 470
.2%。 469
▁2011 469
▁Air 469
▁Partners 469
事业中 469
住宅担保贷款 469
和家庭 469
在实际 469
并使 469
总工会 469
新冠肺炎扩散 469
新韩银行 469
正在成为 469
混合动力车的 469
生动 469
金融支援 469
铁道 469
112 468
DJ 468
▁sh 468
▁在中国 468
▁济州 468
代行 468
出示 468
分钟的 468
广播节目 468
引发争议 468
或被 468
挑 468
提名 468
收据 468
放任 468
明知 468
是否符合 468
是因 468
月平均 468
民营 468
水木剧 468
烟草 468
物体的 468
症状的 468
该产品 468
运动场 468
逆向 468
饱 468
NCM 467
by 467
▁Cloud 467
▁Tr 467
▁说 467
万公里 467
不合理 467
与普通 467
书院 467
但通过 467
受阻 467
叙事 467
在今后 467
在经济 467
大邱地区 467
将面临 467
惨败 467
注销 467
理所当然 467
的人工 467
笼 467
等进行了 467
而感到 467
自由韩国党议员 467
英寸的 467
衬 467
说的是 467
轿车和 467
还说 467
进出口 467
链路 467
Tada 466
▁一直以来 466
一日 466
下列各号 466
不景气 466
债券的 466
关注度 466
区厅 466
历史的 466
句话 466
咬 466
在校生 466
基底 466
市场上的 466
戒 466
或因 466
政府和执政党 466
智能化 466
氮化 466
窄 466
终结 466
经济状况 466
胚胎 466
进一步加强 466
▁食品医药品安全处 465
你们 465
向韩国 465
敏感的 465
朝鲜时代 465
机密 465
清道 465
源代码 465
焦虑 465
移动终端 465
穷 465
艘 465
药物的 465
阅 465
DID 464
▁平时 464
▁本发明旨在 464
三天 464
内在 464
出演者 464
堵 464
度假村 464
所以很难 464
比任何时候都 464
物理学家 464
紧急状态 464
网络服务 464
贵族 464
达不到 464
这一点也 464
退回 464
铀 464
问卷 464
FA 463
TR 463
▁Inter 463
▁Mobile 463
▁朱 463
▁近 463
上获得了 463
供应的 463
共计 463
制备 463
力度 463
卓越的 463
坚实 463
大力 463
应用程序中 463
开发并 463
据推测 463
数字转换 463
无薪休职 463
是能够 463
月推出 463
正在逐渐 463
浦项制铁 463
演说 463
的局面 463
的民主党 463
的解释 463
票据 463
第二年 463
绊脚石 463
警告说 463
说了 463
赋予了 463
黑客攻击 463
.4% 462
ello 462
orce 462
▁无 462
▁这就是为什么 462
不愿意 462
争先恐后地 462
二手车的 462
吉普 462
将超过 462
带宽 462
应制定 462
慰安妇 462
我们会 462
手术的 462
推向 462
收益的 462
日为基准 462
晚餐 462
未来资产大宇 462
柏 462
的公务员 462
的外观 462
童话 462
等来 462
讽刺 462
详细的 462
赵某 462
辅佐 462
连接起来 462
DLS 461
ware 461
▁西 461
不舒服 461
为实现 461
但预计 461
全球金融危机 461
出入口 461
可以解释为 461
在前 461
多个国家 461
多种多样 461
将此 461
恐龙 461
技术院 461
权力的 461
架构 461
范围的 461
被害 461
轮胎的 461
黑人 461
LINE 460
be 460
▁我们学校 460
一贯 460
二极管 460
五十 460
另行规定 460
味的 460
坚决 460
塞尔 460
岁男性 460
撕 460
方针是 460
歌唱 460
电视节目 460
的温度 460
的爱情 460
礼堂 460
第七 460
而做出的 460
追更 460
6%, 459
Ph 459
▁2000 459
▁业界相关人士表示 459
▁本方案涉及一种用于 459
不同于 459
任用 459
使用时间 459
保险杠 459
减少趋势 459
好了 459
年推出 459
或与 459
扩大对 459
掌声 459
收录了 459
春季 459
最尖端 459
深深的 459
渐渐 459
爽 459
用于制造 459
申请时 459
的折扣 459
的空气 459
管理条例 459
裁判 459
还有很多 459
选举法修正案 459
销毁 459
集中精力 459
ICE 458
Le 458
▁/ 458
▁亚马逊 458
之一是 458
仅仅 458
和各 458
对相关 458
成分的 458
最多可以 458
款各项 458
正在持续 458
生产工厂 458
的许可 458
目前还 458
经济增长 458
议政 458
车门 458
需求增加 458
128 457
Show 457
个人卫生 457
产品群 457
作曲家 457
加害 457
合资 457
妆 457
安全带 457
家长们的 457
抗癌剂 457
检测到 457
此次事件 457
没有问题 457
的不同 457
被判定为阳性 457
角形 457
这将成为 457
黏 457
"3 456
.6% 456
Mo 456
ild 456
▁成 456
▁法国 456
下雨 456
中出现了 456
优良 456
使用时 456
其次是 456
处理设备 456
实效性 456
就可以了 456
得到确认 456
愚 456
我觉得 456
所以不能 456
放下 456
植入 456
穴 456
荡 456
设在 456
败诉部分 456
迪士尼 456
速度和 456
隔离治疗 456
首脑 456
高阳市 456
.3%, 455
▁市政府 455
以此为基础 455
国民对 455
外伤 455
大声 455
季度的 455
对我 455
开采 455
攻击性 455
旋风 455
梦幻 455
每秒 455
狭 455
的材料 455
的状况 455
的相关人士表示 455
的立场来看 455
舌 455
赚 455
障 455
.2%, 454
anc 454
ini 454
× 454
▁Flip 454
▁Vision 454
▁公司方面解释说 454
▁据报道 454
▁据预测 454
▁朝鲜 454
▁此次活动 454
上以 454
主义的 454
半径 454
危险性 454
史无前例 454
娘 454
导线 454
寿城 454
将开始 454
总统的 454
挽回 454
授 454
显现 454
最近因 454
正在向 454
正常的 454
登场的 454
的大脑 454
的热情 454
的白 454
的重 454
租借 454
老鼠 454
自动变速器 454
谎 454
进行审查 454
高度化 454
亏 453
介绍的 453
入选 453
公营 453
向美国 453
因新型冠状病毒感染症 453
寺址 453
幕后 453
干事由 453
形势 453
提出异议 453
日发表 453
民生法案 453
爷爷 453
目前在 453
第二款 453
缝隙 453
袭击 453
裙 453
课长 453
过程中的 453
革 453
骤减 453
高品质 453
▁2015 452
业界透露 452
主要国家 452
但根据 452
余波 452
公职人员 452
参观者 452
和环境 452
大家的 452
炫耀 452
的建筑 452
等多 452
而采取的措施 452
软银 452
野外 452
HE 451
ano 451
▁海 451
上升到了 451
以高 451
击败 451
医院院长 451
压力的 451
和首尔 451
外貌 451
大城市 451
抱怨 451
文在寅政权 451
智能手机上 451
月推出的 451
焊 451
电话的 451
的小型 451
稳定化 451
美元的 451
认知度 451
诊疗所 451
错过 451
闲置 451
颂 451
5, 450
AB 450
LD 450
bot 450
cess 450
▁就这样 450
不被 450
企业价值 450
加利福尼亚州 450
名左右 450
培养成 450
实名 450
密切关注 450
有义务 450
正直 450
油门 450
的成绩 450
研修院 450
签约仪式 450
规模为 450
许可证 450
返还给 450
这部 450
进修 450
逢 450
0.5 449
万韩元左右的 449
令人遗憾 449
大吃一惊 449
应该是 449
延长到 449
抵押 449
方程 449
机动 449
检索 449
模样 449
民主化 449
活性物质 449
活着 449
消失的 449
球场 449
电子在 449
的子女 449
直接打击 449
种族 449
程度上 449
窑 449
纠纷调解 449
经营困难 449
肢 449
肿 449
角落 449
访问过 449
谦 449
速率 449
韩国型 449
领先于 449
颤 449
DO 448
VI 448
eep 448
ish 448
▁Motors 448
▁后来 448
伴随着 448
入伍 448
关注和 448
凸显 448
千瓦 448
合同时 448
大概 448
实惠 448
市场份额 448
有限的 448
期待通过 448
生死 448
记录簿 448
证券研究员 448
LB 447
▁企划财政部 447
伟大的 447
公州 447
否决 447
咨询和 447
咸安 447
四轮驱动 447
外语 447
官方网站 447
对新 447
开始前 447
影响力的 447
征收的 447
怕 447
战场 447
服役 447
气压 447
炎热的 447
牙山 447
用智能手机 447
的制造方法 447
的面貌 447
稳固 447
第五代 447
老旧 447
表面上的 447
通商 447
黄代表的 447
Mnet 446
igh 446
ual 446
▁能 446
三人 446
不多 446
专利厅 446
伴侣 446
半导体装置的 446
和郑 446
实际情况 446
开启了 446
弹性劳动制 446
打造成 446
拓宽 446
捕捉到 446
杨州 446
正当理由 446
的组合 446
程序等 446
背叛 446
脱落 446
解体 446
请家长 446
财阀 446
陀 446
Fintech 445
Grand 445
▁2020" 445
▁大众汽车 445
上端 445
中未 445
事业和 445
他们在 445
决断 445
利率下调 445
同比增长 445
器材 445
国政监查中 445
奉俊昊导演 445
宏 445
察 445
展台 445
必然会 445
所知 445
支持的 445
收尾 445
日发表的 445
电量 445
移动服务 445
经历的 445
芦原 445
行李 445
释 445
20%, 444
Coin 444
▁and 444
▁接受 444
▁该车 444
▁锦湖轮胎 444
为了向 444
产业用 444
保留了 444
充满活力的 444
动物的 444
劳工 444
听觉 444
听课费 444
娱乐公司 444
巧克力 444
必要措施 444
急剧下降 444
日被 444
有效性 444
棱 444
现实中 444
的竞争力 444
竞争的 444
第一在野党 444
简化了 444
精巧 444
还向 444
进去 444
金融业 444
食物中毒 444
KOSPI 443
▁Cell 443
▁l 443
作词 443
决定了 443
参赛者 443
名中 443
应与 443
应该在 443
得出结论 443
所规定的 443
投资于 443
普遍认为 443
暴增 443
江陵市 443
源泉 443
激素 443
灯和 443
的顺序 443
网红 443
蜂 443
裁决 443
金元 443
,2019 442
-4 442
EQ 442
Note 442
▁Gr 442
不好的 442
中央防疫对策本部 442
主妇 442
亨利 442
凯美瑞 442
原州 442
叉 442
在此过程中 442
工艺的 442
新作 442
的指示 442
等相关法律 442
管理委员会 442
而不会 442
逐 442
lass 441
over 441
pp 441
▁经 441
万韩元以下 441
南方 441
却没有 441
召开会议 441
和被告 441
在本 441
城市规划 441
夜晚 441
展现的 441
广泛的 441
意义的 441
挖 441
沉浸 441
洞察 441
潭 441
福祉 441
维持了 441
贴在 441
输入的 441
▁2007 440
▁每当 440
了自己的 440
产妇 440
以下简称为 440
仿 440
决定从 440
几十 440
分播出 440
判处 440
发展为 440
在新冠肺炎 440
委员的任期为 440
对国内 440
引起了争议 440
打开了 440
控制单元 440
提出意见 440
放学后学校 440
民间企业 440
热点 440
电动汽车电池 440
疫 440
的一年 440
的预测 440
等被 440
而设立的 440
能告诉我 440
衿川区 440
降低到 440
105 439
TT 439
▁Market 439
▁如果使用 439
不断出现 439
产业和 439
从业 439
以与 439
信用贷款 439
其他人 439
出租车司机 439
出纳 439
发光器件 439
发表会 439
吻 439
和苹果 439
商品性 439
委员会委员 439
带薪休假 439
并决定 439
底座 439
开车 439
当年 439
成立于 439
手机应用程序 439
抹 439
收入的 439
教科 439
民主劳动组合总联盟 439
的合同 439
第一步 439
紧凑 439
缘分 439
腺癌 439
表决权 439
评论家 439
长达 439
问题上 439
阻挠议事 439
麻浦 439
.7% 438
EUV 438
▁System 438
▁让 438
为宗旨 438
从而导致 438
希望在 438
年推出的 438
并支援 438
探险 438
收视 438
教育机构 438
新曲 438
是其 438
木材 438
求职者 438
汝 438
综合房地产税 438
网络游戏 438
能够防止 438
集中的 438
,15 437
PR 437
UT 437
▁KBS 437
▁该项目 437
偶像组合 437
删除了 437
剧团 437
医生和 437
可以容易地 437
呈上升趋势 437
套件 437
宣布不参加 437
将再次 437
常见的 437
房地产市场 437
持续不断 437
檀 437
玲 437
矩 437
篮 437
精确地 437
胃癌 437
能够成为 437
设施及 437
软骨 437
还是未知数 437
金大中 437
铰链 437
高强度 437
the 436
▁Velvet 436
▁为了预防 436
▁在本 436
▁科技 436
▁自由韩国党代表黄教安 436
上台 436
下端 436
不必 436
不能成为 436
主张的 436
交货 436
产业的发展 436
在国内外 436
实用性 436
将适用 436
帷幕 436
并强调 436
彰 436
政策室长 436
昂贵的 436
是主要 436
水质 436
法司委 436
的传统 436
社会问题 436
跌至 436
领域的专家 436
麻疹 436
aaS 435
▁决定 435
万辆汽车 435
也正在 435
全面罢工 435
内阁 435
劣化 435
反复出现 435
圣地 435
多达 435
就职 435
开始在 435
感染新冠肺炎 435
持续到 435
断路器 435
方程式 435
水面 435
汉阳大学 435
涂抹 435
爱好 435
的主力 435
的宗旨 435
等国家 435
纽 435
茂朱 435
责任的 435
防治 435
食物的 435
▁App 434
▁欲 434
个人信息保护法 434
事业本部 434
从中国 434
候 434
华尔街日报 434
商工会议所 434
多年的 434
如有 434
彻底的 434
文件的 434
汽车用 434
的实验 434
秋美爱 434
粘附 434
纯粹 434
经济活动 434
给大家 434
而采取 434
耐热 434
聚集在 434
胰 434
议事 434
贝尔 434
进行活动 434
违宪 434
OK 433
UM 433
ies 433
▁产业 433
▁在没有 433
▁开发 433
▁提供了 433
▁虽然没有 433
中产生的 433
企业进行 433
公诉事实 433
冠岳 433
历代 433
变异 433
可将 433
向前 433
和现代 433
在现有 433
复兴 433
岘 433
惊喜 433
拨号 433
挥 433
损失率 433
接待 433
方向上 433
有机会 433
洪前代表 433
溢 433
的专利 433
等提供 433
级轿车 433
该案件 433
该装置 433
项目等 433
首歌 433
骗 433
SKT 432
ma 432
▁VR 432
▁罗院内代表 432
▁雪佛兰 432
主导了 432
也很多 432
但也有 432
位于首尔 432
免责 432
内容为 432
前市长 432
劳动条件 432
劳动者和 432
取得成果 432
和改善 432
在国内首次 432
大部分都 432
就需要 432
并不意味着 432
总会上 432
报价 432
捷 432
掺杂 432
支配结构 432
早期发现 432
有症状 432
条及第 432
电装 432
的口 432
的感性 432
祥 432
管理局 432
糟糕 432
而发生的 432
规模最大的 432
贿赂 432
过着 432
迫在眉睫 432
... 431
一半以上 431
丛 431
共同成长 431
原作 431
和健康 431
和数据 431
咽 431
售价 431
将得到 431
并接受 431
拐 431
揭开 431
是唯一 431
相关资料 431
讨论的 431
费用等 431
金光 431
隐藏的 431
鲜明 431
125 430
DU 430
NK 430
ragon 430
▁友利银行 430
事业所 430
二次电池的 430
入职 430
印尼 430
型基金 430
大家都 430
己 430
底特律 430
智恩 430
有名 430
栖息 430
火山 430
爱好者 430
珀 430
的支付 430
能量的 430
蜂窝 430
负压 430
路由 430
轻量化 430
野党 430
针锋相对 430
1994 429
5. 429
为保护 429
依赖度 429
共和国 429
出货量 429
划定 429
发送的 429
命名为 429
固定装置 429
奉献 429
字节 429
家医院 429
对其进行 429
工作场所 429
并非如此 429
应考虑 429
战的 429
断开 429
是一项 429
显示了 429
来增加 429
某等 429
楼有 429
民政首席 429
注重 429
环形 429
磷 429
蚕室 429
辩护 429
进行现场 429
进行销售 429
都无法 429
.3% 428
Con 428
ISA 428
▁Coupe 428
▁仁川 428
一直以 428
世界第一 428
临时会议 428
为了不 428
事故的 428
以违反 428
保持在 428
双赢 428
和釜山 428
委员会会议 428
排名第一的 428
新推出的 428
方法是 428
有望成为 428
民事诉讼 428
流浪 428
父母的 428
的增长 428
虽然对 428
试制品 428
车型中 428
边的 428
郁闷 428
领袖 428
mer 427
▁for 427
▁x 427
▁本发明公开了 427
▁该条例 427
业余 427
义务化 427
仪表板 427
保健福祉部 427
克里斯 427
共销售了 427
分析师 427
十字路口 427
卿 427
句子 427
同级 427
和电子 427
在世界上首次 427
差池 427
店的 427
悉尼 427
手工 427
氢燃料电动汽车 427
法律上 427
满足感 427
特别是在 427
认可的 427
记者招待会上 427
该条例 427
这个原因 427
选议员 427
配电 427
霉 427
1987 426
IST 426
PEF 426
▁在这个 426
万亿韩元规模的 426
专家的 426
乡土 426
人力资源 426
健康保险费 426
光刻胶 426
入学考试 426
兼容 426
前一天的 426
和学校 426
尽早 426
是我 426
月举行的 426
有很多人 426
有很大 426
杂音 426
的专业 426
的新天地 426
相当一部分 426
相联系 426
等级的 426
解说 426
质量和 426
赔偿责任 426
轻症 426
重新启动 426
附着在 426
频道的 426
car 425
▁个人 425
不久后 425
不予 425
不接受 425
但还是 425
分配到 425
实感 425
市议会 425
年由 425
庵 425
恩平区 425
捕捉到了 425
教育费 425
新冠病毒感染症 425
无线网络 425
有所帮助 425
根据法律第 425
梦想和 425
毕业典礼 425
激励 425
的最终 425
糕 425
线程 425
维持雇佣 425
而闻名的 425
自来水 425
Block 424
bo 424
▁从各 424
▁其宗旨是 424
▁科学技术信息通讯部 424
不禁 424
人员和 424
伦理委员会 424
全校 424
卞 424
即时 424
在首尔中区 424
均衡发展 424
失业率 424
实态调查 424
将加强 424
就能看到 424
引线框架 424
恶意利用 424
手术室 424
投票中 424
整形外科 424
是今年 424
有力的 424
比利时 424
疹 424
的人在 424
科学家们 424
等功能 424
筑 424
聊天室 424
部门和 424
配备有 424
防疫工作 424
震惊 424
2" 423
Ac 423
row 423
▁保健当局 423
不能再 423
中央政府 423
为中心进行 423
人以下 423
低速 423
保守派 423
公主 423
包围 423
和中 423
哮喘 423
安全检查 423
对峙 423
工艺中 423
引领了 423
往年 423
感叹 423
折叠式 423
持续了 423
支援和 423
故事的 423
日期间 423
暂 423
暗示了 423
有望在 423
样式 423
根据本发明的 423
环境保护 423
用轮胎 423
的张 423
的统计 423
缠绕 423
财物 423
进行一次 423
,2015 422
1100 422
5%。 422
75% 422
PL 422
▁以上 422
▁具 422
▁欧洲 422
▁阿 422
万股 422
两者 422
化为 422
在此期间 422
悄 422
悲剧 422
慢性疾病 422
成功地 422
托盘 422
排队 422
提出要求 422
时机 422
明亮 422
曹国事态 422
汽车市场的 422
灌 422
熊津 422
独裁 422
的危险性 422
码头 422
贴纸 422
这段时间 422
通过电话 422
那样的 422
重启 422
馆的 422
'" 421
,13 421
.2% 421
All 421
▁GM 421
▁他指出 421
▁光州市 421
▁李院内代表 421
一天内 421
会通过 421
催 421
准则 421
反向 421
可能的 421
困扰 421
它们的 421
很小 421
摆脱了 421
最大扭矩 421
朴智元 421
民意 421
留学生 421
等离子体显示面板 421
英文 421
规则规定 421
赖 421
轰 421
金属工会 421
铜雀 421
防疫对策 421
高质量的 421
2、3 420
Hz 420
ave 420
avi 420
ove 420
▁中央防疫对策本部 420
▁听说 420
乘车感 420
事业团 420
任期为 420
传承 420
保险合同 420
停滞不前 420
兄妹 420
全年 420
出来了 420
反应的 420
后在 420
喝酒 420
墓地 420
将立即 420
尔德 420
尚未确定 420
平台和 420
并推进 420
成年 420
无机 420
是正确的 420
机和 420
机器的 420
格兰 420
比例联合政党 420
猛烈 420
石油化学 420
祖先 420
神奇 420
粉丝见面会 420
舆论调查中 420
视频的 420
运营者 420
透射 420
酬 420
▁机器人 419
一对一 419
不利因素 419
也得到了 419
代表和 419
以减少 419
共达 419
利用该 419
升降 419
将努力 419
恢复到 419
换算 419
提起诉讼 419
政治改革 419
服务质量 419
果实 419
检查后 419
的出口 419
硬盘 419
空气中 419
胎儿 419
航班 419
被解释为 419
詹姆斯 419
韩国社会 419
预计到 419
TOP 418
ision 418
lack 418
▁Me 418
▁他强调 418
▁未 418
为支援 418
主要是 418
余地 418
例确诊患者 418
保持了 418
免费使用 418
列为 418
到第 418
募捐 418
医院等 418
发生火灾 418
发生的事情 418
员们 418
器具 418
国会议员会馆 418
在短时间内 418
宅地 418
应用了 418
弦 418
总体 418
感染源 418
所有人的 418
招生 418
措 418
教师的 418
最终决定 418
殿堂 418
玩游戏 418
确 418
评委 418
金融交易 418
钦 418
韩国电力 418
首尔大学医院 418
,2008 417
ELS 417
Ne 417
hone 417
▁, 417
▁Network 417
▁在这种 417
不上 417
不幸 417
世界杯 417
业绩的 417
个月以上 417
了解到 417
亿韩元以上的 417
仪表 417
佛祖 417
利率的 417
只要在 417
可享受 417
史无前例的 417
名工人 417
和保护 417
声波 417
外形 417
尤 417
岛屿 417
当选的 417
日星期 417
服务中 417
机票 417
残酷 417
比现有的 417
滑雪 417
生理 417
畅 417
监视器 417
福利部 417
等技术 417
糊 417
荣誉 417
请家长们 417
这一部分 417
问道 417
预计今年 417
CGV 416
KTX 416
VD 416
uk 416
▁从本月 416
▁通过这些 416
主办方 416
了自己 416
事业计划 416
他们认为 416
会场 416
修行 416
做出决定 416
公诉 416
初创 416
和顺 416
国道 416
外国投资者 416
天文 416
如果不能 416
技术是 416
有帮助 416
末端 416
治疗药物 416
竞技 416
缠 416
走路 416
辣椒 416
还补充道 416
雅尊 416
非法派遣 416
风暴 416
1988 415
20~30 415
3500 415
ames 415
less 415
▁该发明 415
一起的 415
东大门区 415
产业协会 415
但是随着 415
又是 415
变动到 415
在上 415
实质性 415
对所有 415
工伤保险 415
平昌 415
征求 415
得票 415
恐慌 415
所以没有 415
挂钩 415
支厅 415
时在 415
有可能被 415
款及第 415
正门 415
活动期间 415
的建设 415
罪的 415
耐久 415
舒服 415
航线 415
表明立场 415
裁判部 415
要求对 415
辱骂 415
雕 415
--" 414
Auto 414
EE 414
为解决 414
可能会成为 414
吃了 414
吓 414
在自己 414
就业者 414
展示的 414
抒情 414
抬 414
新冠肺炎事件 414
日为 414
检讨 414
澈 414
炼油 414
的法案 414
的精神 414
研究会 414
筹备 414
纲 414
羡慕 414
要注意 414
诞生了 414
轴承 414
醉 414
预计将在 414
马山 414
1" 413
olt 413
▁但如果 413
▁采用 413
主管部门负责人 413
出售给 413
匈牙利 413
化物 413
北道 413
呈阴性 413
和学生 413
大学和 413
妄 413
委员长在 413
孤 413
安全性的 413
巫 413
开发及 413
开始后 413
强度的 413
恨 413
明年议会选举 413
环境改善 413
的角度来看 413
的釜山 413
职员和 413
连休 413
适用对象 413
银行行长 413
SH 412
lock 412
β 412
▁长 412
两性平等 412
严肃 412
个以上的 412
交往 412
人士的 412
关联性 412
分片 412
制作并 412
副总经理 412
包括该 412
即使有 412
各不相同 412
品的 412
因此与 412
地方自治 412
妇产科 412
工程的 412
新型冠状病毒事件 412
最小化的 412
物资 412
等候 412
脊 412
通过多种 412
钉 412
首次公开了 412
,' 411
3" 411
KR 411
Mac 411
为了消除 411
也很重要 411
产业通商资源 411
亿欧元 411
依照第 411
副总理 411
可以作为 411
和有 411
在本发明中 411
外汇危机 411
够 411
太阳能发电 411
如果说 411
媒体的 411
存在着 411
定时 411
宣布参加 411
就会被 411
居民参与 411
工地 411
廊 411
抱 411
特殊情况 411
独角兽 411
电动马达 411
的表面 411
研究了 411
表达了对 411
设备等 411
辨别 411
金容 411
釜 411
闭路电视 411
集的 411
,16 410
亿元 410
劳动福利公团 410
变得更 410
喂 410
嘛 410
嘻哈 410
坚硬 410
学术界 410
惜 410
捆绑 410
文中 410
此举 410
浓缩 410
淋巴 410
画家 410
登山 410
移交给 410
翰林 410
运送 410
香气 410
高额 410
▁tvN 409
▁人类 409
▁如此 409
▁庆尚南道 409
中心举行的 409
为促进 409
人或 409
全力以赴 409
具有优异的 409
制定对策 409
区块链平台 409
嘱咐道 409
在移动 409
孤立 409
年纪 409
戴上 409
是有限的 409
林肯 409
某于 409
消灭 409
温室 409
的消息后 409
立足 409
继承了 409
臭氧 409
还进行了 409
金明 409
金龙 409
阿尔法 409
'、' 408
pay 408
▁该条例旨在根据 408
▁随后 408
优待 408
全方位 408
公司将 408
包含上述内容的 408
后代 408
在印度 408
在此次议会选举中 408
在英国 408
外围 408
多月 408
大国家党 408
就业规则 408
智能手机市场 408
机等 408
滚动 408
而且对 408
股息 408
计划向 408
谜 408
赌 408
隔膜 408
需要时 408
330 407
ty 407
▁该市 407
个领域 407
但也 407
原审判决中 407
吸尘器 407
和个人 407
喉 407
国家和 407
在相关 407
壳体的 407
安全资产 407
就业支援 407
戴着口罩 407
施加到 407
最早的 407
烧毁 407
疗 407
的妻子 407
的时间内 407
立案 407
约束 407
谐振 407
谣 407
资助 407
零件的 407
DT 406
son 406
▁保健 406
▁根据上述 406
互换 406
伽倻 406
国税 406
圣经 406
在光州 406
垂 406
存在问题 406
必要时可以 406
执导 406
掉了 406
搬运 406
无法进行 406
有功者 406
梧 406
的预算 406
看不 406
科学技术信息通信部 406
简洁 406
能让 406
行走 406
贪 406
起着 406
阿尔茨海默 406
隔离措施 406
BT 405
HP 405
UX 405
▁卢 405
丁海寅 405
为依据 405
优惠的 405
倒闭 405
入门 405
占全体 405
城北区 405
培养出 405
年前的 405
改编案 405
显然 405
栗 405
桂 405
正在扩散 405
油管频道 405
理工 405
生物技术 405
福利中心 405
第三位 405
等而 405
网关 405
资费 405
路由器 405
颁奖典礼上 405
首席发言人 405
320 404
GIST 404
KI 404
iOS 404
▁本发明涉及一种使用 404
▁面对 404
一直对 404
上显示 404
事宜 404
二手车市场 404
仅用 404
估算 404
倦 404
创造的 404
听证会上 404
在首尔钟路区 404
民间团体 404
烷 404
矩阵 404
税率 404
这首歌 404
颇 404
1700 403
230 403
ARS 403
ios 403
ole 403
oul 403
ura 403
▁2005 403
▁2006 403
▁顾客 403
为使 403
以应对 403
光谱 403
再开发 403
国务总理丁世均 403
在议会选举中 403
地方警察厅 403
岗 403
很受欢迎 403
得出了 403
总数 403
拉伸 403
排序 403
是第 403
檐 403
由包括 403
裁 403
说出 403
酒后驾驶 403
金大 403
韩人 403
oad 402
ors 402
red 402
▁迎接 402
不会有 402
也就是 402
享有 402
伍 402
侍 402
分化 402
在即 402
均匀的 402
始兴市 402
弧 402
或使用 402
支援方案 402
无力 402
时开始 402
月左右 402
未来型 402
法务法人 402
点和 402
生气 402
的尹 402
等一起 402
等有 402
而非 402
衬底 402
记录的 402
追击 402
遗产 402
都以 402
预报 402
Home 401
TSMC 401
▁电池 401
之间的矛盾 401
先进的 401
党派 401
发放的 401
年多 401
并可以 401
形成为 401
徽章 401
意想不到 401
感兴趣的 401
损耗 401
政治斗争 401
旧金山 401
是无 401
注意事项 401
洪准杓 401
的供应 401
负责人表示 401
进行了检查 401
逆变器 401
IBK 400
KOR 400
ple 400
▁进行 400
中心主任 400
乙烯 400
位置信息 400
低工资 400
信息公开 400
制铁 400
吸气 400
和视频 400
坚守 400
大部分是 400
客户端 400
尸 400
常设 400
彻 400
数次 400
日被确诊 400
欢呼 400
法制 400
症患者 400
的活跃 400
等非 400
纽约时报 400
给观众 400
衰竭 400
评价结果 400
起步 400
那时 400
郑俊 400
高烧 400
ANG 399
GHz 399
▁分析 399
▁本条例旨在 399
▁疾病管理本部表示 399
、" 399
下游 399
人格 399
以去年 399
优先考虑 399
传送到 399
修改了 399
储存在 399
催化 399
团体或 399
多彩 399
并购 399
总部的 399
意义重大 399
拥有者 399
旗帜 399
是使用 399
熟悉的 399
甲烷 399
积极支持 399
第一阶段 399
胜达 399
营业者 399
设计了 399
赞助商 399
进了 399
金炳 399
2024 398
uture 398
▁今年年初 398
▁成为 398
▁这是在 398
一辆 398
万人的 398
中出现的 398
也可以进行 398
产业振兴 398
人权委员会 398
分布式 398
变焦 398
可以立即 398
呈下降趋势 398
国情院 398
增殖 398
如果不是 398
存储引擎 398
实行每周 398
导电性 398
将进入 398
应当在 398
成为热门话题 398
抗争 398
操 398
数据包 398
游行 398
火星 398
牛顿 398
由委员长 398
的原则 398
的另一个 398
着陆 398
等作为 398
等公司 398
等影响 398
评审 398
负压病房 398
资料显示 398
足够的 398
进行审议 398
防止由于 398
,“ 397
1991 397
PCR 397
▁Day 397
▁You 397
▁经纪公司 397
▁蔚山 397
一起进行的 397
不进行 397
从现有的 397
但其 397
但可以 397
出现异常 397
各自的 397
哑 397
完美地 397
客车 397
将首次 397
帮助他们 397
忽略 397
掀起了 397
新城市 397
机顶盒 397
死于 397
照料 397
环境污染 397
的差异 397
皮卡 397
社长表示 397
移动通信终端的 397
空间和 397
计划对 397
EXO 396
PK 396
Win 396
ica 396
lay 396
▁区厅长根据 396
中饰演 396
也具有 396
交接 396
价格下降 396
任何人 396
危险因素 396
原因的 396
取向 396
受害人 396
土豆 396
大换血 396
太极旗 396
学位 396
届时 396
恳 396
拍摄现场 396
揽胜 396
摩根 396
斯汀 396
是我们 396
术语 396
李俊 396
水上 396
油管博主 396
济州市 396
的反对 396
的外国人 396
眉 396
私生活 396
迅速应对 396
门的 396
限制在 396
需要注意 396
▁江原道 395
中美贸易 395
仍有 395
会带来 395
入境者 395
全部被 395
古代 395
回来的 395
年上半年 395
心肌梗塞 395
战略的 395
手法 395
晋 395
的身体 395
盖章 395
而对 395
而被起诉 395
耻 395
联赛 395
设施管理 395
起点 395
适合于 395
金京 395
金俊 395
阿拉伯 395
顶部 395
预防教育 395
Inf 394
ody 394
▁当天下午 394
万至 394
不仅仅 394
不符 394
会员公司 394
利率下降 394
匹 394
反驳说 394
基督 394
学问 394
宏观 394
实体店 394
客服中心 394
对与 394
扎根 394
新材料 394
日本出口限制 394
日进行的 394
李正 394
洪楠基 394
清廉 394
照看 394
的巨大 394
等情况 394
马拉松 394
驱动器 394
ank 393
▁to 393
▁元 393
▁能够 393
为了与 393
为何 393
事务局长 393
仔细阅读 393
以此次 393
入住者 393
助长 393
向外 393
含义 393
和韩 393
多年来 393
委员长和 393
宗旨是 393
就被 393
支票 393
本厅 393
权者 393
标注 393
棋 393
海洋水产部 393
示例 393
等嫌疑 393
考生 393
蓄电池 393
蜘蛛 393
衷 393
议员们的 393
财团理事长 393
质量管理 393
连日来 393
通讯员 393
铬 393
镇川 393
除此之外 393
雨伞 393
.1% 392
OL 392
Sol 392
▁naver 392
▁他接着 392
▁该系统 392
一只 392
不断地 392
与之前 392
优质的 392
加坡 392
复用 392
将担任 392
怨 392
情报院 392
扰 392
括 392
提交申请书 392
收入主导增长 392
昼夜 392
智能家居 392
有趣的 392
构图 392
核酸 392
检察机关改革 392
独占 392
的冲击 392
的味道 392
编号 392
而成的 392
而陷入困境 392
脸上 392
良性循环 392
荷尔蒙 392
透明性 392
锅炉 392
障碍物 392
韩进集团 392
项目和 392
enn 391
works 391
▁2012 391
▁Capital 391
代工 391
保修 391
关系到 391
况 391
千名 391
后面的 391
和控制 391
在越南 391
坐着 391
将案件 391
山火 391
峨山医院 391
平方 391
彼得 391
快速增长 391
或团体 391
排水 391
数字货币 391
更是 391
有兴趣 391
梨泰院夜店 391
比现在 391
水原市 391
烟雾 391
研究者 391
礼山 391
社会价值 391
立场是 391
致辞 391
路边 391
阿里 391
VER 390
主播 390
企划团 390
其为 390
几个月 390
分量 390
千万韩元 390
协议书 390
印章 390
同等 390
和信息 390
品牌形象 390
图像的 390
在正式 390
外卖的民族 390
多文化家庭 390
微波炉 390
报道资料 390
探针 390
新天地大邱教会 390
时限 390
朴议员 390
李英 390
比以前 390
犹太人 390
的学习 390
眼前 390
研究成果 390
秀彬 390
请填写 390
进入国会 390
防护服 390
饰品 390
5~ 389
PHEV 389
brid 389
own 389
▁尤其是在 389
不安感 389
亲属 389
以对 389
价为 389
会长在 389
全面的 389
凹槽 389
区块链的 389
反诉 389
发放了 389
可向 389
吉他 389
同时使用 389
咨询师 389
在全国范围内 389
奠定了基础 389
宥利 389
将重新 389
山区 389
新冠肺炎病毒 389
明白 389
毕 389
知道的 389
社会对话 389
社团法人 389
福音 389
网络社区 389
聘 389
见过 389
讲述的是 389
进行过 389
通报给 389
重于 389
金承 389
+" 388
1989 388
7~ 388
Digital 388
▁众所周知 388
与日本 388
也变得 388
人文 388
候选物质 388
出口到 388
努 388
国军 388
在一定程度上 388
在首尔江南区 388
大乱 388
定子 388
宽敞 388
寻 388
工商业者 388
拖延 388
指纹识别 388
推举 388
支持层 388
教会的 388
汽车展 388
画面的 388
的新概念 388
相关法案 388
租赁合同 388
第一位的 388
连日 388
野心 388
KIST 387
Met 387
云游戏 387
人力的 387
代言 387
体制的 387
副会长李在镕 387
卖家 387
卡的 387
大众化 387
就必须 387
就达 387
建造的 387
开关的 387
开始出现 387
搞 387
新颖 387
昆虫 387
的发动机 387
的外部 387
的颜色 387
磷酸 387
等地区 387
罪行 387
见到的 387
资料的 387
赔偿金 387
还不到 387
追溯 387
遇到的 387
郊 387
问题等 387
馈 387
,17 386
Ga 386
Pop 386
ada 386
coupang 386
▁Enter 386
▁Nex 386
保罗 386
全面调查 386
共同开发的 386
创建的 386
制度改善 386
叹 386
和政策 386
学习和 386
将制定 386
尝 386
就读 386
希望参加 386
并支持 386
开设的 386
打工 386
探访 386
改编为 386
散步 386
日结束 386
本月末 386
正式开始了 386
比前一天 386
民法 386
涉及一种用于 386
的情况很多 386
瞩目 386
细胞的 386
腾讯 386
被告承担 386
裁量 386
要员 386
道教育厅 386
酒类 386
锦标赛 386
默认 386
Soul 385
Ste 385
out 385
μ 385
▁同期 385
▁建设 385
▁管理 385
不完全销售 385
也没 385
书法 385
以下称为 385
体外 385
光明市 385
再生能源 385
卡通 385
因此被 385
基本的 385
将使用 385
当事 385
是否为 385
本月初 385
检察机关的 385
没有参加 385
环境劳动委员会 385
生产基地 385
生活家电 385
的整体 385
矛盾的 385
第二季度的 385
等世界 385
跌幅 385
重的 385
锂电池 385
70%。 384
COVID 384
RAM 384
nm 384
oh 384
▁Power 384
万韩元和 384
不及 384
中就有 384
任命为 384
伙 384
但因为 384
保持距离 384
偏爱 384
印刷电路板的 384
发展做出贡献 384
合并为 384
否 384
哈萨克斯坦 384
委员长由 384
孕 384
导弹 384
尼斯 384
强奸 384
意见分歧 384
成交 384
拥抱 384
搁置 384
教育福利 384
是世界上 384
本身的 384
标题 384
检察总长 384
江东 384
汽车相关 384
的姿态 384
短的 384
纠 384
衔 384
论山 384
邮 384
限于 384
雇佣维持支援金 384
▁LED 383
▁与此 383
▁在当天的节目中 383
▁本规则旨在 383
一大 383
产业中 383
共享了 383
包括了 383
可以理解 383
各处 383
多件 383
奖学 383
带状 383
很久以前 383
必须向 383
愿景 383
打招呼 383
抛弃 383
提供帮助 383
是去年 383
晓星 383
生物学 383
的所有权 383
直接向 383
立场来看 383
符合第 383
而成为话题 383
聚集到 383
葛 383
被确认 383
触摸屏 383
还公开了 383
还出现了 383
邀 383
陌生的 383
需求调查 383
40%, 382
KAL 382
▁如今 382
▁本发明的课题是 382
▁雷诺 382
一山 382
一流 382
中央党 382
以今年 382
但是如果 382
保密 382
内科教授 382
力量和 382
名和 382
因此从 382
多岁人群 382
孙会长 382
安全驾驶 382
实际费用 382
已与 382
已经完成了 382
年与 382
慈 382
振兴公团 382
摄像机的 382
桑德斯 382
比前一年增加了 382
的姜 382
私有 382
等产品 382
等将 382
筹 382
而陷入 382
肺炎症状 382
轮驱动 382
饲料 382
骂 382
aster 381
ene 381
个以上 381
个性的 381
中可以看出 381
便利设施 381
公有 381
公顷 381
农作物 381
分科委员会 381
只不过是 381
可以像 381
善意 381
四季 381
在内的所有 381
在我们 381
帖 381
当然职 381
拳 381
援引 381
没有被 381
海外股票 381
温馨 381
疟疾 381
盗窃 381
盟 381
看作 381
筹集资金 381
精英 381
补选 381
转弯 381
这种现象 381
通信的 381
量身定做的 381
销售商 381
键合 381
青年们 381
ML 380
▁NHN 380
▁On 380
一般的 380
不适用 380
们也 380
倒塌 380
光灯 380
党务 380
公司等 380
利川 380
区厅长可以 380
参加议会选举 380
发送给 380
可以有效地 380
和处理 380
售后服务 380
善英 380
在首尔特别市 380
增值税 380
多台 380
如实 380
开来 380
怡 380
意见的 380
我们认为 380
接收到的 380
推荐一下 380
收听 380
明年上半年 380
楼的 380
沟 380
治理 380
漠 380
烘干机 380
的研究结果 380
眼科 380
石的 380
经济增长率 380
讲堂 380
设备投资 380
过剩 380
还可以通过 380
这款 380
预计今后 380
高档 380
高级公职者犯罪调查处 380
魏 380
Bit 379
Happy 379
mp 379
ps 379
star 379
不一致 379
之间的距离 379
会期 379
低廉的价格 379
压倒 379
厌 379
咨询等 379
在特定 379
天以上 379
定期会议 379
小商 379
层间 379
弱者 379
心痛 379
所以对 379
放置在 379
方案的 379
普及型 379
有关负责人表示 379
比普通 379
沙特阿拉伯 379
沸 379
百货店 379
的大企业 379
等业务 379
足足 379
车顶 379
铁道工会 379
随着时间的推移 379
需求者 379
1993 378
ETRI 378
Mate 378
ana 378
▁2014 378
▁World 378
▁地区 378
▁韩泰轮胎 378
不适 378
专业的 378
东洋 378
争议的 378
信用卡结算 378
公司表示 378
再选 378
发售 378
合作伙伴关系 378
唤 378
在我 378
地面波 378
填埋 378
带的 378
急剧上升 378
来临 378
检测结果 378
榜单 378
渣 378
组件的 378
联网 378
脑中风 378
芯片的 378
通信技术 378
问世 378
雨水 378
韩国市场 378
SQL 377
▁Se 377
为了通过 377
保险商品 377
全党大会 377
前提 377
又有 377
只要有 377
和安 377
唐纳德 377
国民之党代表安哲秀 377
大桥 377
字母 377
就会成为 377
差价 377
总线 377
持股率从 377
支出的 377
是世界 377
有无 377
棍 377
欧洲市场 377
每种 377
比率为 377
特定的 377
确定为 377
竞争车型 377
美联储 377
考虑了 377
解读 377
订阅者 377
设施中 377
金钟仁紧急对策委员会 377
钻石 377
需要在 377
非常严重 377
6, 376
Aut 376
▁其结果 376
▁学生 376
▁未来 376
上方 376
与过去 376
企划预算 376
传感器和 376
凶 376
地域 376
大量生产 376
委员和 376
工作环境 376
带动了 376
微弱 376
抱负 376
有所提高 376
有机发光二极管 376
核心协议 376
沟槽 376
泛执政圈 376
活动费 376
炎热 376
电动汽车和 376
电动滑板 376
的倾向 376
的赵 376
相对来说 376
萝卜 376
责任官 376
通过抽签 376
银行等 376
销售价格 376
非常好 376
额度 376
首尔市教育厅 376
HC 375
TECH 375
▁Cont 375
为培养 375
为扩大 375
也为了 375
以外的其他 375
但对于 375
体育会 375
倍增 375
光复 375
在高 375
契 375
宣传大使 375
密切接触者 375
对在 375
山面 375
市值 375
应该通过 375
征用 375
恶魔 375
成为可能 375
摄入 375
日因 375
是被 375
暂定 375
欣 375
江北 375
沙漠 375
玫瑰 375
申东 375
疯狂 375
的具体 375
秀珍 375
组组长 375
调谐 375
走上 375
郑义宣 375
金智 375
釜山工厂 375
长期疗养 375
雇 375
零部件企业 375
饮食习惯 375
orld 374
▁bank 374
▁浦项 374
为改善 374
也很高 374
修炼活动 374
债权团 374
受到影响 374
在位于 374
在地区 374
型和 374
子女们 374
完成后 374
将重点放在 374
小姐 374
引起了人们的 374
急忙 374
手机上 374
支援计划 374
日为准 374
是否违反 374
李议员 374
灿烂 374
电压的 374
的关心 374
的大量 374
知识财产 374
税制 374
绘画 374
罗斯 374
聚集的 374
范围扩大到 374
说唱歌手 374
调配 374
都不能 374
量刑 374
铭 374
领导力 374
首尔中央 374
256 373
nect 373
udio 373
▁反而 373
主治医生 373
但它 373
值得信赖 373
各个领域 373
和生产 373
地区内的 373
头上 373
工会总联盟 373
并扩大 373
往返 373
恐 373
拼 373
施工现场 373
李光 373
潜伏 373
烧伤 373
的开始 373
脉络 373
选举制度 373
阐明 373
黑洞 373
,2009 372
,2011 372
114 372
Work 372
ann 372
ull 372
丹麦 372
但是从 372
免费检查 372
净水 372
可能会发生 372
射击 372
平均每天 372
年再次 372
接收的 372
旅程 372
昆 372
最高值 372
检查了 372
概括 372
民怨 372
沾 372
炒 372
的不安 372
的公约 372
的地方是 372
穿戴 372
职场内 372
行政安全 372
要求进行 372
视镜 372
让人期待 372
进行表决 372
院内代表沈在哲 372
预想的 372
Sw 371
▁仁川广域市 371
▁同 371
▁第一次 371
、《 371
不正之风 371
之间进行 371
产后 371
令人印象深刻 371
先后 371
内窥镜 371
初级 371
十四 371
名分 371
和内容 371
安养 371
当今 371
无接触 371
来往 371
此次议会选举 371
汉堡 371
的独立 371
磁盘 371
精心 371
缩短了 371
美国市场 371
葱 371
解开 371
这本书 371
顶峰 371
▁无论是 370
▁检查 370
了出来 370
依次为 370
半年 370
和低 370
咨询公司 370
家庭成员 370
对象为 370
将全部 370
居首位 370
汽车销量 370
潘 370
现象的 370
的错误 370
社会性 370
管理体系 370
给我推荐一下 370
耀 370
荧光灯 370
药剂师 370
被怀疑 370
要对 370
访问者 370
评价的 370
试运行 370
院长表示 370
餐饮业 370
ERP 369
kakaotalk 369
▁具体 369
▁接着补充道 369
体验馆 369
医院方面 369
在校 369
地区货币 369
声音的 369
大赏 369
学校和 369
官的 369
定额 369
峻 369
左派 369
打破了 369
据我所知 369
斯顿 369
明确规定 369
替代方案 369
最近以 369
毒素 369
烦恼 369
生产企业 369
男孩 369
的公推 369
的死亡 369
的观众 369
经验为基础 369
轮车 369
违法的 369
60%。 368
loud 368
yt 368
▁许多 368
不利影响 368
中国人 368
保护膜 368
制定和 368
参观了 368
和宝马 368
圣诞 368
字体 368
将无法 368
尹美香 368
扩 368
教训 368
旬 368
有功 368
极其 368
模型的 368
的行驶 368
皓 368
科学院 368
移动通讯 368
等多个领域 368
纯电动汽车 368
罕 368
美国政府 368
营业所 368
蔚 368
蛇 368
被告人的 368
解除了 368
计划今年 368
课题是 368
超越了 368
跑步 368
那一 368
,24 367
1900 367
5、 367
▁全罗南道 367
丑 367
个阶段 367
以便在 367
作品中 367
免税 367
净水器 367
凝 367
利益的 367
勃勃 367
匿 367
合作方案 367
名护士 367
在包括 367
巴斯 367
张专辑 367
怜 367
拜登 367
捕捉 367
排放的 367
提高最低工资 367
教育法 367
日发布公告称 367
日推出了 367
根据情况 367
正在关注 367
的山 367
立法预告 367
议员也 367
长和 367
BP 366
Thin 366
Toss 366
port 366
▁on 366
▁为了在 366
严惩 366
交纳 366
克服危机 366
劳动法 366
医疗法 366
卧 366
在籍 366
尔的 366
希腊 366
应该以 366
所必需的 366
有意 366
机油 366
每一个 366
流畅 366
特别会计 366
环保型 366
的义务 366
的孩子们 366
的年 366
的特色 366
的环境中 366
研究结果表明 366
等时 366
绒 366
结合在一起 366
维持着 366
芭蕾舞 366
苛刻 366
该医院 366
遇到困难 366
道理 366
银行账户 366
DMB 365
go 365
▁Up 365
人家庭 365
借款 365
先例 365
光顾 365
初步 365
制造了 365
后被 365
垫片 365
将全面 365
将如下 365
层次 365
年代中期 365
微波 365
成员国 365
折射 365
无党派人士 365
更快地 365
月上市的 365
服务提供 365
概念的 365
殖民 365
比之前 365
流行音乐 365
满足了 365
灵堂 365
的帖子 365
第三个 365
等都是 365
粪便 365
纯度 365
计算出 365
课程的 365
逐渐减少 365
部分变更 365
雅阁 365
面膜 365
2019" 364
DD 364
NI 364
icon 364
▁Hy 364
▁Labs 364
▁但据悉 364
五个 364
仅占 364
从小 364
住宅的 364
供应给 364
做好准备 364
区政 364
发展到 364
召开记者会 364
台阶 364
号街 364
大气污染 364
如同 364
孝子 364
市民社会 364
并正在 364
应该从 364
弟子 364
掉落 364
接近性 364
提琴 364
搅拌 364
收集的 364
望远镜 364
汽车税 364
演歌 364
电费 364
的人性 364
稳定性和 364
还强调 364
进口车市场 364
通信公司的 364
通过以 364
静脉 364
2.4 363
4~ 363
rot 363
▁支持 363
中所 363
产生共鸣 363
人生的 363
付出 363
任何一项 363
传播的 363
传染病的 363
保险丝 363
偏转线圈 363
光纤 363
和子女 363
基因组 363
增幅 363
增资 363
大邱广域市 363
当天在国会 363
患者进行 363
文化体育观光部 363
显像管 363
智能手表 363
月向 363
杜绝 363
比赛的 363
消毒剂 363
状况室 363
瑞德西韦 363
的不良 363
的人权 363
的审议 363
的最新 363
研究机关 363
磁体 363
童子军 363
系统和方法 363
装置和方法 363
预料 363
领土 363
驾驶证 363
Rob 362
auty 362
let 362
tr 362
▁原本 362
上升势头 362
中小企业中央会 362
人中有 362
光阳 362
公休日 362
分阶段 362
划时代 362
发光元件 362
发挥着 362
和公共 362
和外部 362
实际上是 362
将如何 362
将集中 362
就这样 362
带到 362
并敦促 362
张病床 362
所需的费用 362
损益 362
是中国 362
有关联 362
正确地 362
比如 362
清单 362
特委 362
的丈夫 362
的案件 362
的男 362
的经历 362
盒饭 362
相继 362
礼品 362
给予协助 362
缺点是 362
肉类 362
葡萄酒 362
锻炼 362
1992 361
FI 361
Miss 361
Rem 361
▁2004 361
▁Ins 361
▁公平交易委员会 361
一个月的 361
会自动 361
会见了 361
值得期待 361
全息图 361
其目的在于 361
冤 361
凝胶 361
削弱 361
加害者 361
可行性 361
吊 361
哀 361
委任职委员 361
定期检查 361
家人一起 361
工会和 361
并实现 361
彭博社 361
指的是 361
损失保险 361
掀背车 361
教授的 361
施暴 361
无形 361
晋升为 361
最高委员会议 361
校区 361
派出所 361
浮动 361
用户数 361
疏远 361
的新生 361
的歌手 361
目的的 361
祝福 361
空间信息 361
立刻 361
缓助 361
而制定的 361
行程 361
计算机的 361
跑道 361
辅导 361
过去了 361
这将 361
逃税 361
避难 361
金堤 361
锂离子 361
面包车 361
GC 360
Ins 360
iwoom 360
▁Med 360
▁SE 360
▁同年 360
▁有评价认为 360
上是 360
中标 360
也获得了 360
劳动基准法 360
和国家 360
在日常生活中 360
定量 360
实在 360
对国民 360
工作效率 360
平等的 360
座谈会上 360
所大学 360
携手合作 360
检察院 360
流行的 360
的步伐 360
的象征 360
的阶段 360
第三季度的 360
精神疾病 360
缓期 360
罕见的 360
职员们的 360
自愿退休 360
认同感 360
讯 360
详细信息 360
通孔 360
配对 360
金融科技企业 360
陈情 360
预算范围内 360
1/ 359
ye 359
▁同一 359
▁郡守 359
也只能 359
事实的 359
人被 359
公平委 359
其职务 359
出厂 359
取得成功 359
可以由 359
向政府 359
在制定 359
在线授课 359
坚实的 359
宽松 359
尹钟 359
希望大家多多 359
帕里斯帝 359
庞 359
废气 359
控制和 359
搭载的 359
收拾 359
日本经济 359
法律和 359
灵敏度 359
电子通信研究院 359
统长 359
自治法规 359
血浆 359
被盗 359
试图通过 359
购入 359
蹄 359
里有 359
集团总裁 359
韩服 359
,50 358
1.8 358
2。 358
De 358
jin 358
▁制作 358
三方 358
世宗大厦 358
主页上 358
也会出现 358
克服了 358
其特征在于 358
历届 358
地狱 358
埈 358
多孔 358
学的 358
室内装饰 358
平均为 358
并不能 358
很长 358
恋爱的 358
悬崖 358
惊悚 358
推迟到 358
活动现场 358
渐 358
灾难安全 358
的动作 358
的工厂 358
研究团队 358
第十 358
等社会 358
行驶中 358
诽谤 358
轻型车 358
选举对策委员长 358
选择权 358
金候选人 358
irect 357
my 357
▁不要 357
▁为了实现 357
▁而 357
▁证券 357
一直处于 357
不会对 357
与实际 357
以人工智能 357
以韩国 357
伪装 357
伯特 357
候选人登记 357
公开的照片中 357
内侧 357
内容制作 357
出台了 357
刑警 357
可达 357
和小 357
回升 357
困惑 357
在中 357
安全装置 357
安定 357
审判中 357
尺度 357
很大的作用 357
成年人 357
成长动力 357
搭建 357
改正 357
文议长 357
日出现 357
最大程度地 357
来制造 357
歉意 357
正在实施 357
点燃 357
用手机 357
电流的 357
的歌词 357
笔记 357
等韩国 357
签订的 357
苦衷 357
该活动 357
转速 357
还将在 357
进一步增加 357
退伍 357
闵庚旭 357
防疫措施 357
韩医 357
CL 356
IZ 356
eed 356
gr 356
ina 356
▁一旦 356
▁发生 356
不会发生 356
人寿 356
健康保险公团 356
全球变暖 356
器中 356
坝 356
基础疾病 356
塑 356
年龄层 356
延寿区 356
很明显 356
心和 356
我要 356
损害保险公司 356
日本帝国主义 356
有责任 356
每股 356
沈相奵 356
没有人 356
电平 356
的教育活动 356
的现代汽车 356
研讨会上 356
社会主义 356
稳定性的 356
纸张 356
进行分类 356
那么在 356
销售和 356
问题和 356
,2010 355
lim 355
▁Ultra 355
▁plus 355
▁确认 355
▁韩国通用 355
》,《 355
上出现了 355
亲朴派 355
优雅的 355
伞 355
净抛售 355
劳动组合 355
及第 355
可以确保 355
各种活动 355
后遗症 355
固定的 355
地方自治团体的 355
多项 355
大幅扩大 355
她们 355
如果发生 355
妃 355
将提高 355
帐 355
年期 355
很难进行 355
意见称 355
朴槿惠前总统 355
烦 355
犹太 355
独创 355
王国 355
现行法律 355
电视上 355
积极支援 355
至少有 355
让人好奇 355
诉苦 355
还没 355
这种趋势 355
104 354
PN 354
opping 354
verse 354
▁共同 354
▁大韩航空 354
▁这被解释为 354
、20 354
一系列 354
不足以 354
中包含了 354
中和 354
京畿道知事 354
保障性 354
候选人和 354
做好了 354
健康状态 354
全新的 354
动荡 354
和扩大 354
哪怕 354
基础设施建设 354
处境 354
妹妹 354
寻常 354
将追加 354
应事先 354
拨打 354
控制电路 354
月为基准 354
枯竭 354
汽车配件 354
滤波 354
激化 354
特许 354
男性的 354
的发行 354
给我推荐 354
花纹 354
要求事项 354
转正 354
送达 354
阻止了 354
韩方 354
高效率 354
Android 353
GPU 353
POSCO 353
RNA 353
▁Life 353
▁另一位 353
▁接下来 353
▁该患者 353
万多人 353
主题演讲 353
也起到了 353
交织在一起 353
件事 353
信息处理 353
几何 353
加算 353
加载 353
动了 353
劳动组合总联盟 353
千韩元 353
卑 353
另行制定 353
在任何 353
在首尔市 353
埃博拉 353
对其他 353
市场调查企业 353
得到解决 353
政务首席 353
旌闾 353
朴赞 353
根源 353
清凉 353
港湾 353
用来 353
电信和 353
痰 353
短缺 353
艺人的 353
范畴 353
被用于 353
认为这是 353
译 353
负增长 353
跨越 353
轴的 353
迂回 353
邀请了 353
配送服务 353
难关 353
1) 352
HR 352
` 352
pro 352
▁Auto 352
▁Global 352
上岩 352
中加入 352
为加强 352
产生的影响 352
以不 352
以至于 352
但是对于 352
位居第二 352
刑罚 352
前面的 352
可持续发展 352
吉利 352
委员长在内的 352
寒冷的 352
恢复原状 352
新冠肺炎感染 352
朴前总统 352
栈 352
热带 352
痘 352
紧密合作 352
翁 352
自然而然 352
被广泛 352
记者见面 352
诗人 352
起诉了 352
面板的 352
,14 351
1.3 351
650 351
Hi 351
Model 351
▁共同民主党议员 351
▁本发明涉及了 351
▁这是一种 351
与在 351
之夜 351
几种 351
副本 351
基板上的 351
堂山 351
尔特 351
工作了 351
市政 351
并采取 351
广播公司 351
应遵守 351
截至目前 351
批准了 351
投资心理 351
接连出现 351
摆出 351
政治的 351
最高级 351
有可能出现 351
期限制 351
来确保 351
每隔 351
温差 351
的财产 351
禽 351
窑址 351
蜂拥而至 351
计划和 351
访韩 351
辰 351
进行说明 351
锋 351
109 350
95% 350
DBMS 350
Deep 350
KS 350
▁2013 350
▁三星电子在 350
▁女性 350
▁金代表 350
万韩元的价格 350
三位 350
上半年的 350
不能接受 350
为了纪念 350
也只有 350
也达到了 350
传教 350
健康护理 350
在那里 350
在首尔汝矣岛 350
安全教育 350
应按 350
推定 350
教师们 350
机构和 350
核电 350
清楚地 350
热门话题 350
爆发性 350
爱情的 350
生活工资 350
的优势 350
目标的 350
第一的 350
等是 350
贩 350
资金支援 350
顾客为对象 350
高危人群 350
260 349
Class 349
Dream 349
HEV 349
VE 349
ara 349
ond 349
put 349
▁加上 349
▁可以在 349
▁如果您 349
主唱 349
之日 349
买卖合同 349
令人震惊 349
企业将 349
内容包括 349
可以用于 349
可实现 349
听到了 349
在有 349
审批 349
将军 349
将开发 349
将构建 349
崛起 349
巩固了 349
并减少 349
快速地 349
情节 349
振兴法 349
摩托 349
撰写 349
新再生能源 349
方式是 349
是非常重要的 349
月通过 349
李成 349
爆发性的 349
玉米 349
用车 349
的工人 349
的父母 349
确诊为 349
罗拉 349
职业棒球 349
芝加哥 349
赢 349
车辆和 349
边框 349
通话中表示 349
遭受了 349
金融委员长 349
颈部 349
饼干 349
ABS 348
Cha 348
▁受到 348
▁看 348
▁看着 348
▁调查结果显示 348
三重 348
不少人 348
个小时的 348
中发生 348
交换了 348
人事调动 348
人才的 348
侵 348
减少到了 348
原有的 348
反映出 348
合算 348
导向 348
就算 348
平滑 348
并努力 348
当选人的 348
必须通过 348
患者人数 348
慰问 348
成立后 348
挂着 348
搭档 348
数字化转型 348
文在寅总统的 348
新冠肺炎检查 348
是作为 348
正在加快 348
河泰庆 348
活跃起来 348
游乐场 348
灵感 348
电动汽车充电 348
的业务协议 348
的方法及 348
研究室 348
硫酸 348
蔽 348
装置及 348
西欧 348
议决 348
车种 348
迅速增加 348
韩流明星 348
首要 348
GX 347
tron 347
▁根据本方案 347
一周内 347
个月里 347
产生负面影响 347
他解释说 347
价值观 347
优秀企业 347
会使 347
儿子的 347
前会长 347
可使用 347
咪 347
商议 347
安装有 347
封面 347
心跳 347
投身 347
握手 347
智能农场 347
最具 347
汽车品牌 347
满意度调查 347
现状和 347
电视和 347
的原理 347
盈余 347
积极进行 347
稳定基金 347
终身学习 347
膀胱 347
至少要 347
视频服务 347
跳板 347
这部电影 347
进行了讨论 347
间距 347
阴城 347
限量版 347
非常关注 347
风格的 347
黑匣子 347
Zero 346
ando 346
form 346
▁NC 346
▁之所以 346
▁分析认为 346
▁双方 346
▁在野党 346
▁环境部 346
▁闵 346
中唯一 346
临界 346
交通费 346
会引发 346
供应合同 346
前副社长 346
去年为止 346
友情 346
夸大 346
尽到 346
工会会员 346
工厂和 346
年轻一代 346
应从 346
技术能力 346
报告了 346
拜访 346
提供各种 346
政务委员会 346
政府机关 346
斯卡 346
既得权 346
极度 346
栏目 346
正式上市 346
沟通的 346
没有理由 346
物等 346
特别相关人士 346
现在开始 346
甲骨文 346
的核心是 346
私营 346
等组成 346
组合物 346
老人的 346
见到了 346
视频通话 346
详 346
谢谢 346
部和韩国 346
Cor 345
Mobile 345
▁Ph 345
▁pro 345
▁r 345
▁条例第 345
上升的 345
为了避免 345
从而实现 345
俱乐部的 345
充分利用 345
副院长 345
厢房 345
可以看作是 345
唤醒 345
在半导体 345
在这种 345
基石 345
外面 345
技术上 345
捐助 345
日开始进行 345
智能机器 345
暴行 345
爱因斯坦 345
物品的 345
生活必需品 345
电子束 345
的制造 345
的大韩民国 345
的收入 345
目前有 345
礼遇 345
等工作 345
结算服务 345
给观众带来了 345
网上商城 345
聊 345
至今仍 345
衍 345
让人倍感 345
进行投票 345
金融控股公司 345
陆地 345
首次在 345
,2000 344
5%, 344
EP 344
NAND 344
▁再 344
▁技术 344
▁行政安全部 344
万户 344
丹尼尔 344
交通公社 344
债券市场 344
儿童和 344
免疫细胞 344
公有财产 344
具体化 344
分别以 344
判例 344
副总理兼 344
及服务 344
多文化 344
宋歌人 344
实习生 344
对我们 344
将负责 344
市和 344
常数 344
年前开始 344
并公开了 344
并具有 344
并改善 344
应试 344
建立一个 344
很高兴 344
必须得到 344
所具有 344
断然 344
消费者提供 344
的普通 344
看的 344
社会服务 344
能源效率 344
自由地 344
触发 344
费用中 344
转让给 344
过多的 344
金融机关 344
降低制造成本 344
限时 344
项及第 344
预计在 344
领导的 344
首尔高等法院 344
oor 343
▁我们的 343
▁朴议员 343
▁给 343
一眼 343
中国国内 343
中央劳动委员会 343
事业部长 343
代案 343
价上限制 343
会持续 343
但今年 343
克的 343
区厅长可 343
双职工 343
发生冲突 343
同感 343
名列 343
启示 343
哪种 343
填满 343
娥 343
将给 343
将起到 343
应包括 343
引力 343
担任过 343
接连发生 343
搏 343
明确地 343
有人提出 343
有用的 343
治疗费 343
狮子 343
狱 343
玩耍 343
生活体育 343
的心态 343
直升机 343
真的很 343
科学技术信息通讯 343
笔者 343
管理员 343
自适应 343
追赶 343
逐渐扩大 343
预算决算 343
首尔特别市冠岳区 343
Avante 342
CAR 342
ition 342
▁从去年 342
▁大宇 342
中委任 342
中存在 342
假处分 342
停电 342
充值 342
公开表示 342
具有在 342
刑事诉讼 342
判断标准 342
削 342
厢 342
去找 342
和国民 342
和演员 342
多方面 342
嫁 342
家务 342
对照 342
抗病毒 342
拥护 342
无论如何 342
是无法 342
晴 342
月之前 342
朴正熙 342
汽车租赁 342
测量的 342
瘾 342
的女人 342
的委员 342
的官方 342
的差距 342
的种类 342
第四季度的 342
绘 342
而出 342
耐克森轮胎 342
肝脏 342
舞弊 342
韩国综合股价指数 342
黎 342
Cont 341
FTA 341
Open 341
PT 341
VM 341
▁要求 341
中型车 341
人以上的 341
保护电路 341
信息服务 341
具有代表性的 341
制动器 341
双手 341
司令 341
名副 341
商会 341
密钥 341
对被告人 341
就任后 341
工程系 341
年为基准 341
年代初 341
幸存 341
怒 341
批评了 341
报销 341
方式和 341
日内瓦车展上 341
日常生活的 341
更具体 341
最坏 341
本部长表示 341
比任何 341
病的 341
的宣传 341
的高龄 341
秀智 341
等尖端 341
紧急对策 341
航空宇宙 341
药物治疗 341
计时 341
跃升为 341
转移到了 341
辆的 341
迈克尔 341
这点 341
邻近 341
郡民 341
野生 341
量子力学 341
长寿 341
首尔江南 341
IO 340
WS 340
ents 340
▁Networks 340
▁以往 340
三分之二 340
为主要内容的 340
们一起 340
体育场 340
使用方法 340
偷偷 340
刃 340
及其控制方法 340
吃播 340
合作协议 340
和活动 340
坊 340
延长了 340
开门 340
感染扩散 340
新歌 340
比今年 340
煽动 340
的新技术 340
的自然 340
相对于 340
督 340
经纪 340
腿部 340
英格兰 340
蚊 340
请务必 340
踢 340
这个词 340
AIL 339
ler 339
ner 339
ystem 339
∼ 339
▁Care 339
▁Research 339
▁ST 339
▁但由于 339
一种用于 339
不清 339
主权 339
于上个月 339
仍在继续 339
企划财政 339
倾向的 339
入党 339
内定 339
可能会导致 339
在通过 339
安排了 339
巨济 339
差不多 339
平壤 339
广角 339
急于 339
执行计划 339
投资证券研究员 339
攻击性的 339
新学期 339
新药开发 339
是否具有 339
更低 339
月以来 339
民谣 339
液晶显示器 339
灾难管理 339
炯旿 339
理性 339
申办 339
电池和 339
痕 339
的全国 339
的文 339
的营业 339
的行政 339
的视线 339
的请求 339
直购 339
研究小组 339
繁殖 339
经济合作 339
继承人 339
而开发的 339
计划利用 339
设施时 339
量增加 339
露出了 339
颗粒物 339
高科技 339
6~ 338
CNN 338
ush 338
▁Service 338
▁re 338
▁海外 338
一份 338
不断扩大 338
令人惋惜 338
以全国 338
初选议员 338
同胞 338
员工的 338
塌 338
大幅改善 338
委员会和 338
安前议员 338
将使 338
小时后 338
尔顿 338
并且由于 338
并实施 338
推断 338
撞击 338
收盘 338
散热器 338
旺季 338
景点 338
此次协议 338
比例政党 338
洗钱 338
洛东江 338
的一侧 338
的成长 338
皱 338
相关负责人表示 338
相当多的 338
社会责任 338
苍 338
蜜 338
被列入 338
要把 338
赠与税 338
路透社 338
较量 338
高度的 338
20~ 337
> 337
AA 337
GR 337
POS 337
▁IB 337
争吵 337
代表性的例子 337
令人满意 337
以促进 337
党籍 337
出身人士 337
制冷 337
勃 337
发生故障 337
司令部 337
向着 337
和国内 337
因此无法 337
富平区 337
工龄 337
常驻 337
平均值 337
并管理 337
技术革新 337
指出的 337
收集了 337
日公布的 337
晋州市 337
有价证券 337
有机电致 337
未达到 337
楼梯 337
流行性 337
猪肉 337
相撞 337
级别的 337
聚餐 337
脖子 337
要么 337
贺词 337
转入 337
部位的 337
部分和 337
间谍 337
EF 336
LH 336
Or 336
board 336
▁' 336
▁Ad 336
▁他强调说 336
▁新冠肺炎 336
▁有评价称 336
▁本发明涉及一种具有 336
▁每天 336
▁高丽大学 336
个选区 336
也参加了 336
也存在 336
事实关系 336
会降低 336
供应网 336
千万 336
取得胜利 336
取证 336
在全体 336
增长到 336
大幅上涨 336
宪法裁判所 336
尔斯 336
工作中 336
并能 336
废弃物处理 336
排名第二 336
改进的 336
散发出 336
无关的 336
映宣 336
校服 336
沸腾 336
演员李 336
特色的 336
碧 336
等相关事项 336
而提高 336
让其 336
超低 336
较少的 336
频段 336
首次出现 336
高音 336
,40 335
80%。 335
OE 335
ah 335
play 335
▁公共 335
▁报告书 335
▁收到 335
▁李议员 335
业务上 335
二进制 335
低收入层 335
例患者 335
入所 335
区域中 335
千辆 335
南非 335
危险度 335
去世后 335
发展成 335
可以自动 335
吴世勋 335
和检查 335
回报 335
安全问题 335
庆南道 335
引擎盖 335
或以 335
教育内容 335
暴露于 335
漆谷 335
状的 335
的主持 335
的方针是 335
见解 335
谣言 335
通过该 335
量子点 335
阴谋 335
隶属于 335
非常大 335
* 334
1.7 334
Talk 334
YO 334
igital 334
▁假设 334
▁撤销 334
不平等 334
价的 334
刻有 334
前法务部长官曹国 334
劳动政策 334
受苦 334
口气 334
吸引力 334
唯 334
国产车 334
太阳能电池的 334
工作制的 334
已知 334
推理 334
显示在 334
暴雨 334
有关部门 334
朵 334
残疾人福利 334
淀粉 334
燃料电池的 334
现代起亚 334
电化学 334
的人和 334
的减少 334
的设备和方法 334
精神分裂症 334
纱 334
纲领 334
绩 334
耀眼 334
肉眼 334
股价下跌 334
自己想要 334
被提及 334
这件事 334
进军海外市场 334
连接至 334
钾 334
露宿 334
革新成长 334
骑手 334
高风险 334
4+1 333
AST 333
MOS 333
▁与其他 333
▁实际 333
▁金融圈 333
一世 333
上司 333
为了提供 333
为增进 333
事业者的 333
二世 333
会提高 333
但仍 333
初期阶段 333
医院内 333
博世 333
只要是 333
可以考虑 333
后轮 333
境外 333
夸 333
密切接触 333
对面 333
峰会 333
工作和 333
按键电话 333
日上映 333
早餐 333
此类 333
比亚 333
没有对 333
治疗效果 333
熬 333
的动向 333
的现代 333
相关专家 333
第一的位置 333
级以上 333
置之不理 333
老龄 333
胶卷 333
营养素 333
视网膜 333
计划推出 333
调整为 333
转折点 333
轻度 333
通信系统 333
酿 333
长期以来 333
闸 333
防范 333
预算结算 333
高层公务员 333
RPG 332
▁可以通过 332
▁在日本 332
▁大型 332
▁微软 332
▁笔者 332
▁虽然政府 332
▁金委员长 332
三党 332
不同意 332
专利权 332
也可 332
优秀人才 332
借贷 332
全权负责 332
制剂 332
剧照 332
助于 332
和合作 332
和培养 332
四分之一 332
因此应该 332
多岁的人 332
就越大 332
尺寸的 332
届的 332
年下半年 332
很强的 332
总统选举 332
或进行 332
持否定 332
推行 332
日均 332
更好地 332
更重要 332
有可能发生 332
比平时 332
气缸 332
的人群 332
的全部 332
的建议 332
的能源 332
笔记本 332
纪念仪式 332
综合股价指数 332
编排 332
网站的 332
而又 332
而备受 332
蝴蝶 332
赞助金 332
赵成 332
跑车的 332
难民 332
马丁 332
驿 332
:“ 331
ADAS 331
Ka 331
Micro 331
ous 331
▁听到 331
专员 331
为条件 331
也不知道 331
产品开发 331
会下降 331
会等 331
伴有 331
便利性的 331
保健环境研究院 331
像这样 331
创立了 331
参照 331
名以上的 331
在国家 331
并发表了 331
异步 331
感激 331
报道了 331
收购的 331
晶圆的 331
检查等 331
正统 331
激战 331
疫苗接种 331
的利率 331
的参与 331
盆唐首尔大学医院 331
祠 331
积极推进 331
空隙 331
编写 331
脚步 331
规模达 331
解雇了 331
通过这次 331
都是在 331
音乐的 331
麟 331
"" 330
3~ 330
▁移动 330
也很有可能 330
从而防止 330
但有 330
但目前 330
决定性 330
划清界限 330
判决的 330
十字 330
卵巢 330
周日 330
存在局限性 330
将采取 330
并计划在 330
微小 330
我校 330
推进委员会 330
播出后 330
擅长 330
李世 330
海底 330
涌现 330
演出场 330
犹豫 330
生产能力 330
的单 330
的投票 330
示范事业 330
第一款规定 330
等人的 330
等处 330
等弱势群体 330
粘贴 330
经常发生 330
调查机关 330
连锁店 330
面对面的 330
飞沫 330
高清 330
550 329
5·18 329
Celltrion 329
Da 329
Kor 329
LF 329
YouTuber 329
of 329
rad 329
za 329
▁Fin 329
▁新任 329
▁通过使用 329
不履行 329
也发生了 329
人事调整 329
优秀奖 329
侨 329
信息通信网 329
共享经济 329
准备好 329
劳组 329
即便 329
反应堆 329
可以快速 329
和实际 329
和海外 329
城东 329
将在今年 329
工会在 329
年度的 329
意见书 329
感到不安 329
所占的比重 329
手续 329
技术研究院 329
投资基金 329
拉面 329
接收到 329
插曲 329
教保 329
时需要 329
是三星电子 329
服药 329
枢纽 329
正在为 329
现在已经 329
的协商 329
的四 329
积极开展 329
美国国内 329
而引起 329
而难以 329
荣获 329
虾 329
财政部 329
辊 329
迅速扩散 329
镁 329
长久 329
非常对策委员长 329
Bio 328
Br 328
log 328
▁2003 328
▁下 328
▁本发明涉及使用 328
▁生产 328
▁节目 328
▁这是自 328
▁连 328
万韩元的罚款 328
不足之处 328
两极 328
了解一下 328
人工呼吸 328
吊唁 328
名成员 328
外延 328
家庭贷款 328
嵌入 328
建党 328
开发项目 328
忧 328
据调查 328
有效利用 328
来判断 328
标准和 328
正在等待 328
死亡事故 328
死亡病例 328
漂浮 328
特价 328
环绕 328
的对话 328
的画面 328
的脸 328
研磨 328
越来越多的 328
车体 328
进行介绍 328
铁道公社 328
-5 327
115 327
SL 327
SSG 327
ley 327
▁Technology 327
▁委员会的 327
▁数字 327
▁起亚 327
为了阻止 327
会因 327
军方 327
割 327
半岛 327
叔 327
可惜 327
号患者的 327
同比增加了 327
和下 327
困 327
地表 327
宝座 327
家和 327
山茶花开时 327
年初开始 327
忙于 327
想起了 327
慈善 327
损失额 327
接触过 327
描述了 327
支付服务 327
是一位 327
汉阳 327
海边 327
现场直播 327
甚远 327
的手续费 327
神经系统 327
等有关 327
给予关心和 327
股份率从 327
能够将 327
舟 327
被认可 327
订货 327
诵 327
贾 327
还是个 327
适用范围 327
里克 327
量的增加 327
限量 327
驳回了 327
高三 327
1.4 326
5.5 326
FO 326
YT 326
α 326
▁CO 326
▁“ 326
▁就是 326
▁新世界 326
▁民主 326
上公开了 326
专门医院 326
中的一个 326
亲眼 326
作威作福 326
公寓的 326
分在 326
分离的 326
劳动环境 326
半月 326
协会的 326
协商会 326
可利用 326
各种各样的 326
后决定 326
在将 326
委任委员 326
年进入 326
想象的 326
技术与 326
教育及 326
新车型 326
时间等 326
是我的 326
李京 326
比去年同期减少了 326
水力 326
注意力 326
生活习惯 326
电缆的 326
的半导体器件 326
税法 326
等内容的 326
而努力的 326
良才 326
衰减 326
许多人 326
走出 326
镜片 326
201 325
oss 325
为了维持 325
体育活动 325
全国民 325
分配的 325
刊登在 325
加平 325
原型 325
可隆 325
和咨询 325
咨询团 325
大笑 325
夺走 325
富士 325
富裕 325
想象力 325
战胜了 325
拿走 325
敞篷 325
整天 325
日访问 325
本书 325
染料 325
比上 325
热衷于 325
的新型 325
的新的 325
监禁 325
目击 325
突变 325
纳税人 325
绝望 325
表示担忧 325
被判处有期徒刑 325
讳 325
赚取 325
还可以在 325
难免 325
集体发病 325
领养 325
食品药品 325
高龄者 325
108 324
750 324
KA 324
KEB 324
RT 324
THE 324
iot 324
lu 324
▁从这个 324
▁记者 324
、11 324
上升幅度 324
专栏 324
世界上首次 324
为核心 324
之争 324
从韩国 324
以及对 324
价值和 324
众所周知 324
传染病预防 324
借记卡 324
冷落 324
分许 324
博士房 324
发展中国家 324
周刊 324
和关心 324
国政调查 324
基坛 324
多伦多 324
实质 324
将其视为 324
将致力于 324
并确保 324
开玩笑 324
支援对策 324
政府首尔 324
日出席 324
日本政府 324
智慧城市 324
最近与 324
殊 324
比以往 324
比这 324
汽车生产 324
润滑 324
电池充电 324
白钟元 324
百分 324
的操作 324
的方法和 324
离别 324
科学馆 324
缓期执行 324
计数 324
调查时 324
资深 324
赦免 324
超人回来了 324
轮流 324
还搭载了 324
量减少 324
钴 324
魔法 324
龙头 324
KISA 323
Korea 323
life 323
ocar 323
▁虽然有 323
不停 323
东山医院 323
中国产 323
也计划 323
产业化 323
体和 323
初期的 323
劳资协议 323
南洞 323
及教育 323
名人 323
和游戏 323
因果关系 323
在公共 323
外国人的 323
家人和 323
年因 323
征服 323
所需要 323
打开和关闭 323
抽奖 323
据分析 323
改组 323
普利司通 323
月末为止 323
朴娜莱 323
朴柱 323
束草 323
某从 323
此事 323
特性和 323
现代汽车和起亚汽车 323
第二大 323
答辩 323
而使用 323
聘请了 323
视频信号 323
设计成 323
趋势的 323
阶 323
陷入困境 323
首长 323
UNG 322
back 322
▁IP 322
▁不过 322
▁业界预测 322
▁他主张 322
▁有时 322
▁有观测认为 322
一台 322
一起生活 322
业界相关人士 322
事件中 322
介绍称 322
保护和 322
傲慢 322
元老 322
公管委 322
利害 322
区和 322
卖出 322
压倒性 322
厚度的 322
发生事故时 322
口腔检查 322
同性恋 322
向下 322
听力 322
咨询委员会 322
噪 322
在短期内 322
坦率 322
就业人数 322
并作为 322
截至今年 322
手柄 322
控制中心 322
摇滚 322
数字性犯罪 322
新能源 322
日进行了 322
是否与 322
汉城 322
沈在哲 322
没有太大的 322
波特 322
浚 322
社交网络 322
等网络 322
组织和 322
肥料 322
课外辅导 322
运动员 322
那里得到 322
金勇 322
钨 322
鱿鱼 322
KF 321
PF 321
Re 321
▁200 321
▁PE 321
▁他认为 321
▁其中包括 321
▁区厅长为 321
▁数据 321
▁曾经 321
▁议长 321
一审判决 321
也决定 321
乡校 321
交互 321
产业安全保健法 321
以提供 321
使用率 321
储藏 321
兔 321
入院 321
其他国家 321
分辨 321
劳动人权 321
劳斯莱斯 321
原计划 321
名候选人 321
国际合作 321
图标 321
奠定基础 321
干燥机 321
年轻的 321
建设的 321
意义上 321
接下来的 321
提供支持 321
支付额 321
曹国法务部长官 321
有多少 321
期限的 321
液化 321
用餐 321
的金属 321
祖国 321
秦 321
而没有 321
让人联想到 321
财务结构 321
通过改善 321
邪 321
量子计算机 321
钢板 321
钩 321
锈 321
隔板 321
颖 321
,2014 320
2《 320
911 320
work 320
▁Gen 320
▁为了使 320
中含有 320
中规定 320
为借口 320
也减少了 320
也向 320
产业结构 320
从第 320
任意一项 320
但作为 320
保有 320
冠状 320
名声 320
后座 320
和可 320
因其 320
固然 320
国语 320
圣保罗 320
安全性和 320
实验中 320
将参与 320
层压 320
年轻人的 320
战略是 320
是否在 320
暴风 320
月被 320
来确定 320
构件的 320
根基 320
欠 320
相对论 320
破碎 320
积极影响 320
管理人 320
蔚山工厂 320
融合在一起 320
表示反对 320
规模和 320
议员总会上 320
超额 320
连接器的 320
金镇 320
铃声 320
镜子 320
阿根廷 320
隙 320
靶 320
,2007 319
99% 319
He 319
OF 319
UA 319
ger 319
isco 319
sol 319
▁com 319
▁他还补充道 319
▁消防 319
与附表 319
中与 319
中占据 319
为了进行 319
也有人指出 319
代表孙鹤圭 319
出版社 319
劳动市场的 319
劳资民政 319
同级别 319
后发现 319
和民主党 319
嘲 319
婚夫妇 319
将决定 319
尔夫 319
巡演 319
年来的 319
投影仪 319
文献 319
日刊 319
日在自己的 319
是什么呢 319
服务是 319
染色 319
殖民地 319
没有进行 319
消防署 319
演员们的 319
的命令 319
的秘密 319
睁 319
竞争者 319
索赔 319
继去年 319
胶带 319
莱斯 319
获奖作品 319
计划时 319
课外 319
费用为 319
赞成和反对 319
金融界 319
非常活跃 319
韩食 319
预算的 319
风险投资企业 319
1~3 318
BJ 318
DE 318
GF 318
ng 318
▁仁川市 318
▁半导体 318
▁据了解 318
三国 318
丽水市 318
修饰 318
再次被 318
劳动关系 318
只能通过 318
售出了 318
就不 318
延续了 318
恶性循环 318
惊人 318
排名中 318
接受了检查 318
提升了 318
曲目 318
最优秀 318
深远 318
潜水 318
爵 318
牢固 318
瓣 318
生产了 318
略有 318
的收益 318
的真实 318
皇家 318
神圣 318
绑 318
能够获得 318
被排除在外 318
解决的问题 318
调查了 318
负责官 318
财产的 318
身高 318
轩 318
这样的话 318
邮递员 318
长远来看 318
FCA 317
KE 317
Max 317
▁31 317
▁Elect 317
▁最具代表性的 317
▁能告诉我 317
▁韩国政府 317
一目了然 317
下降到了 317
两款 317
也受到了 317
事业模式 317
产地 317
介绍一下 317
几乎所有 317
刚刚 317
北极 317
十一 317
半导体晶片 317
因新冠疫情 317
因而 317
在现有的 317
大型轿车 317
已超过 317
拥挤 317
排行榜上 317
救护车 317
散射 317
构建的 317
沟道 317
渗 317
甚至出现了 317
的手段 317
私立学校 317
第二届 317
绅 317
虚拟资产 317
螺栓 317
资产运营公司 317
起重机 317
防止因 317
领悟 317
风险管理 317
飞机的 317
马恒达 317
COEX 316
Fe 316
NEXON 316
osco 316
上层 316
严格的 316
中的一部分 316
也随之增加 316
二氧化 316
先发制人 316
右派 316
和普通 316
城市再生 316
多人参加了 316
宪章 316
对整个 316
将焦点放在 316
届国会上 316
形的 316
往返于 316
惊慌 316
描 316
搭载在 316
整形 316
是非 316
本馆 316
比喻 316
沉淀 316
洪水 316
温泉 316
点火 316
环球 316
的内容是 316
的导演 316
空间里 316
窒息 316
细心 316
绘制 316
船员 316
著称 316
虚拟化 316
表现了 316
路易 316
转嫁 316
过上 316
预告片中 316
食品医药品安全厅 316
33. 315
Gra 315
PRO 315
Real 315
▁Be 315
▁担任 315
▁据美国 315
▁第四 315
▁车辆 315
一侧 315
上诉费用由 315
不均衡 315
与外部 315
中任何一项 315
中奖 315
串联 315
乘用车 315
会计师 315
内有 315
出现了很多 315
制度和 315
可能会有 315
向原告 315
咖啡馆 315
因新冠病毒 315
在制造 315
大企业和 315
大众交通 315
威力 315
学校运营 315
宾利 315
开闭 315
征集活动 315
总联盟 315
感到惊讶 315
所有权转移登记 315
技术企业 315
放送 315
文化中心 315
斗争的 315
时被 315
最优秀奖 315
污染物 315
添加到 315
烧结 315
烫 315
特殊的 315
的两个 315
的人来说 315
的头 315
的结论 315
瞩目的 315
矿山 315
花园 315
达城郡 315
高附加值 315
"4+1" 314
,2020 314
4·15 314
70%, 314
INE 314
alk 314
liance 314
▁使用者 314
不如说是 314
中国企业 314
中的任何一项 314
代表李海瓒 314
企业间 314
众筹 314
会更加 314
出勤 314
可以申请 314
同学 314
因为有 314
图纸 314
实损 314
就会产生 314
工作的人 314
布拉 314
并以此 314
延长至 314
彩票 314
或者在 314
承租人 314
技术发展 314
排名靠 314
推翻了 314
推进团 314
撰 314
无法预测 314
无疑 314
有名的 314
有很大的 314
木洞 314
汽车管理法 314
电极和 314
留有 314
的小商 314
美食店 314
而不能 314
胶囊 314
被破坏 314
被驳回 314
诚意 314
赢得 314
转交给 314
转让所得税 314
还要求 314
这一过程中 314
选管委 314
通过向 314
速自动变速器 314
阶梯 314
降落 314
青松 314
,2012 313
Power 313
▁但随着 313
▁公开的 313
▁日 313
▁月 313
▁现有 313
万辆的 313
不惜 313
为首的 313
事态的 313
以太坊 313
便利性和 313
做出了上述表示 313
共济 313
准确性 313
受灾 313
可以降低 313
国会正常化 313
在执行 313
夕 313
完全不 313
对方的 313
导入 313
将展现 313
将扩大到 313
展出 313
工商 313
开辟 313
怪物 313
慨 313
挑战赛 313
搬家 313
改宪 313
斯达克 313
是用于 313
是需要 313
本会议 313
某涉嫌 313
比例代表议席 313
滨 313
灭绝 313
珍贵的 313
界人士 313
的机构 313
的理解 313
的设立 313
移动通信系统中 313
突破口 313
等离子显示面板 313
箱子 313
累计销量 313
给出 313
网民们 313
而出现 313
衍生结合基金 313
资本主义 313
这位 313
都不知道 313
配置的 313
银行圈 313
'"," 312
Mot 312
VO 312
Ver 312
gram 312
ount 312
▁AMG 312
▁SKT 312
▁基金 312
上台后 312
两天内 312
为阴性 312
主要在 312
事项的 312
使用户 312
僧侣 312
其通过 312
具惠善 312
去年在 312
发生过 312
受贿 312
吝 312
多万韩元 312
宇宙飞船 312
安全保健 312
年产 312
彦周 312
忽 312
我们正在 312
我将 312
技术力 312
抵押权 312
招待 312
排名前 312
提供商 312
晕倒 312
更喜欢 312
最晚 312
服务平台 312
朱豪英 312
松岛 312
某是 312
波音 312
漏极 312
的构成 312
监理 312
短短 312
简便地 312
红十字会 312
结束之前 312
罪犯 312
聋 312
芯片组 312
表示不满 312
被提出 312
解决方案企业 312
计票 312
超小型 312
这是非常 312
进行了说明 312
进行结算 312
远程诊疗 312
部分由 312
雇佣劳动厅 312
雕塑 312
默默 312
Grandeur 311
Sky 311
TCP 311
lus 311
▁即便 311
、30 311
不齐 311
为了成为 311
但我们 311
养成 311
厄 311
嘉年华 311
在美国市场 311
奠定了 311
姜丹尼尔 311
学生提供 311
察觉 311
岸 311
希望家长 311
年代后期 311
年增加了 311
很大的影响 311
扭转 311
捐赠的 311
政府政策 311
文化体育观光 311
断定 311
新冠肺炎的影响 311
更多的人 311
最强 311
月上市 311
构筑了 311
梦想的 311
洞居民中心 311
浪漫喜剧 311
海镇 311
痒 311
的公正 311
的固定 311
的食品 311
相匹配 311
租户 311
经济和 311
结算院 311
联络 311
载流子 311
进行调整 311
阶段性地 311
face 310
hy 310
ouse 310
ress 310
▁Live 310
▁Soft 310
▁加入 310
▁协议会 310
▁如果因 310
下调了 310
下进行 310
不是以 310
与海外 310
主管部门的负责人 310
从美国 310
代表沈相奵 310
住所 310
党候选人 310
共和 310
兴致 310
其包括 310
劳动委员会 310
只允许 310
合议庭 310
学生在 310
微米 310
总统令 310
我们在 310
日本人 310
日本企业 310
杰克 310
桌子 310
正式启动 310
没有接受 310
渗透到 310
然后在 310
爆发的 310
特殊关系 310
特殊形态 310
的情况来看 310
相机模块 310
统计厅 310
脸书上 310
被选定 310
解决问题的 310
轨迹 310
进出 310
部长官朴 310
颁布 310
,25 309
Apple 309
WM 309
rime 309
下令 309
专卖店 309
个月前 309
举动 309
交易价格 309
令人惊讶 309
偏离 309
免提 309
出租车的 309
副委员长由 309
印度的 309
发票 309
在多个 309
均匀性 309
坦白 309
城郡 309
徘徊 309
怠 309
放着 309
新韩金融投资 309
条约 309
桂阳区 309
正义记忆连带 309
比任何人都 309
流通的 309
的弱势群体 309
的电磁波 309
笛 309
篇文章 309
终端机的 309
结合的 309
统筹 309
而获得 309
英里 309
要通过 309
诱惑 309
铭记 309
长大 309
限制了 309
隐藏着 309
首尔特别市广津区 309
首脑会谈 309
马自达 309
驱动装置 309
MWC 308
UL 308
prise 308
rive 308
▁与去年 308
▁到了 308
▁照片中 308
、12 308
了起来 308
事务处 308
人权的 308
休养 308
俊宇 308
党规 308
公开后 308
刷新了 308
区里 308
升温 308
卖方 308
即将到来 308
可以在不 308
可以在预算范围内支援 308
团体交涉 308
国境 308
多家企业 308
失业工资 308
如果通过 308
居民们 308
差异化 308
已经过了 308
张迷你专辑 308
得很好 308
控制台 308
收费制 308
无聊 308
时事 308
智力 308
智妍 308
月光 308
来执行 308
格外 308
法律的 308
消息的 308
深思熟虑 308
热搜 308
特别负责人的 308
的电阻 308
的自动 308
相关文件 308
紫菜 308
能看到 308
观众席 308
调度 308
贴近 308
还增加了 308
郑在 308
金善 308
雌 308
非上市 308
)' 307
280 307
El 307
MG 307
Pe 307
Youtuber 307
ena 307
▁患者 307
一开始 307
三成洞 307
三角 307
专业性的 307
但他们 307
俩 307
农林畜产食品 307
包含着 307
医科大学 307
可以期待 307
号确诊者 307
同比减少 307
后半期 307
和执政党 307
器械 307
在未来 307
妥当性 307
姿 307
将发表 307
就会自动 307
已经超过了 307
并宣布 307
形成有 307
惊慌失措 307
挪威 307
有权 307
次工业革命 307
温室气体排放 307
热电 307
特殊原因 307
用电 307
男子组合 307
留下了深刻的印象 307
的判断标准 307
的帮助下 307
瞬 307
称之为 307
穿梭 307
等全国 307
算法的 307
精神科 307
线束 307
绝对不能 307
网站或 307
荷娜 307
选举结果 307
青年的 307
顺应 307
骑士 307
4.5 306
BE 306
KD 306
KIKO 306
core 306
ings 306
oken 306
ray 306
ubl 306
三星显示器 306
上升率 306
上涨率 306
东柱 306
之间的竞争 306
也认为 306
二极管的 306
以及用于 306
入口处 306
共同体的 306
共同民主党和 306
内容等 306
刻画 306
博士学位 306
可以在预算范围内向 306
在国内市场 306
在需要 306
士官 306
奥林匹克 306
学士 306
客房 306
廉价手机 306
影响评价 306
德鲁纳酒店 306
恳切 306
感染新型冠状病毒 306
或没有 306
抽取 306
抽象 306
文化活动 306
斯科 306
日本的出口限制 306
最受 306
有可能导致 306
朴槿惠政府 306
每月支付 306
潜力的 306
的会员 306
的使用费 306
的观点 306
翅膀 306
胰岛素 306
要求将 306
财务报表 306
财界 306
软件开发 306
轻量 306
进行大规模 306
连续两年 306
除非 306
音源网站 306
鸭 306
,2006 305
135 305
3、4 305
At 305
Payco 305
Sn 305
ich 305
▁Premium 305
▁保健福利部 305
中止 305
也出现 305
也必须 305
了一项 305
体验了 305
克莱 305
冥想 305
分播出的 305
分析的 305
分社 305
劳动者们 305
口袋 305
同时提供 305
在每个 305
居住环境 305
年韩国 305
应采取 305
投放 305
拉斯维加斯 305
接近于 305
最大化的 305
死后 305
法务部长官候选人曹国 305
爆料 305
版本的 305
狙击 305
理想的 305
的占有率 305
的大门 305
等现有 305
粥 305
结缘 305
腹痛 305
蚕 305
调查官 305
资料等 305
载体 305
过电流 305
还获得了 305
这种方法 305
通往 305
通过手机 305
重修 305
银河 305
附有 305
1950 304
ict 304
rew 304
ven 304
▁Ac 304
▁公务员 304
▁好 304
▁投资 304
▁据观测 304
一直致力于 304
也越来越高 304
体现出 304
修宪 304
典礼 304
决定不 304
剧烈 304
只用 304
可行驶 304
可靠地 304
周后 304
周年之际 304
国会全体会议 304
在初期 304
基座 304
大检察厅 304
将持续到 304
将自动 304
属于下列各项 304
建筑的 304
影岛 304
怎么办 304
感光 304
所具有的 304
政策官 304
数据为基础 304
旗下的 304
服务活动 304
期权 304
来计算 304
校园暴力 304
核聚变 304
正在经历 304
每升 304
涡 304
添加剂 304
现实的 304
的一项 304
的困难 304
的日程 304
的表演 304
研究员表示 304
租赁费 304
组织改编 304
绝缘体 304
背面的 304
设备上 304
资本金 304
重审 304
院外 304
项目是 304
驱逐 304
骗取 304
210 303
4500 303
7, 303
As 303
IL 303
IVE 303
Soft 303
UHD 303
▁Investment 303
▁支援 303
▁这是一个 303
▁这样一来 303
▁雷克萨斯 303
上限制 303
下列各 303
中央灾难安全对策本部 303
主观 303
也是一种 303
也越来越大 303
了一些 303
从当天开始 303
但同时 303
保健福祉 303
其内容 303
农林 303
冠王 303
分别是 303
区保健所 303
告诉大家 303
商场 303
嘱咐说 303
多大 303
委任职 303
学术杂志 303
对美国 303
将会增加 303
将设立 303
岁月 303
嵌 303
已经被 303
应征 303
建设事业 303
感到负担 303
感到遗憾 303
我和 303
排座椅 303
接触孔 303
方向和 303
最近随着 303
期间制 303
正未来党议员 303
沿岸 303
法施行规则 303
泛滥 303
瑞草洞 303
电动汽车市场 303
电子部件 303
的人回答 303
的新作 303
确诊了 303
社会保障 303
空转 303
背道而驰 303
表达了自己的 303
被确定为 303
试剂 303
迅速地 303
进出口银行 303
需求减少 303
DF 302
LFP 302
tv 302
▁Music 302
▁为了应对 302
▁剧中 302
▁在此基础上 302
▁学生们 302
▁撤销原审判决 302
▁根据第二 302
、9 302
一对 302
一方面 302
上与 302
保持社交距离 302
党名 302
副总统 302
变暖 302
可以感受到 302
合理性 302
后再次 302
后半 302
和无 302
国家安全 302
处处 302
大邱和 302
媒体和 302
子女教育 302
工作制 302
微乎其微 302
总面积 302
所属议员 302
扩张性 302
数和 302
早期诊断 302
有人预测 302
条件和 302
某因 302
柳时敏 302
检察长 302
汽车时 302
涂布 302
现况 302
的一些 302
的意 302
的时间和 302
的衣服 302
的表现 302
给人一种 302
给人以 302
而增加 302
而苦恼 302
进行宣传 302
面孔 302
验证的 302
Di 301
▁保健部门 301
▁在今年 301
▁委托 301
▁现代重工业 301
▁第二天 301
上调到 301
不信任 301
严重性 301
也经常 301
买家 301
亿韩元左右的 301
他对 301
会如何 301
僵尸 301
公推管理 301
创业企业的 301
功夫 301
北方 301
十八 301
参加活动 301
和手机 301
和谷歌 301
实况调查 301
已经结束 301
年通过 301
建设公司 301
打了 301
承载 301
拒 301
支付结算 301
敌人 301
敞篷车 301
方面具有 301
最低水平 301
李康 301
核心是 301
正当性 301
水痘 301
点播出 301
熔融 301
粉丝俱乐部 301
联系方式 301
至少一个 301
薄的 301
藻 301
装置等 301
诉讼的 301
诊断为 301
逃生 301
郑东泳 301
陪同 301
高潮 301
麦克 301
"4 300
INK 300
aker 300
▁总统 300
▁生物 300
上下学 300
下调至 300
两极化 300
之间存在 300
之风 300
充满幸福 300
公共交通 300
准备金 300
凝聚 300
分明 300
单身 300
发展蓝图 300
各企业 300
和正未来党 300
在多种 300
场所的 300
堕 300
好感 300
实态 300
岁时 300
并排 300
并立即 300
庸 300
开始着手 300
或对 300
所带来的 300
抑郁症 300
摔跤 300
新型冠状肺炎 300
无意 300
更详细 300
曾担任过 300
有利的 300
李在明 300
查找 300
混淆 300
球菌 300
瑞山市 300
的前途 300
的帮助 300
空气质量 300
竞选的 300
继电器 300
而来的 300
职场内的 300
航运 300
萌 300
证实了 300
部电影 300
阀门 300
食欲 300
103 299
25%。 299
Cross 299
SB 299
▁OS 299
▁Sc 299
▁Super 299
▁korea 299
▁不知 299
▁传统 299
▁在以 299
▁在公开的 299
上上传了 299
下定决心 299
与第 299
丑闻 299
个部门 299
为了确认 299
也很好 299
仔细查看 299
共同努力 299
其原因 299
列举 299
创造经济 299
包括韩国 299
发给 299
可能会对 299
号和 299
后门 299
吐露了 299
境地 299
对冲 299
将所有 299
就业机会 299
帅气 299
年作为 299
废水 299
废物 299
弟 299
所以可以 299
抓获 299
提及了 299
文艺 299
易斯达 299
未婚 299
检察总长尹锡悦 299
滋 299
的主角 299
的购买 299
的过去 299
直接或间接 299
确诊患者中 299
社会贡献活动 299
税务调查 299
等到 299
精灵 299
而与 299
胆固醇 299
能够使 299
腔体的 299
过后 299
运营和 299
适当性 299
通报了 299
配套 299
金宇 299
院内代表吴晨焕 299
马里 299
...... 298
102 298
ART 298
IDC 298
IQ 298
VOD 298
▁ICT 298
▁Smart 298
▁医疗 298
▁国税厅 298
▁当地 298
▁您 298
▁政界 298
上述内容 298
与汽车 298
业等 298
为克服 298
主题公园 298
事故发生 298
会变得 298
伤心 298
但是由于 298
保护措施 298
健康增进 298
兼容性 298
分钟后 298
化石 298
十六 298
压制 298
取出 298
善宇 298
团体长 298
在上市 298
地球的 298
大路 298
委员中互选 298
客户的 298
就超过了 298
就越高 298
并获得了 298
庆山 298
应该对 298
庙 298
弥邹忽区 298
态势 298
慰 298
改款 298
日在首尔汝矣岛 298
有效推进 298
有效期 298
梨花女子大学 298
榜样 298
模式下 298
橙 298
橡 298
灰色 298
特长 298
生活和 298
畜牧 298
的主管 298
的产生 298
的犯罪 298
的电气 298
的痛苦 298
相关法令 298
祚 298
第四次产业革命时代 298
综合计划 298
翻盖 298
营利 298
议员职务 298
议政活动 298
走廊 298
躲 298
道峰区 298
预算中 298
鹰 298
,23 297
GU 297
aro 297
▁家庭 297
▁接到 297
不完善 297
主要用于 297
事业本部长 297
人与人 297
以后的 297
但不能 297
但很难 297
公馆 297
判处有期徒刑 297
千兆 297
受体 297
可以推测 297
备用 297
就可以通过 297
成立仪式 297
手消毒剂 297
抗原 297
损失赔偿 297
措施的 297
教育中心 297
斯的 297
旻 297
月亮 297
有时会 297
本部长郑恩京 297
村子 297
毁损 297
水池 297
洽谈会 297
消费者保护 297
温热 297
特权 297
狂热 297
福祉部 297
符合下列 297
管理官 297
药剂 297
被问及 297
角膜 297
赵候选人 297
进行结构调整 297
门口 297
附页 297
随着对 297
风险投资公司 297
高等法院 297
oT 296
▁该活动 296
三个月 296
上述内容的 296
个别消费税 296
也不同 296
共同选举对策委员长 296
决定与 296
出马 296
制作出 296
制等 296
双门 296
口罩和 296
可以随时 296
品牌价值 296
基本收入 296
居住者 296
市内公交车 296
年的时间 296
成员的 296
或变更 296
所属机关 296
护照 296
斯塔 296
日访问了 296
最短 296
歇 296
油类 296
深的 296
清爽 296
演员金 296
物和 296
登记簿 296
的主打 296
的受访者 296
的市场占有率 296
的追加 296
相对较 296
票数 296
禁止法 296
米尔 296
精神病 296
系的 296
脑海 296
记者的 296
费率 296
赔 296
走到 296
迎合 296
面积的 296
113 295
You 295
artner 295
cle 295
oll 295
▁2002 295
▁比如 295
▁首尔大学 295
一起在 295
不再是 295
与自己 295
中南美 295
也不少 295
人进行 295
从一 295
代议员 295
佩戴口罩 295
内进行 295
前总统朴槿惠 295
发言人表示 295
口才 295
和全球 295
和平党 295
咨询室 295
品格 295
国难 295
在开发 295
城市中心 295
处理委员会 295
将启动 295
就此 295
工资差距 295
并不大 295
并主张 295
怎么说 295
执行令 295
技术中心 295
报告给 295
拌 295
文化财团 295
新型冠状病毒的扩散 295
最近对 295
权垠希 295
林的 295
波士顿 295
消费心理 295
灵活运用 295
的基金 295
的情况时 295
矮 295
科学技术信息通信 295
等方法 295
纳税义务 295
继任 295
膜炎 295
自动调节 295
莱特 295
虽然不是 295
衫 295
诊断检测 295
金钟民 295
2.2 294
50~ 294
CRT 294
Fed 294
Ni 294
itt 294
ival 294
tex 294
▁j 294
▁以下 294
》) 294
世界上最 294
之间的合作 294
从而减少 294
住进 294
再就业 294
分开始 294
划分为 294
可以改善 294
同类 294
基础设施的 294
夺回 294
如果需要 294
富翁 294
展开了激烈的 294
工资及 294
干旱 294
年开始到 294
年限 294
幸的是 294
很大程度上 294
手腕 294
捷克 294
整容 294
新职员 294
无期 294
有机物 294
核能 294
根据该 294
根据附件第 294
毫不犹豫地 294
汤姆 294
沃尔沃汽车 294
源的 294
物价上涨率 294
特别负责人 294
特的 294
的存在感 294
的情况下进行 294
的提案 294
的方法和装置 294
的核心技术 294
的电视 294
监查院 294
简报 294
缴费 294
自由职业者 294
被送往医院 294
阻抗 294
韩国文化院 294
illa 293
ulti 293
▁Blue 293
▁具体来说 293
▁通用 293
不会出现 293
两位数 293
中发生的 293
偏移 293
共赢 293
具有与 293
冷却水 293
前举行了 293
动力学 293
南道 293
及物品 293
双胞胎 293
发性 293
大学校长 293
对以 293
就会增加 293
并加强 293
应用商店 293
建校 293
很可能 293
感测 293
扭 293
技术及 293
技术研究所 293
数量为 293
未成年人 293
来获得 293
正式进入 293
毕业相册 293
清晰度 293
的任务 293
的斗争 293
的重量 293
种车型 293
秒内 293
程序和 293
第五代移动通信 293
绞 293
绿地 293
要根据 293
视听 293
讨论会上 293
路线图 293
选秀 293
阔 293
非对面 293
领导层的 293
驾驶员的 293
高强度的 293
BN 292
HIV 292
new 292
oice 292
oon 292
▁Award 292
▁Display 292
▁SUV 292
▁在釜山 292
▁据推算 292
▁根据法第 292
业者 292
两家公司的 292
为代表的 292
书和 292
交通部 292
休息时间 292
伟大 292
作为主要 292
例确诊病例 292
信用保证基金 292
公示价格 292
出现发热 292
到最后 292
副总理兼企划财政部长官 292
劫 292
厕所 292
反感 292
坦言 292
处理了 292
大邱和庆北 292
始华 292
客厅 292
容量为 292
建造了 292
弓 292
弥勒 292
很多人认为 292
态度的 292
持股 292
提倡 292
日是 292
智能手机和 292
更注重 292
次感染 292
火热 292
热烈的 292
狼 292
生产成本 292
生产设施 292
由于对 292
的说明 292
相关性 292
相关领域 292
空军 292
而且是 292
而引发 292
藤 292
装置及方法 292
让学生 292
身体和 292
转到 292
辆和 292
这一措施 292
递交 292
郑京 292
颁奖仪式 292
魔术 292
2.7 291
NF 291
TWICE 291
itz 291
举例 291
乘以 291
乳酸菌 291
了解了 291
事业上 291
事故时 291
亚太地区 291
以及与 291
仰 291
企业或 291
信用度 291
前所未有的 291
叮嘱道 291
名义信托 291
和数字 291
咽喉痛 291
地价 291
天里 291
奔驰的 291
富谦 291
尊严 291
常任委员长 291
形象的 291
所以很 291
抑制了 291
报告中 291
描写 291
政府应该 291
数据进行 291
文化会馆 291
最低限度的 291
演唱了 291
焚烧 291
牢固地 291
特产 291
特拉 291
的亲 291
的情况看 291
的本 291
相对较低 291
相融合 291
等出席了 291
管理服务 291
纪念品 291
职位的 291
股票交易 291
草莓 291
角逐 291
议论 291
赵正 291
通过增加 291
酒后 291
雇用稳定 291
饰演的 291
首都圈的 291
驶 291
25%, 290
Pal 290
fer 290
mar 290
off 290
ride 290
▁JTBC 290
▁上周 290
▁今年上半年 290
▁房地产 290
▁早 290
▁有些 290
▁科 290
▁金前 290
一级 290
下级 290
不明的 290
与人类 290
为减少 290
主打 290
以区块链为基础的 290
分别在 290
切身 290
劳资矛盾 290
即使不是 290
发动机油 290
和大数据 290
国家指定 290
在向 290
在韩国市场 290
委任为 290
季节性 290
安全标准 290
尼克 290
市场的占有率 290
应遵循 290
当场 290
录取 290
恐怖袭击 290
执政党和在野党 290
扩大至 290
投资资金 290
抗菌 290
挣扎 290
播放了 290
政府支援 290
时为准 290
时报 290
时要 290
明洞 290
正在使用 290
死了 290
殉 290
比尔 290
流媒体服务 290
渍 290
特别工作组 290
电子和 290
的住宅 290
的媒体 290
目前为止 290
知识和 290
硅胶 290
社会关系网服务 290
紧急情况下 290
纵向 290
综合金融 290
美国和欧洲 290
而制作的 290
而形成的 290
胖 290
致命的 290
行车 290
设计为 290
赋 290
重心 290
防弹少年团的 290
雅科仕 290
革新中心 290
预防及 290
颠 290
OCN 289
emb 289
▁Mot 289
▁他接着补充说 289
▁反 289
▁尽管有第 289
▁我觉得 289
不公平 289
与其说是 289
体验项目 289
候选人表示 289
免疫系统 289
免职 289
入驻企业 289
全景 289
可以使用的 289
在推出 289
坑 289
天花 289
媒 289
安娜 289
对面的 289
将现有的 289
属实 289
席位 289
延长退休年龄 289
或是 289
新增了 289
方面都 289
早就 289
未被 289
来使用 289
果断地 289
流动人口 289
燃料效率 289
生命体 289
的紧急 289
租赁车 289
等合作 289
米其林 289
纤 289
经常使用的 289
结构中 289
能感受到 289
脆弱阶层 289
蒂沃利 289
评选为 289
辱 289
近况 289
,2013 288
106 288
129 288
1986 288
Uber 288
onder 288
rol 288
▁儿童 288
▁换 288
▁杨 288
▁请参考 288
▁金某 288
不具备 288
与此相关的 288
专利申请 288
个多 288
之前向 288
光化门广场 288
共售出 288
兼具 288
功绩 288
动产 288
劳动党 288
原因之一 288
取款 288
号书 288
咨询中心 288
哨 288
在亚洲 288
在车辆 288
对各 288
将接受 288
将这些 288
工程中 288
年型 288
应答者 288
忠州市 288
性感 288
悟 288
我就 288
掩 288
新天地教会 288
是第一个 288
最低值 288
有所好转 288
李万 288
正在开发的 288
每辆 288
没有特别 288
溅射 288
理解的 288
的大学生 288
的效力 288
的高中 288
的高价 288
监护 288
砍 288
算入 288
约瑟 288
致癌 288
裂痕 288
证券公司的 288
该服务 288
运营及 288
通过提高 288
遥远 288
金属氧化物 288
34. 287
▁CH 287
▁My 287
▁Th 287
▁万 287
▁取消 287
▁陈 287
三星首尔医院 287
丢弃 287
中占 287
也越来越 287
五年 287
产业安全保健 287
仁荷 287
元化 287
先前 287
刑事处罚 287
加固 287
历代级 287
古老 287
召唤 287
吃惊 287
各党 287
吸烟者 287
在政治 287
多户 287
如果对 287
客户公司 287
对原告 287
山医院 287
崎 287
年份 287
很困难 287
战略和 287
更需要 287
有必要对 287
本发明具有 287
李柱 287
枕 287
液化石油气 287
爱意 287
现代产业开发 287
生活用品 287
电子设备的 287
的不安感 287
的事由 287
的关键 287
的登场 287
的销量为 287
的雇佣 287
第一批 287
纽约州 287
经济困难 287
芦 287
获得者 287
虑 287
要遵守 287
询问了 287
赵显 287
输血 287
迪斯尼 287
邮寄 287
非常困难 287
顺差 287
Te 286
market 286
▁安全 286
上时 286
中产生 286
为了获得 286
事故中 286
伊斯兰 286
侑 286
保护的 286
全南大学医院 286
募 286
印有 286
发型 286
召开记者招待会 286
在公司 286
地铁站 286
坟墓 286
奥巴马 286
对人体 286
度假 286
德的 286
总选 286
恶评 286
想知道 286
抄 286
改建 286
旅馆 286
晨 286
暂时中断 286
条件等 286
比前一季度 286
气味 286
水性 286
沃尔 286
滞纳金 286
牛肉 286
病毒感染 286
的人是 286
的电线 286
睿 286
竟 286
篮球 286
美好 286
自我诊断 286
苹果公司 286
菱 286
被中断 286
裂纹 286
谊 286
运动和 286
运营等 286
还采用了 286
金尚 286
长安 286
面具 286
驾驶性能 286
高旼廷 286
鼠标 286
+5 285
177 285
4~5 285
AK 285
ump 285
▁mobility 285
▁为了确保 285
▁区厅长可 285
▁斗山 285
▁本方案是关于 285
丁世均 285
专利技术 285
也分别 285
买进 285
价值链 285
住宅公社 285
充放电 285
光州型工作岗位 285
公推中 285
其后 285
升格为 285
和研究 285
噬 285
因不得已 285
因在 285
展示馆 285
心意 285
战略性 285
支持和 285
无法确认 285
是否能 285
显影 285
普拉 285
最大程度地减少 285
汽车在 285
消耗品 285
淹 285
爵士 285
特利 285
的产业 285
的情况也 285
相关政策 285
移动平台 285
等公共 285
而成为 285
资金贷款 285
赠 285
载荷 285
进行追加 285
途锐 285
防火 285
霸权 285
首尔地区 285
驰 285
Del 284
reat 284
▁Web 284
▁于是 284
▁以去年 284
▁判断 284
▁已 284
▁接着他 284
▁普通 284
个人和 284
中国和 284
中子 284
为目的的 284
也纷纷 284
了下来 284
以来首次 284
停车费 284
农田 284
凹凸 284
分子的 284
创建了 284
去留 284
及利用 284
变小 284
向所有 284
和防止 284
和预防 284
商业街 284
回答称 284
家公司的 284
密阳 284
对他们 284
寻呼机 284
就会减少 284
广播的 284
总部长 284
意味 284
截然不同 284
房地产对策 284
按压 284
日报道说 284
是错误的 284
梗塞 284
正在推进的 284
正好 284
每年有 284
流下了眼泪 284
的乐趣 284
的欧洲 284
的研究开发 284
的角度出发 284
等等 284
组和 284
统计的 284
网点 284
群的 284
脑血管 284
莲花 284
轮椅 284
远距离 284
遗忘 284
金南 284
验收 284
骨头 284
高危险 284
高峰 284
225 283
ARM 283
PDP 283
ift 283
novation 283
▁100 283
▁Junior 283
▁Off 283
▁Sch 283
▁人 283
▁在使用 283
▁朴市长 283
一定程度的 283
不喜欢 283
不能使用 283
个人信息泄露 283
主要以 283
人参加 283
从本月开始 283
再次出现 283
减轻了 283
凛 283
告终 283
咖啡店 283
喷洒 283
因此更加 283
在原 283
地位的 283
基础生活保障 283
外界 283
存活 283
孤军奋战 283
形成具有 283
投票的 283
捷尼赛思 283
掌握的 283
接受的 283
日决定 283
时薪 283
朴亨 283
来应对 283
次以上的 283
母女 283
氟化 283
添 283
源极 283
犯人 283
生动地 283
电感 283
的半导体装置 283
的设置 283
的顾客提供 283
相对应的 283
类固醇 283
精致 283
红外 283
练歌房 283
而展开 283
耐药性 283
腕 283
自主隔离 283
赐 283
赵源泰 283
还计划在 283
这些企业 283
这是一种 283
选出了 283
都不会 283
银幕 283
错了 283
问到 283
陈旧 283
降雨 283
骄傲 283
AF 282
Din 282
RX 282
Tivoli 282
WiFi 282
ary 282
land 282
unch 282
▁Class 282
▁ID 282
▁TF 282
▁听 282
▁在大邱 282
▁有预测称 282
不拘留 282
主要由 282
事业单位 282
于一 282
享受的 282
从原来的 282
会话 282
但我认为 282
住宅价格 282
保险等 282
做出了上述 282
儿童和青少年 282
先进化 282
决定性的 282
加强与 282
发生器 282
同事们 282
向全世界 282
在线开学 282
坡州 282
完工 282
市郡 282
建设工程 282
很感兴趣 282
心血管疾病 282
必需的 282
总结 282
推论 282
掷 282
日语 282
时不 282
未来技术 282
末尾 282
本来就 282
本规则 282
法上的 282
照片中 282
玛特 282
病变 282
的三星电子 282
的值 282
的公职 282
的员工 282
的外国 282
的稳定 282
磷光体 282
空间中 282
精品 282
网络攻击 282
而陷入困境的 282
航天 282
艺术节 282
蜡烛 282
融合了 282
被保险 282
认识的 282
赞叹 282
进行了分析 282
追随 282
选举对策委员会 282
通过自己的 282
量子密码 282
釜山镇 282
钢丝 282
防撞 282
2400 281
ISS 281
MIT 281
Meg 281
annel 281
▁store 281
▁在与 281
万韩元以上的 281
业务协约 281
中继器 281
为其 281
写入 281
分校 281
分销 281
和应对 281
在确认 281
大统合 281
好机会 281
安宰贤 281
对中国 281
将自己 281
常任选举对策委员长 281
悔 281
按照附件第 281
明年最低工资 281
是否对 281
村里 281
杨州市 281
正当的 281
法案的 281
注意到 281
洒 281
涌向 281
演员的 281
照相 281
率从 281
电动车的 281
电子文件 281
的字 281
的实时 281
的收购 281
的新药 281
的电解 281
皱纹 281
而失去 281
肋 281
运动会 281
遗弃 281
都需要 281
锥 281
锰 281
阈值 281
集会的 281
首尔特别市江东区 281
,2005 280
,21 280
107 280
123 280
60%, 280
80%, 280
apt 280
esp 280
ocol 280
vel 280
▁Friends 280
▁以此为基础 280
▁凭借 280
▁将于 280
万亿 280
不同的是 280
不高 280
中枢 280
仍然是 280
作为一个 280
俘获 280
光刻 280
光速 280
公共卫生 280
公司内 280
凝固 280
创立的 280
劣势 280
同乘 280
咸素媛 280
回信 280
埃尔 280
增减 280
审视 280
开会 280
开始销售 280
悠久 280
悲观 280
抗蚀剂 280
拭目以待 280
拱 280
损毁 280
收入减少 280
暑假期间 280
机张 280
每年的 280
活泼 280
海域 280
漆谷郡 280
灭亡 280
环境变化 280
申报书 280
的认证 280
的迹象 280
结束后的 280
胞 280
航行 280
营业损失 280
蝙蝠 280
蠢 280
衍生商品 280
表现出来 280
规则的 280
质子 280
转包企业 280
达成一致 280
还将推出 280
道教 280
都可以使用 280
预定于 280
Ag 279
KDB 279
MR 279
che 279
ids 279
▁以此 279
▁全罗北道 279
万韩元以下的罚款 279
举报人 279
从而在 279
减产 279
和市场 279
坠 279
多出 279
对企业 279
工资体系 279
已完成 279
必须进行 279
急诊 279
意识到了 279
手臂 279
抢夺 279
捧 279
断层 279
断裂 279
日左右 279
星球 279
曾有过 279
有所改善 279
棵 279
此案 279
治疗后 279
流过 279
深深 279
漫威 279
牛奶供餐 279
犯罪的 279
畜产 279
疾病管理总部 279
的钱 279
立方 279
组建了 279
结成 279
能为 279
裁定 279
西洋 279
调谐器 279
豪华轿车 279
越野车 279
车手 279
这在 279
通过提供 279
革新性 279
韩国道路公社 279
魂 279
30~40 278
SJ 278
SPC 278
SaaS 278
XT 278
marble 278
ology 278
▁专家们认为 278
▁但是对于 278
▁大田 278
▁这种情况下 278
上被 278
为名 278
也请 278
了一半 278
以上时 278
仿制药 278
企图 278
但大部分 278
低生育 278
内部控制 278
冗 278
出口的 278
出来后 278
发表声明 278
可能会被 278
合作法人 278
和为 278
和通过 278
唯独 278
地质 278
天花板 278
存在差异 278
孵化 278
宋市长 278
将有助于 278
张东 278
惠珍 278
所占比重 278
所能 278
才华 278
扬声器的 278
提供必要的 278
更详细地 278
枚 278
氮化物 278
生长的 278
疑难 278
的混合 278
等车型 278
老人福利 278
考虑到了 278
行业中 278
负压病床 278
贬 278
过程和 278
还介绍了 278
还将举行 278
这是在 278
进行交流 278
附接到 278
零部件供应 278
静音 278
韩国通用汽车 278
饱受 278
15%。 277
2300 277
agic 277
ideo 277
ke 277
way 277
▁AR 277
▁每次 277
不稳定的 277
中发现 277
中得到 277
中记载 277
主楼 277
之所以能够 277
以保护 277
以增加 277
但不 277
借用 277
做出贡献的 277
全国委员会 277
全国的 277
内需市场 277
减小了 277
出乎意料 277
出现了问题 277
劳资协商 277
危机感 277
各领域的 277
向顾客 277
和全 277
和学习 277
嗓音 277
大宇汽车 277
姑 277
宵 277
尼古丁 277
年获得 277
开创 277
心中 277
投资银行 277
提前预约 277
搭乘 277
旋转的 277
有直接 277
李海瓒 277
李贤 277
校外 277
炸酱 277
由区厅长从 277
申报的 277
的设计和 277
盗用 277
科尔 277
科长担任 277
网络使用 277
让人们 277
详细事项 277
财产税 277
迪拜 277
透明的 277
革新统合 277
领导者 277
1985 276
290 276
3.3 276
ISP 276
MBN 276
uro 276
▁tv 276
▁作者 276
▁后 276
▁委员长由 276
▁本条例根据 276
▁香港 276
一心 276
万能 276
为了开发 276
为先导 276
乙区 276
也提出了 276
以其 276
决定以 276
分所 276
剖 276
勾结 276
原稿 276
去过的 276
变速器的 276
可以体验 276
后轮驱动 276
土木 276
契约 276
如果利用 276
实况 276
家移动通信公司 276
密的 276
将引进 276
将讨论 276
年起 276
并有 276
情的 276
技术合作 276
拉开 276
提交给班主任 276
显示面板 276
枯 276
柜台 276
毁灭 276
民政 276
气息 276
没想到 276
沦落为 276
灯光 276
生活中的 276
病人 276
病理 276
的就是 276
的情况和 276
的方法和设备 276
美国人 276
翔 276
肚子 276
花了 276
蟹 276
计划明年 276
请参考以下内容 276
贡献度 276
通过分析 276
都必须 276
金世 276
非正规职工 276
198 275
2200 275
No 275
OH 275
ience 275
min 275
ther 275
verance 275
▁Data 275
▁Show 275
▁up 275
▁截至目前 275
▁访问 275
上去 275
个季度 275
中具有 275
中只有 275
乙支路 275
亮相的 275
以通过 275
会者 275
倡 275
南海 275
友会 275
发音 275
可以免费 275
可吸入颗粒物 275
同龄 275
喷雾 275
土地的 275
多数人 275
奖励金 275
对包括 275
对北韩 275
工商业 275
已经有 275
当地媒体 275
得到了改善 275
截图 275
整理了 275
新增确诊患者 275
方便地使用 275
昇基 275
更为详细的是 275
最优化的 275
李元 275
李龙 275
杏 275
正在减少 275
武星 275
每一 275
毫无根据 275
活力的 275
版图 275
猩 275
电子投票 275
电脑上 275
的公示 275
的控制 275
的诞生 275
盆唐济生 275
直喷 275
结束为止 275
观众的心 275
趁 275
超级计算机 275
销售比重 275
随处可见 275
ASF 274
HW 274
Log 274
ape 274
ft 274
merce 274
uc 274
urn 274
▁Coin 274
▁丰田汽车 274
▁公开 274
▁总之 274
▁最近在 274
▁洪前代表 274
▁究竟 274
▁经营 274
两个人 274
但被 274
位置和 274
保守势力 274
公开了一种 274
减缓 274
分权 274
制作团队 274
午夜 274
喘 274
国政运营 274
在销售 274
如果你 274
定金 274
审问 274
将在全国 274
属于自己的 274
希望学生父母 274
必备 274
情况和 274
愈演愈烈 274
成为一个 274
才知道 274
提交给区厅长 274
方面也 274
曲折 274
最高功率 274
正确答案 274
没什么 274
泌 274
波浪 274
消费者院 274
烧酒 274
热水 274
特别雇佣 274
珍惜 274
电台 274
疾病预防 274
的一系列 274
的口号 274
的强烈 274
移动性 274
粒子的 274
经营正常化 274
肢体 274
要以 274
访问的 274
该部分 274
进口的 274
进行评估 274
违约金 274
途观 274
郑智 274
金敏 274
韩国电视剧 274
飘 274
高速公路上 274
142 273
2~ 273
5.6 273
6· 273
Coupe 273
ats 273
▁公团 273
▁受托人 273
▁另一个 273
▁在本方案中 273
万一 273
下半年的 273
下调标准利率 273
不用担心 273
与之 273
为了对 273
之心 273
买方 273
了吗 273
人口的 273
人工智能技术 273
以多种 273
低廉的 273
信息提供 273
创业公司的 273
判定为 273
制作和 273
变动为 273
可以被 273
周围的人 273
存续 273
学识 273
富含 273
对特定 273
射频 273
屏幕的 273
开头 273
手部 273
振荡器 273
排除在外 273
推荐委员会 273
政治资金 273
早日 273
早早 273
时也 273
是最大的 273
更换为 273
最喜欢 273
有必要时 273
来代替 273
标语 273
检查时 273
槐 273
正在发生 273
淋 273
瑜伽 273
的新闻发布 273
的消息传开后 273
等出席 273
等支援 273
职员等 273
被提名为 273
装在 273
跳跃 273
道路交通 273
都很难 273
顺利地 273
预测称 273
AG 272
AMD 272
BBC 272
Morning 272
cl 272
pany 272
▁本发明涉及一种能够 272
▁计划通过 272
一句话 272
三星电子在 272
为了能让 272
付诸 272
伊拉克 272
优先股 272
会展中心 272
保险业 272
公共数据 272
剃 272
协会和 272
可以解决 272
名册 272
向导 272
否认了 272
嚼 272
因此存在 272
在社会 272
培养了 272
塑造 272
安装和 272
对此进行 272
将自己的 272
常温 272
并鼓励 272
想过 272
政策委员会议长 272
教育支援 272
整流 272
旅客汽车运输 272
无理 272
是提供 272
条至第 272
消防员 272
独岛 272
理工学院 272
电位 272
的前景 272
真相调查 272
着眼于 272
程序中 272
第三者 272
精力 272
纺织 272
绪 272
胀 272
腌 272
营地 272
蛋糕 272
要努力 272
诀窍 272
说唱 272
进行为期 272
遭受损失 272
都具有 272
都对 272
闪烁 272
隔离病房 272
首尔特别市江南区 272
黑色沙漠 272
299 271
La 271
SMA 271
Space 271
anet 271
chain 271
ti 271
uzz 271
zer 271
▁劳动 271
▁希望大家 271
▁本案 271
▁迄今为止 271
亮点 271
他回答说 271
仲 271
价格和 271
传教士 271
净买入 271
制度等 271
劳资纠纷 271
勋章 271
危急 271
后悔 271
和智能 271
回国后 271
夜店 271
存取款 271
尹锡悦 271
幕后故事 271
扁平 271
提交附件第 271
支援服务 271
新型冠状病毒扩散 271
日内瓦 271
最大规模 271
最近通过 271
有害物质 271
有源 271
朴俊 271
村民 271
松树 271
次当选 271
正常化的 271
毛骨悚然 271
燃料消耗 271
病原 271
皂 271
的例子 271
的热烈 271
的男性 271
石棉 271
等未来 271
箔 271
纯利润 271
继承税 271
综合考虑 271
缴纳期限 271
缺少 271
苦战 271
街上 271
计划中 271
设置有 271
贡 271
还将提供 271
青瓦台国民请愿 271
90%。 270
CDC 270
Nexon 270
ect 270
ider 270
oft 270
stagram 270
▁在全球 270
▁庆尚北道 270
▁德 270
▁文在寅政府 270
▁电视剧 270
▁让我们 270
万平方米 270
不久前 270
不断提高 270
与工会 270
互联网振兴院 270
住宅者 270
僵 270
兽医 270
前举行 270
医生们 270
可乐 270
名等 270
呀 270
呼吸道疾病 270
固化 270
在目前 270
在被 270
基础科学 270
堂堂正正地 270
外来 270
大林 270
如果以 270
存取 270
官僚 270
对汽车 270
工团 270
常用 270
年相比 270
庇 270
开放的 270
或全部 270
或许 270
捏造 270
排挤 270
接管 270
日参加了 270
服务器上 270
朴钟 270
植物的 270
正在提高 270
正式职工 270
法兰克福 270
电视市场 270
的工作时间 270
的新鲜 270
皆 270
置摄像头 270
老虎 270
耕地 270
胶片 270
询 270
跨界 270
道路的 270
问题时 270
阻塞 270
韩电 270
韩银 270
预定的 270
高灵 270
鹅 270
,26 269
10. 269
2) 269
LNG 269
Yogiyo 269
evel 269
riv 269
▁Ne 269
▁Tra 269
▁专利厅 269
▁在过去 269
▁该服务 269
▁起初 269
▁道知事为 269
▁销售 269
一起出演 269
义务性地 269
人造 269
人际 269
仁川国际机场 269
伪装成 269
保修期 269
停工 269
像现在这样 269
先锋 269
内心的 269
分享了 269
前沿 269
半导体的 269
卡片 269
可能发生 269
和从 269
商铺 269
大韩商工会议所 269
寸 269
少数政党 269
居家 269
崭露头角 269
律师事务所 269
或更 269
战争的 269
拥堵 269
摔倒 269
操控 269
收费广播 269
是事实 269
晚期 269
有一天 269
条例案 269
橘 269
永恒 269
泄 269
煎 269
犯罪加重处罚 269
用自己的 269
相互连接 269
等都 269
缺失 269
者为 269
自身的 269
虹 269
蚂蚁 269
被告的 269
言行 269
贫穷 269
这条 269
进入市场 269
通过利用 269
部分人士 269
配件的 269
钳 269
防疫消毒 269
顶点 269
鼓掌 269
< 268
DMA 268
Market 268
WSJ 268
book 268
obile 268
▁Chain 268
▁好的 268
▁最初 268
▁表示 268
不小 268
与国民 268
中也有 268
为担保 268
人工成本 268
但实际 268
再次确认了 268
则将 268
危机警报 268
可以增加 268
可以把 268
可能成为 268
和电影 268
回答道 268
场比赛 268
太白 268
奉导演 268
妻子的 268
寂 268
密歇根 268
将从今年 268
已经成为 268
平均工资 268
年达到 268
并增加 268
应适用 268
建议道 268
当地居民 268
很快就会 268
惨案 268
新技术的 268
昨 268
更早 268
未支付 268
机上 268
柿 268
根本性的 268
此前一直 268
民法第 268
水道 268
流传着 268
浏览 268
演变成 268
演戏 268
班车 268
理论上 268
生动的 268
电子政府 268
的加入 268
的药物 268
的资产 268
目前正在进行 268
直接影响 268
等导致 268
练习生 268
经由 268
羽毛 268
而来 268
融入了 268
表现为 268
路灯 268
这部作品 268
重患者 268
需要通过 268
频繁发生 268
饥饿 268
骤 268
fin 267
▁Park 267
▁共同民主党代表李海瓒 267
▁开 267
▁接着说 267
▁沃尔沃汽车 267
▁道知事在 267
三星火灾 267
不畅 267
世界市场 267
主的 267
会儿 267
但是最近 267
信息安全 267
修改法律 267
到医院 267
前长官 267
呈现出了 267
周边的 267
和家人一起 267
增添 267
外国人和 267
失业补助 267
奥地利 267
实验结果 267
容忍 267
将采用 267
小商贩 267
拥 267
整车企业的 267
新车上市 267
是全球 267
有人说 267
本金损失 267
歌曲的 267
正在寻找 267
法中 267
法兰克福车展上 267
浓度的 267
海洋水产 267
消费税 267
电源的 267
的传播 267
笑着说 267
等不同 267
纠正措施 267
萧条的 267
萨博 267
表现出的 267
被动 267
要求在 267
誉 267
该案件的 267
超速 267
载波 267
达美 267
透露了 267
长假 267
闪耀 267
龟尾市 267
520 266
7. 266
EO 266
Pan 266
atform 266
▁QM 266
▁SM 266
▁共同民主党院内代表李仁荣 266
▁演员李 266
一起度过 266
上发表 266
不住 266
专利的 266
业界预测 266
为了寻找 266
争执 266
人才引进 266
侧壁 266
候补 266
农药 266
出击 266
出售了 266
北美市场 266
医务 266
友谊 266
变频 266
名女性 266
和大众 266
在申请 266
在进入 266
峙 266
崭 266
工作组 266
张成 266
德斯 266
必须具备 266
悉 266
成一 266
所产生的 266
扫描仪 266
捐赠给 266
教室里 266
新型冠状病毒感染症的扩散 266
新韩信用卡 266
时空 266
最后阶段 266
最高收视率 266
湖南地区 266
电子竞技 266
相关事业 266
研究生 266
经确认 266
翰 266
表的 266
表示将 266
试映 266
该地区的 266
谐 266
超级传播 266
输入到 266
迈出了 266
逃离 266
酌 266
酪 266
野生动物 266
降到最低 266
陷阱 266
露天 266
253 265
izon 265
lect 265
win 265
▁1980 265
▁劳动界 265
▁本发明涉及的是 265
▁第一个 265
▁通过与 265
上获得 265
中发现了 265
之间的接触 265
五大 265
亚太 265
他还补充道 265
会得到 265
但是对 265
信号处理 265
修理费 265
共同主办 265
共同点 265
则在 265
占据优势 265
却在 265
可能对 265
合并后 265
土地上 265
在处理 265
如果与 265
实绩 265
已经是 265
带薪 265
度妍 265
我们所 265
投入度 265
投资金 265
抽出 265
数据处理 265
是多么 265
未知 265
欣慰 265
烘 265
父亲的 265
环境的变化 265
由道知事 265
的不利 265
的传闻 265
的长度 265
社会福利设施 265
祠堂 265
终端设备 265
而未能 265
联想 265
脱离了 265
自尊心 265
至关重要 265
起飞 265
送餐 265
通过各 265
道林 265
非常低 265
韩国产 265
预选赛 265
高分辨率 265
Sev 264
ony 264
▁如果要 264
下降幅度 264
不出 264
也呈现出 264
交换机的 264
人数的 264
们表示 264
位数 264
供应量 264
冰雪奇缘 264
到其他 264
反击 264
可以帮助 264
可以知道 264
各政党 264
备置 264
大人 264
天地 264
奇妙 264
奢侈 264
如果认为 264
安山市 264
巡逻 264
常用的 264
应有的 264
悠闲 264
战士 264
打败 264
捞 264
接受治疗的 264
是一首 264
有问题 264
朴素 264
李昌 264
框架的 264
案中 264
正品 264
汀 264
汽油和 264
流产 264
演唱的 264
犹 264
电信的 264
畜产品 264
白宫 264
的新年 264
直接访问 264
直销 264
神经元 264
端部 264
筹码 264
能否成为 264
节拍 264
莫斯科 264
虽然很 264
躁 264
进行罢工 264
连动 264
选举人 264
遮挡 264
长得 264
食品的 264
饿 264
137 263
3.6 263
KAI 263
ject 263
oot 263
▁Sport 263
▁本发明是一种 263
一天的 263
不仅没有 263
不易 263
世界各地 263
二维 263
仁川广域市西区 263
住户 263
保健部门 263
全球市场的 263
医院接受 263
占优势 263
只适用于 263
和尹 263
和朋友们 263
围墙 263
在确保 263
在籍委员 263
大幅降低 263
将实现 263
工作时间的 263
年以内 263
应用程序商店 263
建议说 263
心血 263
必须经过 263
悠 263
感动的 263
我们共和党 263
战术 263
提供服务的 263
提议了 263
教育部长官 263
文喜相 263
曝光后 263
最受欢迎 263
有偿 263
未知数 263
查出 263
氢燃料电池车 263
法修正案 263
流泪 263
炒年糕 263
生涯 263
画面中 263
的前提下 263
的地方自治团体 263
的战略是 263
的电容器 263
的调查结果 263
目光转向 263
看不见 263
真的是 263
科学的 263
等程序 263
筛选诊疗所 263
群众 263
者是 263
肇事 263
肝癌 263
致死 263
议员室 263
路线的 263
通过这些 263
非常激烈 263
鱼类 263
340 262
CMP 262
KRISS 262
Off 262
ane 262
come 262
▁Qu 262
▁Work 262
▁未来韩国党 262
▁法务部 262
上月末 262
上游 262
下位 262
不必要 262
不无关系 262
之声 262
也达到 262
买到 262
产品和服务 262
人们的好奇心 262
从中 262
任会长 262
传达的 262
全民 262
公害 262
关爱 262
具有防止 262
兼备 262
军浦 262
净资产 262
千亿韩元 262
协治 262
原案 262
及使用 262
口味 262
后退 262
回来后 262
地下水 262
基于人工智能 262
外部冲击 262
大卫 262
安全解决方案 262
安排在 262
工资制 262
已经通过 262
巴赫 262
帽子 262
并就 262
并正式 262
张力 262
彭 262
我们党 262
提出了一种 262
方案等 262
方面来看 262
旅行者 262
是正当的 262
有些人 262
正在开展 262
气泡 262
汇集 262
洗澡 262
游戏和 262
现场调查 262
现职 262
理发 262
的一方 262
的矛盾 262
的结合 262
的进行 262
组合的 262
经济停滞 262
经营者总协会 262
美中 262
苦难 262
表面积 262
趋于 262
软件的 262
过一次 262
运费 262
进化的 262
都与 262
限度的 262
隔热 262
,60 261
2.3 261
35% 261
85% 261
INS 261
bang 261
oong 261
▁KAIST 261
▁他的 261
▁但是从 261
▁但是最近 261
▁发动机 261
、19 261
三名 261
三星生命 261
不能进行 261
东山 261
交流合作 261
人乘 261
以改善 261
任期内 261
企业合作 261
低增长 261
制造和 261
区厅长的批准 261
叛乱 261
古典音乐 261
合作用 261
和崔 261
和开发 261
商街 261
在很多 261
复印件 261
大法官 261
宠 261
家庭和 261
对自己的 261
将加快 261
小心翼翼 261
就会发生 261
岘洞 261
恶意留言 261
想通过 261
懂得 261
拢 261
指导部 261
无可 261
旧款 261
暑 261
有必要进行 261
比一般 261
洗手液 261
流感病毒 261
渔村 261
温和 261
独角兽企业 261
珍珠 261
理查德 261
用于将 261
用户可以 261
由政府 261
的两人 261
的新曲 261
的理论 261
的男人 261
目前已 261
眩 261
硝 261
确定出演 261
移动通信终端机的 261
网格 261
考验 261
计算方法 261
通过使 261
都是由 261
醋 261
阴城郡 261
集中力量 261
非物质文化遗产 261
韩流粉丝 261
风险资本 261
7、 260
BNK 260
oun 260
uck 260
▁中央灾难安全对策本部 260
▁作为参考 260
▁是否 260
▁蔚山市 260
一些人 260
上公开 260
下个月开始 260
不容 260
不熟悉 260
事务的 260
二甲 260
些时候 260
产学 260
会计法人 260
信用保证财团 260
做出了巨大贡献 260
公认认证书 260
功能等 260
卫星广播 260
参加申请书 260
听取意见 260
和他的 260
基本权利 260
外部的 260
大屏幕 260
如下介绍 260
妹 260
学校运营委员会 260
宴会 260
对经济 260
山洞 260
年中 260
并让 260
应对体系 260
待售 260
很早就 260
很高的评价 260
挂在 260
推移 260
支持下 260
教养 260
昱 260
有人主张 260
有症状者 260
李仁 260
格雷 260
正向 260
毕业后 260
特性化 260
特殊教育 260
独一无二的 260
甲状腺 260
的大多数 260
的学校生活 260
的电缆 260
签订协议 260
管辖区内 260
红利 260
罗德 260
而异 260
而是因为 260
该设备 260
质感 260
贸易协会 260
赛场 260
趣味性 260
防卫费 260
阿拉 260
集体感染的 260
韩裔 260
预算编制 260
CV 259
ITS 259
roadband 259
▁1990 259
▁Telecom 259
▁值得 259
▁其实 259
▁协会 259
▁每周 259
▁迎来 259
▁首次 259
上映的 259
业内 259
举行一次 259
也不错 259
保费 259
储蓄银行的 259
出发的 259
出版了 259
国民健康保险公团 259
外媒 259
奥迪大众 259
守住 259
宝马集团 259
寻呼 259
小小的 259
少于 259
已经与 259
开学延期 259
当前的 259
意见认为 259
抑制剂 259
振兴公社 259
探测器 259
斗焕 259
新增确诊病例 259
旗下公司 259
日召开的 259
春秋 259
更有效地 259
杀手 259
民选 259
泥土 259
活跃在 259
淫 259
深厚 259
的公诉 259
的粉丝 259
科技园 259
站起来 259
第四次 259
等的股份率从 259
练歌厅 259
给他 259
而中断 259
而造成 259
蒜 259
车上 259
这样的事情 259
销售目标 259
零售业 259
高尔夫球场 259
鸟类 259
"2018 258
-6 258
199 258
Up 258
▁1999 258
▁City 258
▁Max 258
▁Premier 258
▁中小风险企业部 258
▁布 258
▁江原 258
不愿 258
专门委员 258
中通过 258
举行的电影 258
之战 258
也会产生 258
也推出了 258
仔 258
会员们 258
伤痛 258
但后来 258
充电电池 258
典范 258
凶器 258
副知事 258
原告和被告 258
可以按照 258
各有 258
和西 258
喆 258
多名职员 258
失真 258
展出了 258
平坦化 258
年生 258
并予以 258
弊 258
弱势阶层 258
想在 258
成浩 258
接受记者 258
收入和 258
日接受 258
时自动 258
更长 258
有价证券市场 258
未成年 258
比例代表制 258
江华 258
污水 258
泰安 258
浪漫的 258
溢价 258
火焰 258
猜测 258
白医院 258
百济 258
的一致 258
的他们 258
的优点是 258
的心脏 258
的接触 258
的环保 258
的软件 258
祝家长 258
积极配合 258
第一季 258
等国际 258
等经济 258
粮 258
经济研究院 258
统合党的 258
美妆 258
股份公司的 258
行政支援 258
贷款限制 258
贺 258
贼 258
达州 258
部在 258
魄 258
165 257
2.6 257
44. 257
ASS 257
PSA 257
▁Or 257
▁他们在 257
▁哈 257
▁通过将 257
云平台 257
人参 257
仅以 257
代表等 257
企业为对象 257
体型 257
健康地 257
出入境 257
分钟左右 257
别墅 257
卡丁车 257
可以节省 257
司机们 257
和行动 257
因此即使 257
固定到 257
在澳大利亚 257
增加和 257
处以罚款 257
复古 257
头脑 257
宝石 257
审查结果 257
将发生 257
小伎俩 257
就意味着 257
并将结果 257
开发企业 257
性关系 257
总量 257
投票纸 257
抢先 257
报告的 257
抵扣 257
拥有了 257
持续扩大 257
挨 257
提供能够 257
放假期间 257
斯巴 257
更加期待 257
最优化 257
朋秀 257
朴元 257
朴容 257
柠 257
模式和 257
正在制定 257
汽车工业 257
注视 257
涉嫌违反 257
液压 257
灵活地 257
然后再 257
理财 257
男女老少 257
癌症中心 257
的普及 257
的痕迹 257
真心感谢 257
磁力 257
秉宪 257
穿越 257
系列中 257
紧急经济 257
网络银行 257
美元汇率 257
而形成 257
虫剂 257
解析 257
计划等 257
遣 257
都出现了 257
配有 257
锈钢 257
需求和 257
非党权派 257
顽 257
鼎 257
2050 256
4》 256
6.5 256
DX 256
Mbps 256
Mob 256
Plus 256
bi 256
▁Shop 256
▁凯迪拉克 256
▁同一天 256
▁在线 256
▁这项 256
▁选择 256
一段 256
与去年相比 256
与政府 256
与顾客 256
为了强化 256
举报者 256
人帮 256
人气的 256
人行 256
以新 256
以防 256
会会长 256
会议召开 256
体内的 256
傲 256
公共保健 256
具有不同 256
冰淇淋 256
则不 256
则需要 256
初创企业的 256
北美地区 256
区报 256
变相 256
台式 256
和副 256
啦 256
在水 256
大型医院 256
大肠癌 256
天气里 256
奉俊昊 256
存在很多 256
安全系统 256
宣誓 256
宽阔 256
对策会议 256
尹总长 256
尿液 256
平均水平 256
并告知 256
应聘者 256
当在 256
截止日期 256
打扫 256
报告书显示 256
效率化 256
月在美国 256
有两个 256
条和第 256
来降低 256
污染的 256
没有直接 256
演讲者 256
特别是关于 256
申请后 256
的房地产 256
的无线 256
的老人 256
的语言 256
眼色 256
碳纳米管 256
祈愿 256
窃取 256
等外部 256
纷 256
经营环境 256
美京 256
肖像 256
解雇者 256
说服力 256
财产管理官 256
起源 256
达成了共识 256
进一步发展 256
重新诠释 256
重生 256
重症残疾人 256
食品卫生 256
3。 255
5~6 255
AY 255
Cell 255
KODEX 255
REITs 255
nex 255
▁Trot 255
▁三星电子和 255
▁京畿道知事 255
▁当局 255
▁本方案公开了一种 255
一直保持着 255
业务处理 255
为主题进行 255
为了促进 255
主演的 255
举报了 255
任一项 255
会感到 255
使用设施 255
公管 255
内容中 255
减少幅度 255
剂量 255
升学 255
各位家长 255
各家庭 255
合作伙伴公司 255
在法国 255
基金管理 255
增加率 255
多路 255
夷 255
孙子 255
安哲秀派 255
对此次 255
小时制的 255
帕金森 255
建设机械 255
异性 255
得了 255
忠武 255
总联合会 255
恢复趋势 255
患病 255
想象中 255
战线 255
星期一 255
显示设备 255
校车 255
椅子 255
模拟器 255
正常运行 255
正规职转换 255
泉水 255
清净 255
狩猎 255
班倒 255
畏 255
的第一天 255
盖茨 255
盘浦 255
破例 255
稀释 255
绵 255
要考虑 255
议程 255
进行全面 255
选择和 255
造船海洋 255
逾 255
量身定做型 255
银敬 255
销售额和营业利润 255
锯 255
颜色的 255
"2 254
118 254
ITY 254
point 254
zen 254
▁Mar 254
▁NEX 254
▁居住在 254
▁必须 254
▁本发明是关于利用 254
▁来自 254
万美元的 254
与他们 254
个人信息的 254
中年 254
丸 254
为代表 254
为题 254
书写 254
但今后 254
使用智能手机 254
出席会议 254
刘承旼议员 254
剧变 254
单位期限 254
反问道 254
叙述 254
名誉退休 254
和幸福 254
咨询委员 254
回归的 254
地方法院刑事 254
域名 254
外国语 254
小丑 254
层面上 254
展馆 254
嵌入式 254
广州 254
应具备 254
推出新车 254
新概念 254
朝鲜后期 254
朴智 254
条形码 254
正以 254
法实施 254
派遣到 254
涵盖 254
瓦解 254
的人们的 254
的销售业绩 254
的高压 254
看起来像 254
私家车 254
租用 254
积金 254
站的 254
等核心 254
签订了业务协议 254
经济不景气 254
绝缘层 254
自由贸易协定 254
蘑菇 254
论坛上 254
部分地区 254
金星 254
钱财 254
附接 254
雀 254
静态 254
32. 253
▁党 253
▁全北 253
▁视频 253
▁距离 253
▁通用大宇 253
上网 253
不动 253
个多月 253
为重点 253
之间的连接 253
也会减少 253
但此次 253
供暖 253
值为 253
充足的 253
冷凝 253
刷牙 253
区块链技术的 253
和线下 253
因此受到了 253
因此必须 253
客户提供 253
市民社会团体 253
并把 253
庆熙大学 253
忠诚 253
情况时 253
报告会 253
拉克 253
挪用 253
探究 253
提出质疑 253
收音 253
教育旅行 253
无效的 253
月推出了 253
条第一款 253
根本没有 253
椭 253
正在加速 253
残忍 253
汽车产业的 253
法学 253
片和 253
特此 253
班的 253
的事实后 253
的手术 253
盖子 253
直接接触 253
相关服务 253
真人秀 253
磁带 253
第一任 253
股价上涨 253
补助金管理条例 253
要求时 253
警备 253
设施或 253
轴心 253
这张 253
进行事前 253
造船业 253
陈列 253
隐患 253
首尔钟路 253
,, 252
133 252
Daum 252
Master 252
coin 252
▁使 252
▁全南 252
▁区厅长根据第 252
不可或缺 252
不懈 252
世纪初 252
个月以上的 252
个问题 252
为顾客提供 252
低压 252
克拉 252
公告称 252
其他法令 252
创造新 252
历史上首次 252
变压器的 252
变质 252
口头 252
台的 252
合影留念 252
向往 252
呐喊 252
命名 252
和儿童 252
响起 252
团体协商 252
在仁川 252
太阳光 252
头皮 252
女演员 252
如果要 252
姨 252
将不可避免地 252
将维持 252
尽量避免 252
局长担任 252
心脏病 252
怎么能 252
息分期付款 252
懒 252
所需经费 252
才能实现 252
批评称 252
把握 252
接线 252
政府决定 252
教职员工 252
新入 252
星期六 252
更加严重 252
曾与 252
析 252
段的 252
波及 252
注册为 252
特征在于 252
的前身 252
的可能性很小 252
的大韩 252
的效率 252
的时尚 252
的积极 252
的第一步 252
码分多址 252
积弊 252
第四代 252
荫 252
衣物 252
要求书 252
超级跑车 252
转换为正式员工 252
这两种 252
进行多种 252
进行运营 252
道议员 252
音乐家 252
高度关注 252
12. 251
CMOS 251
ield 251
olog 251
olon 251
oop 251
▁如果利用 251
▁支援对象 251
▁本条例旨在根据 251
▁郭 251
▁金教授 251
万多辆 251
上发表了 251
下月开始 251
不寻常 251
也于 251
也是出于 251
事后管理 251
交织 251
从上午 251
从事者 251
他补充说 251
以这种方式 251
会造成 251
修学旅行 251
全国民主劳动组合总联盟 251
凄 251
利害关系人 251
剧终 251
助长了 251
单元和 251
及团体 251
发源地 251
国民学校 251
增加幅度 251
如果用 251
委员会的委员 251
嫩 251
将投资 251
尹锡 251
岭南大学医院 251
并帮助 251
开盘 251
开通了 251
影像的 251
性交易 251
拦 251
提供在 251
放宽限制 251
教授和 251
数字资产 251
无人驾驶技术 251
日召开了 251
日在京畿道 251
时可 251
李善 251
汽车制造 251
浮屠 251
海鲜 251
淫秽 251
点之前 251
热议 251
环氧 251
现代化 251
的审查 251
的负责人 251
的通知 251
移动通信公司的 251
第一期 251
纹身 251
经销 251
绑架 251
编成 251
而未 251
蛤 251
被淘汰 251
触点 251
计算标准 251
购买新车 251
通过视频 251
防晒 251
HAN 250
Int 250
iPad 250
ze 250
▁a 250
▁业内人士 250
▁幸运的是 250
▁本发明涉及一种用于在 250
▁校长 250
▁越南 250
▁这可以解释为 250
▁金融投资 250
不当解雇 250
丢 250
之下 250
住址 250
全过程 250
公寓价格 250
兰多 250
出路 250
印花 250
叮嘱 250
后盾 250
后续措施 250
和主要 250
喻 250
囚 250
安城 250
官署 250
宝贵的 250
对策委员长 250
导火 250
将韩国 250
展会 250
巷 250
希澈 250
庆熙 250
异端 250
很多人的 250
得到保障 250
急救室 250
惯 250
所有车型 250
按时 250
挤压 250
揭示 250
搬到 250
数量和 250
是为了在 250
智囊团 250
朗动 250
来回 250
死亡后 250
汽车公司的 250
沙特 250
法人或团体 250
深圳 250
熄 250
男人的 250
画的 250
白皮书 250
的小规模 250
的条款 250
的花 250
相关研究 250
窝 250
第二阶段 250
等待时间 250
粉色 250
肌肉痛 250
自己喜欢的 250
英镑 250
落后的 250
诺基亚 250
负责的 250
身为 250
选择范围 250
逐年 250
通过扩大 250
重点放在 250
量身定做 250
金九 250
金振 250
附加服务 250
集中管理 250
雇用维持支援金 250
领先地位 250
餐桌 250
鼻涕 250
148 249
Dr 249
Edu 249
IPS 249
UE 249
alt 249
icro 249
riends 249
ross 249
▁1995 249
▁Innotek 249
▁Watch 249
▁学习 249
三星集团 249
下水道 249
专家和 249
也一直 249
人因 249
促进委员会 249
促进法 249
保证基金 249
信息娱乐 249
公正性 249
共享平台 249
关心和协助 249
前科 249
厂商 249
发信 249
台上 249
后援 249
向市长 249
和医疗 249
商务平台 249
士气 249
家长委员 249
寄生 249
将在明年 249
尹相 249
工资上调 249
并承诺 249
并联 249
忧郁 249
快餐 249
怀疑是 249
恶性代码 249
我们社会 249
所以才 249
手机和 249
扰乱 249
收纳员 249
无法理解 249
春天的 249
月举行 249
极性 249
比去年增加 249
河内 249
法律依据 249
浪潮 249
深处 249
由市长 249
电的 249
的保险 249
积极努力 249
移动通信系统 249
税制优惠 249
素养 249
约达 249
翘 249
自动驾驶技术 249
自给 249
良心 249
英美 249
营销战略 249
血液中 249
解码器 249
誓 249
证言 249
购置税 249
过高 249
迷你专辑 249
遗憾的是 249
邮递 249
附加值 249
随身 249
首尔的 249
首席研究员 249
2020" 248
380 248
46. 248
Bithumb 248
orn 248
plus 248
▁Cross 248
▁有必要 248
▁李副会长 248
▁电动汽车 248
不关心 248
东锡 248
中将 248
中扣除 248
中添加 248
亚马逊网络服务 248
人组 248
以上述 248
以太 248
优先协商 248
传输到 248
住进了 248
保证书 248
出发点 248
则会 248
制动系统 248
前室长 248
区内的 248
卡宴 248
又能 248
变长 248
合理的价格 248
听证会的 248
因为在 248
在地 248
基础资产 248
外部专家 248
太年 248
头灯 248
小政党 248
就有可能 248
异口同声 248
我们要 248
批准后 248
抵押贷款 248
提供免费 248
插入到 248
最多可获得 248
有分析认为 248
本部长郑 248
朴市长 248
浮肿 248
海水浴场 248
的上述 248
的工会 248
的微笑 248
示范服务 248
等综合 248
管理费 248
股票的 248
褐 248
要求提交 248
视频和 248
该制度 248
该问题 248
调查等 248
身份的 248
通过减少 248
道勋 248
错觉 248
隔离病床 248
集中到 248
魅 248
# 247
,28 247
1.1 247
Active 247
GLC 247
bank 247
esign 247
ote 247
rip 247
▁Genie 247
▁因为这是 247
▁据评价 247
▁新车 247
▁根据令第 247
▁虽然不是 247
一氧化 247
上级综合医院 247
不动产 247
世界性 247
两条 247
为什么要 247
也应 247
人参加了 247
代替了 247
休假期间 247
供应链 247
公司以 247
共进 247
准备委员会 247
到医院就诊 247
制定和实施 247
助教 247
匾额 247
原定 247
受到威胁 247
可折叠 247
右翼 247
和青瓦台 247
品牌中 247
哥伦比亚 247
在庆北 247
大成 247
天体 247
好事 247
委托合同 247
它会 247
并执行 247
当务之急 247
您介绍 247
所需费用 247
支付标准 247
收信 247
效益 247
时发生的 247
更换了 247
来电 247
梵 247
母子 247
比去年同期增长了 247
沅 247
注意的是 247
烘干 247
狎鸥亭 247
的一点 247
的反转 247
的必要 247
的新款 247
的日常生活 247
的未来统合党 247
的机器 247
相关人士透露 247
稍有不慎就会 247
稳居 247
端正 247
耍 247
胡言乱语 247
辞退 247
达成共识 247
还是在 247
重伤 247
钝化 247
音乐人 247
顾名思义 247
GP 246
Gig 246
UNIST 246
ental 246
ergy 246
▁LIVE 246
▁通过在 246
○ 246
万亿美元 246
为了得到 246
为基础进行 246
之前没有 246
之间产生的 246
也有人认为 246
买了 246
仍在持续 246
会影响 246
传播到 246
你好 246
侵蚀 246
保守政党 246
偏转 246
刊物 246
前所述 246
勇士 246
医疗补助 246
启动的 246
吸引了人们的关注 246
呈增加趋势 246
圈的 246
增加了约 246
多人参加 246
大同 246
学校教育课程 246
实名制 246
客运站 246
将产生 246
层叠 246
并重新 246
应该将 246
开工率 246
强调的 246
意想不到的 246
所列 246
手语 246
批发市场 246
放大器的 246
早已 246
时才 246
是理所当然的 246
智能手机等 246
服务领域 246
枫 246
浦项市 246
涨幅 246
溃疡 246
王子 246
的不正当 246
的前一天 246
的技术和 246
监控系统 246
目的是提供一种 246
着火 246
矿业 246
磁控 246
福克斯 246
秀贤 246
积极宣传 246
第八 246
补缺 246
被判处 246
让国民 246
过渡期 246
这一点上 246
重症监护室 246
闪电 246
闷 246
阪 246
革新和 246
食道 246
高速行驶 246
121 245
MAX 245
SARS 245
ication 245
iva 245
mobility 245
▁Bio 245
▁Grand 245
▁IN 245
▁今年迎来第 245
▁似乎 245
▁制作组 245
▁应 245
▁文总统表示 245
▁虽然现在 245
上传的 245
不觉 245
为开发 245
也好 245
亲自出面 245
伦斯 245
全租房 245
公安 245
内定为 245
发达国家的 245
可以提前 245
吊销 245
同时在 245
向检察机关 245
哀悼 245
因特网 245
国民日报 245
在企业 245
大数据的 245
好友 245
学习了 245
尚不清楚 245
工资水平 245
年销量 245
并且将 245
并为了 245
愈 245
或将 245
技术支援 245
投资商品 245
持续性 245
智利 245
最大限度地提高 245
本人认证 245
李镇 245
柳成 245
正式宣布 245
正式展开 245
死亡原因 245
殷成洙 245
每集 245
流感疫苗 245
热线 245
男性和 245
白人 245
的合并 245
看过 245
碳排放 245
等美国 245
纪念活动 245
绕组 245
美兰 245
而出现的 245
而需要 245
脱北者 245
血液循环 245
行政安全委员会 245
让顾客 245
议政府圣母医院 245
赵贤 245
还主张 245
进行分析的结果显示 245
进行教育 245
追加了 245
送回 245
送至 245
音质 245
顾客们 245
预计明年 245
首次推出的 245
高收入 245
麦克斯韦 245
黑白 245
Alt 244
LCC 244
Link 244
earning 244
rice 244
▁2001 244
▁Sports 244
▁制造 244
▁友利 244
▁因为如果 244
▁工作 244
▁得益于此 244
▁秋 244
▁简单 244
▁统计厅 244
▁裴 244
与观众见面 244
为他们 244
为根据 244
之前提交给班主任 244
也有人担心 244
互补 244
产品是 244
亲身 244
人表示 244
代名词 244
传染性 244
但是以 244
入场券 244
全国各地 244
出版的 244
区块链游戏 244
即使是在 244
可谓 244
名确诊者 244
名誉会长 244
大邱庆北 244
大邱的 244
家庭通信 244
将变得 244
将按 244
局域网 244
帮助的 244
并嘱咐 244
应该成为 244
当日 244
感知到 244
成功实现 244
插电式混合动力车 244
整齐 244
日推出 244
时间表 244
是指为 244
最大的努力 244
有机电 244
本息 244
来访 244
枢 244
森堡 244
民众党 244
氨基酸 244
流的 244
消费品 244
清理 244
爱你 244
生活稳定 244
畸形 244
的前提 244
的合成 244
的委托 244
的高频 244
空气中的 244
等行业 244
管理解决方案 244
纪念馆 244
结束前 244
给观众带来 244
缜 244
网球 244
自从 244
蕴含着 244
要求提供 244
败血症 244
迈凯 244
迟迟 244
6、 243
Cr 243
High 243
Linux 243
ONG 243
TI 243
YP 243
actory 243
lear 243
pack 243
▁ET 243
▁Han 243
▁TO 243
▁与其 243
▁在进行 243
▁在韩国国内 243
▁结果显示 243
▁那个 243
一年前 243
不一样 243
不能在 243
与上述 243
亲日 243
但是通过 243
信用卡公司的 243
做出巨大贡献 243
做过 243
健康保险审查评价院 243
光束 243
厉 243
参与率 243
发回 243
合党 243
和机器人 243
和职员 243
和被 243
国政监察 243
塔身 243
多久 243
多岁和 243
女子大学 243
家庭购物 243
宽敞的 243
届满 243
巢 243
市道 243
幽默 243
总行 243
承揽 243
拘禁 243
斯坦福 243
斯蒂 243
日益高涨 243
更应该 243
更有效 243
月均 243
松下 243
梦想着 243
检察机关的调查 243
比预想的要 243
民植法 243
民间专家 243
汽车零部件企业 243
泫 243
温柔 243
满月 243
爱德华 243
申请表 243
略有不同 243
痛苦的 243
的可能性增大 243
的宋 243
的实施 243
的笑容 243
的韩国人 243
精神和 243
终点 243
绿十字 243
网石游戏 243
规章 243
解聘 243
议会的 243
详细地 243
调查书 243
车辆时 243
采样 243
金荣 243
需求量 243
非法拍摄 243
非洲猪 243
食药处 243
3~5 242
ARK 242
ante 242
rypto 242
▁0 242
▁1998 242
▁Center 242
▁女子组合 242
▁委员会由包括 242
▁这比 242
▁随着对 242
上调至 242
与众不同 242
代表团 242
以无党派身份参选 242
伸展 242
傻 242
全数 242
公正交易 242
刹 242
北欧 242
占了 242
及特别相关人士的股份率从 242
变窄 242
只是在 242
同居 242
向海外 242
含有的 242
启明大学 242
和尚 242
商业化的 242
嘉华 242
国立中央医疗院 242
垦 242
失效 242
宝马韩国 242
寄存器 242
密闭 242
寡 242
将增加到 242
并可 242
座位上 242
开放国民党 242
引领着 242
必须有 242
总统直属 242
恒星 242
我们应该 242
批量 242
披萨 242
支持了 242
政论馆 242
整改 242
无一 242
日举行的第 242
更加活跃 242
最优先 242
月开始到 242
期刊 242
期待在 242
梦想成为 242
残余 242
残疾人雇佣 242
河川 242
流动化 242
热血 242
特别延长劳动 242
电台之星 242
的改善 242
的诊断 242
盛行 242
社会弱势群体 242
第一家 242
第二期 242
等国内外 242
系统及 242
缩小了 242
考虑到这一点 242
而言之 242
腐 242
自豪感 242
规制改革 242
议员郑 242
账本 242
转化 242
追缴 242
退休后 242
遗物 242
铃木 242
非常方便 242
香水 242
驻韩 242
高恩 242
CDMA 241
Cy 241
FET 241
IME 241
MU 241
Per 241
SAP 241
Ter 241
oupang 241
▁1997 241
▁Ass 241
▁上诉 241
▁中央防疫对策 241
▁区块链 241
▁在上述 241
▁捷豹 241
▁本来 241
▁洪副总理 241
▁现行 241
▁英特尔 241
一经 241
一起参加 241
下限 241
不孕 241
也将成为 241
产业领域的 241
人行道 241
今后也会 241
以形成 241
会引起 241
低估 241
全球化 241
公报 241
共同民主党代表李海瓒 241
前线 241
区域内的 241
变得越来越 241
多样化的 241
奠定 241
女儿的 241
委员的任期 241
安前代表 241
完全可以 241
审议和 241
并按照 241
床上 241
应聘 241
心脑血管疾病 241
必须事先 241
成东 241
户外活动 241
所致 241
招收 241
指定了 241
斯洛 241
无人机的 241
旨在通过 241
普通的 241
智能制造 241
更难 241
有所上升 241
朴振 241
权人 241
柴 241
每分钟 241
汽油车 241
活塞 241
热演 241
物理治疗 241
现代汽车在 241
男友 241
的量 241
的韩国党 241
直接参与 241
空前 241
站在了 241
血清素 241
被确认为 241
规定外 241
识别技术 241
象征着 241
迁至 241
还将推进 241
还将进行 241
还展示了 241
进行手术 241
都处于 241
间歇 241
雅虎 241
非典 241
非法的 241
领先企业 241
,22 240
126 240
[...]
