▁the 1925437
, 1390021
. 1253573
▁of 895452
▁to 756758
▁and 753553
▁a 607740
▁in 536704
▁is 451429
- 399465
▁that 354361
' 322920
▁for 246710
s 239349
▁I 227983
▁on 220530
▁it 216786
▁was 203733
▁The 203222
▁as 202083
▁with 182601
▁are 174324
▁be 167126
▁" 165725
▁by 156738
▁will 138159
▁you 130804
▁at 127821
▁have 116882
▁from 114573
▁has 107593
▁not 105787
▁which 100086
▁this 94380
▁an 92407
▁who 89766
▁can 89432
▁but 85852
." 80798
▁Korea 79131
▁It 76084
▁In 73975
▁were 68394
▁said 66858
? 66260
▁time 66092
▁or 63614
▁there 63341
▁been 63196
th 63100
▁also 59006
▁he 58825
t 57332
▁they 57085
▁when 55546
▁his 55379
▁Korean 54754
▁more 52716
▁so 52676
▁their 52589
▁people 52045
▁year 52011
▁if 51357
▁Kim 49779
▁after 49268
▁about 48908
▁( 48670
▁than 46825
▁first 46751
▁because 45562
▁we 45516
▁such 44684
▁out 43999
▁one 41642
▁had 41060
" 40760
▁my 40132
▁its 39785
▁all 38814
▁This 37914
▁only 35524
▁up 35458
) 35122
▁other 35090
▁like 34611
▁A 34453
▁through 33443
▁your 32608
▁two 32134
▁me 31988
m 31665
▁new 31232
▁do 31140
▁where 30109
▁government 30058
▁would 29585
," 29498
▁into 29163
▁last 29115
▁ 28747
▁North 28717
▁them 28533
▁no 28379
▁should 28003
▁Seoul 27546
▁won 27486
▁due 27294
▁As 27198
S 26823
▁between 26820
▁day 26669
▁made 26656
▁high 26561
▁over 26190
▁many 25813
▁If 25558
▁even 25518
▁Lee 24854
▁years 24697
▁including 24686
▁There 24093
▁work 23819
▁National 23616
▁company 23399
▁U 23361
▁market 23092
▁while 22991
▁make 22987
▁well 22855
▁number 22744
▁companies 22661
▁held 22523
▁her 22149
▁We 22137
▁system 22057
▁since 21788
▁public 21311
▁being 21204
▁take 20900
▁what 20819
▁go 20763
▁good 20513
▁school 20366
▁He 20200
▁could 20100
▁used 19870
▁think 19759
▁our 19703
▁get 19681
▁President 19654
▁how 19550
▁want 19520
▁some 19199
▁most 19194
▁use 19095
▁world 18929
’ 18796
▁Park 18596
The 18499
▁during 18405
▁each 18306
▁same 18302
▁three 18149
▁next 18037
▁business 18022
▁before 17781
▁know 17498
▁place 17435
▁now 17432
▁Party 17399
▁need 17390
▁team 17366
▁just 17238
▁local 16826
▁long 16749
▁life 16736
▁China 16708
▁expected 16679
▁various 16517
▁students 16461
▁order 16289
▁You 16176
▁second 16091
▁without 16087
▁very 16033
▁When 15994
▁don 15915
▁Ministry 15850
▁1 15714
▁right 15666
), 15611
in 15592
▁case 15582
▁police 15497
▁around 15491
▁much 15437
▁way 15324
▁10 15276
▁did 15255
▁“ 15036
▁million 14869
▁South 14715
▁see 14694
▁information 14607
▁any 14573
▁2 14502
▁process 14497
▁am 14387
▁However 14323
▁former 14274
▁may 14185
▁month 14157
▁' 14156
▁According 13860
▁area 13643
▁him 13610
▁these 13603
▁industry 13592
▁saying 13581
▁fact 13416
▁meeting 13383
▁3 13333
▁products 13321
▁lot 13309
▁increase 13295
▁support 13243
I 13214
▁different 13172
ing 13152
▁under 13112
▁large 13022
▁she 12976
▁country 12975
▁end 12974
▁media 12914
▁days 12880
▁On 12849
▁small 12828
▁must 12779
▁become 12652
▁official 12596
▁power 12589
▁against 12561
▁change 12561
▁price 12539
▁difficult 12448
▁members 12431
▁party 12342
▁service 12300
▁group 12245
▁person 12245
▁education 12210
▁city 12143
▁come 12139
▁home 12131
▁found 12120
▁back 12085
▁whether 12076
▁going 12044
▁rate 12006
▁social 11976
gu 11956
▁special 11938
▁product 11836
▁investigation 11823
▁food 11796
▁economic 11732
▁important 11717
▁University 11684
do 11677
▁At 11670
ll 11656
▁children 11648
▁attention 11630
▁possible 11625
▁problem 11619
/ 11571
▁City 11459
▁water 11439
▁Moon 11431
▁again 11429
▁5 11405
▁down 11405
▁development 11368
▁billion 11354
▁Province 11346
▁using 11340
▁data 11268
▁event 11263
st 11251
▁national 11236
▁situation 11149
▁future 11129
▁office 11084
▁announced 11081
▁still 11048
▁those 11021
▁head 11005
▁performance 10998
▁related 10960
▁based 10950
: 10928
▁Japan 10927
▁management 10913
▁then 10855
▁say 10739
▁result 10695
▁family 10691
▁20 10647
▁financial 10631
▁too 10585
▁Jae 10536
▁why 10531
▁able 10454
▁together 10396
▁every 10379
▁K 10290
a 10256
▁countries 10241
▁technology 10241
▁reason 10236
▁called 10221
▁plan 10207
▁does 10128
▁today 10101
▁4 10098
▁project 10031
▁period 10004
▁real 10003
▁Japanese 9988
▁policy 9988
▁came 9975
▁us 9974
▁particular 9971
▁part 9955
▁help 9923
▁left 9915
▁here 9900
ed 9881
▁Minister 9815
▁own 9798
▁money 9778
▁Chinese 9693
▁US 9684
▁main 9655
▁level 9641
▁game 9635
▁set 9632
▁room 9609
▁sales 9603
▁times 9578
▁B 9563
▁hard 9553
▁Busan 9541
▁past 9533
▁give 9521
▁Please 9509
▁until 9452
▁working 9438
▁took 9420
▁best 9377
▁growth 9331
▁After 9329
▁culture 9306
▁interest 9305
▁increased 9299
▁reported 9290
▁making 9258
▁cannot 9229
▁early 9226
▁total 9212
▁house 9190
▁four 9182
▁They 9146
▁among 9126
▁Assembly 9109
▁What 9088
▁point 9067
▁find 9065
▁Samsung 9058
▁body 8968
▁off 8919
▁major 8844
▁human 8815
▁For 8808
▁Although 8800
▁look 8766
i 8754
▁center 8751
▁both 8732
▁put 8687
▁issue 8679
▁received 8672
▁experience 8661
▁amount 8642
▁half 8608
▁already 8594
▁went 8593
We 8568
▁released 8567
▁low 8537
▁United 8522
▁visit 8515
▁30 8511
▁research 8482
▁general 8471
▁foreign 8460
▁show 8456
▁military 8427
▁Trump 8425
▁decided 8400
▁car 8374
▁fire 8369
▁women 8296
▁president 8293
▁strong 8282
▁law 8242
▁words 8230
▁feel 8224
▁great 8199
▁name 8172
▁New 8169
dong 8153
ly 8153
▁current 8127
▁But 8058
▁state 8054
▁construction 8037
▁things 8029
▁another 8014
▁music 8010
▁side 8000
▁front 7990
▁private 7976
▁report 7938
▁economy 7934
d 7921
▁Center 7919
re 7914
ve 7902
▁global 7890
▁My 7863
▁away 7855
▁pay 7846
▁hope 7845
▁became 7836
▁week 7817
). 7790
▁young 7783
▁areas 7771
▁study 7755
▁man 7699
▁Jung 7694
▁thought 7692
▁means 7687
▁five 7683
▁building 7680
▁addition 7679
▁within 7666
▁check 7662
▁results 7657
▁job 7640
▁seems 7636
▁big 7635
▁percent 7633
▁society 7621
▁Even 7618
▁KRW 7580
▁Court 7564
▁space 7556
▁top 7545
▁6 7537
▁Gyeonggi 7522
▁production 7515
▁once 7504
er 7489
▁Since 7474
▁domestic 7454
▁activities 7409
▁history 7403
▁rather 7388
▁live 7381
ization 7363
▁start 7361
▁old 7360
.” 7351
▁workers 7348
▁content 7343
It 7340
▁So 7308
▁labor 7294
▁got 7288
▁prosecution 7287
▁States 7270
▁started 7260
▁better 7259
▁known 7236
▁cases 7233
▁value 7192
▁Chairman 7187
▁play 7187
▁book 7186
▁political 7183
▁news 7170
▁7 7121
", 7055
▁full 7053
▁little 7046
o 7039
the 7033
▁Jong 7016
▁investment 7006
& 6990
▁prices 6969
▁Office 6968
▁always 6929
▁didn 6927
▁S 6910
▁please 6889
y 6883
▁Do 6881
▁measures 6874
▁create 6865
▁love 6865
▁Hong 6853
▁likely 6849
▁Young 6848
▁An 6822
▁chairman 6815
▁8 6807
▁morning 6797
▁committee 6786
▁site 6775
▁charge 6769
▁court 6754
▁began 6746
▁necessary 6745
▁recently 6743
▁popular 6742
▁field 6725
▁trade 6725
▁form 6722
▁living 6711
▁asked 6686
▁months 6682
▁residents 6666
▁G 6665
ho 6664
▁hours 6645
▁meet 6642
▁per 6633
▁energy 6631
X 6602
▁free 6602
▁Democratic 6599
▁C 6594
▁explained 6579
▁send 6574
▁late 6572
▁tax 6561
▁created 6530
▁never 6530
▁problems 6524
▁video 6523
▁effect 6520
▁12 6511
▁11 6506
▁led 6504
▁according 6491
▁cultural 6482
▁self 6481
▁seen 6475
▁taking 6468
on 6464
▁Committee 6463
▁soon 6456
▁That 6439
▁member 6438
nd 6428
▁class 6428
▁test 6425
▁less 6422
▁director 6420
▁open 6401
▁story 6385
▁line 6374
al 6371
▁D 6348
▁English 6337
▁environment 6327
▁agreement 6322
▁9 6300
▁provide 6299
▁role 6295
▁T 6292
▁summit 6284
▁Choi 6272
▁No 6272
▁air 6256
▁May 6254
▁continue 6248
▁far 6240
▁light 6228
▁Dong 6223
▁international 6223
▁stage 6222
▁short 6200
▁let 6199
▁third 6191
▁often 6179
▁others 6173
▁something 6170
▁election 6166
▁changed 6164
▁movie 6161
▁along 6129
▁following 6127
▁citizens 6126
▁15 6114
▁employees 6108
▁World 6098
▁customers 6090
▁Education 6087
▁method 6080
▁floor 6051
▁lead 6048
Z 6025
▁leader 6018
▁How 6015
▁cost 6011
▁care 6003
▁demand 5997
▁middle 5986
▁position 5980
▁officials 5970
an 5968
▁medical 5964
▁confirmed 5960
▁health 5950
D 5948
▁established 5927
▁face 5914
▁And 5908
▁program 5906
▁services 5905
▁Gwangju 5892
▁understand 5879
▁p 5878
▁Jeju 5856
C 5847
rd 5846
▁really 5843
▁added 5842
▁showed 5841
▁Cho 5833
▁move 5831
Q 5818
▁P 5818
▁though 5814
▁child 5801
▁night 5798
▁income 5793
▁having 5792
▁caused 5787
▁cause 5782
▁given 5776
▁receive 5775
▁parents 5759
▁100 5758
▁Association 5756
▁representative 5755
▁makes 5750
▁issues 5743
▁facilities 5725
▁war 5721
▁M 5719
▁sent 5719
▁film 5686
▁competition 5681
2 5674
▁administration 5664
▁previous 5655
ers 5653
▁later 5642
▁tell 5627
▁With 5625
▁18 5622
▁safety 5614
▁art 5611
▁community 5600
▁visited 5597
▁hand 5584
▁plans 5579
▁Commission 5574
▁Kang 5571
▁Then 5543
▁To 5533
▁decision 5522
▁fans 5517
▁existing 5514
▁Service 5504
▁developed 5503
▁rights 5496
▁accident 5493
▁revealed 5484
▁age 5482
▁non 5467
▁Dae 5464
A 5456
▁opposition 5444
G 5443
▁looking 5436
▁changes 5431
▁season 5417
▁Because 5415
▁players 5414
un 5413
▁course 5406
▁ruling 5405
▁call 5387
▁pointed 5383
▁March 5379
▁easy 5375
▁School 5355
▁stock 5353
▁trial 5345
▁Police 5340
▁Incheon 5337
won 5332
▁Act 5314
▁region 5305
▁enough 5302
▁taken 5293
▁H 5275
▁communication 5274
▁higher 5274
▁goal 5263
▁conducted 5258
▁similar 5256
▁few 5246
▁applied 5244
▁buy 5242
young 5229
▁Is 5229
▁model 5226
▁R 5225
▁schools 5223
▁raised 5220
▁Group 5205
▁International 5202
▁directly 5195
▁opening 5182
▁hold 5180
▁store 5176
▁language 5174
▁treatment 5172
▁Shin 5169
year 5168
., 5153
▁cooperation 5153
▁several 5151
▁yet 5146
▁ceremony 5135
▁compared 5135
jin 5121
▁House 5113
▁size 5112
▁Institute 5109
▁structure 5105
▁control 5096
▁security 5096
▁share 5091
▁outside 5071
▁key 5060
▁student 5059
▁possibility 5042
es 5040
▁L 5009
▁Liberty 5005
▁prevent 4999
▁believe 4997
▁response 4993
▁return 4982
▁13 4977
▁keep 4966
▁works 4954
▁exchange 4952
▁fine 4949
▁ago 4948
▁traditional 4944
Korean 4937
▁close 4937
▁run 4937
u 4936
▁located 4929
▁minutes 4928
▁Han 4927
▁natural 4924
▁Can 4916
▁E 4915
▁nuclear 4911
▁mother 4901
▁terms 4891
▁match 4888
▁relationship 4887
▁considered 4879
▁friends 4879
▁While 4873
▁analysis 4870
▁met 4867
▁single 4865
▁told 4855
▁design 4845
▁near 4844
▁card 4842
▁clear 4841
▁recent 4836
▁contract 4832
▁Supreme 4826
▁online 4820
▁overseas 4819
▁final 4818
▁increasing 4817
min 4816
▁damage 4810
▁oil 4807
▁death 4805
M 4803
▁additional 4794
▁introduced 4788
▁training 4786
▁Some 4779
▁One 4776
▁trillion 4767
▁shows 4764
▁Ji 4758
▁reality 4757
▁participate 4753
▁Internet 4747
▁selected 4735
▁16 4724
▁Jeong 4722
▁April 4713
▁eat 4710
▁land 4708
▁insurance 4705
▁Jang 4700
▁Metropolitan 4692
▁First 4690
▁press 4689
▁points 4686
▁average 4675
▁rise 4675
▁try 4667
▁friend 4663
▁phone 4662
▁sense 4662
▁gave 4657
▁budget 4656
▁account 4640
▁department 4638
▁might 4636
▁mind 4631
▁needed 4630
▁quality 4625
up 4621
▁19 4611
▁needs 4611
▁groups 4609
▁six 4606
▁paid 4602
▁Sung 4596
▁hospital 4589
▁improve 4582
il 4578
▁expressed 4577
▁events 4576
▁14 4569
▁active 4566
▁example 4564
▁June 4560
▁getting 4558
▁kind 4556
B 4550
▁industrial 4549
soo 4544
▁continued 4544
▁quickly 4541
▁mobile 4533
▁talk 4531
▁matter 4527
▁leave 4517
ri 4515
▁operation 4514
▁passed 4508
▁subject 4508
▁Sang 4507
▁Yoon 4491
▁She 4490
▁conditions 4490
▁enjoy 4490
ic 4486
▁basic 4485
▁ask 4482
▁present 4482
▁father 4475
▁wage 4469
hyun 4456
▁District 4456
▁housing 4453
▁F 4450
▁Asian 4448
▁lives 4446
▁lost 4443
▁bus 4423
or 4412
en 4402
▁controversy 4399
▁lower 4395
▁woman 4394
▁17 4389
▁actively 4388
In 4383
▁supply 4382
▁largest 4376
▁Hyundai 4375
▁CEO 4373
▁growing 4371
▁employment 4367
▁Yang 4365
▁itself 4365
▁personal 4364
▁currently 4361
▁sector 4360
▁true 4360
she 4359
▁Jin 4353
▁25 4352
▁businesses 4352
▁hit 4350
▁learning 4345
▁Government 4342
▁Seung 4341
▁inter 4336
▁materials 4327
▁attended 4319
▁thing 4319
▁individual 4318
▁Bank 4301
▁heard 4298
▁chief 4292
▁Min 4289
1 4272
▁consumers 4272
P 4269
▁included 4269
▁participated 4268
▁costs 4265
▁further 4265
▁Financial 4255
▁alone 4253
▁tomorrow 4251
▁Yes 4247
▁inside 4247
▁TV 4246
▁brand 4245
▁Hyun 4244
▁Station 4244
▁eyes 4242
▁crisis 4235
▁50 4228
▁afternoon 4226
it 4218
▁” 4217
▁opinion 4215
▁certain 4213
▁July 4212
▁easily 4212
( 4210
▁men 4209
▁image 4208
▁spread 4206
▁24 4203
$ 4200
▁provided 4200
▁leading 4199
▁done 4189
▁happy 4189
▁view 4182
▁movement 4177
▁re 4176
▁produced 4168
▁sorry 4163
term 4160
▁wanted 4157
▁takes 4153
▁built 4151
▁heat 4149
▁complex 4145
▁university 4143
▁saw 4142
▁type 4141
▁wife 4139
▁theory 4135
▁joint 4134
▁starting 4134
▁significant 4125
▁action 4123
▁common 4122
▁questions 4120
▁scene 4119
e 4114
▁original 4096
b 4084
▁capital 4077
▁Therefore 4076
▁character 4076
▁funds 4076
▁sold 4076
▁doesn 4074
K 4071
▁games 4066
▁regular 4066
▁21 4054
▁parties 4041
▁opened 4040
am 4038
▁users 4036
▁question 4028
". 4022
hee 4021
▁conference 4017
▁September 4016
▁completed 4015
n 4014
▁These 4006
woo 4005
▁fall 4005
▁temperature 4005
▁planning 4000
▁Song 3997
▁survey 3995
▁heart 3987
▁Prime 3986
▁played 3986
▁projects 3982
▁payment 3981
▁God 3980
▁Mr 3972
▁authorities 3970
▁estate 3968
▁famous 3968
p 3962
▁Let 3962
▁photo 3959
▁song 3959
▁impact 3947
▁jobs 3947
▁27 3945
▁request 3944
▁meaning 3937
▁road 3934
▁dust 3932
▁medium 3928
▁Justice 3926
▁female 3923
▁minimum 3915
▁develop 3914
” 3912
▁contents 3892
▁Daegu 3888
▁bad 3885
▁nature 3875
▁efforts 3868
▁force 3867
▁regarding 3865
▁N 3864
▁senior 3856
▁festival 3849
▁pressure 3849
▁Cheong 3848
▁trying 3848
▁felt 3847
▁candidate 3844
▁parts 3842
▁People 3841
▁doing 3840
▁Electronics 3838
▁Yoo 3827
▁Festival 3818
▁Department 3817
▁Trade 3813
▁Hwang 3811
▁direction 3811
c 3810
3 3807
▁organization 3807
▁comes 3806
▁required 3804
▁hot 3802
▁ahead 3794
time 3793
▁drama 3787
▁Germany 3783
▁round 3781
▁picture 3780
ation 3776
▁difference 3773
▁23 3772
▁daily 3769
▁include 3764
▁organizations 3761
T 3757
▁audience 3756
▁teacher 3752
▁color 3748
▁items 3748
▁idea 3746
▁sexual 3746
▁Yong 3739
▁Agency 3738
▁exhibition 3738
ar 3728
▁advance 3728
▁stop 3727
▁October 3722
▁appeared 3717
▁trip 3709
▁cold 3707
▁Affairs 3706
▁message 3702
▁ability 3700
▁lack 3700
▁denuclear 3696
▁negotiations 3695
▁poor 3691
as 3688
▁contact 3682
▁American 3680
▁term 3679
▁specific 3664
k 3650
▁fell 3647
▁illegal 3641
▁coming 3640
R 3639
▁list 3637
▁record 3636
▁schedule 3628
▁Tae 3624
▁enter 3624
▁interested 3624
▁written 3615
▁son 3614
▁becomes 3611
▁driving 3611
▁date 3608
▁experts 3607
▁charges 3606
g 3605
▁reform 3604
▁behind 3598
▁trend 3596
▁August 3595
▁Sun 3595
▁win 3591
▁available 3589
▁travel 3588
▁beginning 3585
▁emergency 3585
▁prepared 3584
ism 3582
▁read 3578
▁speed 3572
U 3570
▁learn 3564
▁material 3561
▁Council 3557
▁40 3556
▁concept 3553
If 3551
▁cars 3550
▁bank 3549
▁January 3545
▁reduce 3544
▁positive 3539
▁instead 3537
▁review 3536
4 3535
F 3535
▁etc 3534
▁Russia 3529
▁expand 3529
▁purpose 3529
7 3526
le 3522
▁State 3522
▁policies 3522
h 3518
▁talks 3518
▁red 3514
able 3513
▁operating 3511
▁network 3510
▁tried 3508
▁moment 3502
▁function 3501
▁strategy 3500
▁Land 3497
▁patients 3496
l 3495
▁All 3493
▁opportunity 3490
9 3486
▁Island 3486
▁union 3486
▁Administration 3485
▁institutions 3483
▁series 3483
▁forward 3480
▁focus 3479
▁couldn 3478
gun 3477
▁agency 3477
▁anything 3475
▁apartment 3475
▁highest 3471
▁church 3467
▁considering 3463
▁status 3463
▁whole 3460
▁Chung 3459
▁purchase 3458
▁entire 3457
▁Kyung 3456
▁legal 3454
at 3451
▁restaurant 3451
ate 3448
▁22 3442
▁unique 3442
5 3438
▁knowledge 3438
▁nation 3438
▁High 3437
▁carried 3437
▁thinking 3435
▁simple 3434
▁customer 3429
6 3428
▁places 3425
▁station 3425
▁26 3423
▁professor 3420
▁summer 3417
▁least 3409
▁peace 3409
▁presidential 3404
▁November 3403
▁apply 3402
us 3401
▁atmosphere 3397
▁skin 3397
▁Seo 3395
▁actual 3395
▁regulations 3395
▁Koreans 3394
▁base 3394
▁Among 3393
▁risk 3392
▁J 3391
old 3387
▁standard 3387
▁staff 3382
▁rice 3379
L 3377
▁Many 3375
▁prepare 3375
▁credit 3374
yeon 3366
▁black 3364
▁application 3357
▁Oh 3352
N 3345
▁28 3345
▁showing 3339
▁central 3335
▁December 3334
▁concerns 3334
▁marketing 3332
▁someone 3332
▁science 3331
▁immediately 3327
▁characteristics 3325
▁cut 3321
▁post 3320
▁relations 3319
▁college 3318
▁beautiful 3317
▁blood 3313
▁actually 3310
▁era 3309
▁effects 3308
▁generation 3307
is 3303
▁sound 3300
▁evaluation 3291
▁manager 3291
▁By 3290
▁ways 3290
▁bring 3289
▁O 3285
▁programs 3284
▁grow 3283
▁teachers 3283
▁influence 3282
▁sea 3282
▁corporate 3278
▁village 3276
▁reduced 3275
▁failed 3271
H 3270
▁families 3270
▁equipment 3254
▁turned 3254
▁books 3251
▁disease 3248
▁Labor 3245
▁vehicle 3244
▁died 3242
▁nothing 3241
▁evidence 3239
▁sanctions 3237
▁entered 3236
▁modern 3231
ist 3220
8 3207
▁physical 3203
▁variety 3203
▁watch 3203
▁followed 3202
▁wrong 3202
▁incident 3201
▁rest 3201
▁earlier 3199
▁e 3198
▁receiving 3194
ated 3193
▁step 3193
E 3189
▁Se 3187
▁internal 3186
▁sure 3186
▁February 3185
▁W 3185
▁conflict 3185
▁daughter 3179
▁usually 3174
▁gas 3172
▁hands 3171
▁chance 3170
▁sports 3168
▁below 3166
▁burden 3165
▁leaders 3163
▁holding 3162
ro 3151
▁distribution 3150
▁inspection 3150
▁word 3148
▁release 3143
▁population 3137
▁launched 3131
▁deal 3128
▁vice 3123
man 3118
▁Cup 3118
▁bill 3115
▁across 3109
▁Asia 3107
▁voice 3107
si 3106
▁professional 3104
▁paper 3103
▁drawing 3102
▁governments 3100
▁involved 3099
▁skills 3094
r 3093
ia 3091
▁concert 3091
▁everything 3091
▁longer 3089
▁ever 3087
▁Gangwon 3083
▁Wa 3082
▁opinions 3079
▁stores 3078
▁white 3077
sized 3073
▁civil 3073
▁personnel 3073
▁says 3070
▁minister 3064
▁interview 3062
▁occurred 3060
▁mentioned 3059
▁raise 3057
▁Hall 3056
▁writing 3055
▁properly 3051
▁delivery 3050
▁King 3049
▁ordered 3049
▁goods 3047
based 3044
▁highly 3040
ang 3038
her 3037
▁worth 3032
▁caught 3029
▁industries 3029
▁player 3027
▁build 3022
▁Secretary 3020
▁toward 3019
▁affairs 3018
▁themselves 3015
▁Lotte 3013
▁Nam 3012
▁district 3004
▁establishment 3004
▁success 3003
▁vehicles 3003
▁cities 3000
▁worked 2999
▁search 2997
▁weather 2994
im 2992
▁2018 2992
▁crime 2990
▁Defense 2985
▁fourth 2982
▁becoming 2978
▁plant 2977
▁wave 2976
▁pain 2973
▁Corporation 2969
▁rates 2968
▁degrees 2967
▁V 2966
▁direct 2966
▁welfare 2957
▁Mayor 2955
▁limited 2949
▁victims 2943
el 2941
▁practice 2938
▁types 2936
▁digital 2930
one 2928
▁above 2925
▁completely 2925
▁commercial 2923
▁performances 2920
▁transfer 2920
f 2918
▁entrance 2918
▁solve 2917
▁goes 2914
▁everyone 2913
▁creating 2912
▁29 2910
▁Of 2908
▁East 2907
▁Vietnam 2907
▁Joseon 2902
ol 2900
▁turn 2898
▁stay 2897
,” 2889
▁From 2887
▁taste 2885
▁Security 2883
▁seven 2883
▁follow 2882
▁establish 2880
▁Culture 2878
▁answer 2878
▁issued 2875
▁Europe 2873
▁shopping 2870
▁statement 2870
▁Research 2869
▁Blue 2868
▁condition 2868
ong 2865
▁Son 2862
▁club 2862
▁criticism 2862
local 2861
▁Vice 2860
▁yesterday 2860
▁serious 2856
▁Kong 2854
▁ground 2851
▁reached 2849
▁households 2846
▁giving 2845
▁appear 2840
▁Ahn 2839
▁relatively 2839
▁teams 2836
▁benefits 2835
▁himself 2833
▁heavy 2832
▁depending 2831
▁Donald 2830
▁letter 2828
▁almost 2824
▁raising 2823
▁moved 2822
O 2821
There 2821
▁rain 2819
▁traffic 2815
▁predicted 2813
▁mid 2811
▁expansion 2809
▁especially 2806
▁act 2804
▁profit 2803
▁Public 2801
▁basis 2799
▁promote 2799
▁pass 2798
▁reading 2793
▁factors 2788
▁hall 2786
▁Why 2785
hwan 2784
▁documents 2784
▁hotel 2780
ant 2778
▁markets 2778
▁complete 2774
▁European 2771
▁War 2771
▁negative 2769
▁During 2768
▁clothes 2767
▁co 2761
▁moving 2760
▁popularity 2759
ae 2757
▁introduce 2757
▁Co 2756
level 2755
et 2753
▁Central 2753
▁fast 2750
▁winter 2750
related 2748
▁York 2748
▁un 2747
seok 2740
to 2740
▁Won 2738
▁Chang 2737
▁criticized 2736
▁eight 2734
▁platform 2734
▁recognized 2734
▁sign 2734
ating 2727
ity 2727
▁transportation 2726
▁break 2722
▁brought 2718
um 2714
▁anniversary 2712
▁hair 2712
▁huge 2704
▁sell 2704
▁train 2701
▁classes 2700
▁believed 2698
▁intelligence 2697
▁despite 2696
▁screen 2696
and 2694
ad 2691
▁cancer 2691
▁progress 2690
▁universities 2688
▁published 2681
▁banks 2673
▁century 2672
▁bit 2671
▁reach 2669
▁Peninsula 2667
▁educational 2667
▁Union 2666
▁Foreign 2665
▁board 2664
▁hour 2662
▁effective 2660
▁computer 2659
W 2658
▁Transport 2658
▁Cultural 2655
▁fun 2651
▁hearing 2651
▁understanding 2651
▁produce 2649
▁target 2647
▁stressed 2646
▁formed 2644
▁document 2642
▁reasons 2642
▁investigating 2641
▁excellent 2634
▁Professor 2633
▁launch 2629
▁houses 2628
! 2627
▁shown 2624
▁Health 2622
▁owner 2621
▁Day 2619
▁divided 2618
▁mass 2618
▁Governor 2617
led 2613
▁agreed 2611
▁scheduled 2611
▁appearance 2610
▁quarter 2610
▁posted 2606
os 2605
▁returned 2604
▁table 2604
▁broadcasting 2603
▁cells 2603
▁proposed 2602
▁location 2601
▁biggest 2597
▁Industrial 2596
▁reports 2594
▁brother 2591
▁delivered 2591
▁innovation 2589
▁filed 2588
▁successful 2582
?" 2581
▁expectations 2581
▁article 2580
ness 2577
▁Science 2577
▁whose 2575
▁increases 2574
scale 2572
▁includes 2572
▁organized 2572
▁electric 2568
▁Gangnam 2566
▁defense 2565
▁coffee 2564
▁consumer 2563
▁dream 2563
▁property 2561
▁significantly 2561
▁responsibility 2559
▁Chief 2556
▁changing 2556
▁sites 2556
▁expenses 2555
▁participation 2550
▁gathered 2549
ak 2548
▁coach 2546
▁Also 2544
▁advertising 2543
▁appears 2538
▁broadcast 2536
z 2535
▁arrested 2534
▁facility 2534
▁range 2534
▁served 2533
▁actor 2532
▁claimed 2532
▁Director 2528
▁consider 2528
▁youth 2528
▁foundation 2525
▁overall 2523
▁Most 2522
% 2521
▁choice 2521
▁frequently 2520
▁allowed 2515
▁analyzed 2514
▁administrative 2511
▁loans 2509
▁loss 2506
▁unit 2506
▁potential 2505
▁candidates 2504
▁violence 2504
▁claim 2503
v 2501
▁authority 2500
▁weight 2500
▁running 2499
▁Air 2497
▁cell 2497
▁manufacturing 2493
▁source 2492
▁31 2491
▁secretary 2491
▁adding 2490
▁wind 2490
om 2489
▁intention 2488
▁trust 2488
▁looked 2483
▁wait 2481
▁fee 2480
▁seem 2480
▁improvement 2478
▁although 2477
▁anti 2477
ok 2475
▁movies 2475
▁focused 2474
▁husband 2472
hoon 2471
▁resources 2470
pop 2468
▁looks 2466
▁Infrastructure 2464
▁Special 2463
▁forced 2461
▁presented 2456
▁elections 2454
▁humans 2454
▁discuss 2453
▁elementary 2451
▁Eun 2449
▁consumption 2449
▁impossible 2446
▁investors 2446
▁airport 2444
▁beyond 2444
▁throughout 2444
▁dance 2441
▁playing 2441
▁expression 2440
▁difficulties 2439
▁Economic 2435
▁Year 2434
▁entertainment 2434
▁Ha 2433
▁Are 2432
▁requested 2432
▁Development 2431
; 2429
▁rising 2425
▁studying 2425
▁activity 2422
▁address 2422
▁discussion 2422
▁watching 2420
▁door 2417
▁fields 2416
▁arrest 2414
▁ball 2411
▁mainly 2411
▁viewers 2409
▁choose 2405
▁session 2405
▁m 2401
▁continues 2399
▁eye 2396
▁killed 2395
▁metropolitan 2394
▁200 2392
▁forces 2391
▁sale 2389
▁bought 2388
yong 2384
▁annual 2384
▁Kwon 2383
▁smart 2381
▁measure 2380
▁Finance 2378
▁write 2377
▁ratio 2375
▁quite 2372
ized 2371
▁gap 2371
▁mean 2368
▁solution 2366
▁waiting 2366
▁Daejeon 2364
▁division 2363
w 2362
▁promotion 2362
ian 2360
ch 2358
▁expect 2358
▁films 2354
id 2353
▁text 2353
▁submitted 2351
▁broke 2350
myeon 2349
▁regional 2349
▁allows 2348
▁abroad 2345
▁attend 2340
sung 2339
▁expanding 2336
▁introduction 2332
▁driver 2331
▁Industry 2330
▁60 2326
▁born 2326
▁sharing 2324
ie 2323
▁majority 2322
▁finished 2321
▁allow 2320
▁Lim 2319
▁explain 2318
▁secure 2318
▁selling 2317
▁dramas 2316
▁participants 2316
▁fund 2315
▁improved 2315
▁sleep 2314
▁songs 2314
▁speech 2312
▁contains 2311
▁details 2310
▁d 2306
▁rapidly 2306
▁discovered 2304
▁girl 2303
▁theme 2302
▁Gyeongsang 2299
▁studies 2299
▁artists 2298
▁fish 2295
▁branch 2294
▁closed 2289
▁Technology 2287
▁holiday 2287
▁provides 2287
▁His 2285
▁accept 2283
▁behavior 2283
▁suspected 2278
30 2277
▁Now 2277
▁technologies 2274
▁fully 2273
▁artificial 2271
▁emphasized 2271
▁Facebook 2270
▁elements 2270
▁external 2269
▁nearby 2269
▁German 2268
▁campaign 2267
▁leaving 2265
▁standards 2265
▁Woo 2264
▁approval 2263
ings 2261
▁Y 2260
▁General 2259
▁Ki 2258
▁responsible 2256
▁strengthen 2256
▁Church 2255
▁advantage 2255
▁expanded 2253
▁reportedly 2253
▁recorded 2249
▁ship 2247
,000 2246
▁developing 2246
▁however 2244
▁Don 2242
ot 2239
▁box 2239
▁preparing 2238
▁Foundation 2237
▁shape 2236
▁style 2231
▁LG 2229
▁Hee 2228
▁accounting 2228
▁reduction 2227
▁wish 2226
▁SK 2225
▁deep 2225
▁joined 2222
▁maintain 2222
▁pre 2221
▁accidents 2220
▁drug 2218
▁methods 2216
', 2215
▁conduct 2215
▁principle 2213
▁planned 2209
▁Airport 2207
▁arrived 2206
▁records 2204
▁background 2200
▁truth 2200
▁stocks 2199
As 2198
▁characters 2197
▁separate 2197
▁acting 2194
▁independence 2194
▁implemented 2193
ju 2190
▁advanced 2190
ah 2187
▁creation 2186
▁provincial 2186
▁Seong 2183
▁seemed 2182
▁visiting 2181
ent 2180
▁effort 2180
▁access 2176
▁dollars 2175
▁warrant 2174
ment 2169
▁tourists 2167
▁street 2166
▁wants 2166
▁drink 2164
▁gold 2164
▁t 2164
ul 2163
▁carry 2163
▁signed 2163
▁older 2161
▁River 2160
▁designated 2160
▁wide 2159
▁headquarters 2156
▁phenomenon 2156
▁hear 2155
▁winning 2154
▁Federation 2152
▁wrote 2152
▁operated 2151
▁announcement 2150
▁strength 2150
▁exam 2148
ra 2147
▁participating 2145
tae 2144
▁owners 2142
▁photos 2142
▁respectively 2142
▁decline 2140
▁gradually 2140
▁worried 2140
▁employee 2139
▁stories 2138
▁Singapore 2136
▁St 2135
▁weeks 2135
▁eventually 2133
▁values 2133
▁Byung 2132
▁causing 2130
▁systems 2130
▁determined 2129
▁regions 2129
▁remains 2129
ations 2128
▁household 2128
end 2126
▁core 2125
▁section 2125
▁historical 2124
▁duty 2122
▁happened 2122
▁feeling 2121
▁greatly 2120
▁Due 2119
▁birth 2119
▁judge 2117
▁spring 2117
▁avoid 2116
▁carbon 2114
▁beauty 2112
▁eating 2112
▁export 2111
▁taxi 2111
▁Hye 2110
▁limit 2110
▁refers 2110
▁pm 2109
jung 2108
▁Food 2106
op 2105
▁express 2103
▁victim 2102
▁suffering 2101
▁lawmakers 2098
▁soccer 2098
▁protect 2097
▁province 2096
ies 2095
ji 2095
▁exercise 2095
▁occur 2092
▁plants 2091
▁surgery 2090
▁lived 2089
ung 2086
▁figure 2084
▁installed 2084
▁connection 2083
▁achieve 2081
▁units 2081
▁academic 2080
ine 2076
ive 2074
▁walk 2074
▁Sejong 2073
▁weak 2073
▁urban 2071
▁Our 2068
▁singer 2068
▁Wave 2067
▁elderly 2067
▁America 2059
▁Pyongyang 2059
▁council 2059
▁object 2058
▁assets 2057
▁clearly 2057
▁focusing 2056
▁forest 2056
▁profits 2056
▁League 2055
▁convenience 2055
▁delayed 2055
▁visitors 2054
▁factory 2053
▁exports 2051
▁brain 2050
▁seats 2050
J 2049
▁concern 2048
▁pension 2048
▁warm 2048
▁myself 2047
▁website 2046
▁serve 2045
▁fan 2044
▁Regarding 2042
▁gift 2042
▁ideas 2042
▁AI 2041
▁green 2039
▁providing 2039
▁vacation 2039
▁clean 2038
▁hydrogen 2038
▁drop 2035
▁suffered 2035
▁1, 2034
▁Jeon 2034
ates 2033
▁tourism 2033
▁independent 2032
▁Roh 2031
▁anyone 2031
▁park 2031
▁volume 2030
▁Anne 2028
▁politics 2027
▁respond 2027
▁Thank 2026
▁learned 2025
▁l 2022
▁shared 2022
▁newly 2021
▁pictures 2020
▁Dynasty 2019
▁agencies 2019
▁career 2019
▁discussed 2018
▁performed 2017
▁rose 2013
▁Sports 2012
▁devices 2010
▁named 2010
▁task 2008
China 2006
▁busy 2005
▁score 2005
hye 2004
▁Currently 2000
▁shot 2000
▁simply 2000
▁distance 1999
▁remarks 1998
san 1996
ur 1996
▁mountain 1996
▁attitude 1995
▁dead 1994
▁entering 1992
▁Ch 1991
▁approach 1990
▁device 1989
▁stone 1989
▁Na 1986
▁normal 1986
▁essential 1985
▁safe 1984
▁designed 1982
▁fair 1982
▁appropriate 1981
▁comprehensive 1981
▁healthy 1981
▁revision 1981
▁buildings 1979
▁lawmaker 1978
▁France 1977
▁flight 1976
▁operate 1976
▁connected 1975
▁ordinary 1975
‘ 1973
▁attached 1969
▁medicine 1965
▁suddenly 1965
▁prison 1964
▁Hospital 1963
▁determine 1963
▁expensive 1963
▁laws 1962
V 1960
▁Safety 1959
▁decrease 1958
▁ended 1957
▁circumstances 1955
▁flow 1955
▁speak 1953
▁fees 1952
▁finally 1949
▁paying 1948
▁Ulsan 1947
▁machine 1947
ors 1946
▁Art 1946
▁Taiwan 1946
▁disaster 1945
▁except 1945
▁recommended 1943
▁blockchain 1942
▁perspective 1942
▁else 1940
▁Recently 1938
▁filled 1936
▁rental 1936
▁Representative 1935
▁stable 1933
▁standing 1931
▁title 1930
▁surface 1929
▁investigate 1928
▁painting 1927
▁join 1925
▁male 1925
▁star 1925
ion 1924
▁protection 1924
▁spend 1922
j 1920
▁actors 1918
▁Games 1917
▁appointed 1916
▁item 1914
▁sometimes 1913
▁tour 1913
▁discount 1911
▁leadership 1910
▁supported 1910
▁affected 1909
▁decreased 1909
▁Un 1908
▁camera 1908
▁capacity 1908
▁patient 1906
▁Google 1905
▁wall 1904
▁Deputy 1903
▁path 1903
▁Complex 1902
▁Welfare 1900
▁stopped 1900
▁smartphone 1899
▁talking 1898
▁Through 1896
▁estimated 1896
▁features 1895
▁Myung 1894
▁dinner 1892
▁nice 1889
▁500 1888
▁300 1886
▁consecutive 1885
▁environmental 1884
jeong 1881
▁index 1881
ig 1880
▁compensation 1879
▁double 1879
▁h 1879
▁audit 1878
▁memory 1878
▁remember 1878
▁Yu 1877
▁b 1877
▁requires 1875
▁Not 1874
ists 1873
▁wearing 1872
▁70 1871
▁Man 1870
▁More 1870
▁attack 1870
▁younger 1870
▁gets 1868
▁offer 1868
▁remaining 1867
▁stated 1866
▁animals 1864
▁stand 1864
▁governor 1863
▁images 1862
out 1861
▁cover 1860
▁file 1860
▁user 1860
▁soldiers 1859
ab 1858
▁falling 1858
▁suggested 1858
▁Movement 1857
This 1854
▁fashion 1854
▁severe 1853
▁competitiveness 1851
▁accepted 1850
▁experienced 1850
▁2019 1849
▁email 1849
▁missing 1849
se 1844
▁asking 1843
▁calls 1842
▁criminal 1841
▁grade 1841
▁meaningful 1837
▁rule 1834
▁Sh 1831
▁dog 1831
▁reporters 1830
00 1829
▁Life 1829
▁Social 1829
▁causes 1829
▁Business 1826
▁aware 1825
▁spent 1825
▁detailed 1824
age 1821
▁assault 1821
▁wear 1821
▁arts 1819
▁album 1818
▁interests 1817
▁functions 1816
▁judgment 1815
▁calling 1814
.- 1813
▁shop 1810
em 1809
▁Mountain 1808
▁desire 1808
▁meters 1808
▁victory 1808
▁electricity 1807
▁sides 1806
▁Soo 1805
▁uses 1804
ay 1803
▁Just 1803
▁officer 1803
▁c 1802
▁factor 1802
▁kept 1801
▁punishment 1799
▁Fair 1798
ry 1797
▁Market 1797
▁interesting 1797
▁ticket 1796
▁decide 1794
▁rules 1792
▁placed 1790
▁Russian 1789
▁gives 1789
▁loan 1789
▁cash 1788
▁deputy 1788
mi 1786
sun 1786
▁diseases 1785
▁Former 1784
▁accused 1784
▁lines 1784
▁regardless 1784
▁Baek 1780
▁interpreted 1779
▁correct 1778
▁shares 1778
▁actions 1777
▁India 1776
▁centers 1776
▁conversation 1773
▁French 1772
▁Motor 1772
▁concerned 1772
▁lecture 1772
▁king 1771
▁seat 1771
▁exact 1770
▁g 1770
▁parking 1770
▁KT 1769
▁manage 1767
▁Hotel 1766
▁allegations 1766
▁stars 1766
▁fishing 1765
▁weekend 1764
▁Could 1761
▁spirit 1760
▁videos 1760
ag 1758
▁alternative 1758
▁apartments 1758
▁disabled 1758
▁thanks 1757
▁Su 1756
▁hosted 1753
est 1752
▁goals 1752
▁nine 1751
ling 1747
ans 1746
he 1744
▁baseball 1744
▁theater 1743
▁Iran 1742
▁blue 1742
▁experiences 1741
▁remain 1740
▁restaurants 1739
▁occurs 1738
▁. 1737
▁infrastructure 1734
▁lose 1728
▁models 1728
▁subjects 1728
▁baby 1727
▁unable 1726
▁dark 1724
▁excessive 1724
▁freedom 1724
▁sentenced 1723
▁f 1720
▁executives 1718
▁waste 1718
▁judges 1717
▁relevant 1716
▁Today 1715
▁couple 1713
▁overcome 1713
▁reflected 1713
▁Seok 1711
▁meal 1710
▁Hae 1709
▁firm 1709
▁ones 1709
▁individuals 1708
▁naturally 1707
▁s 1707
▁colors 1705
▁sex 1702
▁sister 1702
▁argued 1699
.5 1696
▁begin 1696
▁chemical 1696
North 1695
▁topic 1695
▁difficulty 1693
▁Unlike 1692
▁sun 1691
▁British 1689
▁listen 1689
called 1688
▁proceed 1688
▁semiconductor 1687
▁twice 1687
▁comments 1686
▁discussions 1684
▁bottom 1683
▁happen 1683
▁importance 1683
▁minute 1682
jae 1681
▁Al 1681
▁Go 1681
▁debt 1681
▁Employment 1680
▁trading 1679
ha 1678
▁ice 1678
▁improving 1678
▁Where 1677
▁emerged 1677
ous 1676
▁Management 1675
▁subway 1673
▁draw 1672
ter 1669
▁reflect 1669
▁rich 1669
▁Western 1668
▁drawn 1667
▁combined 1666
▁balance 1661
▁revised 1661
▁sentence 1661
▁Tourism 1660
▁Your 1660
▁heads 1660
▁tree 1660
ons 1659
▁vote 1659
▁practical 1657
▁Despite 1656
▁surrounding 1656
▁Geun 1655
▁Jun 1655
▁either 1655
▁Provincial 1654
▁screening 1654
les 1653
▁Human 1653
▁County 1651
▁Last 1651
▁broken 1651
▁isn 1650
▁scale 1648
▁push 1647
▁taxes 1645
▁2016 1643
▁reservation 1643
▁evening 1641
▁favorite 1641
▁implementation 1641
▁sending 1640
▁ranked 1638
▁symptoms 1638
▁Prosecutors 1637
▁explanation 1637
▁Women 1636
▁Middle 1635
▁Peace 1635
▁Insurance 1632
▁conservative 1631
▁powerful 1630
▁rooms 1630
▁orders 1629
chan 1628
▁innovative 1628
▁crimes 1626
▁feelings 1623
▁preparation 1623
▁fight 1622
▁proposal 1622
▁ran 1622
▁fundamental 1620
▁identity 1620
▁Sea 1619
▁articles 1619
▁greater 1619
▁meat 1618
▁prosecutor 1618
▁army 1617
▁checked 1615
▁prize 1615
▁failure 1614
free 1613
▁opportunities 1613
▁seeing 1612
▁award 1611
▁strongly 1608
▁Buddhist 1606
▁Museum 1606
▁debate 1606
▁runs 1605
ut 1604
▁married 1604
▁consideration 1602
▁examination 1602
▁plays 1602
▁track 1602
ac 1601
▁slightly 1601
▁Heung 1597
▁kinds 1597
▁scored 1596
ap 1595
▁fixed 1594
▁selection 1594
▁Hak 1592
sik 1591
▁monthly 1591
▁perfect 1590
▁White 1589
▁upper 1586
▁Joon 1585
▁cross 1585
▁via 1585
cheon 1584
▁Only 1584
▁nationwide 1583
▁suspicion 1583
▁declaration 1582
▁alleged 1581
▁West 1580
▁contest 1578
▁- 1577
▁closely 1577
▁ten 1577
▁trees 1577
eun 1575
▁Did 1575
▁Securities 1575
ary 1574
▁Line 1574
▁putting 1574
▁2, 1572
▁proper 1572
▁lawsuit 1571
▁manner 1571
▁app 1570
▁executive 1570
▁claims 1569
▁composed 1568
▁loved 1568
▁Rep 1566
▁confirm 1565
▁recommend 1565
ize 1563
▁regime 1563
.1 1562
type 1562
▁researcher 1560
▁Koreas 1559
▁drinking 1559
▁haven 1559
less 1558
▁foods 1558
▁presentation 1558
▁signs 1558
%, 1557
▁News 1557
▁appointment 1557
▁drugs 1557
▁foreigners 1557
▁promoted 1557
Y 1555
ens 1554
▁camp 1553
▁names 1553
▁registered 1552
izing 1550
▁teaching 1550
▁add 1549
▁wasn 1549
▁deliver 1548
▁exchanges 1548
▁false 1548
▁fresh 1548
▁Additionally 1547
▁currency 1547
▁mouth 1547
▁southern 1547
▁differences 1546
▁square 1546
▁Ho 1544
▁multiple 1542
▁thoughts 1542
▁fear 1541
ish 1540
▁agricultural 1540
▁damaged 1538
▁author 1537
▁reducing 1537
▁setting 1536
▁straight 1536
▁ch 1535
▁doctor 1535
▁numerous 1535
▁require 1535
▁parliamentary 1533
▁registration 1533
▁newspaper 1531
ai 1530
▁okay 1528
▁town 1528
▁religious 1527
▁concentration 1526
▁suspect 1526
▁degree 1522
▁follows 1522
▁justice 1522
▁bag 1519
▁creative 1519
▁numbers 1518
▁implement 1517
▁Sam 1515
▁gain 1514
▁figures 1513
day 1512
▁existence 1512
▁exist 1511
▁Yi 1510
▁injured 1510
▁nearly 1510
▁Christian 1509
x 1508
▁believes 1508
▁corporation 1508
▁reaction 1508
▁Under 1507
▁channel 1507
▁leads 1507
▁alcohol 1506
▁abuse 1504
▁lawyer 1504
▁zone 1504
▁knew 1503
▁pushed 1503
▁dispute 1502
▁philosophy 1502
▁proportion 1502
▁ready 1500
▁Law 1499
▁Village 1499
▁animal 1499
▁plastic 1499
▁pro 1499
▁committed 1498
▁representatives 1498
▁sky 1498
▁bed 1497
▁net 1495
▁walking 1493
▁2016, 1492
▁Canada 1491
▁save 1491
▁supporting 1491
▁extra 1490
▁worry 1490
ical 1489
▁secured 1489
▁attending 1488
Pop 1487
▁tired 1487
▁achieved 1486
▁listed 1485
▁Bareunmirae 1484
▁continuously 1482
▁display 1482
▁mostly 1482
su 1481
ki 1480
▁Policy 1480
▁mixed 1479
▁Earth 1478
▁Indonesia 1478
▁drive 1478
▁finish 1477
▁previously 1476
ip 1474
▁Joo 1472
▁covered 1471
▁entry 1471
▁select 1469
▁spot 1468
▁appeal 1466
▁exposed 1466
▁island 1466
▁venue 1466
▁musical 1465
▁temporary 1464
▁perform 1463
hwa 1462
▁Energy 1462
▁homes 1462
▁Republic 1461
seong 1455
▁About 1454
▁SNS 1454
▁battle 1454
▁ensure 1454
▁judicial 1454
▁preliminary 1453
▁weapons 1453
▁marriage 1452
way 1451
▁identified 1451
▁mental 1450
▁Buddhism 1449
▁realize 1449
▁attracting 1448
▁helped 1448
▁transactions 1448
▁watched 1448
▁tasks 1447
▁Information 1445
▁treated 1445
▁1,000 1444
▁2017 1444
uk 1441
▁BTS 1441
▁chicken 1440
▁predict 1440
'. 1439
▁YouTube 1439
▁Gu 1438
▁affect 1438
▁deposit 1438
▁passing 1438
▁distributed 1437
▁mark 1436
▁kindergartens 1434
▁multi 1434
▁realized 1434
▁(2 1433
▁cryptocurrency 1433
line 1432
▁collected 1432
▁collection 1432
▁conclusion 1432
▁prime 1432
▁secret 1432
▁Apple 1431
▁band 1431
▁lunch 1431
▁suspended 1431
▁Australia 1430
▁autonomous 1430
▁confidence 1430
▁cool 1430
▁drunk 1430
friendly 1427
▁curriculum 1426
▁hurt 1426
▁refund 1426
ide 1425
▁emerging 1424
▁tickets 1424
ite 1423
wook 1423
▁retirement 1423
▁Considering 1422
▁regulation 1422
▁efficiency 1421
▁enjoyed 1421
▁recognition 1421
▁Chungcheong 1420
▁Mexico 1420
▁ingredients 1420
▁Environment 1418
▁artist 1417
US 1416
ir 1416
law 1416
▁happiness 1416
▁widely 1416
▁maintained 1414
▁researchers 1414
▁applying 1413
▁slow 1413
▁(5 1412
▁advertisements 1412
▁rent 1412
▁snow 1412
▁transaction 1412
▁combination 1411
▁guarantee 1411
▁strike 1411
When 1410
▁Jesus 1410
.2 1409
▁Here 1409
▁directors 1409
▁electronic 1409
▁nations 1409
gi 1408
▁communicate 1406
ins 1404
▁Temple 1404
▁diplomatic 1404
▁grew 1404
▁Olympics 1401
▁cosmetics 1401
▁route 1401
▁waves 1401
▁Economy 1400
▁block 1400
ator 1399
▁coast 1399
▁resolve 1399
20 1398
▁maximum 1397
▁Based 1396
▁promoting 1396
▁elected 1395
▁yourself 1395
▁carefully 1392
▁feature 1392
▁2015 1391
▁worker 1391
chul 1390
▁levels 1390
▁plane 1390
▁farmers 1389
▁Suwon 1388
▁association 1388
▁judged 1388
▁scope 1388
He 1387
▁aimed 1387
▁offered 1387
▁Sohn 1386
▁channels 1386
▁grown 1386
▁initial 1385
▁quantum 1382
▁host 1381
ance 1380
▁finding 1380
▁technical 1380
als 1379
▁bar 1379
▁menu 1379
of 1378
▁engine 1378
jong 1376
▁urgent 1376
▁sample 1375
▁stance 1375
▁sad 1374
▁sharp 1374
▁salary 1373
▁benefit 1372
▁earnest 1371
▁detail 1370
▁statistics 1370
▁Rights 1369
▁suit 1369
ics 1368
▁rapid 1368
▁tourist 1368
▁checking 1367
2, 1366
▁Jeolla 1366
▁challenge 1366
▁de 1366
▁80 1364
▁Kakao 1362
▁license 1362
▁emotions 1361
▁towards 1359
joon 1358
▁demanded 1358
▁(3 1357
▁latest 1357
▁o 1357
▁Another 1356
▁complaints 1356
ically 1355
od 1355
▁familiar 1355
▁officially 1355
▁revolution 1355
yeong 1354
▁Services 1353
▁gained 1353
▁Power 1352
▁accounts 1352
▁advertisement 1352
▁bonds 1352
▁diverse 1352
▁firms 1352
nam 1351
▁linked 1351
%. 1350
▁Shim 1349
▁virtual 1347
▁Cheonan 1345
▁Film 1345
▁debut 1345
▁Gyeongnam 1344
▁recognize 1344
▁Investment 1343
▁oxygen 1343
▁Il 1342
▁Monday 1342
▁Yeong 1342
▁respect 1342
▁suitable 1342
▁particularly 1341
▁boy 1340
▁bright 1340
▁Jo 1339
▁pick 1339
▁birthday 1338
▁invest 1338
▁grades 1337
▁Mi 1336
▁concluded 1336
▁perception 1336
▁conflicts 1335
▁Friday 1334
▁amid 1334
▁awareness 1334
▁foot 1334
▁golf 1334
▁premium 1334
▁unlike 1334
▁attract 1333
▁brands 1333
ik 1332
▁admission 1332
▁agree 1332
▁careful 1332
▁facts 1332
▁IT 1331
▁Supervisory 1331
▁earth 1331
▁lots 1331
.3 1330
▁comfortable 1330
▁gone 1330
▁maintenance 1330
▁master 1330
▁studied 1330
▁losing 1329
▁scandal 1329
Kim 1328
ial 1328
▁civic 1328
~ 1327
▁approved 1327
▁arrive 1325
▁ruled 1324
▁Philippines 1323
▁operations 1323
▁spreading 1323
▁unfair 1323
▁league 1322
▁delicious 1321
▁r 1321
▁separately 1320
▁venture 1320
▁w 1320
▁accordance 1318
▁catch 1317
▁pretty 1317
.4 1316
▁st 1316
ered 1315
▁shipping 1315
.6 1314
▁evaluated 1314
▁obtained 1314
▁suspicions 1314
oc 1313
▁faster 1313
▁mayor 1313
▁strengthening 1313
▁touch 1313
▁fifth 1310
▁mistake 1310
▁page 1310
▁Yeon 1309
▁corruption 1309
▁satisfaction 1309
▁stress 1309
▁Stadium 1308
And 1307
▁allowing 1307
▁border 1306
10 1303
▁Ryu 1303
▁extreme 1303
▁favor 1303
▁Construction 1301
▁purchased 1301
▁Project 1300
kyung 1299
▁drew 1299
▁views 1299
▁warning 1299
▁attracted 1297
▁ecosystem 1296
▁smartphones 1295
▁Before 1294
▁situations 1294
io 1293
run 1293
▁35 1292
▁Meteorological 1292
▁Pohang 1292
▁version 1292
▁dialogue 1290
▁lowest 1290
▁raw 1290
▁soft 1290
class 1289
▁complaint 1289
▁officers 1289
▁Port 1288
▁helps 1288
▁kindergarten 1287
▁gather 1286
.8 1285
▁dropped 1285
▁flowers 1285
▁fuel 1285
▁declared 1283
▁easier 1283
▁scientific 1283
▁buying 1282
▁rating 1280
▁Organization 1279
▁managed 1278
▁recruitment 1278
▁states 1278
▁extent 1277
▁software 1277
▁worse 1276
▁Pompeo 1275
▁wages 1275
jo 1272
▁bio 1272
▁Instead 1271
▁experiment 1271
ge 1270
▁code 1270
▁Chun 1269
▁spending 1267
ard 1266
▁Have 1266
▁critical 1266
▁emotional 1266
all 1265
▁institution 1265
▁integrated 1265
▁cancel 1264
▁argument 1262
▁centered 1262
▁iron 1262
▁starts 1262
ile 1261
▁meetings 1261
▁port 1261
▁recovery 1261
▁talent 1261
▁begun 1260
▁specialized 1260
▁Buddha 1259
▁carrying 1259
▁window 1258
But 1257
▁glass 1256
▁steel 1256
aw 1255
▁2015, 1255
▁Second 1255
▁solar 1255
▁thus 1255
0,000 1254
han 1254
▁Ko 1254
▁Arts 1253
▁negotiation 1253
▁Tokyo 1252
▁forms 1252
▁Promotion 1250
▁Each 1249
▁partner 1249
▁Society 1248
▁damages 1247
▁constantly 1246
▁personality 1246
▁chosen 1245
▁shooting 1245
▁northern 1244
▁Cha 1243
▁afraid 1243
▁leaves 1243
▁successfully 1243
▁turning 1243
▁passengers 1242
ium 1241
▁establishing 1241
▁freely 1241
▁listening 1241
ja 1240
▁Brazil 1240
▁collapse 1240
▁expert 1239
▁originally 1239
▁particles 1239
▁solid 1239
▁voices 1239
▁disappeared 1238
▁notice 1238
▁residential 1238
▁competitive 1237
▁stability 1236
▁begins 1235
▁Hallyu 1234
▁beer 1234
1, 1233
ification 1233
▁Bae 1233
▁founded 1233
▁gender 1233
▁invited 1233
▁regard 1233
▁Company 1232
▁steps 1232
▁10,000 1230
▁hospitals 1230
▁reporter 1230
▁conducting 1229
▁offices 1228
▁shareholders 1228
▁facing 1227
▁n 1227
▁rare 1227
▁sentiment 1226
▁Changwon 1225
▁Saturday 1225
ure 1223
▁charged 1223
▁procedures 1223
▁seek 1223
▁inevitable 1222
▁sweet 1222
▁briefing 1219
▁2017, 1218
▁dishes 1216
▁sick 1216
▁Bang 1215
▁pop 1215
▁tea 1215
ful 1214
▁Big 1214
▁containing 1214
▁Washington 1213
▁opposed 1213
▁positions 1213
▁regarded 1213
▁petition 1212
▁technique 1212
▁submit 1211
▁talked 1210
▁Bo 1208
50 1207
▁asset 1207
▁bigger 1207
▁demands 1207
▁replaced 1207
▁crucial 1206
▁k 1206
▁Ju 1204
▁Yun 1204
▁concentrated 1204
▁dangerous 1204
▁objects 1204
▁processing 1204
.7 1203
▁accurate 1203
▁handle 1202
▁sudden 1202
▁Medical 1201
▁Two 1201
▁rejected 1201
▁river 1201
▁attempt 1200
▁fraud 1200
▁ministry 1200
▁procedure 1200
▁roads 1199
▁wedding 1199
▁shops 1198
▁Gangneung 1197
▁football 1197
▁hundreds 1197
▁pattern 1197
jun 1196
▁trends 1196
▁applications 1195
▁challenging 1195
▁troops 1195
▁Division 1194
▁messages 1194
oriented 1193
▁extremely 1193
▁primary 1193
▁Sunday 1191
▁violation 1191
▁Army 1189
▁lectures 1189
km 1188
▁Furthermore 1188
▁promised 1188
▁reporting 1188
▁San 1187
▁upon 1187
▁Ye 1186
▁race 1186
▁chose 1185
▁expects 1185
▁Would 1184
ver 1183
▁investigated 1183
▁losses 1183
▁strange 1182
▁Academy 1181
▁sp 1181
soon 1179
▁Beijing 1179
▁cooking 1179
▁empty 1178
▁replace 1178
▁tests 1178
▁wonder 1177
▁fit 1176
▁understood 1176
▁strategies 1175
▁suspension 1175
▁Si 1174
▁forget 1174
▁composition 1173
▁sectors 1173
▁Fire 1172
▁responded 1172
▁suffer 1172
▁assessment 1171
▁finance 1170
▁guide 1170
▁phase 1170
0 1169
▁acts 1168
▁continuing 1168
▁feels 1168
▁handed 1168
▁remained 1168
▁Grand 1167
▁yellow 1167
▁limitations 1166
▁Hyung 1165
▁blocked 1165
▁memories 1165
▁shoes 1165
▁surprised 1165
bo 1164
▁j 1164
▁closer 1163
▁hike 1163
▁length 1163
▁meantime 1163
▁tariffs 1163
▁suicide 1162
▁universe 1161
▁Twitter 1160
▁commission 1160
▁contribute 1160
▁equipped 1160
▁height 1160
▁tears 1160
▁Until 1159
▁climate 1159
▁die 1159
▁flower 1159
▁resolution 1159
▁typhoon 1159
▁aid 1158
▁faith 1157
▁literature 1157
▁reply 1157
▁sources 1157
4, 1156
▁ICT 1156
▁Motors 1156
▁novel 1156
▁unusual 1156
▁Music 1155
▁farming 1155
▁hidden 1155
.9 1154
▁Yeouido 1154
▁enterprises 1154
▁consists 1153
▁unification 1153
off 1152
▁whom 1152
é 1151
▁Cheongju 1151
▁telecommun 1151
▁EU 1149
▁whenever 1149
▁Following 1148
▁resolved 1148
▁Hanwha 1145
▁gate 1145
▁investments 1145
▁repeatedly 1144
ib 1143
▁analyze 1143
▁bacteria 1143
▁delay 1143
▁category 1142
▁sluggish 1142
ments 1141
▁outstanding 1140
style 1139
▁agenda 1139
▁properties 1139
▁prosecutors 1139
sa 1138
▁Team 1138
▁presence 1138
▁Small 1137
sang 1136
▁Gyeongsangnam 1136
▁context 1136
▁excluded 1136
▁hole 1135
▁interpretation 1135
▁repeated 1134
▁Declaration 1133
▁applicants 1133
▁deeply 1133
▁Dr 1132
▁cards 1132
▁prior 1132
▁quantity 1132
▁transferred 1132
▁visual 1132
▁sh 1131
▁temple 1131
▁canceled 1130
▁convenient 1130
▁identify 1130
▁opposite 1130
▁smile 1130
Korea 1128
▁Youth 1127
▁rural 1127
▁sit 1127
▁constant 1126
▁angry 1125
▁mission 1125
▁cycle 1124
▁offering 1124
▁counseling 1123
▁enhance 1123
▁outcome 1123
▁corporations 1122
▁injury 1122
▁vision 1122
▁mathematics 1121
▁voting 1120
▁Civil 1119
▁adults 1119
▁Actor 1118
▁Goyang 1118
▁Soon 1118
▁reasonable 1118
▁gaining 1117
▁piece 1117
▁storage 1117
ud 1116
▁refer 1116
ions 1115
▁error 1115
▁paintings 1115
▁sharply 1115
▁strategic 1115
▁Children 1114
▁supports 1114
▁aging 1113
ier 1112
og 1112
▁super 1112
▁Wednesday 1111
▁collect 1111
▁farm 1111
▁trouble 1111
▁Especially 1110
▁mail 1110
— 1109
▁Kwang 1109
land 1108
▁Spain 1108
▁larger 1108
▁penalty 1108
ative 1106
income 1106
▁contracts 1106
▁escape 1106
▁tool 1106
ob 1105
▁Global 1105
▁Saudi 1105
▁Red 1104
▁courses 1104
▁element 1104
▁imported 1104
▁cooperate 1102
▁filming 1102
▁Vietnamese 1101
yang 1099
▁protest 1099
▁anxiety 1098
▁priority 1098
▁instance 1097
▁resistance 1097
You 1096
▁Thailand 1096
▁earthquake 1096
▁Christmas 1095
▁colonial 1095
▁exactly 1095
▁introducing 1095
▁3, 1094
▁contain 1094
▁ease 1094
▁Every 1093
▁Green 1093
▁Her 1093
▁aircraft 1093
▁remove 1092
▁Attention 1091
▁DNA 1091
▁extended 1091
▁bills 1090
▁institutional 1090
5, 1089
▁ancient 1089
▁bodies 1089
▁criteria 1089
▁letters 1089
▁wins 1089
▁Award 1088
▁Engineering 1088
▁typical 1088
▁effectively 1087
▁hiring 1087
▁mood 1087
▁rock 1087
▁royal 1087
▁internet 1086
▁moves 1086
ee 1085
▁Independence 1085
▁Revolution 1085
▁stood 1085
▁Jeollanam 1084
▁Workers 1084
▁audiences 1084
▁massive 1084
▁peak 1084
▁returning 1084
▁stations 1084
art 1083
po 1083
▁dogs 1083
▁(1 1082
▁Gyeongbuk 1081
▁miss 1081
▁settlement 1081
▁relationships 1080
▁singing 1080
▁feet 1079
▁physics 1079
ty 1078
▁fierce 1078
▁writer 1078
▁(4 1076
▁discrimination 1076
▁quick 1075
▁continuous 1074
▁idol 1074
▁wake 1074
joo 1073
▁flexible 1073
▁repair 1073
▁tools 1073
▁resulting 1072
▁species 1072
cheol 1071
▁fill 1071
▁outdoor 1071
▁ranking 1071
▁Thanks 1069
▁probably 1069
▁referred 1068
ec 1067
▁map 1067
▁rescue 1067
▁sub 1066
▁System 1065
▁cat 1065
▁murder 1065
▁traveling 1065
ets 1063
▁requirements 1063
per 1060
▁Industries 1060
▁therefore 1060
▁2014 1059
▁acid 1059
▁milk 1059
▁portion 1059
▁purchasing 1059
▁web 1059
▁examine 1058
▁speaking 1058
▁Huawei 1057
▁Paris 1057
▁generally 1057
▁honor 1057
▁singers 1057
▁examples 1056
▁semester 1056
▁solved 1056
▁KBS 1055
▁Support 1055
▁medal 1055
▁separated 1055
be 1053
ups 1053
▁involving 1053
▁capabilities 1052
3, 1051
▁inform 1051
▁answers 1050
▁certificate 1050
▁contribution 1050
▁eco 1050
▁tons 1050
▁logic 1049
▁32 1048
▁components 1048
▁formation 1048
▁succeeded 1048
0. 1047
ill 1047
ow 1047
▁package 1047
te 1046
▁confirmation 1046
▁contributed 1046
▁spokesman 1046
▁votes 1046
▁John 1045
▁Naver 1045
▁processes 1045
▁recommendation 1045
▁corner 1044
▁downtown 1044
▁dry 1044
▁episode 1044
▁funeral 1044
▁genre 1044
▁pieces 1044
▁substance 1044
▁v 1044
▁100,000 1043
▁automatically 1043
▁dollar 1043
▁rally 1043
▁Three 1042
▁Real 1041
▁exceeded 1041
▁professors 1041
40 1040
▁Once 1040
▁ad 1040
▁opponent 1039
▁removed 1039
ally 1038
▁Me 1038
▁SMEs 1038
▁Strategy 1038
ub 1037
▁drivers 1037
▁engaged 1037
▁library 1036
we 1035
▁pushing 1035
▁turns 1035
ts 1034
▁payments 1033
▁tournament 1033
▁aspects 1032
▁fake 1032
-1 1031
▁Board 1031
▁observed 1031
▁stronger 1031
▁College 1030
▁Fund 1030
▁Those 1030
▁bond 1030
▁producing 1030
▁useful 1030
ting 1029
▁Ilbo 1029
▁battery 1029
▁consultation 1029
▁creates 1028
▁link 1028
▁phones 1028
▁south 1028
▁unless 1028
▁38 1026
▁De 1026
▁friendly 1026
▁guess 1026
▁sitting 1026
▁somewhat 1026
ain 1025
▁decisions 1025
▁exclusive 1025
▁gathering 1025
▁Like 1024
▁prevention 1024
▁reveal 1023
▁ex 1022
▁Marine 1021
▁principles 1021
▁ride 1021
▁Malaysia 1020
▁athletes 1020
▁offers 1020
▁cafe 1018
▁explains 1018
▁risks 1018
▁Bong 1017
▁fallen 1017
▁molecules 1017
▁accumulated 1016
▁dispatched 1016
▁helping 1016
▁stadium 1015
oo 1014
▁aims 1013
▁forecast 1013
▁strengthened 1013
▁struggle 1013
▁Experts 1012
▁engineering 1012
myung 1011
▁described 1011
▁relief 1011
▁soup 1011
jeon 1009
▁fruit 1007
▁interior 1007
▁staying 1007
▁33 1006
▁Amid 1006
▁Koo 1006
▁Pension 1005
▁smaller 1005
▁spaces 1005
▁cup 1004
▁jointly 1004
▁seriously 1004
je 1002
▁Be 1002
▁metal 1002
▁radio 1002
▁unexpected 1002
▁150 1001
▁joy 1001
▁readers 1001
▁electrons 1000
▁maintaining 1000
▁stages 1000
are 999
making 999
na 999
▁Im 999
▁note 999
▁thank 999
▁urged 999
▁usage 999
▁Local 998
▁uncomfortable 998
▁upcoming 998
▁defined 997
bong 996
▁momentum 996
▁Earlier 995
▁generations 995
▁nervous 994
▁clinical 993
▁memorial 993
▁happens 992
▁patterns 992
▁promise 992
▁recording 992
▁refused 992
▁revenue 992
▁90 991
▁democracy 991
sook 990
▁Hanoi 990
▁acquisition 990
▁clothing 990
8, 989
ence 989
▁detected 989
▁kilometers 989
like 988
▁meals 988
▁movements 988
▁Miss 987
▁contrast 987
▁seeking 987
▁treat 987
▁vulnerable 987
employed 986
▁(6 986
▁Singer 986
▁chain 985
▁manipulation 985
istic 984
CEO 983
▁Both 983
▁Intelligence 983
▁actress 983
9, 982
by 982
▁customs 982
▁signing 981
-2 980
av 980
▁Military 980
▁adult 980
▁copy 980
▁fat 980
▁holidays 980
▁usual 980
hour 979
if 979
▁Moo 979
▁compete 979
▁favorable 979
▁breaking 978
▁north 978
▁comment 977
▁psychological 977
▁percentage 976
▁substances 976
▁trials 976
▁worst 976
▁encourage 975
oh 974
▁appreciate 974
▁narrow 974
▁thousands 974
▁unknown 974
7, 973
▁Amazon 973
▁Gyeongsangbuk 973
▁Street 973
My 972
▁atoms 972
▁wild 972
eup 971
ise 971
▁Tax 971
▁attempted 971
▁grand 971
▁verification 970
,' 969
▁Re 969
▁disclosure 969
▁missile 969
▁religion 969
▁sensitive 969
ou 968
▁Bridge 968
▁Turkey 968
▁aired 968
▁collapsed 968
▁consensus 968
▁invested 968
▁prefer 968
▁replacement 968
▁visible 967
▁anymore 966
▁contained 966
▁museum 966
ast 964
▁adopted 964
▁solutions 964
▁counter 963
▁fl 963
▁keeping 963
▁motion 963
site 962
▁Chuseok 962
▁journalism 962
▁securities 962
▁teach 962
▁unveiled 962
ce 961
▁34 961
▁Shinhan 961
▁employed 960
▁winner 960
▁impression 959
▁solo 959
mm 958
▁Gyeong 958
▁steadily 958
▁techniques 958
ach 957
▁classified 957
▁kitchen 957
▁resident 957
▁Hyo 956
▁math 956
kyu 955
▁Store 955
▁absence 954
▁beat 954
▁coal 954
bin 953
▁east 953
▁400 952
▁mall 952
ex 951
▁securing 951
▁Road 950
▁announce 950
▁passion 950
▁teenagers 950
▁west 950
pyo 949
▁shareholder 949
▁intended 948
▁algorithm 947
▁comfort 947
▁Times 946
▁expressing 946
▁ratings 946
▁generated 945
its 944
▁Goryeo 944
▁certification 944
▁dish 944
iv 943
▁bridge 943
▁cited 943
▁wouldn 943
ue 942
▁Unification 942
▁cutting 940
▁faced 940
▁inconvenience 940
known 939
▁Jongno 939
▁completion 939
▁diagnosis 939
▁everyday 939
▁graduate 939
▁Command 938
▁Myeong 938
▁departments 938
let 937
▁dreams 937
▁extension 937
▁survival 937
▁analyzing 936
▁supposed 936
▁Forest 935
▁Such 935
▁Who 935
▁protein 935
▁serving 935
▁respondents 934
▁donation 933
▁slowly 933
▁tension 933
▁Innovation 932
▁advice 932
▁matters 932
▁thoroughly 932
▁36 931
▁Entertainment 931
▁secondary 931
▁chat 930
▁matches 930
▁concrete 929
▁inevitably 929
▁martial 929
▁mom 929
▁aged 928
▁amendment 928
▁cake 928
▁signal 928
ick 927
red 927
▁Seongnam 927
▁cloud 927
▁nor 927
▁shall 926
▁Love 925
ov 924
▁keen 924
▁passenger 924
▁pork 924
▁Free 923
▁Girls 923
▁computers 923
▁holds 923
▁knowing 923
▁robot 923
▁Citizens 922
▁collaboration 922
ade 921
▁Italy 921
▁consulting 921
▁enjoying 921
▁frequent 921
▁installation 921
▁kimchi 921
▁noise 921
▁purposes 921
▁regulatory 921
▁roof 921
jang 920
▁Analysts 920
▁curious 920
▁objective 920
▁2014, 919
▁Yongsan 919
▁agent 919
▁characteristic 919
▁complexes 919
▁destination 919
▁insisted 919
▁districts 918
▁lease 918
▁ships 918
▁1.5 917
▁constructed 917
▁Seocho 916
▁blind 916
▁complicated 916
▁luxury 916
▁scenes 916
▁Next 915
▁destroyed 915
ell 914
quality 914
▁37 914
▁guidelines 914
▁patent 914
▁flag 913
▁neck 913
▁serves 913
▁shock 913
▁visits 913
▁temperatures 912
▁Given 911
▁Post 911
▁admitted 911
▁client 911
▁flat 911
▁inner 911
▁underground 911
6, 910
[ 910
ron 910
▁Which 910
▁falls 910
▁knows 910
▁weapon 910
▁England 909
▁variables 909
] 908
▁Kia 908
▁London 908
▁boat 908
▁monitoring 908
ne 907
▁buses 907
▁cl 907
▁obtain 907
▁villages 907
▁Doosan 906
▁Mrs 906
▁frame 906
▁imposed 906
▁restrictions 906
▁cooperative 905
▁peninsula 905
▁concepts 904
▁reflects 904
▁sc 903
▁customized 902
▁mis 901
▁operators 901
▁smoke 901
▁Period 900
▁insufficient 900
▁spicy 900
▁stayed 900
▁wine 900
▁Super 899
▁controversial 899
▁county 899
▁exists 899
ants 898
ities 898
▁import 898
▁Ar 897
▁Galaxy 897
▁pursue 897
▁cast 896
▁glad 896
▁kids 896
▁Black 895
▁Star 895
▁absolute 895
▁dioxide 895
▁disciplinary 895
▁managers 895
▁scientists 895
ice 894
mail 894
▁cleaning 894
▁equal 894
▁pure 894
▁mutual 893
yeol 892
▁beings 892
▁earnings 891
▁withdrawal 891
ks 890
ning 890
▁deadline 890
Park 889
▁assembly 889
▁Sin 888
▁Sp 888
▁permanent 888
▁transition 888
aged 887
ass 887
face 887
hip 887
However 886
geun 886
▁adjust 886
▁moon 886
dae 885
▁artistic 885
▁autumn 885
▁connect 885
▁liquid 885
ton 884
▁Abe 884
▁Family 884
▁Jeonju 884
▁demonstration 884
▁tend 884
▁0. 883
▁Le 883
▁fighting 883
▁refugees 883
ication 882
▁informed 882
▁willingness 882
▁Mar 881
▁guests 881
▁indicators 881
▁managing 881
▁Mike 880
▁arranged 880
▁displayed 880
▁symbol 880
▁faces 879
hyeon 878
▁helpful 878
▁sugar 878
▁supplies 878
generation 877
▁Heo 877
▁imports 877
ars 876
person 876
▁Constitutional 876
▁MBC 876
▁Sa 876
▁institute 876
▁owned 876
▁Chae 875
▁collective 874
▁hearts 874
▁lowered 874
▁permission 874
▁relation 874
ina 873
▁liked 873
▁noted 873
mo 872
▁Sewol 872
▁girls 871
▁missed 871
▁regret 871
gil 870
▁Article 870
▁citizen 870
▁Southeast 869
▁studio 869
▁UK 868
▁smooth 868
▁Asiana 867
▁Olympic 867
▁anger 867
▁marine 867
▁sounds 867
▁Da 866
▁ends 865
▁aspect 864
ler 863
▁PC 863
▁bread 863
▁illegally 863
▁resignation 863
▁risen 863
▁subsidiary 863
▁sufficient 863
▁assaulted 862
▁railway 862
ye 861
▁Joint 861
▁Okay 861
▁boss 861
▁cream 861
▁genetic 859
▁considerable 858
▁denied 858
▁diet 858
▁fail 858
▁thorough 858
▁Car 857
▁solving 857
ters 856
▁Chosun 856
▁Prize 856
shaped 855
▁Africa 855
▁Summit 855
▁Water 855
▁charm 855
▁supplied 855
▁45 854
▁guest 854
ology 853
▁Indian 853
▁answered 853
▁bear 853
▁smell 853
She 852
▁65 852
▁Am 852
▁boost 852
▁walls 852
▁killing 851
▁leg 851
how 850
▁Thursday 850
▁charging 850
▁dedicated 850
▁harmony 850
▁threat 850
▁rises 849
▁subscription 849
ale 848
▁bereaved 848
▁satisfied 848
▁subscribers 848
▁harassment 847
▁Or 846
▁beach 846
▁forum 846
▁settled 846
▁Looking 845
▁curiosity 845
▁defeat 845
▁partners 845
▁performing 845
ability 844
▁Starting 844
▁auto 844
▁boyfriend 844
▁ban 843
▁statements 843
▁influenced 842
▁politicians 842
▁survive 842
ore 841
▁0 841
▁Jeonnam 841
▁ate 841
▁minor 841
▁origin 841
▁Rather 840
▁Square 840
▁monk 840
▁install 839
▁pollution 839
▁option 838
▁streets 838
▁variable 838
▁Great 837
▁pleasant 837
▁surprise 837
▁2016. 836
▁Exchange 836
▁claiming 836
▁hate 836
▁plate 836
▁Election 835
▁apology 835
▁folk 835
▁principal 835
▁clubs 834
▁networks 834
▁precious 834
▁suggests 834
▁viewed 834
sh 833
▁Spanish 833
▁component 833
▁disputes 833
▁recover 833
der 832
▁accurately 832
▁prove 832
▁Head 831
▁formal 831
▁garden 831
▁ideal 831
▁television 831
▁2013 829
▁Inter 829
▁belief 829
▁tradition 829
▁Above 828
▁register 828
▁stake 828
▁swimming 828
▁wealth 828
▁joining 827
▁recession 827
▁struggling 827
ug 826
▁Bible 826
▁achievements 826
▁closing 826
▁guard 826
house 825
▁technological 825
▁valuable 825
ual 824
▁churches 824
▁intense 824
▁shortly 824
▁2000 823
▁Jakarta 823
▁investigations 823
co 822
els 822
▁acquired 822
▁legislation 822
▁timing 822
▁violating 822
▁Does 821
▁aim 821
▁dress 821
▁magazine 821
▁sets 821
▁volunteer 821
▁Future 820
▁earned 820
▁mountains 820
Japanese 819
▁UN 819
▁Will 819
▁alliance 819
▁excited 819
▁residence 819
▁significance 819
Since 818
so 818
▁Gwang 818
▁expressions 818
▁girlfriend 818
ke 817
▁Card 817
▁Its 817
▁citing 817
▁reviews 817
▁willing 817
seo 816
▁Drug 816
▁accompanied 816
▁195 815
▁Kookmin 815
▁Senior 815
▁Uzbekistan 815
▁communities 815
▁represent 815
▁western 815
▁Tuesday 814
▁circle 814
▁pace 814
▁annually 813
▁factories 813
▁heating 813
▁largely 813
▁disclosed 812
▁Pastor 811
▁depends 811
▁intellectual 810
▁neighbors 809
▁rumors 809
▁Agriculture 808
▁Major 808
▁gun 808
▁amounts 807
▁preventing 807
▁thick 807
eng 806
▁Chungnam 806
▁dismissed 806
▁impressive 806
▁structural 806
iss 805
▁4, 805
▁POSCO 805
▁Seon 805
▁expectation 805
▁provinces 805
ash 804
▁anywhere 804
▁framework 804
▁scores 804
▁10% 803
▁Thus 803
▁fiscal 803
▁organic 803
▁practices 803
▁ID 802
▁ownership 802
▁silver 802
▁sl 802
▁textbooks 801
▁wooden 801
about 800
▁cook 800
▁sexually 800
go 799
ures 799
▁confident 799
▁proud 799
▁stomach 799
Japan 798
ible 798
▁Bar 798
chun 797
▁CCTV 797
▁awards 797
▁duties 797
▁succeed 797
▁Heritage 796
▁Myanmar 796
▁Palace 796
▁soil 796
ering 795
fully 795
▁2017. 795
▁circles 795
▁extend 795
▁festivals 795
ents 794
no 794
▁Third 794
▁shift 794
▁Fisheries 793
▁danger 793
▁dealing 793
▁locals 793
▁Nietzsche 792
our 791
▁Je 791
▁marked 791
▁wood 791
▁landscape 790
▁sauce 790
▁Club 789
▁Wang 789
▁chemistry 789
▁confusion 789
▁requests 789
▁sixth 789
▁Good 788
▁classical 788
▁uniform 788
▁Airlines 787
▁Forum 787
▁discussing 787
▁vegetables 787
▁39 786
▁Students 786
▁atomic 786
▁categories 786
▁harmful 786
▁pilot 786
▁argue 785
▁command 785
▁row 785
▁winds 785
▁pitcher 784
▁Congress 783
▁adjustment 783
▁palace 783
▁restructuring 783
int 782
▁Force 782
▁awarded 782
▁bound 782
▁achievement 781
▁gene 781
▁noodles 781
▁pharmaceutical 781
▁taught 781
▁5, 780
▁Theater 780
▁Unions 780
▁grounds 780
▁invoice 780
▁merchants 780
▁slowdown 780
suk 779
▁Eui 779
▁liberal 779
▁portal 779
▁reaching 779
▁scholars 779
▁sleeping 779
▁tendency 779
ack 778
▁convention 778
▁mathematical 778
▁resource 778
ich 777
▁Heavy 777
Although 776
▁inauguration 776
▁newspapers 776
▁represents 776
ory 775
▁Investigation 775
▁characterized 775
▁guidance 775
▁millions 775
▁spoke 775
▁Media 774
▁bl 774
▁estimate 774
▁offline 774
▁resulted 774
▁2013, 773
▁Ja 773
▁makeup 773
▁realistic 773
▁reference 773
At 772
▁Branch 772
▁Chan 772
▁Other 772
▁Th 772
▁academy 772
▁safely 772
▁servants 772
▁truck 772
▁Ok 771
▁mine 771
▁Corp 770
▁heated 770
What 769
▁booked 769
▁legs 769
▁machines 769
▁platforms 769
▁thin 769
chang 768
▁Byeong 768
▁grows 768
▁initially 768
▁dementia 767
▁equity 767
▁guilty 767
▁neighborhood 767
▁reign 767
▁saved 767
ake 766
▁2012 766
▁Geum 766
▁Shanghai 766
▁pastor 766
▁Mun 765
▁consciousness 765
▁posts 765
▁responses 765
▁Gyeongju 764
▁donated 764
▁transport 764
▁unlikely 764
> 763
▁hometown 763
▁integration 763
▁mandatory 763
ators 762
bi 762
▁Four 762
▁efficient 762
▁execution 762
▁livestock 762
▁Conference 761
▁demanding 761
▁cheap 760
▁connecting 760
▁attempts 758
▁fever 758
hun 757
▁ministries 757
gr 756
ley 756
▁Nak 756
▁anticipated 756
▁ferry 756
▁grandmother 756
▁Town 755
▁cable 755
▁deficit 755
▁enforcement 755
▁50% 754
▁Show 754
▁earn 754
▁suggest 754
ane 753
az 753
▁cultures 753
▁restoration 753
oy 752
▁Elementary 752
▁bringing 752
▁frequency 752
ess 751
▁Housing 750
▁SBS 750
▁shipment 750
▁Presidential 749
▁Silla 749
▁banking 749
▁comparison 749
▁increasingly 749
▁root 749
▁talented 749
▁collecting 748
▁kill 748
▁raises 748
▁supporters 748
▁therapy 748
ase 747
▁Rural 747
▁guaranteed 747
▁Home 746
▁plenary 746
▁samples 746
%) 745
After 745
me 744
▁Cooperation 744
▁affiliates 744
▁virtually 744
ging 743
men 743
▁Awards 743
▁Headquarters 743
▁Various 743
▁challenges 743
▁effectiveness 743
▁iPhone 743
▁reconstruction 743
▁virus 743
▁amazing 742
ari 741
▁Brexit 741
▁Pro 741
▁foster 741
▁gravity 741
▁par 741
iz 740
▁attractive 740
ines 739
ma 739
▁Coast 739
▁Doo 739
▁Hana 739
▁selecting 739
▁separation 739
▁stands 739
▁hitting 738
▁tariff 738
▁Yeosu 737
▁captured 737
▁routes 737
80 736
▁advantages 736
▁celebrities 736
▁examined 736
▁passes 736
gyu 735
▁calm 735
▁processed 735
▁renewable 735
▁robots 735
▁y 735
guk 734
hyuk 734
win 734
▁1990 734
▁Commerce 734
▁Hello 734
atic 733
ranking 733
ui 733
▁Instagram 733
▁Winter 733
▁celebrate 733
▁chart 733
▁immediate 733
▁operator 733
▁statue 733
▁tied 733
▁Bu 732
▁titled 732
▁1980 731
▁Prosecutor 731
▁seconds 731
▁sought 731
▁tens 731
Chairman 730
▁Celsius 730
▁Judge 730
▁hired 730
▁ideology 730
▁structures 730
▁confrontation 729
▁cr 729
▁measurement 729
▁Everyone 728
▁easing 728
▁journalists 728
▁ministers 728
ort 727
▁Deok 727
▁arms 727
▁contrary 727
▁shouldn 727
< 726
President 726
▁Cl 726
▁FC 726
▁Jinju 726
▁chances 726
▁gifts 726
▁manufacturers 726
▁reflecting 726
▁engage 725
▁harder 725
▁193 724
▁Well 724
▁savings 724
ages 723
standing 723
▁Jeonbuk 723
▁Sweden 723
▁atom 723
▁marks 723
▁papers 723
▁quiet 723
▁cancellation 722
▁classroom 722
▁doctors 722
▁herself 722
▁reviewed 722
▁temporarily 722
▁Pacific 721
▁Sc 721
▁utilize 721
▁utilizing 721
clock 720
▁2015. 720
▁Gang 720
▁Maritime 720
▁greatest 720
ber 719
▁apologize 719
▁receipt 719
▁strict 719
▁tr 719
2. 718
fledged 718
▁Hollywood 718
▁daycare 718
▁se 718
▁workplace 718
iting 717
tech 717
▁aren 717
▁inning 717
▁phenomena 717
▁violations 717
▁voluntarily 717
▁withdraw 717
▁48 716
▁Ltd 716
▁championship 716
▁draft 716
▁layer 716
▁tastes 716
▁tough 716
Even 715
ably 715
pro 715
▁abandoned 715
▁consent 715
▁expense 715
▁interviews 715
▁lights 715
▁pride 715
▁progressive 715
ats 714
▁rep 714
▁simultaneously 714
▁violated 714
act 713
ere 713
▁Ham 713
▁Over 713
▁Panmunjom 713
▁ordinance 712
▁Communication 711
▁concentrate 711
▁smoking 711
▁welcome 711
▁43 710
▁Federal 710
▁exposure 710
▁horse 710
▁meant 710
▁passage 710
ori 709
▁2018, 709
▁Britain 709
▁crowded 709
▁deceased 709
▁impose 709
▁speaker 709
ino 708
▁basketball 708
▁button 708
▁beef 707
▁experiencing 707
▁nose 707
▁translation 707
qu 706
▁42 706
▁branches 706
▁disappear 706
▁fires 706
▁pl 706
▁tight 706
▁Democracy 705
▁Eastern 705
▁automobile 705
▁cute 705
▁discovery 705
▁en 705
▁exit 705
▁hasn 705
▁semiconductors 705
▁vessels 705
▁breakfast 704
▁enters 704
▁printing 704
▁warned 704
.' 703
▁55 703
▁Open 703
▁Studies 703
▁directed 703
▁handling 703
▁lies 703
▁opposing 703
ality 702
ner 702
ted 702
▁20% 702
▁Paul 702
▁colorful 702
▁subsidies 702
▁directions 701
▁essence 701
▁evil 701
▁franchise 701
▁salt 701
▁600 700
▁Gumi 700
▁exceed 700
▁producer 700
ind 699
ose 699
▁Songpa 699
▁corresponding 699
▁truly 699
bak 698
▁controlled 698
▁convergence 698
▁flavor 698
▁leisure 698
▁operates 698
▁praised 698
▁startups 698
▁thousand 698
▁transformed 698
▁Football 697
▁powder 697
▁radiation 697
▁roles 697
▁targeting 697
▁Ambassador 696
▁represented 696
▁scenery 696
▁walked 696
▁FSS 695
▁Their 695
▁reviewing 695
▁smoothly 695
▁telling 695
▁unclear 695
▁Soviet 694
▁findings 694
▁mistakes 694
▁unions 694
lo 693
▁Actress 693
▁Daewoo 693
▁affiliated 693
▁voters 693
wan 692
▁2020 692
▁Tr 692
▁assistance 692
▁ending 692
▁intervention 692
▁reactions 692
month 691
▁CJ 691
▁judiciary 691
▁membership 691
▁obvious 691
.0 690
▁2012, 690
▁Lunar 690
▁rec 690
▁192 689
▁Chungcheongnam 689
▁finishing 689
▁functional 689
▁illness 689
▁detention 688
▁BMW 687
▁Leader 687
▁Pay 687
▁Regional 687
▁bathroom 687
▁drinks 687
▁driven 687
▁finals 687
▁institutes 687
▁phrase 687
▁pool 687
▁balanced 686
▁fewer 686
▁worldwide 686
▁Woori 685
▁exchanged 685
▁limits 685
▁representation 685
▁seniors 685
ological 684
▁Finally 684
▁consistent 684
▁keeps 684
▁pleasure 684
▁proportional 684
▁talents 684
res 683
“ 683
▁Ge 683
▁assumed 683
▁desired 683
▁picked 683
▁tells 683
▁calculated 682
▁recall 682
ara 681
▁animation 681
▁declined 681
▁desk 681
▁fly 681
▁founder 681
▁governance 681
▁indicates 681
▁panel 681
▁superior 681
▁tonight 681
▁zero 681
15 680
▁Bio 680
▁bi 680
▁expertise 680
▁feasibility 680
▁likes 680
▁succession 680
-19 679
ications 679
ms 679
▁dominated 679
▁nursing 679
▁reputation 679
▁Gong 678
▁Ne 678
▁Tour 678
▁hopes 678
▁quarters 678
ire 677
son 677
▁Daily 677
▁apart 677
▁buried 677
▁laugh 677
▁topics 677
▁unfamiliar 677
ged 676
▁disabilities 676
▁generate 676
▁Cheol 675
▁cargo 675
▁headed 675
▁returns 675
▁stem 675
▁observation 674
▁reverse 674
▁split 674
oon 673
▁Taiwanese 673
▁bags 673
▁calculation 673
▁combining 673
▁lyrics 673
▁organize 673
▁stepped 673
▁unemployment 673
▁Agreement 672
▁convey 672
▁fix 672
▁options 672
▁targets 672
▁Ad 671
▁Sim 671
▁hire 671
▁ar 670
▁buyers 670
▁exhibitions 670
▁logistics 670
▁sight 670
ians 669
▁definition 669
▁funding 669
▁investing 669
▁electron 668
▁lady 668
▁measured 668
beom 667
▁proof 667
ph 666
▁196 666
▁Confederation 666
▁normally 666
▁pray 666
Ch 665
▁Br 665
▁Meanwhile 665
▁Mongolia 665
▁departure 665
▁cameras 664
▁consistently 664
▁hits 664
▁productivity 664
ru 663
▁Compared 663
▁crew 663
▁speculation 663
▁theories 663
air 662
▁graduation 662
▁native 662
▁sat 662
▁Smart 661
▁countermeasures 661
▁focuses 661
▁lay 661
60 660
▁alive 660
▁architecture 660
▁conventional 660
▁distinct 660
▁manpower 660
ric 659
▁44 659
▁Plan 659
▁donations 659
▁hoped 659
▁languages 659
▁parent 659
▁2,000 658
▁Northern 658
▁Yeo 658
▁monitor 658
▁purchases 658
▁(7 657
▁constitutional 657
▁destruction 657
▁testing 657
They 656
shin 656
▁Buk 656
▁CSAT 656
▁democratic 656
▁experiments 656
▁ties 656
seon 655
▁Tower 655
▁cheering 655
▁diagnosed 655
bu 654
ix 654
▁Communications 654
▁chronic 654
▁defeated 654
▁genes 654
▁golden 654
▁neighboring 654
du 653
▁3,000 653
▁advised 653
▁immune 653
▁interaction 653
▁involvement 653
▁preference 653
▁restore 653
▁steady 653
▁ultimately 653
▁writers 653
▁Community 652
▁voluntary 652
cm 651
con 651
▁excluding 651
▁explaining 651
▁jumped 651
IT 650
und 650
▁Reform 650
▁analysts 650
▁fruits 650
▁preferred 650
▁revealing 650
▁winners 650
back 649
▁Ansan 649
▁al 649
▁attacks 649
▁meets 649
▁outer 649
▁pet 649
ight 648
▁rank 648
deok 647
ured 647
▁Arabia 647
▁forming 647
▁inflation 647
▁laid 647
▁moral 647
▁waters 647
▁burned 646
▁reserve 646
Anne 645
▁20,000 645
▁Nuclear 645
▁acknowledged 645
▁assistant 645
▁lawyers 645
▁print 645
IS 644
book 644
ran 644
▁Along 644
▁Lord 644
▁Paju 644
▁cheaper 644
▁competing 644
▁locations 644
▁mention 644
▁revise 644
▁sand 644
▁violent 644
▁Christ 643
▁Press 643
▁Yongin 643
▁evaluate 643
▁everywhere 643
▁farms 643
▁mask 643
▁abilities 642
▁combines 642
▁desirable 642
▁emphasizes 642
▁exception 642
▁particle 642
▁produces 642
▁punished 642
▁5,000 641
▁Capital 641
▁Fourth 641
▁II 641
▁muscles 641
▁shoulder 641
▁stored 641
... 640
▁Wall 640
▁eggs 640
▁format 640
▁leaked 640
▁Competition 639
▁Southern 639
▁Thai 639
▁assigned 639
▁dawn 639
▁doubt 639
▁probability 639
▁tall 639
Lee 638
hyung 638
° 638
▁41 638
▁FTC 638
▁promising 638
dimensional 637
ryong 637
▁Design 637
▁Dream 637
▁Game 637
▁commander 637
▁Chungbuk 636
▁chair 636
▁supervision 636
▁boom 635
▁receives 635
▁unified 635
▁Hanjin 634
▁attendance 634
▁immigration 634
▁laughter 634
▁launching 634
▁retail 634
▁washing 634
▁Mokpo 633
▁con 633
▁personally 633
▁universal 633
ail 632
▁30% 632
▁Guard 632
▁attraction 632
▁banned 632
▁romance 632
▁settle 632
▁specifically 632
▁ultra 632
For 631
▁Chi 631
▁civilian 631
▁converted 631
▁listing 631
▁proved 631
▁rarely 631
▁transmission 631
▁blow 630
▁childcare 630
▁coverage 630
▁incumbent 630
gang 629
ives 629
use 629
▁feedback 629
▁genres 629
▁output 629
▁Broadcasting 628
▁Memorial 628
▁edge 628
▁errors 628
▁outlook 628
story 627
▁Bureau 627
▁Gwanghwamun 627
▁Jinping 627
▁deals 627
▁profitability 627
▁pursued 627
minute 626
▁discover 626
▁entirely 626
▁presents 626
▁slump 626
com 625
▁resume 625
▁Catholic 624
▁contemporary 624
▁encouraged 624
▁scenario 624
▁witness 624
ax 623
ook 623
war 623
▁Lawmaker 623
▁Test 623
▁deaths 623
▁seminar 623
▁shipbuilding 623
▁threatened 623
chi 622
▁thinks 622
▁capable 621
▁choosing 621
▁disclose 621
▁emerge 621
▁indoor 621
▁tomb 621
▁wonderful 621
▁demonstrated 620
▁App 619
▁James 619
▁colleagues 619
▁refugee 619
au 618
ited 618
▁threw 618
▁Iranian 617
▁imagine 617
▁stream 617
70 616
▁Exhibition 616
▁accommodation 616
▁acquire 616
▁graduates 616
▁minimize 616
▁powers 616
▁reveals 616
▁sustainable 616
anc 615
▁bottle 615
▁definitely 615
▁friendship 615
▁imagination 615
▁poverty 615
▁shortage 615
▁throw 615
ned 614
▁Cheongdo 614
▁Gimhae 614
▁USD 614
▁container 614
▁emotion 614
▁grandfather 614
▁indicted 614
▁kick 614
▁shut 614
▁Gunsan 613
▁Time 613
▁blocking 613
▁clouds 613
▁correspondent 613
▁designation 613
▁searching 613
▁Sometimes 612
▁Turkish 612
▁flying 612
▁hang 612
▁implementing 612
▁publishing 612
▁representing 612
▁sum 612
▁worries 612
▁120 611
▁52 611
▁uncertainty 611
long 610
▁2010 610
▁California 610
▁accounted 610
▁exciting 610
▁impeachment 610
▁worship 610
sc 609
▁2008 609
▁decades 609
yo 608
▁Ma 608
▁deliberation 608
▁painful 608
.5% 607
▁birds 607
▁manual 607
▁reflection 607
▁semi 607
▁systematic 607
chae 606
▁Dan 606
▁Valley 606
▁rid 606
▁arrival 605
▁creativity 605
▁hurry 605
▁pen 605
▁pending 605
▁server 605
seop 604
▁autonomy 604
▁decreasing 604
ord 603
▁Comp 603
▁bomb 603
▁childhood 603
▁ongoing 603
yun 602
▁En 602
▁Jeollabuk 602
▁associated 602
▁intensive 602
▁poured 602
▁Sol 601
▁Yeah 601
▁arm 601
%), 600
▁6, 600
25 599
▁draws 599
▁relatives 599
▁replied 599
▁swing 599
▁cuts 598
▁sing 598
▁territory 598
So 597
ily 597
ys 597
▁El 597
▁armed 597
▁heavily 597
▁theaters 597
▁weekly 597
heon 596
▁Confucian 596
▁attractions 596
▁enormous 596
▁posting 596
▁pregnant 596
▁relative 596
▁revitalize 596
▁seventh 596
not 595
▁Forces 595
▁junior 595
▁producers 595
▁stick 595
▁Convention 594
▁Right 594
▁shocked 594
▁viewing 594
▁worsening 594
izes 593
▁Authority 593
▁GM 593
▁Osaka 593
▁contacted 593
▁designs 593
)" 592
acy 592
ening 592
▁100% 592
▁Taekwondo 592
▁agreements 592
▁mothers 592
▁1970 591
▁Data 591
▁Embassy 591
▁Stephen 591
▁furniture 591
▁investigative 591
▁prayer 591
▁sees 591
ulation 590
▁afford 590
▁def 590
▁soul 590
ened 589
ueen 589
▁Without 589
▁agriculture 589
▁chocolate 589
priced 588
▁Constitution 588
▁Political 588
▁conversion 588
▁fore 588
▁lie 588
▁netizens 588
▁restricted 588
hes 587
ites 587
kyun 587
ring 587
▁Agricultural 587
▁Burning 587
▁happening 587
▁muscle 587
▁ocean 587
.7% 586
ga 586
▁1. 586
▁History 586
▁KOSDA 586
▁Sure 586
▁emphasis 586
▁pig 586
ky 585
pt 585
ress 585
▁Kumho 585
▁Later 585
▁ab 585
▁diversity 585
▁skill 585
▁tower 585
▁Australian 584
▁differently 584
▁injuries 584
▁utilized 584
centered 583
▁Egypt 583
▁Gi 583
▁Sorry 583
▁Though 583
▁noteworthy 583
▁scoring 583
No 582
hak 582
ond 582
▁Suncheon 582
▁heading 582
.“ 581
1. 581
aj 581
ath 581
ble 581
▁cyber 581
▁dec 581
▁liberation 581
▁sponsored 581
▁surprising 581
▁transformation 581
rae 580
▁Chamber 580
▁abolition 580
▁explosion 580
▁hide 580
▁imp 580
▁midst 580
5. 579
▁Protection 579
▁electoral 579
▁journey 579
▁parliament 579
▁showcase 579
▁VR 578
▁dancing 578
▁prolonged 578
ave 577
▁Environmental 577
▁bid 577
▁couples 577
▁entrepreneurs 577
▁immigrants 577
▁rankings 577
▁reorganization 577
▁somewhere 577
ao 576
ush 576
▁50,000 576
▁Plaza 576
▁complained 576
▁decreases 576
▁exams 576
▁flows 576
▁healing 576
90 575
▁breath 575
▁fellow 575
▁floors 575
▁liver 575
▁traveled 575
hed 574
▁KOSPI 574
▁demonstrate 574
▁lifted 574
▁literary 574
▁romantic 574
ified 573
▁51 573
▁failing 573
ost 572
rim 572
▁46 572
▁49 572
▁br 572
▁completing 572
▁heritage 572
▁hub 572
▁ill 572
▁missionary 572
▁poem 572
▁shoot 572
hong 571
▁featured 571
▁micro 571
▁tries 571
▁valid 571
▁"2018 570
▁Talk 570
▁batteries 570
▁broad 570
▁grass 570
▁grateful 570
▁shipped 570
over 569
▁197 569
▁Bay 569
▁Five 569
▁belt 569
▁peaceful 569
▁protests 569
bang 568
right 568
▁Berlin 568
▁Mapo 568
▁Self 568
▁boxes 568
▁depend 568
▁experimental 568
▁footage 568
▁minds 568
▁startup 568
▁urgently 568
bok 567
▁disposal 567
▁fought 567
▁guys 567
▁habits 567
▁monetary 567
▁advantageous 566
▁affects 566
▁compare 566
▁granted 566
▁8, 565
▁Building 565
▁Ga 565
▁Israel 565
▁civilization 565
▁fried 565
▁seasons 565
▁2011 564
▁2011, 564
▁Cabinet 564
▁Prince 564
▁ambassador 564
▁competitions 564
▁fired 564
▁harm 564
▁inspections 564
▁merely 564
rom 563
▁Representatives 563
▁Tottenham 563
▁adjusted 563
life 562
▁Coach 562
▁Contest 562
▁acceptance 562
▁casualties 562
▁delegation 562
▁explore 562
▁input 562
▁qu 562
▁seizure 562
▁Seungri 561
▁affection 561
▁brothers 561
▁depression 561
▁enable 561
▁habit 561
▁investor 561
▁loud 561
▁luggage 561
▁lying 561
▁weakened 561
▁zones 561
hae 560
▁(8 560
▁Mon 560
▁Network 560
▁Perhaps 560
▁equivalent 560
▁presenting 560
▁prominent 560
▁promotional 560
▁riding 560
▁z 560
ret 559
▁Christianity 559
▁Gil 559
▁Gr 559
▁Isn 559
▁clients 559
▁distinguish 559
▁economies 559
▁exemption 559
▁sentences 559
CC 558
▁emphasize 558
▁nights 558
▁pack 558
▁persons 558
▁shorter 558
▁sunlight 558
▁utilization 558
▁weekends 558
point 557
▁critics 557
▁decorated 557
▁depth 557
▁designer 557
▁humanity 557
▁teeth 557
▁appliances 556
▁lowering 556
▁moisture 556
▁outlets 556
▁protected 556
▁questioned 556
▁rebound 556
▁superintendent 556
▁visa 556
ero 555
kg 555
▁km 555
▁magnetic 555
▁transparent 555
▁wash 555
iness 554
ink 554
▁Candidate 554
▁Training 554
▁dating 554
▁dramatic 554
▁flights 554
chon 553
ination 553
▁Che 553
▁Dokdo 553
▁appearing 553
▁applies 553
▁electrical 553
▁organizational 553
.6% 552
li 552
ying 552
▁breathing 552
▁frozen 552
▁mainstream 552
▁measuring 552
▁proven 552
▁provision 552
▁underway 552
made 551
▁200,000 551
▁75 551
▁Americans 551
▁Credit 551
▁Nations 551
▁Transportation 551
▁ages 551
▁approached 551
▁arise 551
▁buyer 551
▁checks 551
▁interact 551
▁quit 551
ational 550
▁honest 550
▁passport 550
▁relocation 550
)." 549
.4% 549
room 549
▁Asset 549
▁Fed 549
▁competitors 549
▁judging 549
▁pledge 549
▁th 549
yoon 548
▁Consumer 548
▁Expressway 548
▁eligible 548
▁enthusiastic 548
▁floating 548
▁mirror 548
▁opens 548
▁regularly 548
▁switch 548
▁tank 548
▁2.5 547
▁Companies 547
▁Dec 547
▁accepting 547
▁essay 547
▁perfectly 547
▁recruit 547
ama 546
ert 546
▁Urban 546
▁encouraging 546
▁neither 546
▁sells 546
St 545
app 545
ever 545
▁enables 545
▁ethnic 545
▁inland 545
▁mini 545
▁uploaded 545
oll 544
▁Control 544
▁editing 544
▁ethics 544
▁handled 544
▁instructors 544
▁manufacturer 544
▁publicly 544
▁rough 544
▁terminal 544
management 543
▁30,000 543
▁Statistics 543
▁ring 543
▁spots 543
▁worn 543
TV 542
cl 542
▁Argentina 542
▁automatic 542
▁defendant 542
▁describe 542
▁ears 542
▁extraordinary 542
▁forever 542
▁graduated 542
▁harsh 542
▁sensor 542
▁unstable 542
▁abundant 541
▁arrangement 541
▁disappointed 541
▁narrative 541
ign 540
ively 540
▁Bucheon 540
▁emissions 540
▁fault 540
▁observe 540
..." 539
General 539
▁190 539
▁Golden 539
▁Noh 539
▁Reuters 539
▁cry 539
▁egg 539
▁excitement 539
▁necessity 539
▁patrol 539
▁protecting 539
▁sheet 539
▁telephone 539
▁vary 539
45 538
With 538
ending 538
ious 538
▁beneficial 538
▁finalized 538
▁legislative 538
▁negotiating 538
▁protested 538
uring 537
▁Indonesian 537
▁prediction 537
.3% 536
ding 536
▁194 536
▁7, 536
▁Inspection 536
▁Take 536
▁borrow 536
▁featuring 536
▁initiative 536
▁shots 536
Let 535
▁Ab 535
▁African 535
▁Chul 535
▁Har 535
▁Mu 535
▁attributed 535
▁differentiated 535
▁premiums 535
▁remote 535
▁restored 535
▁ritual 535
oms 534
ute 534
▁, 534
▁800 534
▁broadcaster 534
▁capture 534
▁compromise 534
▁economics 534
▁feed 534
▁heatwave 534
▁musicians 534
▁rainy 534
ised 533
▁Kindergarten 533
▁Netflix 533
▁aggressive 533
▁provisional 533
▁surpassed 533
▁textbook 533
▁searched 532
▁2009 531
▁Italian 531
▁Planning 531
▁stir 531
▁tone 531
.8% 530
che 530
▁Joong 530
▁KB 530
▁Suk 530
▁crying 530
▁drove 530
▁theoretical 530
MA 529
mun 529
▁Empire 529
▁combine 529
▁correction 529
▁crowd 529
▁daytime 529
▁resign 529
▁sophisticated 529
▁texts 529
500 528
ater 528
▁engines 528
▁feared 528
▁resort 528
▁Nexen 527
▁positively 527
▁roughly 527
▁Chuncheon 526
▁Kwak 526
▁consisting 526
▁dismissal 526
▁gains 526
▁painted 526
▁rehabilitation 526
▁spiritual 526
.9% 525
19 525
▁eastern 525
▁fate 525
▁imprisonment 525
▁praise 525
▁relativity 525
▁sang 525
▁stones 525
▁180 524
▁Hyeon 524
▁airline 524
▁cheer 524
▁cur 524
▁malls 524
▁passive 524
▁rescued 524
▁unprecedented 524
▁wisdom 524
de 523
depth 523
▁2010, 523
▁9, 523
▁Ph 523
▁rush 523
▁Republican 522
▁agents 522
▁behalf 522
▁derived 522
▁enemy 522
▁heaven 522
▁rational 522
▁stuck 522
ams 521
▁10- 521
▁Audit 521
▁Baekje 521
▁decade 521
▁historic 521
▁pr 521
12 520
18 520
aries 520
ays 520
ves 520
▁Whether 520
▁developers 520
▁dynasty 520
▁mix 520
▁verify 520
.2% 519
ank 519
chairman 519
▁Goseong 519
▁Mount 519
▁noticed 519
▁viewer 519
▁2009, 518
▁Book 518
▁Pl 518
▁auction 518
▁dealt 518
▁forests 518
▁snacks 518
ear 517
▁Gun 517
▁USA 517
▁booth 517
▁conversations 517
▁dis 517
▁primarily 517
▁scholar 517
3. 516
9. 516
ff 516
ids 516
▁47 516
▁angle 516
▁barriers 516
▁mon 516
▁remembered 516
▁signature 516
AI 515
On 515
fish 515
▁3- 515
▁David 515
▁Marilla 515
▁commonly 515
▁disasters 515
▁federal 515
▁issuance 515
▁lighting 515
▁merger 515
▁predictions 515
▁publication 515
ify 514
▁Huh 514
▁Steel 514
▁taxation 514
ifying 513
ns 513
ny 513
▁disorder 513
▁emperor 513
▁equality 513
▁fairness 513
▁psychology 513
▁tracking 513
▁Ex 512
▁Kingdom 512
▁Should 512
▁Space 512
▁aesthetic 512
▁approximately 512
▁carriers 512
▁lacking 512
▁microorganisms 512
▁notified 512
▁rains 512
▁trips 512
af 511
▁Beach 511
▁Druking 511
▁Meeting 511
▁allowance 511
▁counsel 511
▁develops 511
▁identification 511
▁instant 511
Because 510
aps 510
bae 510
light 510
▁300,000 510
▁crude 510
▁inappropriate 510
▁instruments 510
▁typically 510
▁vast 510
▁vitality 510
▁Los 509
▁Previously 509
▁commemorate 509
▁criticizing 509
▁emergence 509
▁intentions 509
▁ourselves 509
▁recovered 509
atory 508
▁Kimchi 508
▁Lake 508
▁burning 508
▁dual 508
▁postponed 508
13 507
▁belongs 507
▁breaks 507
▁documentary 507
▁luck 507
▁stops 507
One 506
▁cheese 506
▁concerts 506
▁covering 506
▁hat 506
▁inf 506
▁novels 506
▁pointing 506
▁releasing 506
▁slowing 506
▁sw 506
▁width 506
.1% 505
ols 505
▁Angeles 505
▁adapt 505
▁pulled 505
▁touching 505
▁wireless 505
amp 504
ched 504
▁Champions 504
▁consultations 504
▁founding 504
▁10, 503
▁Cheon 503
▁Kaesong 503
▁Maybe 503
▁bell 503
▁fabric 503
▁holes 503
▁instructor 503
regular 502
yu 502
▁Bento 502
▁alley 502
▁barrier 502
▁deposits 502
▁differ 502
▁dynamic 502
▁terrible 502
▁windows 502
4. 501
hop 501
low 501
pyeong 501
range 501
ult 501
▁Critics 501
▁bribery 501
▁crackdown 501
▁facial 501
▁organizing 501
ene 500
▁Putin 500
▁Ui 500
▁broadcasters 500
▁confessed 500
▁fails 500
CO 499
▁attacked 499
▁cap 499
▁courage 499
▁depicts 499
▁lesson 499
▁partnership 499
▁prospects 499
ots 498
▁Live 498
▁abortion 498
▁belong 498
▁bicycle 498
▁breast 498
▁mysterious 498
▁overtime 498
▁yuan 498
11 497
bum 497
wing 497
▁Chapter 497
▁Nobel 497
▁asleep 497
▁coastal 497
▁diplomacy 497
▁hip 497
▁nerve 497
▁occupied 497
▁reaches 497
ada 496
pl 496
▁250 496
▁Con 496
▁Latin 496
▁Liberal 496
▁connects 496
▁diesel 496
▁invitation 496
▁prestigious 496
▁qualification 496
ps 495
▁Ik 495
▁KBO 495
▁exceeds 495
▁minority 495
▁responding 495
,“ 494
ust 494
▁Bloomberg 494
▁Care 494
▁biological 494
▁burst 494
▁chapter 494
▁copyright 494
▁files 494
▁ignored 494
▁latter 494
▁pursuing 494
▁testimony 494
ches 493
▁Concert 493
▁absent 493
▁fines 493
▁incidents 493
▁removal 493
▁retired 493
▁welcomed 493
wa 492
▁53 492
▁Fortunately 492
▁Gochang 492
▁Wol 492
▁borrowed 492
▁deleted 492
▁infection 492
▁texture 492
▁unnecessary 492
ides 491
▁lessons 491
▁poetry 491
▁scattered 491
▁sincere 491
ances 490
▁54 490
▁Shinsegae 490
▁displays 490
▁fulfill 490
▁indictment 490
▁marry 490
▁notes 490
▁organs 490
▁overwhelming 490
▁workshop 490
ace 489
hen 489
▁Greek 489
▁ceiling 489
▁instructions 489
▁maritime 489
▁ordering 489
▁screened 489
gye 488
▁Sky 488
▁brief 488
▁dependent 488
▁occasion 488
▁poll 488
▁schedules 488
▁script 488
▁traces 488
comp 487
”, 487
▁Premier 487
▁Spring 487
▁Sydney 487
▁drone 487
▁exceeding 487
▁secretly 487
▁waited 487
▁wore 487
-3 486
8. 486
board 486
▁2014. 486
▁Criminal 486
▁brings 486
▁commitment 486
▁comprehend 486
▁eliminated 486
▁gl 486
▁lovely 486
▁parks 486
▁shaking 486
▁yard 486
0, 485
aking 485
▁(9 485
▁Kwan 485
▁cats 485
▁determines 485
▁downward 485
▁pays 485
▁referring 485
▁targeted 485
▁191 484
▁greeting 484
▁journalist 484
▁le 484
▁nucleus 484
▁offensive 484
▁onto 484
▁specializing 484
▁transform 484
▁unity 484
▁warehouse 484
ura 483
▁700 483
▁Baseball 483
▁Canadian 483
▁clause 483
▁determination 483
▁hero 483
▁poet 483
▁Ocean 482
▁Seol 482
▁aftermath 482
▁emphasizing 482
▁enterprise 482
▁shocking 482
▁sincerity 482
▁synergy 482
▁translated 482
▁whereas 482
▁eaten 481
▁juice 481
▁mode 481
▁persuade 481
real 480
▁Northeast 480
▁cried 480
▁leak 480
▁mechanical 480
.". 479
uc 479
▁Library 479
▁existed 479
▁incentives 479
▁tombs 479
▁upward 479
That 478
ame 478
▁adopt 478
▁gasoline 478
▁landing 478
▁motivation 478
ibilities 477
ock 477
▁Gangseo 477
▁Medium 477
▁billions 477
▁chest 477
▁determining 477
▁lifestyle 477
▁precise 477
▁reliable 477
ops 476
track 476
work 476
▁Teachers 476
▁captain 476
▁comfortably 476
▁evolution 476
▁irregularities 476
▁partially 476
▁reward 476
▁surge 476
▁varies 476
▁basement 475
▁conglomerates 475
▁delivering 475
▁dozens 475
▁motor 475
▁pages 475
▁Ed 474
▁Gen 474
▁Job 474
▁pot 474
▁Electric 473
▁arose 473
▁goalkeeper 473
▁passionate 473
▁prohibited 473
▁rear 473
▁strictly 473
▁touched 473
▁upset 473
hang 472
▁Bi 472
▁Hang 472
▁Language 472
▁Mom 472
▁bidding 472
▁cave 472
▁grammar 472
▁reduces 472
▁tuition 472
▁Staff 471
▁accuracy 471
▁alert 471
▁comparing 471
▁conservatives 471
▁deployed 471
▁vessel 471
▁Mongolian 470
▁confirming 470
▁decisive 470
▁listened 470
▁logical 470
▁multicultural 470
▁silent 470
▁webtoon 470
ades 469
hy 469
▁1.2 469
▁2008, 469
▁beating 469
▁fare 469
▁god 469
▁planet 469
▁shutdown 469
▁thermal 469
▁wh 469
To 468
▁Col 468
▁Mexican 468
▁achieving 468
▁appeals 468
▁avoided 468
▁jurisdiction 468
▁lift 468
▁lifting 468
▁paradigm 468
▁respons 468
att 467
ency 467
▁52- 467
▁Area 467
▁Best 467
▁Dance 467
▁Kyu 467
▁aiming 467
▁bases 467
▁expecting 467
▁homepage 467
▁sin 467
ome 466
party 466
▁2018. 466
▁Christians 466
▁IP 466
▁Particularly 466
▁Tell 466
▁approaching 466
▁flood 466
▁helicopter 466
▁lonely 466
▁monument 466
▁partial 466
driven 465
high 465
▁La 465
▁Standards 465
▁bone 465
▁preferential 465
▁sequence 465
▁symbolic 465
IC 464
ana 464
government 464
▁189 464
▁Brazilian 464
▁Private 464
▁abnormal 464
▁belonging 464
▁certified 464
▁commemorative 464
▁drastically 464
▁mechanism 464
▁noticeable 464
▁severely 464
▁(19 463
▁Jamsil 463
▁Night 463
▁Sch 463
▁Yonsei 463
▁acquaintances 463
▁brilliant 463
▁choices 463
▁equation 463
▁filmed 463
▁massage 463
▁nerves 463
▁punish 463
▁resigned 463
▁string 463
▁suits 463
general 462
▁4- 462
▁Class 462
▁Jecheon 462
▁Manager 462
▁allegedly 462
▁announcing 462
▁dad 462
▁exploration 462
▁garbage 462
▁highlighted 462
▁inquiry 462
▁lacks 462
speed 461
▁119 461
▁Chungju 461
▁Out 461
▁PM 461
▁Things 461
▁cognitive 461
▁networking 461
▁seafood 461
▁struck 461
▁1- 460
▁56 460
▁63 460
▁Mo 460
▁Navy 460
▁acted 460
▁automobiles 460
▁margin 460
▁nomination 460
▁packaging 460
▁wondering 460
▁x 460
24 459
PS 459
▁2- 459
▁Plant 459
▁Stock 459
▁attracts 459
▁bulletin 459
▁doors 459
▁homework 459
▁notable 459
▁repeat 459
▁resolving 459
▁treaty 459
ied 458
▁approaches 458
▁defend 458
▁guarantees 458
▁removing 458
▁sn 458
▁sponsor 458
▁uncertain 458
▁verified 458
▁wishes 458
▁80% 457
▁desperate 457
▁dev 457
▁indirect 457
▁lens 457
▁piano 457
▁prospect 457
▁shed 457
heung 456
▁beliefs 456
▁briefly 456
▁dominant 456
▁em 456
▁kid 456
▁supplementary 456
▁transparency 456
down 455
ery 455
▁Girl 455
▁encounter 455
▁expresses 455
▁interpret 455
▁invasion 455
▁strengths 455
▁suspicious 455
▁vocal 455
▁certainly 454
▁counties 454
▁grave 454
▁i 454
▁storytelling 454
taek 453
▁Asan 453
▁GS 453
▁Madrid 453
▁believing 453
▁celebration 453
▁countless 453
▁custom 453
▁linking 453
▁monks 453
▁professionals 453
+ 452
▁Anti 452
▁Councilor 452
▁Gimpo 452
▁Manchester 452
▁Paulo 452
▁Starbucks 452
▁cooked 452
▁credibility 452
▁developer 452
▁dramatically 452
▁embezzlement 452
▁glasses 452
▁hobby 452
▁impressed 452
▁lab 452
▁modified 452
▁none 452
▁pan 452
▁stepping 452
▁suggesting 452
Mart 451
berg 451
▁2. 451
▁abolished 451
▁diabetes 451
▁dressed 451
▁satellite 451
▁shower 451
▁sympathy 451
▁59 450
▁certificates 450
▁copies 450
▁count 450
▁distinction 450
▁intensity 450
▁paint 450
▁systematically 450
▁traded 450
▁utility 450
▁vacuum 450
grade 449
▁Bok 449
▁Part 449
▁bird 449
▁forth 449
▁inc 449
▁invite 449
▁tested 449
▁abstract 448
▁adds 448
▁aside 448
▁asks 448
▁communications 448
▁crossed 448
▁laundry 448
▁renowned 448
ect 447
par 447
▁500,000 447
▁Ms 447
▁Using 447
▁Wi 447
▁acids 447
▁arguments 447
▁attach 447
▁boys 447
▁distribute 447
▁firmly 447
▁hill 447
▁inequality 447
▁marking 447
▁pair 447
▁saving 447
▁senses 447
▁surrounded 447
7. 446
ep 446
ger 446
▁Ban 446
▁compounds 446
▁dried 446
▁hardly 446
▁infinite 446
▁privacy 446
▁surplus 446
▁sweat 446
gon 445
lic 445
school 445
▁70% 445
▁Mt 445
▁Telecom 445
▁abused 445
▁leap 445
▁outbreak 445
▁spin 445
▁threatening 445
ER 444
ime 444
uck 444
▁40% 444
▁Around 444
▁Chungcheongbuk 444
▁Emergency 444
▁Excuse 444
▁Haeundae 444
▁Moreover 444
▁Residents 444
▁Review 444
▁Robert 444
▁funny 444
▁livelihood 444
▁playground 444
▁prosperity 444
▁remark 444
▁soap 444
▁soared 444
▁sport 444
▁1960 443
▁Championship 443
▁Hu 443
▁assessed 443
▁fusion 443
▁highway 443
▁relieve 443
▁soldier 443
ren 442
”. 442
▁Toronto 442
▁apps 442
▁confused 442
▁grace 442
▁hiding 442
▁hosting 442
▁neglected 442
▁prevents 442
▁sections 442
▁shook 442
▁uniforms 442
moon 441
▁Bundang 441
▁Up 441
▁destroy 441
▁photographs 441
▁preserve 441
▁regeneration 441
▁terrestrial 441
NA 440
hoe 440
ram 440
▁Arab 440
▁Long 440
▁Pe 440
▁Program 440
▁bowl 440
▁breakthrough 440
▁cautious 440
▁density 440
▁gr 440
▁gratitude 440
▁humanities 440
▁innocent 440
▁jump 440
▁pink 440
▁printed 440
port 439
▁Nov 439
▁Resources 439
▁activated 439
▁celebrity 439
▁charts 439
▁del 439
▁eliminate 439
▁induce 439
▁mobilized 439
▁programming 439
▁qualifications 439
▁quoted 439
▁wallet 439
rop 438
▁57 438
▁Digital 438
▁Islamic 438
▁Prior 438
▁Uijeongbu 438
▁architectural 438
▁conveyed 438
▁recruiting 438
▁statistical 438
▁doll 437
▁hotels 437
▁pouring 437
▁satisfy 437
▁surveillance 437
▁tennis 437
▁trans 437
▁vertical 437
▁wire 437
Do 436
meter 436
▁5- 436
▁Ag 436
▁alternatives 436
▁businessmen 436
▁cooling 436
▁midterm 436
▁periodic 436
▁proteins 436
▁shake 436
▁stabilize 436
▁toilet 436
▁update 436
▁wheel 436
▁campus 435
▁discounts 435
▁distrust 435
▁dividend 435
▁maximize 435
▁threats 435
ously 434
▁2007, 434
▁Ri 434
▁Sokcho 434
▁enthusiasm 434
▁influential 434
▁issuing 434
▁pizza 434
▁questioning 434
▁reader 434
▁treatments 434
= 433
ict 433
nt 433
sil 433
▁Honam 433
▁PR 433
▁Songdo 433
▁glance 433
▁poster 433
▁seller 433
▁stairs 433
▁suppliers 433
▁64 432
▁Guro 432
▁Prevention 432
▁criticize 432
▁curve 432
▁detection 432
▁fairy 432
▁remarkable 432
night 431
woong 431
▁72 431
▁Ah 431
▁Gov 431
▁Index 431
▁circulation 431
▁clock 431
▁defects 431
▁examining 431
▁fatigue 431
▁ingredient 431
▁rushed 431
▁sincerely 431
dang 430
ev 430
ox 430
▁2007 430
▁algorithms 430
▁batting 430
▁carrier 430
▁construct 430
▁problematic 430
▁solely 430
▁supreme 430
▁tie 430
▁widespread 430
An 429
ark 429
▁84 429
▁Camp 429
▁formula 429
▁introduces 429
▁pitchers 429
▁pregnancy 429
▁scholarship 429
▁seeds 429
AR 428
ata 428
ka 428
▁Golf 428
▁covers 428
▁financing 428
▁forgotten 428
▁independently 428
▁infected 428
▁innings 428
▁molecule 428
▁resumed 428
▁rumor 428
▁signals 428
▁themes 428
Oh 427
commerce 427
profit 427
▁acquaintance 427
KRW 426
ann 426
ef 426
ese 426
▁2019, 426
▁Per 426
▁Roman 426
▁Traditional 426
▁argues 426
▁blocks 426
▁comp 426
▁embarrassed 426
▁invisible 426
▁oppose 426
▁packed 426
▁puts 426
▁revive 426
▁rival 426
▁till 426
▁trains 426
▁Cor 425
▁Domestic 425
▁Pal 425
▁Room 425
▁anytime 425
▁attempting 425
▁controlling 425
▁discourse 425
▁greenhouse 425
▁intentionally 425
▁requesting 425
▁requirement 425
▁suspects 425
How 424
aging 424
iation 424
ony 424
rok 424
seung 424
ved 424
▁Cold 424
▁Corps 424
▁constitution 424
▁ecological 424
▁escaped 424
▁fundamentally 424
▁prevented 424
▁random 424
▁reforms 424
ster 423
there 423
▁15, 423
▁Einstein 423
▁Hope 423
▁activists 423
▁pipe 423
▁tip 423
OC 422
ifies 422
ius 422
▁Indeed 422
▁Journal 422
▁daughters 422
▁discipline 422
▁doubled 422
▁flowing 422
▁mining 422
▁shapes 422
▁tiny 422
▁trained 422
▁warming 422
DA 421
ards 421
br 421
▁58 421
▁Yeongdeungpo 421
▁flagship 421
▁guy 421
▁hungry 421
▁lending 421
▁overcoming 421
▁prop 421
▁recalled 421
▁tissue 421
17 420
buk 420
gok 420
▁Du 420
▁JTBC 420
▁absurd 420
▁ant 420
▁burn 420
▁define 420
▁dispatch 420
▁disposable 420
▁log 420
▁publicity 420
▁rhythm 420
ges 419
▁Bl 419
▁Bon 419
▁KEPCO 419
▁instrument 419
▁makers 419
▁parallel 419
▁reserved 419
▁snack 419
▁wet 419
ealand 418
▁Andong 418
▁Mart 418
▁description 418
▁exhausted 418
▁explosive 418
▁uncon 418
ds 417
ular 417
umb 417
▁2019. 417
▁Hoe 417
▁Mark 417
▁Renault 417
▁Shipbuilding 417
▁believers 417
▁calculate 417
▁lucky 417
▁mortgage 417
▁municipal 417
▁occasionally 417
▁Seosan 416
▁additionally 416
▁advent 416
▁appoint 416
▁calculating 416
▁cinema 416
▁comedy 416
▁nitrogen 416
▁seeks 416
▁Kazakhstan 415
▁assume 415
▁avoiding 415
▁behaviors 415
▁besides 415
▁chemicals 415
▁dignity 415
▁missiles 415
▁occurring 415
▁rely 415
▁tropical 415
▁whatever 415
ues 414
▁Disney 414
▁Generation 414
▁cons 414
▁consumed 414
▁coordination 414
▁crops 414
▁detect 414
▁differs 414
▁drones 414
▁edition 414
▁faction 414
▁neutral 414
▁nominated 414
▁specialty 414
▁suspend 414
finding 413
itation 413
vers 413
wang 413
▁Modern 413
▁Trans 413
▁cafes 413
▁coexist 413
▁finds 413
▁realization 413
▁storm 413
ains 412
ills 412
tr 412
uss 412
▁Cooperative 412
▁Members 412
▁Official 412
▁Play 412
▁Venezuela 412
▁advancement 412
▁closure 412
▁compulsory 412
▁cope 412
▁lover 412
▁magazines 412
▁necessarily 412
▁preparations 412
▁prospective 412
▁ranks 412
▁subsidiaries 412
35 411
South 411
eon 411
sharing 411
▁12, 411
▁Michael 411
▁Solidarity 411
▁advisory 411
▁compound 411
▁downturn 411
▁ranging 411
▁solidarity 411
6. 410
All 410
don 410
ient 410
▁fled 410
▁infants 410
▁lasted 410
▁medication 410
▁pine 410
▁presumed 410
▁realizing 410
▁reluctant 410
▁slogan 410
▁strongest 410
Pacific 409
▁Master 409
▁cherry 409
▁crashed 409
▁ethical 409
▁preservation 409
gh 408
new 408
oth 408
under 408
▁brown 408
▁thrown 408
▁unreasonable 408
▁warnings 408
16 407
sam 407
▁Dam 407
▁apologized 407
▁catching 407
▁defect 407
▁firefighters 407
▁indirectly 407
▁plot 407
▁scared 407
▁stuff 407
ving 406
▁68 406
▁Any 406
▁Fe 406
▁Hwa 406
▁Interior 406
▁bones 406
▁consult 406
▁demonstrates 406
▁exclusively 406
▁menus 406
▁notification 406
▁operational 406
▁pants 406
▁perceived 406
▁res 406
▁substantial 406
aining 405
yung 405
▁16, 405
▁66 405
▁CNN 405
▁Holdings 405
▁Orchestra 405
▁absorbed 405
▁awkward 405
▁exercises 405
▁fairly 405
▁poly 405
▁rejection 405
▁seed 405
▁yen 405
ition 404
moo 404
▁Em 404
▁Hoon 404
▁Junior 404
▁Mac 404
▁chaos 404
▁hanging 404
▁likelihood 404
▁magic 404
▁sensors 404
ared 403
driving 403
head 403
ya 403
▁11, 403
▁Jan 403
▁Mary 403
▁Pr 403
▁ancestors 403
▁blame 403
▁longest 403
▁restriction 403
▁roots 403
▁sessions 403
100 402
▁Actually 402
▁Site 402
▁comparable 402
▁conclude 402
▁distributing 402
▁divide 402
▁fostering 402
▁indicated 402
▁weakness 402
itis 401
▁Anyang 401
▁FA 401
▁caf 401
▁cow 401
▁finger 401
▁fisheries 401
▁irregular 401
▁physicists 401
▁tap 401
▁2020. 400
▁Mirae 400
▁accordingly 400
▁admissions 400
▁babies 400
▁comeback 400
▁declining 400
▁eldest 400
▁evolved 400
▁hospitalized 400
▁inquiries 400
▁leakage 400
▁occupation 400
▁slowed 400
▁socially 400
▁undergoing 400
atch 399
election 399
hing 399
inal 399
▁Cross 399
▁Depending 399
▁MERS 399
▁Unfortunately 399
▁bubble 399
▁connections 399
▁knife 399
▁propose 399
▁scent 399
Ex 398
▁barely 398
▁cabinet 398
▁cotton 398
▁electronics 398
▁liquor 398
▁occurrence 398
▁outcomes 398
▁wider 398
▁yield 398
kwon 397
sin 397
▁73 397
▁Belgium 397
▁NC 397
▁Plus 397
▁Ssangyong 397
▁bold 397
▁compensate 397
▁cups 397
▁distorted 397
▁installing 397
▁justification 397
▁molecular 397
▁mound 397
▁ph 397
▁practiced 397
▁specified 397
▁thesis 397
EC 396
New 396
OS 396
for 396
ith 396
▁Web 396
▁beans 396
▁boundaries 396
▁domain 396
▁ignore 396
▁manufactured 396
▁pe 396
▁portrait 396
▁rivers 396
▁servant 396
▁surveys 396
.. 395
2) 395
iding 395
ware 395
▁Hy 395
▁Reserve 395
▁Story 395
▁broadcasts 395
▁correctly 395
▁deterioration 395
▁drank 395
▁forgot 395
▁grasp 395
▁guards 395
▁maker 395
▁proposals 395
▁speeding 395
Un 394
oss 394
▁Non 394
▁Psy 394
▁cakes 394
▁commerce 394
▁disc 394
▁indicator 394
▁lifetime 394
▁meaningless 394
▁philosophical 394
▁proceeded 394
▁ret 394
▁ultimate 394
▁witnesses 394
ored 393
star 393
▁Having 393
▁Light 393
▁Shopping 393
▁childbirth 393
▁honorary 393
▁intelligent 393
▁islands 393
▁pagoda 393
▁polarization 393
▁predicts 393
▁throwing 393
▁twin 393
ini 392
pil 392
▁2020, 392
▁Choo 392
▁Startups 392
▁attorney 392
▁backlash 392
▁blog 392
▁bronze 392
▁congestion 392
▁eighth 392
▁elevator 392
▁excavation 392
▁filter 392
▁instability 392
▁knee 392
▁practically 392
▁column 391
▁complain 391
▁hypothesis 391
▁machinery 391
▁react 391
hand 390
oid 390
▁Relations 390
▁Switzerland 390
▁Usually 390
▁appealed 390
▁campaigns 390
▁classification 390
▁naval 390
▁reception 390
▁steep 390
▁violate 390
▁voted 390
oma 389
▁% 389
▁Make 389
▁Ten 389
▁caution 389
▁cloudy 389
▁exp 389
▁fortress 389
▁hurts 389
▁indicating 389
▁int 389
▁lineup 389
▁lodging 389
▁nutrients 389
▁possibilities 389
▁redevelopment 389
▁shelter 389
▁starring 389
▁volatility 389
car 388
▁Senate 388
▁defensive 388
▁lovers 388
▁stating 388
▁synthetic 388
▁topped 388
▁twenty 388
▁valley 388
▁villagers 388
▁volunteers 388
MC 387
▁Ter 387
▁Tom 387
▁abolish 387
▁capability 387
▁hikes 387
▁inventory 387
▁periods 387
▁premise 387
▁preserved 387
▁reconciliation 387
▁slight 387
▁sovereignty 387
▁travelers 387
▁trucks 387
gyeong 386
itting 386
▁Moscow 386
▁Newton 386
▁SM 386
▁bilateral 386
▁inflow 386
▁notion 386
▁oldest 386
▁sort 386
▁su 386
▁tragedy 386
▁wealthy 386
28 385
arm 385
ope 385
ways 385
▁Dasan 385
▁Gender 385
▁Res 385
▁activist 385
▁filling 385
▁inheritance 385
▁mock 385
▁supplying 385
American 384
ado 384
only 384
place 384
ull 384
▁(18 384
▁Lab 384
▁contributions 384
▁desires 384
▁flew 384
▁hundred 384
▁pull 384
▁symbols 384
▁taxis 384
▁wrapped 384
▁2013. 383
▁Men 383
▁Pan 383
▁Seodaemun 383
▁attitudes 383
▁booths 383
▁equally 383
▁legally 383
▁permit 383
▁Hw 382
▁NIS 382
▁aviation 382
▁commit 382
▁guardian 382
▁plenty 382
▁precisely 382
▁reborn 382
▁screens 382
▁spatial 382
▁transmitted 382
▁validity 382
cost 381
ivity 381
largest 381
lin 381
yl 381
▁1.3 381
▁DSC 381
▁endure 381
▁flu 381
▁intersection 381
▁isolated 381
▁lo 381
▁lunar 381
▁poems 381
▁recruited 381
▁totally 381
200 380
AC 380
top 380
yi 380
▁85 380
▁Bolton 380
▁Rev 380
▁alarm 380
▁enhanced 380
▁fatal 380
▁gray 380
▁intensified 380
▁morality 380
▁outlet 380
▁practicing 380
▁rubber 380
▁temples 380
000 379
ora 379
▁Expo 379
▁Gwangyang 379
▁Happy 379
▁Sales 379
▁Stream 379
▁assaulting 379
▁gambling 379
▁physically 379
▁rocks 379
box 378
hyang 378
– 378
▁(201 378
▁Inc 378
▁Ronaldo 378
▁crack 378
▁secrets 378
▁tail 378
▁woke 378
)," 377
AT 377
pr 377
▁acknowledge 377
▁cigarette 377
▁consume 377
▁dates 377
▁misunder 377
▁replacing 377
▁runner 377
▁shrine 377
▁swept 377
iff 376
my 376
ven 376
▁Creative 376
▁Expectations 376
▁GDP 376
▁Ilsan 376
▁Mal 376
▁Natural 376
▁collusion 376
▁crossing 376
▁excessively 376
▁spreads 376
2), 375
Then 375
aek 375
interest 375
king 375
▁2012. 375
▁30, 375
▁Bitcoin 375
▁Hill 375
▁Judicial 375
▁Saeng 375
▁conditioner 375
▁exercising 375
▁hoping 375
▁mature 375
▁medals 375
▁messenger 375
▁nowadays 375
▁offense 375
▁Barcelona 374
▁IS 374
▁Officer 374
▁efficiently 374
▁Byun 373
▁IoT 373
▁Pyeongchang 373
▁Pyeongtaek 373
▁chef 373
▁closest 373
▁considers 373
▁cruise 373
▁ear 373
▁explanations 373
▁farmer 373
▁posture 373
▁tenants 373
▁trash 373
ined 372
itt 372
▁90% 372
▁Hadong 372
▁anxious 372
▁axis 372
▁dem 372
▁dying 372
▁pros 372
▁reversed 372
▁seasonal 372
▁upload 372
ones 371
ump 371
▁25% 371
▁67 371
▁adjacent 371
▁fence 371
▁midnight 371
▁recommendations 371
▁tiger 371
▁writings 371
amb 370
ision 370
▁62 370
▁Masan 370
▁Mobile 370
▁Wh 370
▁basically 370
▁bribes 370
▁cigarettes 370
▁distinctive 370
▁incorrect 370
▁logo 370
▁tensions 370
AN 369
ently 369
mon 369
que 369
▁Li 369
▁arbitration 369
▁coalition 369
▁debts 369
▁implies 369
▁reservations 369
▁reversal 369
▁seekers 369
▁supplement 369
RA 368
aling 368
gwang 368
member 368
▁AR 368
▁Hanyang 368
▁Hwaseong 368
▁Old 368
▁conservation 368
▁evident 368
▁flooded 368
▁guitar 368
▁pocket 368
▁predicting 368
▁recognizes 368
▁rounds 368
IA 367
ball 367
la 367
ode 367
▁Participants 367
▁fantastic 367
▁laughed 367
▁merit 367
▁railroad 367
▁relieved 367
▁shouted 367
▁striker 367
▁welcoming 367
Please 366
▁Bus 366
▁Wan 366
▁Yeongam 366
▁ac 366
▁adoption 366
▁arrange 366
▁assignment 366
▁delicate 366
▁depicted 366
▁descendants 366
▁disability 366
▁environments 366
▁estimates 366
▁leaking 366
▁organ 366
▁treating 366
ahn 365
▁Report 365
▁adjusting 365
▁approve 365
▁assist 365
▁cartoon 365
▁mobility 365
▁roll 365
▁spectators 365
▁wrap 365
▁ASEAN 364
▁Boo 364
▁Pharmaceutical 364
▁allowances 364
▁arriving 364
▁boarding 364
▁expenditure 364
▁fiber 364
▁patents 364
▁providers 364
▁rail 364
▁ramen 364
▁tunnel 364
fer 363
ido 363
▁61 363
▁Futures 363
▁IC 363
▁anyway 363
▁dividing 363
▁enacted 363
▁grain 363
▁objection 363
▁obligation 363
▁prostitution 363
▁pursuit 363
▁refuse 363
▁shoulders 363
being 362
▁Floor 362
▁MC 362
▁Pre 362
▁Student 362
▁Sur 362
▁circuit 362
▁lotus 362
▁rays 362
▁scientist 362
ew 361
ising 361
lim 361
wol 361
▁fits 361
▁hung 361
▁photography 361
▁pose 361
▁sisters 361
▁smiling 361
▁soaring 361
▁wise 361
iveness 360
▁bitter 360
▁bottles 360
▁cloth 360
▁controls 360
▁enhancing 360
▁instruction 360
▁kicked 360
▁optimal 360
▁overnight 360
▁stopping 360
▁threshold 360
▁united 360
▁workplaces 360
▁FIFA 359
▁Gas 359
▁Kyo 359
▁Property 359
▁cheered 359
▁comm 359
▁cumulative 359
▁divorce 359
▁embassy 359
▁loves 359
▁nominee 359
▁sm 359
▁steam 359
▁worsened 359
)' 358
Why 358
ming 358
pe 358
ude 358
woon 358
▁Budget 358
▁Rock 358
▁belly 358
▁bureau 358
▁deduction 358
▁distinguished 358
▁evasion 358
▁mediation 358
▁relax 358
▁sacrifice 358
▁seized 358
▁shuttle 358
▁speakers 358
▁surveyed 358
field 357
ining 357
▁Ben 357
▁Everything 357
▁absolutely 357
▁absorb 357
▁emission 357
▁highlight 357
▁literally 357
▁minimal 357
▁painter 357
▁pond 357
▁qualities 357
▁sunset 357
▁teaser 357
▁vitamin 357
▁workweek 357
IN 356
eness 356
tic 356
▁Age 356
▁Choe 356
▁Equality 356
▁Nexon 356
▁Put 356
▁ads 356
▁audition 356
▁executed 356
▁hanbok 356
▁infectious 356
▁mechanics 356
▁staged 356
▁vivid 356
cher 355
inc 355
▁Top 355
▁accessibility 355
▁brush 355
▁camping 355
▁injection 355
▁pity 355
cho 354
myeong 354
▁Basic 354
▁Gate 354
▁Gold 354
▁Heroes 354
▁Inside 354
▁Survey 354
▁Venture 354
▁boats 354
▁contributing 354
▁extensive 354
▁intends 354
▁lacked 354
▁metals 354
▁presidents 354
▁retaliation 354
▁shifted 354
▁websites 354
ES 353
awa 353
gen 353
gyo 353
handed 353
ped 353
ze 353
▁Besides 353
▁BioLogics 353
▁Unit 353
▁bath 353
▁calendar 353
▁coin 353
▁deeper 353
▁disorders 353
▁hacking 353
▁monopoly 353
▁ninth 353
▁pavilion 353
▁renewal 353
▁walks 353
ases 352
▁2005, 352
▁Att 352
▁Hi 352
▁Ro 352
▁aides 352
▁boring 352
▁cal 352
▁eased 352
▁liquidity 352
▁ref 352
▁silk 352
TC 351
\ 351
hu 351
rate 351
▁Hangeul 351
▁IMF 351
▁Nevertheless 351
▁Parliament 351
▁Professional 351
▁Sal 351
▁catalyst 351
▁decides 351
▁describes 351
▁laboratory 351
▁loses 351
▁shaken 351
▁updated 351
osition 350
▁allegation 350
▁coupon 350
▁load 350
▁regrettable 350
▁silence 350
League 349
urs 349
▁130 349
▁Del 349
▁Except 349
▁Experience 349
▁Gyo 349
▁Obama 349
▁Parents 349
▁broadcasted 349
▁caring 349
▁climb 349
▁combat 349
▁crash 349
▁discharged 349
▁episodes 349
▁involves 349
▁lobby 349
▁respected 349
▁sparked 349
▁vaccine 349
▁youths 349
AS 348
Is 348
aff 348
using 348
▁Boy 348
▁Father 348
▁Hanbok 348
▁Nonghyup 348
▁Tang 348
▁duration 348
▁empathy 348
▁endless 348
▁happily 348
▁reliability 348
uri 347
▁Administrative 347
▁Sub 347
▁artifacts 347
▁concerning 347
▁criminals 347
▁distant 347
▁giant 347
▁jail 347
▁lung 347
▁manages 347
▁obesity 347
▁porcelain 347
▁spotlight 347
rey 346
▁Being 346
▁climbing 346
▁mad 346
▁perspectives 346
▁unilaterally 346
` 345
orn 345
sup 345
▁Garden 345
▁Med 345
▁democratization 345
▁forecasts 345
▁profile 345
▁webtoons 345
family 344
geum 344
▁Biegun 344
▁Jim 344
▁KakaoTalk 344
▁airlines 344
▁defender 344
▁designers 344
▁dragon 344
▁elect 344
▁ideological 344
▁improves 344
▁useless 344
Se 343
TE 343
TS 343
ologists 343
oph 343
▁77 343
▁Arena 343
▁Statistical 343
▁bloom 343
▁burdened 343
▁flexibility 343
▁gu 343
▁moments 343
▁mystery 343
▁pets 343
▁uncertainties 343
▁worrying 343
sim 342
uff 342
▁CO 342
▁Summer 342
▁donate 342
▁horror 342
▁inherited 342
▁meter 342
▁suggestion 342
▁summoned 342
▁waist 342
▁198 341
▁99 341
▁Emperor 341
▁Geumgang 341
▁Koh 341
▁Royal 341
▁Spokesman 341
▁analyzes 341
▁classic 341
▁cleared 341
▁devoted 341
▁fined 341
▁humanitarian 341
▁identifying 341
▁infant 341
▁layers 341
▁password 341
▁pepper 341
▁pitch 341
▁quantities 341
▁realm 341
▁weren 341
aring 340
▁Chemical 340
▁Gilbert 340
▁Hun 340
▁ann 340
▁boundary 340
▁declare 340
▁exterior 340
▁gym 340
▁malicious 340
▁mankind 340
▁poisoning 340
▁politician 340
▁struggled 340
14 339
ree 339
▁"2019 339
▁(15 339
▁60% 339
▁Seven 339
▁bean 339
▁engineers 339
▁ginseng 339
▁negotiate 339
▁oneself 339
▁stroke 339
▁substitute 339
AP 338
MS 338
’. 338
▁Battle 338
▁LA 338
▁Several 338
▁Superintendent 338
▁comply 338
▁dam 338
▁expands 338
▁exploded 338
▁fiercely 338
▁meanings 338
▁parade 338
▁reminds 338
▁shame 338
▁subsequent 338
▁Alliance 337
▁Gymnasium 337
▁Hyuk 337
▁Mc 337
▁accelerate 337
▁belatedly 337
▁champion 337
▁courts 337
▁evaluating 337
▁notify 337
▁obstacles 337
▁syndrome 337
▁weakening 337
Seoul 336
aker 336
▁1.1 336
▁Democrats 336
▁Dongdaemun 336
▁arguing 336
▁boasts 336
▁deciding 336
▁designate 336
▁masks 336
▁panels 336
▁polls 336
▁quarantine 336
▁vacant 336
▁14, 335
▁18, 335
▁2022 335
▁Gap 335
▁Rob 335
▁Use 335
▁Wonju 335
▁Yeom 335
▁bike 335
▁maintains 335
▁paste 335
▁resumption 335
▁steering 335
▁stolen 335
▁trusted 335
▁verbal 335
EN 334
PA 334
Therefore 334
▁Medicine 334
▁Pen 334
▁Pil 334
▁appreciation 334
▁electromagnetic 334
▁inconvenient 334
▁interference 334
▁maybe 334
▁naked 334
▁observations 334
▁pastors 334
▁revived 334
▁subjective 334
▁submission 334
▁tours 334
ishing 333
▁Malaysian 333
▁Season 333
▁civilians 333
▁queen 333
▁squad 333
▁triple 333
27 332
MO 332
acc 332
aid 332
oun 332
▁Gangbuk 332
▁Scholastic 332
▁Tomorrow 332
▁Uber 332
▁expiration 332
▁majors 332
▁med 332
▁possession 332
▁proceeding 332
▁reasoning 332
▁tenant 332
37 331
aster 331
state 331
▁1.8 331
▁Customs 331
▁Jincheon 331
▁Tak 331
▁ind 331
▁locked 331
▁obtaining 331
▁raining 331
▁reunion 331
▁styles 331
▁triggered 331
▁ward 331
▁wounds 331
Samsung 330
ald 330
dy 330
order 330
oring 330
▁900 330
▁Disease 330
▁batter 330
▁laser 330
▁pensions 330
▁postpone 330
▁shell 330
▁spare 330
▁speaks 330
▁streaming 330
ban 329
bing 329
cent 329
ional 329
oe 329
osa 329
ros 329
row 329
▁Captain 329
▁Controversy 329
▁Ver 329
▁inspect 329
▁mo 329
▁relics 329
▁stole 329
▁unmanned 329
▁virtuous 329
▁warrants 329
ished 328
▁Call 328
▁Child 328
▁Greece 328
▁Holy 328
▁Ke 328
▁LED 328
▁Morning 328
▁Netherlands 328
▁Note 328
▁Still 328
▁Work 328
▁colleges 328
▁cuisine 328
▁excess 328
▁frustrated 328
▁ink 328
▁penalties 328
▁promises 328
▁quietly 328
▁shadow 328
▁thankful 328
▁urge 328
▁youngest 328
POP 327
ck 327
ense 327
ibility 327
ises 327
q 327
▁Chicago 327
▁Dodgers 327
▁Fortress 327
▁Gye 327
▁Living 327
▁Syria 327
▁admit 327
▁cm 327
▁colored 327
▁dividends 327
▁dormitory 327
▁excuse 327
▁exported 327
▁immunity 327
▁kingdom 327
▁pur 327
▁reject 327
▁sponsorship 327
▁transferring 327
.”. 326
net 326
sing 326
▁76 326
▁Cr 326
▁Oct 326
▁amino 326
▁disadvantage 326
▁enlightenment 326
▁fighter 326
▁genuine 326
▁halls 326
▁implications 326
▁intervene 326
▁links 326
▁mm 326
▁negatively 326
▁originated 326
▁pressed 326
▁referee 326
▁uncle 326
38 325
ography 325
rap 325
▁160 325
▁2006 325
▁78 325
▁Bin 325
▁Francisco 325
▁UNESCO 325
▁breakdown 325
▁excellence 325
▁exclude 325
▁gospel 325
▁refrigerator 325
▁relaxed 325
▁repayment 325
joong 324
mu 324
’, 324
▁17, 324
▁20, 324
▁Bum 324
▁appealing 324
▁balls 324
▁copper 324
▁prejudice 324
▁reorganized 324
▁reserves 324
▁sorrow 324
▁unfavorable 324
▁weekdays 324
▁witnessed 324
hui 323
ni 323
▁Ability 323
▁Di 323
▁Executive 323
▁Hans 323
▁OLED 323
▁Senator 323
▁burdensome 323
▁chamber 323
▁communicating 323
▁dessert 323
▁erupted 323
▁favors 323
▁foldable 323
▁harvest 323
▁label 323
▁luxurious 323
▁planted 323
▁quantitative 323
▁trick 323
National 322
ident 322
▁1.6 322
▁Come 322
▁Disaster 322
▁Fl 322
▁Kuk 322
▁arises 322
▁congratulatory 322
▁cosmetic 322
▁optical 322
▁revitalization 322
▁statues 322
▁successor 322
▁withdrew 322
People 321
aces 321
ct 321
den 321
inter 321
ray 321
▁Ass 321
▁Commissioner 321
▁Little 321
▁Sharing 321
▁affiliate 321
▁bail 321
▁discharge 321
▁drops 321
▁identical 321
▁inflammation 321
▁intermediate 321
▁magnitude 321
▁pricing 321
▁umbrella 321
BC 320
BS 320
ta 320
▁Communist 320
▁Humans 320
▁Oil 320
▁correlation 320
▁crazy 320
▁doubts 320
▁exchanging 320
▁faithfully 320
▁gang 320
▁protesting 320
▁provisions 320
▁radioactive 320
▁recurrence 320
▁trapped 320
iers 319
usion 319
▁ROK 319
▁Spirit 319
▁aide 319
▁algae 319
▁ambiguous 319
▁apple 319
▁assess 319
▁bamboo 319
▁climbed 319
▁deepening 319
▁nurse 319
▁pottery 319
▁proceeds 319
▁qualified 319
▁sadness 319
36 318
cer 318
get 318
leg 318
▁4,000 318
▁Bur 318
▁Gar 318
▁Mall 318
▁Par 318
▁Peter 318
▁Sir 318
▁Terminal 318
▁Yeongdong 318
▁calligraphy 318
▁deny 318
▁disadvantages 318
▁followers 318
▁gases 318
▁intensifying 318
▁investigator 318
▁obstacle 318
▁progressed 318
▁releases 318
▁revival 318
▁tongue 318
▁van 318
39 317
ij 317
ita 317
▁5% 317
▁Commercial 317
▁Yo 317
▁benchmark 317
▁complaining 317
▁cont 317
▁dep 317
▁hardware 317
▁manufacture 317
▁melody 317
▁mild 317
▁sal 317
▁te 317
▁unfortunate 317
edge 316
illed 316
▁1.4 316
▁Attorney 316
▁Harry 316
▁Shinzo 316
▁Tongyeong 316
▁Week 316
▁jacket 316
Me 315
bl 315
inated 315
oul 315
▁21, 315
▁88 315
▁Ae 315
▁Iraq 315
▁capitalism 315
▁demonstrations 315
▁dreamed 315
▁exc 315
▁faculty 315
▁fiction 315
▁mat 315
▁opera 315
▁prescription 315
▁protagonist 315
▁rotation 315
▁sa 315
▁tremendous 315
3) 314
ables 314
ison 314
rest 314
▁28, 314
▁69 314
▁CBS 314
▁Disabled 314
▁Newspaper 314
▁cart 314
▁cluster 314
▁corn 314
▁earning 314
▁economically 314
▁elder 314
▁excavated 314
▁incorporated 314
▁mold 314
▁orange 314
▁refuted 314
▁veteran 314
ased 313
eth 313
name 313
stitutional 313
vent 313
▁2002 313
▁Customers 313
▁PyeongChang 313
▁Str 313
▁Treasury 313
▁backdrop 313
▁convert 313
▁delivers 313
▁dominance 313
▁forefront 313
▁graph 313
▁homeless 313
▁sizes 313
▁sons 313
▁subsidy 313
▁tactics 313
▁toxic 313
▁vital 313
7), 312
Star 312
ience 312
side 312
▁2006, 312
▁AS 312
▁Mor 312
▁OECD 312
▁Officials 312
▁ace 312
▁beverage 312
▁budgets 312
▁chip 312
▁consequences 312
▁disappearance 312
▁fantasy 312
▁fastest 312
▁freeze 312
▁interactions 312
▁matching 312
▁mounting 312
▁pad 312
▁tube 312
Pro 311
gan 311
illa 311
mouth 311
ologist 311
osan 311
▁Main 311
▁Pung 311
▁attacking 311
▁collision 311
▁colon 311
▁detective 311
▁exceptional 311
▁fintech 311
▁fortune 311
▁lake 311
▁laptop 311
▁merchant 311
▁mixture 311
▁refrain 311
▁ro 311
▁stressing 311
▁unconscious 311
▁wondered 311
enter 310
osis 310
▁202 310
▁Poland 310
▁accessible 310
▁commented 310
▁craze 310
▁encountered 310
▁ge 310
▁hospitalization 310
▁improvements 310
▁simultaneous 310
▁statute 310
▁vocational 310
▁wound 310
ham 309
iated 309
ister 309
ores 309
▁Large 309
▁Order 309
▁commissioned 309
▁cor 309
▁di 309
▁horizontal 309
▁indicate 309
▁ions 309
▁legend 309
▁minus 309
▁observers 309
▁ratification 309
▁salaries 309
▁tag 309
48 308
While 308
ately 308
bit 308
ica 308
mat 308
▁Ant 308
▁George 308
▁Seogwipo 308
▁Standard 308
▁deregulation 308
▁disciples 308
▁handsome 308
▁oriental 308
▁reshuffle 308
▁taekwondo 308
▁tale 308
looking 307
▁74 307
▁DM 307
▁Hwan 307
▁Presbyterian 307
▁Provisional 307
▁Treaty 307
▁acquiring 307
▁collateral 307
▁competed 307
▁globalization 307
▁immersion 307
▁imposing 307
▁po 307
▁prince 307
▁publish 307
▁reinforcement 307
▁resting 307
▁rookie 307
32 306
34 306
first 306
ola 306
outs 306
reg 306
▁AM 306
▁Dang 306
▁Diana 306
▁Gallery 306
▁NH 306
▁YG 306
▁accomplish 306
▁affair 306
▁audio 306
▁comic 306
▁dining 306
▁honey 306
▁insight 306
▁inspected 306
▁odds 306
▁preferences 306
ami 305
gak 305
hin 305
yon 305
▁31, 305
▁Brand 305
▁Castle 305
▁Sw 305
▁blossoms 305
▁corrected 305
▁engineer 305
▁envoy 305
▁gentle 305
▁greeted 305
▁pleased 305
▁und 305
elling 304
ided 304
▁13, 304
▁Goguryeo 304
▁Guardian 304
▁Ins 304
▁Regardless 304
▁blowing 304
▁commercialized 304
▁extending 304
▁finances 304
▁flash 304
▁healthcare 304
▁maturity 304
▁medicines 304
▁ports 304
▁pump 304
▁verge 304
ices 303
▁BBC 303
▁Judiciary 303
▁Kiwoom 303
▁Mang 303
▁Naturally 303
▁Rec 303
▁Series 303
▁Try 303
▁allocated 303
▁answering 303
▁biased 303
▁clarify 303
▁consisted 303
▁cultivation 303
▁intensively 303
▁lawsuits 303
▁nationality 303
▁oxide 303
▁requiring 303
▁respective 303
▁slope 303
▁steak 303
▁wholesale 303
▁wings 303
utes 302
▁COVID 302
▁costumes 302
▁exaggeration 302
▁expired 302
▁mainland 302
▁salad 302
▁soju 302
▁tables 302
▁tends 302
Be 301
ID 301
▁Beom 301
▁Far 301
▁Microsoft 301
▁Stone 301
▁bookstore 301
▁coup 301
▁dominate 301
▁faithful 301
▁foreigner 301
▁nutrition 301
▁pitching 301
▁squ 301
▁upgraded 301
▁weird 301
SS 300
ason 300
eless 300
isan 300
▁Lawyer 300
▁auditorium 300
▁cultivate 300
▁evaluations 300
▁exhibit 300
▁forcing 300
▁fossil 300
▁opponents 300
▁perhaps 300
▁pressing 300
▁purifiers 300
▁rooftop 300
▁summary 300
▁upgrade 300
▁worsen 300
asing 299
aya 299
ike 299
owned 299
water 299
▁2005 299
▁Daniel 299
▁Santa 299
▁accelerated 299
▁addressed 299
▁bands 299
▁carries 299
▁download 299
▁indeed 299
▁infringement 299
▁keywords 299
▁normalization 299
▁picking 299
▁plunged 299
▁revenge 299
▁seaweed 299
▁stipulates 299
▁surely 299
▁underprivileged 299
According 298
ility 298
sided 298
▁71 298
▁CEOs 298
▁Too 298
▁brokerage 298
▁chips 298
▁computing 298
▁dimension 298
▁interim 298
▁lips 298
▁pat 298
▁protocol 298
▁stimulate 298
▁urging 298
atar 297
chief 297
gy 297
▁1,500 297
▁Check 297
▁Look 297
▁Mok 297
▁Rem 297
▁bat 297
▁celebrated 297
▁conscious 297
▁creators 297
▁desperately 297
▁dye 297
▁gotten 297
▁hyper 297
▁owns 297
▁parked 297
▁pigs 297
▁trail 297
Some 296
wha 296
▁3.5 296
▁Asked 296
▁Louis 296
▁Railway 296
▁Rome 296
▁Rose 296
▁applause 296
▁breathe 296
▁crown 296
▁ext 296
▁fluctuations 296
▁legitimate 296
▁memorable 296
▁professionalism 296
▁profitable 296
▁rape 296
▁reg 296
▁scary 296
▁specialist 296
▁unemployed 296
55 295
ching 295
isc 295
sy 295
val 295
yeo 295
▁2.0 295
▁Display 295
▁Early 295
▁Express 295
▁Fine 295
▁Literature 295
▁addiction 295
▁bars 295
▁bet 295
▁destroying 295
▁dictatorship 295
▁disagreement 295
▁exhaust 295
▁integrity 295
▁loyalty 295
600 294
ained 294
kyo 294
step 294
▁Concerns 294
▁Dubai 294
▁Lady 294
▁Monetary 294
▁Pavilion 294
▁Po 294
▁coins 294
▁deteriorated 294
▁digestive 294
▁internally 294
▁journal 294
▁potatoes 294
▁rad 294
▁relocated 294
▁strikes 294
▁undergo 294
400 293
mer 293
omp 293
▁20- 293
▁25, 293
▁Kant 293
▁Similar 293
▁Whenever 293
▁accommodate 293
▁charcoal 293
▁circumstance 293
▁discomfort 293
▁empirical 293
▁evenly 293
▁exhibits 293
▁literacy 293
▁nan 293
▁plates 293
▁sole 293
▁stagnant 293
▁traits 293
▁veterans 293
▁yours 293
Sh 292
▁Finland 292
▁Sciences 292
▁abusing 292
▁associations 292
▁beds 292
▁challenged 292
▁immersed 292
▁sends 292
▁sensation 292
▁spectacular 292
▁stealing 292
▁timely 292
▁vicious 292
▁workforce 292
anda 291
unt 291
▁1950 291
▁Armed 291
▁Bul 291
▁Coin 291
▁Content 291
▁Gangdong 291
▁clip 291
▁combustion 291
▁conveniently 291
▁foul 291
▁ghost 291
▁intent 291
▁mentally 291
▁performers 291
▁refreshing 291
▁sellers 291
▁tablet 291
▁testified 291
▁unchanged 291
3), 290
AD 290
Mr 290
ano 290
arian 290
gwan 290
hosted 290
part 290
utions 290
▁Anyone 290
▁Lu 290
▁Six 290
▁comics 290
▁conscience 290
▁creatures 290
▁defamation 290
▁deliberately 290
▁mar 290
▁probation 290
▁propaganda 290
▁pyeong 290
▁smiled 290
▁submitting 290
▁thickness 290
action 289
chol 289
ulated 289
▁0.0 289
▁Bill 289
▁CS 289
▁Gwacheon 289
▁Gwan 289
▁Originally 289
▁Researcher 289
▁Veterans 289
▁cliff 289
▁er 289
▁idols 289
▁invention 289
▁lottery 289
▁potato 289
▁recognizing 289
▁sake 289
▁sour 289
▁tangible 289
▁withdrawn 289
Now 288
astic 288
ount 288
▁19, 288
▁Chu 288
▁Speaker 288
▁appliance 288
▁bears 288
▁beverages 288
▁boiled 288
▁camps 288
▁coat 288
▁costume 288
▁erected 288
▁lump 288
▁navigation 288
▁orbit 288
▁overlapping 288
▁repay 288
▁righteous 288
▁travels 288
▁viewpoint 288
.) 287
Our 287
bers 287
ider 287
itch 287
working 287
▁Enforcement 287
▁Way 287
▁amusement 287
▁athlete 287
▁bias 287
▁click 287
▁clinic 287
▁hardships 287
▁headlines 287
▁individually 287
▁lightly 287
▁oral 287
▁sk 287
▁stew 287
▁ton 287
▁unt 287
▁vegetable 287
Don 286
▁1.7 286
▁3. 286
▁Deal 286
▁Hand 286
▁Kun 286
▁Kyoto 286
▁Liberation 286
▁Nan 286
▁SUV 286
▁TVs 286
▁Was 286
▁allies 286
▁committing 286
▁competent 286
▁emitted 286
▁euros 286
▁guided 286
▁noodle 286
▁openly 286
▁perpetrator 286
▁placing 286
▁reinforce 286
▁renewed 286
▁rolling 286
▁sol 286
▁survived 286
▁vocabulary 286
added 285
ded 285
ound 285
ract 285
▁188 285
▁Cambodia 285
▁Fan 285
▁Style 285
▁chaebol 285
▁depart 285
▁extract 285
▁fog 285
▁genius 285
▁ins 285
▁myth 285
▁politically 285
▁sculpture 285
▁skating 285
▁slept 285
▁sodium 285
▁straightforward 285
▁troupe 285
gyeom 284
illing 284
president 284
▁Campus 284
▁Dis 284
▁Jane 284
▁commentary 284
▁elite 284
▁evacuated 284
▁lately 284
▁limitation 284
▁mouse 284
▁regulated 284
▁spouse 284
▁stimulus 284
TO 283
eration 283
ifier 283
ior 283
lessly 283
mok 283
ote 283
unk 283
urn 283
ution 283
▁Er 283
▁Nowadays 283
▁Pink 283
▁academia 283
▁airplane 283
▁crystal 283
▁defending 283
▁entity 283
▁lined 283
▁measles 283
▁perceive 283
▁promotions 283
▁radical 283
▁shoe 283
▁trace 283
▁wars 283
IP 282
gyun 282
third 282
▁Mother 282
▁belonged 282
▁borders 282
▁decentral 282
▁fuels 282
▁ignoring 282
▁intake 282
▁lightning 282
▁retailers 282
▁stabbed 282
▁stipulated 282
▁subtle 282
ella 281
lex 281
most 281
ries 281
road 281
▁Gojong 281
▁Suh 281
▁affecting 281
▁applicable 281
▁compiled 281
▁disposition 281
▁imperial 281
▁instructed 281
▁lip 281
▁missionaries 281
▁pollutants 281
▁probe 281
▁radar 281
▁refusal 281
▁routine 281
▁summarized 281
▁sur 281
▁tailored 281
FA 280
Moon 280
ape 280
bed 280
een 280
enc 280
gap 280
ift 280
ild 280
▁15,000 280
▁Billboard 280
▁Gam 280
▁Hankyoreh 280
▁Met 280
▁Overseas 280
▁PD 280
▁SW 280
▁booking 280
▁breeding 280
▁chairperson 280
▁deemed 280
▁interface 280
▁protons 280
EU 279
ato 279
colored 279
ranked 279
woman 279
▁24, 279
▁40,000 279
▁Dal 279
▁Hot 279
▁Ind 279
▁Texas 279
▁applicant 279
▁catches 279
▁contacts 279
▁dense 279
▁disappears 279
▁failures 279
▁freezing 279
▁grant 279
▁headache 279
▁judgments 279
▁landlord 279
▁mentioning 279
▁packages 279
▁revenues 279
▁someday 279
FC 278
gong 278
▁98 278
▁Inha 278
▁Kids 278
▁Rain 278
▁Reg 278
▁TF 278
▁Together 278
▁atmospheric 278
▁authors 278
▁bargaining 278
▁geometry 278
▁omitted 278
▁rented 278
▁vague 278
▁washed 278
300 277
inate 277
ires 277
ody 277
ral 277
tes 277
uted 277
vis 277
▁2004, 277
▁Ba 277
▁Guarantee 277
▁Products 277
▁allocation 277
▁anticipation 277
▁apparent 277
▁detained 277
▁hy 277
▁instances 277
▁intentional 277
▁nurses 277
▁priest 277
▁prizes 277
▁provider 277
▁splendid 277
▁swim 277
▁throne 277
akes 276
duk 276
esteem 276
private 276
▁26, 276
▁27, 276
▁Ber 276
▁Graduate 276
▁Inf 276
▁Mid 276
▁castle 276
▁cheerful 276
▁coaches 276
▁competency 276
▁convinced 276
▁differential 276
▁directing 276
▁earthquakes 276
▁engaging 276
▁icon 276
▁march 276
▁thereby 276
1), 275
breaking 275
including 275
ows 275
▁Boston 275
▁Cinema 275
▁Citizen 275
▁Donghae 275
▁Estate 275
▁Hynix 275
▁Mad 275
▁Max 275
▁accidentally 275
▁ag 275
▁aluminum 275
▁apparently 275
▁baggage 275
▁cheers 275
▁circular 275
▁dances 275
▁database 275
▁neighbor 275
▁noon 275
▁pipes 275
▁sensitivity 275
▁terrorist 275
eum 274
hw 274
itor 274
national 274
▁30- 274
▁6- 274
▁Fre 274
▁Radio 274
▁UAE 274
▁Yeongnam 274
▁candlelight 274
▁celebrating 274
▁contractor 274
▁detached 274
▁elegant 274
▁eternal 274
▁exhibited 274
▁inserted 274
▁lock 274
▁obligations 274
▁shrinking 274
▁suggestions 274
▁sung 274
▁wing 274
-201 273
TA 273
ced 273
fried 273
ft 273
ias 273
▁Bell 273
▁Bush 273
▁Employees 273
▁Mong 273
▁Namyangju 273
▁Study 273
▁Wind 273
▁automotive 273
▁bride 273
▁centering 273
▁dirty 273
▁fingers 273
▁forcibly 273
▁gravitational 273
▁hybrid 273
▁mixing 273
▁odd 273
▁polymer 273
▁proves 273
▁proving 273
▁refusing 273
▁rem 273
▁resembles 273
▁selects 273
DP 272
ading 272
arding 272
dan 272
lers 272
oting 272
sp 272
uma 272
▁2000, 272
▁Decree 272
▁Duty 272
▁Laos 272
▁des 272
▁innocence 272
▁learners 272
▁legitimacy 272
▁nobody 272
▁orientation 272
▁plain 272
▁pour 272
▁religions 272
▁suppose 272
▁synthesis 272
apping 271
ique 271
med 271
osed 271
rich 271
selling 271
▁2010. 271
▁95 271
▁Centers 271
▁LNG 271
▁amounted 271
▁appreciated 271
▁considerably 271
▁editor 271
▁flooding 271
▁gallery 271
▁illustration 271
▁nephew 271
▁scratch 271
▁spr 271
▁torn 271
▁unfairly 271
▁unilateral 271
1) 270
8), 270
season 270
sports 270
ued 270
▁2009. 270
▁82 270
▁Folk 270
▁Ice 270
▁Nature 270
▁accelerating 270
▁accepts 270
▁arrives 270
▁centimeters 270
▁commemoration 270
▁dear 270
▁editorial 270
▁fraudulent 270
▁greet 270
▁hygiene 270
▁lane 270
▁libraries 270
▁metaphor 270
▁missions 270
▁observing 270
▁occasions 270
▁restrict 270
▁sphere 270
▁tire 270
▁virtue 270
ED 269
Han 269
aki 269
played 269
▁Front 269
▁Gl 269
▁Hitler 269
▁Learning 269
▁THAAD 269
▁alter 269
▁calculations 269
▁committees 269
▁curved 269
▁depressed 269
▁essentially 269
▁gods 269
▁grains 269
▁hostile 269
▁illusion 269
▁lifelong 269
▁luncheon 269
▁recovering 269
▁regulate 269
▁sciences 269
▁stiff 269
5), 268
Al 268
cheong 268
iles 268
people 268
play 268
▁2.2 268
▁FTA 268
▁Pangyo 268
▁Ra 268
▁Thomas 268
▁albums 268
▁bull 268
▁conf 268
▁consultative 268
▁cure 268
▁disappointing 268
▁fighters 268
▁inv 268
▁loose 268
▁negligence 268
▁possess 268
▁regards 268
▁shouting 268
▁societies 268
▁starter 268
▁titles 268
▁valued 268
▁vibration 268
Fi 267
First 267
ads 267
imp 267
ksan 267
neung 267
two 267
vel 267
▁Challenge 267
▁Chicken 267
▁acceptable 267
▁accessories 267
▁altered 267
▁cartoons 267
▁consist 267
▁contacting 267
▁enabling 267
▁inspector 267
▁modernization 267
▁narrowed 267
▁petroleum 267
▁phishing 267
▁sensory 267
▁spectrum 267
▁understands 267
flight 266
hor 266
see 266
yp 266
▁Back 266
▁Ball 266
▁Geoje 266
▁Namwon 266
▁Rhee 266
▁Tech 266
▁assumption 266
▁coaching 266
▁demolition 266
▁demonstrating 266
▁der 266
▁fears 266
▁injected 266
▁leather 266
▁nurture 266
▁objectives 266
▁poorly 266
▁promotes 266
-20 265
6), 265
64 265
Palembang 265
ima 265
▁Crime 265
▁Duk 265
▁Interest 265
▁Railroad 265
▁Traffic 265
▁anonymous 265
▁attachment 265
▁ballistic 265
▁bul 265
▁craft 265
▁departed 265
▁designing 265
▁enforced 265
▁fermented 265
▁fingerprint 265
▁inspired 265
▁leaf 265
▁liaison 265
▁seas 265
▁surroundings 265
▁theft 265
21 264
da 264
ils 264
view 264
▁112 264
▁29, 264
▁7- 264
▁AP 264
▁Nowon 264
▁Pakistan 264
▁Prefecture 264
▁Unified 264
▁boiling 264
▁colleague 264
▁discovering 264
▁dissatisfaction 264
▁dolls 264
▁module 264
▁preview 264
▁radon 264
▁seal 264
▁subcommittee 264
▁transfers 264
From 263
Th 263
ani 263
employment 263
ends 263
erg 263
iment 263
ishes 263
lets 263
tier 263
ually 263
▁23, 263
▁Cyber 263
▁Fox 263
▁LH 263
▁Measures 263
▁Messi 263
▁Mir 263
▁Pat 263
▁Upon 263
▁codes 263
▁conceptual 263
▁dismantling 263
▁friction 263
▁mod 263
▁railways 263
▁spirits 263
▁supplier 263
atively 262
bs 262
kin 262
self 262
uan 262
yeop 262
· 262
▁110 262
▁2003, 262
▁350 262
▁Bears 262
▁Coffee 262
▁Gal 262
▁Mars 262
▁Online 262
▁Sookmyung 262
▁Subway 262
▁Trust 262
▁Wage 262
▁cellphone 262
▁criticisms 262
▁delete 262
▁jumping 262
▁laughing 262
▁piled 262
▁towns 262
▁trainees 262
ek 261
ended 261
otic 261
power 261
second 261
three 261
▁Growth 261
▁Liverpool 261
▁Typhoon 261
▁autopsy 261
▁calmly 261
▁delaying 261
▁gaps 261
▁genome 261
▁guideline 261
▁juniors 261
▁min 261
▁noble 261
▁presentations 261
▁procurement 261
▁rewards 261
▁slavery 261
▁tape 261
DS 260
aem 260
asan 260
iled 260
oper 260
ther 260
ward 260
▁CD 260
▁Championships 260
▁Enterprise 260
▁Hyeong 260
▁Jack 260
▁Mobis 260
▁Restoration 260
▁Tim 260
▁Vision 260
▁Woods 260
▁activate 260
▁activation 260
▁circumstantial 260
▁exporting 260
▁horses 260
▁licenses 260
▁litigation 260
▁manipulated 260
▁moderate 260
▁museums 260
▁strive 260
22 259
ba 259
care 259
keun 259
rise 259
rit 259
▁DJ 259
▁Ireland 259
▁Lynde 259
▁accusation 259
▁advancing 259
▁borrowing 259
▁burial 259
▁desert 259
▁gaze 259
▁marathon 259
▁mere 259
▁nickname 259
▁pledges 259
▁rainfall 259
▁reminded 259
hi 258
rad 258
uous 258
very 258
▁ABC 258
▁Corporate 258
▁Def 258
▁Eul 258
▁Pop 258
▁corresponds 258
▁diversified 258
▁dr 258
▁grabbed 258
▁imagined 258
▁prevalent 258
▁surpass 258
▁tele 258
▁toll 258
▁tooth 258
▁translate 258
▁tribute 258
4), 257
Dong 257
PC 257
ature 257
ctions 257
elect 257
iates 257
onic 257
▁Gwangmyeong 257
▁Resort 257
▁che 257
▁composer 257
▁denuclearize 257
▁feasible 257
▁fer 257
▁gross 257
▁headquarter 257
▁ion 257
▁mindset 257
▁modify 257
▁pillars 257
▁purifier 257
▁tent 257
Comp 256
PO 256
aving 256
fire 256
wide 256
ö 256
▁Advertising 256
▁Dragon 256
▁Egyptian 256
▁Hawaii 256
▁Nissan 256
▁blank 256
▁boiler 256
▁bored 256
▁bother 256
▁cleaner 256
▁comparative 256
▁diameter 256
▁dimensions 256
▁grab 256
▁interviewed 256
▁keynote 256
▁mud 256
▁performs 256
▁pol 256
▁revitalizing 256
▁serial 256
▁shirt 256
▁tightening 256
▁uranium 256
67 255
aced 255
aded 255
dam 255
hearted 255
ichi 255
ners 255
uses 255
▁22, 255
▁79 255
▁Evaluation 255
▁Hol 255
▁Prosecution 255
▁Pur 255
▁Siheung 255
▁Truth 255
▁Yul 255
▁accumulate 255
▁bent 255
▁cond 255
▁coupons 255
▁criterion 255
▁extracted 255
▁graduating 255
▁hunger 255
▁inconveniences 255
▁jar 255
▁joints 255
▁poison 255
▁satisfactory 255
▁smallest 255
▁spokesperson 255
▁stabilization 255
▁tense 255
▁tragic 255
▁treasure 255
base 254
ific 254
lement 254
rug 254
uality 254
umi 254
▁1,0 254
▁Beauty 254
▁Com 254
▁Hui 254
▁Liu 254
▁Pass 254
▁collided 254
▁encouragement 254
▁hesitate 254
▁influences 254
▁influx 254
▁magnet 254
▁persuasion 254
▁retire 254
▁sacred 254
▁speculative 254
▁tobacco 254
omb 253
rs 253
▁86 253
▁Band 253
▁Behind 253
▁Ceremony 253
▁Dongjak 253
▁Farm 253
▁Sept 253
▁aptitude 253
▁bin 253
▁companion 253
▁dictionary 253
▁eager 253
▁enzymes 253
▁generating 253
▁hyp 253
▁incentive 253
▁inherent 253
▁initiated 253
▁offshore 253
▁pal 253
▁paths 253
▁regain 253
▁specifications 253
▁wa 253
Gangnam 252
performance 252
rec 252
rel 252
rot 252
stop 252
▁140 252
▁Against 252
▁Gyu 252
▁Int 252
▁Sexual 252
▁accomplished 252
▁acute 252
▁blamed 252
▁drastic 252
▁helicopters 252
▁karaoke 252
▁letting 252
▁mal 252
▁monster 252
▁plaintiff 252
▁portable 252
▁prayed 252
▁relay 252
▁repaired 252
▁revelation 252
▁shaped 252
▁surgical 252
▁unexpectedly 252
▁violates 252
ands 251
eo 251
koo 251
▁24- 251
▁Advanced 251
▁COE 251
▁Didn 251
▁PO 251
▁Techno 251
▁altogether 251
▁attaching 251
▁blanket 251
▁burns 251
▁confession 251
▁default 251
▁employers 251
▁equations 251
▁odor 251
▁packing 251
▁possessed 251
idence 250
nes 250
oud 250
public 250
▁4. 250
▁87 250
▁Economics 250
▁Kane 250
▁Maduro 250
▁Mass 250
▁Mat 250
▁VIP 250
▁bonus 250
▁commentator 250
▁conscientious 250
▁disappointment 250
▁favored 250
▁hom 250
▁interactive 250
▁interpretations 250
▁teaches 250
.0% 249
IF 249
RS 249
aph 249
from 249
hel 249
icy 249
ux 249
▁Colombia 249
▁Crown 249
▁Iron 249
▁Muslim 249
▁Saemangeum 249
▁airports 249
▁ankle 249
▁ap 249
▁carved 249
▁choreography 249
▁conjunction 249
▁developmental 249
▁drought 249
▁engagement 249
▁geographical 249
▁graphics 249
▁portrayed 249
▁priced 249
▁socialist 249
▁volleyball 249
7) 248
75 248
BA 248
These 248
inger 248
ipped 248
ng 248
pa 248
yn 248
▁Tesla 248
▁UV 248
▁bow 248
▁comprehensively 248
▁deployment 248
▁fishermen 248
▁flowed 248
▁fluid 248
▁grilled 248
▁ham 248
▁interpreter 248
▁minorities 248
▁overlap 248
▁pole 248
▁quota 248
▁reforming 248
▁rel 248
▁shrimp 248
▁skilled 248
▁spinal 248
▁stamp 248
▁surged 248
▁tightly 248
▁underlying 248
NS 247
aves 247
irm 247
ject 247
more 247
ole 247
shirt 247
used 247
▁Ac 247
▁Acc 247
▁Consumers 247
▁Lastly 247
▁Ret 247
▁Win 247
▁advertisers 247
▁choir 247
▁cleaned 247
▁educated 247
▁enemies 247
▁isolation 247
▁killer 247
▁multinational 247
▁optimistic 247
▁profession 247
▁spoken 247
▁striking 247
▁tear 247
▁toys 247
▁tw 247
▁vacancy 247
99 246
ender 246
stone 246
uth 246
▁1% 246
▁Animal 246
▁Austria 246
▁Choir 246
▁Fin 246
▁Mission 246
▁Shimbun 246
▁absorption 246
▁acquitted 246
▁beside 246
▁chairs 246
▁diver 246
▁elasticity 246
▁exempt 246
▁generates 246
▁holder 246
▁limiting 246
▁loving 246
▁membrane 246
▁neglect 246
▁pairs 246
▁pulling 246
▁rap 246
▁recycling 246
▁sued 246
▁throat 246
▁unlimited 246
dle 245
ented 245
own 245
round 245
trans 245
▁2001, 245
▁3.1 245
▁Apartment 245
▁Chile 245
▁Ku 245
▁Metro 245
▁Studio 245
▁Vladimir 245
▁advances 245
▁den 245
▁enjoyable 245
▁filing 245
▁intr 245
▁jam 245
▁linear 245
▁mill 245
▁misunderstand 245
▁parcel 245
▁qualitative 245
▁radius 245
▁rope 245
▁thunder 245
▁warmth 245
MI 244
arily 244
dom 244
ette 244
human 244
igation 244
ona 244
sub 244
ume 244
▁(20 244
▁Accordingly 244
▁Blockchain 244
▁Give 244
▁Intellectual 244
▁KIA 244
▁Meiji 244
▁Yongbyon 244
▁administrator 244
▁breach 244
▁careers 244
▁conferences 244
▁exploring 244
▁humidity 244
▁imprisoned 244
▁investigators 244
▁ne 244
▁organisms 244
▁repeating 244
▁ripple 244
▁segment 244
8) 243
Jeong 243
Sun 243
osing 243
ott 243
uch 243
▁Monk 243
▁Sand 243
▁Van 243
▁advisor 243
▁bleeding 243
▁centuries 243
▁conflicting 243
▁glucose 243
▁hitter 243
▁insects 243
▁intellectuals 243
▁invented 243
▁mess 243
▁protects 243
▁verdict 243
▁wears 243
EA 242
PM 242
ancing 242
dis 242
ogen 242
ulating 242
▁Kangwon 242
▁advise 242
▁auxiliary 242
▁bankruptcy 242
▁biology 242
▁continent 242
▁critic 242
▁earliest 242
▁fortunate 242
▁immun 242
▁layout 242
▁methodology 242
▁motivated 242
▁reservoir 242
▁respiratory 242
▁sufficiently 242
▁symbolizes 242
Many 241
Re 241
ails 241
born 241
fold 241
sale 241
ury 241
▁96 241
▁BC 241
▁Ethics 241
▁Hungary 241
▁Minimum 241
▁assuming 241
▁col 241
▁concentrating 241
▁counterattack 241
▁downs 241
▁dragged 241
▁exclusion 241
▁lid 241
▁lighter 241
▁outflow 241
▁pronunciation 241
▁protective 241
▁scar 241
▁shy 241
▁visually 241
▁wavelength 241
800 240
oes 240
read 240
▁1920 240
▁Jobs 240
▁SAT 240
▁beforehand 240
▁coating 240
▁consignment 240
▁divisions 240
▁fr 240
▁medications 240
▁offenders 240
▁organizers 240
▁patience 240
▁rocket 240
-15 239
3% 239
rib 239
▁Analysis 239
▁Cal 239
▁Islam 239
▁Namsan 239
▁Place 239
▁Rel 239
▁Shall 239
▁Specifically 239
▁backgrounds 239
▁casual 239
▁cattle 239
▁citizenship 239
▁comedian 239
▁dong 239
▁generous 239
▁loaded 239
▁mult 239
▁normalize 239
▁pillar 239
▁shipments 239
▁stays 239
▁threaten 239
6) 238
ips 238
oses 238
usan 238
▁0.5 238
▁Cloud 238
▁Dutch 238
▁Teacher 238
▁Video 238
▁acceleration 238
▁creator 238
▁freight 238
▁hiking 238
▁perceptions 238
▁phrases 238
▁pin 238
▁prescribed 238
▁restoring 238
▁sanction 238
▁soy 238
▁weaken 238
▁whereabouts 238
9), 237
form 237
gl 237
ogue 237
with 237
▁Cheil 237
▁Eight 237
▁Joseph 237
▁Kumgang 237
▁Making 237
▁Micro 237
▁accumulation 237
▁adverse 237
▁authorized 237
▁deposited 237
▁embroiled 237
▁encourages 237
▁hell 237
▁lit 237
▁lively 237
▁princess 237
▁reb 237
▁recipient 237
▁specify 237
▁unavoidable 237
GB 236
PI 236
Through 236
aching 236
ament 236
ilt 236
ural 236
world 236
▁(10 236
▁MO 236
▁Sae 236
▁Samcheok 236
▁Shop 236
▁Wood 236
▁architect 236
▁bullpen 236
▁conducts 236
▁conglomerate 236
▁containers 236
▁coordinate 236
▁cord 236
▁dental 236
▁equ 236
▁fireworks 236
▁merged 236
▁perpetrators 236
▁precedent 236
▁quiz 236
▁specialists 236
▁spite 236
▁symptom 236
▁tracks 236
▁trauma 236
inch 235
kwang 235
met 235
▁1.9 235
▁Macron 235
▁Mer 235
▁Past 235
▁Shortly 235
▁Yemen 235
▁beloved 235
▁boards 235
▁calcium 235
▁casting 235
▁darkness 235
▁exercised 235
▁greed 235
▁planes 235
▁posing 235
▁sexy 235
▁thanked 235
▁underwear 235
▁villa 235
ired 234
key 234
set 234
▁Dol 234
▁Jud 234
▁Money 234
▁Performance 234
▁Ste 234
▁Watch 234
▁correspond 234
▁delays 234
▁elders 234
▁engraved 234
▁eradicate 234
▁fitness 234
▁greetings 234
▁intact 234
▁joke 234
▁millimeters 234
▁reunification 234
▁rot 234
▁specializes 234
▁sympathize 234
▁tide 234
▁uns 234
▁weaker 234
Go 233
IM 233
alk 233
door 233
hereinafter 233
ney 233
▁Arirang 233
▁Pol 233
▁aesthetics 233
▁aunt 233
▁categorized 233
▁chiefs 233
▁conviction 233
▁culprit 233
▁exaggerated 233
▁expelled 233
▁farmland 233
▁flour 233
▁hadn 233
▁hunting 233
▁kindly 233
▁ob 233
▁pledged 233
▁plunge 233
▁protesters 233
▁recommends 233
▁rolled 233
▁starch 233
▁steal 233
▁traditions 233
65 232
Ar 232
ET 232
can 232
char 232
col 232
directed 232
gar 232
gung 232
ios 232
itted 232
ker 232
▁(0. 232
▁2007. 232
▁Bangkok 232
▁Code 232
▁Gaya 232
▁Numerous 232
▁adolescents 232
▁attends 232
▁battles 232
▁clay 232
▁collaborate 232
▁conditioners 232
▁custody 232
▁det 232
▁ed 232
▁falsely 232
▁globally 232
▁graders 232
▁hated 232
▁prisoners 232
▁proposition 232
▁refined 232
▁rude 232
▁scrap 232
▁sponsors 232
▁subtitles 232
▁terminated 232
▁weaknesses 232
▁wheels 232
▁wrinkles 232
oup 231
pp 231
pping 231
ship 231
tery 231
▁170 231
▁2011. 231
▁Action 231
▁Ann 231
▁Assessment 231
▁Bal 231
▁Bob 231
▁Goldman 231
▁Uzbek 231
▁amateur 231
▁binding 231
▁contributes 231
▁creditors 231
▁developments 231
▁drying 231
▁fin 231
▁guns 231
▁keyword 231
▁miracle 231
▁photograph 231
▁receipts 231
▁resemble 231
▁respects 231
▁spec 231
▁widened 231
RC 230
bul 230
ential 230
erv 230
eter 230
specific 230
▁2018-2019 230
▁Contrary 230
▁Exp 230
▁Has 230
▁Legislation 230
▁Tri 230
▁businessman 230
▁educate 230
▁matched 230
▁mountainous 230
▁objectively 230
▁optimized 230
▁recipe 230
▁unjust 230
▁wherever 230
catching 229
empt 229
nal 229
▁150,000 229
▁3.3 229
▁Hanam 229
▁Independent 229
▁Sachs 229
▁adviser 229
▁artwork 229
▁auditor 229
▁clan 229
▁dismiss 229
▁edited 229
▁entertainers 229
▁guides 229
▁imbalance 229
▁installment 229
▁intangible 229
▁involve 229
▁jet 229
▁multilateral 229
▁mural 229
▁reckless 229
▁rituals 229
▁sushi 229
▁vividly 229
▁vowed 229
Jang 228
Love 228
iest 228
itude 228
pre 228
str 228
▁4.5 228
▁Artificial 228
▁Factory 228
▁Gy 228
▁Henry 228
▁Jewish 228
▁Mercedes 228
▁Model 228
▁Tree 228
▁blueprint 228
▁constituency 228
▁converting 228
▁countermeasure 228
▁diary 228
▁extinguished 228
▁fur 228
▁glory 228
▁intend 228
▁leftist 228
▁maps 228
▁motorcycle 228
▁overly 228
▁profound 228
▁reconstructed 228
▁somehow 228
▁syn 228
▁toy 228
4) 227
floor 227
inations 227
ipping 227
other 227
rant 227
▁2022. 227
▁Boeing 227
▁Convergence 227
▁Ford 227
▁KO 227
▁Kingdoms 227
▁Matthew 227
▁Morgan 227
▁Oriental 227
▁Shilla 227
▁Yangsan 227
▁acc 227
▁appointments 227
▁attendees 227
▁bench 227
▁chains 227
▁el 227
▁exotic 227
▁franchises 227
▁instantly 227
▁kidney 227
▁lend 227
▁majoring 227
▁masters 227
▁microbes 227
▁musician 227
▁reminiscent 227
▁silicon 227
▁suffers 227
▁ver 227
▁writes 227
EL 226
High 226
ando 226
comm 226
eep 226
ees 226
iving 226
omy 226
ove 226
photo 226
risk 226
vert 226
▁Low 226
▁Sad 226
▁Taking 226
▁Te 226
▁Tong 226
▁antibiotics 226
▁arbitrarily 226
▁beam 226
▁conclusions 226
▁destinations 226
▁elsewhere 226
▁glimpse 226
▁ha 226
▁hatred 226
▁insisting 226
▁majored 226
▁pasta 226
▁petitions 226
▁shifting 226
▁sword 226
acks 225
ange 225
ked 225
oli 225
olog 225
uting 225
▁89 225
▁Assistant 225
▁Bupyeong 225
▁CGV 225
▁Fans 225
▁Gimje 225
▁Sangju 225
▁Seongsan 225
▁Ta 225
▁calculus 225
▁compliance 225
▁congressman 225
▁delighted 225
▁employ 225
▁flesh 225
▁flocked 225
▁fluent 225
▁motive 225
▁orchestra 225
▁salmon 225
▁shine 225
5) 224
King 224
arch 224
hic 224
ories 224
osp 224
quarter 224
zing 224
ü 224
▁92 224
▁Cafe 224
▁Den 224
▁Frank 224
▁Set 224
▁anticipate 224
▁blessing 224
▁bonuses 224
▁enjoys 224
▁expedition 224
▁fibers 224
▁gateway 224
▁hinted 224
▁inhib 224
▁inviting 224
▁mice 224
▁mineral 224
▁neutrons 224
▁participant 224
▁productive 224
▁quarterfinals 224
▁remodeling 224
▁semifinals 224
▁unpredictable 224
any 223
ection 223
ener 223
ico 223
ota 223
por 223
yer 223
▁Eunpyeong 223
▁Export 223
▁Gapyeong 223
▁Harvard 223
▁McDonald 223
▁Pope 223
▁Pyeongyang 223
▁classrooms 223
▁conc 223
▁disappearing 223
▁dissolved 223
▁honored 223
▁kiln 223
▁kindness 223
▁manipulating 223
▁morale 223
▁nationalism 223
▁obviously 223
▁planting 223
▁portfolio 223
▁reads 223
▁sensibility 223
▁stalled 223
▁unp 223
44 222
amm 222
ashed 222
bal 222
eries 222
izer 222
ographic 222
ood 222
▁Celltrion 222
▁ICO 222
▁Nine 222
▁Swedish 222
▁Taek 222
▁aggressively 222
▁announcer 222
▁cent 222
▁dreaming 222
▁drunken 222
▁efficacy 222
▁enactment 222
▁es 222
▁nail 222
▁noting 222
▁rampant 222
▁sens 222
▁seriousness 222
▁staffs 222
▁supermarket 222
▁urine 222
33 221
Ad 221
Ang 221
By 221
DC 221
eui 221
iber 221
omm 221
▁2008. 221
▁Channel 221
▁Chilgok 221
▁Gimcheon 221
▁Price 221
▁Sri 221
▁Start 221
▁appearances 221
▁appropriately 221
▁captures 221
▁commuting 221
▁contests 221
▁counting 221
▁envy 221
▁exert 221
▁fasting 221
▁insect 221
▁northwest 221
▁perm 221
▁promptly 221
▁reproduction 221
▁resist 221
▁stationed 221
▁symmetry 221
▁tasting 221
Gu 220
Jung 220
Yong 220
aked 220
cle 220
degree 220
lying 220
ould 220
powered 220
renowned 220
rin 220
▁400,000 220
▁Chelsea 220
▁Country 220
▁Hanok 220
▁Manila 220
▁Nazi 220
▁Nothing 220
▁Roy 220
▁Seongdong 220
▁abandon 220
▁altar 220
▁constructing 220
▁dependence 220
▁entities 220
▁indication 220
▁lands 220
▁personalized 220
▁photographer 220
▁poses 220
▁presidency 220
▁randomly 220
▁slower 220
▁vain 220
▁wrist 220
49 219
atives 219
aze 219
dec 219
dol 219
ira 219
nae 219
nyeong 219
ocation 219
pect 219
rum 219
special 219
week 219
▁Bareun 219
▁Happiness 219
▁Nongak 219
▁Personal 219
▁Ref 219
▁behave 219
▁coexistence 219
▁constitutes 219
▁convicted 219
▁exempted 219
▁gradual 219
▁harmonious 219
▁housewives 219
▁justices 219
▁mushrooms 219
▁ribs 219
▁rushing 219
▁sinking 219
▁uncommon 219
,000,000 218
29 218
Corruption 218
Director 218
Young 218
aly 218
city 218
ipp 218
organized 218
orm 218
▁187 218
▁Czech 218
▁Elizabeth 218
▁Jeff 218
▁Naju 218
▁Product 218
▁Ser 218
▁Taean 218
▁Yellow 218
▁adventure 218
▁bas 218
▁ceremonies 218
▁commute 218
▁consortium 218
▁counted 218
▁cracks 218
▁examines 218
▁handmade 218
▁heal 218
▁imminent 218
▁licensing 218
▁permitted 218
▁preemptive 218
▁retro 218
▁skirt 218
▁spotted 218
▁stakeholders 218
▁terrorism 218
▁trailer 218
▁triangle 218
▁unf 218
▁wandering 218
Dae 217
ashes 217
ko 217
production 217
you 217
▁1000 217
▁16. 217
▁186 217
▁Jinhae 217
▁Kolon 217
▁Muslims 217
▁OTT 217
▁Pak 217
▁Reporter 217
▁Shirley 217
▁Smith 217
▁Wanna 217
▁alumni 217
▁beaten 217
▁defines 217
▁diagnostic 217
▁differentiate 217
▁differentiation 217
▁eliminating 217
▁forgive 217
▁idle 217
▁initiatives 217
▁personalities 217
▁philosopher 217
▁questionable 217
▁responds 217
▁rust 217
▁sheets 217
▁theology 217
▁unauthorized 217
▁undermine 217
▁underwater 217
▁wished 217
▁zoo 217
900 216
NG 216
antly 216
ashi 216
berry 216
cy 216
iance 216
iction 216
minister 216
page 216
▁Afterwards 216
▁Full 216
▁Jews 216
▁Khashoggi 216
▁Mil 216
▁Reconciliation 216
▁Tomb 216
▁confidential 216
▁councils 216
▁ent 216
▁hearings 216
▁insurers 216
▁melting 216
▁memorize 216
▁nest 216
▁overt 216
▁rainbow 216
▁rhetoric 216
▁servers 216
▁straw 216
▁tvN 216
▁unite 216
47 215
▁Again 215
▁Dangjin 215
▁Existing 215
▁Mur 215
▁abruptly 215
▁alongside 215
▁bare 215
▁burdens 215
▁celadon 215
▁concessions 215
▁dies 215
▁flaws 215
▁fool 215
▁frustration 215
▁hanok 215
▁integrate 215
▁lithium 215
▁sanitary 215
▁sewage 215
▁simulation 215
▁underwent 215
▁wanting 215
CT 214
May 214
books 214
di 214
gate 214
ours 214
uls 214
value 214
written 214
▁Ahead 214
▁Ang 214
▁Case 214
▁Doctor 214
▁Emirates 214
▁Est 214
▁Friends 214
▁Ming 214
▁Sao 214
▁Tire 214
▁audits 214
▁bachelor 214
▁cam 214
▁ceramics 214
▁cousin 214
▁disturbance 214
▁hal 214
▁ho 214
▁inspiration 214
▁midfielder 214
▁musicals 214
▁obstruction 214
▁remittance 214
▁restroom 214
▁separating 214
▁spray 214
▁tasted 214
elled 213
ension 213
ivism 213
mar 213
ocks 213
they 213
▁Coordination 213
▁Mag 213
▁Martin 213
▁Ukraine 213
▁Vladivostok 213
▁Vygotsky 213
▁Yangju 213
▁analog 213
▁ashamed 213
▁ast 213
▁banquet 213
▁bubbles 213
▁cabbage 213
▁com 213
▁compact 213
▁courtesy 213
▁deliberate 213
▁enrolled 213
▁justified 213
▁la 213
▁loyal 213
▁necessities 213
▁outline 213
▁psych 213
▁rabbit 213
▁revising 213
▁siblings 213
▁suppress 213
▁unaware 213
gal 212
ground 212
mark 212
▁1.0 212
▁2004 212
▁Dongnae 212
▁Educational 212
▁Guk 212
▁Partners 212
▁Pot 212
▁Princess 212
▁Swiss 212
▁authentication 212
▁defended 212
▁disruption 212
▁evolving 212
▁flames 212
▁harassed 212
▁puppy 212
▁salty 212
▁shining 212
▁vapor 212
Life 211
ON 211
Of 211
RE 211
UN 211
solving 211
zz 211
▁Anseong 211
▁Appraisal 211
▁Davy 211
▁Eagles 211
▁Joe 211
▁Pyeong 211
▁Sarah 211
▁Ship 211
▁Sing 211
▁Tigers 211
▁annex 211
▁carp 211
▁clearance 211
▁controversies 211
▁dig 211
▁digest 211
▁farewell 211
▁firing 211
▁hormones 211
▁humor 211
▁intensify 211
▁intervened 211
▁printer 211
▁rallies 211
▁repatriation 211
▁residing 211
▁sulfur 211
▁surname 211
▁tires 211
▁tissues 211
▁trophy 211
▁viruses 211
Just 210
Man 210
amed 210
dr 210
ected 210
finals 210
itter 210
mann 210
rain 210
▁2.3 210
▁5. 210
▁Banks 210
▁Between 210
▁Cont 210
▁Ewha 210
▁Key 210
▁Mae 210
▁Sony 210
▁apples 210
▁balloon 210
▁coding 210
▁heavier 210
▁lasts 210
▁perfection 210
▁podcast 210
▁possibly 210
▁praying 210
▁registering 210
▁reinforced 210
▁reproduced 210
▁rigid 210
▁starred 210
▁surprisingly 210
▁surviving 210
▁tales 210
▁termination 210
▁troubles 210
▁ventilation 210
▁ventures 210
▁widening 210
▁wounded 210
lect 209
works 209
▁2002, 209
▁97 209
▁Cap 209
▁Deep 209
▁Get 209
▁Secondly 209
▁aids 209
▁clue 209
▁conveys 209
▁dropping 209
▁entrusted 209
▁equilibrium 209
▁fountain 209
▁inadequate 209
▁incidence 209
▁lag 209
▁leaks 209
▁liter 209
▁manners 209
▁rites 209
▁shade 209
▁summits 209
▁sunny 209
▁tasty 209
AM 208
Con 208
fall 208
mp 208
temperature 208
uation 208
▁15% 208
▁Belgian 208
▁CCTVs 208
▁DB 208
▁DPRK 208
▁Feb 208
▁Fish 208
▁Hannam 208
▁Mah 208
▁Um 208
▁View 208
▁Yan 208
▁contracted 208
▁fancy 208
▁habitat 208
▁jazz 208
▁kilograms 208
▁neat 208
▁newlyweds 208
▁noisy 208
▁norms 208
▁opposes 208
▁purple 208
▁raided 208
▁rated 208
▁ridiculous 208
▁survivors 208
▁teachings 208
▁tips 208
▁trademark 208
▁transported 208
Min 207
cons 207
▁Cos 207
▁Freedom 207
▁Gongju 207
▁KCC 207
▁Namhae 207
▁Sign 207
▁Working 207
▁affordable 207
▁arranging 207
▁bombs 207
▁communist 207
▁distributor 207
▁examinations 207
▁fatty 207
▁incomplete 207
▁instinct 207
▁knees 207
▁obsessed 207
▁octopus 207
▁overlooked 207
▁pencil 207
▁recipients 207
▁referendum 207
▁sink 207
▁sticks 207
▁subordinate 207
▁tender 207
▁unpleasant 207
▁zombies 207
26 206
Or 206
SA 206
ales 206
rooted 206
well 206
▁101 206
▁2021. 206
▁Actors 206
▁Android 206
▁Box 206
▁Commander 206
▁GT 206
▁Gijang 206
▁KEB 206
▁Prot 206
▁Sul 206
▁Wal 206
▁banner 206
▁competitor 206
▁complement 206
▁consistency 206
▁extinguish 206
▁galleries 206
▁hegemony 206
▁modest 206
▁occupy 206
▁ok 206
▁packs 206
▁relaxation 206
▁remind 206
▁researching 206
▁revolutionary 206
▁scholarships 206
▁shortcomings 206
▁teamwork 206
▁traditionally 206
▁unpaid 206
Co 205
aka 205
distance 205
list 205
oot 205
produced 205
sea 205
▁1998 205
▁2003 205
▁Aren 205
▁Biologics 205
▁Cathedral 205
▁Civic 205
▁Sook 205
▁anticancer 205
▁automation 205
▁cement 205
▁charms 205
▁commissioner 205
▁cre 205
▁digit 205
▁dirt 205
▁distributors 205
▁drills 205
▁firefighting 205
▁incredibly 205
▁insist 205
▁insists 205
▁parental 205
▁pedestrian 205
▁precision 205
▁trigger 205
▁ultrafine 205
▁unconditionally 205
ares 204
bar 204
eds 204
iate 204
ont 204
rent 204
▁Days 204
▁Dome 204
▁Meng 204
▁Ram 204
▁Sk 204
▁Taxi 204
▁appetite 204
▁boosting 204
▁chasing 204
▁continuity 204
▁corrective 204
▁countryside 204
▁courier 204
▁displaying 204
▁fertility 204
▁inst 204
▁melted 204
▁neutrality 204
▁ought 204
▁permits 204
▁revol 204
▁ruined 204
▁salvation 204
▁scan 204
▁spine 204
▁tactical 204
▁typ 204
▁undoubtedly 204
▁yes 204
hyo 203
itz 203
length 203
market 203
▁2.6 203
▁2.7 203
▁Aud 203
▁Congressman 203
▁Coway 203
▁Gospel 203
▁Initially 203
▁Mus 203
▁Nakdong 203
▁Rice 203
▁Steve 203
▁Telecommun 203
▁Think 203
▁accustomed 203
▁adequate 203
▁ambulance 203
▁angles 203
▁boycott 203
▁despair 203
▁discarded 203
▁dismantle 203
▁dressing 203
▁fed 203
▁lecturer 203
▁posters 203
▁purification 203
▁spoon 203
▁ups 203
▁vested 203
1% 202
Chinese 202
Hyun 202
body 202
ifications 202
opy 202
rang 202
stage 202
▁80,000 202
▁Anyway 202
▁Event 202
▁Jordan 202
▁Kar 202
▁Netmarble 202
▁Rad 202
▁Send 202
▁Seom 202
▁Unless 202
▁Wonder 202
▁Wu 202
▁afterwards 202
▁ancestral 202
▁conductor 202
▁crow 202
▁defective 202
▁disk 202
▁everybody 202
▁hormone 202
▁leagues 202
▁mart 202
▁misunderstood 202
▁rides 202
▁sim 202
▁slim 202
▁suff 202
LO 201
ached 201
apped 201
mae 201
opp 201
purpose 201
rol 201
ryeon 201
ula 201
▁6,000 201
▁8,000 201
▁Advisory 201
▁Kevin 201
▁Lions 201
▁abusive 201
▁airing 201
▁bankrupt 201
▁bowed 201
▁cosmos 201
▁counterpart 201
▁dim 201
▁disp 201
▁fre 201
▁horizon 201
▁inclusion 201
▁interfere 201
▁internationally 201
▁minerals 201
▁plug 201
▁repairs 201
▁streak 201
▁subcontractors 201
▁volunteering 201
57 200
NE 200
OT 200
acing 200
ancy 200
asy 200
bor 200
ria 200
sm 200
▁Chong 200
▁KORAIL 200
▁Minh 200
▁OK 200
▁Pocheon 200
▁Rich 200
▁Silicon 200
▁Sport 200
▁Table 200
▁Violence 200
▁arbitrary 200
▁assignments 200
▁booming 200
▁broadly 200
▁complexity 200
▁decoration 200
▁emit 200
▁evacuation 200
▁graphic 200
▁lenses 200
▁nowhere 200
▁oppression 200
▁relying 200
▁rivals 200
▁unfortunately 200
▁viral 200
▁voltage 200
▁wrapping 200
Special 199
aes 199
ulate 199
ule 199
▁60,000 199
▁Base 199
▁Clan 199
▁Conf 199
▁End 199
▁Ky 199
▁Mel 199
▁Minjoo 199
▁Oceans 199
▁Patriots 199
▁Travel 199
▁bakery 199
▁barrels 199
▁brightly 199
▁bulk 199
▁calories 199
▁console 199
▁drives 199
▁enzyme 199
▁flies 199
▁heightened 199
▁loneliness 199
▁podcasts 199
▁polar 199
▁presided 199
▁prim 199
▁receiver 199
▁retaliatory 199
▁rings 199
▁runway 199
▁settings 199
▁strawberry 199
▁tuberculosis 199
▁upside 199
MP 198
acon 198
business 198
cast 198
chu 198
emp 198
fl 198
ien 198
isa 198
mic 198
oral 198
sol 198
▁1930 198
▁Cons 198
▁Ev 198
▁Income 198
▁Johnson 198
▁Nazis 198
▁Okinawa 198
▁Phil 198
▁RNA 198
▁Someone 198
▁Strong 198
▁Vol 198
▁bracket 198
▁candidacy 198
▁catcher 198
▁clash 198
▁deadly 198
▁decent 198
▁durability 198
▁hierarchy 198
▁jelly 198
▁memorandum 198
▁metaverse 198
▁navy 198
▁organizer 198
▁overturned 198
▁pressured 198
▁resistant 198
▁seawater 198
▁slogans 198
▁stri 198
▁twisted 198
▁ugly 198
▁withstand 198
EM 197
ager 197
band 197
ears 197
iel 197
iser 197
iter 197
▁100- 197
▁70,000 197
▁Bor 197
▁Geon 197
▁Giants 197
▁Heart 197
▁Leslie 197
▁Namyang 197
▁Restaurant 197
▁Richard 197
▁academies 197
▁broth 197
▁capitalization 197
▁causal 197
▁chefs 197
▁cock 197
▁conv 197
▁cooperating 197
▁currencies 197
▁damaging 197
▁exceptions 197
▁groundbreaking 197
▁hesitation 197
▁hotter 197
▁invalid 197
▁lecturers 197
▁magnificent 197
▁meditation 197
▁nano 197
▁precipitation 197
▁reactor 197
▁risky 197
▁shortened 197
▁specially 197
31 196
700 196
Good 196
cont 196
economic 196
gol 196
ses 196
za 196
▁220 196
▁81 196
▁Coalition 196
▁Direct 196
▁Fashion 196
▁Hyang 196
▁Iksan 196
▁Snow 196
▁Yak 196
▁addresses 196
▁aroma 196
▁artworks 196
▁broker 196
▁charming 196
▁collects 196
▁contraction 196
▁enforce 196
▁entitled 196
▁garlic 196
▁intestinal 196
▁paragraph 196
▁postponement 196
▁ske 196
▁spl 196
▁strokes 196
▁undergone 196
eller 195
fast 195
inance 195
itors 195
ref 195
▁2021, 195
▁Ak 195
▁Campaign 195
▁Forensic 195
▁Operation 195
▁Point 195
▁Portugal 195
▁Prov 195
▁Years 195
▁adm 195
▁adopting 195
▁basics 195
▁blows 195
▁clues 195
▁describing 195
▁diagnose 195
▁emails 195
▁flame 195
▁forecasted 195
▁hardest 195
▁invaded 195
▁landed 195
▁nurturing 195
▁opt 195
▁overhaul 195
▁overheated 195
▁overs 195
▁persistent 195
▁prayers 195
▁predecessor 195
▁standardized 195
▁stretch 195
▁supervisor 195
▁supervisory 195
Miss 194
Won 194
anged 194
anted 194
bur 194
digit 194
doo 194
five 194
oung 194
wage 194
▁(17 194
▁BB 194
▁Eung 194
▁Fr 194
▁Munich 194
▁Opera 194
▁Saint 194
▁Syrian 194
▁adaptation 194
▁basket 194
▁bookstores 194
▁burnt 194
▁chatting 194
▁confusing 194
▁disadvantaged 194
▁disrupted 194
▁duck 194
▁emp 194
▁ensuring 194
▁execute 194
▁filial 194
▁fishery 194
▁fixing 194
▁kiss 194
▁mag 194
▁melt 194
▁persuaded 194
▁physicist 194
▁polling 194
▁pres 194
▁saints 194
▁satisfying 194
▁sculptures 194
▁shifts 194
▁slip 194
▁suppression 194
▁taxpayers 194
▁territorial 194
acking 193
athy 193
eok 193
hoo 193
iner 193
sel 193
▁(11 193
▁2.1 193
▁2.4 193
▁Basketball 193
▁Change 193
▁Comm 193
▁Comprehensive 193
▁ES 193
▁Edu 193
▁Eric 193
▁Flower 193
▁Gugak 193
▁Hel 193
▁Jing 193
▁Kyeong 193
▁Lin 193
▁Marketing 193
▁Os 193
▁Participatory 193
▁advocated 193
▁baseman 193
▁chickens 193
▁complementary 193
▁critique 193
▁discounted 193
▁dot 193
▁envoys 193
▁facilitate 193
▁fame 193
▁governors 193
▁greedy 193
▁handing 193
▁hid 193
▁importing 193
▁incredible 193
▁innovate 193
▁lamp 193
▁macro 193
▁masterpiece 193
▁mist 193
▁scolded 193
▁sigh 193
▁sometime 193
▁sticking 193
▁superiority 193
▁switched 193
▁uprising 193
Russia 192
Shin 192
aro 192
away 192
cal 192
come 192
exp 192
ey 192
green 192
omer 192
ping 192
scenes 192
á 192
▁1,200 192
▁Dar 192
▁Denmark 192
▁Hay 192
▁Merkel 192
▁PCs 192
▁Prof 192
▁Uljin 192
▁Volunteer 192
▁bite 192
▁capitalist 192
▁dismantlement 192
▁doubtful 192
▁embarrassing 192
▁endangered 192
▁feudal 192
▁internship 192
▁lists 192
▁loudly 192
▁overdue 192
▁simpler 192
▁sunrise 192
▁sy 192
▁tanks 192
▁thread 192
▁timetable 192
▁tri 192
▁twelve 192
▁wasted 192
Chief 191
Choi 191
agon 191
aser 191
awn 191
cancer 191
erson 191
foot 191
pan 191
what 191
wood 191
▁7. 191
▁Hit 191
▁Nik 191
▁Short 191
▁Val 191
▁auditors 191
▁buzz 191
▁competence 191
▁conspiracy 191
▁consuming 191
▁diversification 191
▁drawings 191
▁evaluates 191
▁flavors 191
▁hallyu 191
▁incurred 191
▁jewelry 191
▁kg 191
▁lanes 191
▁licensed 191
▁linguistic 191
▁mentoring 191
▁mistaken 191
▁openness 191
▁renew 191
▁rumored 191
▁sightseeing 191
▁sizable 191
▁spy 191
▁standpoint 191
▁structured 191
▁translator 191
▁unrelated 191
▁weighing 191
,000, 190
87 190
9) 190
En 190
Mrs 190
Not 190
approximately 190
cha 190
ili 190
oking 190
rye 190
uts 190
▁Bit 190
▁Char 190
▁Chem 190
▁Fifth 190
▁Gwangjin 190
▁Islands 190
▁Israeli 190
▁KAIST 190
▁Paik 190
▁Reading 190
▁Severance 190
▁Yangcheon 190
▁Yesterday 190
▁academics 190
▁associate 190
▁continually 190
▁cruel 190
▁deadlock 190
▁denying 190
▁foundations 190
▁gestures 190
▁globe 190
▁honestly 190
▁hum 190
▁individuality 190
▁publisher 190
▁resurrection 190
▁ruler 190
▁unre 190
after 189
anced 189
cell 189
eting 189
iant 189
▁1999, 189
▁2001 189
▁Block 189
▁Bodhisattva 189
▁Dor 189
▁Gwanak 189
▁Honey 189
▁Jul 189
▁Keep 189
▁Prom 189
▁Sem 189
▁Taegeukgi 189
▁altitude 189
▁anchor 189
▁augmented 189
▁beta 189
▁blogs 189
▁builds 189
▁cemetery 189
▁declaring 189
▁dock 189
▁gatherings 189
▁inferior 189
▁mac 189
▁nursery 189
▁ours 189
▁planets 189
▁premature 189
▁readily 189
▁reside 189
▁roadmap 189
▁ruins 189
▁seasoned 189
▁smiles 189
▁speculated 189
▁tsunami 189
▁valuation 189
5,000 188
Benz 188
Ind 188
Jin 188
aters 188
ially 188
minded 188
non 188
rencies 188
tal 188
weight 188
▁Marvel 188
▁Ordinance 188
▁Overall 188
▁Pusan 188
▁Really 188
▁Round 188
▁Steven 188
▁William 188
▁adapted 188
▁birthplace 188
▁dancers 188
▁detergent 188
▁diarrhea 188
▁embrace 188
▁locally 188
▁mounted 188
▁shorten 188
▁smells 188
▁struggles 188
▁tightened 188
▁token 188
▁unfold 188
▁vaccination 188
▁worldview 188
4% 187
ailed 187
dal 187
houses 187
hyeong 187
ower 187
▁Eve 187
▁Germans 187
▁Incident 187
▁Liga 187
▁Personnel 187
▁See 187
▁accompanying 187
▁appellate 187
▁backed 187
▁banning 187
▁bearing 187
▁breeze 187
▁bullet 187
▁ceramic 187
▁chairmen 187
▁convincing 187
▁crowds 187
▁destiny 187
▁dissolution 187
▁drum 187
▁dubbed 187
▁empire 187
▁feast 187
▁gro 187
▁insert 187
▁landmark 187
▁motto 187
▁plaza 187
▁ple 187
▁prec 187
▁vol 187
era 186
good 186
hole 186
pass 186
pped 186
wi 186
▁15- 186
▁Alex 186
▁Everland 186
▁Exper 186
▁Fer 186
▁IPO 186
▁Knowledge 186
▁Konkuk 186
▁Las 186
▁Shrine 186
▁Sy 186
▁actuality 186
▁aforementioned 186
▁bro 186
▁bur 186
▁cad 186
▁credits 186
▁deteriorating 186
▁enabled 186
▁forecasting 186
▁fragrance 186
▁frames 186
▁imposition 186
▁lengthy 186
▁liability 186
▁murdered 186
▁participates 186
▁porridge 186
▁preventive 186
▁protectionism 186
▁stimulates 186
▁thirty 186
▁turmoil 186
▁variations 186
▁varied 186
Considering 185
LC 185
apt 185
atching 185
aven 185
ead 185
ena 185
hol 185
igh 185
udd 185
white 185
▁10. 185
▁Confucius 185
▁Cy 185
▁Eumseong 185
▁Metal 185
▁Sl 185
▁biotechnology 185
▁ca 185
▁composite 185
▁constraints 185
▁cracked 185
▁dispersed 185
▁dug 185
▁fights 185
▁laborers 185
▁manipulate 185
▁palm 185
▁permanently 185
▁reorganize 185
▁sooner 185
▁str 185
▁teenage 185
▁tendencies 185
▁touches 185
▁voiced 185
23 184
Busan 184
SK 184
ache 184
ask 184
baek 184
ction 184
edong 184
pung 184
uge 184
▁2.8 184
▁Bol 184
▁Ill 184
▁Inv 184
▁Nakdonggang 184
▁Platform 184
▁Yemeni 184
▁ambition 184
▁chewy 184
▁cooperatives 184
▁cows 184
▁decay 184
▁deepened 184
▁disagree 184
▁dissatisfied 184
▁elimination 184
▁entrepreneur 184
▁foolish 184
▁frustrating 184
▁imply 184
▁inclusive 184
▁irreversible 184
▁lungs 184
▁measurements 184
▁mutually 184
▁nearest 184
▁neurons 184
▁nit 184
▁pub 184
▁robe 184
▁robust 184
▁safer 184
▁salon 184
▁shortages 184
▁standardization 184
▁sticker 184
▁supermarkets 184
▁utilizes 184
-- 183
ashing 183
electric 183
ls 183
maker 183
owon 183
rak 183
song 183
▁Accounting 183
▁Angel 183
▁Autumn 183
▁Bad 183
▁Brown 183
▁Charles 183
▁Chil 183
▁Dad 183
▁Lo 183
▁Startup 183
▁Ut 183
▁att 183
▁bo 183
▁butterfly 183
▁deteriorate 183
▁extinction 183
▁fist 183
▁fortunately 183
▁honeymoon 183
▁indie 183
▁marketers 183
▁median 183
▁publishers 183
▁races 183
▁rebellion 183
▁retreat 183
▁sir 183
▁transcript 183
▁venues 183
▁vitamins 183
asa 182
asc 182
aut 182
erc 182
friend 182
home 182
olic 182
smoking 182
▁12,000 182
▁Hal 182
▁Nobody 182
▁Palembang 182
▁Ray 182
▁Related 182
▁Sungkyunkwan 182
▁agrees 182
▁aut 182
▁blacklist 182
▁butter 182
▁cardiovascular 182
▁deceived 182
▁ecology 182
▁escaping 182
▁gauge 182
▁meticulous 182
▁migration 182
▁pills 182
▁ren 182
▁researched 182
▁similarities 182
▁stems 182
▁velocity 182
▁zombie 182
Happy 181
LA 181
SC 181
World 181
child 181
daero 181
isted 181
uro 181
▁Bach 181
▁Bioepis 181
▁Citing 181
▁Drama 181
▁Hangul 181
▁Investors 181
▁Magic 181
▁Mak 181
▁Pharm 181
▁Photo 181
▁Punishment 181
▁Seeing 181
▁Sou 181
▁Wouldn 181
▁adjustments 181
▁afterward 181
▁aggregate 181
▁brakes 181
▁counselor 181
▁crop 181
▁diversify 181
▁ecosystems 181
▁evolve 181
▁flags 181
▁goodbye 181
▁hosts 181
▁intern 181
▁legacy 181
▁magn 181
▁males 181
▁mand 181
▁monoxide 181
▁pioneer 181
▁prohibition 181
▁prompt 181
▁questionnaire 181
▁reiterated 181
▁saves 181
▁soybean 181
▁spark 181
▁strain 181
▁surpassing 181
▁torture 181
▁tract 181
95 180
FO 180
Hye 180
RT 180
Song 180
TI 180
aku 180
asis 180
ather 180
enn 180
eong 180
fin 180
ika 180
inking 180
osc 180
winning 180
▁Bel 180
▁Cancer 180
▁Coll 180
▁Gw 180
▁Hangang 180
▁Kal 180
▁Marx 180
▁Member 180
▁Philippine 180
▁Pres 180
▁Text 180
▁accompany 180
▁alleviate 180
▁ants 180
▁blossom 180
▁compassion 180
▁corrupt 180
▁deeds 180
▁earners 180
▁endured 180
▁gaming 180
▁hello 180
▁heritages 180
▁holy 180
▁humble 180
▁humidifier 180
▁inscribed 180
▁insignificant 180
▁insulin 180
▁interpreting 180
▁needle 180
▁seemingly 180
▁wheat 180
46 179
TF 179
inf 179
now 179
oos 179
owing 179
prosperity 179
ualcomm 179
▁2021 179
▁450 179
▁Anniversary 179
▁Body 179
▁Corruption 179
▁Ul 179
▁artificially 179
▁attributable 179
▁badly 179
▁collapsing 179
▁concentrations 179
▁decree 179
▁ev 179
▁folding 179
▁incomes 179
▁pred 179
▁prom 179
▁pushes 179
▁seize 179
▁stupid 179
Tr 178
aming 178
ayed 178
case 178
ences 178
father 178
fine 178
fore 178
imate 178
ince 178
stein 178
unch 178
▁2-1 178
▁Electronic 178
▁Gangjin 178
▁Jindo 178
▁Performing 178
▁SS 178
▁Sar 178
▁Shi 178
▁abnormalities 178
▁allergic 178
▁automated 178
▁cancelled 178
▁councilor 178
▁cryptocur 178
▁deduct 178
▁diss 178
▁hardship 178
▁indefinitely 178
▁intertwined 178
▁mileage 178
▁offender 178
▁petrochemical 178
▁philosophers 178
▁pursues 178
▁qualifying 178
▁rooted 178
▁snake 178
▁tidal 178
▁tumor 178
▁volcanic 178
▁vs 178
▁whistle 178
▁wr 178
,000. 177
EF 177
abi 177
aken 177
iology 177
nel 177
rew 177
▁Artists 177
▁CN 177
▁Kelly 177
▁Run 177
▁Suseong 177
▁Users 177
▁bibimbap 177
▁cathedral 177
▁departing 177
▁employer 177
▁hourly 177
▁livelihoods 177
▁moist 177
▁otherwise 177
▁pill 177
▁speeches 177
▁stimulating 177
▁summon 177
▁troubled 177
▁verifying 177
▁vinyl 177
DM 176
post 176
proof 176
une 176
▁2,500 176
▁Ash 176
▁Cat 176
▁Deleuze 176
▁Dom 176
▁Fact 176
▁Itaewon 176
▁Musk 176
▁Pet 176
▁Saemaul 176
▁Sanders 176
▁Sen 176
▁Sor 176
▁aff 176
▁analyst 176
▁beautifully 176
▁bicycles 176
▁carpet 176
▁charity 176
▁complications 176
▁crab 176
▁cultivated 176
▁deviation 176
▁discontent 176
▁diving 176
▁forehead 176
▁immigrant 176
▁inaugural 176
▁inherit 176
▁intriguing 176
▁laying 176
▁legendary 176
▁namely 176
▁paradox 176
▁resentment 176
▁strengthens 176
▁switching 176
▁transplant 176
▁tug 176
arks 175
bat 175
etic 175
has 175
icide 175
iring 175
ool 175
pm 175
sex 175
thirds 175
ube 175
wards 175
▁12- 175
▁91 175
▁Assemblyman 175
▁Cemetery 175
▁Geumcheon 175
▁Immediately 175
▁Jay 175
▁Logistics 175
▁OST 175
▁Section 175
▁Standing 175
▁assert 175
▁authentic 175
▁aw 175
▁backward 175
▁belts 175
▁boasted 175
▁bullying 175
▁carpool 175
▁fandom 175
▁fil 175
▁freshmen 175
▁hobbies 175
▁jaw 175
▁modification 175
▁neural 175
▁objectivity 175
▁panic 175
▁powerhouse 175
▁racing 175
▁renamed 175
▁retrial 175
▁slaughter 175
▁staring 175
▁stimulated 175
▁unhappy 175
▁whale 175
▁wheelchair 175
▁yields 175
CS 174
Defense 174
KO 174
Ye 174
akers 174
ights 174
oke 174
▁1998, 174
▁Autonomous 174
▁Bat 174
▁Creation 174
▁Florida 174
▁Municipal 174
▁Nor 174
▁Off 174
▁Secret 174
▁Toyota 174
▁WTO 174
▁Wyverns 174
▁accusations 174
▁athletic 174
▁barrel 174
▁cerebral 174
▁chase 174
▁collectively 174
▁gear 174
▁granddaughter 174
▁har 174
▁inability 174
▁offerings 174
▁organism 174
▁persuasive 174
▁pharmacy 174
▁pigment 174
▁quarterly 174
▁retain 174
▁sentencing 174
▁somebody 174
▁soundness 174
App 173
BL 173
Su 173
Well 173
Yang 173
aga 173
aint 173
antic 173
arity 173
half 173
ibly 173
istry 173
pay 173
resistant 173
ruct 173
▁1994, 173
▁3% 173
▁Advisor 173
▁Guangzhou 173
▁Jean 173
▁OS 173
▁Polish 173
▁Progressive 173
▁abdominal 173
▁ampl 173
▁boldly 173
▁cookies 173
▁debates 173
▁definite 173
▁distortion 173
▁drill 173
▁elaborate 173
▁eligibility 173
▁establishes 173
▁fascinating 173
▁fermentation 173
▁formally 173
▁funded 173
▁gifted 173
▁humid 173
▁impaired 173
▁intervals 173
▁miles 173
▁misconduct 173
▁outsiders 173
▁perme 173
▁rapper 173
▁rebuilt 173
▁refining 173
▁span 173
▁sparking 173
▁turtle 173
▁versions 173
▁yoga 173
9% 172
cor 172
cut 172
financial 172
inity 172
left 172
pres 172
small 172
▁2% 172
▁Av 172
▁Cuba 172
▁Eventually 172
▁Kum 172
▁Kyobo 172
▁Players 172
▁Rivers 172
▁Sonata 172
▁Understanding 172
▁Whatever 172
▁amendments 172
▁attendant 172
▁cheek 172
▁classify 172
▁coefficient 172
▁communicated 172
▁constituencies 172
▁escalating 172
▁faulty 172
▁happier 172
▁heroes 172
▁hydro 172
▁stubborn 172
▁sunshine 172
▁typhoons 172
▁typography 172
▁unidentified 172
▁unusually 172
88 171
Hong 171
MR 171
Only 171
hood 171
kook 171
oles 171
ologically 171
onia 171
tle 171
▁83 171
▁Aug 171
▁Bab 171
▁Bern 171
▁Field 171
▁Gyeongbu 171
▁Hwacheon 171
▁Improvement 171
▁Month 171
▁Nick 171
▁Philip 171
▁Tele 171
▁Wei 171
▁ambitious 171
▁arrow 171
▁circ 171
▁filmmakers 171
▁grandson 171
▁illnesses 171
▁illum 171
▁induced 171
▁interval 171
▁loading 171
▁mathematicians 171
▁microscope 171
▁minors 171
▁mobilizing 171
▁mortality 171
▁occasional 171
▁omn 171
▁partly 171
▁renting 171
▁repetition 171
▁scheme 171
▁souls 171
▁sympathetic 171
▁terminals 171
▁transforms 171
▁trap 171
▁treasury 171
05 170
VR 170
ala 170
area 170
eek 170
ei 170
ester 170
final 170
four 170
idden 170
kyeom 170
overed 170
producing 170
raft 170
ulations 170
▁Biennale 170
▁Including 170
▁Joy 170
▁MOU 170
▁Mattis 170
▁Saenuri 170
▁absorbs 170
▁cab 170
▁constitute 170
▁defeating 170
▁denial 170
▁distances 170
▁dynamics 170
▁evacuate 170
▁fulfilled 170
▁improper 170
▁kings 170
▁pornography 170
▁proceedings 170
▁prohibits 170
▁reass 170
▁regression 170
▁rite 170
▁sensational 170
▁shaman 170
▁shrink 170
▁signaling 170
▁singles 170
▁stabilized 170
▁summarize 170
▁suppressed 170
▁sustainability 170
▁swiftly 170
▁tra 170
▁tuna 170
▁ve 170
▁watches 170
KMA 169
Reg 169
building 169
change 169
check 169
coming 169
governing 169
lam 169
omet 169
onst 169
opping 169
rem 169
▁Academic 169
▁Alibaba 169
▁Ast 169
▁Belt 169
▁CSR 169
▁Compensation 169
▁DRAM 169
▁Dep 169
▁Eco 169
▁Kakaotalk 169
▁Peak 169
▁Rom 169
▁Sat 169
▁assign 169
▁automakers 169
▁brick 169
▁collide 169
▁countered 169
▁decorate 169
▁dough 169
▁est 169
▁fares 169
▁gates 169
▁gently 169
▁gut 169
▁hopeful 169
▁hurriedly 169
▁impacted 169
▁ineffective 169
▁keys 169
▁loop 169
▁objections 169
▁onion 169
▁popularization 169
▁progresses 169
▁quotation 169
▁seated 169
▁seminars 169
▁situated 169
▁sovereign 169
▁stretched 169
▁supplemented 169
▁terror 169
▁thrilling 169
▁towel 169
▁twenties 169
▁unfolded 169
RI 168
aved 168
aying 168
eal 168
eline 168
food 168
iqu 168
reliance 168
rown 168
va 168
▁(-0. 168
▁(13 168
▁Bundesliga 168
▁Farmers 168
▁Hongdae 168
▁Hub 168
▁Hungarian 168
▁Hydro 168
▁Individual 168
▁Integrated 168
▁LPG 168
▁Located 168
▁Mas 168
▁SC 168
▁Sudan 168
▁compatible 168
▁gonna 168
▁ladies 168
▁listeners 168
▁manuscript 168
▁masses 168
▁picnic 168
▁plum 168
▁preserving 168
▁prevailing 168
▁publicize 168
▁rod 168
▁rub 168
▁signboard 168
▁sized 168
▁skip 168
▁tablets 168
▁temper 168
▁trajectory 168
98 167
bon 167
eric 167
gram 167
introduction 167
lected 167
rid 167
rog 167
ten 167
▁1997 167
▁250,000 167
▁360 167
▁Automobile 167
▁Az 167
▁Bet 167
▁CC 167
▁Cell 167
▁Hongik 167
▁Mao 167
▁Net 167
▁Paper 167
▁Savings 167
▁Wonhyo 167
▁angel 167
▁anybody 167
▁arena 167
▁ash 167
▁dealers 167
▁deb 167
▁designating 167
▁discontinued 167
▁inh 167
▁interrogation 167
▁kn 167
▁lunchtime 167
▁microphone 167
▁offset 167
▁painters 167
▁possesses 167
▁resisted 167
▁sacrificed 167
▁scenarios 167
▁ski 167
▁swollen 167
▁unsold 167
5% 166
Pr 166
aru 166
cover 166
inately 166
▁1997, 166
▁40- 166
▁Afghanistan 166
▁Beyond 166
▁Confucianism 166
▁Criticism 166
▁Dun 166
▁Forestry 166
▁Harbor 166
▁Hideyoshi 166
▁Nonsan 166
▁PS 166
▁Pig 166
▁Rot 166
▁Twenty 166
▁battlefield 166
▁bedroom 166
▁colony 166
▁dist 166
▁eats 166
▁expectancy 166
▁kidnapped 166
▁lounge 166
▁murals 166
▁overcame 166
▁peer 166
▁premiere 166
▁purely 166
▁realism 166
▁rebels 166
▁recreation 166
▁renovation 166
▁sewing 166
▁sorts 166
▁stakes 166
▁studios 166
▁subcontractor 166
▁subscribe 166
▁teens 166
▁volatile 166
Every 165
ida 165
ield 165
ito 165
kwan 165
sey 165
uman 165
urning 165
ville 165
▁1995, 165
▁1996, 165
▁API 165
▁Clinton 165
▁Different 165
▁Dog 165
▁Donghak 165
▁Es 165
▁Ganghwa 165
▁Goo 165
▁Gre 165
▁Legal 165
▁Prison 165
▁Ren 165
▁Researchers 165
▁Schools 165
▁Sm 165
▁Stars 165
▁Woman 165
▁alright 165
▁blew 165
▁chooses 165
▁commodity 165
▁dialect 165
▁expose 165
▁gel 165
▁groundwork 165
▁highlights 165
▁hugged 165
▁imm 165
▁lent 165
▁metabolism 165
▁minimizing 165
▁sec 165
▁southeastern 165
▁tolerance 165
Most 164
Wh 164
currently 164
elected 164
footed 164
het 164
holder 164
igo 164
language 164
mit 164
ple 164
rian 164
ryul 164
▁(200 164
▁Born 164
▁Climate 164
▁Eugene 164
▁Ni 164
▁Osan 164
▁Type 164
▁Visitors 164
▁accommodations 164
▁appointing 164
▁brew 164
▁chorus 164
▁cleaners 164
▁counselors 164
▁deploy 164
▁discontin 164
▁edit 164
▁enthusi 164
▁females 164
▁fundamentals 164
▁homeland 164
▁inroads 164
▁jury 164
▁kit 164
▁merits 164
▁moisturizing 164
▁nap 164
▁peculiar 164
▁prompting 164
▁rebounds 164
▁refuses 164
▁rib 164
▁tar 164
PP 163
abs 163
continental 163
enders 163
ession 163
gent 163
igned 163
ipe 163
oto 163
rated 163
ried 163
wind 163
▁(14 163
▁(16 163
▁7,000 163
▁Alzheimer 163
▁Carbon 163
▁Chancellor 163
▁Daedong 163
▁Dongtan 163
▁Gyeongbokgung 163
▁Hor 163
▁Ly 163
▁Mathematics 163
▁Missionary 163
▁amb 163
▁ang 163
▁attributes 163
▁authoritarian 163
▁barley 163
▁blunt 163
▁boil 163
▁bowls 163
▁coll 163
▁confront 163
▁conveying 163
▁delegate 163
▁dispose 163
▁electro 163
▁finalize 163
▁holdings 163
▁imposes 163
▁infections 163
▁informing 163
▁labeling 163
▁lazy 163
▁lowers 163
▁metabolic 163
▁pile 163
▁progressing 163
▁radish 163
▁storing 163
▁subjected 163
▁subordinates 163
▁tofu 163
▁transforming 163
▁transit 163
▁twins 163
▁ultraviolet 163
Cheong 162
Sports 162
Super 162
Yoon 162
ames 162
cing 162
eda 162
icious 162
iet 162
iki 162
ille 162
oche 162
put 162
yr 162
▁9. 162
▁Books 162
▁Chunhyang 162
▁Contemporary 162
▁Danyang 162
▁FDA 162
▁Map 162
▁Never 162
▁Scientists 162
▁Television 162
▁actresses 162
▁animations 162
▁captivated 162
▁chilly 162
▁comforted 162
▁contaminated 162
▁defining 162
▁demolished 162
▁dilemma 162
▁harassing 162
▁inscription 162
▁ju 162
▁logically 162
▁observatory 162
▁outs 162
▁persisted 162
▁planners 162
▁priests 162
▁props 162
▁quarrel 162
▁reproduce 162
▁rewarded 162
▁secretaries 162
▁transmit 162
IST 161
SNS 161
cultural 161
iller 161
rolling 161
wear 161
▁6. 161
▁Baby 161
▁Dairy 161
▁Ferry 161
▁Form 161
▁Goryeong 161
▁IU 161
▁Records 161
▁Response 161
▁Seongbuk 161
▁Syngman 161
▁Techn 161
▁Twins 161
▁VI 161
▁Volkswagen 161
▁administrations 161
▁armistice 161
▁asserted 161
▁awesome 161
▁beneath 161
▁bonding 161
▁bridges 161
▁cafeteria 161
▁conditional 161
▁digging 161
▁divorced 161
▁flock 161
▁gloomy 161
▁hills 161
▁holders 161
▁hottest 161
▁indigenous 161
▁injustice 161
▁lim 161
▁nutritional 161
▁pads 161
▁proxy 161
▁pun 161
▁rained 161
▁runners 161
▁scarce 161
▁sed 161
▁shocks 161
▁soar 161
▁sofa 161
▁spa 161
▁striving 161
▁textile 161
▁trendy 161
▁trim 161
▁vicinity 161
▁waterfall 161
▁yeast 161
6% 160
God 160
astically 160
awi 160
eling 160
hou 160
idal 160
ingly 160
vol 160
▁2005. 160
▁2022, 160
▁AIDS 160
▁Alright 160
▁Asahi 160
▁Basically 160
▁Female 160
▁Figure 160
▁LCD 160
▁Ob 160
▁Scholarship 160
▁Sil 160
▁Ulleung 160
▁authenticity 160
▁cabin 160
▁capturing 160
▁clips 160
▁defenders 160
▁domestically 160
▁explanatory 160
▁explored 160
▁extends 160
▁fills 160
▁guiding 160
▁magnets 160
▁obey 160
▁overwhelmed 160
▁perfume 160
▁pretending 160
▁publications 160
▁raid 160
▁recipes 160
▁relate 160
▁shortest 160
▁unc 160
Marilla 159
Ms 159
NC 159
amin 159
ault 159
dering 159
ech 159
ford 159
iating 159
inner 159
odo 159
shirts 159
sur 159
▁159 159
▁50- 159
▁AD 159
▁Colonial 159
▁Delhi 159
▁Dow 159
▁Flag 159
▁Guam 159
▁Highway 159
▁Legend 159
▁Monument 159
▁NATO 159
▁antibodies 159
▁asylum 159
▁bizarre 159
▁bre 159
▁brokers 159
▁circulating 159
▁comprehension 159
▁convince 159
▁devote 159
▁digits 159
▁folded 159
▁harbor 159
▁historically 159
▁microwave 159
▁neatly 159
▁newborn 159
▁penetration 159
▁pesticides 159
▁prosecuted 159
▁proudly 159
▁sem 159
▁sheep 159
▁stretching 159
▁waterproof 159
OL 158
active 158
amer 158
big 158
craft 158
examination 158
focused 158
gin 158
iti 158
jil 158
mb 158
rie 158
then 158
umber 158
yan 158
yes 158
▁(12 158
▁Chiefs 158
▁Death 158
▁Enterprises 158
▁Guri 158
▁Juan 158
▁LTE 158
▁Microdot 158
▁Nepal 158
▁Nuri 158
▁Popular 158
▁Tor 158
▁addressing 158
▁backs 158
▁brutal 158
▁cared 158
▁columns 158
▁dealer 158
▁dedication 158
▁devised 158
▁dull 158
▁guaranteeing 158
▁handwritten 158
▁indoors 158
▁learns 158
▁monitors 158
▁postings 158
▁prerequisite 158
▁racial 158
▁steamed 158
▁strategically 158
▁streams 158
▁unrest 158
▁usefulness 158
▁workshops 158
08 157
77 157
EO 157
Le 157
TR 157
dollar 157
ission 157
ometer 157
tering 157
▁(30 157
▁Dalseong 157
▁Gum 157
▁Inje 157
▁KCTU 157
▁Khan 157
▁Panmunjeom 157
▁Participation 157
▁Plato 157
▁SME 157
▁Semiconductor 157
▁Tashkent 157
▁Thinking 157
▁USB 157
▁ass 157
▁awful 157
▁bans 157
▁benefited 157
▁catalog 157
▁chased 157
▁circulated 157
▁coercion 157
▁crises 157
▁debuted 157
▁discretion 157
▁embedded 157
▁feeding 157
▁glow 157
▁harmon 157
▁herbal 157
▁homosexuality 157
▁hur 157
▁inn 157
▁innovations 157
▁inspecting 157
▁keyboard 157
▁merge 157
▁obliged 157
▁pie 157
▁projected 157
▁proliferation 157
▁prototype 157
▁reacted 157
▁reaffirmed 157
▁severance 157
▁tow 157
▁unattended 157
10, 156
?. 156
Act 156
Res 156
aches 156
ests 156
hot 156
ital 156
ival 156
izz 156
omi 156
onse 156
▁1994 156
▁Acting 156
▁Airbnb 156
▁Artist 156
▁Bohr 156
▁Cheongwadae 156
▁EBS 156
▁Nation 156
▁Stanford 156
▁Tunnel 156
▁Us 156
▁Vienna 156
▁Within 156
▁accessed 156
▁antibody 156
▁batters 156
▁borrowers 156
▁clar 156
▁classmates 156
▁cognition 156
▁coordinating 156
▁dumplings 156
▁echo 156
▁exquisite 156
▁factions 156
▁gar 156
▁germs 156
▁governmental 156
▁hereditary 156
▁injuring 156
▁locate 156
▁modeling 156
▁mut 156
▁netizen 156
▁prepares 156
▁recycled 156
▁rents 156
▁sins 156
▁slaves 156
▁symbolism 156
▁vanished 156
▁vest 156
30, 155
Democratic 155
La 155
bot 155
boy 155
century 155
hetic 155
icks 155
iling 155
lock 155
ork 155
service 155
ties 155
uki 155
wer 155
▁40. 155
▁AT 155
▁Auto 155
▁BE 155
▁Brothers 155
▁Daelim 155
▁Elect 155
▁Facilities 155
▁LS 155
▁Maria 155
▁Milk 155
▁Mis 155
▁Pers 155
▁Republicans 155
▁Yecheon 155
▁astronomical 155
▁brains 155
▁casino 155
▁fract 155
▁guilt 155
▁massacre 155
▁melts 155
▁mobilization 155
▁observer 155
▁pipeline 155
▁quant 155
▁republic 155
▁shines 155
▁simplified 155
▁spect 155
▁ste 155
▁stove 155
▁takers 155
▁theorem 155
▁understandable 155
▁warfare 155
'' 154
-10 154
-16 154
7% 154
Tech 154
gle 154
hab 154
iot 154
oster 154
reat 154
rep 154
μ 154
▁94 154
▁Andy 154
▁Cooperatives 154
▁Geochang 154
▁Inspector 154
▁Ka 154
▁List 154
▁Norway 154
▁Production 154
▁Rest 154
▁Venezuelan 154
▁candy 154
▁capita 154
▁collaborative 154
▁configuration 154
▁consolidated 154
▁dissolve 154
▁ec 154
▁gall 154
▁halt 154
▁hamburger 154
▁joyful 154
▁lean 154
▁necklace 154
▁op 154
▁ore 154
▁pale 154
▁participatory 154
▁penetrate 154
▁portray 154
▁pounds 154
▁preferable 154
▁sacrifices 154
▁sauna 154
▁stranger 154
▁utmost 154
▁vertically 154
-5 153
agi 153
cel 153
eeper 153
formed 153
gae 153
hard 153
iaomi 153
nic 153
rete 153
riv 153
tern 153
than 153
▁199 153
▁CNBC 153
▁Cannes 153
▁Current 153
▁DC 153
▁Ger 153
▁Jungang 153
▁Mult 153
▁Ol 153
▁Silver 153
▁Train 153
▁Welcome 153
▁Wild 153
▁agendas 153
▁cares 153
▁clarified 153
▁coffin 153
▁collaborated 153
▁crane 153
▁customary 153
▁depicting 153
▁disclosing 153
▁hacked 153
▁imperialism 153
▁incense 153
▁insights 153
▁lied 153
▁mercury 153
▁ozone 153
▁parameters 153
▁placement 153
▁plastics 153
▁plus 153
▁preparatory 153
▁provocations 153
▁regrets 153
▁socks 153
▁stickers 153
▁territories 153
▁wary 153
Burning 152
Jeon 152
bell 152
dep 152
eed 152
inating 152
ivers 152
oming 152
osu 152
phones 152
price 152
shot 152
tak 152
vy 152
wave 152
zo 152
▁185 152
▁8- 152
▁93 152
▁Abu 152
▁Clean 152
▁Hey 152
▁Lun 152
▁Mod 152
▁Powell 152
▁SOC 152
▁Tea 152
▁Throughout 152
▁blade 152
▁cartilage 152
▁cracking 152
▁estimation 152
▁furnace 152
▁gesture 152
▁habitual 152
▁hug 152
▁memo 152
▁mines 152
▁mosquitoes 152
▁notebook 152
▁pastoral 152
▁plaque 152
▁preceding 152
▁proposing 152
▁rage 152
▁regained 152
▁remake 152
▁scars 152
▁sesame 152
▁shore 152
▁sidewalk 152
▁sits 152
▁socialism 152
▁testimonies 152
▁tiles 152
▁verbally 152
BI 151
Sp 151
acter 151
arians 151
conscious 151
funded 151
imb 151
jok 151
learning 151
lla 151
oned 151
pol 151
▁105 151
▁1999 151
▁230 151
▁330 151
▁Daeseong 151
▁Ever 151
▁GP 151
▁Halla 151
▁Halloween 151
▁Hearing 151
▁Log 151
▁MS 151
▁NHK 151
▁Orion 151
▁Ryan 151
▁Status 151
▁TWICE 151
▁Weibo 151
▁Yuk 151
▁advisors 151
▁announcements 151
▁anthrop 151
▁bang 151
▁broaden 151
▁bulgogi 151
▁competencies 151
▁concealed 151
▁conditioning 151
▁confirms 151
▁considerate 151
▁contractors 151
▁disrupt 151
▁eve 151
▁expenditures 151
▁fitting 151
▁flaw 151
▁gardens 151
▁indiscrim 151
▁irrelevant 151
▁overwork 151
▁paras 151
▁recommending 151
▁relocate 151
▁resilience 151
▁sticky 151
▁sustain 151
▁vaccines 151
▁valve 151
▁variation 151
▁weights 151
▁wishing 151
201 150
Minister 150
Tae 150
agu 150
cept 150
gul 150
ige 150
irt 150
itive 150
oyang 150
▁(1, 150
▁4.3 150
▁Cop 150
▁Develop 150
▁Finding 150
▁Finnish 150
▁IBM 150
▁Nav 150
▁TO 150
▁Voice 150
▁Yuri 150
▁adhere 150
▁alien 150
▁assailant 150
▁authorization 150
▁ballet 150
▁bitcoin 150
▁clearer 150
▁coke 150
▁creature 150
▁curves 150
▁dangers 150
▁dermatitis 150
▁embodied 150
▁exploitation 150
▁fastball 150
▁lasting 150
▁mourning 150
▁origins 150
▁paralyzed 150
▁peers 150
▁pessimistic 150
▁pictorial 150
▁pretext 150
▁proficiency 150
▁restraint 150
▁searches 150
▁slave 150
▁souvenirs 150
▁spends 150
▁squid 150
▁straws 150
▁teenager 150
▁tilted 150
▁underdeveloped 150
▁volumes 150
8% 149
85 149
Am 149
De 149
Real 149
Te 149
XQ 149
arr 149
aur 149
block 149
director 149
icians 149
ista 149
kyum 149
sw 149
uce 149
which 149
xt 149
▁2030 149
▁3.2 149
▁320 149
▁Ace 149
▁Aside 149
▁Croatia 149
▁Hydrogen 149
▁Immigration 149
▁Methodist 149
▁Nae 149
▁SP 149
▁Secretariat 149
▁Shinil 149
▁Taipei 149
▁Woong 149
▁agreeing 149
▁behavioral 149
▁chemist 149
▁cro 149
▁decorations 149
▁divides 149
▁habitually 149
▁inducing 149
▁interp 149
▁lets 149
▁maternal 149
▁patriotic 149
▁peoples 149
▁prov 149
▁quote 149
▁ra 149
▁relevance 149
▁rode 149
▁sashimi 149
▁sen 149
▁sil 149
▁skepticism 149
▁surgeon 149
▁tech 149
▁unify 149
▁viewership 149
▁wildfires 149
▁workout 149
ICT 148
chain 148
fighting 148
game 148
resp 148
speaking 148
sum 148
tered 148
▁Already 148
▁Arctic 148
▁Distribution 148
▁Half 148
▁Imp 148
▁Indians 148
▁Leaders 148
▁Math 148
▁Musical 148
▁Nancy 148
▁Nong 148
▁Otherwise 148
▁Player 148
▁Poor 148
▁Prop 148
▁Rail 148
▁Rio 148
▁Uruguay 148
▁Warring 148
▁advertised 148
▁amplified 148
▁arthritis 148
▁beneficiaries 148
▁beneficiary 148
▁cables 148
▁chaotic 148
▁cooled 148
▁corners 148
▁da 148
▁deepen 148
▁delegates 148
▁energetic 148
▁envelope 148
▁excav 148
▁financially 148
▁fleeing 148
▁grid 148
▁homeowners 148
▁ideologies 148
▁impressions 148
▁indict 148
▁infinity 148
▁inject 148
▁margins 148
▁neglecting 148
▁novelist 148
▁pit 148
▁plummeted 148
▁propensity 148
▁richer 148
▁selfish 148
▁sprayed 148
▁weigh 148
Bank 147
Im 147
Local 147
MD 147
OD 147
aik 147
bert 147
def 147
developed 147
ental 147
ilization 147
irs 147
oked 147
parent 147
stand 147
▁4.2 147
▁Bed 147
▁Comedian 147
▁Cut 147
▁Ep 147
▁Firstly 147
▁Fore 147
▁Gae 147
▁MA 147
▁Materials 147
▁Od 147
▁Smartphone 147
▁Suspicions 147
▁Uplus 147
▁Wo 147
▁Yeongjong 147
▁abolishing 147
▁accidental 147
▁amazed 147
▁amended 147
▁cough 147
▁crafts 147
▁defectors 147
▁diamond 147
▁fi 147
▁fluctuation 147
▁founders 147
▁gloves 147
▁grapes 147
▁guardians 147
▁insolvency 147
▁lion 147
▁liquidation 147
▁metaphysical 147
▁miserable 147
▁mob 147
▁nails 147
▁occupational 147
▁pedestrians 147
▁pores 147
▁quarks 147
▁shout 147
▁tents 147
▁vein 147
▁warmer 147
OM 146
WSJ 146
asm 146
del 146
eul 146
icism 146
och 146
oco 146
otics 146
ression 146
size 146
viol 146
▁2.9 146
▁Ages 146
▁Associated 146
▁Fall 146
▁Few 146
▁Homeplus 146
▁Imperial 146
▁Know 146
▁Pa 146
▁Person 146
▁Simon 146
▁Smartphones 146
▁Subsequently 146
▁Yuan 146
▁accumulating 146
▁assertion 146
▁briquettes 146
▁chemists 146
▁compressed 146
▁condolences 146
▁confronted 146
▁consultant 146
▁consulted 146
▁delinquency 146
▁differed 146
▁enshrined 146
▁ghosts 146
▁hazardous 146
▁helium 146
▁integrating 146
▁leftover 146
▁longing 146
▁merc 146
▁nuclei 146
▁optimism 146
▁overlapped 146
▁oxidation 146
▁reviving 146
▁scorching 146
▁screw 146
▁slows 146
▁stern 146
▁subcontracting 146
▁succeeds 146
▁sustained 146
▁swelling 146
▁temporal 146
▁theatrical 146
▁tokens 146
▁visitor 146
▁wartime 146
2% 145
Can 145
Trump 145
acity 145
channel 145
conn 145
corruption 145
cre 145
former 145
isting 145
mented 145
nut 145
ocal 145
oney 145
otion 145
ror 145
uter 145
▁2018" 145
▁Buyeo 145
▁Counseling 145
▁Equ 145
▁Francis 145
▁Generally 145
▁Geo 145
▁Household 145
▁Icheon 145
▁Judging 145
▁Measure 145
▁Mediterranean 145
▁Normally 145
▁Phot 145
▁Salman 145
▁Supp 145
▁Theory 145
▁Watching 145
▁ammonia 145
▁analytical 145
▁assessments 145
▁backup 145
▁badminton 145
▁ce 145
▁chopsticks 145
▁confidently 145
▁confiscated 145
▁copied 145
▁councilors 145
▁cured 145
▁finite 145
▁freshness 145
▁implied 145
▁importantly 145
▁influencing 145
▁influenza 145
▁intuition 145
▁irrational 145
▁leukemia 145
▁oxid 145
▁pheasant 145
▁privately 145
▁ratios 145
▁repetitive 145
▁savory 145
▁sche 145
▁shogunate 145
▁southwest 145
▁stabilizing 145
▁strangers 145
▁submarine 145
▁tang 145
▁virtues 145
43 144
contract 144
iver 144
ocheon 144
ogy 144
ords 144
orts 144
pen 144
social 144
uestions 144
▁1991, 144
▁Aid 144
▁Ap 144
▁Cas 144
▁Cheom 144
▁Classic 144
▁Gocheok 144
▁Knowing 144
▁Lou 144
▁Naval 144
▁Pap 144
▁Renaissance 144
▁Soccer 144
▁abundance 144
▁assessing 144
▁autonomic 144
▁blessed 144
▁bombing 144
▁declines 144
▁diff 144
▁extinguishing 144
▁factional 144
▁fuss 144
▁geothermal 144
▁groom 144
▁hasty 144
▁herb 144
▁homer 144
▁infarction 144
▁inquire 144
▁interpersonal 144
▁launches 144
▁mobilize 144
▁outdated 144
▁pitches 144
▁projectile 144
▁psychiatric 144
▁sandbox 144
▁selective 144
▁sleepy 144
▁sleeves 144
▁symposium 144
▁syrup 144
▁towels 144
▁uncover 144
▁unfolds 144
▁varieties 144
▁wielded 144
Che 143
aton 143
bank 143
development 143
ects 143
piece 143
ras 143
tax 143
▁Add 143
▁Apart 143
▁CR 143
▁Cur 143
▁Dark 143
▁Des 143
▁Disc 143
▁Hur 143
▁Intel 143
▁Jj 143
▁Justin 143
▁Merit 143
▁Simply 143
▁Tem 143
▁Uprising 143
▁accelerator 143
▁accomplishment 143
▁bacterial 143
▁bug 143
▁consulate 143
▁contradictory 143
▁cozy 143
▁devotion 143
▁entries 143
▁ep 143
▁fasc 143
▁fold 143
▁hook 143
▁interacting 143
▁landfill 143
▁managerial 143
▁maximized 143
▁meg 143
▁ped 143
▁postseason 143
▁rat 143
▁replic 143
▁sausage 143
▁similarly 143
▁stadiums 143
▁stewardship 143
▁thrill 143
▁thumb 143
▁worlds 143
▁yearly 143
Dragon 142
Mar 142
March 142
aman 142
capacity 142
equ 142
here 142
imeter 142
iro 142
ough 142
reum 142
rons 142
▁Atlantic 142
▁Carter 142
▁Fukushima 142
▁Geumgangsan 142
▁HR 142
▁Higher 142
▁Jones 142
▁Koryo 142
▁Pittsburgh 142
▁Scientific 142
▁Scott 142
▁Tony 142
▁Vegas 142
▁accomplice 142
▁addictive 142
▁admire 142
▁arr 142
▁attendants 142
▁awa 142
▁beg 142
▁bend 142
▁brake 142
▁buys 142
▁charisma 142
▁charter 142
▁continental 142
▁deprived 142
▁elastic 142
▁encompasses 142
▁expulsion 142
▁facilit 142
▁facto 142
▁filters 142
▁highlighting 142
▁iTunes 142
▁inexpensive 142
▁northeast 142
▁patch 142
▁plasma 142
▁playoffs 142
▁portals 142
▁presiding 142
▁scalp 142
▁secretion 142
▁showdown 142
▁specialization 142
▁spell 142
▁stylish 142
▁tim 142
▁traders 142
▁worrisome 142
September 141
Sung 141
Yes 141
burg 141
geon 141
icted 141
issions 141
lasting 141
olit 141
prom 141
tang 141
wo 141
years 141
▁-- 141
▁240 141
▁Cam 141
▁Conservative 141
▁Customer 141
▁Fun 141
▁KOTRA 141
▁Masters 141
▁Milan 141
▁Pagoda 141
▁Painting 141
▁Poly 141
▁Puerto 141
▁Sentosa 141
▁Sinchon 141
▁Soft 141
▁Stage 141
▁Tehran 141
▁Testament 141
▁Trends 141
▁Ulleungdo 141
▁Value 141
▁administered 141
▁alleys 141
▁beats 141
▁clashes 141
▁crushed 141
▁deer 141
▁dissemination 141
▁entangled 141
▁fo 141
▁fork 141
▁handles 141
▁implements 141
▁maid 141
▁maternity 141
▁millennials 141
▁monarch 141
▁naming 141
▁narration 141
▁objectors 141
▁onions 141
▁orbital 141
▁outdoors 141
▁pianist 141
▁saturated 141
▁scandals 141
▁southwestern 141
▁static 141
▁technically 141
▁uploading 141
▁vegetarian 141
▁visibility 141
▁voter 141
Int 140
Yeon 140
atin 140
bad 140
defense 140
gum 140
lections 140
mond 140
product 140
ressing 140
rial 140
▁(50 140
▁2-0 140
▁2006. 140
▁365 140
▁Almost 140
▁Collection 140
▁Contin 140
▁Daes 140
▁Dod 140
▁Genesis 140
▁Goheung 140
▁IBK 140
▁Juventus 140
▁KTU 140
▁Kat 140
▁Modi 140
▁Muan 140
▁Sound 140
▁Sunshine 140
▁agony 140
▁alphabet 140
▁candles 140
▁constrained 140
▁corps 140
▁curry 140
▁dairy 140
▁deck 140
▁depict 140
▁deserves 140
▁disguised 140
▁divine 140
▁elephant 140
▁emerges 140
▁exile 140
▁fond 140
▁footsteps 140
▁granting 140
▁impacts 140
▁innov 140
▁insulation 140
▁invests 140
▁knocked 140
▁leasing 140
▁pressures 140
▁pupils 140
▁sandwich 140
▁secretariat 140
▁shells 140
▁sore 140
▁submerged 140
▁swallow 140
▁uneasy 140
▁widen 140
▁wildfire 140
Druking 139
His 139
Ho 139
Nam 139
PL 139
backs 139
beat 139
card 139
fe 139
imal 139
listed 139
lu 139
odong 139
oping 139
osal 139
oshi 139
pot 139
ris 139
sen 139
umer 139
una 139
▁1995 139
▁3.4 139
▁Adada 139
▁Blood 139
▁Cook 139
▁Defence 139
▁Dongbu 139
▁Dongguk 139
▁Eom 139
▁Friendship 139
▁Hosted 139
▁Istanbul 139
▁Likewise 139
▁Nike 139
▁Soh 139
▁Task 139
▁Thanksgiving 139
▁Venice 139
▁Yeongdeok 139
▁Yuseong 139
▁arrangements 139
▁brisk 139
▁bucket 139
▁chlorine 139
▁commercials 139
▁compensated 139
▁compliment 139
▁copying 139
▁derivatives 139
▁deserve 139
▁disbanded 139
▁disinfectant 139
▁dominating 139
▁elevated 139
▁entertaining 139
▁fascinated 139
▁federation 139
▁fingerprints 139
▁fundraising 139
▁headaches 139
▁imaginary 139
▁inconsistent 139
▁intestine 139
▁ladder 139
▁lemon 139
▁magistrate 139
▁mattresses 139
▁migratory 139
▁monitored 139
▁numerical 139
▁opp 139
▁positioned 139
▁relaxing 139
▁repairing 139
▁revisions 139
▁roses 139
▁ruin 139
▁sealed 139
▁skeptical 139
▁soybeans 139
▁summ 139
▁summons 139
▁swift 139
▁tor 139
▁traveler 139
▁turnout 139
▁ut 139
▁utter 139
▁vendors 139
▁voucher 139
▁weekday 139
▁worthy 139
'." 138
Based 138
DI 138
cert 138
hers 138
ician 138
orders 138
ushed 138
yeok 138
▁1988 138
▁700,000 138
▁Adviser 138
▁Alexander 138
▁Brun 138
▁Brussels 138
▁Chen 138
▁Chris 138
▁GPS 138
▁Hen 138
▁Lang 138
▁Literary 138
▁Mam 138
▁Philharmonic 138
▁Rookie 138
▁Sak 138
▁Tw 138
▁Wil 138
▁accountable 138
▁announces 138
▁autonomously 138
▁betting 138
▁boarded 138
▁cans 138
▁cheapest 138
▁closet 138
▁commercialize 138
▁defendants 138
▁descriptions 138
▁diplomat 138
▁enthusiasts 138
▁fax 138
▁feminism 138
▁fort 138
▁generational 138
▁implant 138
▁jeans 138
▁juvenile 138
▁leaning 138
▁mortuary 138
▁motel 138
▁neuro 138
▁podium 138
▁prey 138
▁prints 138
▁prisoner 138
▁prob 138
▁prot 138
▁reconstruct 138
▁repercussions 138
▁similarity 138
▁smuggling 138
▁speeds 138
▁strawberries 138
▁thief 138
▁undergraduate 138
▁unison 138
▁wallets 138
97 137
Big 137
Ph 137
WS 137
azing 137
chers 137
conf 137
isions 137
kilometer 137
large 137
linked 137
rence 137
ross 137
rying 137
served 137
tan 137
tar 137
verse 137
▁0.1 137
▁1992, 137
▁Anna 137
▁Boys 137
▁Chairperson 137
▁Chemistry 137
▁Coca 137
▁DS 137
▁ERA 137
▁Eon 137
▁Lanka 137
▁Peru 137
▁Ssang 137
▁Tam 137
▁aboard 137
▁abs 137
▁appraisal 137
▁assumes 137
▁baked 137
▁clever 137
▁conventions 137
▁drainage 137
▁enhances 137
▁extensively 137
▁fertilizer 137
▁hunt 137
▁localization 137
▁methamphetamine 137
▁mil 137
▁modules 137
▁om 137
▁pressuring 137
▁progression 137
▁reconsider 137
▁reinforcing 137
▁scissors 137
▁spacious 137
▁sunglasses 137
▁triangular 137
▁wires 137
42 136
CA 136
June 136
Kang 136
Sc 136
cessing 136
ctor 136
eur 136
icultural 136
irmed 136
ishment 136
ket 136
ld 136
normal 136
ouse 136
prov 136
seat 136
soe 136
urt 136
zi 136
▁108 136
▁600,000 136
▁Argentine 136
▁Baekseok 136
▁Congratulations 136
▁Dobong 136
▁Gyeongui 136
▁Healing 136
▁Ir 136
▁Manchuria 136
▁NBA 136
▁RO 136
▁Seog 136
▁Tan 136
▁Wait 136
▁Were 136
▁accountants 136
▁acknowledging 136
▁annoying 136
▁assisted 136
▁assumptions 136
▁belongings 136
▁canceling 136
▁coincidence 136
▁confess 136
▁considerations 136
▁curling 136
▁deaf 136
▁desp 136
▁economists 136
▁elev 136
▁err 136
▁externally 136
▁functioning 136
▁helm 136
▁hurting 136
▁intestines 136
▁judgement 136
▁lipstick 136
▁malfunction 136
▁mayoral 136
▁ministerial 136
▁nevertheless 136
▁overlook 136
▁pier 136
▁prep 136
▁procession 136
▁provocative 136
▁refrigerators 136
▁relieving 136
▁rotating 136
▁scenic 136
▁schizophrenia 136
▁scr 136
▁secular 136
▁settling 136
▁shelf 136
▁southeast 136
▁tenure 136
▁transc 136
▁transplantation 136
▁unforgettable 136
▁val 136
April 135
Free 135
Her 135
LS 135
PR 135
West 135
atsu 135
avy 135
dog 135
icle 135
jeok 135
jud 135
mission 135
ographical 135
oids 135
owner 135
ream 135
ulates 135
yueng 135
▁3.8 135
▁5.18 135
▁Aunt 135
▁Bec 135
▁Birth 135
▁Boryeong 135
▁Buddhists 135
▁Changes 135
▁Dhabi 135
▁Ext 135
▁Gon 135
▁Haenam 135
▁Hegel 135
▁KDB 135
▁Mach 135
▁Near 135
▁Pence 135
▁Trend 135
▁Universal 135
▁Williams 135
▁Yeoncheon 135
▁adequately 135
▁assists 135
▁blockbuster 135
▁centralized 135
▁cushion 135
▁deducted 135
▁dial 135
▁dislike 135
▁dispar 135
▁drag 135
▁durable 135
▁encounters 135
▁encryption 135
▁enrollment 135
▁governing 135
▁harvested 135
▁incorporate 135
▁knot 135
▁lifespan 135
▁lukewarm 135
▁matrix 135
▁narratives 135
▁obsession 135
▁oven 135
▁planner 135
▁posed 135
▁prone 135
▁ranges 135
▁rationality 135
▁reapp 135
▁rebuild 135
▁satellites 135
▁simplicity 135
▁sociology 135
▁trivial 135
▁ur 135
▁wit 135
IMF 134
IoT 134
ago 134
aning 134
anti 134
ca 134
enz 134
ested 134
iko 134
pit 134
rend 134
ryeo 134
▁"( 134
▁3.7 134
▁Albert 134
▁Barack 134
▁Cornelia 134
▁Fil 134
▁Foods 134
▁IB 134
▁Producer 134
▁Strait 134
▁Tiger 134
▁Yeongdo 134
▁applauded 134
▁banners 134
▁censorship 134
▁consolation 134
▁criticizes 134
▁desserts 134
▁explicit 134
▁feud 134
▁heyday 134
▁imitate 134
▁indispensable 134
▁insiders 134
▁invent 134
▁lax 134
▁mega 134
▁mushroom 134
▁overlaps 134
▁polite 134
▁prioritized 134
▁sender 134
▁shampoo 134
▁sickness 134
▁signatures 134
▁silently 134
▁spacecraft 134
▁suited 134
▁supporter 134
▁thriller 134
▁toe 134
▁wastes 134
▁whiskey 134
▁wives 134
United 133
asu 133
asure 133
esc 133
hai 133
ignment 133
imi 133
ixed 133
ku 133
lor 133
ryeong 133
turned 133
▁6.1 133
▁Accounts 133
▁Bug 133
▁Computer 133
▁Contents 133
▁Costa 133
▁Dem 133
▁Juk 133
▁Mill 133
▁Neo 133
▁Petition 133
▁Sangam 133
▁Soulik 133
▁Strategic 133
▁Symphony 133
▁abide 133
▁admired 133
▁attain 133
▁bees 133
▁blankets 133
▁burger 133
▁chapters 133
▁clauses 133
▁electroly 133
▁entrust 133
▁explode 133
▁exposing 133
▁firefighter 133
▁hepatitis 133
▁herbs 133
▁hun 133
▁imperson 133
▁infrared 133
▁infrastructures 133
▁jealous 133
▁landscapes 133
▁learner 133
▁mechanisms 133
▁mutations 133
▁outlined 133
▁overheating 133
▁persimmon 133
▁persists 133
▁recruits 133
▁relied 133
▁sailing 133
▁sneakers 133
▁startled 133
▁steril 133
▁suppressing 133
▁tre 133
▁treats 133
▁verse 133
▁victories 133
▁waving 133
Black 132
FI 132
Gwangju 132
Ju 132
Who 132
ainichi 132
confidence 132
earing 132
ensive 132
icides 132
izers 132
liness 132
zu 132
▁(25 132
▁-0. 132
▁1996 132
▁25,000 132
▁75% 132
▁Bak 132
▁Bingbing 132
▁Chart 132
▁FT 132
▁Glo 132
▁Going 132
▁Gwangsan 132
▁Higgs 132
▁Hug 132
▁Ken 132
▁Kyodo 132
▁Mugunghwa 132
▁PGA 132
▁Premium 132
▁Ric 132
▁Word 132
▁agonizing 132
▁assaults 132
▁ballot 132
▁bits 132
▁catastrophe 132
▁chapel 132
▁clearing 132
▁comb 132
▁consolidation 132
▁dare 132
▁demographic 132
▁devil 132
▁distinguishing 132
▁enact 132
▁geopolitical 132
▁hockey 132
▁inquired 132
▁intimate 132
▁lap 132
▁multimedia 132
▁narrowing 132
▁outsourcing 132
▁pains 132
▁pap 132
▁pioneering 132
▁realizes 132
▁refunded 132
▁screenings 132
▁sequentially 132
▁setback 132
▁slipped 132
▁sprout 132
▁stamps 132
▁surfaces 132
▁trainer 132
▁worthwhile 132
BO 131
IV 131
acqu 131
alism 131
ander 131
anding 131
bee 131
edi 131
gn 131
nan 131
oded 131
omed 131
political 131
representative 131
such 131
▁3.0 131
▁3.6 131
▁Analy 131
▁Andrew 131
▁Cheongdam 131
▁Common 131
▁Crab 131
▁Eff 131
▁Glass 131
▁Hokkaido 131
▁Hom 131
▁IN 131
▁Mnuchin 131
▁Mongol 131
▁NASA 131
▁Nang 131
▁Primera 131
▁Procurement 131
▁Rub 131
▁Screen 131
▁Search 131
▁Soc 131
▁Stop 131
▁Technical 131
▁Webtoon 131
▁Wilson 131
▁abandonment 131
▁alcoholic 131
▁broader 131
▁categor 131
▁clim 131
▁communicates 131
▁crosswalk 131
▁diligently 131
▁doctrine 131
▁enc 131
▁entertainer 131
▁extraction 131
▁fetus 131
▁genetically 131
▁guesthouse 131
▁homeroom 131
▁hypotheses 131
▁illegality 131
▁imaging 131
▁intrinsic 131
▁intro 131
▁je 131
▁jokes 131
▁lymph 131
▁negotiated 131
▁outward 131
▁overflowing 131
▁parenting 131
▁plaintiffs 131
▁pneumonia 131
▁pretended 131
▁racism 131
▁rectangular 131
▁relies 131
▁stresses 131
▁supplements 131
▁tab 131
▁toilets 131
IL 130
Par 130
bles 130
cat 130
cc 130
disc 130
heng 130
ilar 130
main 130
oro 130
otherapy 130
payment 130
pressure 130
ressed 130
some 130
▁Arizona 130
▁Brother 130
▁Byeon 130
▁Carlos 130
▁Cheongsong 130
▁Democratization 130
▁Dongducheon 130
▁Establishment 130
▁Eye 130
▁Face 130
▁Harrison 130
▁Innovative 130
▁Jeongseon 130
▁Livestock 130
▁MD 130
▁Medal 130
▁Protestant 130
▁Samseong 130
▁Schleicher 130
▁Sleep 130
▁Suddenly 130
▁Surprisingly 130
▁Sweet 130
▁Vatican 130
▁Yangyang 130
▁advertise 130
▁advertiser 130
▁assembled 130
▁assistants 130
▁char 130
▁chemically 130
▁clerk 130
▁discusses 130
▁emotionally 130
▁faded 130
▁futures 130
▁galaxy 130
▁generals 130
▁ignorance 130
▁impress 130
▁inspectors 130
▁kills 130
▁listener 130
▁marijuana 130
▁mus 130
▁ord 130
▁outskirts 130
▁pave 130
▁realistically 130
▁relating 130
▁retention 130
▁sedan 130
▁subscriptions 130
▁sweating 130
▁synthesized 130
▁twist 130
▁uniqueness 130
▁vent 130
▁violin 130
arting 129
but 129
des 129
flower 129
onsan 129
open 129
rench 129
ressive 129
zer 129
▁30. 129
▁6.5 129
▁60- 129
▁AC 129
▁Account 129
▁Cohen 129
▁Daechi 129
▁Ethereum 129
▁Filipino 129
▁Grandma 129
▁Link 129
▁Manufacturing 129
▁Op 129
▁Panama 129
▁Parkinson 129
▁Physical 129
▁Reverend 129
▁Something 129
▁Soul 129
▁Stanley 129
▁Studios 129
▁Total 129
▁aspirations 129
▁assassination 129
▁brighter 129
▁brightness 129
▁compatibility 129
▁coordinated 129
▁decomposition 129
▁deficiency 129
▁deficits 129
▁detecting 129
▁ego 129
▁emits 129
▁fathers 129
▁flee 129
▁furious 129
▁grants 129
▁hostility 129
▁intervening 129
▁lifestyles 129
▁oversupply 129
▁pearl 129
▁railroads 129
▁rein 129
▁sequencing 129
▁shelters 129
▁shortening 129
▁sighed 129
▁stemming 129
▁subcontract 129
▁terminate 129
▁threatens 129
▁tolerate 129
▁wanna 129
Baek 128
Cl 128
GDP 128
Mon 128
Under 128
angu 128
bound 128
ema 128
iger 128
ilation 128
istan 128
obile 128
orted 128
otes 128
rac 128
umbled 128
uters 128
▁12. 128
▁Adam 128
▁Architecture 128
▁Businesses 128
▁Consulate 128
▁Diego 128
▁Dur 128
▁Dust 128
▁Eo 128
▁Hotspur 128
▁III 128
▁LPGA 128
▁Left 128
▁Lot 128
▁MP 128
▁Mitsubishi 128
▁Nihon 128
▁Politics 128
▁Seowon 128
▁Yeongcheon 128
▁addicted 128
▁aerial 128
▁arch 128
▁attained 128
▁beaches 128
▁blaming 128
▁ceremonial 128
▁chew 128
▁conservatism 128
▁const 128
▁contradiction 128
▁curb 128
▁damp 128
▁danced 128
▁dancer 128
▁decentralized 128
▁dent 128
▁disarmament 128
▁disruptions 128
▁distr 128
▁dots 128
▁epidemic 128
▁faint 128
▁flexibly 128
▁hairstyle 128
▁harvesting 128
▁infer 128
▁locker 128
▁masterpieces 128
▁mentor 128
▁microscopic 128
▁myths 128
▁norm 128
▁officetel 128
▁patented 128
▁phot 128
▁prosperous 128
▁quasi 128
▁rash 128
▁reunions 128
▁rob 128
▁shipper 128
▁specialties 128
▁stably 128
▁stele 128
▁stere 128
▁stimuli 128
▁strife 128
▁substantially 128
▁telecom 128
▁therapeutic 128
▁u 128
▁vibrant 128
?” 127
Also 127
Gang 127
Gyeong 127
LED 127
NP 127
arious 127
deuk 127
erous 127
fact 127
headed 127
ishop 127
kuk 127
lease 127
lective 127
mes 127
ocr 127
pective 127
regulation 127
that 127
uity 127
vern 127
▁"1 127
▁Aff 127
▁Ent 127
▁Haman 127
▁Heon 127
▁Hung 127
▁Jerusalem 127
▁MVP 127
▁Neung 127
▁Patients 127
▁Psych 127
▁Region 127
▁Return 127
▁Seoh 127
▁Tao 127
▁alienated 127
▁attractiveness 127
▁brink 127
▁commands 127
▁debris 127
▁dinosaur 127
▁dismantled 127
▁electrode 127
▁evolutionary 127
▁exemplary 127
▁franchisees 127
▁hesitant 127
▁laptops 127
▁mor 127
▁nonsense 127
▁notices 127
▁overwhelmingly 127
▁pillow 127
▁pitched 127
▁plagiarism 127
▁populations 127
▁pret 127
▁quoting 127
▁restructure 127
▁sings 127
▁soc 127
▁spinning 127
▁supervise 127
▁swearing 127
▁trunk 127
▁volunteered 127
▁wearable 127
arn 126
ateg 126
chn 126
complete 126
control 126
ervation 126
gence 126
hyeok 126
mart 126
nom 126
operation 126
oration 126
orrow 126
ounded 126
rogen 126
sl 126
specialized 126
▁"0 126
▁Adv 126
▁Ancient 126
▁Audi 126
▁Bro 126
▁CES 126
▁Cherry 126
▁Core 126
▁ETF 126
▁Empress 126
▁Hundreds 126
▁Imm 126
▁Jackson 126
▁Luc 126
▁Luther 126
▁Much 126
▁Organizations 126
▁Rising 126
▁Robot 126
▁Sab 126
▁Spokesperson 126
▁Treasure 126
▁Turn 126
▁VOD 126
▁Works 126
▁amenities 126
▁arson 126
▁bidder 126
▁breed 126
▁bribe 126
▁bypass 126
▁cage 126
▁cease 126
▁clinics 126
▁corrosion 126
▁denies 126
▁disturbed 126
▁diversifying 126
▁dwell 126
▁easiest 126
▁fox 126
▁generator 126
▁gorgeous 126
▁harmed 126
▁hats 126
▁hence 126
▁imag 126
▁inferred 126
▁intercept 126
▁joins 126
▁kits 126
▁lamb 126
▁magical 126
▁mergers 126
▁meta 126
▁mic 126
▁normalized 126
▁presenter 126
▁priorities 126
▁residual 126
▁sampling 126
▁skincare 126
▁solemn 126
▁spirituality 126
▁terrain 126
▁thyroid 126
▁tile 126
▁triumph 126
▁undermined 126
-18 125
MW 125
Ok 125
arse 125
ces 125
cess 125
iah 125
investigation 125
ml 125
peace 125
rection 125
sts 125
when 125
will 125
writer 125
▁25- 125
▁AlphaGo 125
▁Aristotle 125
▁Bom 125
▁Broad 125
▁Cambridge 125
▁Comb 125
▁DHL 125
▁Dew 125
▁Dongchang 125
▁Ell 125
▁Eu 125
▁Hyosung 125
▁KINTE 125
▁Reagan 125
▁Tencent 125
▁baking 125
▁birthrate 125
▁breakup 125
▁coloring 125
▁congress 125
▁cosmic 125
▁crushing 125
▁crystals 125
▁detector 125
▁diagram 125
▁disagreements 125
▁downloaded 125
▁enlistment 125
▁exceptionally 125
▁faults 125
▁flocking 125
▁geometric 125
▁governed 125
▁infinitely 125
▁irritation 125
▁lamps 125
▁lyric 125
▁mediator 125
▁melodies 125
▁mentors 125
▁nom 125
▁obsc 125
▁ordinances 125
▁penetrated 125
▁photon 125
▁refunds 125
▁removes 125
▁sketch 125
▁stationary 125
▁strap 125
▁strip 125
▁superiors 125
▁tactic 125
▁visuals 125
.5%) 124
CI 124
Cola 124
ME 124
aire 124
ansa 124
bling 124
estic 124
going 124
iations 124
illy 124
ims 124
just 124
kins 124
laws 124
lay 124
mal 124
nov 124
ogenic 124
oseong 124
prot 124
turn 124
▁(27 124
▁Ax 124
▁Barry 124
▁Bun 124
▁Capella 124
▁Coupang 124
▁Daehan 124
▁Deuk 124
▁Geumjeong 124
▁Gwon 124
▁Mnet 124
▁Myoung 124
▁Present 124
▁Publishing 124
▁Reservoir 124
▁Roosevelt 124
▁Similarly 124
▁Spot 124
▁aer 124
▁arc 124
▁attribute 124
▁brave 124
▁brow 124
▁canvas 124
▁celebrates 124
▁cheating 124
▁crush 124
▁curtain 124
▁definitions 124
▁derivative 124
▁detects 124
▁discriminated 124
▁disqual 124
▁donating 124
▁doubles 124
▁dresses 124
▁economist 124
▁enjoyment 124
▁expires 124
▁exporters 124
▁freed 124
▁grape 124
▁grip 124
▁handicapped 124
▁hedge 124
▁helmet 124
▁historian 124
▁hitters 124
▁imitation 124
▁informs 124
▁leverage 124
▁migrant 124
▁migrants 124
▁minimized 124
▁peaks 124
▁postpartum 124
▁primitive 124
▁procedural 124
▁reacts 124
▁recalls 124
▁renovated 124
▁retirees 124
▁rewarding 124
▁seasoning 124
▁specification 124
▁strings 124
▁sweetness 124
▁undervalued 124
▁updates 124
▁urgency 124
▁warranty 124
▁workload 124
▁wrestling 124
▁yards 124
▁yogurt 124
Law 123
Smart 123
aron 123
ati 123
cap 123
carbon 123
chong 123
gment 123
herself 123
igi 123
iol 123
lection 123
mas 123
oreum 123
ration 123
reed 123
teen 123
ti 123
uda 123
ulf 123
wise 123
▁(21 123
▁00 123
▁1988, 123
▁2000. 123
▁Ali 123
▁Alone 123
▁Bahrain 123
▁Burn 123
▁Choong 123
▁Combined 123
▁Electro 123
▁Gogh 123
▁Guide 123
▁Jam 123
▁Jose 123
▁Kings 123
▁Lifelong 123
▁Lind 123
▁Melbourne 123
▁Namdong 123
▁Osong 123
▁Sn 123
▁Syndrome 123
▁TOEIC 123
▁UHD 123
▁Vancouver 123
▁Yeoju 123
▁bark 123
▁biosimilar 123
▁blooming 123
▁candle 123
▁cleansing 123
▁colder 123
▁correcting 123
▁discord 123
▁escalated 123
▁foam 123
▁frying 123
▁fulfilling 123
▁illustrations 123
▁inches 123
▁infl 123
▁landslide 123
▁mediating 123
▁nod 123
▁occupations 123
▁predictable 123
▁pretend 123
▁proposes 123
▁resonance 123
▁sank 123
▁scientifically 123
▁surnamed 123
▁sweeping 123
▁tentative 123
▁thicker 123
▁thirsty 123
▁tutoring 123
▁upright 123
International 122
ajang 122
aks 122
alling 122
exper 122
gers 122
jan 122
lands 122
oding 122
rene 122
rip 122
scape 122
sponsored 122
ushes 122
word 122
▁125 122
▁1987 122
▁1990, 122
▁4.6 122
▁Bau 122
▁Benz 122
▁Catholicism 122
▁Chair 122
▁Chef 122
▁Cong 122
▁Haeng 122
▁Jungnang 122
▁Labs 122
▁Libya 122
▁Nielsen 122
▁Seongsu 122
▁Sog 122
▁Ultimately 122
▁YouTuber 122
▁Youtube 122
▁adversely 122
▁anthem 122
▁bloody 122
▁blown 122
▁boasting 122
▁boosted 122
▁bureaucrats 122
▁charger 122
▁confined 122
▁cultivating 122
▁devastated 122
▁disciplines 122
▁discoveries 122
▁dose 122
▁economical 122
▁environmentally 122
▁exhaustion 122
▁experiential 122
▁ger 122
▁handwriting 122
▁hinder 122
▁inducement 122
▁injunction 122
▁jj 122
▁lingering 122
▁listens 122
▁liters 122
▁masse 122
▁mediated 122
▁mosquito 122
▁mythology 122
▁outfit 122
▁parody 122
▁pedestal 122
▁photosynthesis 122
▁pumpkin 122
▁recur 122
▁ridge 122
▁sermon 122
▁serotonin 122
▁spear 122
▁tricks 122
▁tteokbokki 122
)", 121
FTA 121
Here 121
Your 121
ensing 121
established 121
existing 121
expected 121
fired 121
fol 121
hold 121
ighting 121
ih 121
lus 121
mpt 121
nyeo 121
ograph 121
phone 121
raising 121
rays 121
rome 121
sufficiency 121
uchi 121
umm 121
version 121
vin 121
▁123 121
▁1987, 121
▁5.5 121
▁7.5 121
▁Always 121
▁Baekdu 121
▁Bog 121
▁Catholics 121
▁DAS 121
▁Eulji 121
▁Facility 121
▁JP 121
▁Material 121
▁Nom 121
▁Olive 121
▁Orange 121
▁Pearl 121
▁Seattle 121
▁Spr 121
▁Susan 121
▁Swimming 121
▁Theological 121
▁UEFA 121
▁Yangpyeong 121
▁acne 121
▁acquisitions 121
▁aquatic 121
▁asserts 121
▁brewing 121
▁comforting 121
▁consol 121
▁decorative 121
▁delight 121
▁dil 121
▁disciple 121
▁distinguishes 121
▁distress 121
▁dri 121
▁dyes 121
▁eaves 121
▁euthanasia 121
▁evangel 121
▁excludes 121
▁forgetting 121
▁galaxies 121
▁gathers 121
▁greets 121
▁hologram 121
▁incorrectly 121
▁motif 121
▁mug 121
▁photons 121
▁piety 121
▁pilots 121
▁pirates 121
▁restrained 121
▁restricting 121
▁sect 121
▁serv 121
▁shallow 121
▁solves 121
▁soot 121
▁spouses 121
▁springs 121
▁statistically 121
▁supervised 121
▁tournaments 121
▁undertaken 121
▁uniformly 121
▁valuables 121
▁violently 121
▁warmly 121
▁woods 121
30. 120
68 120
HA 120
Jeju 120
July 120
OECD 120
Today 120
alt 120
ammed 120
atized 120
boards 120
clusive 120
elier 120
iable 120
itus 120
match 120
oped 120
stit 120
tion 120
wh 120
zel 120
▁1940 120
▁20. 120
▁Alley 120
▁Apgujeong 120
▁Asians 120
▁Atomic 120
▁Avenue 120
▁Conflicts 120
▁Euro 120
▁HD 120
▁Hankook 120
▁Hard 120
▁IPTV 120
▁Invest 120
▁Keun 120
▁Leg 120
▁Manhattan 120
▁Merchant 120
▁Mind 120
▁RBIs 120
▁SDI 120
▁Tre 120
▁Yonhap 120
▁accomplishments 120
▁adapting 120
▁advocates 120
▁amend 120
▁celestial 120
▁colonies 120
▁commemorating 120
▁connectivity 120
▁cycles 120
▁duo 120
▁encompass 120
▁inclined 120
▁instrumental 120
▁marginal 120
▁nearing 120
▁nodes 120
▁northeastern 120
▁northward 120
▁ondol 120
▁palaces 120
▁privileges 120
▁retina 120
▁robbery 120
▁scrapped 120
▁scriptures 120
▁showers 120
▁softly 120
▁spraying 120
▁stimulation 120
▁teammates 120
▁totaled 120
▁transparently 120
41 119
62 119
63 119
Public 119
Seo 119
host 119
iced 119
icing 119
icon 119
iety 119
west 119
▁120,000 119
▁AFP 119
▁Advancement 119
▁Arsenal 119
▁Character 119
▁Chiji 119
▁Chin 119
▁Crimes 119
▁DSR 119
▁Det 119
▁Edward 119
▁Gods 119
▁Iceland 119
▁Intangible 119
▁Korail 119
▁Mess 119
▁Nad 119
▁Opt 119
▁Physics 119
▁ST 119
▁Sale 119
▁Sum 119
▁Walk 119
▁Wando 119
▁Yorkers 119
▁advancements 119
▁ample 119
▁barbecue 119
▁cholesterol 119
▁collaborating 119
▁collections 119
▁composing 119
▁conveyor 119
▁cooler 119
▁cop 119
▁crowdfunding 119
▁crystall 119
▁deductions 119
▁delightful 119
▁diligent 119
▁dyed 119
▁entropy 119
▁eradication 119
▁fa 119
▁feminine 119
▁finishes 119
▁flurry 119
▁gal 119
▁grocery 119
▁horrible 119
▁incubation 119
▁inefficient 119
▁inserting 119
▁maximizing 119
▁medieval 119
▁principals 119
▁prof 119
▁prohibit 119
▁puzzle 119
▁rebounded 119
▁revamp 119
▁scorer 119
▁stacked 119
▁stronghold 119
▁surfaced 119
▁swayed 119
▁tangled 119
▁toxin 119
▁translating 119
▁universality 119
▁vomiting 119
▁wiped 119
Col 118
FF 118
Grand 118
Hwang 118
SI 118
acious 118
alled 118
ario 118
asses 118
democracy 118
energy 118
held 118
ielding 118
trip 118
upp 118
writing 118
▁"5 118
▁106 118
▁114 118
▁15. 118
▁1919, 118
▁1945, 118
▁60. 118
▁Additional 118
▁Ahyeon 118
▁Boseong 118
▁Bre 118
▁Cost 118
▁Dok 118
▁EV 118
▁Ear 118
▁Fresh 118
▁Mask 118
▁Mungyeong 118
▁Outside 118
▁Record 118
▁Rodong 118
▁SHINee 118
▁Share 118
▁Speaking 118
▁Uiwang 118
▁Yangjae 118
▁cheeks 118
▁closes 118
▁collagen 118
▁collapses 118
▁combinations 118
▁contamination 118
▁contexts 118
▁disturb 118
▁dominates 118
▁entertain 118
▁farther 118
▁feces 118
▁freshman 118
▁grandparents 118
▁groundless 118
▁highways 118
▁inmates 118
▁jungle 118
▁makgeolli 118
▁mouths 118
▁performer 118
▁praising 118
▁proximity 118
▁rect 118
▁repeats 118
▁rulings 118
▁scratches 118
▁sentiments 118
▁sequences 118
▁stamina 118
▁stark 118
▁subscriber 118
▁superintendents 118
▁toast 118
▁waking 118
East 117
Fed 117
SCMP 117
Second 117
Three 117
_ 117
anging 117
gam 117
group 117
ipper 117
isen 117
lane 117
lines 117
oi 117
opic 117
oted 117
▁." 117
▁4.4 117
▁5.1 117
▁8. 117
▁Bluetooth 117
▁Bung 117
▁CP 117
▁Celebr 117
▁Countries 117
▁Course 117
▁Dev 117
▁Div 117
▁Gallup 117
▁Geneva 117
▁Gift 117
▁Heaven 117
▁SE 117
▁Sanchez 117
▁Sino 117
▁Soy 117
▁Thermal 117
▁Tournament 117
▁Woongjin 117
▁accessing 117
▁ambassadors 117
▁bundle 117
▁butterflies 117
▁cellulose 117
▁cinematic 117
▁computational 117
▁cooperated 117
▁courtyard 117
▁crackdowns 117
▁degenerative 117
▁diplomats 117
▁disposed 117
▁eel 117
▁empathize 117
▁employing 117
▁enhancement 117
▁eth 117
▁ethanol 117
▁fluorescent 117
▁gum 117
▁id 117
▁ideals 117
▁meticulously 117
▁motiv 117
▁noticeably 117
▁photographed 117
▁practicality 117
▁prem 117
▁reasonably 117
▁recklessly 117
▁rejecting 117
▁sterilization 117
▁tighten 117
▁wisely 117
Cons 116
GS 116
Gwang 116
HO 116
Il 116
KT 116
Like 116
ONE 116
ception 116
changing 116
etr 116
ety 116
flow 116
gg 116
igate 116
issue 116
lish 116
lore 116
nuclear 116
omers 116
pper 116
rist 116
ryang 116
saving 116
screen 116
square 116
study 116
taking 116
ules 116
[...]
