. 1268311
, 398554
▁수 153936
▁있다 133134
의 123219
에 118709
▁‘ 98059
이 96028
을 87303
’ 85287
일 85117
은 84925
▁이 84866
▁있는 82754
) 78392
과 76106
도 75617
▁“ 71665
( 70966
에서 67048
? 66058
고 65928
” 62780
한 62468
가 61547
는 60327
▁한 59002
년 56476
· 56312
▁등 56190
로 53281
▁그 52640
으로 51695
인 51598
하는 51441
하고 50229
를 48333
▁1 48186
해 46258
와 46093
할 45706
▁것으로 45679
▁대한 44680
만 40332
▁2 40090
▁전 39803
지 39447
▁더 38146
월 37830
▁3 36366
했다 35251
▁것이다 34095
▁위해 33065
기 31374
▁것 31099
자 29803
▁ 29248
▁할 29130
대 28962
다 28920
▁한다 28454
▁나는 28058
▁중 27914
▁것이 27888
▁통해 27853
에는 27747
▁한국 27436
이다 27132
들이 27049
▁다른 26298
된 26105
▁4 26102
▁때 26101
시 26022
적 25857
▁5 25506
▁것은 25460
▁하는 25182
나 24966
▁내 24909
▁" 24832
▁두 24285
▁함께 24003
▁안 23941
▁가장 23934
▁지난 23738
▁많은 23460
▁10 23118
▁같은 22950
까지 22901
▁있습니다 22881
▁제 22844
." 22669
하게 22019
사 21876
▁것을 21810
▁밝혔다 21682
▁했다 21612
▁및 21495
한다 20875
수 20714
▁잘 20553
하지 20538
▁때문에 20312
에서는 20198
성 19927
이나 19723
▁말했다 19631
▁저는 19615
이라고 19611
개 19590
적인 19376
▁대해 19299
하기 19238
▁큰 19045
▁위한 18835
며 18830
리 18795
▁해 18696
▁그는 18680
서 18669
▁경우 18562
주 18511
▁시 18308
▁후 18252
▁게 18114
▁주 18076
▁6 17934
▁김 17894
▁따라 17569
▁이번 17270
▁미국 17238
스 17194
▁우리 17043
입니다 17037
▁지 16907
화 16520
어 16380
장 16250
차 16145
부 15897
▁다 15876
▁모든 15748
▁있다는 15742
▁하고 15658
▁많이 15583
에게 15574
▁서울 15379
▁고 15217
▁다시 15195
▁7 15176
진 15063
▁등을 15053
▁사 15025
▁정 14871
해야 14860
라는 14828
▁가 14690
원 14687
▁없는 14640
▁8 14617
▁때문이다 14538
들을 14526
▁기 14515
▁내가 14510
들은 14504
▁다양한 14468
게 14464
▁이후 14461
하며 14389
▁될 14363
▁있어 14350
면 14350
▁가운데 14236
보다 14194
비 14160
미 14144
▁어떤 14076
되는 14047
▁일 14008
명 14002
▁비 13974
▁아니라 13971
▁특히 13946
에도 13880
▁모두 13864
상 13848
적으로 13819
이라는 13683
▁이런 13609
▁미 13551
▁9 13541
선 13474
▁없다 13414
▁등이 13413
제 13391
- 13369
▁그리고 13367
세 13351
▁원 13325
동 13274
전 13253
라고 13175
야 13063
라 13040
회 13036
정 12985
아 12978
하여 12946
▁관련 12927
▁데 12887
▁중국 12887
하면서 12874
▁있었다 12869
조 12862
여 12835
▁대 12827
▁뒤 12701
▁최근 12677
구 12634
▁제가 12626
▁세 12623
▁우리는 12556
▁된다 12547
▁새로운 12547
요 12518
▁약 12473
치 12150
▁부 12139
될 12085
▁조 12070
하면 12045
▁현재 11992
소 11963
들의 11957
▁20 11935
▁국내 11794
▁신 11741
▁유 11689
▁자 11628
▁있을 11613
▁좋은 11585
▁지난해 11502
▁A 11498
분 11402
▁12 11315
▁보 11313
▁보고 11313
▁소 11306
▁이상 11282
위 11244
▁11 11219
보 11179
▁이날 11148
▁장 11146
▁총 11104
▁이를 11078
▁오 11038
▁또 11016
2 10946
부터 10923
자가 10910
형 10910
▁따르면 10897
▁볼 10879
▁있다고 10879
됐다 10839
▁있도록 10788
" 10699
▁어떻게 10691
▁공 10682
▁세계 10676
▁문 10670
들 10641
▁지역 10624
▁직접 10591
▁너무 10577
▁간 10547
▁않은 10506
▁나 10504
다는 10423
▁당시 10415
신 10409
우 10357
마 10350
트 10334
▁본 10308
당 10253
되고 10248
▁구 10197
▁서 10169
▁양 10166
▁상 10140
▁30 10136
니 10113
▁강 10069
▁도 10065
▁여러 10058
▁난 10045
▁하지만 10039
▁동안 10019
▁말 9938
기를 9920
지는 9916
산 9905
▁않고 9893
▁높은 9817
용 9792
단 9784
해서 9758
▁재 9748
▁하 9744
되어 9720
처럼 9700
▁알 9695
실 9687
▁거 9686
▁합니다 9664
된다 9658
명이 9626
▁일본 9619
돼 9561
호 9554
▁성 9533
▁이어 9515
▁올해 9474
▁첫 9474
▁연 9468
식 9463
오 9450
던 9442
▁지금 9436
▁아 9401
▁박 9325
성을 9324
▁만큼 9318
▁바로 9316
다고 9298
관 9262
▁이러한 9253
드 9249
▁건 9235
했던 9230
▁단 9196
▁마 9129
▁당신은 9111
에서도 9060
▁경제 9055
▁된 9032
지만 9000
▁각 8989
공 8950
국 8924
성이 8922
▁있고 8900
합니다 8892
▁등의 8889
▁당신이 8745
▁교육 8742
▁반 8724
권 8704
▁또한 8698
▁네 8678
▁동 8663
▁자신의 8633
▁매우 8620
▁모 8617
▁오늘 8604
▁선 8596
▁보인다 8575
▁오후 8551
▁줄 8549
영 8543
▁좀 8519
▁사람이 8439
▁바 8430
1 8414
물 8368
▁사업 8355
법 8333
중 8306
▁못 8288
▁저 8263
면서 8259
▁인 8254
하 8254
▁있어요 8228
경 8182
▁진 8171
하다 8159
▁다음 8158
▁우리가 8101
▁차 8085
억 8068
▁같이 8053
기가 8007
▁경 7995
했다고 7994
▁이미 7975
▁않는 7951
▁수도 7944
▁그런 7911
▁무 7899
' 7884
현 7865
▁트럼프 7850
▁결과 7829
▁가지 7825
장이 7808
▁몇 7799
▁없이 7766
연 7755
천 7752
▁사용 7749
▁들어 7748
▁노 7732
▁달 7724
▁그러나 7723
▁초 7722
▁영화 7680
3 7667
▁되는 7646
▁기업 7620
▁불 7596
▁가능성이 7589
▁열 7584
▁입 7556
▁있지만 7551
유 7534
▁분 7525
파 7514
▁대통령이 7478
질 7478
▁여 7472
▁열린 7447
금 7434
▁더욱 7425
모 7424
▁문제가 7422
자는 7422
석 7419
▁이는 7402
▁15 7381
▁경기 7368
했고 7366
지를 7337
▁연구 7332
▁개 7302
계 7297
자의 7289
▁명 7288
장을 7286
▁물 7279
교 7271
군 7264
▁번 7253
내 7246
▁관계자는 7219
▁배 7215
하였다 7206
▁온 7201
▁그의 7199
문 7196
▁일부 7166
였다 7155
▁문화 7154
재 7154
▁국가 7149
▁보면 7121
▁날 7109
▁주요 7102
▁먼저 7093
▁파 7093
▁것입니다 7082
기도 7066
기에 7041
▁심 7037
▁지원 7033
▁중요한 7031
이었다 7010
▁해당 7009
▁진행 7006
▁크게 6999
안 6999
▁시간이 6994
▁계속 6988
했습니다 6972
▁정말 6964
점 6964
▁피 6953
▁영향을 6936
학 6935
▁일이 6891
▁역시 6887
되지 6877
▁18 6866
▁오전 6835
자를 6834
▁오는 6828
배 6826
▁정부가 6812
사가 6790
▁타 6787
는데 6783
간 6771
▁사람들이 6742
▁북한 6736
▁걸 6727
인이 6722
▁산 6716
무 6696
▁않았다 6675
시간 6670
▁필요한 6668
▁채 6666
▁사회 6655
▁가지고 6640
▁시간 6631
방 6631
체 6626
▁정부 6625
타 6619
▁국제 6615
▁실 6591
민 6539
▁추가 6520
m 6516
▁있으며 6512
▁새 6511
▁군 6506
▁것도 6485
거나 6485
▁당신의 6479
▁위 6479
▁살 6442
▁당 6436
▁발 6429
히 6421
엔 6407
▁받고 6405
▁남 6400
종 6375
▁문제 6358
▁설명했다 6358
▁100 6351
린 6351
▁만들어 6316
▁올 6291
▁어느 6287
▁아직 6275
기는 6260
▁물론 6251
원이 6249
▁화 6247
▁북 6235
강 6234
▁기존 6222
었다 6206
▁의 6190
▁부산 6184
4 6183
되었다 6172
한다는 6141
▁방 6136
란 6130
▁만 6105
▁K 6097
5 6090
▁또는 6081
▁호 6069
▁투자 6057
▁16 6052
▁시장 6049
▁갈 6046
▁매 6042
▁기술 6023
▁다만 6022
리는 6016
급 6010
▁외 6007
▁그가 6000
들과 5995
▁아닌 5991
▁금융 5988
▁한다는 5986
프 5980
스가 5978
했지만 5975
양 5971
▁어 5966
▁이에 5955
▁대표 5951
▁정도 5942
▁이렇게 5937
▁교 5930
▁알고 5926
▁19 5912
포 5889
감 5856
▁과정에서 5836
▁최대 5828
▁13 5820
▁14 5803
▁왜 5794
▁받은 5789
심 5786
▁감 5764
러 5762
▁배우 5750
▁하지 5750
6 5734
이고 5721
▁있기 5718
▁확인 5715
건 5701
▁손 5692
▁우 5690
▁있게 5665
▁운영 5656
지가 5648
▁실제 5642
▁해야 5641
▁개발 5632
▁해외 5631
했다는 5629
▁있나요 5625
르 5602
▁글로벌 5587
스는 5584
크 5567
▁B 5565
디 5557
노 5538
그 5537
▁17 5518
▁포 5514
온 5512
▁이용 5510
▁관심이 5509
피 5499
레 5484
청 5476
▁따른 5470
▁됐다 5462
7 5459
9 5456
이라 5450
▁있는데 5447
▁등에 5438
▁역할을 5438
▁않을 5436
사를 5431
▁집 5417
▁처음 5417
▁생산 5415
장은 5413
▁전국 5406
토 5390
▁판매 5389
▁전에 5376
▁앞서 5370
씨가 5364
▁학교 5363
▁속 5360
길 5327
습니다 5316
▁전했다 5304
해요 5304
바 5295
▁그래서 5294
▁전체 5292
▁최 5289
▁관리 5278
▁코 5272
하거나 5270
▁이제 5254
려 5250
박 5249
▁리 5243
▁해요 5240
생 5240
코 5226
▁산업 5220
▁즉 5214
기로 5205
▁일반 5198
운 5198
▁아니다 5183
▁영 5183
▁조사 5173
발 5160
▁일을 5153
▁한국의 5143
▁생각 5141
역 5132
8 5124
사의 5124
네 5118
명의 5112
데 5102
D 5096
인데 5075
루 5067
▁문제를 5060
▁나온다 5059
▁여성 5058
▁사실 5054
티 5052
승 5038
도가 5018
두 5015
▁개인 5008
▁예정이다 4995
▁인해 4994
태 4976
▁예 4967
▁수사 4965
), 4960
▁변 4955
C 4949
거 4932
▁임 4931
▁가능한 4928
들에게 4926
▁만에 4911
A 4909
▁거의 4908
자들이 4900
▁수가 4897
▁등으로 4896
▁백 4893
▁얼마나 4891
▁전문 4884
▁복 4872
이며 4863
▁현 4862
▁않는다 4858
▁자신이 4858
▁자기 4854
▁치 4847
수를 4828
▁경찰은 4821
주의 4817
▁그동안 4816
▁서로 4813
▁제대로 4813
▁25 4810
▁중심으로 4809
성과 4808
수가 4807
S 4806
행 4799
▁가진 4795
인의 4794
▁작은 4791
▁되어 4790
▁두고 4784
▁황 4781
▁대상으로 4779
즈 4779
▁학 4776
▁우선 4773
명을 4767
▁청 4766
▁국 4751
▁국회 4748
약 4736
▁24 4735
▁시작 4734
▁송 4726
하도록 4716
▁발생 4715
직 4714
▁지난달 4712
▁되었다 4711
▁점을 4706
G 4702
스를 4692
▁로 4690
병 4688
▁모습을 4686
▁최고 4674
씨 4672
도를 4669
▁공동 4663
력 4653
▁찾아 4652
했어요 4644
대로 4643
과의 4640
▁적 4639
자와 4639
▁정도로 4638
자로 4635
▁하나 4629
▁것이라는 4625
▁편 4620
되면서 4619
▁21 4618
▁문재인 4618
▁없어 4605
▁관심을 4596
▁용 4589
별 4580
억원 4578
▁제품 4574
초 4572
카 4571
되면 4570
랑 4569
가는 4558
하지만 4558
▁아주 4551
▁사실을 4547
▁이것은 4544
▁스 4540
e 4539
불 4539
▁번째 4537
화를 4534
▁않아 4528
터 4527
▁정보 4525
▁과 4524
▁50 4523
년에 4522
반 4520
▁점 4511
▁따라서 4510
▁권 4509
임 4507
▁정책 4506
▁갖고 4499
이에요 4498
▁하면 4497
▁앞으로 4496
▁관한 4493
▁되고 4492
번 4491
▁말을 4480
▁정치 4478
▁있던 4476
준 4472
한다고 4472
▁중인 4463
▁경찰 4461
▁달리 4450
▁추 4448
층 4436
하던 4434
상을 4429
▁사람 4427
▁금 4419
▁참여 4419
▁나타났다 4410
다면 4405
철 4402
집 4398
지도 4397
▁들 4395
사업 4393
일부터 4382
▁필요가 4379
판 4375
▁가는 4368
근 4368
남 4362
▁서비스 4356
▁쉽게 4350
든 4346
▁제작 4345
▁거예요 4338
▁않다 4336
▁것이라고 4332
▁여행 4327
사는 4326
▁통 4325
▁대비 4321
하기로 4320
장에 4318
▁없었다 4317
▁사진 4316
광 4315
▁결정 4314
▁만든 4307
▁받을 4305
권을 4294
들도 4293
▁받는 4287
▁보내 4283
▁정보를 4276
▁그렇게 4275
위원회 4274
▁삼 4271
▁시간을 4265
▁남북 4264
▁위해서는 4259
원을 4257
▁천 4256
▁됩니다 4254
▁각각 4252
▁대학 4252
통 4251
▁23 4248
▁의해 4235
업 4235
▁많다 4234
도록 4232
원은 4228
▁현지 4223
장과 4215
)’ 4213
▁네가 4211
▁결국 4207
▁구매 4199
▁요 4197
▁허 4190
▁회사 4185
대가 4184
더 4181
▁사고 4179
지에 4178
▁생활 4177
리가 4175
▁만들 4170
▁사회적 4168
증 4167
예 4156
▁광고 4149
▁윤 4148
▁조금 4147
스의 4146
화가 4145
개월 4142
력을 4140
으며 4139
매 4136
▁상황에서 4132
B 4131
▁안전 4129
▁생 4121
원의 4116
▁대통령 4115
▁추진 4115
▁거야 4113
M 4112
▁안에 4105
▁있어서 4104
▁여전히 4103
P 4099
목 4099
▁참 4092
▁노동 4090
▁알려졌다 4081
▁버 4080
▁도시 4073
▁현대 4071
일까지 4067
저 4067
▁막 4066
▁22 4063
▁미국의 4061
▁항상 4054
▁활동 4042
▁하루 4037
▁광 4032
으면 4031
▁각종 4029
▁핵심 4028
▁나왔다 4026
▁평균 4021
▁강조했다 4020
▁집중 4020
▁평가 4019
▁대신 4017
▁동시에 4015
▁27 4004
▁게임 4004
력이 4004
▁방문 3999
점을 3995
▁받아 3993
▁비해 3983
장의 3981
물을 3978
▁못한 3975
▁최종 3972
절 3970
주는 3970
개의 3966
살 3962
▁우리의 3961
▁식 3960
▁애 3960
▁40 3958
▁해도 3958
▁계 3951
설 3949
▁조선 3947
▁방송 3941
브 3941
▁건설 3936
▁종 3934
서는 3933
▁발전 3932
▁공연 3931
▁주는 3930
▁법 3927
▁고객 3926
▁인천 3923
▁거래 3922
투 3912
▁경영 3909
▁수출 3905
▁온라인 3905
▁준비 3903
▁같아 3900
▁국민 3899
▁그럼 3897
버 3896
▁실제로 3892
▁필요하다 3886
인을 3881
▁피해 3880
지역 3879
▁S 3878
▁28 3876
▁기간 3869
▁적이 3866
▁같다 3864
% 3863
▁경우가 3863
복 3861
▁경기도 3853
▁직 3851
이는 3848
▁수밖에 3845
▁어려운 3844
▁환경 3834
량 3828
▁아이 3823
▁것에 3819
▁정부의 3818
▁한다고 3815
▁2016 3807
▁과거 3802
▁보는 3799
워 3799
제를 3798
씨는 3786
▁사람은 3785
▁순 3785
▁C 3784
부가 3784
전을 3780
▁기준 3779
순 3779
L 3777
▁설 3776
문화 3776
하기도 3773
▁해서 3770
▁가격 3768
▁없습니다 3765
시는 3764
▁라 3763
키 3757
서를 3755
▁그들은 3744
로부터 3744
색 3744
▁먹 3742
▁회 3741
창 3739
▁내일 3738
▁토 3737
져 3732
▁꼭 3729
▁바랍니다 3729
후 3724
관이 3723
▁26 3722
▁같아요 3721
▁대통령은 3718
하는데 3718
▁확대 3717
환 3717
림 3714
▁M 3712
래 3711
▁농 3708
대를 3707
▁왕 3706
▁표 3703
교육 3698
▁청와대 3695
▁내용을 3691
▁길 3684
▁이유는 3680
▁만드는 3673
▁그것은 3671
▁관련해 3660
▁분석 3659
▁민 3657
▁공급 3654
만원 3648
▁학생 3645
▁자동차 3644
년간 3644
▁제공 3636
▁좋아 3636
본 3636
▁독일 3635
▁받았다 3627
▁에 3626
금을 3624
▁주로 3621
희 3621
K 3609
인지 3605
▁스스로 3597
▁개선 3590
▁고용 3590
들에 3588
▁때는 3586
T 3585
▁관 3582
▁병 3577
출 3575
작 3574
▁사람들은 3573
▁불법 3572
▁증가 3572
▁중앙 3564
▁혹시 3564
론 3562
▁결과를 3561
리를 3560
▁나의 3554
▁만나 3553
▁사건 3551
▁돌 3550
음 3546
▁행사 3540
사와 3539
▁없다는 3535
▁설명 3529
R 3528
▁대부분 3528
▁성공 3528
하자 3528
다가 3525
▁증 3524
▁제품을 3523
▁보여 3522
▁특별 3521
각 3520
어요 3516
에선 3514
위를 3514
▁성장 3513
사에 3512
물이 3510
▁것과 3508
식을 3498
▁모습이 3497
▁2018 3490
변 3488
▁내년 3482
기의 3481
▁그대로 3478
백 3475
▁그녀는 3469
▁부동산 3465
▁음악 3464
와의 3463
▁역 3462
▁잡 3462
▁늘 3460
▁도움이 3456
▁주세요 3456
김 3450
▁자연 3444
▁학습 3432
산업 3431
열 3429
▁그런데 3423
▁특정 3422
었던 3421
▁카 3420
어서 3420
▁이동 3418
했을 3417
▁질 3416
▁결 3413
네요 3412
▁예술 3410
▁인터넷 3408
▁러시아 3407
격 3404
▁발표 3402
▁하는데 3389
입 3389
▁한번 3388
센터 3388
E 3387
▁경쟁 3387
인은 3386
▁홍 3385
▁의원 3381
▁있는지 3379
▁되면 3375
▁독 3374
▁당신 3373
로는 3372
년부터 3363
▁돈을 3361
리에 3361
▁( 3358
▁집에 3358
▁디지털 3357
▁자주 3356
▁인사 3354
리의 3354
▁행 3347
▁마지막 3344
▁브랜드 3343
자들은 3343
지고 3342
▁대형 3336
▁유럽 3324
울 3324
▁의료 3318
▁것처럼 3312
▁점에서 3312
▁감사 3311
▁출 3306
▁이해 3299
▁운동 3298
었습니다 3295
▁소속 3294
지로 3292
▁밤 3290
긴 3289
▁전혀 3288
▁상품 3287
▁29 3284
▁관계 3284
▁팔 3284
원에 3284
I 3281
▁야 3280
▁이유로 3279
▁돼 3277
▁평 3272
표 3272
▁이상의 3271
▁2015 3270
▁대통령의 3263
▁전시 3263
▁기본 3257
까 3253
▁오히려 3251
부는 3247
로서 3244
마다 3243
▁공식 3238
▁공공 3234
비를 3234
난 3233
속 3233
▁합의 3232
▁조직 3231
감을 3231
▁의미 3226
망 3225
▁암 3224
▁제주 3223
관리 3219
▁보다 3217
▁치료 3215
▁0 3214
▁원하는 3214
▁삼성 3213
▁월 3212
항 3206
▁보도했다 3205
▁인상 3205
▁되 3204
▁이야기를 3203
▁빨리 3198
이를 3198
제가 3197
이가 3196
▁계획 3195
▁훨씬 3190
처 3190
하다는 3190
▁관광 3189
▁없을 3188
▁사는 3187
인들이 3184
▁담 3182
▁구조 3181
O 3180
▁판 3179
전이 3175
지원 3175
▁교수 3170
▁선거 3170
평 3170
▁유지 3168
▁가족 3167
▁전달 3167
▁2017 3166
트를 3163
성은 3158
▁통한 3156
▁아파트 3154
▁혐의로 3154
회의 3154
▁주문 3152
▁서비스를 3151
▁이들 3150
▁반대 3149
▁보이는 3148
으로는 3148
▁나온 3141
▁주택 3140
▁사이 3139
▁선택 3139
▁대해서는 3137
▁타고 3135
성에 3134
▁설치 3130
▁특 3128
▁영어 3127
정이 3127
▁드 3126
▁청년 3126
적이고 3126
시에 3124
▁논란이 3122
이지만 3120
장으로 3120
점이 3120
어야 3118
▁레 3116
▁변화 3114
▁가능하다 3113
▁이야기 3110
릴 3109
▁그룹 3108
이기 3108
▁구성 3105
립 3105
▁앞 3104
▁이들이 3102
▁형 3098
▁문제는 3095
▁대구 3092
비가 3092
규 3091
▁강화 3090
▁발견 3086
▁외국인 3084
▁행정 3084
▁적용 3082
▁악 3081
암 3075
나요 3073
년대 3072
▁광주 3069
▁벌 3065
했는데 3063
▁공개 3061
기업 3060
시장 3059
이자 3056
보다는 3053
▁필요 3048
류 3048
▁존재 3047
▁위해서 3044
등 3041
▁향후 3040
▁풍 3036
▁인간 3030
▁활동을 3030
리고 3030
▁골 3029
▁맞 3029
▁뿐 3029
▁선수 3025
▁싶습니다 3024
장에서 3024
관을 3019
▁수는 3017
▁음식 3017
▁취 3015
▁지방 3013
▁창 3012
채 3011
▁별 3010
▁여기 3007
회를 3003
▁공유 3002
되기 3002
▁P 3001
▁민간 2999
함을 2999
시가 2996
▁영국 2992
▁규제 2990
▁기념 2989
▁보호 2988
▁곧 2984
▁대상 2984
상의 2984
▁메 2982
▁중에 2979
에서의 2977
▁하나의 2975
▁아니 2974
곡 2973
자에게 2972
기와 2971
▁업무 2970
▁이와 2969
▁상승 2968
▁앞두고 2966
봉 2966
▁전망이다 2963
해도 2959
자들의 2958
소를 2956
▁어제 2955
경제 2954
▁속에서 2952
일에 2951
드는 2950
▁전환 2949
▁향 2948
▁시험 2947
라도 2945
▁귀 2944
▁태 2943
지의 2942
▁계획이다 2939
▁주장했다 2939
가가 2938
▁계약 2937
▁철 2937
▁기대 2935
▁면 2935
▁환 2935
▁입장을 2934
▁처리 2934
▁음 2932
죠 2932
▁기록 2930
으로부터 2930
범 2927
▁같습니다 2925
▁못하고 2922
▁혹은 2921
▁인정 2920
▁상황이 2919
스트 2919
▁비롯한 2918
▁하기 2918
소가 2916
회가 2916
시키는 2914
도로 2913
▁알려 2910
▁미디어 2907
▁아시아 2906
졌다 2906
F 2905
▁요구 2905
▁있으면 2904
임을 2904
품 2902
▁준 2900
▁베 2897
갈 2896
N 2895
▁사진을 2892
t 2890
볼 2889
현지시간 2888
▁방식으로 2883
▁전통 2881
성의 2880
▁해결 2879
▁가수 2878
▁표현 2878
커 2877
▁강한 2874
▁넘는 2874
▁명이 2872
▁제한 2870
▁도입 2869
▁미래 2869
▁수입 2869
▁만약 2867
▁시민 2864
▁책 2864
▁목 2861
추 2861
▁상황을 2857
단이 2857
선을 2857
▁의원이 2855
수는 2855
치는 2855
▁폭 2853
외 2853
정을 2853
▁체 2848
▁비롯해 2847
▁싶은 2847
함 2847
▁현장 2846
합 2846
▁힘을 2844
했으며 2841
▁활용 2838
▁있었던 2837
▁지적했다 2835
▁< 2834
▁빈 2834
▁베트남 2831
▁31 2830
▁좋아하는 2830
▁내부 2829
▁정부는 2829
▁사랑 2826
▁작업 2826
▁여자 2824
▁나와 2819
▁처 2817
▁학생들이 2817
편 2816
▁눈 2813
이라며 2813
s 2812
▁지급 2812
▁친 2808
▁소비 2803
▁이들은 2803
▁처음으로 2803
려고 2800
링 2800
▁협력 2796
▁풀 2794
▁도널드 2792
감이 2792
줄 2792
▁작 2791
달 2791
▁보니 2789
▁여기에 2789
부의 2789
▁낮은 2788
▁극 2786
됩니다 2786
▁항 2783
▁투 2782
▁자유한국당 2780
▁핵 2779
연구 2776
는지 2775
▁승 2774
▁아래 2774
▁통합 2773
▁데이터 2772
스에 2772
▁김정은 2771
총 2770
덕 2769
▁주변 2762
▁내용이 2759
▁않습니다 2758
▁의원은 2755
▁발생한 2753
치를 2753
▁그것을 2750
▁매년 2750
▁사람의 2750
▁평화 2750
▁과정을 2749
가지 2749
북 2748
▁넘어 2747
▁패 2742
▁절 2738
▁명의 2737
▁시즌 2737
▁에너지 2737
날 2737
▁되지 2736
▁전화 2734
막 2733
▁후보 2730
팀 2729
주가 2728
▁과학 2727
▁나서 2727
▁있다면 2727
협 2727
▁디 2725
▁시작했다 2725
▁관련된 2723
▁석 2722
▁시행 2722
하려는 2722
▁너는 2717
▁저녁 2713
탄 2713
▁기업이 2711
▁연결 2709
▁일정 2709
’( 2708
▁효과가 2708
▁감소 2707
o 2706
었고 2704
상이 2702
▁잔 2701
▁자리 2700
별로 2698
▁몸 2695
충 2695
▁조성 2693
▁팀 2693
▁근 2691
▁못했다 2691
▁신청 2690
테 2690
하다고 2690
▁울 2688
▁검찰 2685
▁사실이 2685
▁무슨 2682
결 2681
사로 2680
▁경찰이 2679
씩 2678
▁신규 2673
▁하다 2672
량이 2670
▁있지 2669
자인 2669
▁친구 2667
▁곳이 2665
필 2662
▁따 2661
▁생각이 2658
▁차량 2658
인과 2658
km 2656
▁차이가 2656
▁경남 2652
▁이전 2652
도에 2647
> 2646
▁유명 2646
▁바탕으로 2643
▁반드시 2640
▁비핵화 2640
▁고려 2636
세를 2636
메 2633
송 2632
▁인한 2629
시설 2622
었지만 2618
▁촬영 2617
▁상황 2616
▁속에 2616
자에 2616
▁높다 2613
▁놓고 2613
▁중국의 2613
▁남자 2611
▁변경 2610
▁맞아 2609
▁밀 2608
▁항공 2607
▁누 2606
▁없다고 2606
되며 2606
▁있 2605
▁정확한 2605
대의 2604
도는 2602
▁단체 2601
▁마음을 2600
▁예상 2600
이란 2595
▁나오는 2594
▁사업을 2594
위에 2593
▁전기 2592
한다면 2591
▁눈에 2590
▁빠르게 2590
▁와 2589
진다 2589
▁앞에서 2588
▁얼마 2585
▁한국에 2585
▁힘 2583
▁젊은 2580
▁D 2579
▁탈 2577
왕 2574
▁통신 2573
▁영상 2572
▁상대로 2571
▁왔다 2568
▁모바일 2566
▁일자리 2565
안을 2565
▁않으면 2564
▁오래 2562
▁T 2561
▁너 2561
▁사이에 2561
▁체험 2560
도의 2560
리와 2560
▁연락 2556
▁싶어 2554
기술 2551
뿐만 2551
트가 2551
▁드라마 2549
스타 2549
애 2548
▁언제 2547
▁내려 2545
는다 2545
▁격 2543
▁위험 2543
▁후에 2543
개발 2543
레이 2543
스와 2543
▁완 2538
훈 2538
▁많아 2537
▁소개 2537
▁언론 2537
▁열리는 2536
▁점이 2535
▁사용하는 2533
▁유통 2533
▁폐 2533
원으로 2533
▁새로 2532
▁전자 2531
▁최저임금 2531
▁결혼 2530
년이 2524
▁말한다 2523
▁사실상 2523
▁무역 2520
▁인간의 2518
▁교통 2517
▁나도 2517
락 2517
하고자 2516
만이 2514
▁나를 2513
▁맞는 2512
▁우려가 2511
친 2510
▁자유 2509
▁판단 2509
하려고 2508
▁그들의 2507
▁책임 2507
▁거쳐 2506
퍼 2505
▁2019 2504
▁지속 2504
▁수행 2503
▁예산 2502
뿐 2500
▁부족 2499
▁지도 2498
▁신고 2497
언 2496
▁크다 2495
정보 2494
▁은행 2493
▁60 2492
관은 2492
축 2492
▁여기서 2491
원과 2490
▁연속 2483
일이 2482
▁위에 2481
▁200 2480
▁보였다 2480
▁출신 2480
▁매일 2479
▁건축 2477
▁사람을 2477
▁의견을 2477
문을 2477
▁설립 2475
▁한류 2475
▁했습니다 2475
▁홍보 2475
▁검토 2474
식이 2474
▁신경 2473
▁창업 2473
▁범 2472
▁혁신 2471
’, 2469
▁요즘 2465
▁위반 2465
▁완전히 2464
▁말이 2460
▁기획 2455
▁E 2454
▁예상된다 2453
▁죽 2453
가를 2453
렸다 2453
▁가서 2452
▁프랑스 2451
니까 2447
▁나라 2446
▁건강 2445
▁부담 2441
▁열심히 2438
손 2438
▁은 2437
▁정상 2437
▁하며 2435
▁키 2434
▁감독 2433
▁담당 2433
▁나섰다 2432
a 2431
시켜 2431
▁연기 2430
▁마련 2428
▁제조 2428
▁구축 2426
▁효과를 2426
▁육 2425
보고 2425
▁없 2424
위가 2424
▁논의 2420
말 2420
▁그냥 2419
▁가격이 2415
▁대표가 2415
▁인도 2415
▁개최 2412
▁함 2411
▁건물 2410
▁사망 2410
▁싶어요 2410
어가 2409
▁지지 2406
▁선정 2405
▁소비자 2405
▁못하는 2404
▁낮 2402
농 2402
적이 2402
▁경험 2401
▁찾는 2401
▁공격 2396
▁방법을 2396
▁주민 2396
y 2393
▁당신에게 2392
선이 2390
▁선발 2389
▁회의 2389
▁이름을 2388
▁2014 2386
▁미리 2386
▁특별한 2382
▁겁니다 2381
료 2381
지지 2381
▁충분히 2380
들로 2379
함으로써 2378
였던 2377
월부터 2377
▁커 2374
▁합 2374
있는 2374
▁보통 2373
▁인근 2373
▁둔 2372
▁모여 2372
▁상대 2371
▁롯데 2370
▁조정 2370
▁한국에서 2368
대표 2367
▁기회를 2366
▁나에게 2366
▁보험 2364
과는 2364
▁기억 2363
▁내용 2362
기관 2362
▁G 2361
▁발표한 2360
▁중심 2360
▁TV 2359
▁요청 2358
▁인기를 2358
▁지역의 2355
▁보수 2353
▁사용할 2352
▁미국이 2351
세가 2351
블 2346
▁비슷한 2345
▁작품 2345
씨의 2345
l 2341
월에 2340
너 2339
탈 2339
드가 2338
▁저희 2337
▁불구하고 2336
베 2335
▁대응 2333
트는 2330
▁수용 2329
▁영업 2329
▁점점 2329
상은 2329
겠다 2328
▁수업 2325
▁인식 2325
▁접 2325
찬 2325
▁동물 2324
▁북미 2324
전에 2324
▁올라 2323
▁도움을 2322
겠습니다 2322
i 2320
▁대중 2320
▁가능 2319
▁감독이 2317
▁것이에요 2317
▁수많은 2317
▁쓰 2316
담 2316
했 2316
▁남아 2315
▁숙 2315
▁스포츠 2315
▁있어야 2314
대에 2314
▁없고 2313
▁참가 2312
▁맞춰 2311
▁빠른 2311
▁공부 2310
▁부분 2310
▁예정 2310
구를 2309
▁포함 2308
▁경찰에 2306
▁더불어민주당 2306
▁외부 2305
그룹 2305
▁지금까지 2304
▁이번에 2302
치가 2302
▁제일 2300
▁곳 2299
화된 2299
았다 2298
▁그들이 2296
▁소득 2296
조사 2296
00 2292
▁셈이다 2291
한국 2291
▁대표는 2289
▁대화 2289
▁장기 2289
▁기술을 2287
▁자체 2287
하세요 2287
▁반면 2286
만을 2286
향 2286
▁채용 2284
낸 2284
▁긴 2280
위는 2280
▁마케팅 2279
▁실험 2279
부를 2277
구가 2276
세기 2275
(3 2273
▁북한이 2273
액 2273
▁논 2271
▁쉽지 2271
▁아침 2271
▁콘텐츠 2271
▁반도체 2269
▁대전 2267
▁역사 2266
▁주고 2266
▁책을 2265
▁낸 2264
▁검찰은 2262
츠 2262
▁했어요 2261
령 2260
▁프로그램 2259
▁덧붙였다 2257
▁휴 2257
량을 2256
▁중이다 2255
▁결제 2254
▁가치 2251
▁대해서 2251
▁등록 2251
금융 2251
▁설계 2250
지와 2249
▁수학 2248
▁배송 2247
리지 2246
하겠다는 2243
▁독립 2241
없이 2241
▁경북 2240
정에 2240
▁최고의 2239
▁화학 2235
진이 2235
▁분야 2234
▁노래 2233
업체 2233
회는 2233
U 2229
h 2229
극 2229
▁혼자 2228
대는 2228
▁봉 2227
▁잘못 2227
▁자리를 2225
▁접근 2225
▁방안을 2223
▁축구 2223
겠다는 2223
수의 2222
▁단지 2221
▁통과 2221
▁적극 2220
▁종합 2220
윤 2219
▁담긴 2218
패 2218
H 2216
▁걱정 2216
▁마을 2216
▁결과가 2213
효 2213
▁축 2212
▁점이다 2211
단의 2211
▁만한 2209
▁터 2209
▁스마트 2207
▁스타 2207
▁앞에 2207
▁대규모 2206
▁대출 2206
▁않도록 2206
▁들고 2205
골 2205
▁의미를 2204
일을 2204
▁정의 2202
▁예를 2201
단체 2201
▁시절 2200
▁겸 2199
▁팬 2198
▁외교 2196
▁대회 2195
▁자체가 2195
▁비가 2194
▁개의 2193
▁퍼 2193
법을 2192
▁예약 2191
지면서 2191
▁제재 2190
▁북한의 2189
▁이용해 2188
! 2187
▁먹고 2187
었어요 2187
▁건가요 2185
▁대부분의 2185
제는 2182
▁일은 2181
▁있음을 2181
▁지정 2181
▁했지만 2181
▁노력 2179
▁도착 2179
▁잠 2179
▁출시 2179
음을 2179
▁방법 2177
▁사전 2176
렌 2176
▁근무 2175
▁알아 2175
▁재정 2175
▁한반도 2173
▁따로 2171
▁생각해 2170
년까지 2170
숙 2169
학과 2168
▁행복 2165
부와 2165
▁포함한 2163
시킬 2163
▁없어요 2162
▁순간 2160
분기 2160
취 2155
▁갑자기 2153
체가 2152
▁받지 2149
삼 2145
상에 2145
▁기관 2144
▁기업의 2142
▁F 2141
▁있을까요 2141
▁글 2140
화에 2139
▁관계를 2138
서가 2138
명으로 2136
▁뉴스 2134
▁변화를 2134
▁시작한 2134
학교 2131
▁적극적으로 2130
▁우리나라 2129
▁음식을 2128
▁확보 2128
심을 2127
▁주장 2126
단은 2126
▁마치 2125
▁스마트폰 2123
▁예측 2123
환경 2122
▁다소 2121
▁측은 2120
r 2119
▁색 2119
▁지금은 2116
▁탄 2115
▁취소 2112
라면 2111
리로 2111
▁년 2108
▁때마다 2106
▁쓴 2106
▁의미가 2106
책 2104
▁망 2103
드를 2103
님 2100
알 2100
▁취업 2097
▁했던 2093
▁공간 2091
▁가정 2090
머 2090
▁말해 2088
▁당신을 2087
구의 2087
▁찾 2085
▁때까지 2084
▁규모의 2083
▁마음이 2081
당이 2081
사들이 2081
▁생각을 2077
▁루 2076
▁인기 2076
▁R 2074
▁가야 2072
▁중단 2072
▁업체 2070
▁확장 2070
▁일단 2068
▁제공하는 2064
독 2064
어를 2064
도와 2063
▁제시 2061
평가 2061
▁운전 2060
▁주식 2060
▁차례 2060
& 2059
▁뇌 2058
▁듯 2057
▁유명한 2057
도시 2057
했으나 2057
▁관심 2055
W 2054
▁정치적 2054
지기 2053
▁지나 2052
▁프로 2052
정책 2052
▁길을 2051
▁상태 2050
▁확인할 2049
▁그때 2046
▁이유 2046
▁회복 2046
▁호텔 2045
내는 2045
▁남성 2042
▁자신을 2040
▁재판 2039
▁제출 2037
보는 2037
슬 2037
▁중요 2033
▁오늘은 2032
▁최소 2031
▁시장이 2030
▁가까운 2029
▁기회가 2029
▁카드 2026
에만 2025
권이 2024
▁소방 2022
TV 2021
▁침 2018
▁홍콩 2018
▁가고 2017
▁반복 2016
염 2016
수록 2015
▁하면서 2014
▁위치한 2013
회에 2013
▁서울시 2010
10 2009
▁혼 2009
금이 2009
▁전남 2007
▁중요하다 2002
▁500 2001
▁추천 2001
하겠습니다 2001
과학 1999
▁대표적인 1998
▁반영 1997
▁대통령과 1995
▁상대적으로 1995
▁어린이 1995
▁작성 1995
빈 1994
했기 1994
▁기준으로 1992
은행 1992
풍 1991
▁다음과 1990
▁제안 1990
▁시스템 1989
력과 1989
▁달러 1987
▁삶을 1987
▁씨 1986
▁안에서 1986
▁70 1984
▁살아 1984
▁어렵다 1983
여명이 1983
(2 1980
▁시청 1980
▁직원 1980
▁응 1979
▁하락 1977
▁미술 1976
서비스 1975
▁기능을 1974
▁좋다 1973
악 1973
▁계산 1972
▁목표 1972
국이 1972
지면 1972
/ 1971
차가 1971
▁가치를 1970
▁그것이 1970
▁나선 1970
▁밝힌 1969
er 1968
▁마무리 1968
▁여름 1967
▁형성 1967
화와 1966
려는 1965
▁보이고 1964
명은 1964
운동 1963
▁외국 1962
▁피해를 1962
▁나올 1961
▁술 1958
▁피부 1958
니다 1958
▁H 1957
▁아름다운 1957
▁조사를 1957
에게는 1955
페 1950
부에 1949
▁있었습니다 1948
▁SK 1947
▁적은 1947
▁L 1946
▁교체 1946
▁사람들의 1946
▁했 1946
스로 1946
▁그러면 1943
▁끝난 1943
▁살고 1943
▁오랜 1942
▁대로 1941
▁수정 1941
체를 1941
글 1940
▁찬 1939
왔다 1939
▁2013 1937
▁가입 1936
▁자료를 1936
▁디자인 1935
20 1934
▁협상 1934
화의 1934
▁강력한 1931
▁군사 1929
▁해석 1929
▁섬 1928
구는 1928
▁간의 1927
택 1927
▁최대한 1925
회에서 1925
▁전망 1922
▁힘들 1922
▁검 1921
▁급 1921
▁들어가 1921
30 1920
n 1920
곤 1920
▁SNS 1919
▁제도 1919
▁변화가 1917
▁이것이 1917
사회 1916
▁이들의 1914
▁가능성을 1912
▁높아 1911
▁교수는 1907
냐 1907
만큼 1907
▁무엇보다 1905
▁영화를 1905
▁많 1904
▁등은 1903
(5 1902
▁매출 1901
▁지속적으로 1901
▁듣고 1900
대학교 1900
케 1900
투자 1900
▁모델 1898
보험 1898
▁집단 1897
새 1897
족 1897
▁사건을 1896
▁생각합니다 1896
▁손을 1896
▁전날 1896
옥 1896
▁운 1895
었는데 1894
촌 1894
만의 1893
▁많았다 1891
▁민주당 1890
▁전해졌다 1890
세요 1889
▁시대 1888
▁테 1887
▁미국과 1886
정은 1886
▁기초 1885
하겠다 1885
▁이때 1884
름 1884
▁모두가 1882
▁병원 1882
▁행동 1882
원에서 1882
▁300 1881
▁상호 1881
▁염 1881
▁때문입니다 1880
▁돈 1879
▁법률 1879
▁확정 1879
▁옥 1878
되 1878
▁연장 1877
율 1876
▁멤버 1875
▁범죄 1875
▁측정 1874
▁크 1874
▁부분이 1873
▁삶의 1873
▁이상이 1873
▁활성화 1873
한테 1873
▁답 1871
▁대만 1870
▁지적 1869
공사 1869
▁의한 1867
▁정상회담 1867
▁협 1867
개를 1867
▁꽃 1866
▁선물 1866
▁소유 1866
▁수준 1866
▁최초로 1866
▁N 1865
▁커피 1865
사에서 1865
▁보도 1864
▁이유가 1863
밀 1863
▁우승 1862
▁사상 1861
▁중소기업 1861
▁집에서 1861
▁주거 1860
▁대체 1859
▁검사 1858
▁블록체인 1858
▁둘 1857
▁고민 1855
▁사건이 1855
▁분양 1854
▁통일 1854
안이 1853
▁절대 1852
▁사고가 1851
▁알게 1851
▁확산 1851
▁돌아 1850
▁배출 1850
▁프로그램을 1850
률이 1850
▁그리 1849
▁시도 1848
국의 1848
나는 1848
▁자료 1847
▁혐의를 1847
견 1847
으면서 1847
▁강남 1846
▁회원 1844
▁새롭게 1843
▁완화 1842
▁점검 1842
▁지적이 1842
협회 1842
제로 1841
▁녹 1840
트로 1840
▁1, 1839
▁미치는 1839
▁트 1839
▁그를 1838
▁꾸준히 1838
▁불러 1837
50 1834
▁우주 1834
▁먹을 1832
▁곡 1830
▁어린 1829
▁회장이 1829
▁출연 1828
▁대한민국 1827
▁초기 1827
병원 1826
▁인도네시아 1825
▁좋 1824
▁참석 1824
받 1824
겠다고 1823
계의 1823
▁쓸 1822
인들의 1822
▁강원 1821
율이 1821
▁안내 1820
▁그림 1819
▁향해 1819
▁화재 1819
▁시장에 1818
돌 1818
르는 1818
주를 1818
▁인기가 1817
▁너의 1816
▁문을 1816
▁입장 1816
▁출발 1816
력은 1816
▁형태로 1815
▁눈길을 1814
트의 1814
▁비교 1813
▁이달 1813
▁필 1813
▁경험이 1812
▁누가 1812
▁우수 1812
주택 1812
▁먹는 1811
▁생명 1811
으로서 1807
▁시설 1804
▁놀 1803
▁데이터를 1803
▁의사 1803
▁한국어 1803
쳐 1803
▁말고 1802
k 1801
률 1799
으니 1798
▁규모 1797
▁네트워크 1797
▁구속 1795
▁오른 1795
▁장애 1794
▁무엇을 1793
클 1793
▁깊은 1792
▁버스 1792
년에는 1792
라며 1792
▁좌 1790
▁청소년 1790
▁국립 1789
▁비용 1788
▁후반 1788
▁만들고 1786
▁기존의 1785
▁열고 1784
소는 1784
▁일본의 1782
▁장관이 1782
황 1782
▁지원을 1781
▁2012 1780
▁같 1780
▁근로 1780
▁완료 1780
▁검찰이 1779
▁2000 1778
▁낙 1778
▁사무 1777
(4 1775
법이 1774
▁달라 1773
▁보기 1772
▁개정 1771
팅 1771
주세요 1769
▁뉴 1767
▁말씀 1767
▁생각한다 1767
▁택시 1767
▁여부를 1766
물의 1766
▁뉴욕 1765
▁장관 1765
▁종교 1765
▁생각하는 1763
▁엄 1762
습 1762
▁구체적인 1761
▁기반 1761
▁나오고 1761
▁추가로 1761
▁계획을 1759
▁나무 1758
▁보장 1758
▁있습니까 1758
단을 1757
혜 1757
▁지구 1756
▁LG 1755
▁걸쳐 1755
▁바이오 1755
려면 1755
슨 1755
▁과정 1754
▁도로 1754
▁즐길 1753
하겠다고 1752
▁운영하는 1751
익 1751
g 1750
록 1750
▁전문가 1748
씨를 1748
▁글을 1746
▁컴퓨터 1746
웠다 1746
▁하였다 1745
▁알려져 1744
분의 1744
▁열어 1743
▁참석한 1743
▁읽 1742
▁직후 1742
▁알려진 1741
폭 1741
▁규모가 1740
▁힘든 1740
▁성과를 1738
▁한국인 1738
됐다고 1738
칠 1738
▁현실 1737
군의 1737
아이 1737
▁수상 1735
▁지역에 1735
되어야 1735
정부 1734
이라도 1733
료를 1732
호가 1732
수로 1728
표를 1728
V 1726
▁거듭 1726
▁경험을 1725
▁분류 1725
▁하게 1723
소의 1723
이라면 1723
▁완성 1722
▁목소리가 1721
▁민족 1721
개가 1721
군이 1721
녀 1721
의를 1720
홍 1719
▁바란다 1718
▁씨가 1718
▁하겠습니다 1717
검 1717
행을 1717
▁검색 1716
받은 1715
소에 1715
▁교환 1714
▁등에서 1713
▁상황에 1713
▁시장에서 1713
위의 1713
▁시작된 1712
▁의혹을 1711
▁전해 1711
었 1711
위로 1711
▁페 1709
▁한편 1709
▁허용 1709
: 1708
▁복지 1708
▁본다 1708
▁아무 1707
시를 1707
대학 1706
▁대기 1704
▁멕시코 1704
▁쓰는 1704
관에 1703
밖에 1703
▁나머지 1701
▁부과 1701
완 1701
달러 1700
▁보이지 1699
고를 1697
안전 1697
▁아동 1696
▁입고 1696
▁정책을 1696
▁진짜 1696
▁위원장이 1695
학을 1695
▁강제 1694
▁참여하는 1693
이면 1693
점은 1693
▁커지고 1692
상으로 1692
▁수요가 1691
해온 1690
▁밝혀 1689
▁제기 1689
쿠 1689
▁그린 1688
▁깨 1688
▁상황이다 1688
▁공정 1687
▁우려 1687
침 1687
▁발생하는 1686
▁임금 1686
가에 1686
벌 1686
산을 1686
육 1686
▁봐 1685
▁그래도 1684
▁미세먼지 1684
▁점은 1684
올 1682
▁언급 1681
▁안정 1680
▁수술 1678
▁신뢰 1678
▁어려움을 1678
실에서 1678
▁말하는 1676
▁연간 1676
▁청구 1676
▁액 1675
이지 1675
하려면 1675
▁만난 1674
누 1674
▁원래 1673
까지는 1673
됐고 1673
듯 1673
자들을 1673
계를 1672
▁놓 1671
▁대책 1671
▁메시지를 1671
▁파악 1670
폐 1670
▁전개 1669
이에 1669
▁기능 1668
▁긴급 1668
▁특수 1668
계가 1668
▁나아가 1667
▁좋을 1667
▁협의 1667
▁훈련 1666
▁중간 1664
▁숨 1663
~ 1662
▁I 1661
상과 1661
▁투표 1659
억원을 1659
▁진행된 1658
조차 1658
(1 1657
p 1657
▁이사 1657
이기도 1657
▁전략 1656
▁했는데 1656
지게 1656
▁반응 1655
▁경우에는 1654
▁할인 1654
점으로 1654
▁좋지 1652
진을 1652
학년 1652
▁표준 1651
있다 1651
착 1651
▁않게 1650
▁않아요 1650
▁수요 1649
존 1649
▁시장의 1648
▁중국이 1648
0 1647
▁도와 1647
▁정신 1646
거래 1646
▁캐 1644
에요 1644
▁늦 1643
▁헤 1643
▁사이의 1641
▁보낸 1640
냈다 1639
▁인구 1637
▁얘기 1636
▁공개된 1635
▁불과 1635
▁이름 1633
관의 1632
▁개별 1631
▁우리에게 1631
▁보이 1630
▁빠 1630
리기 1630
션 1630
▁사례 1628
이의 1626
▁그녀의 1625
▁기술이 1625
▁부탁드립니다 1625
▁캐나다 1625
보면 1625
심이 1625
▁떠나 1624
▁이어질 1623
겠지만 1623
▁부인 1622
▁주목 1622
▁회계 1622
%, 1621
▁상담 1621
▁자금 1621
▁전용 1621
▁점차 1621
▁방법이 1620
▁수익 1618
▁동의 1617
▁부탁 1616
▁왜냐하면 1615
▁통해서 1615
명에 1615
▁강조 1614
▁금지 1613
리스 1613
비는 1613
▁곳에 1612
거리 1612
▁회장 1610
▁수사를 1609
위원 1607
▁나가 1606
▁분리 1606
▁전부 1606
▁주제로 1604
d 1603
▁차별 1602
▁측 1602
미가 1602
▁뜻 1601
▁진출 1601
▁만족 1600
▁뭐 1600
▁심각한 1600
산이 1600
력에 1599
춘 1599
단에 1597
대회 1597
▁비판 1596
▁존 1595
▁클 1595
곳 1595
시의 1595
년을 1594
▁개혁 1593
▁경제적 1593
▁길이 1593
플 1593
까요 1591
제의 1591
▁어려워 1590
▁준다 1590
으나 1590
증을 1590
▁개편 1588
엘 1588
▁드러났다 1587
▁싸 1586
▁유엔 1585
균 1584
실이 1584
정의 1584
하신 1584
▁울산 1583
▁투입 1582
위원회가 1581
▁지역에서 1580
▁확인해 1580
▁옷 1578
경기 1578
▁연출 1577
▁딸 1576
▁이뤄 1576
시키고 1576
▁가까이 1575
딩 1575
었다고 1575
▁와서 1573
었어 1573
해진 1573
권의 1572
▁플랫폼 1570
역을 1570
점에 1570
▁고객이 1569
▁힘이 1569
▁끝에 1568
▁남은 1568
▁문제에 1568
▁이하 1568
▁여행을 1567
▁오픈 1567
분이 1567
▁아니면 1566
하려 1565
▁높 1564
▁검증 1563
▁이용할 1563
▁시기 1562
▁작업을 1562
c 1561
더라도 1560
▁부족한 1559
▁중에서 1559
리아 1559
▁뿐만 1556
▁의심 1556
어도 1556
▁브 1555
나가 1555
마을 1554
분을 1554
▁그만큼 1553
료가 1553
▁집을 1552
▁평가를 1552
관계 1552
명과 1552
품을 1552
싱 1550
▁못할 1549
▁잠시 1549
▁지배 1549
▁담은 1548
▁만날 1548
▁아는 1548
.” 1547
▁지식 1547
▁통계 1547
▁퇴 1547
X 1546
▁뒷 1546
▁마찬가지로 1545
▁문제로 1545
▁선언 1545
▁효 1545
▁행사를 1544
만원을 1544
화는 1544
▁업 1543
학의 1543
▁설명이다 1542
▁지하철 1540
민이 1540
▁방침이다 1538
▁시간에 1538
▁유치 1538
▁하나요 1538
▁한국과 1538
▁때도 1537
▁요리 1537
▁당장 1536
▁시각 1536
▁가득 1535
▁프로젝트 1535
특 1535
▁위치 1534
서에 1534
▁싱가포르 1533
▁친구가 1533
▁케 1533
▁행사가 1533
정한 1533
▁넘 1532
▁실시 1532
▁도전 1531
▁받 1530
이번 1530
▁이제는 1529
▁써 1526
▁보안 1524
혈 1524
▁제품이 1523
구조 1523
술 1523
▁인공지능 1522
▁전면 1521
궁 1521
스러운 1521
▁끝 1520
▁단계 1520
▁맛 1520
▁이론 1520
▁축제 1520
▁겨울 1516
∼ 1515
낼 1515
로를 1515
발전 1515
▁이건 1514
▁바른미래당 1513
▁브라질 1513
없는 1513
▁뜻을 1512
▁유리 1512
재를 1512
▁세포 1511
▁소재 1511
▁조치 1511
율을 1511
▁되었습니다 1510
▁문화를 1509
▁창출 1509
▁더불어 1508
먼 1508
움 1508
가의 1507
▁의미한다 1506
관과 1506
▁배치 1505
예요 1505
▁개입 1504
수와 1504
▁고등학교 1503
▁티 1503
구나 1503
차를 1503
▁실패 1502
▁올려 1501
▁둘째 1500
▁그에 1499
▁만들었다 1499
▁방향으로 1499
▁불이 1499
▁의견이 1499
▁정도의 1499
물은 1499
분쯤 1499
원들이 1499
▁되나요 1497
▁뒤에 1497
▁물질 1497
업을 1496
예술 1496
킹 1496
▁덜 1495
▁관찰 1494
▁아이들이 1494
▁입주 1494
▁처음이다 1494
국가 1494
구에 1493
화로 1493
▁공사 1492
▁발표했다 1492
▁스페인 1492
학적 1492
▁느낄 1491
▁월드컵 1491
▁정당 1491
▁조작 1491
▁토론 1491
졌고 1491
화하는 1491
▁대북 1490
▁들었다 1490
▁자산 1490
석을 1490
▁이란 1489
관에서 1489
었을 1489
인가요 1489
▁번역 1488
▁비중이 1488
▁졸업 1488
▁노출 1487
▁인수 1487
▁책임을 1487
혁 1487
▁불안 1486
국제 1486
▁상품을 1485
▁35 1484
▁회담 1484
아가 1484
▁충 1483
▁차원에서 1482
▁필요하다는 1481
라이 1481
력의 1481
▁될까요 1480
▁빌 1480
가요 1480
힌 1480
▁별로 1479
▁일이다 1479
▁공연을 1478
▁정확히 1478
Pop 1477
▁내에 1477
▁사랑을 1477
▁실천 1477
▁전북 1477
귀 1477
▁원자 1476
되었습니다 1476
▁기부 1475
▁질문 1475
▁내는 1474
▁낼 1474
▁저희가 1474
▁홈 1473
▁희망 1473
걸 1472
▁가치가 1471
▁내에서 1471
▁붙 1470
▁환자 1470
소득 1470
인으로 1469
▁임시 1468
해주세요 1467
▁선수들이 1466
▁기계 1465
▁내고 1465
▁상장 1465
▁지하 1465
▁최선을 1465
▁공장 1464
▁교육을 1464
▁교사 1463
▁저에게 1463
▁머 1462
▁분야에서 1462
▁삼성전자 1462
▁수업을 1462
▁업계 1462
▁의혹이 1462
▁기독교 1461
▁대해서도 1461
▁덕분에 1461
▁부정 1461
▁에이 1461
▁충남 1461
게요 1461
▁관련한 1460
▁눈이 1460
▁수립 1459
어진 1458
▁대상이 1457
▁물어 1457
▁상당히 1457
▁영상을 1457
▁자신 1457
고가 1457
세대 1457
형을 1457
이야 1456
징 1456
▁기사 1455
▁말이다 1455
▁어디 1455
▁옮겨 1455
▁이유를 1454
석이 1454
일은 1454
체의 1454
식에 1453
mm 1452
▁AI 1452
▁자본 1452
▁주도 1452
▁한국을 1452
▁싶다 1451
쯤 1451
▁약속 1450
▁접수 1450
▁제품은 1450
▁표시 1450
로가 1450
팀이 1450
▁공모 1449
▁평소 1449
▁하나로 1449
시킨 1449
▁떨어진 1448
자들에게 1448
▁사과 1447
▁장관은 1447
▁혈 1447
동이 1446
적으로는 1446
-1 1445
▁교회 1445
▁언어 1445
▁꺼 1444
로운 1444
이트 1444
▁거주 1443
▁기반으로 1443
련 1443
▁오늘날 1442
▁옷을 1442
욱 1442
▁가면 1441
▁마음 1441
▁시장을 1441
기간 1441
▁양자 1440
▁참여한 1440
▁품 1440
안에 1440
▁호주 1439
▁실현 1438
시켰다 1438
일에는 1438
▁벗어나 1437
▁실행 1437
▁잡아 1437
대와 1437
실에 1437
▁누구나 1436
▁아마 1436
▁행위 1435
▁끊 1434
▁잡고 1434
받을 1434
함에 1434
▁밖에 1433
▁발생할 1433
▁실적 1433
▁봄 1432
년의 1432
▁위로 1431
▁갖는 1428
▁것이었다 1428
▁기대된다 1428
▁능력을 1428
▁못해 1428
▁80 1427
▁직업 1427
▁끼 1426
신을 1426
▁암호화폐 1425
▁찾을 1425
수사 1425
면을 1424
▁관계가 1423
▁기록했다 1423
▁보유 1423
▁일찍 1423
행이 1423
al 1422
▁신문 1421
함이 1421
동의 1420
지며 1420
▁2020 1419
사진 1419
▁뜨거운 1418
▁사람들 1418
▁동일한 1417
▁관세 1416
내고 1416
헌 1416
▁보여주는 1415
▁주말 1415
▁얻을 1414
되자 1414
▁높이 1413
▁터키 1413
」 1413
됐던 1413
받는 1413
으 1413
▁대법원 1412
▁폭행 1412
전문 1412
▁설정 1411
▁특징이다 1411
노동 1411
겨 1410
▁돌아가 1409
갑 1409
음이 1409
▁수소 1408
▁인권 1407
▁케이 1407
▁한국은 1407
▁나중에 1405
▁아무리 1404
실을 1404
▁폼페이오 1403
해주 1403
▁패션 1402
▁이것을 1401
▁입학 1401
적이다 1401
▁등과 1400
▁지켜 1399
측 1399
▁단순히 1398
▁된다는 1398
▁떨어져 1398
▁전쟁 1397
▁물을 1396
형이 1396
▁공항 1395
▁작품을 1395
된다는 1395
제에 1395
▁담겨 1394
▁상징 1394
▁감정 1393
▁벽 1392
▁이끌어 1392
교회 1391
▁발굴 1390
▁절반 1390
전에서 1390
▁규정 1389
▁상영 1389
▁익 1389
▁진입 1388
닝 1388
▁저장 1387
▁결합 1386
▁상상 1386
선에 1386
▁전공 1385
스터 1385
법에 1384
▁발행 1383
▁얻 1383
오는 1383
19 1382
▁2010 1382
▁점도 1382
인들은 1382
사인 1381
어로 1381
▁아이돌 1380
▁의견 1380
▁감사합니다 1379
압 1379
▁시장은 1378
▁있으니 1378
▁현장에서 1377
증이 1377
▁단일 1376
▁수십 1376
▁포함해 1376
▁수도권 1375
▁거부 1374
▁김영 1372
▁발달 1372
▁입을 1372
▁주목된다 1372
▁것인지 1371
▁이처럼 1371
군요 1371
▁밥 1370
▁새벽 1370
▁지연 1370
능 1369
▁곳은 1368
▁아니냐는 1368
▁저의 1368
▁한국당 1368
▁O 1367
▁쉬 1367
▁이행 1366
▁평양 1366
졌습니다 1366
▁이른바 1365
▁향상 1365
▁희 1365
▁둘러싼 1364
▁있을지 1363
우리 1363
전의 1363
▁긍정적인 1362
▁경우도 1361
▁비교적 1361
▁앉아 1361
방송 1361
우는 1361
하면서도 1361
▁눈을 1360
▁불리는 1360
▁짧은 1360
▁없지만 1359
▁축하 1359
더니 1359
▁있으나 1358
보를 1358
해질 1358
▁땅 1355
▁수준의 1355
▁식품 1355
▁진단 1355
▁차를 1355
▁꿈 1354
혁신 1354
▁「 1352
▁국방 1352
▁반응을 1352
▁오랫동안 1352
▁경기를 1351
▁그게 1351
▁쓰고 1351
▁효과 1351
▁방문해 1350
▁피해가 1350
량은 1350
▁감독은 1349
▁심사 1349
른 1349
지자 1349
▁' 1348
▁보완 1348
▁이번이 1348
J 1347
▁마음에 1347
▁시스템을 1347
▁커뮤니케이션 1347
▁콘텐츠를 1347
▁폭발 1347
▁부담이 1346
▁비밀 1346
▁않 1345
▁있었지만 1345
동을 1345
▁사람들에게 1344
▁수능 1344
▁빛 1343
▁자녀 1342
▁작용 1341
가고 1341
문이 1341
▁그녀가 1340
▁쪽 1340
▁활용해 1340
▁넓 1338
▁만들기 1338
▁부분을 1338
▁연습 1338
▁요소 1338
▁현상이 1338
▁대기업 1337
됐지만 1337
틀 1337
▁세상을 1336
▁올린 1336
리그 1336
해지고 1336
▁노력을 1335
▁전력 1334
▁징역 1334
▁이루어 1333
▁작가 1333
an 1332
▁생긴 1332
▁엔 1332
▁통화 1332
지방 1332
▁아이가 1331
▁충돌 1331
▁몰 1330
▁예비 1330
▁이름이 1330
▁전부터 1330
서의 1330
▁분석했다 1329
▁세종 1329
린다 1329
물로 1329
방을 1329
째 1329
청이 1329
▁부여 1328
력으로 1328
학생 1328
▁일반적으로 1327
됐다는 1327
▁2011 1325
▁석유 1325
▁충북 1325
톤 1325
▁선고 1324
▁실무 1324
▁어떠한 1324
돼야 1324
▁참석했다 1323
▁구분 1322
▁빼 1322
▁창조 1322
▁편집 1322
계획 1322
▁적지 1321
▁태국 1321
▁확인됐다 1321
런 1321
허 1321
▁나타나 1320
▁발생했다 1320
▁비용을 1320
▁제거 1320
▁경기가 1319
▁소리 1319
▁토대로 1319
▁U 1318
▁그렇지 1318
▁분석이 1318
▁곳에서 1317
▁구성된 1317
▁떠 1317
▁사람들을 1317
▁설득 1317
▁결정을 1316
▁미국은 1316
▁사례가 1316
▁이끄는 1316
▁참석해 1316
u 1315
▁달려 1315
▁예방 1315
▁주차 1315
▁치료를 1315
▁흥 1315
▁강의 1314
▁보유한 1314
▁그렇다면 1313
▁꿈을 1313
▁모르는 1313
▁요구하는 1313
▁이용한 1313
▁거리 1312
▁레이 1312
▁향한 1312
엄 1312
읍 1312
▁소통 1311
▁있었고 1311
님이 1311
민의 1311
▁열렸다 1310
수에 1310
만한 1309
▁아직도 1308
▁자율 1308
나무 1308
▁사유 1307
▁측면에서 1307
▁편의 1307
▁웃 1306
▁필수 1306
솔 1306
▁국민의 1305
▁단순 1305
▁체결 1305
▁학교에 1305
셨 1305
쪽 1305
▁J 1304
▁조치를 1304
▁학생이 1303
▁회사의 1303
청은 1303
▁의무 1302
(6 1301
▁가을 1301
▁교류 1301
▁화장품 1301
전은 1301
▁없어서 1300
▁올림픽 1300
▁비행 1299
▁지원하는 1299
갔다 1299
▁외에 1298
▁강원도 1297
▁강하게 1297
▁고려해 1297
▁돈이 1297
▁처벌 1297
건설 1297
겠어요 1297
치고 1297
▁같은데 1296
▁여야 1296
소에서 1296
▁비용이 1295
▁채널 1295
▁헌 1295
월까지 1295
제품 1295
▁W 1294
▁난민 1294
▁선수가 1294
혀 1294
▁그건 1293
▁사업이 1293
▁저희는 1293
▁뛰어난 1292
회사 1292
▁2009 1291
▁굉장히 1291
▁부문 1291
▁상당 1291
▁생존 1291
▁임대 1291
시부터 1291
▁한국이 1290
빙 1290
▁괜찮 1289
▁앤 1289
▁전문가들은 1289
벨 1289
슈 1289
보가 1288
▁갖춘 1287
▁나오 1287
▁바라 1287
▁특허 1287
권에 1287
▁V 1286
▁그럴 1285
▁위협 1285
▁틀 1285
▁누구 1284
▁여성이 1284
▁찾고 1284
▁견 1283
▁취임 1283
선의 1283
▁방식을 1282
▁위원 1282
▁카페 1282
섭 1282
▁몽골 1281
▁바꿔 1280
▁장비 1279
▁최초의 1279
액이 1279
와는 1279
▁가능합니다 1278
▁이어지고 1278
▁정리 1278
자들 1278
▁괴 1277
▁물건을 1277
▁인증 1277
▁장애인 1277
▁데뷔 1276
히는 1276
▁방법은 1275
▁참고 1275
▁첫째 1275
▁슈 1274
▁않는다는 1274
▁형태의 1274
례 1274
물에 1274
앤 1274
▁계기로 1273
▁곳으로 1273
▁주장이 1272
▁매체 1271
▁먼 1271
▁무료 1271
▁의혹 1271
▁국내외 1270
▁끌고 1270
▁이유다 1270
▁필리핀 1270
▁혐의 1270
▁집으로 1269
받고 1269
▁묘 1268
▁본격 1268
▁입은 1268
아야 1268
▁공간을 1267
▁시민들이 1267
▁신용 1267
몰 1267
해를 1267
▁질문에 1266
량의 1266
재가 1266
▁자연스럽게 1265
▁초청 1265
만으로 1265
법은 1265
여서 1265
▁동료 1264
군은 1263
복지 1263
▁2008 1262
▁건립 1262
▁소식을 1262
▁전년 1262
▁행동을 1262
▁그러 1261
▁농업 1261
▁등장 1261
▁제외한 1261
시면 1260
제도 1260
▁고통 1259
▁기업들이 1259
▁말레이시아 1259
▁발송 1259
쇼 1259
습니까 1259
제와 1259
▁늘고 1258
▁직장 1258
단계 1258
센 1258
▁가동 1257
▁머리 1257
▁목적으로 1257
▁업무를 1257
▁적극적인 1257
맥 1257
▁교과 1256
국을 1255
▁당선 1254
▁부상 1254
핑 1254
or 1253
▁마지막으로 1253
▁악화 1253
▁웹 1252
▁인물 1252
▁적절한 1252
▁페이스북 1252
▁가구 1251
▁분명 1251
▁연합 1251
▁일정을 1251
▁하여 1251
▁1000 1250
간의 1250
▁기분이 1249
▁외에도 1249
▁하나는 1249
점에서 1249
▁체육 1248
▁추정 1248
▁가능성도 1247
▁바이 1247
▁위원장은 1247
대책 1247
활동 1247
▁‘2018 1246
▁대화를 1246
▁무대 1246
▁정부와 1246
산의 1246
▁방식 1245
▁부품 1245
▁선호 1245
▁않지만 1245
▁포함된 1245
▁품질 1245
트에 1245
▁개막 1244
▁맨 1244
▁시작으로 1244
▁증명 1244
▁차단 1244
▁캐릭터 1244
▁말할 1243
▁주의 1243
식은 1243
▁않아도 1242
금은 1242
십 1242
.5 1241
▁높아지고 1241
▁쇼 1241
▁파괴 1241
뉴 1241
,000 1240
▁작동 1240
▁파트너 1240
돈 1240
▁다수 1239
▁유출 1239
되었고 1239
하니 1239
.2 1238
▁앱 1238
▁흐 1238
기고 1238
생활 1238
▁목표로 1237
▁제품의 1237
신이 1237
▁일어나 1236
탁 1236
▁방법으로 1235
▁이탈리아 1235
공항 1235
스에서 1235
체는 1235
맨 1234
▁감염 1233
▁당신과 1233
▁엄청난 1233
▁했다고 1232
생이 1232
주시 1232
▁로봇 1231
▁승인 1231
▁엄마 1231
▁이민 1231
▁장면 1231
▁지닌 1231
▁필요하다고 1231
경이 1229
40 1228
▁초대 1228
▁모습 1227
생을 1227
▁않기 1226
▁프 1226
▁확인하고 1226
관광 1226
b 1225
▁그래 1225
▁다양 1225
▁몸을 1225
▁보관 1225
▁시범 1225
▁이해할 1225
▁종류의 1224
▁하나가 1224
▁역대 1223
좌 1223
▁양성 1222
▁연주 1222
시민 1222
▁가격을 1220
▁결코 1220
▁성과 1220
▁커뮤니티 1220
척 1220
▁클럽 1219
▁구글 1218
▁모집 1218
▁조합 1218
라가 1218
▁재개 1217
▁통제 1217
▁성적 1216
▁싶은데 1216
▁예정입니다 1216
▁홀 1216
졌다는 1216
콘 1216
▁굴 1215
▁탄생 1214
때 1214
▁본격적인 1213
▁것보다 1212
▁과연 1211
▁내린 1211
▁보존 1211
▁분위기를 1211
▁역사를 1211
▁학생들의 1211
▁혜택을 1210
▁매장 1209
▁유도 1209
▁출판 1208
▁층 1208
론을 1208
협력 1208
▁팬들이 1207
▁니 1206
▁상태로 1206
▁피해자 1206
텍 1206
▁때가 1205
▁사실은 1205
▁않았 1205
▁압박 1205
▁유전 1205
▁이미지를 1205
▁회사가 1205
진의 1205
힐 1205
▁경우는 1204
▁공개했다 1203
▁만들어진 1203
▁진화 1203
▁꽤 1202
▁옆 1202
▁팀이 1202
▁해양 1202
영화 1202
▁집행 1201
▁출범 1201
▁금리 1200
▁정착 1200
▁후보가 1200
▁분명히 1199
▁사람에게 1199
▁해주 1199
인에게 1199
해주는 1199
▁되기 1198
▁않았지만 1198
▁화가 1198
할지 1198
▁앨범 1197
▁이미지 1197
▁구체적으로 1196
▁물리 1196
▁수집 1196
▁이야기가 1196
▁자리에 1196
▁작년 1194
▁활용한 1194
▁개인의 1193
▁노조 1193
▁들이 1193
▁습 1193
서울 1193
직을 1193
▁골프 1192
▁목소리를 1192
▁배달 1192
▁얼굴 1192
▁찍 1192
기구 1192
소와 1192
적을 1192
▁내용은 1191
▁법적 1191
▁자동 1191
▁적응 1191
해왔다 1191
▁본격적으로 1190
▁없기 1190
▁영화는 1190
▁재무 1190
공원 1190
▁받게 1189
▁옆에 1189
▁착 1189
하였습니다 1189
.1 1188
▁공연이 1188
▁기대한다 1188
▁쏟아 1188
cm 1187
▁물이 1187
▁사용한 1187
▁사이에서 1187
득 1187
▁능력이 1186
▁상태에서 1186
▁유튜브 1186
▁저도 1186
씨와 1186
지에서 1186
건의 1185
있 1185
▁늘어난 1184
▁모아 1184
▁구입 1183
▁금속 1183
▁축소 1183
▁형태 1183
시스템 1183
▁고령 1182
▁관광객 1182
▁말한 1182
확 1182
▁심지어 1181
▁콜 1181
▁제외 1180
▁폐지 1180
치의 1180
▁갈수록 1179
▁전반 1179
문에 1179
▁소화 1178
▁영향 1178
▁종목 1178
된다고 1178
▁덕 1177
▁맥 1177
▁몰려 1177
▁바꾸 1177
▁운동을 1177
상품 1177
▁나이 1176
▁복합 1176
▁느껴 1175
▁믿 1175
▁불교 1175
▁열린다 1175
▁태양 1175
젠 1175
▁담아 1174
▁이어졌다 1174
▁올해는 1173
▁끌어 1172
▁운행 1172
우가 1172
▁세부 1171
▁영향으로 1171
▁이중 1171
▁해소 1171
본부 1171
빛 1171
] 1170
▁나눠 1170
▁서류 1170
▁숨진 1170
주고 1170
▁결과에 1169
▁센터 1169
▁이틀 1169
▁조건 1169
▁차지 1169
국은 1169
잡 1169
▁대폭 1168
▁충족 1168
▁포장 1168
▁부처 1167
▁철도 1167
았습니다 1167
푸 1167
▁싶 1166
▁전망이 1165
계약 1165
▁넘게 1164
▁올랐다 1164
▁유입 1164
▁장소 1164
▁풀이된다 1164
섬 1164
성으로 1164
페이 1164
▁개방 1163
▁구현 1163
▁꾸 1163
▁류 1163
▁공무원 1162
▁그려 1162
▁영양 1162
▁이웃 1162
▁잘못된 1162
▁즉시 1162
▁32 1161
▁걸어 1161
▁넣어 1161
▁체계 1161
▁다가 1160
▁빠져 1160
▁찾은 1160
▁출입 1160
면서도 1160
상에서 1160
▁답변 1159
Y 1158
▁관람 1158
▁연계 1158
▁비율이 1157
▁생각해요 1157
▁칼 1157
▁환영 1157
▁판결 1156
▁뛰어 1155
▁벌어 1155
▁태풍 1154
▁폴 1154
▁당연히 1153
객 1153
▁확 1152
▁승리 1151
경찰 1151
쉬 1151
조원 1151
▁문의 1150
▁방향 1150
흥 1150
▁자유롭게 1149
하지는 1149
▁마이크 1148
들어 1148
ar 1147
▁상반기 1147
▁충전 1147
라인 1147
셔야 1147
당을 1146
면에 1146
▁겪고 1145
▁고발 1145
▁식사 1145
영이 1145
▁부모 1144
▁옛 1144
▁초등학교 1144
▁개념 1143
▁냉 1143
▁측이 1143
▁훼손 1143
▁세계적인 1142
▁했고 1142
쪽에 1142
▁그간 1141
▁종료 1141
▁날이 1140
▁자리에서 1140
▁테스트 1140
%) 1139
▁실내 1139
▁특성을 1139
하라 1139
▁과정이 1138
▁나갈 1138
▁아프 1138
▁양국 1138
▁연령 1138
▁욕 1138
▁후원 1138
일과 1138
폰 1138
▁속도를 1137
▁단축 1136
보니 1136
잔 1136
▁게임을 1135
▁상당한 1135
▁않았습니다 1135
▁음악을 1135
▁필요합니다 1135
▁학부모 1135
무를 1135
▁1,000 1134
▁방향을 1134
▁않다는 1134
▁유일한 1134
체에 1134
홀 1134
▁따뜻한 1133
▁사회의 1133
▁쪽으로 1133
보호 1133
▁공부를 1132
▁바뀌 1132
▁세대 1132
▁특징 1132
당의 1132
특별 1132
겠 1131
었다는 1131
형의 1131
▁생성 1130
▁정비 1130
묘 1130
므로 1130
미를 1130
하라고 1130
▁동반 1129
▁미국에서 1129
▁생각했다 1129
▁줄어들 1129
▁통상 1129
▁교수가 1128
▁전망된다 1128
▁종종 1128
▁천연 1128
▁했다는 1128
르고 1128
▁관점에서 1127
▁남성이 1127
▁자극 1127
▁전략을 1127
았 1127
▁신설 1126
▁유기 1126
▁환경을 1126
해졌다 1125
▁45 1124
▁고정 1124
▁국정 1124
▁복귀 1124
▁아닙니다 1124
▁인하 1124
▁깊이 1123
▁언제나 1123
▁부담을 1122
▁유전자 1122
▁정기 1122
▁칸 1122
▁여의도 1121
▁의지를 1121
일로 1121
집니다 1121
호를 1121
80 1120
▁낮아 1120
▁돌려 1120
▁이같이 1120
리며 1120
연합 1120
▁국회에서 1119
▁다르게 1119
▁도쿄 1119
▁마치고 1119
▁수영 1119
▁차지하는 1119
버스 1119
하시면 1119
▁소식이 1118
▁수준으로 1118
▁앞둔 1118
워서 1118
▁갔다 1117
▁목적 1117
▁보급 1117
▁분야의 1117
▁인력 1117
▁한인 1117
국에 1117
당은 1117
▁상위 1116
▁인공 1116
▁10% 1115
▁당초 1115
▁빅 1115
▁왔 1115
소로 1115
▁기도 1114
▁어디에 1114
▁직원이 1114
▁푸 1114
▁흔들 1114
접 1114
▁어려울 1113
▁이벤트 1113
▁내용의 1112
▁맡 1112
선은 1112
세로 1112
최 1112
▁들어간 1111
되기도 1111
차례 1111
▁계기가 1110
▁붕괴 1110
▁불편 1109
▁위기 1109
▁조각 1109
▁증거 1109
▁현재의 1109
틴 1109
▁개설 1108
▁사라 1108
▁휘 1108
▁가져 1107
▁압 1107
▁주민들이 1107
▁회장은 1107
계는 1107
▁제약 1106
람 1106
룡 1106
▁사장 1105
식으로 1105
▁계약을 1104
▁논의가 1104
▁연극 1104
▁광역 1103
▁노인 1103
혼 1103
▁33 1102
▁기타 1102
▁매각 1102
▁연구를 1102
▁150 1101
▁떨어 1101
▁정보가 1101
▁지시 1101
▁초과 1101
▁출근 1101
으로써 1101
▁접촉 1100
만명 1100
응 1100
칸 1100
.7 1098
▁분위기가 1098
▁첨부 1098
▁풀어 1098
께 1098
▁말은 1096
▁이용하는 1096
▁쿠 1096
프로 1096
▁강릉 1095
▁노래를 1095
▁소셜 1095
▁알려주세요 1095
▁응답 1095
▁이익 1095
콜 1095
▁90 1094
▁의뢰 1094
벽 1094
위원장 1094
▁여성의 1093
▁채택 1093
▁기울 1092
▁돼요 1092
▁투자를 1092
구와 1092
인에 1092
▁몇몇 1091
▁아무런 1091
▁의존 1091
▁짜 1091
▁충분한 1091
부터는 1091
▁아이를 1090
식의 1090
▁개발한 1089
▁때부터 1089
▁소송 1089
▁진행되는 1089
▁독특한 1088
▁숲 1088
▁참여해 1088
▁재산 1087
▁보낼 1086
▁일에 1086
▁중심의 1086
▁지불 1086
통신 1086
▁경향이 1085
▁다녀 1085
▁단순한 1085
▁반대로 1085
▁뿐이다 1085
in 1084
▁비즈니스 1084
▁영어를 1084
론이 1084
받아 1084
▁넣 1083
▁다르다 1083
▁많고 1083
▁맡은 1083
구역 1083
▁대학교 1082
▁관해 1081
▁보일 1081
▁뽑 1081
연구원 1081
▁구조를 1080
▁기능이 1080
▁발휘 1080
▁보여준다 1080
▁상업 1080
▁척 1080
▁크고 1080
▁탓에 1080
대상 1080
밥 1080
▁원인 1079
임이 1079
하실 1079
▁근대 1078
▁보상 1078
▁침해 1078
게임 1078
▁위하여 1077
▁조기 1077
▁흡수 1077
▁우수한 1076
▁이재 1076
▁이전에 1076
▁하더라도 1076
장애 1076
턴 1076
▁동일 1075
▁물건 1075
기지 1075
봐야 1075
▁달하는 1074
▁여러분 1074
▁주지 1074
on 1073
▁2007 1073
▁검찰에 1073
▁끌 1073
▁이어지는 1073
▁진보 1073
대한 1073
▁세계에서 1072
▁천안 1072
▁친환경 1072
▁합격 1071
▁닫 1070
▁목표를 1070
▁선임 1070
▁존재하는 1070
건이 1070
처리 1070
▁기대하고 1069
▁영화가 1068
▁차이 1068
▁행사는 1068
▁흘러 1068
리면 1068
하였고 1067
▁대학생 1066
▁정확하게 1065
션을 1065
.3 1064
▁데다 1064
.5% 1063
▁것이고 1063
▁대변인은 1063
▁쇼핑 1063
끼 1062
세계 1062
▁가게 1061
▁나타나는 1061
▁사찰 1061
▁인간이 1061
▁인터뷰 1061
듯이 1061
▁노력이 1060
건을 1060
국민 1060
졌다고 1060
▁부분은 1059
▁진행된다 1059
▁각각의 1058
▁무엇인지 1058
▁상태가 1058
됨에 1058
판을 1058
▁다섯 1057
▁마주 1057
▁무기 1057
▁지휘 1057
▁출전 1057
았고 1057
▁IT 1056
▁사랑하는 1056
▁형사 1056
▁활용할 1056
▁고위 1055
▁영화의 1055
▁학생들은 1055
▁건너 1054
▁소설 1054
▁응원 1054
▁포항 1054
분야 1054
화할 1054
▁연구는 1053
▁2, 1052
▁대거 1052
▁육성 1052
고는 1052
▁38 1051
▁널리 1051
▁도심 1051
▁과정에 1050
▁쌓 1050
▁의원의 1050
▁공기 1049
▁기대를 1049
▁든 1049
▁이것 1049
▁“( 1048
▁결과는 1048
▁맞게 1048
▁생물 1048
였습니다 1048
.4 1047
▁그러한 1047
▁사업에 1047
▁식당 1047
시와 1047
▁기소 1046
▁비록 1046
▁상태를 1046
▁수백 1046
▁유해 1046
웅 1046
▁유사 1045
▁현행 1045
랜드 1045
시간이 1045
▁복잡한 1044
▁상태다 1044
▁수비 1044
▁측면 1044
먹 1044
스코 1044
았던 1044
탕 1044
▁감독의 1043
▁비상 1043
▁자랑 1043
▁탐 1043
쪽으로 1043
▁가로 1042
▁속도가 1042
▁초반 1042
번째 1042
인가 1042
참 1042
▁리그 1041
▁멋진 1041
▁빨 1041
▁야구 1041
▁희생 1041
▁빠진 1040
▁시내 1040
▁없었던 1040
▁진정한 1040
릭 1040
층이 1040
▁그러므로 1039
▁기다리고 1039
▁슬 1039
▁업종 1039
▁달성 1038
▁판단했다 1038
▁근거 1037
▁능력 1037
▁바람이 1037
▁덮 1036
▁스타트업 1036
▁아버지 1036
▁아시안게임 1036
▁운용 1036
▁프리미엄 1036
마저 1036
었기 1036
▁것이란 1035
▁계속해서 1035
▁기간이 1035
했어 1035
▁DNA 1034
▁아들 1034
▁거에요 1033
▁공포 1033
▁반응이 1033
망을 1033
조를 1033
▁공개한 1032
▁일상 1032
▁있었 1032
▁때문 1031
▁소리를 1031
▁이르는 1031
▁취재 1031
▁히 1031
▁모른다 1030
류를 1030
질환 1030
▁것이라 1029
▁방안 1029
▁팬들의 1029
어는 1029
줘 1029
▁경기에서 1028
▁고급 1028
▁절차를 1028
▁중구 1028
▁하반기 1028
▁그날 1027
▁벌써 1027
▁전화를 1027
▁활약 1027
경영 1027
일간 1027
▁20% 1026
▁그에게 1026
▁마약 1026
▁발급 1026
▁술을 1026
▁하자 1026
죽 1026
치에 1026
[ 1025
▁쉬운 1025
▁일하는 1025
▁철학 1025
의가 1025
질을 1025
▁미칠 1024
▁서비스가 1024
▁인사를 1024
거든요 1024
▁공간이 1023
▁박근혜 1023
▁밖으로 1023
▁하는지 1023
진은 1023
▁나쁜 1022
▁선생님 1022
어의 1022
전자 1022
펜 1022
▁고양 1021
▁단기 1021
컬 1021
▁현재까지 1020
점과 1020
▁가족이 1019
▁거라고 1019
▁멀리 1019
▁멋 1019
▁뮤지컬 1019
▁지속적인 1019
▁흑 1019
▁경고 1018
▁테니 1018
▁행복한 1018
위원회는 1018
했는지 1018
▁KT 1017
▁공감 1017
▁너희 1017
하기를 1017
함과 1017
▁부르 1016
▁시간은 1016
▁유치원 1016
▁이뤄질 1016
나라 1016
▁비판했다 1015
▁지자체 1015
격을 1015
층의 1015
11 1014
70 1014
▁아니라는 1014
▁예고 1014
▁폭염 1014
▁활 1014
리게 1014
물질 1014
▁대선 1013
▁대체로 1013
▁생각하고 1013
▁소녀 1013
▁수사에 1013
▁움직 1013
▁현상 1013
개혁 1013
서와 1013
재단 1013
주기 1013
치로 1013
500 1012
▁노사 1012
▁최근에는 1012
▁곧바로 1011
▁사건의 1011
▁영역 1011
▁이번에는 1011
▁최초 1011
화한 1011
▁미래를 1010
▁셋째 1010
▁잇따라 1010
▁친구들과 1010
방이 1010
▁당일 1009
▁대부분이 1009
▁며칠 1009
▁발사 1009
▁불가능 1009
▁진행되고 1009
주년 1009
▁밑 1008
▁이래 1008
▁하이 1008
놓 1008
역이 1008
▁갖게 1007
▁면역 1007
▁사업은 1007
▁관객 1006
▁얻고 1006
▁일어난 1006
▁직무 1006
▁갈등이 1005
▁노후 1005
▁진행하는 1005
.0 1004
▁기준을 1004
▁수리 1004
▁수원 1004
▁원인을 1004
▁파견 1004
실은 1004
음에도 1004
x 1003
▁공공기관 1003
▁기다 1003
▁마친 1003
▁만나는 1003
▁올렸다 1003
▁제공한다 1003
▁조금씩 1003
하나 1003
▁동네 1002
▁위원장의 1002
▁제품에 1002
동에 1002
▁34 1001
▁공을 1001
▁식으로 1001
▁아프리카 1001
▁전망했다 1001
어져 1001
움을 1001
하기는 1001
▁의사를 1000
▁있었는데 1000
▁절차 1000
닉 1000
비용 1000
액을 1000
쳤다 1000
▁아예 999
▁유형 999
연이 998
▁EU 997
▁기자 997
▁묵 997
▁신체 997
▁어머니 997
▁플레이 997
감독 997
잖아 997
▁52 996
▁평가했다 996
봐 996
얼 996
카드 996
▁정상회담을 995
▁플라스틱 995
주년을 995
▁심리 994
▁조절 994
▁활동이 994
권은 994
논 994
▁발언 993
▁최저 993
경을 993
주에 993
∼1 992
▁그것 992
▁달라고 992
▁인쇄 992
▁증가하고 992
종의 992
▁가끔 991
▁긴장 991
▁시선을 991
▁엘 990
▁이끌 990
▁해당하는 990
하기에 990
▁사실이다 989
▁이들을 989
.8 988
▁가질 988
▁국가의 988
▁맞춤형 988
▁시기에 988
▁콩 988
차는 988
▁증가한 987
▁사기 986
▁산하 986
▁의식 986
안은 986
업계 986
파크 986
팬 986
▁거대한 985
▁내렸다 985
▁융합 985
▁이익을 985
▁점심 985
▁창작 985
화될 985
▁개봉 984
▁배제 984
선수 984
▁들어서 983
▁일반적인 983
▁진행하고 983
가와 983
▁떨 982
▁사고를 982
▁쌍 982
▁키워 982
문의 982
식과 982
en 981
f 981
▁계열 981
▁듯한 981
▁맛이 981
▁수석 981
대에서 981
질이 981
탑 981
품이 981
▁아니고 980
든지 980
▁콘서트 979
▁비판이 978
▁이상을 978
▁겪 977
▁된다고 977
▁변동 977
▁속도 977
▁시대에 977
▁언 977
▁택 977
드리 977
신의 977
▁되면서 976
▁시리즈 976
드의 976
하다가 976
▁무엇이 975
▁문제의 975
▁신호 975
▁연방 975
▁유사한 975
엠 975
팔 975
▁매출이 974
▁면접 974
▁짓 974
▁폐쇄 974
▁게시 973
▁그저 973
▁내내 973
▁높이는 973
▁다음에 973
▁예능 973
▁지역을 973
▁케이팝 973
▁회사에 973
개국 973
억달러 973
▁바람 972
▁좋아요 972
▁합성 972
재판 972
훈련 972
▁머리를 971
▁않으 971
▁한화 971
』 971
감과 971
재로 971
해가 971
▁방문한 970
▁사진이 970
▁성인 970
▁좋습니다 970
▁총리가 970
였 970
롱 969
▁메뉴 968
▁선박 968
▁한계가 968
졌지만 968
▁첨단 967
▁할지 967
kg 966
▁경쟁이 966
▁나설 966
▁느끼는 966
▁대리 966
▁보입니다 966
▁세계의 966
▁제주도 966
양이 966
▁세계를 965
▁씨는 965
놀 965
▁국회의 964
▁깊 964
▁막기 964
▁빌려 964
▁저항 964
▁중학교 964
▁지출 964
▁객 963
▁카카오 963
▁건강한 962
▁넓은 962
▁미국에 962
▁빚 962
▁연말 962
▁원인이 962
▁평생 962
승을 962
시고 962
▁걸릴 961
▁시는 961
▁영향이 961
▁좌우 961
▁평가가 961
드로 961
스포츠 961
하시 961
화되고 961
▁가시 960
▁깜짝 960
▁값 959
▁대하여 959
▁몸이 959
▁문화가 959
▁생활을 959
▁카메라 959
화하고 959
▁법인 958
▁소프트웨어 958
▁아니지만 958
▁얼굴을 958
▁정도가 958
놓고 958
산은 958
층에 958
하기가 957
▁갑 956
▁도출 956
▁빗 956
▁역할 956
분에 956
시티 956
▁400 955
▁50% 955
▁다음달 955
▁당부했다 955
▁돌파 955
▁사용자 955
▁제조업 955
▁주에 955
단과 955
실로 955
이로 955
칭 955
▁결승 954
▁끊임없이 954
▁냈다 954
▁심의 954
▁화면 954
▁하던 953
▁걸려 952
▁단백질 952
▁대사 952
▁동영상 952
▁청소 952
▁확실히 952
▁들려 951
▁번째로 951
▁사고로 951
▁안보 951
시까지 951
업이 951
▁가스 950
▁동원 950
▁능 949
▁문학 949
▁비슷 949
▁체포 949
▁초점을 949
회장 948
.6 947
▁발효 947
▁사법 947
▁주력 947
계에 947
됐 947
둥 947
조선 947
▁고교 946
▁역사적 946
▁이승 946
▁한층 946
션이 946
월에는 946
조가 946
▁곳이다 945
▁앞으로도 945
▁회사는 945
세에 945
셀 945
판이 945
▁관측 944
▁대표하는 944
▁말에 944
▁받는다 944
니아 944
▁임명 943
▁한정 943
▁내게 942
▁참여할 942
아서 942
증권 942
▁아니었다 941
▁아마존 941
님의 941
셔 941
준다 941
▁관계자 940
▁그리스 940
관계를 940
셔서 940
정부가 940
.9% 939
▁너를 939
▁방영 939
▁재판에 939
폴 939
▁흔히 938
배가 938
았지만 938
이하 938
▁내리 937
▁미중 937
▁성장을 937
▁위험이 937
▁주장을 937
▁출산 937
망이 937
시키 937
▁곳을 936
▁존중 936
물과 936
▁데는 935
▁뜻이다 935
체로 935
▁기회 934
▁스웨덴 934
▁일종의 934
▁입증 934
▁춤 934
름이 934
여명의 934
▁계획이 933
▁국회의원 933
▁죄 933
항공 933
▁기자회견을 932
▁열었다 932
▁즐거운 932
▁진행할 932
조정 932
해지는 932
▁『 931
▁멀 931
▁왼쪽 931
▁민주 930
▁입력 930
렸습니다 930
부장 930
▁보지 929
▁슈퍼 929
▁않았던 929
▁에너지를 929
▁오염 929
▁죄송합니다 929
시장이 929
▁맛있는 928
▁수준을 928
▁지역은 928
종합 928
죄 928
▁규칙 927
▁않을까 927
▁준비를 927
미터 927
▁느낌 926
▁소리가 926
▁프로그램이 926
▁현금 926
휴 926
▁맞지 925
▁청와대가 925
지사 925
▁늦게 924
▁맞은 924
프가 924
하더라도 924
▁고객의 923
▁부각 923
▁증권 923
사고 923
▁지금도 922
▁학교에서 922
▁세워 921
▁자신들의 921
▁찾기 921
로의 921
▁경제가 920
▁기록한 920
▁무료로 920
▁정책이 920
.9 919
▁무려 919
▁봤다 919
▁쌀 919
▁장식 919
주로 919
▁대립 918
▁도달 918
▁보내는 918
▁사용하고 918
▁아이디어 918
목이 918
?" 917
▁36 917
▁떨어지는 917
▁얻은 917
▁이슈 917
색을 917
운영 917
▁KBS 916
▁던 916
▁목숨을 916
▁방식이 916
▁아무것도 916
▁정지 916
▁콘 916
라의 916
집을 916
▁건조 915
▁문건 915
▁운송 915
▁정확 915
바이 915
어나 914
.7% 913
60 913
▁늘어나 913
▁분석이다 913
▁이게 913
납 913
▁연구가 912
▁저를 912
▁중국에서 912
롭게 912
▁사용해 911
▁세계적으로 911
▁인지 911
드릴게요 911
▁경계 910
▁까 910
▁높게 910
▁얼 910
▁화려한 910
느냐 910
전략 910
2) 909
IT 909
▁방지 909
▁생각에 909
▁완전 909
료는 909
같이 908
스러 908
약을 908
었으며 908
율은 908
▁실시간 907
▁접속 907
▁조사하고 907
▁체크 907
시험 907
짜리 907
▁궁금 906
▁꼽 906
▁분석한 906
▁애니메이션 906
▁편성 906
억원의 906
.2% 905
▁네이버 905
▁담고 905
▁여론 905
▁주제 905
▁진료 905
▁질문을 905
자도 905
▁규 904
▁날씨가 904
▁분야에 904
방에 904
진과 904
▁기재 903
▁등도 903
▁때문이에요 903
▁빅데이터 903
▁생길 903
▁위축 903
▁죄송하지만 903
▁텐데 903
▁현상을 903
진흥 903
le 902
▁1990 902
▁법원 902
▁중에는 902
▁탑승 902
간다 902
사업을 902
었으나 902
위와 902
지구 902
▁나라의 901
▁사전에 901
▁선교 901
▁현장에 901
이와 901
전으로 901
▁국내에서 900
▁만든다 900
▁세금 900
▁것들이 899
▁내다봤다 899
▁너에게 899
▁딱 899
시킨다 899
케이 899
▁금액 898
▁언급한 898
▁후속 898
중이 898
▁소비자가 897
▁지분 897
▁환자가 897
노조 897
례를 897
▁뛰 896
▁변호사 896
▁생태 896
▁이뤄진 896
내기 896
터를 896
▁단위 895
▁않아서 895
▁추적 895
▁풍부한 895
보세요 895
심의 895
해보 895
▁CCTV 894
▁명시 894
▁생겨 894
▁원을 894
▁가해 893
▁인터뷰에서 893
▁차지했다 893
수도 893
줬 893
텐 893
▁관련이 892
▁질병 892
널 892
it 891
▁노동자 891
▁일주일 891
▁적어도 891
▁행사에 891
컨 891
▁제공하고 890
▁좋겠다 890
▁컨 890
▁허위 890
▁그림을 889
▁매달 889
▁사이트 889
▁정체 889
▁허가 889
공단 889
행정 889
▁개념을 888
▁많아서 888
▁베이징 888
▁불가 888
▁주인공 888
▁직원들이 888
하길 888
▁보자 887
▁시대의 887
의료 887
▁아베 886
▁자세히 886
감은 886
.6% 885
▁들여 885
▁보냈 885
▁셀 885
▁추진하는 885
사무 885
식품 885
엽 885
활동을 885
▁가격은 884
▁기온이 884
▁바다 884
▁배경 884
▁연예 884
▁재난 884
▁좋겠어요 884
▁합동 884
▁갔 883
▁기여 883
▁나선다 883
▁없으면 883
▁위에서 883
▁응급 883
▁이루어진 883
▁전까지 883
▁폐기 883
시대 883
▁갈등 882
▁과목 882
▁나타난 882
▁빛을 882
▁약간 882
▁질환 882
▁착용 882
▁칠 882
공간 882
렸고 882
▁국가대표 881
▁몸에 881
▁발견된 881
▁수준이 881
▁업체가 881
▁직전 881
▁협상이 881
호는 881
▁다루 880
▁단독 880
▁오지 880
꾼 880
음악 880
▁사이버 879
▁오직 879
▁우리를 879
▁인재 879
▁진행될 879
하는지 879
하셨 879
12 878
▁극복 878
▁못한다 878
▁부분에 878
▁샘플 878
▁장르 878
색이 878
한데 878
▁기업은 877
▁워싱턴 877
▁일자리를 877
▁주었다 877
▁다수의 876
▁발전을 876
▁작업이 876
렸 876
릿 876
설이 876
안의 876
이어 876
▁가능성은 875
▁국방부 875
▁사례를 875
▁없게 875
칼 875
▁균형 874
▁무시 874
▁시공 874
▁자살 874
▁제시한 874
▁창원 874
구로 874
▁경쟁력을 873
등급 873
시키기 873
약이 873
합의 873
▁기록을 872
▁마세요 872
▁석탄 872
▁아마도 872
▁주목을 872
▁쥐 872
▁훌륭한 872
마를 872
▁국무위원장이 871
▁늘어날 871
▁맺 871
▁지내 871
갔 871
사이 871
▁많지 870
▁벤 870
▁보유하고 870
▁부정적인 869
▁분쟁 869
▁아무도 869
▁유발 869
▁차이를 869
처가 869
▁맹 868
▁모색 868
께서 868
둔 868
였고 868
자본 868
at 867
▁붉은 867
▁일정이 867
▁한다면 867
.1% 866
▁번도 866
▁책은 866
▁학술 866
값 866
▁37 865
▁매입 865
▁물에 865
▁하겠다 865
자금 865
지요 865
풀 865
▁들어가는 864
▁법정 864
▁보면서 864
▁여부 864
▁유행 864
▁이내 864
▁진술 864
▁찍은 864
률은 864
밍 864
▁런던 863
▁에스 863
석은 863
▁모르 862
▁커다란 862
▁행위를 862
.3% 861
▁변화에 861
▁손님 861
▁손에 861
▁일어나는 861
▁출장 861
법인 861
코리아 861
하였으며 861
▁권고 860
▁닭 860
▁똑같은 860
▁비난 860
▁서울대 860
▁어디서 860
▁취득 860
률을 860
억원이 860
▁간에 859
▁감정을 859
▁국민연금 859
▁묻 859
▁복잡 859
▁아티스트 859
▁있을까 859
▁저렴한 859
▁최신 859
▁환불 859
되는데 859
주와 859
현이 859
▁65 858
▁반발 858
▁법안 858
▁없는데 858
▁전파 858
▁주변에 858
▁채권 858
▁추구 858
ic 857
▁과제 857
▁국가가 857
▁꼬 857
렁 857
일의 857
.4% 856
▁듣는 856
▁자원 856
▁포착 856
된다면 856
쓰 856
▁대책을 855
▁이해하고 855
▁징 855
▁플 855
▁현대차 855
▁회장의 855
▁가져다 854
▁원내대표 854
▁추석 854
웨 854
▁걸린 853
▁광고를 853
▁답했다 853
▁몰아 853
▁위원장 853
럼 853
자동차 853
책을 853
.8% 852
▁내놓 852
▁입장이다 852
▁종이 852
▁기사를 851
▁뼈 851
▁수익을 851
▁토지 851
▁필요할 851
해줄 851
▁떠난 850
▁미군 850
▁성공적으로 850
▁어렵다는 850
▁감각 849
▁블 849
▁아침에 849
▁품목 849
전쟁 849
(7 848
▁간단한 848
▁내지 848
▁세상 848
▁아니라고 848
▁중소 848
▁차가 848
회와 848
15 847
▁이름은 847
▁즐기는 847
종이 847
▁195 846
▁관측이 846
▁뒤를 846
▁받아야 846
▁아들이 846
▁작품이 846
▁제공할 846
▁페이 846
세포 846
큐 846
▁겪는 845
▁부채 845
▁심각 845
▁입법 845
▁펀드 845
▁쇼핑몰 844
▁연락을 844
▁켜 844
꽃 844
협의 844
▁거리가 843
▁김씨는 843
▁동기 843
▁라인 843
▁마시 843
▁오른쪽 843
▁조사한 843
기에는 843
당한 843
▁가능할 842
▁구간 842
▁담겼다 842
▁배우는 842
▁보조 842
▁이슬람 842
▁제도를 842
▁진행한 842
룸 842
▁30% 841
▁라디오 841
▁삭제 841
▁예외 841
위에서 841
▁김종 840
▁찬성 840
치료 840
▁들을 839
▁물리학 839
▁받기 839
▁부진 839
▁서울의 839
▁얘기다 839
▁음식이 839
▁전기차 839
▁주장하는 839
▁징계 839
▁치열한 839
비로 839
오고 839
▁배가 838
▁수면 838
▁업데이트 838
몽 838
았다고 838
터가 838
▁고대 837
▁문화예술 837
▁보건 837
▁얻어 837
▁오면 837
▁워 837
▁증상이 837
가로 837
이라서 837
▁남녀 836
▁막을 836
▁획득 836
수한 836
회의에서 836
▁100% 835
▁나오지 835
▁무엇 835
▁신고를 835
▁테러 835
핀 835
되었으며 834
멘 834
포를 834
-2 833
▁대통령을 833
▁많습니다 833
▁협상을 833
시간을 833
▁김성 832
▁발언을 832
▁보인 832
되거나 832
비의 832
중앙 832
▁부서 831
▁중국은 831
것 831
▁근처 830
▁벨 830
조사를 830
히고 830
▁세상에 829
▁어려움이 829
져야 829
▁내놓은 828
▁다이 828
▁들은 828
▁모습으로 828
▁선출 828
▁수사가 828
기념 828
모가 828
앙 828
CC 827
▁기대가 827
▁남겨 827
▁사항 827
▁추세 827
▁오래된 826
▁의지 826
▁할머니 826
퇴 826
학습 826
▁기각 825
▁누적 825
▁살펴보면 825
▁아이템 825
▁증가했다 825
▁기상 824
▁머물 824
▁표면 824
▁프리 824
▁한때 824
▁가상 823
▁뿌 823
킨 823
▁PC 822
▁당분간 822
▁대외 822
▁대처 822
▁특검 822
성장 822
▁역량을 821
▁원내대표는 821
▁점에 821
▁정식 821
났다 821
크가 821
호의 821
▁기다려 820
▁나한테 820
▁듣 820
▁이후에 820
제한 820
졌 820
첩 820
▁대표팀 819
▁바닥 819
▁방북 819
▁보았다 819
▁거론 818
▁삶 818
▁시간과 818
▁요금 818
▁준비가 818
▁토요일 818
체육 818
▁모델을 817
억원으로 817
용이 817
▁끝나고 816
▁나누 816
▁무역전쟁 816
▁방어 816
▁성폭력 816
▁편지를 816
기준 816
신은 816
역에서 816
AI 815
▁성격 815
▁얘기를 815
▁을 815
▁이곳 815
아의 815
없 815
▁공익 814
▁광주시 814
▁그중 814
절을 814
타운 814
▁지표 813
▁그걸 812
▁나은 812
▁사람과 812
▁스크린 812
▁연구원은 812
▁입원 812
▁지원이 812
▁검출 811
▁대한항공 811
▁리더 811
▁봐야 811
▁선적 811
▁차원의 811
▁최근에 811
선거 811
천만 811
해진다 811
▁생겼 810
▁제정 810
관으로 810
센터에서 810
▁1980 809
▁도서 809
▁아빠 809
▁영향력을 809
권과 809
리에서 809
명한 809
문제 809
미술 809
전과 809
▁당사 808
▁인프라 808
▁투자가 808
내가 808
비와 808
십시오 808
화학 808
냈 807
복을 807
였지만 807
▁드리겠습니다 806
▁이른 806
잖아요 806
틱 806
▁비싸 805
▁실종 805
▁안정적인 805
▁웹툰 805
▁주기 805
▁필요로 805
라서 805
▁같았다 804
▁갤럭시 804
▁기준이 804
▁높이고 804
▁보여주 804
▁분석을 804
▁있다며 804
찰 804
프를 804
▁드러나 803
▁묘사 803
▁십 803
▁트위터 803
릉 803
▁무대에 802
▁신임 802
▁주가 802
분석 802
우고 802
▁기획재정부 801
▁늘었다 801
▁마감 801
▁사건은 801
▁올라가 801
▁중반 801
▁현재는 801
ing 800
▁급격히 800
▁느낌이 800
▁스튜디오 800
▁어린이집 800
▁잠을 800
▁컬러 800
과정 800
됐습니다 800
됐으며 800
드릴 800
사들의 800
트리 800
24 799
▁39 799
▁됐 799
▁방치 799
▁하나님의 799
▁흥미 799
경쟁 799
생산 799
▁끝나 798
▁안전한 798
▁야외 798
▁유연 798
▁자카르타 798
▁지식을 798
▁컸다 798
▁확인했다 798
사항 798
선과 798
형은 798
▁기업에 797
▁당한 797
▁믿고 797
▁서명 797
딜 797
발을 797
서로 797
조직 797
▁것이며 796
▁보내고 796
▁불을 796
▁산림 796
▁승객 796
▁제기됐다 796
결을 796
▁갖추고 795
▁고개를 795
▁명예 795
▁비디오 795
▁재판부는 795
▁창의 795
▁퇴근 795
났 795
들이다 795
받지 795
w 794
▁놀라 794
▁느낌을 794
▁문화적 794
▁속도로 794
▁아닐 794
류가 794
핵 794
▁늘어 793
▁모으고 793
▁북측 793
▁심한 793
▁제출한 793
▁펼쳐 793
매를 793
세의 793
▁가속 792
▁댓글 792
▁맡고 792
▁비행기 792
▁친구들이 792
▁특별히 792
▁했을 792
이던 792
하러 792
▁종로구 791
▁중국과 791
▁2005 790
▁농촌 790
▁방해 790
▁의지가 790
▁이어진 790
▁이주 790
▁전투 790
▁흐름을 790
년도 790
▁궁 789
▁명령 789
▁지나치게 789
▁탄소 789
기관이 789
둘 789
바이오 789
이드 789
▁김정 788
▁뒤로 788
▁본인이 788
▁엠 788
▁진행됐다 788
에스 788
▁결론을 787
▁국민이 787
▁금요일 787
▁단속 787
▁입장이 787
▁주관 787
▁권력 786
▁높았다 786
▁더해 786
▁받으 786
▁조사됐다 786
차로 786
▁근처에 785
▁소요 785
▁시대를 785
▁양의 785
▁채워 785
짐 785
pop 784
▁센 784
▁앉 784
▁코리아 784
▁특징을 784
▁회의를 784
이었던 784
흐 784
▁들어갔다 783
▁새해 783
▁성공을 783
▁이해하는 783
▁주최 783
▁포기 783
▁해체 783
겼다 783
교통 783
도에서 783
컵 783
▁거기에 782
▁남편 782
▁넘치는 782
▁아름다 782
▁중국에 782
학자 782
▁강요 781
▁났 781
▁미얀마 781
▁별다른 781
▁소송을 781
▁압수수색 781
▁임신 781
▁태양광 781
는데요 781
랄 781
랩 781
져서 781
▁가요 780
▁과도한 780
▁대량 780
▁사건에 780
▁없도록 780
▁남부 779
▁방안이 779
▁봤 779
▁없다면 779
▁이곳은 779
▁일본이 779
▁잊지 779
▁적발 779
▁지방선거 779
▁태도를 779
▁폭력 779
▁감시 778
▁경우에 778
▁배려 778
▁승리를 778
▁존재한다 778
▁추모 778
▁출석 778
씨에게 778
▁너무나 777
▁받았습니다 777
▁비교해 777
▁세운 777
▁이루 777
▁확신 777
▁활동에 777
국에서 777
되도록 777
렬 777
▁공동으로 776
▁기뻐 776
▁않았다는 776
▁조건을 776
샤 776
스럽게 776
자들과 776
▁소식 775
기까지 775
연맹 775
즈가 775
▁나타난다 774
▁냈 774
▁매주 774
▁썼 774
▁예산을 774
▁유족 774
▁재료 774
▁지금의 774
▁포스코 774
결과 774
석의 774
학이 774
▁거두 773
▁그랬 773
▁레스토랑 773
▁밟 773
▁부르는 773
▁빙 773
▁상생 773
▁세탁 773
▁적어 773
개로 773
▁MBC 772
▁그만 772
▁늘어나고 772
▁월드 772
길을 772
매가 772
벤 772
실과 772
▁분위기 771
▁선도 771
▁성적을 771
▁세월호 771
▁수를 771
▁열릴 771
▁탑재 771
▁흉 771
튼 771
향을 771
▁병원에 770
▁시점 770
▁인상을 770
놓은 770
들에게는 770
래요 770
성도 770
▁공동체 769
▁싫어 769
▁운영하고 769
▁특유의 769
국과 769
칙 769
▁났다 768
▁바꿀 768
▁발생해 768
▁섭취 768
▁역량 768
▁이용하여 768
▁현장을 768
로서의 768
산에 768
자원 768
FC 767
▁도는 767
▁서버 767
▁어쩔 767
▁여겨 767
당과 767
대출 767
▁그와 766
▁이탈 766
▁자격 766
▁잠재 766
▁청약 766
르게 766
밭 766
종을 766
▁부정적 765
▁여기는 765
▁있었다고 765
▁투어 765
되었 765
양의 765
▁국무 764
▁내야 764
▁배우고 764
▁사회에 764
▁탑 764
리스트 764
▁나가는 763
▁나면 763
▁확인한 763
굴 763
졌던 763
찌 763
▁끝까지 762
▁부실 762
▁세계에 762
▁왔습니다 762
▁촉 762
▁놀이 761
▁벌이고 761
▁안으로 761
▁음성 761
▁장면이 761
▁재미있 761
▁효율 761
금리 761
병을 761
▁올바른 760
▁조달 760
▁지적이다 760
▁해상 760
가스 760
기획 760
리면서 760
▁문화의 759
▁산업의 759
▁역할이 759
▁이거 759
▁쟁 759
▁종류 759
▁증가하는 759
▁추진하고 759
범죄 759
연한 759
▁간주 758
▁공통 758
▁남긴 758
▁명절 758
▁미니 758
▁생각할 758
▁카드를 758
사건 758
생활을 758
어질 758
25 757
▁가공 757
▁샤 757
▁졸 757
▁촉구했다 757
▁커질 757
▁흐름 757
림을 757
액은 757
양을 757
캐 757
▁2006 756
▁고려하면 756
▁달에 756
▁동생 756
▁된다면 756
▁말로 756
▁블랙 756
▁애플 756
▁음료 756
▁회사에서 756
받았다 756
판에 756
▁급등 755
▁기본적으로 755
▁스티븐 755
▁연휴 755
▁일본에서 755
▁일어날 755
▁읽고 755
▁주어 755
▁펜 755
▁함께하는 755
▁현실을 755
▁"“ 754
▁먹어 754
▁별도의 754
▁식물 754
▁이재명 754
▁잡은 754
▁찌 754
기업이 754
시즌 754
입니까 754
층을 754
▁각자 753
▁계좌 753
▁수급 753
▁이해가 753
▁자아 753
▁하니 753
군을 753
유가 753
쟁 753
주시면 753
지인 753
체계 753
▁부활 752
▁의도 752
▁친구를 752
▁클라우드 752
렉 752
사랑 752
정과 752
▁가졌다 751
▁모임 751
▁시에 751
▁인식이 751
▁한글 751
문은 751
연구소 751
이스 751
▁김해 750
▁논의를 750
▁또다시 750
▁맡아 750
각을 750
기만 750
하나요 750
v 749
▁경비 749
▁내릴 749
▁있으 749
▁크기 749
다니 749
세는 749
체험 749
0% 748
▁바깥 748
▁성남 748
▁페스티벌 748
교육청 748
90 747
▁감지 747
▁나노 747
▁나아 747
▁상호작용 747
▁생기는 747
▁숙박 747
인들에게 747
▁가지는 746
▁드립니다 746
▁사회가 746
▁있었어요 746
▁정해 746
▁포인트 746
검사 746
사들은 746
▁공시 745
▁구미 745
▁맞이 745
▁위기를 745
▁크리스 745
미는 745
▁몰랐 744
▁비싼 744
▁쏠리고 744
▁어른 744
▁재현 744
▁짐 744
▁철거 744
▁치매 744
▁해제 744
시장에서 744
▁동참 743
▁떠올 743
▁분해 743
▁실질적인 743
▁전통적인 743
겠어 743
군에 743
더라 743
식에서 743
회의를 743
18 742
▁그나마 742
▁보며 742
▁생일 742
▁성분 742
▁소형 742
▁이성 742
▁잠깐 742
건으로 742
드리겠습니다 742
료로 742
르지 742
st 741
▁43 741
▁가르 741
▁대답 741
▁앙 741
▁예상되는 741
▁움직이는 741
▁은퇴 741
▁자치 741
▁총리 741
▁하셨 741
▁한강 741
고의 741
안과 741
▁꺾 740
▁아이폰 740
까지도 740
단으로 740
호선 740
▁이스라엘 739
▁찍어 739
▁걷 738
▁납 738
▁높고 738
▁미친 738
▁보러 738
▁빠져나 738
▁상품이 738
▁위기에 738
보자 738
시장의 738
▁드는 737
▁적합한 737
▁차량이 737
▁창립 737
▁촉진 737
하라는 737
▁과학기술 736
▁무관 736
▁벤처 736
▁설치된 736
▁장점이 736
겼 736
드립니다 736
레스 736
▁경쟁력 735
▁무용 735
▁조금만 735
▁한미 735
▁협조 735
움이 735
포럼 735
▁도덕 734
고에 734
려서 734
정으로 734
중국 734
털 734
▁고소 733
▁유력 733
▁인간은 733
▁전체를 733
▁중독 733
▁지각 733
▁집권 733
리어 733
트와 733
▁갈등을 732
▁건의 732
▁느 732
▁전직 732
▁정상이 732
롬 732
했다가 732
▁기상청은 731
▁들어갈 731
▁신청을 731
▁억 731
▁완벽한 731
▁일본은 731
▁추구하는 731
▁충격 731
법으로 731
았어요 731
욕 731
▁봉사 730
▁상임 730
▁소규모 730
▁한국어를 730
▁휴대폰 730
마가 730
으니까 730
▁긍정적 729
▁무한 729
▁본인 729
▁북한에 729
▁쉽 729
▁실업 729
▁오르 729
▁일도 729
▁차량을 729
▁한데 729
올림픽 729
졌을 729
▁기반을 728
▁무척 728
▁보여준 728
▁정권 728
부로 728
▁맞서 727
▁바람에 727
▁수천 727
▁실적이 727
▁알려주 727
▁이곳에서 727
▁전세 727
▁주주 727
기업의 727
렛 727
ol 726
▁둘러 726
▁목사 726
▁줄어든 726
라스 726
웨이 726
17 725
re 725
▁흔 725
데이 725
면이 725
무역 725
민주 725
타를 725
하시는 725
▁못하게 724
▁복원 724
▁선물을 724
▁전후 724
▁편리 724
겐 724
론은 724
직한 724
∼2 723
▁눈물을 723
▁정책에 723
▁특정한 723
▁티켓 723
▁환자의 723
시아 723
시장은 723
차에 723
판매 723
▁193 722
▁원내대표가 722
만여 722
모를 722
봤 722
▁결론 721
▁다행히 721
▁모양 721
▁살해 721
▁소수 721
▁이곳에 721
▁체제 721
▁추락 721
▁탄핵 721
넷 721
스크 721
▁곳곳에 720
▁권리 720
▁모습은 720
▁소환 720
▁시사 720
▁알리는 720
▁일정한 720
▁화합 720
▁무대를 719
▁완전한 719
▁자리가 719
▁죽은 719
▁환경이 719
▁흰 719
심에서 719
▁개인정보 718
▁만화 718
▁살인 718
▁처음에는 718
렸던 718
방에서 718
▁가족과 717
▁기본적인 717
▁의하면 717
▁조현 717
▁케이블 717
▁해결하기 717
▁해결할 717
자고 717
점의 717
▁끌었다 716
▁사용하지 716
▁서구 716
▁설명을 716
▁신앙 716
▁우리나라의 716
▁읽어 716
▁있었다는 716
▁줬 716
은행이 716
▁그들 715
▁나이가 715
▁시민들의 715
▁시험을 715
▁워낙 715
▁타이 715
되지만 715
만은 715
부분 715
써 715
하자는 715
▁금방 714
▁물었다 714
▁불가능한 714
▁자금을 714
▁중동 714
▁하늘 714
롤 714
윈 714
▁e 713
▁그렇 713
▁기업을 713
▁돕는 713
▁묶 713
▁실시한 713
▁영국의 713
▁정부에 713
▁중입니다 713
평화 713
▁가슴 712
▁댄스 712
▁모인 712
▁보여주고 712
▁보증 712
▁실망 712
▁이상으로 712
국으로 712
이니 712
자나 712
▁48 711
▁근육 711
▁날아 711
▁조명 711
▁친구와 711
장애인 711
▁규모로 710
▁논란을 710
▁배당 710
▁신뢰를 710
▁재배 710
▁출마 710
단지 710
▁꺼내 709
▁바라보는 709
▁선택한 709
▁에어 709
▁협약 709
답 709
사법 709
활 709
IS 708
▁대표의 708
▁알지 708
▁유럽연합 708
▁임원 708
▁중의 708
▁방식이다 707
▁백악관 707
▁연금 707
▁요구했다 707
용으로 707
청에 707
할게요 707
행사 707
14 706
▁기술의 706
▁드러냈다 706
▁매력을 706
▁사장이 706
▁요인 706
▁의미다 706
▁자가 706
팀은 706
프는 706
해왔 706
IC 705
▁놀라운 705
▁분자 705
▁싶지 705
▁아내 705
▁약속을 705
▁주재 705
▁코스 705
랐 705
면의 705
장인 705
축제 705
▁곳곳에서 704
▁화장 704
공연 704
에서부터 704
▁가능한가요 703
▁감안하면 703
▁경제의 703
▁계절 703
▁뭔가 703
▁사람도 703
▁성사 703
▁영어로 703
▁이정 703
▁찾아가 703
고용 703
였다고 703
일본 703
패를 703
▁골목 702
▁근거로 702
▁긍정 702
▁기분 702
▁널 702
▁독일의 702
▁묻는 702
▁이뤄지지 702
기록 702
법의 702
보증 702
시쯤 702
▁끈다 701
▁든다 701
▁맛을 701
▁밝은 701
▁분이 701
▁소비자의 701
▁순위 701
▁외교부 701
▁위치를 701
▁정규 701
▁하나인 701
▁호소 701
기기 701
▁것들을 700
▁넘어서 700
▁못했던 700
▁보고서를 700
▁서민 700
▁서양 700
▁예전 700
▁주체 700
▁헌법 700
배를 700
▁김태 699
▁단어 699
▁디자이너 699
▁손해배상 699
▁신발 699
▁진정 699
▁추출 699
▁파악하고 699
▁휴가 699
혹 699
▁변호 698
▁선택할 698
▁재발 698
▁전체의 698
▁준비한 698
등을 698
로로 698
역에 698
표가 698
▁꼽힌다 697
▁방출 697
▁법원이 697
▁사용되는 697
▁우즈베키스탄 697
▁지어 697
빌 697
았다는 697
100 696
▁끝내 696
▁띄 696
공동 696
교육을 696
영의 696
▁거짓 695
▁이름으로 695
▁이영 695
▁일고 695
▁카카오톡 695
▁팀을 695
생명 695
유를 695
▁3, 694
▁굳이 694
▁답변을 694
▁떼 694
▁시대가 694
▁씨의 694
▁양쪽 694
▁요구를 694
▁자문 694
▁퇴직 694
색으로 694
▁2022 693
▁기존에 693
▁기호 693
▁논란 693
▁범행 693
▁사회를 693
▁자영업 693
▁즐겨 693
▁탁 693
건에 693
시다 693
심사 693
탐 693
▁거대 692
▁검은 692
▁담배 692
▁대상을 692
▁뒤늦게 692
▁무렵 692
▁벌인 692
▁연관 692
▁일요일 692
▁저지 692
트에서 692
행한 692
▁목격 691
▁문화재 691
▁바닷 691
▁패널 691
▁포함되어 691
▁활용하는 691
혔다 691
▁김씨가 690
▁나섰 690
▁디스플레이 690
▁산불 690
▁수수료 690
▁아버지가 690
▁예수 690
▁제기한 690
▁핸드폰 690
님께서 690
위원회의 690
▁낫 689
▁되는데 689
▁사용자가 689
▁쓰레기 689
▁입장에서 689
▁전송 689
객이 689
픽 689
▁고객에게 688
▁붙어 688
▁유아 688
▁투수 688
▁파티 688
▁판매하는 688
▁합병 688
▁항목 688
스토 688
어지고 688
▁국경 687
▁바라는 687
▁상관없이 687
▁않았고 687
▁원칙 687
▁유효 687
▁전체가 687
▁책임이 687
▁피곤 687
드와 687
Q 686
▁걱정이 686
▁구별 686
▁농민 686
▁배터리 686
▁버스를 686
▁소중한 686
▁싫 686
▁온도 686
▁장면을 686
▁제게 686
▁초래 686
▁텍스트 686
▁항의 686
님께 686
크를 686
폭이 686
풍이 686
▁갖추 685
▁거절 685
▁규제를 685
▁도중 685
▁보냈다 685
▁얻는 685
▁충분 685
그룹이 685
님은 685
잠 685
▁42 684
▁끌어올 684
▁맛있 684
▁무상 684
▁별도로 684
▁시작됐다 684
▁쏠 684
▁용인 684
▁자료에 684
▁전담 684
▁주류 684
립니다 684
신문 684
에서만 684
헤 684
▁검사를 683
▁보좌 683
▁솔 683
▁유의 683
▁주문한 683
▁챙겨 683
▁개발에 682
▁경찰의 682
▁높여 682
▁선진 682
▁아까 682
몬 682
치와 682
16 681
▁가격에 681
▁물류 681
▁부부 681
▁송금 681
▁아이들을 681
▁않는다고 681
▁요인이 681
▁요청한 681
락을 681
이터 681
▁SBS 680
▁불거 680
▁소년 680
▁영상이 680
▁웅 680
▁차지하고 680
▁해마다 680
13 679
▁600 679
▁대장 679
▁생기 679
▁스트 679
▁입국 679
골을 679
들과의 679
▁늘어나는 678
▁두산 678
▁때보다 678
▁방침 678
▁붙여 678
▁어디로 678
▁임상 678
▁점수를 678
▁진행한다 678
▁학생들에게 678
경에 678
려야 678
▁건데 677
▁시민단체 677
▁시작해 677
▁크지 677
렀다 677
롭 677
▁강연 676
▁개발을 676
▁구성되어 676
▁로마 676
▁병역 676
▁선택을 676
▁선호하는 676
▁요청했다 676
▁움직임이 676
▁진로 676
가구 676
럴 676
▁44 675
▁가려 675
▁다니 675
▁동해 675
▁방식은 675
▁블루 675
▁조심 675
들로부터 675
분께 675
스테 675
열을 675
으로도 675
인다 675
▁게다가 674
▁김현 674
▁높다는 674
▁메인 674
▁통보 674
밤 674
▁기업과 673
▁서류를 673
▁회사를 673
가량 673
조의 673
▁뮤직비디오 672
▁실험을 672
▁이걸 672
▁일하고 672
▁정상회담이 672
▁정의당 672
▁지진 672
▁취약 672
▁혜 672
론의 672
부에서 672
선으로 672
크는 672
▁55 671
▁배경으로 671
▁사용이 671
▁선배 671
▁애초 671
▁일본에 671
▁주된 671
▁즐겁게 671
▁한쪽 671
▁확충 671
뜨 671
여행 671
연대 671
줘야 671
▁기후 670
▁날씨 670
▁말하면 670
▁모았다 670
▁이로 670
▁충격을 670
▁평창 670
당에서 670
림이 670
연을 670
형으로 670
▁드리 669
▁이루고 669
▁주실 669
▁통하여 669
▁판매가 669
곳이 669
닥 669
▁‘2019 668
▁김민 668
▁김재 668
▁넌 668
▁보고서 668
▁분노 668
▁분들이 668
▁일제 668
▁좋겠습니다 668
7) 667
▁그들을 667
▁다루는 667
▁동맹 667
▁민주노총 667
▁배울 667
▁사우디 667
▁앞선 667
▁연봉 667
▁월요일 667
▁편이다 667
▁해가 667
▁헤어 667
체인 667
▁방송을 666
▁붙잡 666
▁이같은 666
▁참여했다 666
짓 666
5% 665
5) 665
AR 665
▁감동 665
▁날짜 665
▁넣고 665
▁북쪽 665
▁인터 665
▁자전거 665
▁작성한 665
▁차세대 665
끼리 665
무가 665
베이 665
▁내리는 664
▁느끼 664
▁말하고 664
▁반대하는 664
▁상황은 664
▁서울에서 664
▁소개했다 664
▁연락이 664
▁이메일 664
▁주가가 664
am 663
▁교육의 663
▁뒷받침 663
▁말도 663
▁밤에 663
▁병원으로 663
▁사업의 663
▁아기 663
▁참여를 663
▁청주 663
▁폭이 663
상담 663
▁가량 662
▁등장하는 662
▁문자 662
▁베이 662
▁유지하고 662
▁포럼 662
▁한계 662
▁한국문화 662
▁형태를 662
▁격려 661
▁다니는 661
▁대통령에게 661
▁적합 661
▁줄을 661
▁중국을 661
▁즐 661
▁총리는 661
▁태어나 661
드라마 661
▁글이 660
▁다를 660
▁몽 660
▁미사일 660
▁않는다면 660
▁자체를 660
▁탓 660
럽 660
멸 660
철도 660
▁가르쳐 659
▁맞고 659
▁오프라인 659
▁원천 659
▁재생 659
▁지향 659
법상 659
인권 659
했다면 659
▁같아서 658
▁끈 658
▁사태 658
▁살아가는 658
▁쓰지 658
▁얼굴이 658
▁연구개발 658
▁자동으로 658
▁추정된다 658
▁포괄 658
▁프로그램은 658
가들이 658
이게 658
▁결의 657
▁깨달 657
▁대변 657
▁법무부 657
▁사회에서 657
▁아니야 657
▁의결 657
▁전반에 657
▁진학 657
▁처분 657
동은 657
식에는 657
▁상태에 656
▁인구가 656
▁측의 656
▁포털 656
▁하나를 656
처를 656
▁가능하게 655
▁결과로 655
▁들면 655
▁시위 655
▁아이디어를 655
▁여지가 655
▁특성 655
▁현황 655
▁건강을 654
▁겉 654
▁게재 654
▁맡았다 654
▁물품 654
▁뭘 654
▁식사를 654
▁위해선 654
▁최악의 654
되었던 654
▁방금 653
▁법을 653
▁오를 653
▁유럽의 653
▁자국 653
▁진행했다 653
▁판단이 653
시설을 653
▁X 652
▁고통을 652
▁무조건 652
▁이루는 652
▁일부를 652
▁조치가 652
▁하려고 652
만에 652
여성 652
여야 652
▁거리를 651
▁대해선 651
▁분산 651
▁빵 651
▁하거나 651
감에 651
▁고기 650
▁발생한다 650
▁수여 650
▁일치 650
▁지적도 650
▁합의를 650
관계가 650
았는데 650
팩 650
▁몰입 649
▁아픈 649
▁정작 649
▁증언 649
▁행사에는 649
수익 649
였다는 649
3) 648
es 648
▁귀국 648
▁빨라 648
▁뿌리 648
▁유용 648
▁유일하게 648
▁협업 648
구에서 648
잉 648
재는 648
쳤 648
▁거죠 647
▁기자가 647
▁도구 647
▁듯하다 647
▁있어도 647
다운 647
운동을 647
▁1970 646
▁개선을 646
▁대략 646
▁미만 646
▁자신에게 646
▁코너 646
▁헬 646
룩 646
사람 646
설을 646
위원회를 646
자산 646
▁걸그룹 645
▁교육이 645
▁내용에 645
▁범위 645
▁우울 645
▁일자 645
▁조만간 645
▁지사 645
▁출국 645
▁120 644
▁부착 644
▁수의 644
▁않았을 644
▁의사가 644
▁입시 644
▁저기 644
가족 644
공개 644
재의 644
정책을 644
▁서로를 643
▁않았다고 643
▁양이 643
▁열려 643
▁조회 643
▁좋고 643
▁준공 643
▁총괄 643
묵 643
8) 642
▁기대감이 642
▁독점 642
▁무너 642
▁성공한 642
▁스타일 642
▁흘 642
부문 642
센터가 642
▁강경 641
▁답을 641
▁대륙 641
▁되도록 641
▁롤 641
▁문화에 641
▁비롯 641
▁빛의 641
▁살펴 641
▁성적이 641
▁시정 641
▁않다고 641
▁재미 641
▁제어 641
▁지역이 641
▁한창 641
담을 641
자로서 641
퍼센트 641
▁가까워 640
▁기억이 640
▁매수 640
▁발의 640
▁삼성전자가 640
▁혼란 640
드에 640
통을 640
펀드 640
환이 640
▁강력 639
▁기간에 639
▁보도가 639
교를 639
내며 639
리라 639
삭 639
정치 639
▁교육부 638
▁높일 638
▁스탠 638
▁입금 638
▁프로젝트를 638
▁형식 638
음은 638
해서는 638
et 637
▁190 637
▁거로 637
▁남쪽 637
▁배운 637
▁신인 637
▁있으므로 637
▁주행 637
▁태어난 637
▁합쳐 637
▁흥미로운 637
주지 637
중에 637
▁끝나면 636
▁불만을 636
▁음식은 636
▁인류 636
▁투명 636
▁활성화를 636
▁경찰과 635
▁김수 635
▁다행 635
▁발생하지 635
▁선보인 635
▁성폭행 635
▁올리는 635
▁천천히 635
모델 635
시간에 635
피해 635
▁관계에 634
▁그곳 634
▁밀려 634
▁밥을 634
▁번에 634
▁어렵게 634
▁위주로 634
▁조사에 634
륜 634
웠 634
▁가맹 633
▁결정이 633
▁고전 633
▁교육과정 633
▁학생들을 633
워요 633
조합 633
▁곤 632
▁공중 632
▁관리가 632
▁나눔 632
▁나타날 632
▁넘겨 632
▁높이기 632
▁모습이다 632
▁사람들과 632
▁상용 632
▁이념 632
▁지붕 632
▁환경에 632
들었다 632
조건 632
주민 632
한국시간 632
ou 631
▁드릴게요 631
▁발견됐다 631
▁스토 631
▁엔진 631
▁유지하는 631
▁의혹에 631
▁추측 631
허가 631
▁결정하는 630
▁구상 630
▁기업들의 630
▁놓여 630
▁동아 630
▁미국을 630
▁번호 630
▁빛이 630
▁성취 630
▁특성상 630
▁판결을 630
▁호흡 630
▁후에는 630
령이 630
안보 630
어지는 630
여개 630
5000 629
▁부딪 629
▁위탁 629
▁좋겠어 629
▁주인 629
시장에 629
자료 629
(8 628
PS 628
▁간호 628
▁물러 628
▁여론이 628
▁연료 628
▁이기 628
▁저하 628
▁준비하고 628
▁테이블 628
목을 628
비에 628
소비 628
실의 628
▁가중 627
▁나서는 627
▁러 627
▁부부가 627
▁설명할 627
▁심장 627
▁여기에서 627
▁오고 627
▁우승을 627
▁주장한다 627
창업 627
▁Y 626
▁관리를 626
▁나누어 626
▁해안 626
본을 626
1) 625
▁과거의 625
▁기술은 625
▁신제품 625
▁아이의 625
▁훈련을 625
공급 625
톡 625
회담 625
▁때문이었다 624
▁직접적인 624
▁추산 624
▁파는 624
달라고 624
음으로 624
젤 624
▁논문 623
▁드라마를 623
▁라이 623
▁매개 623
▁무게 623
▁시작할 623
▁존재하지 623
▁지사가 623
▁지상 623
▁팝 623
념 623
에게도 623
용품 623
학은 623
▁개척 622
▁기간을 622
▁노무현 622
▁되어야 622
▁마련된 622
▁매력 622
▁미래에 622
▁상관 622
▁없던 622
▁잡았다 622
▁추정되는 622
▁팀의 622
▁파리 622
▁판단을 622
▁하나도 622
▁하루에 622
▁효과적으로 622
고도 622
고등학교 622
해양 622
▁2002 621
▁46 621
▁거주하는 621
▁남자가 621
▁느끼고 621
▁들어오 621
▁만일 621
▁서해 621
▁세균 621
▁유지할 621
▁재미있는 621
▁조사가 621
▁중재 621
▁합류 621
으려고 621
조에 621
▁관심과 620
▁나타나고 620
▁면에서 620
▁비중을 620
▁엇갈 620
▁웃음을 620
▁이수 620
말을 620
보기 620
▁80% 619
▁길게 619
▁노선 619
▁마음으로 619
▁많다는 619
▁메시지 619
▁살아남 619
▁생각하지 619
▁이명박 619
▁인적 619
▁잃은 619
▁자꾸 619
▁한계를 619
▁확실한 619
가격 619
임에도 619
전시 619
줍니다 619
▁대피 618
▁미뤄 618
▁시진핑 618
▁없었습니다 618
▁오랜만에 618
▁완벽하게 618
▁유동 618
▁재판을 618
▁주신 618
▁철저한 618
▁필요성을 618
딘 618
소송 618
였는데 618
짜 618
하므로 618
호텔 618
▁강남구 617
▁겨우 617
▁경쟁을 617
▁보여줄 617
▁신용카드 617
▁잃 617
▁정규직 617
▁즐거 617
▁택배 617
▁혐의가 617
그러 617
파가 617
플레이 617
▁가기 616
▁그렇지만 616
▁내외 616
▁명을 616
▁있겠 616
▁캠페인 616
▁협력을 616
법과 616
유의 616
▁5·18 615
▁마리 615
▁성격을 615
▁일부가 615
▁줄일 615
▁처음부터 615
달라 615
▁3·1 614
▁거래가 614
▁국토 614
▁듀 614
▁등급 614
▁마이 614
▁올리 614
▁젖 614
였어요 614
오늘 614
치게 614
▁나란히 613
▁메일을 613
▁발매 613
▁벌어진 613
▁비서 613
▁성과가 613
▁성능 613
▁전주 613
▁해군 613
▁행위가 613
▁활발 613
▁효과적인 613
업에 613
이크 613
쥐 613
▁70% 612
▁도내 612
▁막대한 612
▁물리적 612
▁사이즈 612
▁삶이 612
▁시스템이 612
▁여수 612
▁주장이다 612
▁찾지 612
▁패턴 612
경은 612
령을 612
▁고향 611
▁나라가 611
▁논리 611
▁민주주의 611
▁바뀐 611
▁반박 611
▁서울시가 611
▁순수 611
▁엄마가 611
▁옛날 611
▁정말로 611
▁지난주 611
▁차기 611
▁혈액 611
▁개인이 610
▁결정했다 610
▁구매할 610
▁근로자 610
▁남편이 610
▁동작 610
▁맞추 610
▁비정규직 610
▁사안 610
▁시작한다 610
▁일어났 610
▁중에서도 610
미디어 610
왔던 610
터는 610
프로그램 610
행위 610
▁구단 609
▁비판을 609
▁없나요 609
▁오르는 609
▁자기가 609
▁지명 609
▁화제를 609
년째 609
부산 609
▁고스란히 608
▁도시의 608
▁성범죄 608
▁소속사 608
▁순환 608
▁정해진 608
▁컨설팅 608
왔습니다 608
편의 608
▁관여 607
▁기술과 607
▁남북정상회담 607
▁딸이 607
▁유권 607
▁일관 607
▁입찰 607
▁주어진 607
▁학교를 607
▁화물 607
랜 607
렸어요 607
즈를 607
항을 607
is 606
▁건강보험 606
▁구속영장을 606
▁발을 606
▁사장은 606
▁소상공인 606
▁수준에 606
▁신분 606
▁우려를 606
▁프랑 606
4) 605
▁독서 605
▁동시 605
▁밴 605
▁수강 605
▁이르기까지 605
▁이후로 605
▁자라 605
▁차관 605
▁한국으로 605
주의를 605
즈는 605
집이 605
9) 604
▁경찰청 604
▁당연 604
▁밖 604
▁배상 604
▁선정된 604
▁세트 604
▁시가 604
▁언급했다 604
▁외무 604
▁조례 604
▁촉구 604
▁나빠 603
▁되었 603
▁변형 603
▁병원에서 603
▁요소가 603
▁익숙 603
▁인용해 603
▁좋아합니다 603
▁주문을 603
▁준비하는 603
▁호텔에서 603
석에 603
200 602
▁경기에 602
▁고객을 602
▁더는 602
▁받았 602
▁빼앗 602
▁윤리 602
▁청도 602
▁40% 601
▁CEO 601
▁굳 601
▁당국은 601
▁옳 601
▁원전 601
▁혼합 601
국인 601
톱 601
▁공략 600
▁구경 600
▁말까지 600
▁문서 600
▁보게 600
▁실력을 600
▁않았어요 600
▁일대 600
▁줄여 600
▁중심이 600
▁탈출 600
미의 600
치기 600
편이 600
▁관세를 599
▁기관이 599
▁나왔 599
▁다양하게 599
▁당국이 599
▁메이 599
▁목적이 599
▁의원들이 599
▁자세한 599
▁전제 599
▁주말에 599
개선 599
기반 599
느 599
인도 599
조는 599
콩 599
혔 599
▁구성하는 598
▁금액을 598
▁김치 598
▁나누고 598
▁만났 598
▁범위를 598
▁분석해 598
▁아이들의 598
▁어쩌면 598
▁전원 598
▁편하게 598
▁훈 598
가능 598
미국 598
억원에 598
촉 598
▁규모는 597
▁리더십 597
▁막아 597
▁북한은 597
▁블로그 597
▁성장할 597
▁수주 597
▁심화 597
▁연기를 597
▁지방자치단체 597
▁집계 597
▁하위 597
장에게 597
▁김지 596
▁벌금 596
▁벨기에 596
▁속의 596
▁원소 596
▁인용 596
▁피해자가 596
▁하나다 596
시한 596
효과 596
▁180 595
▁5000 595
▁나타내는 595
▁때에는 595
▁만남 595
▁부당 595
▁소비자들이 595
▁손으로 595
▁앤이 595
▁약을 595
▁위험을 595
▁작품은 595
▁장치 595
▁흡 595
으므로 595
음에 595
▁갖는다 594
▁고려할 594
▁고속도로 594
▁드릴 594
▁목포 594
▁방식의 594
▁생각보다 594
▁선생님이 594
▁시의 594
▁시작하는 594
▁왔어요 594
▁전수 594
▁조사에서 594
▁집안 594
▁합의가 594
되던 594
색의 594
서도 594
신과 594
적이었다 594
▁공원 593
▁기름 593
▁봐도 593
▁사용을 593
▁수업이 593
▁철강 593
▁현직 593
웠던 593
의원 593
▁들여다 592
▁마련한 592
▁생태계 592
▁시청자들의 592
▁여유 592
▁영입 592
▁철저히 592
▁해석이 592
적이며 592
21 591
▁감축 591
▁고위급 591
▁궁금증을 591
▁받아들여 591
▁북미정상회담 591
▁인생 591
▁제기된다 591
▁지키 591
▁피의자 591
벤처 591
▁2004 590
▁고등 590
▁공무 590
▁구체 590
▁나타났 590
▁들어온 590
▁문제와 590
▁억제 590
▁정도는 590
▁조리 590
▁참여하고 590
기관의 590
낙 590
키로 590
▁가능하며 589
▁광화문 589
▁대부분은 589
▁되길 589
▁발주 589
▁얻었다 589
▁위의 589
▁이동통신 589
▁정도다 589
▁치킨 589
▁한식 589
격이 589
▁매매 588
▁멍 588
▁보복 588
▁보세요 588
▁비율 588
▁솔로 588
▁예산이 588
▁한해 588
관련 588
만원이 588
실한 588
▁과정은 587
▁기대감을 587
▁들어갔 587
▁라이브 587
▁작곡 587
▁제도가 587
▁축적 587
▁커버 587
뢰 587
아는 587
줬다 587
▁공약 586
▁교통사고 586
▁둔화 586
▁성격이 586
▁접목 586
▁지지를 586
▁출신의 586
▁탈퇴 586
▁한복 586
▁홀로 586
로워 586
센터는 586
▁경주 585
▁끝날 585
▁맥주 585
▁못하면 585
▁속한 585
▁아무래도 585
▁인터뷰를 585
▁장난 585
▁주민들의 585
▁지은 585
▁참가한 585
▁찾았다 585
화해 585
▁간부 584
▁낳 584
▁등장한 584
▁빨간 584
▁신라 584
▁오사카 584
▁의회 584
▁이상한 584
▁재건축 584
▁증시 584
▁추진할 584
▁흙 584
았을 584
은행의 584
희가 584
▁극장 583
▁남해 583
▁띠 583
▁미안 583
▁아우 583
▁위험한 583
▁집이 583
▁챔피언 583
▁편입 583
▁프레 583
당에 583
방향 583
이면서 583
6) 582
el 582
▁관계자들이 582
▁높였다 582
▁비타민 582
▁색깔 582
▁서로의 582
▁씻 582
▁아이들은 582
▁이해를 582
▁자칫 582
▁출연해 582
공장 582
동안 582
만달러 582
만원의 582
중인 582
▁가짜 581
▁건지 581
▁김동 581
▁반영된 581
▁분석된다 581
▁설비 581
▁연일 581
▁화제가 581
름을 581
맛 581
준이 581
▁경위를 580
▁이해하기 580
▁자신들이 580
▁전인 580
▁제작한 580
▁춤을 580
▁크리스마스 580
▁한일 580
산과 580
시설이 580
웃 580
태가 580
om 579
▁2,000 579
▁가난한 579
▁관련하여 579
▁권리를 579
▁균 579
▁눈으로 579
▁뛰어나 579
▁선생 579
▁순천 579
▁스테 579
▁어깨 579
▁중순 579
▁지원할 579
▁편의점 579
▁하노이 579
공사가 579
데이터 579
▁관리하는 578
▁그렇다고 578
▁급여 578
겠네요 578
교류 578
년과 578
지수 578
28 577
▁구체적 577
▁그곳에 577
▁드론 577
▁마침내 577
▁법칙 577
▁비용은 577
▁삶에 577
▁수치 577
▁연구의 577
▁조율 577
▁좋아해요 577
▁중요하다고 577
▁필요해요 577
거리를 577
됐을 577
장한 577
정상 577
현대 577
▁가방 576
▁감상 576
▁곽 576
▁땅을 576
▁부대 576
▁장을 576
▁집값 576
▁화재가 576
▁힘입어 576
넬 576
문화를 576
박한 576
시장을 576
▁느낀 575
▁산업혁명 575
▁시상 575
▁영역을 575
▁외환 575
▁요소를 575
▁주목할 575
▁파일 575
▁한국에서는 575
해야만 575
해져 575
홀에서 575
▁놓은 574
▁생겼다 574
▁이미지가 574
▁이후에도 574
▁임직원 574
▁자유를 574
▁증폭 574
위원장이 574
▁5,000 573
▁곱 573
▁교육과 573
▁발생하고 573
▁발전에 573
▁산소 573
▁성립 573
▁유리한 573
▁있기를 573
▁적정 573
▁제시했다 573
▁주시면 573
▁크기가 573
▁하시 573
은행은 573
청소년 573
테크 573
▁m 572
▁구조가 572
▁다리 572
▁돌아오 572
▁면제 572
▁선포 572
▁여자가 572
▁재벌 572
▁조언 572
▁해결을 572
▁수술을 571
▁신약 571
▁이루어져 571
▁파워 571
▁확보한 571
▁희망을 571
량과 571
면에서 571
비아 571
통이 571
▁남한 570
▁달아 570
▁무릎 570
▁서울에 570
▁알아야 570
▁양산 570
▁없으며 570
▁오류 570
▁음주 570
▁일환으로 570
▁잇 570
▁저렴 570
▁전달하는 570
▁종사 570
▁코스닥 570
▁해방 570
교가 570
선에서 570
업무 570
으세요 570
인당 570
채를 570
풍을 570
▁250 569
▁CJ 569
▁경제를 569
▁그릇 569
▁되었고 569
▁맥락 569
▁바꾸는 569
▁비리 569
▁사항을 569
▁안녕하세요 569
▁예쁜 569
▁읽는 569
▁잊 569
▁종전선언 569
▁죽음 569
▁학생의 569
▁활발한 569
듬 569
▁검찰의 568
▁납품 568
▁도착한 568
▁싱글 568
▁어머니가 568
▁인물이 568
▁전에는 568
▁좁 568
눈 568
졌어요 568
▁거친 567
▁독립운동 567
▁미래의 567
▁선행 567
▁운동이 567
▁이론을 567
▁적혀 567
▁제공해 567
▁현지에서 567
뇌 567
로에 567
루가 567
사한 567
펀 567
하이 567
▁갑니다 566
▁걸리는 566
▁결정할 566
▁공직 566
▁관람객 566
▁목회 566
▁배정 566
▁변화는 566
▁아르헨티나 566
▁염두에 566
▁일각에서는 566
▁취하고 566
▁칭찬 566
▁필요성이 566
냐고 566
대사 566
밀하게 566
산물 566
팀의 566
▁가톨릭 565
▁매니저 565
▁수출이 565
▁아울러 565
▁일자리가 565
▁포함돼 565
▁회전 565
▁횡령 565
닌 565
램 565
피를 565
▁가계 564
▁구성원 564
▁국회가 564
▁다음으로 564
▁메일 564
▁모니터링 564
▁사진은 564
▁사태가 564
▁앤은 564
▁언니 564
▁저녁에 564
▁평범한 564
느라 564
산으로 564
▁가득한 563
▁개를 563
▁고조 563
▁닿 563
▁때로는 563
▁적용해 563
▁제외하고 563
▁주변의 563
▁해주세요 563
▁확률이 563
른다 563
쇠 563
▁BMW 562
▁규정을 562
▁대표와 562
▁데이 562
▁많은데 562
▁북부 562
▁의해서 562
▁있었기 562
공을 562
막을 562
만명이 562
용을 562
이어서 562
피가 562
▁갖 561
▁견인 561
▁관중 561
▁교사가 561
▁몰래 561
▁사퇴 561
▁성공적인 561
▁입장에서는 561
▁정신을 561
달라는 561
던데 561
리오 561
시켰 561
주도 561
▁근거가 560
▁비대 560
▁원인으로 560
▁투자자 560
▁판결이 560
▁확실 560
▁황금 560
거리는 560
적은 560
▁개념이 559
▁과제를 559
▁너와 559
▁떡 559
▁붓 559
▁예배 559
▁융 559
▁이어져 559
▁재고 559
▁전략이 559
▁제재를 559
▁지역사회 559
▁착수 559
▁취급 559
▁펴 559
끔 559
어와 559
티브 559
▁2021 558
▁공정거래 558
▁국내에 558
▁급락 558
▁나누는 558
▁녹색 558
▁담당하는 558
▁대안 558
▁만나고 558
▁박물 558
▁산업이 558
▁상처 558
▁야당 558
▁오리 558
▁이종 558
▁정책의 558
▁정황이 558
▁제품으로 558
근로 558
살을 558
스턴 558
우의 558
처는 558
친다 558
▁개성 557
▁경상 557
▁규제가 557
▁다들 557
▁뒤집 557
▁목적을 557
▁믿을 557
▁브렉시트 557
▁삼아 557
▁안산 557
▁잡지 557
▁줄이 557
▁진심으로 557
▁패스트트랙 557
▁해킹 557
▁확대를 557
▁흥행 557
기술을 557
기에서 557
타임 557
해지 557
▁근본적인 556
▁남자는 556
▁득점 556
▁사용하여 556
▁시민이 556
▁아니요 556
▁왜곡 556
▁출제 556
▁커졌다 556
▁후보는 556
미래 556
적이지 556
300 555
▁가능해 555
▁불꽃 555
▁상처를 555
▁예정된 555
▁원유 555
▁이하의 555
▁컴 555
▁투기 555
▁투쟁 555
▁프로그램에 555
▁힘들다 555
르기 555
북한 555
산화 555
살이 555
서비스를 555
자리 555
자연 555
자치 555
▁건물이 554
▁뚫 554
▁마시고 554
▁발견했다 554
▁쇠 554
▁수차례 554
▁역사가 554
▁요리를 554
▁이르면 554
간에 554
두를 554
머니 554
협정 554
▁가맹점 553
▁거래소 553
▁국악 553
▁기원 553
▁불편한 553
▁설명하는 553
▁셰 553
▁시켜 553
▁실감 553
▁이혼 553
▁찾아볼 553
▁평가다 553
▁표현을 553
▁했으나 553
▁활동하고 553
조치 553
투표 553
(201 552
▁검토하고 552
▁김상 552
▁때의 552
▁무역분쟁 552
▁생산하는 552
▁크다는 552
라운드 552
산업의 552
클럽 552
35 551
▁3000 551
▁금액이 551
▁때문이라고 551
▁뷰티 551
▁연구에 551
▁이목이 551
▁전시회 551
▁중고 551
▁힘들어 551
》 551
러가 551
사용 551
연금 551
참여 551
청년 551
SNS 550
▁먹으면 550
▁문화와 550
▁사내 550
▁사망한 550
▁안고 550
▁컵 550
▁휴대전화 550
까지만 550
담당 550
스티 550
왔 550
졌기 550
POP 549
z 549
▁2003 549
▁고수 549
▁때문으로 549
▁발표를 549
▁상무 549
▁지원한다 549
▁추억 549
값이 549
루를 549
ay 548
▁가능성 548
▁공간으로 548
▁극단 548
▁기여할 548
▁드디어 548
▁신한 548
▁약한 548
▁이용자 548
▁제안했다 548
▁진실 548
▁책이 548
▁태권도 548
▁한참 548
▁확인하는 548
과정에서 548
보건 548
▁기아 547
▁김진 547
▁보육 547
▁산책 547
▁서술 547
▁세금을 547
▁영장 547
▁예상했다 547
▁이들에게 547
▁절감 547
▁체계를 547
▁허리 547
급을 547
영은 547
주시기 547
증은 547
협의회 547
▁경제에 546
▁기다리 546
▁농도가 546
▁당황 546
▁대단 546
▁모델이 546
▁본인의 546
▁불만이 546
▁요구가 546
▁이내에 546
▁토트넘 546
▁허락 546
▁혹 546
교육청은 546
본다 546
인들을 546
▁47 545
▁겨 545
▁고장 545
▁남아있 545
▁넥센 545
▁떨어질 545
▁벤투 545
▁부모가 545
▁아닌가 545
▁엄청나게 545
▁올랐 545
▁용이 545
▁유포 545
▁의장 545
▁진동 545
▁커플 545
▁환율 545
밀한 545
시로 545
크로 545
팀을 545
▁대단히 544
▁맞춘 544
▁밝혀졌다 544
▁여섯 544
▁이뤄졌다 544
▁종일 544
▁준비해 544
▁줍니다 544
등이 544
▁결과적으로 543
▁깃 543
▁말씀을 543
▁모래 543
▁방문하는 543
▁벌였다 543
▁블랙홀 543
▁셈 543
▁안전하게 543
▁의미로 543
▁주관하는 543
▁중요성을 543
▁즉각 543
그리고 543
금의 543
번호 543
사령 543
즘 543
▁대학에 542
▁민주당이 542
▁생각하면 542
▁연결하는 542
▁염색 542
▁이벤트를 542
▁저널리즘 542
▁폭로 542
델 542
역으로 542
▁1∼2 541
▁기성 541
▁레드 541
▁물질이 541
▁부른다 541
▁쌓아 541
▁자리매김 541
▁작가가 541
▁제안한 541
▁증가할 541
는데도 541
사항을 541
작을 541
.”" 540
PC 540
▁강조한 540
▁건강에 540
▁나라를 540
▁도움 540
▁미팅 540
▁본질 540
▁사후 540
▁스위 540
▁아내가 540
▁적게 540
▁전략적 540
▁춘천 540
▁펀 540
▁포스터 540
급여 540
아리 540
졌으며 540
▁규모를 539
▁그녀를 539
▁분포 539
▁불편을 539
▁이어가고 539
▁줄이고 539
규모 539
보지 539
▁김경수 538
▁끝났 538
▁대여 538
▁등장했다 538
▁못했습니다 538
▁무선 538
▁사로잡 538
▁심사를 538
▁작가의 538
▁제기된 538
파를 538
▁강조하는 537
▁거울 537
▁근로시간 537
▁높아질 537
▁상가 537
▁수색 537
▁언론에 537
▁이르 537
▁자료가 537
▁지역으로 537
기간이 537
량에 537
방의 537
비스 537
차전 537
축구 537
BS 536
▁《 536
▁개통 536
▁굽 536
▁나서고 536
▁나타 536
▁될지 536
▁유학생 536
▁지니고 536
▁지목 536
▁팬들은 536
▁환경에서 536
니가 536
센터를 536
장관 536
지기도 536
황을 536
▁가능하다는 535
▁골키퍼 535
▁리스트 535
▁버닝썬 535
▁부천 535
▁유죄 535
▁타는 535
건축 535
상황 535
27 534
▁간편 534
▁뉴스를 534
▁밀집 534
▁비로소 534
▁사건과 534
▁선보였다 534
▁쏘 534
▁아니에요 534
▁열리고 534
▁요청을 534
▁의류 534
▁장착 534
▁전체적으로 534
▁콘텐츠가 534
년대에 534
피아 534
▁거래를 533
▁급증 533
▁기사가 533
▁끊이지 533
▁끝나는 533
▁나지 533
▁선사 533
▁설문 533
▁성향 533
▁썼다 533
▁않으며 533
▁장소를 533
▁절차가 533
▁진주 533
▁침체 533
기능 533
들고 533
주의적 533
▁인스타그램 532
▁일본인 532
▁전문가들이 532
▁제고 532
▁중요하게 532
▁하세요 532
▁해석된다 532
습을 532
▁군산 531
▁살짝 531
▁양승태 531
▁육군 531
▁전세계 531
▁치열 531
▁튀 531
이션 531
합니까 531
NA 530
▁2∼3 530
▁그거 530
▁번의 530
▁생명을 530
▁업체들이 530
▁쳐 530
▁편이 530
적일 530
▁고객들이 529
▁고성 529
▁국민들이 529
▁목사는 529
▁받으며 529
▁사라진 529
▁선을 529
▁섬유 529
▁손상 529
▁어릴 529
▁진출을 529
▁쾌 529
▁플랫폼을 529
장치 529
지사가 529
황이 529
▁LA 528
▁가능하도록 528
▁곳곳 528
▁내용이다 528
▁대화가 528
▁돌봄 528
▁드러난 528
▁명확히 528
▁보고서는 528
▁신흥 528
▁입니다 528
▁줄이는 528
▁지원하고 528
▁짧 528
▁큐 528
▁활발하게 528
계획을 528
사업이 528
음과 528
줘서 528
▁개가 527
▁것만 527
▁공개됐다 527
▁돌아온 527
▁발령 527
▁부산시 527
▁사람들도 527
▁소외 527
▁여성들이 527
▁여성을 527
▁탈락 527
▁회의에서 527
금과 527
랐다 527
최근 527
▁독자 526
▁들었습니다 526
▁무장 526
▁물질을 526
▁에너지가 526
▁오해 526
▁전반적인 526
▁정한 526
▁합리적인 526
계와 526
온다 526
체제 526
통합 526
▁김기 525
▁네티즌 525
▁대표적 525
▁동영상을 525
▁뭐가 525
▁불거진 525
▁새끼 525
▁서부 525
▁속으로 525
▁스토리 525
▁연기가 525
▁일할 525
▁지사는 525
치지 525
크의 525
회계 525
▁김용 524
▁되기를 524
▁똑같이 524
▁방문할 524
▁스트레스 524
▁업계의 524
▁외면 524
▁조건이 524
▁줄었다 524
▁중심에 524
▁출간 524
▁혐오 524
군과 524
길에 524
켓 524
° 523
▁권한을 523
▁그럼에도 523
▁김포 523
▁마련해 523
▁매진 523
▁무리 523
▁뭉 523
▁믿는 523
▁산화 523
▁수단으로 523
▁영토 523
▁온갖 523
▁움직임을 523
▁지낸 523
▁집은 523
▁청원 523
▁합의한 523
▁해줄 523
운데 523
ES 522
▁공화 522
▁궤 522
▁농협 522
▁배포 522
▁뻔 522
▁산출 522
▁수단 522
▁시술 522
▁신도시 522
▁신축 522
▁원장은 522
▁이루어지는 522
▁키우는 522
▁팩 522
신고 522
주의가 522
BA 521
▁간다 521
▁거기 521
▁규명 521
▁누구도 521
▁늦은 521
▁득 521
▁많을 521
▁문제점을 521
▁물건이 521
▁박사 521
▁변호사는 521
▁시리아 521
▁예약을 521
▁유망 521
▁학교가 521
▁학원 521
금으로 521
짝 521
▁54 520
▁방학 520
▁보내주세요 520
▁유독 520
▁응용 520
▁이집트 520
▁직면 520
로드 520
조로 520
주시겠어요 520
주의의 520
키는 520
프리 520
BC 519
▁49 519
▁가족들이 519
▁각기 519
▁고속 519
▁그들에게 519
▁기소된 519
▁내리고 519
▁달러를 519
▁목록 519
▁성경 519
▁아래로 519
▁아웃 519
▁여부가 519
▁예정이라고 519
▁예정인 519
▁지능 519
▁태도 519
▁판매를 519
▁한동안 519
감사 519
23 518
▁과학적 518
▁구독 518
▁대비해 518
▁미용 518
▁미치지 518
▁생각은 518
▁여객 518
▁의사소통 518
▁이뤄지는 518
▁이야기는 518
▁주시기 518
▁진술을 518
▁짐을 518
괴 518
등록 518
로도 518
았어 518
▁감수 517
▁고무 517
▁산정 517
▁소멸 517
▁소장 517
▁아닐까 517
▁외출 517
▁이겨 517
▁트럭 517
▁협박 517
먼트 517
쇄 517
MA 516
▁경유 516
▁고양이 516
▁과일 516
▁관할 516
▁노동당 516
▁문제다 516
▁보편 516
▁사정이 516
▁승인을 516
▁써야 516
▁영화제 516
▁웹사이트 516
▁자사 516
별로는 516
신한 516
즈의 516
편에 516
하가 516
▁2001 515
▁가벼운 515
▁강화를 515
▁세우 515
▁신입 515
▁실용 515
▁타격을 515
▁판문점 515
▁펼쳐진다 515
▁행동이 515
렸지만 515
석과 515
에너지 515
추진 515
▁경우에도 514
▁모양의 514
▁불량 514
▁사회복지 514
▁운전자 514
▁이자 514
▁책의 514
공학 514
스러워 514
스럽 514
음의 514
채널 514
타워 514
▁가족의 513
▁각자의 513
▁거둔 513
▁거세 513
▁공유하는 513
▁국회에 513
▁긍정적으로 513
▁기하 513
▁느꼈 513
▁들어와 513
▁멜 513
▁법관 513
▁없었 513
▁제안을 513
▁조별리그 513
▁좋게 513
▁줘 513
▁지루 513
▁최다 513
▁피아노 513
과도 513
생의 513
셔도 513
중심 513
차의 513
▁c 512
▁공격을 512
▁드라마가 512
▁미세먼지가 512
▁백화점 512
▁어디에서 512
▁없애 512
▁있니 512
▁적용할 512
▁주간 512
▁피할 512
적이라는 512
▁것인가 511
▁고도 511
▁그렇다 511
▁내년에 511
▁당첨 511
▁대입 511
▁도입을 511
▁돌입 511
▁되며 511
▁리콜 511
▁말이야 511
▁면담 511
▁면허 511
▁밝혔습니다 511
▁베를린 511
▁소득이 511
▁주셔서 511
▁행정부 511
봤다 511
▁75 510
▁법원행정처 510
▁복용 510
▁손님이 510
▁실시간으로 510
▁여부에 510
▁옹 510
▁인식을 510
▁주제를 510
▁판사 510
마는 510
에이 510
융합 510
정보를 510
진한 510
EC 509
▁경력 509
▁고창 509
▁데리고 509
▁뚜렷한 509
▁매운 509
▁비극 509
▁서초구 509
▁속에는 509
▁영광 509
병이 509
빠 509
수지 509
위기 509
주인 509
▁것이기 508
▁되자 508
▁떨어뜨 508
▁복구 508
▁북한과 508
▁서울과 508
▁싶어서 508
▁얻기 508
▁에어컨 508
▁지위를 508
▁차이는 508
▁측면이 508
막이 508
차원 508
▁개선이 507
▁당시의 507
▁대가 507
▁선정됐다 507
▁쉽고 507
▁올리고 507
▁우연히 507
▁조세 507
▁파손 507
▁해외에서 507
냐는 507
했으면 507
▁119 506
▁노벨 506
▁대개 506
▁박스 506
▁보도에 506
▁점포 506
▁즐기 506
▁체감 506
▁했어 506
경찰서는 506
또 506
콘텐츠 506
하시고 506
OC 505
▁56 505
▁귀가 505
▁대상에 505
▁동양 505
▁땐 505
▁별도 505
▁비준 505
▁언론의 505
▁언제든지 505
▁역전 505
▁용산 505
▁웨이 505
▁이후에는 505
▁잘하는 505
▁잡는 505
▁장관의 505
▁표현하는 505
▁형식으로 505
르면 505
사회의 505
MO 504
▁개발이 504
▁과거에 504
▁길에 504
▁납부 504
▁낭 504
▁눈빛 504
▁늘려 504
▁사례는 504
▁시청률 504
▁실적을 504
▁연내 504
▁원인은 504
▁의약품 504
▁이사회 504
▁잡을 504
▁측에 504
▁혜택 504
거든 504
곳에 504
기보다는 504
능력 504
덤 504
보다도 504
▁196 503
▁기반의 503
▁김씨 503
▁내년부터 503
▁논쟁 503
▁데에 503
▁요약 503
▁지나면 503
▁표기 503
고기 503
삼성 503
잎 503
체와 503
37 502
▁90% 502
▁기다리는 502
▁답답 502
▁데이터가 502
▁유대 502
▁있는지를 502
▁자유로운 502
▁작품의 502
▁해변 502
▁행복을 502
개월간 502
점검 502
.0% 501
▁1960 501
▁내세 501
▁마련했다 501
▁발병 501
▁아트 501
▁재활 501
▁화웨이 501
두고 501
럭 501
렸다는 501
▁겹 500
▁고백 500
▁느끼게 500
▁담보 500
▁숭 500
▁일로 500
▁일부는 500
▁저작 500
▁조종 500
▁중기 500
킬 500
▁단위로 499
▁대학의 499
▁라이프 499
▁메타 499
▁부상을 499
▁성공했다 499
▁아시아나항공 499
▁야생 499
▁우편 499
▁원의 499
▁주소 499
▁치고 499
▁포함됐다 499
▁확립 499
겠습니까 499
광고 499
니스 499
앱 499
현의 499
▁결심 498
▁그러면서 498
▁그로 498
▁방송된 498
▁부드러운 498
▁부장 498
▁브랜드를 498
▁선수들의 498
▁소감을 498
▁수학적 498
▁싶다는 498
▁운항 498
▁평화를 498
▁푸틴 498
▁후에도 498
거리가 498
곳을 498
아시아 498
으로서의 498
지역의 498
호와 498
▁강행 497
▁강화하는 497
▁갖춰 497
▁공급이 497
▁괜찮은 497
▁그녀 497
▁김모 497
▁도모 497
▁몬 497
▁민원 497
▁불가능하다 497
▁신곡 497
▁알고리즘 497
▁장비를 497
면으로 497
보았다 497
임금 497
▁25% 496
▁감성 496
▁감정이 496
▁검거 496
▁고민이 496
▁상실 496
▁설명해 496
▁시기를 496
▁신고가 496
▁실수 496
▁요구하고 496
▁침입 496
▁포도 496
감으로 496
힘 496
▁공연은 495
▁그러니까 495
▁나눌 495
▁대출을 495
▁바가 495
▁벗 495
▁봅니다 495
▁비평 495
▁빈곤 495
▁신선 495
▁의미하는 495
▁이슈가 495
▁자율주행 495
▁정수 495
▁핀 495
▁할리우드 495
역의 495
욕을 495
정부의 495
주시는 495
틸 495
하듯 495
▁57 494
▁관광객이 494
▁너도 494
▁다운 494
▁도망 494
▁미세 494
▁설립한 494
▁소상공 494
▁요인으로 494
독립 494
뱅 494
역사 494
▁800 493
▁부를 493
▁유형의 493
▁있었을 493
▁정보는 493
▁파이 493
생들이 493
있습니다 493
텔 493
26 492
▁급격한 492
▁내수 492
▁사무실 492
▁사항이 492
▁서식 492
▁시간의 492
▁실력 492
▁영화에 492
▁전국에서 492
▁전반적으로 492
▁주식을 492
▁핀테크 492
▁하도록 492
▁한꺼번에 492
▁해주는 492
가에서 492
건강 492
교사 492
길이 492
되게 492
총장 492
형에 492
Z 491
▁골을 491
▁광고는 491
▁국토교통부 491
▁꼽히는 491
▁목표는 491
▁싸움 491
▁인민 491
▁저한테 491
▁지주 491
▁초등학생 491
▁최소한 491
▁학과 491
▁효율적으로 491
같은 491
리한 491
였으며 491
예산 491
일지 491
태를 491
트라 491
EU 490
▁AP 490
▁떨어졌다 490
▁서비스는 490
▁자유한국당이 490
▁펼치고 490
보장 490
아웃 490
▁둘러싸고 489
▁디자인을 489
▁받으면 489
▁발명 489
▁보아 489
▁부지 489
▁수록 489
▁시설을 489
▁양식 489
▁엉 489
▁위대한 489
▁이어진다 489
▁장기간 489
▁제시하는 489
▁철회 489
▁첫날 489
▁체류 489
▁해결하는 489
▁현상은 489
낸다 489
방안을 489
사업에 489
속에 489
지난 489
향이 489
▁가지가 488
▁겪은 488
▁결혼을 488
▁녹아 488
▁높아진 488
▁되어서 488
▁명확한 488
▁부산의 488
▁소방당국은 488
▁예술의 488
▁움직임 488
▁일으킨 488
▁족 488
▁처방 488
▁효과는 488
▁흥미를 488
복합 488
성한 488
셨어요 488
자마자 488
현재 488
(9 487
MS 487
▁가족을 487
▁네덜란드 487
▁달린 487
▁드러내 487
▁드루킹 487
▁마련됐다 487
▁모델로 487
▁영향력이 487
▁이뤄지고 487
▁죽음을 487
▁파악할 487
사실 487
십니다 487
플러 487
▁골라 486
▁논란에 486
▁바닥에 486
▁법무 486
▁삼성전자는 486
▁세미나 486
▁신도 486
▁조지 486
▁주목받고 486
▁주시 486
▁지분을 486
▁지속될 486
▁추세다 486
▁후배 486
는지를 486
인들 486
99 485
MC 485
as 485
▁41 485
▁오후에 485
▁자존 485
▁털 485
▁텔레비전 485
프라 485
화되는 485
▁가이드 484
▁감소한 484
▁결정에 484
▁구청 484
▁대회에서 484
▁돼지 484
▁반해 484
▁벌어지는 484
▁변환 484
▁부총리 484
▁서서히 484
▁수직 484
▁요구한 484
▁요양 484
▁지방의 484
가락 484
▁그곳에서 483
▁대다수 483
▁모르고 483
▁사진과 483
▁서둘러 483
▁쉽다 483
▁신속하게 483
▁안전을 483
▁유학 483
▁이메일을 483
▁집계됐다 483
▁치솟 483
력발전 483
붙 483
상태 483
샘 483
책임 483
협약 483
▁내륙 482
▁냄새가 482
▁다음날 482
▁모르겠어요 482
▁바퀴 482
▁보이지만 482
▁블룸버그 482
▁상품은 482
▁여학생 482
▁유래 482
▁정치권 482
▁커피를 482
▁톱 482
▁표를 482
▁합리 482
▁혜택이 482
반을 482
부모 482
찰을 482
춤 482
▁강화하고 481
▁것인데 481
▁고가 481
▁그리스도 481
▁기자회견 481
▁데려 481
▁도민 481
▁받아들이 481
▁밝히 481
▁방에 481
▁임차 481
▁입건 481
▁있었어 481
▁주장하고 481
▁중국인 481
▁출현 481
기사 481
껏 481
샵 481
수석 481
▁공유하고 480
▁다채로운 480
▁민속 480
▁민중 480
▁바쁜 480
▁박성 480
▁반사 480
▁블록 480
▁성분이 480
▁소련 480
▁어울 480
▁입자 480
▁있는가 480
▁적용되는 480
▁친구는 480
▁캠프 480
▁폭염이 480
▁푸른 480
▁학생은 480
나갈 480
냉 480
느냐는 480
문으로 480
셨나요 480
유치원 480
▁t 479
▁떠오 479
▁머리가 479
▁벌어졌다 479
▁비례 479
▁여권 479
▁예컨대 479
▁유니 479
▁인터넷을 479
▁일어났다 479
▁젊은이 479
▁집중되고 479
나의 479
론에 479
숲 479
심과 479
∼201 478
▁강의를 478
▁닮 478
▁대목이다 478
▁등이다 478
▁변호사가 478
▁인근에 478
▁처분을 478
▁퍼져 478
깐 478
에게서 478
인력 478
▁Q 477
▁교차 477
▁꽉 477
▁낯선 477
▁동부 477
▁방법이다 477
▁불리 477
▁붐 477
▁저지른 477
▁집중적으로 477
▁출생 477
▁타임 477
▁파일을 477
▁하얀 477
낭 477
비서 477
업체가 477
위원회에 477
회로 477
800 476
▁3,000 476
▁60% 476
▁김성태 476
▁깔 476
▁무거운 476
▁민생 476
▁반등 476
▁속속 476
▁스트레스를 476
▁앞으로는 476
▁이룬 476
▁혁신을 476
만원으로 476
연은 476
자기 476
장에는 476
협회가 476
▁권한 475
▁당연한 475
▁명품 475
▁미생물 475
▁발라 475
▁밝 475
▁병행 475
▁불어 475
▁사랑의 475
▁사업으로 475
▁시설이 475
▁신세계 475
▁아이는 475
▁엄청 475
▁영구 475
▁이끌고 475
▁인상이 475
▁장악 475
▁최우수 475
▁하나님 475
각이 475
신에 475
위험 475
하였 475
▁거리에 474
▁곁 474
▁너한테 474
▁대결 474
▁말씀해 474
▁보이며 474
▁불평등 474
▁살려 474
▁시점에 474
▁안의 474
▁안정적으로 474
▁철수 474
▁학문 474
▁흐르는 474
마의 474
션은 474
야만 474
훈이 474
▁KB 473
▁간접 473
▁내용과 473
▁다룬 473
▁도착할 473
▁매도 473
▁무덤 473
▁무인 473
▁비핵화를 473
▁사흘 473
▁살펴보고 473
▁상환 473
▁소비자들의 473
▁쉴 473
▁신기 473
▁올릴 473
▁용의 473
▁이용자가 473
▁제기했다 473
▁짓는 473
▁쪽에 473
▁편안 473
▁확인을 473
▁회수 473
▁힐 473
례가 473
무늬 473
올해 473
하게도 473
▁결성 472
▁노력하고 472
▁노트북 472
▁말았다 472
▁배를 472
▁보건복지 472
▁사실에 472
▁손가락 472
▁신선한 472
▁앱을 472
▁육아 472
▁있거나 472
계약을 472
들인 472
아트 472
진에 472
2, 471
▁강도 471
▁기차 471
▁마침 471
▁모순 471
▁시급 471
▁아직까지 471
▁저번 471
▁전문가가 471
▁정무 471
▁지나지 471
▁터져 471
말이 471
▁걸고 470
▁난다 470
▁내려가 470
▁목적은 470
▁성장이 470
▁시작되었다 470
▁애플리케이션 470
▁어려움 470
▁여당 470
▁진전 470
▁최대의 470
▁충청 470
결정 470
놀이 470
무는 470
잘 470
퉁 470
하에 470
▁교민 469
▁국무위원장의 469
▁국어 469
▁뜻한다 469
▁범행을 469
▁분야를 469
▁수령 469
▁시드니 469
▁접할 469
▁짓고 469
▁클래식 469
▁투약 469
꼬 469
천여 469
편을 469
해주고 469
협상 469
ac 468
ch 468
▁걸리 468
▁기록하며 468
▁남는 468
▁돌아와 468
▁마찬가지 468
▁상속 468
▁상의 468
▁세상에서 468
▁온도가 468
▁정도를 468
▁정밀 468
▁차량에 468
▁커진 468
갑니다 468
따 468
러스 468
법원 468
브를 468
자유 468
프레 468
▁감동을 467
▁공부하는 467
▁기업들은 467
▁달라진 467
▁두려워 467
▁분명한 467
▁실증 467
▁예전에 467
▁유로 467
▁화성 467
▁확인된 467
값을 467
교는 467
소방 467
팅을 467
한을 467
호로 467
▁곰 466
▁과잉 466
▁국외 466
▁내놨다 466
▁동아리 466
▁보행 466
▁생긴다 466
▁소개하는 466
▁식민지 466
▁언론이 466
▁의식을 466
▁의혹과 466
▁펼 466
▁홈페이지 466
▁횟 466
보며 466
서에서 466
신용 466
신청 466
야구 466
일수록 466
효과가 466
SA 465
▁기술적 465
▁뜨 465
▁밀어 465
▁박물관 465
▁서울시는 465
▁섞 465
▁알리 465
▁운영을 465
▁원정 465
▁일으키는 465
▁자신만의 465
▁증거가 465
▁진행해 465
▁치러 465
▁털어 465
▁페이스북에 465
스카 465
에너 465
ent 464
▁공간에 464
▁늘리는 464
▁시작된다 464
▁어머니는 464
▁이른다 464
▁핫 464
▁호남 464
기자 464
남북 464
디가 464
르트 464
뱅크 464
소한 464
역은 464
책이 464
▁결과다 463
▁근데 463
▁리얼 463
▁반환 463
▁사업이다 463
▁사용한다 463
▁스토리텔링 463
▁양도 463
▁열차 463
▁일련의 463
▁자고 463
▁항암 463
결제 463
되었을 463
보수 463
재정 463
집에 463
해지면서 463
▁걸렸다 462
▁게이 462
▁과세 462
▁나오면 462
▁남북이 462
▁되찾 462
▁봐요 462
▁알리고 462
▁우려도 462
▁지원해 462
▁피부에 462
▁행사로 462
▁휴식 462
가치 462
건은 462
금지 462
동물 462
신경 462
우스 462
이므로 462
전기 462
차량 462
하우 462
▁거라 461
▁그러니 461
▁날을 461
▁면세 461
▁손해 461
▁시달 461
▁아이들 461
▁중도 461
▁첨가 461
렀 461
열이 461
ro 460
▁53 460
▁같네요 460
▁경기도가 460
▁곤란 460
▁과장 460
▁관리에 460
▁동행 460
▁복제 460
▁설탕 460
▁수렴 460
▁시점에서 460
▁야간 460
▁어렵고 460
▁여는 460
▁우유 460
▁윈 460
▁재직 460
▁조립 460
▁추가적인 460
▁펼쳤다 460
▁하천 460
▁혼자서 460
▁후회 460
유치 460
지역에 460
= 459
∼3 459
▁건물을 459
▁나간 459
▁리듬 459
▁리스크 459
▁바람을 459
▁봤을 459
▁북한을 459
▁불확실성이 459
▁원내 459
▁잠정 459
▁장관과 459
▁좋다고 459
▁주십시오 459
▁중간에 459
▁채무 459
▁청탁 459
▁추천해 459
▁캐릭터를 459
▁특징은 459
▁화를 459
▁활동하는 459
꾸 459
데다 459
맹 459
움과 459
한이 459
▁교육에 458
▁나라에서 458
▁막판 458
▁메모리 458
▁신년 458
▁영웅 458
▁익숙한 458
▁전형 458
▁제천 458
▁포토 458
▁1998 457
▁IP 457
▁가까 457
▁가령 457
▁내보 457
▁불러일으 457
▁사업자 457
▁설명이 457
▁시민의 457
▁심리적 457
▁의미에서 457
▁주의를 457
▁직원들의 457
▁추후 457
▁축제가 457
▁침묵 457
▁컸 457
▁테마 457
▁할게요 457
부르크 457
사무소 457
지검 457
하를 457
▁개인적인 456
▁구직 456
▁국토부 456
▁균형을 456
▁기업인 456
▁끝이 456
▁뒤에는 456
▁들어오는 456
▁만들어야 456
▁모르겠다 456
▁불과하다 456
▁세무 456
▁수확 456
▁시티 456
▁심판 456
▁언어를 456
▁유관 456
▁이상인 456
▁입사 456
▁적립 456
▁피의 456
▁협의를 456
▁흐름이 456
계에서 456
고사 456
나가는 456
문학 456
케어 456
▁돼서 455
▁모은 455
▁부러 455
▁상품의 455
▁선별 455
▁손쉽게 455
▁손흥민 455
▁영원히 455
▁원합니다 455
▁전국적으로 455
▁줄이기 455
▁지났 455
▁탐구 455
▁터뜨 455
렴 455
렸는데 455
·1 454
▁FA 454
▁공적 454
▁넣은 454
▁됐다고 454
▁되는지 454
▁사건으로 454
▁수업에 454
▁스마트폰을 454
▁실력이 454
▁싶었다 454
▁인생을 454
▁주면 454
▁최적의 454
▁평가하는 454
▁합법 454
기금 454
뉴스 454
인구 454
청의 454
29 453
TO 453
▁경우를 453
▁밴드 453
▁선보 453
▁소극 453
▁연결된 453
▁유인 453
▁좁은 453
▁주소를 453
▁첨 453
▁패배 453
러는 453
팝 453
폰을 453
▁NC 452
▁가격으로 452
▁곳도 452
▁교정 452
▁금강산 452
▁대조 452
▁따져 452
▁렌 452
▁마찬가지다 452
▁만나서 452
▁매력적인 452
▁메시 452
▁성추행 452
▁시나리오 452
▁시작되는 452
▁역사의 452
▁외모 452
▁이송 452
▁인간을 452
▁인사청문 452
▁차로 452
▁프랜차이즈 452
▁화해 452
교의 452
됐기 452
분으로 452
시에서 452
위원장은 452
▁관료 451
▁년간 451
▁대법관 451
▁말아야 451
▁메시지가 451
▁번호를 451
▁변수 451
▁보내주 451
▁상당의 451
▁액션 451
▁어두운 451
▁위안부 451
▁유용한 451
▁전술 451
▁제기되고 451
▁지혜 451
▁편지 451
겠지 451
공공 451
렸다고 451
심은 451
옹 451
층으로 451
ad 450
▁골든 450
▁단계에서 450
▁멈춰 450
▁물론이고 450
▁선전 450
▁성희롱 450
▁아래와 450
▁암호 450
▁연설 450
▁유가 450
▁주민이 450
덴 450
▁거기서 449
▁대중의 449
▁방식에 449
▁방을 449
▁서서 449
▁선보이는 449
▁세계가 449
▁세웠다 449
▁시스템은 449
▁얼른 449
▁해고 449
▁확인이 449
만으로도 449
선언 449
원장 449
지법 449
파의 449
+ 448
▁구매한 448
▁댄 448
▁따뜻 448
▁먹은 448
▁모은다 448
▁분기 448
▁세상이 448
▁알코올 448
▁압도 448
▁어렵습니다 448
▁왔는데 448
▁의미는 448
▁촛불 448
▁팀은 448
▁하다가 448
▁하여금 448
공유 448
다이 448
드리고 448
하긴 448
▁기기 447
▁녹음 447
▁많아요 447
▁매번 447
▁매월 447
▁모자 447
▁목사가 447
▁사립 447
▁안에는 447
▁알겠습니다 447
▁연대 447
▁정신이 447
▁정신적 447
▁주최하고 447
▁중개 447
▁지침 447
▁효율적인 447
▁후보자 447
긴다 447
더라고요 447
영을 447
파이 447
▁가능하고 446
▁가족은 446
▁것인 446
▁고맙 446
▁관절 446
▁교회가 446
▁대상은 446
▁맺고 446
▁생기면 446
▁실정이다 446
▁안팎 446
▁어때 446
▁예상보다 446
▁이렇듯 446
▁전쟁을 446
▁지내고 446
▁추상 446
▁확률 446
졸 446
통일 446
▁5% 445
▁58 445
▁가능성에 445
▁권위 445
▁금호 445
▁돌아왔다 445
▁못해서 445
▁미디어를 445
▁바이러 445
▁받았다고 445
▁비건 445
▁수시로 445
▁우린 445
▁위법 445
▁자는 445
▁죽을 445
▁타당 445
년으로 445
닐 445
맞 445
속에서 445
스럽다 445
액의 445
컴 445
400 444
▁감사를 444
▁같다고 444
▁남측 444
▁당내 444
▁수혜 444
▁시기가 444
▁아이들에게 444
▁약간의 444
▁어울리는 444
▁여가 444
▁예로 444
▁올해도 444
▁우리나라는 444
▁원격 444
▁자리잡 444
▁자제 444
▁재능 444
▁처벌을 444
계열 444
교육의 444
명에게 444
분은 444
석으로 444
싸 444
았으며 444
장도 444
지거나 444
AP 443
ed 443
un 443
▁계약이 443
▁공장을 443
▁근본 443
▁내면 443
▁더욱더 443
▁많기 443
▁무늬 443
▁무죄 443
▁발표된 443
▁선보인다 443
▁선진국 443
▁싼 443
▁유료 443
▁존경 443
▁청와대는 443
▁초콜릿 443
▁표현이 443
우를 443
▁개정안 442
▁결렬 442
▁극대 442
▁나타냈다 442
▁두드러 442
▁많았고 442
▁멀티 442
▁상하이 442
▁수신 442
▁인원이 442
▁장점을 442
▁적힌 442
▁주장한 442
▁채널을 442
▁티켓을 442
▁헌법재판 442
▁호응을 442
구청 442
리자 442
빅 442
술을 442
주간 442
▁금감원은 441
▁깊게 441
▁밖에서 441
▁스크 441
▁아직은 441
▁야기 441
▁얘기가 441
▁연애 441
▁요즘은 441
▁응시 441
▁정류 441
▁제작된 441
▁중대한 441
▁팟캐스트 441
▁혁명 441
故 441
규제 441
납니다 441
단체가 441
켜 441
프의 441
EA 440
▁굿 440
▁꽂 440
▁대표를 440
▁먹지 440
▁몰라 440
▁바라요 440
▁세우고 440
▁어렸을 440
▁이루어지고 440
▁작업에 440
▁전국의 440
▁착공 440
▁행복하게 440
동과 440
셋 440
었는지 440
정지 440
하우스 440
▁계정 439
▁광고가 439
▁바꾼 439
▁수행하는 439
▁쓰여 439
▁존재를 439
▁주시겠어요 439
▁질문이 439
▁촬영한 439
▁피로 439
▁함유 439
었으면 439
온이 439
직원 439
(19 438
45 438
▁가방을 438
▁경험과 438
▁관계는 438
▁국방부는 438
▁기쁨 438
▁남겼다 438
▁남용 438
▁달라질 438
▁비교하면 438
▁아르 438
▁어려 438
▁적절 438
▁전도 438
▁절대로 438
▁조용 438
▁쪽은 438
되었다는 438
드려 438
레이션 438
리즘 438
밸 438
어졌다 438
이상 438
있어 438
하되 438
현은 438
▁공간에서 437
▁내년도 437
▁놓인 437
▁모듈 437
▁서비스에 437
▁숫 437
▁이전의 437
▁자녀가 437
▁전쟁이 437
▁정부를 437
▁중이던 437
▁증거를 437
▁지상파 437
▁필요는 437
▁해산 437
늘 437
들보다 437
섰다 437
▁PD 436
▁경쟁력이 436
▁기대할 436
▁누군가 436
▁다르 436
▁동남아 436
▁마르 436
▁명확하게 436
▁발부 436
▁방침을 436
▁수요일 436
▁아쉬 436
▁위생 436
▁키우 436
▁하러 436
▁확대하고 436
몸 436
설에 436
웠습니다 436
으려 436
타이 436
피는 436
▁KBO 435
▁고생 435
▁구제 435
▁군사적 435
▁기준에 435
▁남지 435
▁동아시아 435
▁민감한 435
▁비롯하여 435
▁삭 435
▁원고 435
▁잃고 435
▁자세 435
▁조항 435
▁키가 435
겠고 435
대구 435
이닝 435
▁고객은 434
▁그해 434
▁멸 434
▁법원은 434
▁분야는 434
▁생애 434
▁쉬는 434
▁신경을 434
▁업무에 434
▁위치해 434
▁이의 434
▁일으키 434
▁전격 434
▁주도하는 434
▁초등 434
▁후보를 434
우주 434
우지 434
... 433
▁59 433
▁경향 433
▁기조 433
▁도시재생 433
▁뚜렷 433
▁무엇인가요 433
▁받았던 433
▁변화의 433
▁사용된 433
▁섹 433
▁여러분의 433
▁의원을 433
▁이루어진다 433
▁제품과 433
▁중복 433
▁지수 433
▁지키는 433
▁챙 433
▁파업 433
▁해설 433
가며 433
레인 433
슨은 433
졌는데 433
취를 433
▁구름 432
▁국무위원 432
▁기록이 432
▁꼽았다 432
▁나눈 432
▁노조가 432
▁많지만 432
▁말했습니다 432
▁무력 432
▁본래 432
▁샘플을 432
▁승진 432
▁차원 432
▁총장 432
▁출연한 432
뇨 432
문과 432
뷰 432
빵 432
텔레콤 432
하의 432
했었다 432
▁700 431
▁계승 431
▁김동연 431
▁달이 431
▁맞춤 431
▁밖의 431
▁상담을 431
▁선택하는 431
▁세계적 431
▁송치 431
▁언제쯤 431
▁원이 431
▁위치에 431
▁입어 431
▁컴퓨터를 431
▁코스피 431
▁팽창 431
▁평화의 431
▁포스트 431
르며 431
임은 431
재해 431
정신 431
im 430
▁4, 430
▁99 430
▁s 430
▁기억에 430
▁내부의 430
▁다리를 430
▁닥 430
▁부모님 430
▁신중 430
▁어렵 430
▁의정부 430
▁잠실 430
▁주민들은 430
▁찰 430
▁카메라를 430
▁쿼 430
▁타입 430
▁페르 430
속을 430
에겐 430
우며 430
회에서는 430
▁경기도는 429
▁규정하고 429
▁놀러 429
▁미국으로 429
▁번째는 429
▁부패 429
▁시골 429
▁안다 429
▁연상 429
▁웨 429
▁위주의 429
▁이뤄진다 429
▁이온 429
▁중이에요 429
▁토론토 429
▁하나씩 429
▁허가를 429
되기를 429
두는 429
리다 429
마켓 429
스키 429
연의 429
형과 429
▁간섭 428
▁높아졌다 428
▁대학에서 428
▁땅에 428
▁무게를 428
▁상향 428
▁않았기 428
▁있다가 428
▁출동 428
▁커지는 428
▁한달 428
되었는데 428
워드 428
지표 428
획 428
▁가열 427
▁거라는 427
▁건국 427
▁견제 427
▁국산 427
▁그것에 427
▁기자회견에서 427
▁아르바이트 427
▁언제든 427
▁완공 427
▁요구에 427
▁이목을 427
▁인식하고 427
▁일상생활 427
▁자신감을 427
▁자연스러운 427
▁정원 427
▁주방 427
▁캔 427
▁판단해 427
▁플라 427
▁확대될 427
▁활동은 427
리티 427
카페 427
해볼 427
il 426
▁교수의 426
▁구로 426
▁데서 426
▁드러 426
▁랩 426
▁방문을 426
▁백악 426
▁불고 426
▁성별 426
▁심하게 426
▁아닌지 426
▁아버지는 426
▁연수 426
▁오늘도 426
▁폴란드 426
▁홈런 426
그래 426
부담 426
세와 426
TF 425
▁가전 425
▁가지를 425
▁내용으로 425
▁닦 425
▁때에 425
▁밝혔 425
▁비자 425
▁아버지의 425
▁역사상 425
▁이가 425
▁종류가 425
▁취지로 425
▁형태가 425
셨다 425
수출 425
함은 425
희는 425
1% 424
▁1950 424
▁걸로 424
▁고려한 424
▁기온 424
▁내신 424
▁누릴 424
▁도대체 424
▁뜻으로 424
▁설명하고 424
▁시인 424
▁원료 424
▁잃어버 424
▁잉글랜드 424
▁정황 424
▁제공한 424
▁직원을 424
▁취한 424
▁폭으로 424
▁한옥 424
급이 424
됐으나 424
슨이 424
투어 424
하셔야 424
▁것임을 423
▁도약 423
▁들었어요 423
▁모범 423
▁부인이 423
▁선두 423
▁신호를 423
▁인사들이 423
▁읽을 423
▁중계 423
▁차별화된 423
▁타이틀 423
▁휴식을 423
는지는 423
반이 423
브라 423
타가 423
회사의 423
▁감사하겠습니다 422
▁격차가 422
▁경매 422
▁그것도 422
▁극우 422
▁다하겠다 422
▁대책이 422
▁반영한 422
▁소매 422
▁실리콘 422
▁영역에서 422
▁일방적으로 422
▁자금이 422
▁제이 422
▁짙 422
▁협상에 422
▁흡연 422
▁흰색 422
섰 422
적의 422
▁1.5 421
▁결정적인 421
▁관계없이 421
▁대법원장이 421
▁발견한 421
▁방법에 421
▁방이 421
▁배경을 421
▁보호를 421
▁본사 421
▁비율은 421
▁이어지 421
▁정상적인 421
▁제조업체 421
▁준수 421
▁중견 421
▁카자흐스탄 421
▁확산되고 421
경의 421
디는 421
투를 421
헬 421
ha 420
▁걱정하지 420
▁멈추 420
▁모의 420
▁번씩 420
▁불만 420
▁사용하면 420
▁손흥민이 420
▁수송 420
▁악용 420
▁연구에서는 420
▁음악이 420
▁잇는 420
▁좋아서 420
▁진압 420
▁캘리포니아 420
▁풀이 420
▁합작 420
▁확보할 420
▁환호 420
답니다 420
보로 420
시하는 420
층에서 420
22 419
▁개관 419
▁계열사 419
▁되기도 419
▁떨어지고 419
▁본격화 419
▁분석하고 419
▁브랜드가 419
▁빠르고 419
▁살펴볼 419
▁스트레 419
▁시원한 419
▁쓰러 419
▁아가 419
▁유예 419
▁장소가 419
▁전임 419
▁점령 419
▁제도다 419
▁집회 419
▁특성이 419
▁티비 419
사고가 419
-3 418
SK 418
▁그다지 418
▁대가로 418
▁도시를 418
▁복사 418
▁쌓여 418
▁오브 418
▁자신과 418
▁적대 418
▁해당한다 418
▁휴가를 418
는가 418
왕이 418
작업 418
점이다 418
지주 418
층은 418
포인트 418
하지도 418
▁갚 417
▁관행 417
▁대학이 417
▁데이트 417
▁로버트 417
▁속에서도 417
▁스파 417
▁어르신 417
▁연동 417
▁인문 417
▁전형적인 417
▁중부 417
▁처한 417
▁취업자 417
▁판정을 417
▁하나님이 417
동에서 417
랭 417
방안 417
운을 417
이익 417
할수록 417
▁갈라 416
▁공사를 416
▁그쳤다 416
▁낙태 416
▁높아지는 416
▁마스크 416
▁머무 416
▁밭 416
▁비중 416
▁빌딩 416
▁어렵다고 416
▁용역 416
▁주인이 416
▁지구의 416
▁진행되었다 416
▁파동 416
▁해를 416
▁화이트 416
기간을 416
석에서 416
았기 416
주면 416
지금 416
▁가난 415
▁궁궐 415
▁문이 415
▁밀레니얼 415
▁받았고 415
▁배후 415
▁순수한 415
▁알려지면서 415
▁업계에서는 415
▁이듬해 415
▁일본을 415
▁일시 415
▁입체 415
▁자격이 415
▁치유 415
▁태극 415
▁확대되고 415
견을 415
긋 415
시청 415
지다 415
했다며 415
600 414
▁거짓말 414
▁경찰관 414
▁동향 414
▁맺은 414
▁받아들일 414
▁버티 414
▁북핵 414
▁성형 414
▁세월 414
▁소위 414
▁알기 414
▁의도가 414
▁정성 414
▁증대 414
▁진실을 414
▁처음에 414
곳의 414
셜 414
▁김병 413
▁내의 413
▁노조는 413
▁두려 413
▁러시아의 413
▁바이러스 413
▁분당 413
▁수산 413
▁숨어 413
▁우주의 413
▁이해찬 413
▁있겠지만 413
▁제임스 413
▁클릭 413
▁항공기 413
류의 413
문화재 413
수술 413
학기 413
∼6 412
▁나라에 412
▁달했다 412
▁돌아갈 412
▁둘이 412
▁마스터 412
▁모를 412
▁몫 412
▁무역협 412
▁반입 412
▁베네수엘라 412
▁부추 412
▁불렀다 412
▁불참 412
▁소모 412
▁수거 412
▁스키 412
▁스핀 412
▁업그레이드 412
▁일제히 412
▁전염 412
▁총선 412
▁풍부 412
▁학생과 412
▁한국전쟁 412
▁해명 412
▁헤드 412
까지의 412
끈 412
끝 412
되었다고 412
디자인 412
떡 412
란이 412
문제를 412
차게 412
처에 412
▁감사드립니다 411
▁교실 411
▁교육부는 411
▁권력을 411
▁귀를 411
▁병원을 411
▁설명한다 411
▁솔직히 411
▁여유가 411
▁영세 411
▁유착 411
▁자원을 411
▁조건으로 411
▁톤 411
▁투입해 411
▁현안 411
봐도 411
소리 411
절한 411
치면 411
▁개최된 410
▁고난 410
▁그렇기 410
▁높다고 410
▁다해 410
▁배열 410
▁세력 410
▁소재로 410
▁우리도 410
▁있었는지 410
▁중요합니다 410
▁차에 410
▁차지한 410
▁참가해 410
▁참모 410
▁척추 410
▁초월 410
▁추진한다 410
▁콘텐츠의 410
▁텐 410
▁토끼 410
물질이 410
지대 410
▁가자 409
▁갔습니다 409
▁견적 409
▁고등학생 409
▁고려해야 409
▁기관의 409
▁나랑 409
▁냄새 409
▁막는 409
▁법원의 409
▁붙잡혔다 409
▁세제 409
▁신의 409
▁신조 409
▁씨를 409
▁열광 409
▁이유도 409
▁인력을 409
▁인턴 409
▁주택을 409
▁킹 409
▁통증 409
고속도로 409
과정을 409
다리 409
박스 409
였을 409
철이 409
체계를 409
▁63 408
▁개발하는 408
▁게임이 408
▁데에는 408
▁소폭 408
▁속초 408
▁순으로 408
▁스캔 408
▁약화 408
▁오로지 408
▁외곽 408
▁자랑하는 408
▁자택 408
▁파란 408
▁평소에 408
▁프라이 408
▁화폐 408
단에서 408
대회를 408
시기 408
초등학교 408
ER 407
▁[ 407
▁고립 407
▁공정한 407
▁국토교통 407
▁귀추가 407
▁도서관 407
▁동굴 407
▁모두를 407
▁박람 407
▁분실 407
▁성매매 407
▁스피 407
▁업체에 407
▁인정하고 407
▁입점 407
▁자발적으로 407
▁프로그램의 407
개에 407
나게 407
닛 407
실험 407
작업을 407
질의 407
캠 407
하느냐 407
▁값을 406
▁개인적으로 406
▁고의 406
▁공개적으로 406
▁교도 406
▁교원 406
▁국무부 406
▁규정이 406
▁물가 406
▁미루 406
▁분담 406
▁상징하는 406
▁소개하고 406
▁이렇다 406
▁일이었다 406
▁줄어드는 406
▁지점 406
▁친절 406
▁타결 406
▁하향 406
▁혁 406
▁호텔에 406
▁흔적이 406
과장은 406
여자 406
환은 406
▁68 405
▁공사가 405
▁늘면서 405
▁대성 405
▁두는 405
▁메모 405
▁사립유치원 405
▁상을 405
▁선거에서 405
▁선수의 405
▁수습 405
▁아래에 405
▁앞장서 405
▁이러 405
▁입지 405
▁정당한 405
▁중장기 405
▁크기의 405
▁틈 405
▁학교의 405
▁학생을 405
▁활약을 405
▁휴게 405
미로 405
위원회에서 405
하기에는 405
합을 405
회관 405
-0 404
▁194 404
▁강렬한 404
▁개정안이 404
▁것의 404
▁국민들의 404
▁무대에서 404
▁바탕 404
▁방문객 404
▁상승세를 404
▁수상했다 404
▁식량 404
▁엔터테인먼트 404
▁이끈 404
▁이룰 404
▁증가로 404
▁지정된 404
▁청중 404
▁합니까 404
님을 404
준비 404
탄을 404
트럼프 404
회사가 404
▁130 403
▁p 403
▁가축 403
▁것일 403
▁경로 403
▁누군 403
▁도주 403
▁듯이 403
▁불어넣 403
▁샀 403
▁소통을 403
▁시키 403
▁언젠가 403
▁여러분이 403
▁여름철 403
▁잉 403
▁전기를 403
▁짝 403
▁할머니가 403
▁화장실 403
▁회담을 403
▁후보로 403
기본 403
론적 403
수요 403
적이라고 403
태평양 403
▁가볍게 402
▁경제성장 402
▁공식적으로 402
▁남을 402
▁돕기 402
▁드라이 402
▁맘 402
▁미디어의 402
▁박지 402
▁발표할 402
▁변화와 402
▁부작용 402
▁부회장이 402
▁빅뱅 402
▁사랑이 402
▁살이 402
▁알렸다 402
▁오빠 402
▁인사가 402
▁일들이 402
▁정유 402
▁책정 402
▁촬영을 402
곰 402
드린 402
사회가 402
위원은 402
주실 402
중한 402
터의 402
OS 401
▁1999 401
▁고민을 401
▁국토부는 401
▁금감원 401
▁떠나는 401
▁만찬 401
▁분할 401
▁비중은 401
▁살펴보 401
▁안심 401
▁오피스텔 401
▁유가족 401
▁제시하고 401
▁참여가 401
▁트로 401
▁표현할 401
▁후손 401
기관에 401
버린 401
앞으로 401
작가 401
종은 401
2% 400
∼7 400
▁1997 400
▁VR 400
▁감안 400
▁공간의 400
▁공군 400
▁김경 400
▁꾸며 400
▁달한다 400
▁떠났다 400
▁무산 400
▁발언이 400
▁불확실 400
▁수요를 400
▁슬로 400
▁얼굴에 400
▁이모 400
▁재개발 400
▁적자 400
▁지역구 400
▁총리의 400
돈을 400
아를 400
큰 400
통계 400
팔렘방 400
▁JTBC 399
▁걸친 399
▁극심한 399
▁꾀 399
▁꿀 399
▁단행 399
▁당시에는 399
▁대응을 399
▁동의를 399
▁드라마의 399
▁등장한다 399
▁박원순 399
▁분명하다 399
▁비유 399
▁삽입 399
▁선보일 399
▁성공할 399
▁소지 399
▁윗 399
▁유적 399
▁은폐 399
▁인명 399
▁정상회담에서 399
▁참조 399
마트 399
박물 399
전지 399
차와 399
▁갓 398
▁갔어요 398
▁개최한 398
▁고시 398
▁공장에서 398
▁깨끗 398
▁다툼 398
▁뜻이 398
▁반성 398
▁밝히고 398
▁방으로 398
▁베르 398
▁스케줄 398
▁승리가 398
▁쏠린다 398
▁예매 398
▁이어가 398
▁입는 398
▁장소로 398
▁접근할 398
▁중대 398
▁후보의 398
그룹의 398
인증 398
하고도 398
▁값이 397
▁과시 397
▁그룹의 397
▁기둥 397
▁딜 397
▁때문이라는 397
▁마음의 397
▁명문 397
▁물고 397
▁밀접한 397
▁벌이는 397
▁부당한 397
▁분배 397
▁위성 397
▁음주운전 397
▁일본과 397
▁저축 397
▁조화를 397
▁쪽이 397
▁타격 397
▁펼칠 397
▁행동에 397
▁회의가 397
개인 397
통제 397
펠 397
48 396
▁공급하는 396
▁구할 396
▁기술로 396
▁끓 396
▁대표이 396
▁대표적이다 396
▁모두에게 396
▁바뀔 396
▁반영해 396
▁법이 396
▁부총리는 396
▁브라 396
▁사태를 396
▁생리 396
▁소액 396
▁않으면서 396
▁않자 396
▁양측 396
▁얼음 396
▁영암 396
▁일어나고 396
▁일일이 396
▁전문가들의 396
▁조용히 396
▁지역경제 396
▁컨테이너 396
▁확인하기 396
멜 396
발이 396
사업은 396
재와 396
학원 396
효과를 396
IA 395
▁가깝 395
▁강좌 395
▁경협 395
▁계속되고 395
▁고마워 395
▁금메달을 395
▁금융위 395
▁네트워크를 395
▁누락 395
▁대두 395
▁마시는 395
▁만나게 395
▁백화 395
▁부가 395
▁솜 395
▁숨지고 395
▁실질 395
▁압축 395
▁워크숍 395
▁의원과 395
▁이익이 395
▁자연의 395
▁재차 395
▁전달했다 395
▁전신 395
▁정보의 395
▁제휴 395
▁중간선거 395
▁쳐다 395
▁칭 395
▁환경부 395
생물 395
였어 395
퍼센 395
▁감당 394
▁공존 394
▁교착 394
▁농구 394
▁당국 394
▁도박 394
▁범위가 394
▁보전 394
▁분석도 394
▁사회는 394
▁성질 394
▁스위스 394
▁신흥국 394
▁어딘 394
▁없었고 394
▁장점 394
▁제발 394
▁즐기고 394
▁판단한 394
▁패턴을 394
▁표출 394
글로벌 394
분과 394
수산 394
시스 394
씨에 394
역과 394
일보 394
재산 394
플러스 394
▁각국의 393
▁개념은 393
▁객관 393
▁공항에서 393
▁기무 393
▁기증 393
▁나갔 393
▁누워 393
▁뉴질랜드 393
▁도입한 393
▁맞을 393
▁메신저 393
▁분열 393
▁분위기다 393
▁비춰 393
▁역사와 393
▁운영에 393
▁이용이 393
▁직원의 393
▁집중할 393
▁택시를 393
▁표현한 393
▁호흡을 393
결이 393
기한 393
녹 393
라이언 393
순위 393
채가 393
혁명 393
▁감소했다 392
▁경고했다 392
▁넥 392
▁됐고 392
▁때와 392
▁벌여 392
▁보고서에 392
▁비율을 392
▁뽑아 392
▁사회공헌 392
▁숫자가 392
▁쓰이는 392
▁양념 392
▁월요일에 392
▁위해서다 392
▁이태 392
▁자회사 392
▁주장에 392
▁지리 392
▁포용 392
▁피부를 392
였으나 392
적으로도 392
▁고객님 391
▁구성해 391
▁그래픽 391
▁단어를 391
▁대회를 391
▁목요일 391
▁박정 391
▁선수를 391
▁성수 391
▁앓 391
▁원칙을 391
▁이용해서 391
▁중립 391
▁집착 391
▁참가자들이 391
▁취할 391
▁탐색 391
▁특혜 391
▁회신 391
▁희귀 391
곡을 391
면은 391
생태 391
자리를 391
학에 391
▁189 390
▁가져가 390
▁강제징용 390
▁경연 390
▁기대했다 390
▁대칭 390
▁스승 390
▁안타깝 390
▁알려줄 390
▁연결되어 390
▁연구에서 390
▁유산 390
▁이윤 390
▁자격을 390
▁적용한 390
▁전자의 390
▁전하는 390
▁중성 390
▁참여한다 390
▁표현의 390
감한 390
공무원 390
류에 390
리도 390
센터에 390
셨습니다 390
인인 390
장에서는 390
1, 389
▁64 389
▁67 389
▁MC 389
▁가져올 389
▁나옵니다 389
▁동서 389
▁링 389
▁막고 389
▁말하자면 389
▁무엇보다도 389
▁물려 389
▁발생하면 389
▁수준이다 389
▁아름답 389
▁이유에 389
▁인테리어 389
▁작년에 389
▁조직이 389
▁주를 389
▁찢 389
▁치료가 389
▁코드 389
▁탄탄한 389
▁한류의 389
오가 389
절이 389
티아 389
▁가져야 388
▁강동 388
▁국한 388
▁깨끗한 388
▁대학을 388
▁델 388
▁레이저 388
▁무엇인가 388
▁미흡 388
▁부작용이 388
▁서초 388
▁양보 388
▁엘리베이터 388
▁읍 388
▁이루어졌다 388
▁참사 388
▁커지면서 388
▁학교는 388
감도 388
강을 388
광주 388
나고 388
명에서 388
비한 388
셨으면 388
안정 388
유럽 388
인천 388
임대 388
하니까 388
▁겪었다 387
▁단체가 387
▁명칭 387
▁방송에서 387
▁보험료 387
▁부엌 387
▁삶과 387
▁상정 387
▁상해 387
▁시각이 387
▁시행령 387
▁아래의 387
▁어때요 387
▁운영되고 387
▁이외에도 387
▁인종 387
▁정리해 387
▁중지 387
▁지는 387
▁초고 387
개월이 387
의회 387
이도 387
NG 386
▁거지 386
▁결정한 386
▁경과 386
▁공정위 386
▁교육은 386
▁나고 386
▁다름 386
▁대중교통 386
▁모양새다 386
▁바꾸고 386
▁생각한 386
▁여기에는 386
▁완벽 386
▁인간과 386
▁일과 386
▁전달할 386
▁정책은 386
▁지원에 386
▁캠 386
▁타협 386
▁형제 386
공업 386
내지 386
레는 386
본부는 386
사회적 386
장비 386
DA 385
ir 385
▁가사 385
▁계획에 385
▁광복 385
▁대법원장 385
▁룸 385
▁매력이 385
▁매출을 385
▁멤버들이 385
▁못하도록 385
▁브랜드의 385
▁이었다 385
▁전망을 385
▁전자가 385
▁카드로 385
▁파급 385
▁포함된다 385
▁푹 385
▁핀란드 385
▁활발히 385
▁회피 385
강의 385
공사는 385
봄 385
봉사 385
(15 384
▁가려고 384
▁개최했다 384
▁관객들이 384
▁그렇군요 384
▁딸을 384
▁영업이익 384
▁올해로 384
▁위원장과 384
▁잎 384
▁전체에 384
▁짐작 384
▁풍경 384
▁확인되지 384
그램 384
아동 384
익을 384
제도를 384
출을 384
▁그림은 383
▁늘어나면서 383
▁다녔 383
▁돼야 383
▁띈다 383
▁마이크로 383
▁모델은 383
▁실태 383
▁양질의 383
▁어긋 383
▁용어 383
▁정체성을 383
▁통증이 383
▁특례 383
▁해리 383
▁했기 383
▁현황을 383
▁황교안 383
니는 383
대통령 383
배우 383
펫 383
회에는 383
DC 382
·2 382
▁66 382
▁각국 382
▁감안해 382
▁강사 382
▁같은데요 382
▁개성공단 382
▁겁 382
▁고유 382
▁꾸준한 382
▁넷째 382
▁대법 382
▁대우 382
▁돋보 382
▁만세 382
▁성장하고 382
▁쌍둥이 382
▁엑 382
▁영하 382
▁이외에 382
▁임기 382
▁장이 382
▁줄기세포 382
▁지키고 382
▁챔피언스리그 382
▁특징이 382
▁팬들을 382
▁현실적으로 382
란을 382
롭지 382
백을 382
운드를 382
청을 382
타는 382
팜 382
CEO 381
us 381
▁85 381
▁꼴 381
▁내부에서 381
▁때문이 381
▁만료 381
▁메일로 381
▁물은 381
▁민주평화당 381
▁부문에서 381
▁부산에서 381
▁솔루션 381
▁시중 381
▁신혼 381
▁얼마든지 381
▁여론조사 381
▁와인 381
▁원리를 381
▁원하지 381
▁의무를 381
▁전체적인 381
▁좀처럼 381
▁창고 381
▁출시한 381
도서 381
동맹 381
르면서 381
모든 381
불을 381
청구 381
▁광고의 380
▁귀여운 380
▁김광 380
▁내부에 380
▁대신에 380
▁대회가 380
▁들어올 380
▁붙은 380
▁스피커 380
▁시민사회 380
▁언론은 380
▁얻게 380
▁인정하는 380
▁잘라 380
▁장시간 380
▁전국에 380
▁조직을 380
▁채로 380
▁청년들이 380
▁최고경영자 380
▁친척 380
▁프랑스의 380
▁하죠 380
고한 380
국장은 380
대비 380
듀 380
레가 380
인사 380
자에게는 380
주의는 380
쾌 380
▁가족들과 379
▁기록하고 379
▁냉장 379
▁노란 379
▁때만 379
▁뜻하는 379
▁메이저 379
▁방탄소년단 379
▁버스가 379
▁부족하다 379
▁분야가 379
▁살던 379
▁샤워 379
▁성질을 379
▁소중 379
▁오신 379
▁저소득 379
▁적용된 379
▁주장은 379
▁체계적인 379
▁코치 379
▁크다고 379
▁한두 379
이한 379
자료를 379
▁가라앉 378
▁꾸려 378
▁다닐 378
▁더블 378
▁떠올랐다 378
▁맑은 378
▁복무 378
▁수행할 378
▁실질적으로 378
▁예보 378
▁우리와 378
▁자원봉사 378
▁적도 378
▁전환을 378
▁청취 378
▁칩 378
▁한국당이 378
년여 378
수입 378
위인 378
▁d 377
▁경제정책 377
▁고유의 377
▁공시가격 377
▁구조적 377
▁나와서 377
▁돌아올 377
▁들지 377
▁디즈니 377
▁사용된다 377
▁사우디아라비아 377
▁숨을 377
▁시위를 377
▁아들을 377
▁약물 377
▁있었으나 377
▁중력 377
▁차트 377
▁톰 377
▁판매량이 377
▁학업 377
▁회원들이 377
견이 377
다른 377
당시 377
매체 377
반응 377
산업이 377
속으로 377
유산 377
재난 377
톨 377
▁견해 376
▁금강 376
▁노래가 376
▁돌아가는 376
▁바쁘 376
▁버리고 376
▁사물인터넷 376
▁사서 376
▁선고받았다 376
▁숨졌다 376
▁신동 376
▁알려지지 376
▁영상은 376
▁원작 376
▁이론은 376
▁잠시만 376
▁조카 376
▁지역에서는 376
▁쫓 376
▁패키 376
▁펼치는 376
개는 376
겠죠 376
내야 376
릅니다 376
만으로는 376
테이 376
하네요 376
화되어 376
(18 375
ation 375
▁1994 375
▁계급 375
▁그녀에게 375
▁그룹이 375
▁금메달 375
▁다르지 375
▁담았다 375
▁드물 375
▁매장에서 375
▁며느 375
▁부상으로 375
▁비주얼 375
▁성장하는 375
▁시스템에 375
▁신문은 375
▁쏟 375
▁않았어 375
▁양국의 375
▁양육 375
▁운반 375
▁이낙연 375
▁자립 375
▁정통 375
▁직업을 375
▁콘서트를 375
▁편리하게 375
▁포즈를 375
▁필름 375
▁한양 375
▁행정부가 375
▁형성된 375
시오 375
쌍 375
어에 375
인들과 375
▁b 374
▁계속될 374
▁계엄 374
▁길어 374
▁남동 374
▁느껴지는 374
▁만하다 374
▁모르겠어 374
▁문건을 374
▁상시 374
▁선제 374
▁언제까지 374
▁이은 374
▁차가운 374
▁출신인 374
▁팬들에게 374
수당 374
해준 374
op 373
▁가늠 373
▁공인 373
▁돋보이는 373
▁마이클 373
▁무효 373
▁볼턴 373
▁불필요한 373
▁선정한 373
▁올라온 373
▁옮 373
▁이동하는 373
▁작가는 373
▁조화 373
▁중학생 373
▁크림 373
▁표본 373
▁학생들 373
띠 373
인식 373
일인 373
BM 372
▁73 372
▁감사의 372
▁공항에 372
▁누리 372
▁대행 372
▁맞나요 372
▁목소리로 372
▁목표다 372
▁미쳤 372
▁바뀌는 372
▁보니까 372
▁보다는 372
▁수월 372
▁실수를 372
▁없으니 372
▁여파로 372
▁위기가 372
▁은혜 372
▁이집 372
▁이해관계 372
▁일어나지 372
▁주사 372
▁초록 372
▁출동한 372
▁편안한 372
▁하늘을 372
▁해운 372
그라 372
스런 372
쩍 372
카드를 372
파는 372
▁a 371
▁꿈이 371
▁나경원 371
▁넘겨진 371
▁미세먼 371
▁송파구 371
▁수사권 371
▁안양 371
▁인하여 371
▁일주일에 371
▁채취 371
▁촉구하는 371
▁축제를 371
▁파악하는 371
▁프레임 371
▁험 371
검찰 371
경북 371
공이 371
농구 371
디언 371
면과 371
버그 371
여름 371
였기 371
활성 371
▁가르치는 370
▁감독과 370
▁과거사 370
▁관련해서는 370
▁넘쳐 370
▁르 370
▁마켓 370
▁마크 370
▁모습에 370
▁바른 370
▁반발이 370
▁숙소 370
▁오더 370
▁이곳을 370
▁인원 370
▁장관을 370
▁재미를 370
▁재미있게 370
▁저작권 370
▁정책과 370
▁집합 370
▁파장이 370
▁학기 370
▁해보 370
▁호기 370
▁확대에 370
▁확정된 370
▁회담이 370
난다 370
만명을 370
문화의 370
물이다 370
영상 370
이런 370
잇 370
전환 370
▁51 369
▁개발하고 369
▁걸음 369
▁계획은 369
▁교육부가 369
▁궁금한 369
▁내기 369
▁노동조합 369
▁다문화 369
▁대접 369
▁띄는 369
▁반면에 369
▁사냥 369
▁사람으로 369
▁상관없 369
▁손꼽 369
▁역설 369
▁자녀를 369
▁접근이 369
▁추억을 369
▁컴퓨터가 369
그룹은 369
량으로 369
사이트 369
행위를 369
회의에 369
▁5, 368
▁경남도 368
▁경로를 368
▁국가안보 368
▁네이 368
▁눌러 368
▁독려 368
▁동일하게 368
▁방송인 368
▁법안을 368
▁장려 368
▁적고 368
▁주변에서 368
▁케이티 368
▁코미디 368
▁트레이 368
▁프로세 368
▁항소심 368
▁현대자동차 368
교육청이 368
대응 368
유통 368
하느라 368
호텔에서 368
(0 367
FA 367
▁2030 367
▁고양시 367
▁관광객들이 367
▁궁금합니다 367
▁나오면서 367
▁방향이 367
▁벼 367
▁부족해 367
▁사회주의 367
▁샌드 367
▁석방 367
▁승부 367
▁시장에서는 367
▁신념 367
▁예멘 367
▁원장 367
▁이용하면 367
▁일으킬 367
▁주인공이 367
▁진단했다 367
▁콘셉 367
▁트렌 367
▁프린 367
▁한류가 367
▁현역 367
링을 367
문재인 367
믹 367
부처 367
왕의 367
주식 367
팀에 367
히지 367
TS 366
▁가지게 366
▁공정위는 366
▁길고 366
▁꽃을 366
▁민선 366
▁보충 366
▁부풀 366
▁삶은 366
▁서쪽 366
▁수수 366
▁실질적 366
▁안팎의 366
▁앓고 366
▁어쨌든 366
▁올해부터 366
▁움직일 366
▁조합원 366
▁친구의 366
▁탔 366
▁피고 366
대교 366
여명 366
주시고 366
차전에서 366
토록 366
▁공부하고 365
▁넘어가 365
▁당대표 365
▁똑같 365
▁몸의 365
▁못했어요 365
▁문제도 365
▁버튼을 365
▁보강 365
▁비상대책 365
▁수시 365
▁실제로는 365
▁안정을 365
▁알았다 365
▁엄격한 365
▁연다 365
▁열쇠 365
▁영남 365
▁이하로 365
▁자동차를 365
▁저와 365
▁적용하는 365
▁조직의 365
▁주최한 365
▁찾아야 365
▁처리를 365
▁체험을 365
▁탄력 365
▁환승 365
들에서 365
라를 365
세이 365
전도 365
제작 365
▁강북 364
▁과거에는 364
▁그야말로 364
▁근거를 364
▁기내 364
▁기지 364
▁낮게 364
▁노력하겠다 364
▁대치 364
▁도덕적 364
▁땀 364
▁마련할 364
▁물질의 364
▁서비스로 364
▁시원 364
▁운전자가 364
▁재학 364
▁적당한 364
▁전망도 364
▁정황을 364
▁진영 364
▁취약한 364
▁침대 364
▁확보를 364
▁후보자가 364
강에 364
냥 364
됐는데 364
락이 364
왜 364
우리가 364
처분 364
▁강조하고 363
▁끝으로 363
▁는 363
▁마땅 363
▁마쳤다 363
▁말하지 363
▁반박했다 363
▁상기 363
▁수준에서 363
▁신장 363
▁의학 363
▁자진 363
▁재단 363
▁특이 363
느냐에 363
린이 363
수준 363
오면서 363
음식 363
조치를 363
투쟁 363
피스 363
했음을 363
36 362
▁개선에 362
▁경향을 362
▁공기가 362
▁기억을 362
▁꿈꾸는 362
▁돕고 362
▁디자인이 362
▁모스크바 362
▁무리가 362
▁변수가 362
▁비행기를 362
▁빠졌다 362
▁상황과 362
▁여건이 362
▁연쇄 362
▁오전에 362
▁유전자를 362
▁음원 362
▁이뤄지 362
▁이마트 362
▁재판이 362
▁조사할 362
▁중국산 362
▁쿠폰 362
▁흠 362
룬 362
요금 362
일자리 362
▁게스트 361
▁경호 361
▁교양 361
▁구사 361
▁나서야 361
▁던져 361
▁마실 361
▁많다고 361
▁모니터 361
▁승차 361
▁신속한 361
▁연평균 361
▁오류가 361
▁이메일로 361
▁이보다 361
▁점유율 361
▁추운 361
▁합창 361
▁해수 361
▁헛 361
▁화요일 361
돌이 361
롭고 361
성장을 361
시대의 361
킷 361
텀 361
휘 361
(10 360
2000 360
▁1995 360
▁84 360
▁개시 360
▁건물은 360
▁낭비 360
▁바뀌었다 360
▁부분이다 360
▁부합 360
▁사정 360
▁상한 360
▁설치해 360
▁송도 360
▁어려웠다 360
▁영향력 360
▁위험에 360
▁인력이 360
▁있겠습니다 360
▁있으니까 360
▁적용된다 360
▁정권이 360
▁좌절 360
▁중이라고 360
▁증상을 360
▁지자체가 360
▁투자자들이 360
▁할까요 360
▁훌륭 360
녀가 360
물질을 360
방지 360
쿨 360
투자가 360
▁개인적 359
▁구호 359
▁국채 359
▁끄는 359
▁단계에 359
▁맛볼 359
▁반납 359
▁방사 359
▁방위 359
▁법안이 359
▁변신 359
▁성숙 359
▁세대가 359
▁속이 359
▁시간도 359
▁시일 359
▁음반 359
▁의문 359
▁인류의 359
▁자체적으로 359
▁정도였다 359
▁지문 359
▁최적 359
▁캠핑 359
▁환전 359
로스 359
빗 359
얀 359
어버 359
으로만 359
조사에 359
코드 359
판에서 359
홈 359
ion 358
▁공천 358
▁관계자가 358
▁기반이 358
▁대회는 358
▁법원에 358
▁사이로 358
▁성명을 358
▁스킨 358
▁시세 358
▁심해 358
▁연루 358
▁열을 358
▁예술가 358
▁직접적으로 358
▁질의 358
▁집행유예 358
▁프로그램으로 358
▁현장의 358
공간을 358
산에서 358
압이 358
으려는 358
인한 358
자리에 358
SD 357
▁1% 357
▁가능하다고 357
▁가만히 357
▁괜찮아 357
▁국영 357
▁그림이 357
▁길로 357
▁동원해 357
▁미소를 357
▁삽 357
▁색이 357
▁세상의 357
▁신청할 357
▁없었어요 357
▁열악한 357
▁작아 357
▁적었다 357
▁중이 357
▁최소화 357
▁취지의 357
▁하려면 357
▁해명했다 357
▁핵심은 357
십니까 357
영화제 357
웰 357
푸드 357
하였는데 357
ut 356
▁간단 356
▁귀사의 356
▁그다음 356
▁만이다 356
▁불공정 356
▁뽐 356
▁사고는 356
▁상당수 356
▁서산 356
▁소셜미디어 356
▁소집 356
▁신분으로 356
▁앉아서 356
▁앞으로의 356
▁액체 356
▁업계는 356
▁업체의 356
▁운동은 356
▁입구 356
▁제도적 356
▁출고 356
▁파라 356
바로 356
신가요 356
작품 356
청사 356
▁감싸 355
▁개혁을 355
▁관객이 355
▁급하게 355
▁리포 355
▁미스터 355
▁싶다고 355
▁온몸 355
▁일부러 355
▁있으신가요 355
▁통행 355
▁판단할 355
▁현실화 355
꿈 355
렐 355
못 355
아무개 355
언을 355
으시 355
즈와 355
지역에서 355
토론 355
TE 354
∼5 354
▁개최되는 354
▁교과서 354
▁김의겸 354
▁날은 354
▁다짐 354
▁당국의 354
▁대부분을 354
▁되돌아 354
▁물량이 354
▁바르 354
▁박탈 354
▁삼성바이오 354
▁상응 354
▁소식에 354
▁손해를 354
▁술에 354
▁시선이 354
▁식의 354
▁없이는 354
▁열대 354
▁인근에서 354
▁장례 354
▁전력이 354
▁주변을 354
▁즐거움을 354
▁차분 354
▁품고 354
▁확대하는 354
우와 354
중을 354
청과 354
함으로 354
힌다 354
▁1996 353
▁기사는 353
▁납치 353
▁낸다 353
▁노예 353
▁다스 353
▁대법원이 353
▁동화 353
▁만만치 353
▁맥락에서 353
▁무언가를 353
▁발목을 353
▁수단이 353
▁여성은 353
▁역을 353
▁우회 353
▁이산화탄 353
▁인생의 353
▁정보와 353
▁조사결과 353
▁주머니 353
▁체계적으로 353
▁최근의 353
▁활력을 353
미한 353
사태 353
센트 353
외교 353
.’ 352
∼20 352
▁77 352
▁검은색 352
▁나타내 352
▁따르는 352
▁맞았다 352
▁문항 352
▁부분에서 352
▁부총 352
▁샘 352
▁서울을 352
▁서울중앙지검 352
▁세일 352
▁시기는 352
▁알려주시면 352
▁유지하기 352
▁인상에 352
▁잠이 352
▁장소에서 352
▁재료를 352
▁증상 352
▁증시가 352
▁지진이 352
▁초에 352
▁탁월한 352
▁판단하고 352
▁퓨 352
▁필요해 352
▁하나하나 352
▁행렬 352
권에서 352
꺼 352
남부 352
답게 352
유로 352
투자증권 352
현지시각 352
화하기 352
VR 351
ra 351
▁ICT 351
▁가지로 351
▁공간은 351
▁광양 351
▁국가를 351
▁기획재 351
▁내로 351
▁노회찬 351
▁대안을 351
▁대학원 351
▁도와줄 351
▁동남아시아 351
▁마케팅을 351
▁맡겨 351
▁배제할 351
▁변하지 351
▁수험 351
▁아쉽 351
▁작품이다 351
▁장병 351
▁제공된다 351
▁좋아하지 351
▁차려 351
▁최종적으로 351
▁테스트를 351
들여 351
설계 351
시스템을 351
페이스 351
학년도 351
해달라고 351
해하는 351
▁가리 350
▁국내에서는 350
▁금융권 350
▁기업으로 350
▁다시는 350
▁목표가 350
▁배송이 350
▁배우가 350
▁배우들이 350
▁변화하는 350
▁서비스의 350
▁시속 350
▁쓰기 350
▁아쉬운 350
▁연습을 350
▁요금을 350
▁이사장은 350
▁이어지면서 350
▁작품으로 350
▁정도에 350
▁정상적으로 350
▁중요하다는 350
▁참가하는 350
▁최소한의 350
▁출력 350
▁판단된다 350
▁한반도의 350
가인 350
드릴까요 350
민족 350
바닥 350
▁강제로 349
▁같지 349
▁고쳐 349
▁고추 349
▁근본적으로 349
▁대표이사 349
▁됐다는 349
▁만났다 349
▁말라 349
▁못했다는 349
▁산업을 349
▁색다른 349
▁서브 349
▁아시안컵 349
▁아주머니 349
▁예쁘 349
▁음란 349
▁이견이 349
▁인건비 349
▁전무 349
▁제목 349
▁특이한 349
▁프로모션 349
▁한은 349
▁활동의 349
되었지만 349
딸 349
리라는 349
마이 349
사업의 349
스마트 349
우리는 349
▁간단히 348
▁관내 348
▁교사의 348
▁교역 348
▁근무하는 348
▁김씨의 348
▁내포 348
▁넉넉 348
▁논의할 348
▁대항 348
▁레알 348
▁만들어내는 348
▁먹거리 348
▁보살 348
▁부근 348
▁부른 348
▁분석하는 348
▁사용하기 348
▁산업에 348
▁살기 348
▁서울중앙지법 348
▁신청한 348
▁작용할 348
▁장소에 348
▁전액 348
▁지사의 348
▁지시를 348
▁지식이 348
▁착각 348
▁청소년들이 348
▁티저 348
▁판단에 348
▁홈페이지에 348
▁환자를 348
간이 348
능력을 348
원한 348
월말 348
토리 348
통신이 348
▁- 347
▁공감을 347
▁나갔다 347
▁들어서는 347
▁말하기 347
▁물품을 347
▁비핵화와 347
▁상품에 347
▁선택이 347
▁소개해 347
▁순식간에 347
▁않기로 347
▁않나요 347
▁알파 347
▁오가는 347
▁요구된다 347
▁자체에 347
▁잦은 347
▁전통적 347
▁줄어들고 347
▁중증 347
▁진전이 347
▁형이 347
발의 347
부품 347
아버 347
위원이 347
인지를 347
주셔서 347
38 346
▁감독을 346
▁계신 346
▁공격수 346
▁교회를 346
▁나라는 346
▁낙동강 346
▁남편은 346
▁누군가가 346
▁대한민국의 346
▁들었어 346
▁만들어졌다 346
▁매뉴얼 346
▁모릅니다 346
▁비누 346
▁살면서 346
▁신뢰가 346
▁신화 346
▁싶을 346
▁언덕 346
▁요새 346
▁재활용 346
▁정하는 346
▁지고 346
▁차례로 346
▁청문 346
▁출하 346
▁취해 346
▁태평양 346
▁평화와 346
▁협력해 346
▁확대할 346
곳에서 346
공제 346
국내 346
담한 346
대요 346
스틴 346
우드 346
▁갈아 345
▁공론화 345
▁김승 345
▁노력하는 345
▁높지 345
▁느꼈다 345
▁대응할 345
▁두께 345
▁만성 345
▁무대가 345
▁뭐라고 345
▁어색 345
▁여름에 345
▁연예인 345
▁완성차 345
▁외국인이 345
▁율 345
▁이벤트가 345
▁이해하지 345
▁이후의 345
▁인접 345
▁인천국제 345
▁자의 345
▁저녁을 345
▁지냈 345
▁친한 345
▁특성에 345
▁파고 345
▁프레젠테이션 345
불이 345
주의와 345
주일 345
집에서 345
▁거다 344
▁경험한 344
▁공산 344
▁괴롭 344
▁금액은 344
▁기록해 344
▁논문을 344
▁대구시 344
▁도래 344
▁믿는다 344
▁반찬 344
▁방과 344
▁불가피 344
▁비공개 344
▁사료 344
▁서예 344
▁설립된 344
▁소송에서 344
▁아이스 344
▁않겠다는 344
▁없었지만 344
▁이야기다 344
▁있었으며 344
▁작품에 344
▁주체가 344
▁첩 344
▁한눈에 344
▁합의에 344
개사 344
놨 344
동향 344
방은 344
변을 344
보안 344
성에서 344
우기 344
이사 344
표준 344
▁6·13 343
▁SUV 343
▁가져오 343
▁강조한다 343
▁광고에 343
▁김영철 343
▁나무를 343
▁덩 343
▁보인다고 343
▁사과를 343
▁소비자에게 343
▁원활한 343
▁전과 343
▁정례 343
▁찍고 343
▁할까 343
대학원 343
라와 343
루는 343
만큼은 343
바다 343
심에 343
원인 343
▁160 342
▁갑질 342
▁겨냥한 342
▁국민청원 342
▁김창 342
▁끄 342
▁대회에 342
▁돈은 342
▁명에 342
▁몹시 342
▁박병 342
▁방송이 342
▁삼각 342
▁상륙 342
▁생명의 342
▁세계로 342
▁않거나 342
▁예약이 342
▁인디 342
▁전당 342
▁정면 342
▁정보통신 342
▁존재가 342
▁좋았다 342
▁주문이 342
▁지난해보다 342
▁진열 342
▁행정안전 342
▁혐의에 342
▁확보하고 342
기인 342
범이 342
부대 342
측은 342
▁‘1 341
▁건네 341
▁공부할 341
▁구형 341
▁당부 341
▁대도시 341
▁면세점 341
▁박용 341
▁사라졌다 341
▁사실도 341
▁어렵지 341
▁에피소 341
▁연결해 341
▁연이어 341
▁예선 341
▁원해요 341
▁이루어질 341
▁인증을 341
▁임상시험 341
▁있듯이 341
▁장기적으로 341
▁재학생 341
▁조처 341
▁주최하는 341
▁줘야 341
▁특화 341
▁행보를 341
▁행사에서 341
▁헝가리 341
씬 341
움의 341
IP 340
ow 340
▁CNN 340
▁FC 340
▁계속되는 340
▁남다른 340
▁다가가 340
▁다리가 340
▁데이터는 340
▁떠났 340
▁박정희 340
▁사라지고 340
▁사랑에 340
▁생산을 340
▁소문이 340
▁슬픔 340
▁써서 340
▁앞세워 340
▁웃음 340
▁의무가 340
▁잇달아 340
▁저가 340
▁전적으로 340
▁지도를 340
▁청주시 340
▁투여 340
▁하기도 340
▁합리적 340
경찰서 340
로서는 340
린은 340
월드컵 340
웠고 340
주시길 340
초를 340
팡 340
프린 340
5,000 339
▁고기를 339
▁공립 339
▁그러던 339
▁그보다 339
▁기구 339
▁당의 339
▁두번째 339
▁로드맵 339
▁몰고 339
▁보도를 339
▁빼고 339
▁소비가 339
▁아니기 339
▁아이콘 339
▁오늘의 339
▁위장 339
▁작고 339
▁잡혀 339
▁장르의 339
▁주장도 339
▁중점을 339
▁캠페인을 339
▁타깃 339
▁프로그램이다 339
▁회원국 339
▁히트 339
경찰서에 339
망에 339
분간 339
시키지 339
정책이 339
페인 339
픈 339
▁객실 338
▁과거와 338
▁그런지 338
▁금융당국이 338
▁기록할 338
▁남북관계 338
▁너랑 338
▁등장해 338
▁못했지만 338
▁보냅니다 338
▁상주 338
▁엑스 338
▁원리 338
▁이번에도 338
▁이어서 338
▁정립 338
▁정전 338
▁제목의 338
▁줄고 338
▁지급하는 338
▁진행을 338
▁첼 338
▁치즈 338
▁친구들 338
▁테니까 338
▁현실이 338
▁효능 338
야말로 338
연합회 338
택시 338
프트 338
52 337
ot 337
▁76 337
▁개발해 337
▁개발했다 337
▁경기는 337
▁공고 337
▁관련해서 337
▁국민일보 337
▁국적 337
▁낚 337
▁내일은 337
▁목소리 337
▁박테리아 337
▁벚꽃 337
▁부재 337
▁북극 337
▁선수는 337
▁원자력 337
▁유전체 337
▁음식점 337
▁인과 337
▁지갑 337
▁지배구조 337
▁집회를 337
▁찾아와 337
▁친근 337
▁파인 337
▁폴리 337
▁행위는 337
▁행위에 337
늄 337
라이트 337
여행을 337
인데도 337
청에서 337
∼4 336
▁f 336
▁경력이 336
▁구매하는 336
▁덜어 336
▁두루 336
▁메이저리그 336
▁미안하지만 336
▁비교할 336
▁삼성이 336
▁수업은 336
▁시계 336
▁실수로 336
▁악성 336
▁여부는 336
▁여자는 336
▁외식 336
▁유력한 336
▁유명하다 336
▁의미의 336
▁이어갔다 336
▁일정에 336
▁있음에도 336
▁전제로 336
▁줄어 336
▁지나가 336
▁진단을 336
▁표정을 336
▁혼란을 336
▁확보하는 336
▁확보해 336
▁활용하여 336
기관인 336
년은 336
들만 336
바람 336
수행 336
실장 336
있던 336
주었다 336
행동 336
▁가진다 335
▁강화할 335
▁공무원이 335
▁교섭 335
▁규칙을 335
▁눈치 335
▁맞추어 335
▁민사 335
▁반발하고 335
▁산업혁 335
▁시를 335
▁쏟아져 335
▁약속했다 335
▁어린이들이 335
▁예측이 335
▁젊은이들이 335
▁주입 335
▁질을 335
▁축제는 335
▁코로나 335
▁틀림 335
▁회장을 335
▁후기 335
건설이 335
경제의 335
마리 335
비율 335
업의 335
(20 334
GM 334
▁78 334
▁극히 334
▁기술에 334
▁낡은 334
▁되게 334
▁뒤에도 334
▁들어선 334
▁발언은 334
▁베스트 334
▁사인 334
▁안동 334
▁엄마는 334
▁여야가 334
▁예정이며 334
▁있기에 334
▁있죠 334
▁존재할 334
▁지금부터 334
▁키우고 334
▁판매하고 334
▁프로젝트에 334
경남 334
기계 334
세기에 334
세트 334
이었다는 334
이용 334
이즈 334
치며 334
000 333
id 333
▁KTX 333
▁가치는 333
▁거뒀다 333
▁과학자들은 333
▁국민적 333
▁근접 333
▁나오기 333
▁내놓았다 333
▁단계를 333
▁당뇨 333
▁당했다 333
▁대북제재 333
▁돈으로 333
▁돌아오는 333
▁만들어낸 333
▁부회장 333
▁사법농단 333
▁생각된다 333
▁세력이 333
▁실형을 333
▁안을 333
▁약속한 333
▁예정이에요 333
▁위원장을 333
▁이적 333
▁인구의 333
▁일간 333
▁전설 333
▁중요하지만 333
▁출퇴근 333
▁텔레비 333
니스트 333
민은 333
수원 333
안타 333
우면 333
▁88 332
▁x 332
▁관객들의 332
▁껍 332
▁노력할 332
▁동북 332
▁됐습니다 332
▁떠날 332
▁록 332
▁만남을 332
▁모습과 332
▁무엇입니까 332
▁발간 332
▁방탄소년단의 332
▁보상을 332
▁부장판사 332
▁비하 332
▁사례로 332
▁사용자의 332
▁생활에 332
▁어찌 332
▁영역에 332
▁왕이 332
▁이론이 332
▁이번엔 332
▁자체의 332
▁전통을 332
▁접어들 332
▁치료제 332
▁침수 332
▁팬클럽 332
대회에서 332
순환 332
앤이 332
웠어요 332
인데요 332
전형 332
조리 332
주의에 332
하진 332
▁게이트 331
▁결론이 331
▁공소 331
▁공화당 331
▁구성을 331
▁구조조 331
▁김준 331
▁드라마는 331
▁라이트 331
▁말합니다 331
▁멜로 331
▁벌어지고 331
▁부모의 331
▁부의 331
▁빠질 331
▁사이클 331
▁살해한 331
▁손실을 331
▁수감 331
▁이산가족 331
▁있겠다 331
▁잭 331
▁전사 331
▁정부에서 331
▁쪽에서 331
▁토큰 331
▁트랙 331
▁펄 331
▁확실하게 331
▁흐름에 331
기관과 331
동원 331
카를 331
학회 331
회의가 331
▁GS 330
▁개최한다 330
▁거북 330
▁교류가 330
▁낮다 330
▁높을 330
▁뛰어넘 330
▁매장을 330
▁무더 330
▁미사 330
▁미적 330
▁바라보고 330
▁백제 330
▁부모님이 330
▁삼고 330
▁수동 330
▁수평 330
▁스토리를 330
▁역할은 330
▁예의 330
▁예정이 330
▁유성 330
▁이어갈 330
▁임대주택 330
▁있어서다 330
▁자전거를 330
▁장면은 330
▁재밌 330
▁전력을 330
▁조형 330
▁중이며 330
▁침투 330
▁탓이다 330
▁터널 330
▁편리한 330
▁힙합 330
감의 330
고와 330
근이 330
마에 330
문화가 330
시켜야 330
운동이 330
파로 330
환경을 330
▁3.1 329
▁IMF 329
▁가시면 329
▁감자 329
▁검사가 329
▁공헌 329
▁다니고 329
▁들었는데 329
▁마포구 329
▁명령을 329
▁방송되는 329
▁비전 329
▁사항은 329
▁손이 329
▁시도가 329
▁알아보 329
▁운영할 329
▁이동할 329
▁인정한 329
▁저번에 329
▁조국 329
▁천재 329
▁체제를 329
▁초기에 329
▁추격 329
▁틀을 329
▁혁신적인 329
▁호응 329
▁활성 329
▁황의 329
▁흘러나 329
균이 329
넘 329
셉 329
일반 329
조한 329
▁걷는 328
▁게임은 328
▁겨울철 328
▁고용노동부 328
▁과정의 328
▁기존에는 328
▁깔려 328
▁날짜를 328
▁내놓을 328
▁늘어났다 328
▁다각 328
▁딴 328
▁메르스 328
▁못한다는 328
▁문장 328
▁바다에 328
▁받아서 328
▁본선 328
▁상봉 328
▁선거제도 328
▁숫자 328
▁스티커 328
▁습득 328
▁어떨까요 328
▁여러분은 328
▁올라갈 328
▁윌 328
▁인정했다 328
▁조선의 328
▁주위 328
▁창단 328
▁치른 328
▁카테고 328
▁크리스마 328
▁턱 328
▁포기하지 328
▁플랜 328
▁향상을 328
국회 328
금속 328
님과 328
시나요 328
야가 328
증으로 328
티를 328
▁같다는 327
▁공지 327
▁과도하게 327
▁구름이 327
▁구매를 327
▁그리는 327
▁낙관 327
▁낮추 327
▁내각 327
▁뇌물 327
▁대응이 327
▁될까 327
▁들어왔다 327
▁때면 327
▁만약에 327
▁사용되고 327
▁상당수가 327
▁생산이 327
▁소지가 327
▁신기술 327
▁열정을 327
▁이뤄져야 327
▁이상은 327
▁있느냐 327
▁작업은 327
▁좋아하고 327
▁준비할 327
▁피해자의 327
▁확대해 327
▁확보가 327
▁회사와 327
겨울 327
돔 327
림의 327
만대 327
문에서 327
박이 327
본부가 327
싼 327
제조 327
증과 327
차별 327
▁국가에서 326
▁국제적 326
▁내정 326
▁넘어선 326
▁능동 326
▁되었어요 326
▁러시아가 326
▁만들어지는 326
▁맛과 326
▁방송에 326
▁심어 326
▁싹 326
▁아스 326
▁업무가 326
▁유혹 326
▁은행이 326
▁인성 326
▁일곱 326
▁전자기 326
▁제외하면 326
▁주어진다 326
▁총수 326
▁출시된 326
▁치는 326
▁하동 326
▁협의가 326
농업 326
르크 326
븐 326
어스 326
없다 326
)· 325
GB 325
▁고온 325
▁기온은 325
▁노동자들이 325
▁높아지면서 325
▁대목 325
▁되었다고 325
▁마을에 325
▁맞아요 325
▁물의 325
▁법조 325
▁성찰 325
▁승용차 325
▁시간당 325
▁아랍 325
▁연구하는 325
▁우위를 325
▁의견도 325
▁이강 325
▁정기적으로 325
▁진천 325
간접 325
근무 325
러시아 325
렸을 325
세한 325
월드 325
자문 325
하여야 325
LA 324
▁강정 324
▁등기 324
▁래 324
▁맛있게 324
▁맞물려 324
▁설문조사 324
▁실패한 324
▁양상을 324
▁예측할 324
▁위헌 324
▁일산 324
▁좌석 324
▁주요한 324
▁지식과 324
▁지칭 324
▁진출한 324
▁패키지 324
▁현실에 324
▁협약을 324
▁화려 324
라인을 324
오픈 324
쾌한 324
하늘 324
ON 323
▁강아 323
▁내놓고 323
▁늘어났 323
▁담배를 323
▁득표 323
▁리뷰 323
▁만족도가 323
▁면이 323
▁모르지만 323
▁물량 323
▁방한 323
▁사육 323
▁상승했다 323
▁속도는 323
▁연초 323
▁우버 323
▁원장이 323
▁인재를 323
▁인형 323
▁작용하는 323
▁잡기 323
▁진지하게 323
▁토론을 323
▁파주 323
▁평택 323
▁합의했다 323
▁했는지 323
▁향하는 323
▁호르몬 323
공항을 323
군사 323
맘 323
면적 323
방으로 323
브랜드 323
원도 323
지사의 323
찮 323
탄이 323
DI 322
▁가구가 322
▁강하다 322
▁개체 322
▁관심은 322
▁그랜드 322
▁기간은 322
▁노트 322
▁로이터 322
▁모험 322
▁민감 322
▁반품 322
▁불렀 322
▁블록체 322
▁살아가 322
▁상태였다 322
▁상하 322
▁소수의 322
▁스틸 322
▁압력을 322
▁양을 322
▁오스트리아 322
▁이사장 322
▁인천시 322
▁있었으면 322
▁재고가 322
▁지었다 322
▁최선의 322
▁카풀 322
▁포함하는 322
▁핑 322
▁햇빛 322
▁호기심을 322
계좌 322
나이 322
대전 322
리나 322
월과 322
39 321
he 321
▁110 321
▁1·2 321
▁가정의 321
▁가져온 321
▁각광 321
▁그치지 321
▁길은 321
▁내년에는 321
▁누구보다 321
▁다릅니다 321
▁대신해 321
▁돕 321
▁말라고 321
▁법령 321
▁보컬 321
▁부위원장 321
▁사면 321
▁생태계를 321
▁수익이 321
▁스폰 321
▁스프링 321
▁억울 321
▁오기 321
▁올해의 321
▁입었다 321
▁조금이라도 321
▁직원들에게 321
▁체험할 321
▁친구들은 321
▁토요일에 321
▁팔을 321
▁표정으로 321
▁한마디 321
▁형식의 321
갱 321
곱 321
러의 321
륨 321
림은 321
박물관 321
포가 321
하였으나 321
현직 321
▁가능한지 320
▁검토할 320
▁고집 320
▁금융위기 320
▁김선 320
▁날인 320
▁동결 320
▁동영 320
▁마음은 320
▁말아 320
▁맑 320
▁민간인 320
▁바로잡 320
▁반려 320
▁번거 320
▁생활이 320
▁수수료를 320
▁영혼 320
▁옷이 320
▁용산구 320
▁유저 320
▁의문이 320
▁이길 320
▁전원이 320
▁중요성이 320
▁중으로 320
▁찬반 320
▁체력 320
▁타이어 320
▁함으로써 320
나와 320
녕 320
만족 320
번의 320
움에 320
자들에 320
중학교 320
▁공급을 319
▁국가와 319
▁권장 319
▁그중에서도 319
▁끌려 319
▁남성의 319
▁단계로 319
▁대체할 319
▁데도 319
▁드러내는 319
▁드러낸 319
▁모형 319
▁변하는 319
▁상대가 319
▁서면 319
▁압박을 319
▁으 319
▁이밖에 319
▁일괄 319
▁재산을 319
▁전문적인 319
▁주전 319
▁질이 319
▁한국어로 319
▁화면을 319
도서관 319
블록 319
소리가 319
협회는 319
훈련을 319
▁Z 318
▁개최되었다 318
▁결제가 318
▁계곡 318
▁과다 318
▁구급 318
▁국가에 318
▁국정원 318
▁남양 318
▁막혀 318
▁보내준 318
▁봤어요 318
▁부회 318
▁사물 318
▁상대방 318
▁스케 318
▁식민 318
▁아내는 318
▁없음을 318
▁엮 318
▁예상치 318
▁일방 318
▁재가 318
▁직원은 318
▁징계를 318
▁통일부 318
▁통찰 318
▁티브이 318
▁현실이다 318
넣 318
되지는 318
류는 318
망의 318
사항이 318
이든 318
제주 318
지난해 318
지부 318
집행 318
캠프 318
테일 318
편으로 318
▁강아지 317
▁근절 317
▁높아진다 317
▁눈물이 317
▁받아들 317
▁받았다는 317
▁발표하는 317
▁배분 317
▁빛나는 317
▁사령 317
▁살균 317
▁색을 317
▁선언했다 317
▁수상한 317
▁수입이 317
▁스페셜 317
▁없는지 317
▁와중에 317
▁이룬다 317
▁주먹 317
▁지역과 317
▁청와대의 317
▁촉발 317
▁하기로 317
▁협상의 317
〉 317
독한 317
디를 317
리트 317
민과 317
소재 317
쇼핑 317
이었다고 317
인터넷 317
평을 317
활동에 317
TA 316
∼9 316
▁건물의 316
▁관계로 316
▁국가인권 316
▁기능은 316
▁내달 316
▁드문 316
▁만들어서 316
▁말과 316
▁모델의 316
▁무단 316
▁무섭 316
▁밝히는 316
▁방안도 316
▁배경에는 316
▁불에 316
▁산업통상자원 316
▁새마을 316
▁세분 316
▁쉼 316
▁스펙트럼 316
▁실시하고 316
▁없었다는 316
▁없지 316
▁여동생 316
▁열정 316
▁오락 316
▁옹호 316
▁위안 316
▁이별 316
▁종로 316
▁중시 316
▁지속해서 316
▁착한 316
▁철저하게 316
▁콜롬비아 316
▁폭행을 316
깃 316
쓴 316
온은 316
장이나 316
저가 316
조작 316
▁그래야 315
▁넓혀 315
▁대표로 315
▁동성애 315
▁등판 315
▁문자를 315
▁반갑 315
▁발표가 315
▁불행 315
▁비전을 315
▁사이트를 315
▁샌 315
▁생기고 315
▁성실 315
▁시즌을 315
▁씨와 315
▁아이디어가 315
▁알고리즘을 315
▁여럿 315
▁유네스코 315
▁일일 315
▁장미 315
▁장치를 315
▁통치 315
▁해결해야 315
▁행동은 315
▁형식을 315
▁희망하는 315
개와 315
고객 315
교수 315
덩 315
민들이 315
번호를 315
분부터 315
서부 315
시지 315
제도가 315
튜 315
pp 314
▁가치와 314
▁국무위원장과 314
▁금요일에 314
▁기법 314
▁기저 314
▁나타낸다 314
▁느껴진다 314
▁대상이다 314
▁동대문 314
▁드러났 314
▁미디어가 314
▁발견할 314
▁배경이 314
▁배급 314
▁보여줬다 314
▁상처가 314
▁셧다운 314
▁수비수 314
▁숯 314
▁시작하면서 314
▁예산안 314
▁외에는 314
▁일으켜 314
▁잘못을 314
▁정서 314
▁조언을 314
▁지난해부터 314
▁추진해 314
▁태권 314
▁화상 314
떨 314
뜻 314
머리 314
삿 314
상도 314
시피 314
정원 314
콤 314
펙 314
▁112 313
▁‘3 313
▁가구의 313
▁개정을 313
▁계획이라고 313
▁고안 313
▁기자들과 313
▁낚시 313
▁뜨겁게 313
▁마련이다 313
▁믿지 313
▁받아들이지 313
▁발표하고 313
▁백성 313
▁사례다 313
▁서울로 313
▁손실 313
▁수축 313
▁왕세 313
▁위임 313
▁이리 313
▁이미지는 313
▁일상을 313
▁전국이 313
▁전락 313
▁주의가 313
▁주축 313
▁최고위원 313
▁클라 313
▁펼친 313
▁하루를 313
▁협력이 313
도까지 313
러를 313
받는다 313
방문 313
불교 313
스피 313
웨어 313
전한 313
진단 313
하죠 313
현장 313
화장 313
▁강력하게 312
▁관념 312
▁냉각 312
▁넷플릭 312
▁다이어 312
▁던진 312
▁동쪽 312
▁똑똑 312
▁면적 312
▁박영 312
▁밸 312
▁셋 312
▁예정돼 312
▁오르고 312
▁올라왔다 312
▁위협을 312
▁일선 312
▁접어 312
▁주춤 312
▁증진 312
▁지지하는 312
▁직선 312
▁차질이 312
▁채팅 312
▁친구에게 312
▁핵심이다 312
▁회장과 312
경기에서 312
될지 312
방식 312
업계가 312
주에서 312
준의 312
하시나요 312
67 311
▁3∼4 311
▁LED 311
▁“‘ 311
▁간판 311
▁것에서 311
▁관측도 311
▁남자친구 311
▁넘은 311
▁노하우를 311
▁녹지 311
▁동남 311
▁드러나는 311
▁들어왔 311
▁로그 311
▁민족의 311
▁보내주신 311
▁시험이 311
▁아메리카 311
▁양극 311
▁영역이 311
▁영화에서 311
▁젊 311
▁점수 311
▁주둔 311
▁지키지 311
▁찾아온 311
▁축구대표 311
▁호랑 311
▁회의에 311
경제가 311
뚜 311
로만 311
민을 311
반의 311
샷 311
심리 311
연구원은 311
영과 311
원들은 311
으신 311
통화 311
PO 310
▁74 310
▁경기장 310
▁구성이 310
▁대대적인 310
▁말했어요 310
▁박수를 310
▁보석 310
▁부끄러 310
▁비닐 310
▁셔틀 310
▁신이 310
▁신청이 310
▁알려주는 310
▁앨 310
▁어우러져 310
▁여건 310
▁올라와 310
▁왔던 310
▁우리나라에서 310
▁윌리엄 310
▁장소는 310
▁제한이 310
▁종합적으로 310
▁찾아가는 310
▁처리할 310
▁추론 310
▁학대 310
간을 310
마케팅 310
메이 310
밥을 310
창을 310
킥 310
ur 309
▁KIA 309
▁개정안은 309
▁객관적 309
▁결정된다 309
▁군의 309
▁글로 309
▁내세운 309
▁느끼지 309
▁다뤄 309
▁다르다는 309
▁대면 309
▁마련을 309
▁마리가 309
▁문서를 309
▁방안에 309
▁방탄소년단이 309
▁사적 309
▁선물로 309
▁수만 309
▁아일랜드 309
▁어디까지 309
▁연계해 309
▁이용하고 309
▁인천공항 309
▁전하고 309
▁접근성이 309
▁조성을 309
▁중산 309
▁초상 309
▁펼쳐졌다 309
▁피난 309
과거 309
그는 309
달러를 309
들께 309
예방 309
월의 309
자다 309
추는 309
쿼 309
▁〈 308
▁결합한 308
▁내어 308
▁도시로 308
▁메이크업 308
▁모터 308
▁문헌 308
▁받았어요 308
▁배경에 308
▁벽에 308
▁설명한 308
▁수질 308
▁신형 308
▁언어로 308
▁없어도 308
▁오디션 308
▁오페라 308
▁왼 308
▁이로써 308
▁임금을 308
▁입에 308
▁장점은 308
▁정신과 308
▁제공하기 308
▁지속되고 308
▁집값이 308
▁짙은 308
▁처리가 308
▁출품 308
▁캐스팅 308
▁하루가 308
▁함께한 308
▁핸드폰을 308
▁확보하기 308
계에서는 308
배에 308
설명 308
전국 308
축구연맹 308
해주실 308
31 307
▁걸었다 307
▁경험할 307
▁과학기술정보통신 307
▁국회를 307
▁금리를 307
▁급격하게 307
▁기준금리 307
▁까다 307
▁내재 307
▁대단한 307
▁댐 307
▁도시가 307
▁무사히 307
▁무죄를 307
▁부탁합니다 307
▁불구속 307
▁선정해 307
▁소재를 307
▁시스템의 307
▁시연 307
▁일입니다 307
▁자매 307
▁저감 307
▁전문성을 307
▁정상화 307
▁제기돼 307
▁종교적 307
▁줬다 307
▁짧게 307
▁청사 307
▁폭락 307
▁프라 307
▁향이 307
▁횡 307
공정 307
당국이 307
스럽고 307
이미 307
정부는 307
컷 307
팽 307
‘ 306
▁개발된 306
▁개장 306
▁거니 306
▁공유할 306
▁구속영장이 306
▁낮춰 306
▁도둑 306
▁듣기 306
▁뜬 306
▁맡게 306
▁무역전쟁이 306
▁미래가 306
▁사립유치 306
▁아름다움을 306
▁열이 306
▁용기를 306
▁의사결정 306
▁자세를 306
▁전라 306
▁주무 306
▁주차장 306
▁중국어 306
▁책에서 306
▁최장 306
▁컨트롤 306
▁학생들과 306
▁행정처 306
▁협조를 306
기관을 306
뚱 306
소리를 306
용은 306
즐 306
직자 306
짐에 306
.... 305
and 305
∼19 305
▁가능하다면 305
▁곡을 305
▁귀족 305
▁극대화 305
▁다가오는 305
▁말의 305
▁메커니즘 305
▁미쳤다 305
▁박람회 305
▁베테랑 305
▁사람입니다 305
▁사무실에 305
▁산다 305
▁성능을 305
▁스트리밍 305
▁신생 305
▁쓰레 305
▁않더라도 305
▁엿볼 305
▁영감을 305
▁우려했다 305
▁우리나라가 305
▁원형 305
▁이론의 305
▁지키기 305
▁청춘 305
▁코인 305
▁탄력근로제 305
▁태도가 305
▁한마디로 305
▁휴대전 305
론과 305
봇 305
사회에 305
소나 305
쌀 305
아요 305
정비 305
조원을 305
집은 305
체적 305
쳤던 305
췄다 305
▁가도 304
▁공영 304
▁나쁘 304
▁넘지 304
▁다양하고 304
▁다운로드 304
▁도시계획 304
▁마음껏 304
▁말부터 304
▁머리에 304
▁미안해 304
▁방문이 304
▁수준인 304
▁승무 304
▁시도를 304
▁시작했습니다 304
▁시장과 304
▁실물 304
▁와이 304
▁잠재적 304
▁종결 304
▁준비해야 304
▁증정 304
▁직원에게 304
▁폰 304
▁하나님께서 304
▁해상에서 304
니를 304
달이 304
리카 304
보유 304
업계의 304
운전 304
재단이 304
측이 304
ST 303
▁거센 303
▁것과는 303
▁겹쳐 303
▁계층 303
▁공동주택 303
▁구조는 303
▁규탄 303
▁기대되는 303
▁꼼꼼히 303
▁나흘 303
▁노동자의 303
▁달콤한 303
▁독일은 303
▁들어가면 303
▁떠오르는 303
▁모금 303
▁비어 303
▁사이트에 303
▁세계대전 303
▁아니며 303
▁얹 303
▁요금이 303
▁일어난다 303
▁자체로 303
▁팀에 303
▁파키스탄 303
▁판단이다 303
금액 303
돈이 303
브로 303
팀과 303
품으로 303
행사를 303
ct 302
▁가슴이 302
▁계정을 302
▁국가주 302
▁놀랐다 302
▁러브 302
▁마을의 302
▁모르겠지만 302
▁무게가 302
▁박사는 302
▁반전 302
▁부임 302
▁사운드 302
▁샌프란시스코 302
▁선거에 302
▁성도 302
▁소진 302
▁수분 302
▁순위를 302
▁어둠 302
▁에스케이 302
▁여부와 302
▁우크라이나 302
▁인터넷에 302
▁장의 302
▁적발됐다 302
▁점검을 302
▁점심을 302
▁제재가 302
▁체결했다 302
▁피하기 302
▁해결해 302
▁햄버거 302
군으로 302
수학 302
킬로미터 302
트릭 302
핏 302
LO 301
ul 301
∼8 301
▁고지 301
▁구리 301
▁국민을 301
▁귀찮 301
▁금리가 301
▁기다려야 301
▁기후변 301
▁농림축산식품 301
▁달라진다 301
▁말했다고 301
▁명확 301
▁목소리도 301
▁박상 301
▁박종 301
▁비하면 301
▁뻗 301
▁사회적으로 301
▁선수들은 301
▁쉬고 301
▁식탁 301
▁썩 301
▁아파트를 301
▁어쩌 301
▁억압 301
▁외신 301
▁음식에 301
▁전산 301
▁정권의 301
▁준비되어 301
▁착수했다 301
▁처리하는 301
▁취지다 301
▁평가할 301
▁표면에 301
▁하실 301
▁한마 301
국장 301
병에 301
보고서 301
보도 301
아파트 301
위권 301
전용 301
함께 301
▁1992 300
▁72 300
▁객관적인 300
▁고유한 300
▁교회에 300
▁구조로 300
▁궁금해 300
▁길이가 300
▁김대 300
▁김연 300
▁김제 300
▁내용도 300
▁돋 300
▁등록된 300
▁린드 300
▁맡는다 300
▁물고기 300
▁브라운 300
▁시각적 300
▁안쪽 300
▁양국이 300
▁어떡 300
▁어우러진 300
▁업로드 300
▁연인 300
▁이데올로 300
▁인정하지 300
▁정준 300
▁주제에 300
▁집중하고 300
▁탐사 300
▁팬들과 300
▁헌신 300
만원에 300
보조 300
사업자 300
앞 300
정도 300
하곤 300
ID 299
▁1500 299
▁걷고 299
▁게임의 299
▁공이 299
▁광주형 299
▁교황 299
▁기쁨을 299
▁늦어 299
▁단편 299
▁달걀 299
▁대중문화 299
▁더해져 299
▁도저히 299
▁도착했다 299
▁만나면 299
▁매체는 299
▁반응은 299
▁분비 299
▁비례대표 299
▁상품으로 299
▁수제 299
▁스카이 299
▁실어 299
▁없었다고 299
▁여성들의 299
▁여행객 299
▁역할에 299
▁울릉 299
▁음악에 299
▁잇따 299
▁적절히 299
▁전복 299
▁주한 299
▁최강 299
▁취미 299
▁측면을 299
▁프리미어리그 299
▁하겠다는 299
▁하니까 299
▁현실적인 299
▁환자는 299
▁후임 299
▁힘으로 299
경험 299
기업을 299
자로부터 299
전문가 299
통신은 299
▁61 298
▁69 298
▁개선될 298
▁과정과 298
▁기념해 298
▁기준은 298
▁김학의 298
▁내장 298
▁노동자가 298
▁단독주택 298
▁답변이 298
▁독일이 298
▁떨어진다 298
▁띤 298
▁마사 298
▁메뉴를 298
▁미디어는 298
▁보호하기 298
▁사업장 298
▁시너지 298
▁신비 298
▁쏟아졌다 298
▁안전하고 298
▁안타까운 298
▁영업이익이 298
▁영역의 298
▁예금 298
▁옮기 298
▁의병 298
▁잔뜩 298
▁재검토 298
▁재편 298
▁제시할 298
▁콘서트가 298
▁틀어 298
▁프로필 298
▁한국인의 298
▁홈페이지를 298
개정 298
관리를 298
궤 298
는다는 298
니의 298
다니는 298
물인 298
스팅 298
슨의 298
습이 298
움은 298
자금을 298
채는 298
터미널 298
하셔서 298
201 297
est 297
▁350 297
▁가정을 297
▁거점 297
▁건강하게 297
▁구축하는 297
▁국세 297
▁급한 297
▁까닭 297
▁나서서 297
▁남아있는 297
▁당신도 297
▁독일에서 297
▁돌고 297
▁뒤인 297
▁롱 297
▁린 297
▁말씀이 297
▁뮤직 297
▁바다를 297
▁바흐 297
▁서열 297
▁선순환 297
▁시장으로 297
▁시점이 297
▁쌓인 297
▁약속이 297
▁역사적인 297
▁열기가 297
▁옆에서 297
▁용도로 297
▁자기의 297
▁재확인 297
▁전해진다 297
▁제외하고는 297
▁주위를 297
▁친구들을 297
▁카운 297
▁편안하게 297
▁항구 297
▁행정안전부 297
▁현대중공업 297
▁확진 297
꼴 297
빈이 297
빌딩 297
엔터테인먼트 297
오던 297
정책에 297
철을 297
카메라 297
크와 297
툴 297
▁과제로 296
▁관점 296
▁놀랍 296
▁다이어트 296
▁다자 296
▁답이 296
▁되지만 296
▁먹기 296
▁미생 296
▁발탁 296
▁벗어난 296
▁분석됐다 296
▁비서실 296
▁사업자가 296
▁사이에는 296
▁순간을 296
▁스스로를 296
▁심사위원 296
▁영장을 296
▁오바마 296
▁요구할 296
▁요소로 296
▁증가에 296
▁킬 296
▁테이 296
▁프로젝트는 296
▁형평 296
골이 296
기업인 296
받기 296
방해 296
사에게 296
생은 296
스탄 296
엣 296
정상회담 296
침을 296
32 295
▁걸어서 295
▁관해서 295
▁교사는 295
▁교수와 295
▁그라 295
▁나타나지 295
▁다룰 295
▁대기오염 295
▁댓글을 295
▁미안해요 295
▁보라 295
▁부적절한 295
▁쇼케이 295
▁수용할 295
▁아닌데 295
▁아쉬움을 295
▁악영향을 295
▁운동의 295
▁원에 295
▁이원 295
▁제시한다 295
▁최상의 295
▁커서 295
▁특수한 295
▁항만 295
▁화면에 295
결합 295
깨 295
냅니다 295
답을 295
레를 295
르가 295
만큼이나 295
어린이 295
운이 295
▁1987 294
▁6, 294
▁가려면 294
▁거짓말을 294
▁건전 294
▁교류를 294
▁나을 294
▁눈물 294
▁단절 294
▁만남이 294
▁모여서 294
▁모이는 294
▁목이 294
▁보조금 294
▁분식회계 294
▁사라져 294
▁선점 294
▁수년 294
▁스폰서 294
▁어머니의 294
▁음악과 294
▁전보다 294
▁조기에 294
▁지난주에 294
▁펼쳐질 294
▁프로젝트가 294
▁하시는 294
경과 294
들에게도 294
똥 294
마드 294
만명의 294
미와 294
소설 294
언론 294
현실 294
호흡 294
후보 294
7% 293
▁간담 293
▁강력히 293
▁곤충 293
▁공표 293
▁꿈은 293
▁내다 293
▁놔 293
▁뚝 293
▁먹으러 293
▁바뀌고 293
▁백신 293
▁보고를 293
▁보냈습니다 293
▁복수 293
▁부양 293
▁부적 293
▁선거를 293
▁성장과 293
▁세계는 293
▁신속히 293
▁실시한다 293
▁언급하며 293
▁여의 293
▁영업을 293
▁원가 293
▁인프라를 293
▁적용될 293
▁전교 293
▁점수가 293
▁지나친 293
▁침략 293
▁항공사 293
▁혁신성장 293
리적 293
말로 293
베르 293
브리 293
업자 293
외과 293
요한 293
위원장을 293
터로 293
ia 292
▁가능해요 292
▁걸어가 292
▁공개된다 292
▁군은 292
▁기업가 292
▁낮고 292
▁니체는 292
▁달라는 292
▁드릴까요 292
▁매출액 292
▁멘 292
▁모양을 292
▁부스 292
▁선보이고 292
▁않았는데 292
▁어지 292
▁에릭 292
▁연락해 292
▁엽 292
▁용서 292
▁유감 292
▁의원들의 292
▁이재용 292
▁장기적인 292
▁절차에 292
▁참석할 292
▁측근 292
▁통영 292
▁형이상 292
▁휩쓸 292
▁흥분 292
가입 292
데요 292
번에 292
부진 292
사회를 292
오를 292
이랑 292
이제 292
티비 292
하시기 292
효가 292
.. 291
55 291
6000 291
84 291
▁of 291
▁가로막 291
▁간이 291
▁고구려 291
▁과제가 291
▁구축을 291
▁나아갈 291
▁냉동 291
▁등재 291
▁미처 291
▁발휘할 291
▁부족하다는 291
▁사소한 291
▁센서 291
▁소아 291
▁에너지의 291
▁연구팀은 291
▁예고했다 291
▁유럽에서 291
▁은행의 291
▁인내 291
▁자체는 291
▁잠수 291
▁주민의 291
▁집중하는 291
▁측에서 291
▁투자자들의 291
▁파악됐다 291
▁협회 291
닷컴 291
리즈 291
비행 291
싶 291
여대 291
재에 291
제약 291
종으로 291
플라 291
환경이 291
회관에서 291
회복 291
▁140 290
▁98 290
▁기다릴 290
▁기무사 290
▁난방 290
▁논란은 290
▁놀이터 290
▁다루고 290
▁동물을 290
▁맵 290
▁메가 290
▁모방 290
▁불투명 290
▁비즈니 290
▁사교육 290
▁세대의 290
▁스펙 290
▁아니냐 290
▁요구되는 290
▁의식이 290
▁잡힌 290
▁적을 290
▁지난번 290
▁참석하는 290
▁촉매 290
▁친화 290
▁탄산 290
그린 290
글로 290
껍 290
년간의 290
되길 290
수영 290
시마 290
시키며 290
신도시 290
적이지만 290
지던 290
타로 290
피의 290
∼10 289
▁거시 289
▁것만으로도 289
▁기계가 289
▁기체 289
▁나가야 289
▁날로 289
▁남의 289
▁넘기 289
▁뉴욕에서 289
▁덕에 289
▁데이터의 289
▁되풀이 289
▁모르겠 289
▁몰라요 289
▁배워 289
▁부산항 289
▁비슷하다 289
▁사랑과 289
▁사로잡았다 289
▁상용화 289
▁송파 289
▁쉬워 289
▁신고했다 289
▁신한금융 289
▁역동 289
▁일회용 289
▁자식 289
▁전화가 289
▁점과 289
▁주연 289
▁지니 289
▁직원들은 289
▁컷 289
▁평등 289
▁피부가 289
▁해임 289
내려 289
벨트 289
사례 289
췄 289
희망 289
34 288
▁202 288
▁감각을 288
▁건축물 288
▁과기정통 288
▁광범위한 288
▁광주시는 288
▁급속히 288
▁나이에 288
▁돌입했다 288
▁뜨겁다 288
▁러시아월드컵 288
▁로비 288
▁미드필더 288
▁바위 288
▁뱀 288
▁사실과 288
▁상승을 288
▁수반 288
▁스코 288
▁슬픈 288
▁실은 288
▁십자가 288
▁아끼지 288
▁열풍 288
▁요건을 288
▁의제 288
▁이시 288
▁이식 288
▁자산을 288
▁자영업자 288
▁적시 288
▁주문했다 288
▁지내는 288
▁찍는 288
▁착륙 288
▁캐릭터가 288
▁투자에 288
▁표지 288
▁학습을 288
▁한가 288
▁화재로 288
▁후보자의 288
규칙 288
땅 288
떼 288
머스 288
심으로 288
폭력 288
하겠지만 288
700 287
LG 287
OP 287
▁규범 287
▁기록하는 287
▁낭만 287
▁도시에서 287
▁들어간다 287
▁뜨거 287
▁마케 287
▁맞습니다 287
▁무리한 287
▁물과 287
▁밀착 287
▁바보 287
▁범죄를 287
▁봤는데 287
▁분석에 287
▁불합 287
▁사각 287
▁상황에서도 287
▁서울은 287
▁성장에 287
▁소리로 287
▁스카 287
▁실려 287
▁씨앗 287
▁아들의 287
▁역사는 287
▁운동에 287
▁유튜버 287
▁의장은 287
▁이름과 287
▁이지 287
▁일원 287
▁제주도는 287
▁지적을 287
▁차는 287
▁투자하는 287
▁판정 287
▁한국영 287
▁형식은 287
깔 287
대행 287
밀리 287
반도체 287
신문은 287
예를 287
옌 287
지역은 287
체육관에서 287
확인 287
▁1991 286
▁고마 286
▁관리할 286
▁국경을 286
▁넣는 286
▁놓치지 286
▁늘리고 286
▁다수가 286
▁담당하고 286
▁대의 286
▁덩어 286
▁드러난다 286
▁망가 286
▁못합니다 286
▁미국인 286
▁믿어 286
▁바꾸어 286
▁바이어 286
▁배양 286
▁버린 286
▁보내줄 286
▁부진한 286
▁부친 286
▁불과한 286
▁비판하는 286
▁사망자 286
▁사생활 286
▁성장한 286
▁슛 286
▁시작했고 286
▁알리기 286
▁연루된 286
▁오찬 286
▁요청하는 286
▁용기 286
▁이끌었다 286
▁일대에서 286
▁입양 286
▁있긴 286
▁지시한 286
▁지켜보 286
▁직장인 286
▁콘텐츠는 286
거를 286
교섭 286
댄 286
뜰 286
업은 286
와도 286
지는데 286
ICT 285
▁197 285
▁고사 285
▁공식적인 285
▁구하는 285
▁규정에 285
▁그레이 285
▁기장 285
▁김희 285
▁나가서 285
▁능력과 285
▁더운 285
▁동북아 285
▁동호 285
▁모르게 285
▁민주당은 285
▁블랙리스트 285
▁사용했다 285
▁스포 285
▁시작하였다 285
▁심각하게 285
▁싶다면 285
▁아파서 285
▁알아요 285
▁여사가 285
▁여신 285
▁월급 285
▁웬 285
▁이럴 285
▁임의 285
▁적극적 285
▁제한하는 285
▁좋아해 285
▁증가하면서 285
▁지적한다 285
▁찬양 285
▁탕 285
▁태풍이 285
▁테크 285
▁파티를 285
▁판단하는 285
▁회화 285
구매 285
대표가 285
드라 285
뭇 285
병은 285
보에 285
비용이 285
시께 285
어난 285
엉 285
연구원이 285
이거나 285
조치가 285
줘요 285
쳤고 285
했음에도 285
험 285
CD 284
ig 284
▁BTS 284
▁가설 284
▁가죽 284
▁감소하는 284
▁강세를 284
▁갖지 284
▁결정된 284
▁계획입니다 284
▁공학 284
▁구속된 284
▁기대해 284
▁나가고 284
▁나왔습니다 284
▁내밀 284
▁다음은 284
▁뒤따 284
▁민주당의 284
▁발현 284
▁빚을 284
▁사드 284
▁생각했습니다 284
▁아버지를 284
▁어리 284
▁영어가 284
▁영향은 284
▁왔을 284
▁요청이 284
▁우즈벡 284
▁우호 284
▁위치가 284
▁의도적으로 284
▁이외의 284
▁재임 284
▁전자상거래 284
▁정보에 284
▁정책으로 284
▁제도는 284
▁청산 284
▁최우선 284
▁페이지 284
거야 284
넥 284
래가 284
미사일 284
삐 284
스톤 284
여년 284
터에 284
57 283
▁가능할까요 283
▁개발과 283
▁공업 283
▁굵 283
▁귀농 283
▁남북한 283
▁동포 283
▁딸의 283
▁생체 283
▁안겨 283
▁어휘 283
▁업체는 283
▁왕복 283
▁위촉 283
▁의문을 283
▁일명 283
▁죄송 283
▁지도자 283
▁지역주민 283
▁진상조사 283
▁쭉 283
▁카페에서 283
▁통과한 283
▁펜션 283
▁폭스 283
▁학생부 283
▁한잔 283
궈 283
날을 283
되는지 283
모임 283
시리즈 283
업계는 283
오지 283
위원회와 283
정책의 283
캐피탈 283
켈 283
평이 283
▁갤러 282
▁대법원은 282
▁동물의 282
▁동안의 282
▁뛰는 282
▁마련하고 282
▁부드럽게 282
▁세련된 282
▁소망 282
▁시각을 282
▁심층 282
▁연구소 282
▁오세요 282
▁위상을 282
▁일시적으로 282
▁일요일에 282
▁장성 282
▁전동 282
▁전략은 282
▁점유 282
▁주도한 282
▁줄줄이 282
▁지적한 282
▁진상규 282
▁평일 282
▁포함되지 282
▁풀려 282
▁하노 282
▁해석을 282
▁해운대 282
▁확인해야 282
깁니다 282
드루킹 282
란다 282
루의 282
멀 282
발로 282
비용을 282
왔지만 282
작용 282
작은 282
주차 282
중의 282
해주셔서 282
환자 282
▁국비 281
▁길거리 281
▁꽃이 281
▁노력해야 281
▁놀랐 281
▁느낀다 281
▁대미 281
▁등산 281
▁모두의 281
▁묶어 281
▁발전과 281
▁보류 281
▁사용해야 281
▁선수들을 281
▁아파 281
▁우려된다 281
▁워너 281
▁원자의 281
▁장치가 281
▁전성 281
▁전지 281
▁제주시 281
▁증여 281
▁지켜야 281
▁추진한 281
▁타자 281
▁트위터에 281
▁퍼포먼 281
▁편의를 281
▁표정이 281
▁프레스 281
▁해외로 281
기상 281
나눔 281
노동조합 281
리라고 281
먹는 281
병으로 281
워크 281
인간 281
인지는 281
즙 281
직이 281
채용 281
후가 281
흔 281
·3 280
▁79 280
▁간담회를 280
▁결정적 280
▁공연에 280
▁내려진 280
▁다중 280
▁당해 280
▁듣지 280
▁마을을 280
▁마음대로 280
▁만듭니다 280
▁모습도 280
▁받았지만 280
▁방정 280
▁비치 280
▁사용될 280
▁설치를 280
▁설치한 280
▁소금 280
▁손흥민은 280
▁스테이크 280
▁싱 280
▁안녕 280
▁암시 280
▁이르렀다 280
▁일본군 280
▁일었다 280
▁전까지는 280
▁중에서는 280
▁질적 280
▁통역 280
▁통학 280
▁폐기물 280
▁하려는 280
▁해지 280
▁현금으로 280
▁화학적 280
▁확보했다 280
▁훌쩍 280
도도 280
뿐이다 280
약한 280
옷 280
창호 280
첨 280
출이 280
희의 280
OD 279
▁간단하게 279
▁감기 279
▁개헌 279
▁경제는 279
▁관객들은 279
▁구멍이 279
▁권한이 279
▁끼어 279
▁두뇌 279
▁로드 279
▁리드 279
▁명예훼손 279
▁모호 279
▁미끄러 279
▁발견하고 279
▁서울시장 279
▁성추 279
▁숨겨 279
▁숨지게 279
▁실습 279
▁싶은데요 279
▁쓰인 279
▁양은 279
▁어차피 279
▁온전히 279
▁인체 279
▁있으세요 279
▁자궁 279
▁저마다 279
▁줄곧 279
▁차라리 279
▁카르 279
▁필리핀에 279
기보다 279
들까지 279
받게 279
운동의 279
하자고 279
회말 279
3% 278
64 278
os 278
▁1988 278
▁YG 278
▁가뭄 278
▁간과 278
▁겁니까 278
▁공개해 278
▁교회의 278
▁독도 278
▁랜 278
▁마찰 278
▁많았던 278
▁머무는 278
▁무서운 278
▁박진 278
▁발로 278
▁비난을 278
▁비트코인 278
▁삭감 278
▁산업은 278
▁생산한 278
▁선보이며 278
▁소통하는 278
▁송환 278
▁없네요 278
▁연세대 278
▁열흘 278
▁요청합니다 278
▁이씨는 278
▁임금이 278
▁젤 278
▁차량의 278
▁하청 278
▁호평을 278
기업에 278
뚝 278
르의 278
목적 278
버스를 278
변이 278
수용 278
으려면 278
이너 278
인치 278
조와 278
증에 278
촬영 278
칭을 278
커녕 278
흡 278
AS 277
▁견디 277
▁경제학 277
▁공간과 277
▁괜찮아요 277
▁국민에게 277
▁그려진 277
▁극단적인 277
▁남기고 277
▁너머 277
▁늘릴 277
▁단단 277
▁단정 277
▁대화의 277
▁됐어요 277
▁드려 277
▁멈 277
▁멘토 277
▁방에서 277
▁벗어나지 277
▁부모와 277
▁사유가 277
▁손잡 277
▁손학규 277
▁얇 277
▁에스엔에스 277
▁요구하며 277
▁원으로 277
▁의도를 277
▁이대 277
▁이메 277
▁장학 277
▁주도권을 277
▁주목하고 277
▁지점에서 277
▁크기를 277
▁탄압 277
▁통신원이 277
▁하나님을 277
▁한껏 277
▁한복을 277
▁한편으로는 277
과목 277
나마 277
밋 277
베스트 277
빨 277
시간으로 277
운송 277
천이 277
j 276
▁$ 276
▁가입자 276
▁개그맨 276
▁구멍 276
▁넣었다 276
▁대형마트 276
▁도요 276
▁명목으로 276
▁몰랐다 276
▁물체의 276
▁보았습니다 276
▁보이기 276
▁수입을 276
▁아닌가요 276
▁예상하고 276
▁옵션 276
▁움 276
▁유한 276
▁의장이 276
▁인연이 276
▁장례식 276
▁적다 276
▁주름 276
▁지원하기 276
▁진행되며 276
▁추정하고 276
▁축제로 276
▁커지자 276
▁튀어나 276
▁팔고 276
▁풍성 276
▁하므로 276
▁해양수산 276
▁했으며 276
▁현실에서 276
기업과 276
방식을 276
밴 276
법칙 276
윤리 276
으면서도 276
자격 276
제품을 276
창한 276
쳤습니다 276
치면서 276
크에 276
▁경기침 275
▁고찰 275
▁깎아 275
▁나머지는 275
▁논의했다 275
▁농산물 275
▁달고 275
▁담겨있다 275
▁동창 275
▁드림 275
▁머릿 275
▁먹어야 275
▁민주화 275
▁반복적으로 275
▁비위 275
▁빈번 275
▁상금 275
▁생산할 275
▁생선 275
▁성황리에 275
▁승리의 275
▁아픔을 275
▁열정이 275
▁운명 275
▁일찌감치 275
▁임용 275
▁정보기술 275
▁제국 275
▁조속히 275
▁중소기업의 275
▁진료를 275
▁찾는다 275
▁캄보디아 275
▁쿨 275
▁터치 275
▁투표를 275
▁펼쳐진 275
▁하락한 275
▁환원 275
겠다며 275
신문이 275
실히 275
포르 275
PM 274
▁2% 274
▁감면 274
▁건강이 274
▁과열 274
▁관리하고 274
▁그것의 274
▁그리워 274
▁단계적으로 274
▁담임 274
▁더러 274
▁돕는다 274
▁때때로 274
▁부하 274
▁사안이 274
▁살펴본 274
▁생각도 274
▁시민들은 274
▁시작을 274
▁운영한다 274
▁위원회 274
▁이유에서다 274
▁임대료 274
▁자유무역 274
▁제압 274
▁참석하고 274
▁총리와 274
▁타인의 274
▁포르투갈 274
▁포트폴리오 274
▁한유총 274
▁화제다 274
▁환급 274
▁휴양 274
발전을 274
부동산 274
슈퍼 274
심한 274
연수 274
장려 274
쟁이 274
코스 274
터와 274
퍼드 274
KB 273
▁가지의 273
▁감성을 273
▁거꾸로 273
▁과언이 273
▁구조조정 273
▁국내에서도 273
▁기대하는 273
▁꿈꾸 273
▁꿰 273
▁놀라게 273
▁다음의 273
▁뒤에서 273
▁랭킹 273
▁막상 273
▁못했다고 273
▁무서 273
▁문장을 273
▁미투 273
▁바와 273
▁벌써부터 273
▁병을 273
▁본다면 273
▁분야로 273
▁불안정 273
▁비핵화에 273
▁사례도 273
▁수익률 273
▁식당에서 273
▁식별 273
▁실장은 273
▁싫어하는 273
▁아니라면 273
▁알바 273
▁업계가 273
▁에듀 273
▁연안 273
▁요청할 273
▁이동이 273
▁잤 273
▁전진 273
▁정형 273
▁조사는 273
▁지수가 273
▁지시했다 273
▁지원한 273
▁진출이 273
▁캠페 273
▁크레 273
▁튜 273
▁팀장 273
▁팬이 273
▁표명 273
리거나 273
린의 273
사회에서 273
케이션 273
할까 273
em 272
▁0.0 272
▁15% 272
▁95 272
▁가마 272
▁강성 272
▁국방부가 272
▁때를 272
▁뚫고 272
▁로맨 272
▁반짝 272
▁보기에 272
▁보람 272
▁사람에 272
▁살아갈 272
▁수험생 272
▁스타디움에서 272
▁승려 272
▁시공간 272
▁어필 272
▁열람 272
▁우월 272
▁챔피언십 272
▁출신으로 272
▁출자 272
▁측정하는 272
▁태어났 272
▁투명한 272
▁편한 272
▁하느 272
▁힘들게 272
구조를 272
디지털 272
점인 272
좋은 272
카르 272
토의 272
했거나 272
했으니 272
호에 272
▁6·25 271
▁CD 271
▁갇 271
▁같고 271
▁구두 271
▁기재부 271
▁김주 271
▁다국적 271
▁목적에 271
▁밀어붙 271
▁발견돼 271
▁발의한 271
▁벡 271
▁비트 271
▁생각했어요 271
▁소프트 271
▁순위가 271
▁쌓은 271
▁알아보고 271
▁언제부터 271
▁업체를 271
▁에이스 271
▁역사에 271
▁오렌지 271
▁은행에 271
▁이상적인 271
▁자기소개 271
▁장수 271
▁장점이다 271
▁재수 271
▁재해 271
▁전달해 271
▁절실 271
▁정답 271
▁정하고 271
▁조언했다 271
▁증가가 271
▁지하철을 271
▁집필 271
▁차등 271
▁창의적인 271
▁컬 271
▁크로 271
▁통계를 271
▁파기 271
▁펌 271
▁필요하지 271
▁하락세를 271
▁하락했다 271
▁헐 271
▁확보에 271
▁히틀 271
▁힐링 271
마저도 271
병원에 271
실장은 271
있고 271
작으로 271
포로 271
품질 271
▁2.5 270
▁UN 270
▁가산 270
▁개정안을 270
▁경제성 270
▁계란 270
▁공룡 270
▁공장이 270
▁기대에 270
▁기여한 270
▁눈과 270
▁눈앞에 270
▁도전을 270
▁밝히지 270
▁방문했다 270
▁버려 270
▁벌어질 270
▁본부 270
▁사무실에서 270
▁선택해 270
▁소개한 270
▁속출 270
▁안성 270
▁알릴 270
▁알아서 270
▁연동형 270
▁영등포구 270
▁음악의 270
▁이르러 270
▁이색 270
▁정우 270
▁지장이 270
▁첨부된 270
▁포함하고 270
▁홍콩에서 270
▁활용하고 270
교육과 270
교육이 270
그러나 270
극을 270
비에스 270
상한 270
수소 270
양성 270
졌으나 270
하자면 270
할게 270
횡 270
PA 269
▁감리 269
▁경계를 269
▁경상남도 269
▁구축하고 269
▁그래요 269
▁낯설 269
▁능력은 269
▁닉 269
▁단어가 269
▁더했다 269
▁도구를 269
▁도와주 269
▁도입된 269
▁드리고 269
▁마라톤 269
▁멤버들의 269
▁보시면 269
▁본능 269
▁부산에 269
▁불가피한 269
▁비만 269
▁비영리 269
▁상고 269
▁수익률이 269
▁시급한 269
▁시작될 269
▁아내를 269
▁애국 269
▁언론들은 269
▁여론을 269
▁연체 269
▁올라가는 269
▁유도하는 269
▁저출산 269
▁제보 269
▁조성된 269
▁좀더 269
▁주제는 269
▁지지율 269
▁크리에이터 269
▁필수적인 269
▁하신 269
▁회원이 269
▁흔한 269
강이 269
권으로 269
보드 269
사업으로 269
양은 269
팍 269
한화 269
CS 268
▁감찰 268
▁건수가 268
▁고민하고 268
▁고혈압 268
▁교수님 268
▁국가는 268
▁김은 268
▁날카로운 268
▁노원 268
▁동구 268
▁동생이 268
▁때려 268
▁띄게 268
▁마산 268
▁마신 268
▁만들어진다 268
▁만들지 268
▁믿음을 268
▁병이 268
▁보여주었다 268
▁부분의 268
▁브레이 268
▁사고의 268
▁상대방의 268
▁소통이 268
▁스님 268
▁슬퍼 268
▁아시 268
▁없다며 268
▁없었기 268
▁여자친구 268
▁영수증 268
▁오일 268
▁욕구를 268
▁이따 268
▁이미지와 268
▁자신감이 268
▁전달하고 268
▁전두환 268
▁전이 268
▁종전 268
▁좋다는 268
▁직결 268
▁체크인 268
▁축복 268
▁출장을 268
▁충실 268
▁터라 268
▁프로야구 268
▁필요한데 268
▁혼잡 268
▁활용될 268
구성 268
능력이 268
드에서 268
레이드 268
면에는 268
설비 268
업체에 268
텔레 268
항이 268
▁SW 267
▁가상현실 267
▁결정한다 267
▁곳의 267
▁국무총리 267
▁군데 267
▁남학생 267
▁달러의 267
▁도로가 267
▁라벨 267
▁마련하는 267
▁문제들을 267
▁반영하는 267
▁번이나 267
▁불펜 267
▁사람이에요 267
▁사슬 267
▁설치하고 267
▁세븐 267
▁세입 267
▁수료 267
▁스타들이 267
▁시위가 267
▁양측이 267
▁얽 267
▁에이전 267
▁연결되는 267
▁왔어 267
▁우선순 267
▁이루어지지 267
▁자료는 267
▁절약 267
▁제출했다 267
▁제한을 267
▁지향하는 267
▁질서 267
▁청년이 267
▁청량 267
▁탱 267
▁푸는 267
▁핸드 267
▁호소했다 267
▁홍준표 267
▁확대가 267
공원에서 267
사령부 267
수급 267
으로의 267
이라고도 267
켰다 267
퀴 267
화되면서 267
▁62 266
▁강화해 266
▁교육청 266
▁그것이다 266
▁놓았다 266
▁단원 266
▁대통령에 266
▁마스크를 266
▁멸종 266
▁문제점 266
▁물체 266
▁미치고 266
▁민정 266
▁바둑 266
▁방송은 266
▁부작용을 266
▁색깔이 266
▁선언한 266
▁시민들에게 266
▁실린 266
▁아내의 266
▁알고리즘이 266
▁여전 266
▁위를 266
▁인류가 266
▁일제강점기 266
▁임시정부 266
▁자부 266
▁잘하고 266
▁저자는 266
▁제치고 266
▁좁아 266
▁지역에는 266
▁축구를 266
▁축제의 266
▁키움 266
▁편향 266
▁표방 266
▁필요했다 266
▁하나만 266
▁헬스 266
나를 266
돼서 266
력도 266
로봇 266
사각 266
소유 266
슴 266
지역을 266
통에 266
티가 266
행사가 266
▁4000 265
▁IS 265
▁건물에 265
▁게시판 265
▁견해를 265
▁공기를 265
▁권유 265
▁나타내고 265
▁낳은 265
▁농가 265
▁대응하기 265
▁도와주는 265
▁루이 265
▁마구 265
▁만의 265
▁미스 265
▁박찬 265
▁벗어날 265
▁보이는데 265
▁부분도 265
▁사이를 265
▁삼성의 265
▁성관계 265
▁세우는 265
▁세이 265
▁세종시 265
▁소음 265
▁실종된 265
▁않겠 265
▁암세포 265
▁외로 265
▁의심되는 265
▁이병 265
▁인도의 265
▁일주 265
▁일행 265
▁정시 265
▁정신질환 265
▁정책적 265
▁종속 265
▁좋지만 265
▁주민등록 265
▁주저 265
▁청와대와 265
▁초기에는 265
▁합산 265
▁홍보를 265
공단이 265
교과 265
기술이 265
네이 265
대회가 265
드레 265
말라 265
문제가 265
속이 265
업체의 265
엔터테인먼 265
주들이 265
지수가 265
▁궁극적으로 264
▁권리가 264
▁김병준 264
▁김부 264
▁넘나 264
▁넘어서는 264
▁넘어섰다 264
▁닮은 264
▁당이 264
▁데이비드 264
▁도의 264
▁도입에 264
▁따르 264
▁로맨스 264
▁밑에 264
▁받아들이는 264
▁비트코 264
▁빼돌 264
▁사귀 264
▁사야 264
▁삼성전자와 264
▁상승한 264
▁선택의 264
▁성장세를 264
▁소비자를 264
▁엘지 264
▁위협이 264
▁이젠 264
▁잃어버린 264
▁제작하는 264
▁초부터 264
▁총장은 264
▁추진을 264
▁패스트 264
▁폭발적인 264
▁피해는 264
▁학살 264
▁해결책을 264
▁해온 264
▁환경과 264
둑 264
디아 264
마당 264
숭 264
용의 264
장기 264
조달 264
oc 263
▁“201 263
▁갇혀 263
▁강수 263
▁공제 263
▁공주 263
▁그러자 263
▁깨고 263
▁남기 263
▁다친 263
▁달리는 263
▁대안으로 263
▁들어가서 263
▁때에도 263
▁명백한 263
▁모른다는 263
▁미국산 263
▁부검 263
▁부족으로 263
▁불과했다 263
▁불황 263
▁사진으로 263
▁삼성바이오로직 263
▁선생님은 263
▁시신을 263
▁시중은행 263
▁아이들과 263
▁안착 263
▁어떻 263
▁예측을 263
▁운이 263
▁웃고 263
▁임진왜란 263
▁지킬 263
▁총을 263
▁커진다 263
▁클래 263
▁키울 263
▁테마파크 263
▁통화를 263
▁폭을 263
▁풍경을 263
▁환경의 263
▁환자에게 263
기준을 263
대기 263
되었기 263
두로 263
린다는 263
상품을 263
소비자 263
실적 263
쓰고 263
품은 263
현과 263
혈관 263
GDP 262
▁GDP 262
▁SM 262
▁St 262
▁겪을 262
▁고려하여 262
▁고분 262
▁그곳은 262
▁극복하고 262
▁급감 262
▁기분을 262
▁논란의 262
▁래퍼 262
▁맞는지 262
▁모른 262
▁미친다 262
▁믿음이 262
▁방법도 262
▁보호하는 262
▁부부의 262
▁불신 262
▁비관 262
▁비용으로 262
▁빚어 262
▁선풍 262
▁성동 262
▁소비자는 262
▁신발을 262
▁여자를 262
▁온다 262
▁의구 262
▁자아냈다 262
▁작용한 262
▁정동 262
▁정의를 262
▁조처를 262
▁차이로 262
▁체내 262
▁최정 262
▁평양에서 262
▁포인트를 262
▁표정 262
▁홍영표 262
▁횡단 262
긍 262
디에 262
무용 262
실장이 262
칩 262
평등 262
49 261
▁‘5 261
▁개념으로 261
▁국빈 261
▁기법을 261
▁김천 261
▁납득 261
▁다주택 261
▁다투 261
▁도로에서 261
▁마라 261
▁마련되어 261
▁사임 261
▁소독 261
▁소득을 261
▁스마트시티 261
▁승소 261
▁시행된 261
▁영화와 261
▁워킹 261
▁이야기할 261
▁입지를 261
▁잊어버 261
▁작품들이 261
▁적폐 261
▁전속 261
▁전승 261
▁조건에 261
▁찍을 261
▁치료에 261
▁태블릿 261
▁평가된다 261
▁한진그룹 261
▁협업을 261
▁후퇴 261
공무 261
드리도록 261
로지 261
붓 261
새로운 261
선교 261
셈 261
셰 261
소통 261
수수 261
슘 261
왔고 261
쥬 261
짖 261
홍보 261
훈은 261
RA 260
▁거칠 260
▁것이라며 260
▁경제적으로 260
▁고리 260
▁고마워요 260
▁노선을 260
▁동래 260
▁되었을 260
▁떼어 260
▁레슬 260
▁마련돼 260
▁말입니다 260
▁무사 260
▁문화체육관광 260
▁바다로 260
▁발견해 260
▁발이 260
▁밤을 260
▁배우들의 260
▁배타 260
▁버튼 260
▁부유 260
▁부품을 260
▁산학 260
▁상공 260
▁섞여 260
▁선거제 260
▁소유한 260
▁스태프 260
▁실시하는 260
▁알아볼 260
▁없이도 260
▁여자친 260
▁영변 260
▁완성된 260
▁웃으며 260
▁이력 260
▁자녀의 260
▁작용을 260
▁점검하고 260
▁제공합니다 260
▁제한된 260
▁찾아서 260
▁출토 260
▁펼쳐지는 260
갈등 260
믹스 260
방울 260
서야 260
지역으로 260
초가 260
하다면 260
oo 259
▁AR 259
▁갔다가 259
▁갔을 259
▁근처에서 259
▁깨닫게 259
▁나뭇 259
▁남편의 259
▁다르지만 259
▁도시에 259
▁됩니까 259
▁명은 259
▁목에 259
▁상점 259
▁수치가 259
▁심의를 259
▁아세안 259
▁않았다면 259
▁여기저기 259
▁연못 259
▁영수증을 259
▁오리지널 259
▁우대 259
▁음악은 259
▁음향 259
▁이야기하는 259
▁인지도가 259
▁자사고 259
▁재능을 259
▁저소득층 259
▁조상 259
▁찔 259
▁참여하여 259
▁책에 259
▁충성 259
▁투자한 259
▁트렌드를 259
▁필자는 259
▁형상 259
▁확정됐다 259
▁힘은 259
등한 259
병원에서 259
사장 259
심사를 259
역량 259
졌는지 259
테르 259
폐기 259
2’ 258
]. 258
ter 258
▁걷어 258
▁결제를 258
▁결함 258
▁경상북도 258
▁금융투자 258
▁기숙 258
▁김대중 258
▁나오자 258
▁누리꾼 258
▁되었다는 258
▁랜드 258
▁램 258
▁레이더 258
▁로켓 258
▁링크 258
▁마술 258
▁바람직 258
▁보내드리겠습니다 258
▁부적절 258
▁불쾌 258
▁비행기가 258
▁뽀 258
▁사유를 258
▁생계 258
▁소나 258
▁쉐 258
▁아빠가 258
▁얇은 258
▁온천 258
▁완화를 258
▁윤곽 258
▁이슈를 258
▁자연을 258
▁조치로 258
▁주주총 258
▁판사는 258
▁풍성한 258
▁피드백 258
▁피자 258
▁헬기 258
▁확대와 258
▁휘발유 258
라이프 258
물리학 258
벳 258
예정 258
준은 258
직에 258
키가 258
특별위원회 258
평가를 258
표는 258
하였던 258
혹한 258
활동이 258
7000 257
▁개념과 257
▁계획하고 257
▁구성된다 257
▁국무장관이 257
▁그릴 257
▁길러 257
▁다르기 257
▁대변인이 257
▁대응하는 257
▁도구로 257
▁독립을 257
▁때문인 257
▁말하며 257
▁문구가 257
▁묻고 257
▁미소 257
▁발산 257
▁베트남에서 257
▁부르고 257
▁부시 257
▁불교의 257
▁불안한 257
▁사로잡는다 257
▁새겨진 257
▁생각했던 257
▁생명이 257
▁서로에게 257
▁심야 257
▁얻지 257
▁여덟 257
▁온도를 257
▁요청에 257
▁응답이 257
▁인물로 257
▁적당 257
▁전통의 257
▁졸업한 257
▁주문할 257
▁초점이 257
▁팔아 257
▁폭탄 257
▁할아버지 257
▁해외에 257
▁행사의 257
▁홈런을 257
▁흑인 257
경찰청 257
기아 257
덱 257
략 257
리안 257
명령 257
배나 257
병원이 257
숍 257
았으나 257
업체들이 257
제이 257
조차도 257
찍 257
척이 257
타의 257
SC 256
TC 256
▁8, 256
▁고민하는 256
▁관객을 256
▁괜찮을 256
▁국제사회의 256
▁군인 256
▁금융기관 256
▁단말 256
▁대안이 256
▁대응에 256
▁떠오르고 256
▁레벨 256
▁면모를 256
▁박해 256
▁보스턴 256
▁부인은 256
▁설렘 256
▁소개한다 256
▁수년간 256
▁수익성이 256
▁승부를 256
▁신작 256
▁아끼 256
▁아들은 256
▁아카데미 256
▁애를 256
▁어려웠 256
▁연꽃 256
▁오래전부터 256
▁원칙적으로 256
▁작용했다 256
▁장벽 256
▁정반 256
▁지도부가 256
▁지을 256
▁진흥 256
▁한시 256
▁한진 256
▁할머니는 256
겔 256
경제를 256
모의 256
사도 256
커스 256
▁1930 255
▁AS 255
▁강경화 255
▁개최된다 255
▁거는 255
▁공개돼 255
▁구조와 255
▁내며 255
▁넘는다 255
▁다녀온 255
▁단기간에 255
▁담당자 255
▁도울 255
▁들러 255
▁따라가 255
▁마비 255
▁맞추는 255
▁모르겠습니다 255
▁모양으로 255
▁부산지역 255
▁부자 255
▁블랙핑 255
▁생각하기 255
▁생겨서 255
▁수치를 255
▁신사 255
▁에르 255
▁역임 255
▁영리 255
▁영역으로 255
▁오디오 255
▁우려하는 255
▁워터 255
▁원본 255
▁원한다면 255
▁잃지 255
▁입자의 255
▁적절하게 255
▁조양호 255
▁직장을 255
▁차관이 255
▁청각 255
▁취업을 255
▁치우 255
▁컨셉 255
▁콤 255
▁트리 255
▁포함하여 255
▁푸드 255
▁해준 255
▁행태 255
▁효율성을 255
▁후보자는 255
골프 255
공학과 255
네트워크 255
디스플레이 255
백이 255
블리 255
왕은 255
지휘 255
치다 255
침이 255
트랙 255
하기까지 255
홈런 255
!" 254
33 254
77 254
▁7, 254
▁강서구 254
▁고객과 254
▁고객들의 254
▁높인 254
▁로스 254
▁문법 254
▁미국에서는 254
▁바람직하다 254
▁방향에 254
▁보장하는 254
▁사모 254
▁살았다 254
▁스페 254
▁앤의 254
▁언어의 254
▁엔지니어 254
▁연소 254
▁운전을 254
▁워크 254
▁원주 254
▁위반한 254
▁이전에는 254
▁인건 254
▁접한 254
▁조성하는 254
▁증거인멸 254
▁지배하는 254
▁지체 254
▁출석해 254
▁퀸 254
▁파악해 254
▁한자리에 254
▁흩 254
놓았다 254
리얼 254
모로 254
문화예술 254
소득이 254
시대에 254
아니 254
아와 254
연료 254
영업 254
임에 254
있게 254
졌어 254
즉 254
지급 254
집단 254
체제를 254
추가 254
팅이 254
OT 253
ie 253
▁86 253
▁IC 253
▁것이어서 253
▁계단 253
▁공예 253
▁국제적인 253
▁기대해본다 253
▁기밀 253
▁달간 253
▁대세 253
▁도입해 253
▁동해안 253
▁되돌 253
▁몸은 253
▁무거 253
▁미국과의 253
▁보름 253
▁사격 253
▁사형 253
▁속하는 253
▁솔루션을 253
▁아파트가 253
▁역으로 253
▁연말까지 253
▁월스트리트저널 253
▁의원들은 253
▁인격 253
▁인물이다 253
▁자리는 253
▁장애가 253
▁재생에너지 253
▁전면에 253
▁접수된 253
▁조약 253
▁중소기업이 253
▁지닌다 253
▁지친 253
▁짚 253
▁책상 253
▁축산 253
▁타면 253
▁평가하고 253
▁피어 253
과학기술 253
됐는지 253
마일 253
박을 253
선택 253
섬유 253
어떤 253
에다 253
주주 253
지원을 253
학교에 253
65 252
88 252
▁& 252
▁tvN 252
▁간편하게 252
▁개최하고 252
▁검정 252
▁것들은 252
▁과거를 252
▁관여한 252
▁광장 252
▁구글이 252
▁구워 252
▁그로부터 252
▁금전 252
▁금지하는 252
▁뉴턴 252
▁대중음악 252
▁대하는 252
▁등록을 252
▁맞다 252
▁모아지고 252
▁모임을 252
▁민원이 252
▁바르셀로나 252
▁방지하기 252
▁불로 252
▁사진에 252
▁상자 252
▁소비를 252
▁앞에는 252
▁오게 252
▁오르면서 252
▁외국어 252
▁유물 252
▁일들을 252
▁재일 252
▁적발된 252
▁제네 252
▁조사해 252
▁지원과 252
▁진한 252
▁짐작할 252
▁참여하지 252
▁춘 252
▁쾌적한 252
▁터미널 252
▁퍼포먼스 252
▁품질을 252
▁하나님께 252
▁하원 252
▁한지 252
▁햇 252
▁헬스케어 252
▁화산 252
▁화제 252
글라 252
모는 252
시간은 252
아라 252
아직 252
유지 252
으론 252
쪽에서 252
하기보다는 252
TM 251
▁가닥 251
▁공론 251
▁공작 251
▁교사들이 251
▁구원 251
▁그렇습니다 251
▁극중 251
▁금융위는 251
▁기승을 251
▁기울이고 251
▁기자는 251
▁긴장감을 251
▁논의하는 251
▁매장에 251
▁명단에 251
▁모양이 251
▁문화는 251
▁바이올 251
▁본토 251
▁부모님은 251
▁비슷하게 251
▁빨간색 251
▁사안에 251
▁신속 251
▁실재 251
▁안전사고 251
▁앉은 251
▁이란의 251
▁이용자들이 251
▁인터넷에서 251
▁증선 251
▁지역별 251
▁채굴 251
▁청정 251
▁충격이 251
▁카라 251
▁크기는 251
▁키즈 251
▁평가는 251
▁하였습니다 251
리던 251
목으로 251
스쿨 251
스포 251
시경 251
시장과 251
았으면 251
언이 251
업체인 251
오른 251
왔어요 251
자들도 251
▁71 250
▁가치에 250
▁간호사 250
▁갖다 250
▁같지만 250
▁곁에 250
▁관악 250
▁광산 250
▁근로자가 250
▁기억하고 250
▁김장 250
▁낮추는 250
▁노사가 250
▁누구에게 250
▁북구 250
▁산업통상자원부 250
▁수량을 250
▁없거나 250
▁염기 250
▁오른쪽으로 250
▁외부에서 250
▁우라늄 250
▁저렴하게 250
▁전쟁의 250
▁죽어 250
▁지정한 250
▁촬영이 250
▁최상 250
▁충남도 250
▁클러스터 250
▁토로했다 250
▁파란색 250
▁학교로 250
겁 250
그래서 250
단위 250
대강 250
동기 250
딩을 250
법률 250
엑스 250
인프라 250
임대주택 250
자라는 250
지배 250
카이 250
클리 250
프라이 250
▁170 249
▁3·4 249
▁ICO 249
▁i 249
▁검증을 249
▁격리 249
▁결정은 249
▁고려대 249
▁고르 249
▁과학의 249
▁관점을 249
▁국공립 249
▁국민연금이 249
▁꼬집었다 249
▁넣을 249
▁다크 249
▁대사관 249
▁대출이 249
▁두바이 249
▁때다 249
▁뛰어들 249
▁렌즈 249
▁만인 249
▁무지 249
▁방사선 249
▁법에 249
▁산불이 249
▁살았던 249
▁생략 249
▁세대를 249
▁소홀 249
▁시도한 249
▁시야 249
▁시작하면 249
▁시흥 249
▁아기가 249
▁아시안 249
▁압도적인 249
▁역량이 249
▁염려 249
▁예뻐 249
▁유발하는 249
▁이사장이 249
▁인터넷으로 249
▁일정으로 249
▁재구성 249
▁적용을 249
▁전환이 249
▁제자 249
▁주변에는 249
▁철학적 249
▁청와대에서 249
▁최저임금을 249
▁치명적인 249
▁콜라 249
▁클로 249
▁탄력을 249
▁팁 249
▁한국인이 249
▁헨 249
▁활성화에 249
검사를 249
급식 249
란한 249
밸리 249
아일랜드 249
행위가 249
현지 249
화했다 249
훼 249
▁1920 248
▁89 248
▁갤러리 248
▁구성하고 248
▁김치를 248
▁높기 248
▁다양하다 248
▁달러로 248
▁대학은 248
▁돌아갔다 248
▁문제점이 248
▁박차를 248
▁발전할 248
▁방식과 248
▁벽을 248
▁보건복지부 248
▁보도한 248
▁부진이 248
▁불법촬영 248
▁불쌍 248
▁브로 248
▁삐 248
▁사법부 248
▁설립을 248
▁섰다 248
▁소나무 248
▁소스 248
▁쓰면 248
▁악취 248
▁이용자의 248
▁일회 248
▁있나 248
▁자재 248
▁작동하지 248
▁조선인 248
▁증가해 248
▁지속가능한 248
▁직권남용 248
▁켈 248
▁털어놨다 248
▁파생 248
▁하에 248
▁허브 248
▁현지인들이 248
가정 248
과를 248
관절 248
광장 248
로나 248
성이나 248
압의 248
연히 248
우로 248
윗 248
테스트 248
폭을 248
하듯이 248
화폐 248
.5%) 247
HD 247
▁FTA 247
▁LH 247
▁거둘 247
▁결합해 247
▁과목을 247
▁군대 247
▁그러고 247
▁급히 247
▁기금 247
▁긴밀한 247
▁깎 247
▁넘긴 247
▁다큐멘터리 247
▁도착하면 247
▁들어설 247
▁딥 247
▁라면 247
▁러닝 247
▁마련해야 247
▁못해요 247
▁뱃 247
▁버전 247
▁비정상 247
▁뿌듯 247
▁사랑하고 247
▁사이가 247
▁삼성전자의 247
▁상원의 247
▁설치하는 247
▁속한다 247
▁시행하는 247
▁쌍용 247
▁예술을 247
▁원자핵 247
▁유전자가 247
▁의의가 247
▁이름의 247
▁이명 247
▁자신은 247
▁작성해 247
▁쟁점 247
▁주부 247
▁주제가 247
▁중남미 247
▁중등 247
▁중시하는 247
▁지나는 247
▁집주 247
▁초대형 247
▁하는데요 247
▁한국에서도 247
▁한숨을 247
▁현실과 247
군에서 247
돼지 247
두가 247
보게 247
비전 247
센터와 247
월이 247
정부와 247
충전 247
3, 246
ag 246
ov 246
▁가계부채 246
▁감소하고 246
▁갑작스러운 246
▁강도가 246
▁개최하는 246
▁경총 246
▁괜찮습니다 246
▁기꺼이 246
▁남성은 246
▁달랐다 246
▁대중에게 246
▁대체복무 246
▁따뜻하게 246
▁마련이 246
▁메뉴가 246
▁물질은 246
▁미미 246
▁밤새 246
▁보이면서 246
▁보편적 246
▁사라질 246
▁생각이다 246
▁수량 246
▁숫자를 246
▁슬라이 246
▁습관 246
▁시작했어요 246
▁신원 246
▁언론을 246
▁엄마의 246
▁업체와 246
▁업체인 246
▁운영이 246
▁인물을 246
▁잇따르고 246
▁있는데요 246
▁자유로 246
▁저희에게 246
▁전주시 246
▁정상의 246
▁조항이 246
▁주도하고 246
▁주장하며 246
▁질량 246
▁쫓아 246
▁추천한 246
▁투자할 246
▁티셔츠 246
▁풍요 246
▁픽업 246
▁해법을 246
▁해준다 246
▁확산을 246
▁활동으로 246
▁회귀 246
▁휴대 246
▁힘의 246
경제적 246
노스 246
리조 246
망과 246
벼 246
상인 246
상태에 246
센터의 246
시절 246
시키면 246
익이 246
책으로 246
출산 246
퀘 246
파인 246
펌 246
학교를 246
(11 245
▁3% 245
▁n 245
▁가격과 245
▁건강과 245
▁건설을 245
▁경북도 245
▁고작 245
▁공백 245
▁극복할 245
▁김도 245
▁노래는 245
▁드라마에 245
▁런 245
▁맡는 245
▁몰리는 245
▁문구 245
▁변해 245
▁불리한 245
▁사라지는 245
▁사업비 245
▁상대를 245
▁스며 245
▁승강 245
▁시신이 245
▁심심 245
▁않고도 245
▁양자역 245
▁원자로 245
▁잃게 245
▁자란 245
▁자선 245
▁자원이 245
▁젠 245
▁죄를 245
▁주위에 245
▁줘서 245
▁쥐고 245
▁창설 245
▁초래할 245
▁출범한 245
▁탐지 245
▁텔레 245
▁폐업 245
▁하드웨어 245
▁한국당은 245
굿 245
룰 245
맛이 245
봤는데 245
북한이 245
신청을 245
은이 245
터에서 245
▁OECD 244
▁검토해 244
▁깜빡 244
▁날에 244
▁내놓는 244
▁대사가 244
▁듭니다 244
▁룰 244
▁리스트를 244
▁마중 244
▁못했고 244
▁믿음 244
▁바를 244
▁받으면서 244
▁부여하는 244
▁브리핑에서 244
▁빠지는 244
▁상습 244
▁성장률 244
▁성향이 244
▁소득주도성장 244
▁쇠퇴 244
▁수단을 244
▁시신 244
▁싸움을 244
▁어우러 244
▁여력이 244
▁여행이 244
▁열애 244
▁오늘날의 244
▁옮기는 244
▁용어를 244
▁원자가 244
▁의미와 244
▁이득 244
▁인정할 244
▁일정은 244
▁읽기 244
▁저질렀 244
▁절반이 244
▁정교한 244
▁정치에 244
▁존재하고 244
▁지나가는 244
▁진지한 244
▁진행이 244
▁추첨 244
▁충분하지 244
▁키운 244
▁편견 244
▁프로젝트의 244
▁한국식 244
▁효과도 244
▁힘들고 244
국립 244
니까요 244
대원 244
와서 244
와이 244
위안 244
재료 244
집으로 244
투스 244
(17 243
▁개입한 243
▁개최를 243
▁과천 243
▁구비 243
▁기관에 243
▁마련에 243
▁모욕 243
▁무궁 243
▁방대한 243
▁부당하게 243
▁불빛 243
▁블라디미르 243
▁수익성 243
▁순간에 243
▁승무원 243
▁신청했다 243
▁안정된 243
▁예전에는 243
▁이다 243
▁이산화탄소 243
▁일어 243
▁일한 243
▁자아낸다 243
▁자유와 243
▁전한다 243
▁조정이 243
▁존재한다는 243
▁주총 243
▁참가자 243
▁친절한 243
▁트윈 243
▁필요하고 243
▁하원의 243
▁회색 243
갤 243
과대학 243
곽 243
달을 243
랴 243
련이 243
맞춤 243
박근혜 243
방법 243
비시 243
솥 243
업체를 243
연하게 243
의약품 243
인드 243
입을 243
진다는 243
커가 243
플랫폼 243
하자마자 243
해보고 243
BI 242
▁1993 242
▁360 242
▁가수들이 242
▁겨울에 242
▁경사노 242
▁경영권 242
▁고문 242
▁공조 242
▁과감한 242
▁그리하여 242
▁금감 242
▁낙찰 242
▁노동시간 242
▁대부분이다 242
▁도로를 242
▁도시는 242
▁몰린 242
▁무대로 242
▁반도 242
▁분주 242
▁붉 242
▁뿌려 242
▁상승이 242
▁생각과 242
▁소개할 242
▁스님은 242
▁않겠다고 242
▁여행은 242
▁연구와 242
▁이해와 242
▁자세로 242
▁지지율이 242
▁진출에 242
▁출발해 242
▁콘텐츠로 242
▁탄생한 242
▁플랫폼이 242
▁핵심적인 242
▁활짝 242
계로 242
귤 242
니어 242
단다 242
됨으로써 242
마자 242
분쟁 242
비상 242
상황을 242
토가 242
▁v 241
▁강해 241
▁개원 241
▁관객의 241
▁국토교통부는 241
▁그녀와 241
▁그늘 241
▁금연 241
▁기능성 241
▁넘을 241
▁더욱이 241
▁덥 241
▁때문일 241
▁먹어도 241
▁방법과 241
▁백인 241
▁별개로 241
▁부장판사는 241
▁분위 241
▁붕 241
▁비롯된 241
▁사망했다 241
▁선거가 241
▁슈퍼마켓 241
▁승점 241
▁신학 241
▁아름답게 241
▁압력 241
▁압력이 241
▁여당이 241
▁옳은 241
▁웰 241
▁위치하고 241
▁음식과 241
▁입술 241
▁있었다면 241
▁작전 241
▁전남도 241
▁전반을 241
▁정해져 241
▁제공되는 241
▁주목하는 241
▁집어 241
▁총회 241
▁최저임금이 241
▁테슬 241
▁토크 241
▁통화에서 241
▁패러다 241
▁항소 241
▁협동 241
▁호전 241
▁흡입 241
금리가 241
담이 241
대리 241
되나요 241
되므로 241
드린다 241
버렸다 241
비서관 241
숙한 241
열에 241
조사가 241
조절 241
종에 241
큼 241
하기만 241
하든 241
해주신 241
현장에서 241
▁87 240
▁LNG 240
▁감추 240
▁거쳐야 240
▁경험은 240
▁근원 240
▁글쓰 240
▁기기를 240
▁김혜 240
▁끼고 240
▁논술 240
▁다음주 240
▁떠오른 240
▁르노 240
▁맨체스터 240
▁명성을 240
▁목욕 240
▁묻어 240
▁방송통신 240
▁보여요 240
▁보이게 240
▁사원 240
▁삼는 240
▁샷 240
▁시험에 240
▁신중하게 240
▁연구자들은 240
▁인상으로 240
▁재판에서 240
▁제작에 240
▁주의해야 240
▁지금보다 240
▁지금처럼 240
▁지식의 240
▁짧아 240
▁컨소시엄 240
▁투자와 240
▁품질이 240
▁피해자들이 240
▁하나금융 240
▁하드 240
▁한결 240
▁현실의 240
▁형식이 240
▁활동과 240
놓는 240
되었으나 240
둥이 240
딕 240
상가 240
아주 240
오면 240
운드 240
융 240
적한 240
청와 240
판으로 240
8000 239
SR 239
▁In 239
▁가상의 239
▁그러다 239
▁나무가 239
▁남자친 239
▁넘었다 239
▁달할 239
▁동력을 239
▁뒤덮 239
▁라오스 239
▁마디 239
▁매칭 239
▁무릎을 239
▁반송 239
▁받던 239
▁부르며 239
▁부통령 239
▁분수 239
▁살아야 239
▁속해 239
▁시간대 239
▁신뢰할 239
▁싱가포르에서 239
▁아산 239
▁애플이 239
▁어떠 239
▁여기서는 239
▁연결이 239
▁영문 239
▁오해를 239
▁인프라가 239
▁자동차가 239
▁전한 239
▁전해져 239
▁제출받은 239
▁조류 239
▁조선시대 239
▁중점 239
▁지식재산 239
▁카리스 239
▁툴 239
▁특허를 239
▁혼란이 239
▁희망이 239
계층 239
국악 239
나도 239
보상 239
비리 239
일에도 239
점검을 239
정당 239
제철 239
중소 239
츠가 239
3000 238
4% 238
iv 238
▁96 238
▁NH 238
▁가능했다 238
▁가다 238
▁가리지 238
▁개소 238
▁거리는 238
▁관계의 238
▁구역 238
▁국무총 238
▁기도를 238
▁대주 238
▁던졌다 238
▁마르크 238
▁말미 238
▁머물러 238
▁벽화 238
▁보내지 238
▁부문의 238
▁브루 238
▁사무실을 238
▁사이즈가 238
▁상설 238
▁선보여 238
▁손잡고 238
▁시카고 238
▁쓰러져 238
▁쓰레기를 238
▁야근 238
▁완료되면 238
▁자생 238
▁장자연 238
▁재외 238
▁적용이 238
▁제도의 238
▁주유 238
▁즐거워 238
▁체계가 238
▁치안 238
▁친일 238
▁태워 238
▁통계청 238
▁파악하기 238
▁퍼포먼스를 238
▁폭넓은 238
▁표했다 238
▁행정부의 238
▁허무 238
더라면 238
동으로 238
맥을 238
옷을 238
은행과 238
인터 238
저축 238
지나 238
취업 238
츠는 238
특례 238
▁가이 237
▁간략 237
▁것이나 237
▁계약서 237
▁공청 237
▁김관영 237
▁논쟁이 237
▁단연 237
▁단점이 237
▁대표팀은 237
▁독자적인 237
▁마크롱 237
▁매립 237
▁명으로 237
▁변경이 237
▁부인했다 237
▁분석할 237
▁사랑은 237
▁선착 237
▁성과에 237
▁스테이 237
▁시행하고 237
▁알루미늄 237
▁암흑 237
▁엘리트 237
▁여쭤 237
▁원칙에 237
▁응답자의 237
▁이곳의 237
▁이뤄져 237
▁자연스레 237
▁재선 237
▁제안이 237
▁조치에 237
▁지적에 237
▁질서를 237
▁쪼 237
▁참가자들은 237
▁카메라가 237
▁케이크 237
▁코드를 237
▁탄탄 237
▁특사 237
▁하겠다고 237
▁한국관광 237
▁허용하는 237
▁활약이 237
간다는 237
괄 237
끄 237
낮 237
네가 237
년에도 237
더스 237
되어서 237
래를 237
벌이 237
뷰티 237
산업을 237
상환 237
컴퍼 237
행복 237
혁이 237
▁1/ 236
▁1989 236
▁가는데 236
▁각별한 236
▁강풍 236
▁겸손 236
▁구조의 236
▁국무총리가 236
▁국토교통부가 236
▁기점으로 236
▁끝내고 236
▁노력과 236
▁노력은 236
▁농어촌 236
▁눈여겨 236
▁리튬 236
▁무관하게 236
▁무시하고 236
▁반가 236
▁반려견 236
▁변경을 236
▁보였던 236
▁부부는 236
▁선고했다 236
▁숙제를 236
▁스캔들 236
▁알고리즘은 236
▁앞의 236
▁엄마와 236
▁웃는 236
▁이론적 236
▁이화 236
▁자격증 236
▁잔디 236
▁지갑을 236
▁진해 236
▁착안 236
▁채소 236
▁처벌이 236
▁청렴 236
▁체납 236
▁출발한 236
▁컴백 236
▁콘텐츠에 236
▁탈북 236
▁회사로 236
노동자 236
도르 236
되더라도 236
랍 236
만명에 236
미나 236
방학 236
버스가 236
병의 236
분해 236
상승 236
운용 236
으로서는 236
의학 236
중소기업 236
플랜 236
혜택 236
-4 235
PR 235
▁0.1 235
▁가꾸 235
▁경우다 235
▁경제적인 235
▁고래 235
▁광명 235
▁구축해 235
▁극복하기 235
▁대동 235
▁대만의 235
▁러시아와 235
▁로봇이 235
▁마포 235
▁명단을 235
▁모으 235
▁목을 235
▁뭔지 235
▁반려동 235
▁복수의 235
▁불이익을 235
▁붙인 235
▁사업과 235
▁상쇄 235
▁상태의 235
▁상태입니다 235
▁서울이 235
▁신호가 235
▁싶지만 235
▁썰 235
▁애매 235
▁연관이 235
▁은하 235
▁이뤘다 235
▁인물의 235
▁일본에서는 235
▁일으켰다 235
▁자신도 235
▁저절로 235
▁정직 235
▁정치적으로 235
▁좋아할 235
▁준다고 235
▁지나면서 235
▁지속되는 235
▁체크아웃 235
▁추경 235
▁칼로 235
▁퀴즈 235
▁파울 235
▁판교 235
▁펼친다 235
▁필요에 235
▁현상이다 235
▁홍수 235
▁확고 235
가을 235
공동체 235
너가 235
노인 235
니와 235
대장 235
들입니다 235
라마 235
련을 235
롯 235
베트남 235
적입니다 235
주거 235
진으로 235
처의 235
카가 235
티노 235
형사 235
5, 234
▁1986 234
▁감소로 234
▁게임에 234
▁결핍 234
▁구조에 234
▁기록은 234
▁기원전 234
▁나서면서 234
▁남았다 234
▁되어있 234
▁뛰어넘는 234
▁마련된다 234
▁메디 234
▁모였다 234
▁상황으로 234
▁생산과 234
▁생생하게 234
▁수백만 234
▁숙련 234
▁스프 234
▁앨범을 234
▁없었어 234
▁우체 234
▁원활하게 234
▁유일 234
▁입자가 234
▁자외선 234
▁장단 234
▁전자는 234
▁좋아해서 234
▁주한미군 234
▁지역인 234
▁진출할 234
▁쫓겨 234
▁판매할 234
▁행운 234
▁환자들이 234
과에 234
놀이를 234
렸으며 234
로우 234
매매 234
보와 234
염을 234
오니 234
조약 234
지향 234
층과 234
터널 234
파에 234
평균 234
if 233
um 233
▁감탄 233
▁검토를 233
▁검토한 233
▁겪어 233
▁경쟁률을 233
▁관심도 233
▁국가적 233
▁내에서도 233
▁다시금 233
▁담당자가 233
▁당시에 233
▁던지는 233
▁동향을 233
▁되었으면 233
▁디젤 233
▁매장이 233
▁면을 233
▁무너뜨 233
▁북방 233
▁분단 233
▁사다 233
▁사촌 233
▁새삼 233
▁생산된 233
▁설치돼 233
▁순간이 233
▁슬프 233
▁식품의약품안전 233
▁아마추어 233
▁아쉬움이 233
▁엎 233
▁여성가족 233
▁영화관 233
▁우선적으로 233
▁우즈 233
▁유재 233
▁이야기에 233
▁입수 233
▁정서적 233
▁정차 233
▁주었습니다 233
▁질소 233
▁초청해 233
▁취향 233
▁카톡 233
▁카피 233
▁쿠바 233
▁타이거 233
▁트래픽 233
▁플래 233
▁한국전 233
▁호소하는 233
▁휘말 233
▁히어로 233
드리는 233
로와 233
루에서 233
면세 233
분배 233
사리 233
성이다 233
소스 233
수요가 233
위해 233
일자 233
지기를 233
쳤다고 233
코가 233
특히 233
파와 233
후의 233
▁가깝다 232
▁감소가 232
▁고려하지 232
▁나쁘지 232
▁내일까지 232
▁내적 232
▁늘어난다 232
▁다르고 232
▁되살 232
▁들어가지 232
▁들어요 232
▁라운드 232
▁많았지만 232
▁매체를 232
▁몰두 232
▁미성년 232
▁방문하고 232
▁벗어 232
▁부흥 232
▁사이트에서 232
▁소비자들은 232
▁수화 232
▁안전성 232
▁않던 232
▁앞당 232
▁이틀간 232
▁입구에 232
▁장내 232
▁전화로 232
▁정신건강 232
▁정치인 232
▁직관 232
▁진술했다 232
▁참석한다 232
▁체제가 232
▁토양 232
▁통증을 232
▁팀원 232
▁풍경이 232
▁한반도에 232
▁획기적인 232
▁훔 232
교도 232
교육은 232
나지 232
녀의 232
들이는 232
랫 232
많은 232
범으로 232
쁨 232
업소 232
장관이 232
킴 232
학교가 232
4, 231
▁IoT 231
▁개선할 231
▁골고루 231
▁구도 231
▁구조다 231
▁대답을 231
▁대부 231
▁도착해 231
▁론칭 231
▁리버풀 231
▁마이너스 231
▁무혐의 231
▁물량을 231
▁변동성이 231
▁새우 231
▁서두 231
▁수출을 231
▁스타일을 231
▁시작하고 231
▁식당이 231
▁어렵지만 231
▁없었을 231
▁여배우 231
▁위험성이 231
▁인접한 231
▁일컫 231
▁있으시면 231
▁자국의 231
▁자정 231
▁증가와 231
▁지낼 231
▁지름 231
▁지켜보는 231
▁차량은 231
▁카타르 231
▁컨벤션 231
▁투자해 231
▁특성화 231
▁페널티 231
▁포착됐다 231
▁푼 231
▁피해자를 231
▁하려 231
▁학교와 231
▁해보고 231
▁형성하는 231
▁환기 231
▁휠체 231
걸음 231
린을 231
방과 231
새가 231
시에는 231
지하 231
치료를 231
풀이 231
▁2025 230
▁가이드라인 230
▁강화에 230
▁걱정을 230
▁경제부총리 230
▁곰팡 230
▁공사는 230
▁과정으로 230
▁국가로 230
▁극적인 230
▁끔찍한 230
▁노리는 230
▁대상의 230
▁드리는 230
▁라틴 230
▁맞대 230
▁면밀히 230
▁몰라도 230
▁바람직한 230
▁박재 230
▁받았는데 230
▁발생했을 230
▁봉쇄 230
▁브랜드로 230
▁상식 230
▁소득주도 230
▁수성 230
▁시선 230
▁시청자 230
▁실시했다 230
▁싶었던 230
▁않았으면 230
▁언론사 230
▁여론의 230
▁위함 230
▁유니폼을 230
▁이루기 230
▁인식하는 230
▁있네요 230
▁전방 230
▁조항을 230
▁좁혀 230
▁지탱 230
▁충돌이 230
▁큽니다 230
▁확대로 230
▁휴대전화를 230
▁흉기로 230
고교 230
공사의 230
단체장 230
마르 230
완화 230
왔다는 230
줌 230
품에 230
했듯이 230
회사로 230
회사를 230
OA 229
▁1919 229
▁간직 229
▁거리에서 229
▁걸리지 229
▁검증된 229
▁견줘 229
▁공인중 229
▁관습 229
▁국가들이 229
▁깨닫 229
▁노란색 229
▁뉴스가 229
▁돌리는 229
▁둥 229
▁만들었습니다 229
▁반려동물 229
▁발견되지 229
▁밸런 229
▁벤치 229
▁보험사 229
▁사항에 229
▁살아있는 229
▁삼척 229
▁상대의 229
▁상호작용을 229
▁상황이었다 229
▁설치되어 229
▁소속된 229
▁숨겨진 229
▁양식을 229
▁업계에 229
▁위협하는 229
▁잠재력을 229
▁제품들이 229
▁졸업생 229
▁좋을까요 229
▁주기적으로 229
▁죽는 229
▁중심을 229
▁찼 229
▁촉촉 229
▁추세를 229
▁코팅 229
▁페이스북을 229
▁한국영화 229
▁한발 229
▁확정되면 229
▁흩어져 229
더라고 229
본명 229
뼈 229
속의 229
스레 229
신탁 229
욱이 229
질로 229
최저임금 229
회사인 229
87 228
HO 228
▁, 228
▁OLED 228
▁“1 228
▁가정에서 228
▁건에 228
▁걷기 228
▁고객들에게 228
▁공판 228
▁국무장 228
▁그러지 228
▁금리인 228
▁기계를 228
▁끼칠 228
▁나만의 228
▁내구 228
▁노숙 228
▁다변 228
▁닿지 228
▁대사는 228
▁드러내고 228
▁땅이 228
▁락 228
▁리메이크 228
▁만끽 228
▁매니 228
▁메이지 228
▁뮤지션 228
▁받기도 228
▁발레 228
▁발족 228
▁방사능 228
▁보편적인 228
▁부평 228
▁분명하게 228
▁사고에 228
▁산재 228
▁상대성 228
▁새벽에 228
▁설사 228
▁속을 228
▁손실이 228
▁수호 228
▁심도 228
▁에드 228
▁오디언 228
▁움직이지 228
▁원하시는 228
▁응모 228
▁이루어져야 228
▁인간에게 228
▁인지도 228
▁잃었다 228
▁잊고 228
▁조사하는 228
▁존재감을 228
▁주석이 228
▁주시겠습니까 228
▁지난번에 228
▁차고 228
▁파스타 228
▁피드백을 228
▁핸 228
▁행동으로 228
▁현금을 228
▁현지의 228
▁호수 228
강화 228
겨운 228
공화 228
년에서 228
돌을 228
드림 228
렘 228
림으로 228
워진 228
음료 228
진흥원 228
퀘어 228
테인 228
템 228
파트너 228
회초 228
59 227
TX 227
▁개발할 227
▁계기를 227
▁궁금증이 227
▁권고했다 227
▁그칠 227
▁급속도로 227
▁기자들이 227
▁끼치는 227
▁나름대로 227
▁남자를 227
▁남짓 227
▁넓게 227
▁놓아 227
▁덧 227
▁동계올림픽 227
▁망설 227
▁박수 227
▁방콕 227
▁보잉 227
▁봤어 227
▁부산시가 227
▁불거졌다 227
▁사이에서는 227
▁서대문구 227
▁섞인 227
▁신산업 227
▁신상 227
▁아픔 227
▁안내해 227
▁않겠다 227
▁않았으나 227
▁예술적 227
▁오늘이 227
▁오토 227
▁인상과 227
▁자본주의 227
▁전월 227
▁전통적으로 227
▁죄송합니다만 227
▁진전을 227
▁집단의 227
▁참가했다 227
▁체결한 227
▁출연하는 227
▁충당 227
▁침몰 227
▁커져 227
▁틀린 227
▁폭풍 227
▁표현은 227
▁한라 227
▁해소하기 227
▁해수욕 227
▁현대모비스 227
▁흉기를 227
년생 227
놈 227
돼요 227
디오 227
마리가 227
앗 227
오프 227
위원장과 227
유출 227
자동 227
쳐서 227
TI 226
▁900 226
▁CBS 226
▁g 226
▁감사해요 226
▁개념이다 226
▁경신 226
▁계류 226
▁공휴 226
▁과반 226
▁권역 226
▁금품을 226
▁기본으로 226
▁너무나도 226
▁농산 226
▁높아져 226
▁다음에는 226
▁대법원의 226
▁둘은 226
▁마두로 226
▁마릴라 226
▁맥주를 226
▁모형을 226
▁몰라서 226
▁무슬림 226
▁무언 226
▁미적분 226
▁민정수석 226
▁방문하여 226
▁버스는 226
▁부합하는 226
▁북한과의 226
▁서울경제 226
▁성향의 226
▁스쿨 226
▁시뮬레이션 226
▁안심하고 226
▁안전에 226
▁여성과 226
▁영동 226
▁울려 226
▁웃었다 226
▁유머 226
▁의지의 226
▁자동차의 226
▁제공했다 226
▁중화 226
▁챙긴 226
▁첨예 226
▁캐릭터의 226
▁케어 226
▁핑크 226
▁해석할 226
▁호텔은 226
▁후보와 226
공모 226
뒤 226
래의 226
소년 226
채권 226
총연합회 226
86 225
▁개선하는 225
▁게시판에 225
▁공소시 225
▁구매하고 225
▁구해 225
▁궁극 225
▁그라운드 225
▁극한 225
▁기록적인 225
▁김정숙 225
▁김형 225
▁다듬 225
▁다양성을 225
▁데이터에 225
▁라는 225
▁멈추지 225
▁못했을 225
▁물체가 225
▁반복되는 225
▁보물 225
▁사회로 225
▁세월이 225
▁소용 225
▁숨은 225
▁스타벅스 225
▁시민과 225
▁아이디 225
▁알아차 225
▁움직이고 225
▁의료기기 225
▁인체에 225
▁일상의 225
▁잃을 225
▁있기는 225
▁장르를 225
▁전기가 225
▁접근을 225
▁정상회담에 225
▁정치가 225
▁주관한 225
▁지구를 225
▁참고로 225
▁초계 225
▁측정할 225
▁칼럼 225
▁패러다임 225
▁피력 225
▁한류를 225
▁한반 225
▁할인을 225
▁핵시설 225
▁향하고 225
▁혁신이 225
▁활용되고 225
▁흔적을 225
광역 225
광역시 225
귄 225
그동안 225
껴 225
누리 225
대사관 225
사진을 225
스톱 225
중공업 225
지지만 225
천의 225
치킨 225
칩니다 225
하십시오 225
NC 224
ob 224
‧ 224
▁강조하며 224
▁것일까 224
▁고맙습니다 224
▁고발한 224
▁공직선거법 224
▁관통 224
▁구속됐다 224
▁기숙사 224
▁다할 224
▁도입이 224
▁돌아다니 224
▁모으는 224
▁묻자 224
▁밝히면서 224
▁버리는 224
▁보고서에서 224
▁부위원장이 224
▁빅데이터를 224
▁사무총 224
▁상승에 224
▁서는 224
▁서로가 224
▁선택에 224
▁섬세 224
▁소문 224
▁소방관 224
▁숏 224
▁시점을 224
▁안희정 224
▁앞장 224
▁업무상 224
▁열리 224
▁영수 224
▁영향에 224
▁오버 224
▁온실가스 224
▁의견에 224
▁이론에 224
▁이준 224
▁자동화 224
▁정상에 224
▁정제 224
▁증인 224
▁지속가능 224
▁진도 224
▁창문 224
▁투숙 224
▁피를 224
▁휩싸 224
관리에 224
대회에 224
바지 224
벅 224
부채 224
시길 224
일리 224
줍 224
특정 224
티는 224
표에 224
환을 224
od 223
▁: 223
▁간절히 223
▁강타 223
▁걸린다 223
▁교감 223
▁기말 223
▁꿇 223
▁내역을 223
▁냉장고 223
▁넥슨 223
▁도움으로 223
▁도전하는 223
▁되니 223
▁멀어 223
▁메리 223
▁못지않게 223
▁문제들이 223
▁물어보 223
▁밝혔지만 223
▁방통 223
▁법적으로 223
▁비밀을 223
▁비해서 223
▁사용합니다 223
▁색채 223
▁서비스다 223
▁설령 223
▁설명하기 223
▁소요되는 223
▁스무 223
▁스타벅 223
▁싣고 223
▁실패를 223
▁안전관리 223
▁어렵기 223
▁없었다면 223
▁연산 223
▁이제부터 223
▁이통 223
▁임무를 223
▁재료로 223
▁전달한 223
▁전문의 223
▁전자를 223
▁절대적인 223
▁정교 223
▁주문했는데 223
▁중단을 223
▁집의 223
▁청와대에 223
▁총선을 223
▁취지 223
▁칠레 223
▁카를 223
▁토너 223
▁하네요 223
▁행복해 223
▁현대차가 223
가게 223
겸 223
그런 223
낌 223
녀는 223
랙 223
롯데 223
물리 223
수수료 223
스틱 223
아무 223
언어 223
여명을 223
연설 223
직으로 223
처에서 223
ED 222
▁개신 222
▁것입니까 222
▁경복궁 222
▁공기업 222
▁규정한 222
▁급성 222
▁기후변화 222
▁내몰 222
▁내비쳤다 222
▁데려다 222
▁두지 222
▁등장하고 222
▁류현 222
▁매출은 222
▁먹었다 222
▁문체 222
▁미세한 222
▁방사성 222
▁보도자료를 222
▁분야에서는 222
▁비단 222
▁뿌리를 222
▁상인 222
▁색상 222
▁성장세가 222
▁시에는 222
▁실효 222
▁아내와 222
▁여기까지 222
▁예방을 222
▁온라인으로 222
▁운영된다 222
▁육박 222
▁이사를 222
▁이외 222
▁인센티브 222
▁직원들을 222
▁창출을 222
▁콘크리트 222
▁콧 222
▁특화된 222
▁페널티킥 222
▁한국교 222
▁한국산 222
▁호텔을 222
공예 222
교사가 222
국어 222
그리 222
끈한 222
내륙 222
내용 222
달러로 222
로에서 222
밖 222
백화 222
보이 222
분위 222
붕 222
수리 222
신도 222
쓸 222
앞으로도 222
주며 222
중견 222
코는 222
콥 222
.7%) 221
4000 221
ri 221
▁1945 221
▁가담 221
▁가슴에 221
▁거버넌 221
▁건은 221
▁격차를 221
▁결혼식 221
▁계엄령 221
▁광범위하게 221
▁교장 221
▁근로자의 221
▁기반한 221
▁기술개발 221
▁기적 221
▁내세워 221
▁노력에 221
▁높을수록 221
▁눌 221
▁다행이 221
▁독일을 221
▁디자인은 221
▁딸기 221
▁명단 221
▁무너져 221
▁미시 221
▁미지수다 221
▁바랄 221
▁밤이 221
▁배고 221
▁본회의 221
▁부회장은 221
▁분자가 221
▁상반 221
▁상세한 221
▁상승세가 221
▁생일을 221
▁선호도가 221
▁세계대 221
▁신중한 221
▁아미노 221
▁앵 221
▁양대 221
▁옆으로 221
▁완료된 221
▁외래 221
▁외부의 221
▁우려의 221
▁원조 221
▁위안화 221
▁인종차별 221
▁일대에 221
▁자신에 221
▁장애를 221
▁전역 221
▁정재 221
▁제작을 221
▁지나고 221
▁참관 221
▁천안시 221
▁퀴 221
▁필터 221
▁향했다 221
▁현상에 221
경비 221
그렇 221
나다 221
넛 221
밑 221
시각 221
식당 221
싹 221
일까 221
주기를 221
주의자 221
축을 221
▁4,000 220
▁가입한 220
▁것이지만 220
▁결과와 220
▁결핵 220
▁공연장 220
▁관람객이 220
▁교토 220
▁구하기 220
▁급성장 220
▁급식 220
▁기능과 220
▁기쁩니다 220
▁김윤 220
▁꿈에 220
▁끝나지 220
▁나뉘 220
▁나름의 220
▁노무 220
▁논리를 220
▁늘리 220
▁당했다고 220
▁되새 220
▁때나 220
▁물건은 220
▁발전해 220
▁밝힐 220
▁부위에 220
▁빛은 220
▁뺀 220
▁새겨져 220
▁선생의 220
▁세력을 220
▁수위를 220
▁신고한 220
▁실수가 220
▁어린이가 220
▁언어는 220
▁옵 220
▁이해해 220
▁일본으로 220
▁있는지에 220
▁자발적 220
▁잘생 220
▁조정을 220
▁주고받 220
▁지인 220
▁짚어 220
▁차원이 220
▁충청남도 220
▁치러진 220
▁탐방 220
▁템 220
▁퇴출 220
▁하나이다 220
▁회상 220
기록을 220
내셔널 220
똘 220
렸어 220
바르 220
본부장 220
산업단지 220
안으로 220
에어 220
으실 220
진구 220
화합 220
63 219
IN 219
MW 219
RI 219
The 219
▁ABC 219
▁감당할 219
▁감소할 219
▁개선과 219
▁것이라면 219
▁고소득 219
▁기피 219
▁단단한 219
▁달러에 219
▁대상에서 219
▁더불어민주당이 219
▁도우 219
▁동물이 219
▁말해서 219
▁무엇이든 219
▁발전이 219
▁변하고 219
▁변화로 219
▁볼을 219
▁부응 219
▁분위기는 219
▁사설 219
▁섭 219
▁성장의 219
▁성장해 219
▁세워진 219
▁소속팀 219
▁수목 219
▁승격 219
▁식당을 219
▁신입생 219
▁아나운 219
▁아버지와 219
▁아파트에 219
▁악순환 219
▁앞을 219
▁언어가 219
▁에너지는 219
▁오피스 219
▁올리며 219
▁이미지로 219
▁이슈로 219
▁일이라고 219
▁재판부가 219
▁저질 219
▁전역에 219
▁전의 219
▁전후로 219
▁제품이다 219
▁주문하고 219
▁주시고 219
▁중에도 219
▁차장 219
▁출구 219
▁포털사이트 219
▁폭행한 219
▁표현했다 219
갔습니다 219
개사가 219
공의 219
기독교 219
너스 219
래프트 219
렵 219
르자 219
마와 219
멘트 219
목에 219
발표 219
밴드 219
번째로 219
병원은 219
보존 219
쁠 219
소매 219
시험을 219
웠지만 219
위치 219
인구가 219
젓 219
창조 219
침에 219
회원 219
all 218
▁k 218
▁가격도 218
▁가능해진다 218
▁가정에 218
▁간혹 218
▁강서 218
▁개최한다고 218
▁거부하고 218
▁고양이를 218
▁공격적인 218
▁김유 218
▁나서지 218
▁놀랄 218
▁높인다 218
▁단백질이 218
▁단식 218
▁맞출 218
▁명심 218
▁방송에서는 218
▁변경할 218
▁보이스피싱 218
▁불가능합니다 218
▁비고츠 218
▁비대면 218
▁비비 218
▁빌보드 218
▁뽑는 218
▁생각하게 218
▁서정 218
▁선수로 218
▁세상은 218
▁소설을 218
▁시대적 218
▁실거래가 218
▁실장이 218
▁싸우는 218
▁아날로그 218
▁아우르는 218
▁아이템을 218
▁양적 218
▁얼어붙 218
▁얽힌 218
▁우울증 218
▁윤리적 218
▁이들도 218
▁이슈에 218
▁이야기하고 218
▁인문학 218
▁일으켰 218
▁조롱 218
▁주관으로 218
▁주어야 218
▁죽고 218
▁준비된 218
▁중인데 218
▁지위 218
▁진화에 218
▁채용비리 218
▁청소를 218
▁촉구하고 218
▁충격적인 218
▁취하는 218
▁칼을 218
▁파산 218
▁패스 218
▁포기하고 218
▁표현하고 218
▁하차 218
▁해결될 218
▁현지에 218
▁화웨 218
덜 218
륵 218
민주당 218
발적으로 218
배로 218
수단 218
심히 218
아파 218
염이 218
의의 218
절차를 218
주신 218
추천 218
커피 218
탱 218
하십니까 218
89 217
CG 217
▁1·4 217
▁2.0 217
▁가깝게 217
▁거슬러 217
▁경력을 217
▁계시 217
▁공간이다 217
▁교육감 217
▁군이 217
▁나라로 217
▁넓고 217
▁달리고 217
▁대기업이 217
▁말이에요 217
▁모자를 217
▁미달 217
▁버섯 217
▁부위 217
▁북한산 217
▁불균 217
▁비난이 217
▁비상저감 217
▁설치가 217
▁셀프 217
▁시절부터 217
▁없을까요 217
▁연구하고 217
▁열차가 217
▁영원한 217
▁이석 217
▁인연을 217
▁있길 217
▁재건 217
▁전문가의 217
▁절반을 217
▁정보통신기술 217
▁좀비 217
▁지표가 217
▁진술한 217
▁코카 217
▁탈바꿈 217
▁퇴원 217
▁팬들 217
▁팽팽 217
▁필립 217
▁하도급 217
▁현대의 217
▁형성하고 217
구니 217
넨 217
당국은 217
련의 217
룸에서 217
르다 217
부총 217
세기의 217
소프트 217
시의회 217
운동에 217
원입니다 217
율과 217
이라면서 217
이러한 217
잡을 217
잡이 217
지사는 217
학대 217
ab 216
ak 216
▁계산을 216
▁구글은 216
▁그때는 216
▁글은 216
▁낮다는 216
▁논의는 216
▁누구인지 216
▁늦어도 216
▁달성할 216
▁대통령도 216
▁마다 216
▁만다 216
▁맞물 216
▁맡았던 216
▁매스 216
▁발길이 216
▁버렸다 216
▁불린다 216
▁비용과 216
▁비틀 216
▁빠지지 216
▁사람이다 216
▁사안을 216
▁석유화학 216
▁쇄 216
▁수술이 216
▁시장점유 216
▁싱크 216
▁아이에게 216
▁아침부터 216
▁애완 216
▁언론인 216
▁오르며 216
▁온종일 216
▁요인을 216
▁운명을 216
▁원활 216
▁음식의 216
▁이글 216
▁인공지능이 216
▁일반인 216
▁일어나서 216
▁일으키고 216
▁있어서는 216
▁장거리 216
▁저축은행 216
▁정당이 216
▁제로페이 216
▁짠 216
▁찾아내 216
▁칠곡 216
▁픽 216
▁필자가 216
▁함부로 216
▁획기적으로 216
갔고 216
개편 216
결과를 216
고로 216
광장에서 216
너는 216
능한 216
닝을 216
대책을 216
뮤지 216
봤습니다 216
살인 216
세종 216
소연 216
시스템에 216
장관은 216
전략을 216
텍스 216
LED 215
▁6000 215
▁가정이 215
▁객관적으로 215
▁거주하고 215
▁결합된 215
▁고령화 215
▁고율 215
▁규모에 215
▁긴장을 215
▁깨달았다 215
▁날씨를 215
▁농식품 215
▁다짐했다 215
▁담합 215
▁띠고 215
▁마블 215
▁마사지 215
▁만나러 215
▁바라고 215
▁본사에서 215
▁부상이 215
▁사실로 215
▁살게 215
▁상파울루 215
▁새만금 215
▁선정돼 215
▁설교 215
▁소통의 215
▁수행하고 215
▁습관을 215
▁쏟아지고 215
▁쏟아지는 215
▁아쉬워 215
▁아파트의 215
▁않아야 215
▁어땠 215
▁어울려 215
▁여겨진다 215
▁오세 215
▁옷은 215
▁외계 215
▁요인은 215
▁운영해 215
▁유동성 215
▁의무화 215
▁인정받아 215
▁잘할 215
▁정치적인 215
▁제약이 215
▁준비했다 215
▁중추 215
▁지어진 215
▁지자 215
▁쪼개 215
▁차지할 215
▁총장이 215
▁최전 215
▁출전한 215
▁충실히 215
▁클리 215
▁토마토 215
▁풀고 215
▁피가 215
▁필요도 215
▁하시면 215
▁할당 215
▁행진 215
▁혀 215
▁화학물질 215
과제 215
기업으로 215
덩이 215
마리를 215
마크 215
미경 215
백화점 215
버트 215
복이 215
산업은 215
아이가 215
있었다 215
자와의 215
장벽 215
전달 215
진보 215
코의 215
툰 215
한국의 215
.6%) 214
9000 214
PG 214
▁가격의 214
▁가평 214
▁강연을 214
▁거제 214
▁공부에 214
▁기가 214
▁꺾고 214
▁나열 214
▁날에는 214
▁남구 214
▁남미 214
▁느려 214
▁다룬다 214
▁대상인 214
▁독특 214
▁리가 214
▁맞붙 214
▁무한한 214
▁문의가 214
▁범죄가 214
▁변동이 214
▁보내드립니다 214
▁본질을 214
▁부결 214
▁불안감이 214
▁산지 214
▁소식은 214
▁수준은 214
▁시내버스 214
▁시상식 214
▁식이다 214
▁연중 214
▁열풍이 214
▁영상에는 214
▁영상으로 214
▁예다 214
▁오늘부터 214
▁외부에 214
▁유학을 214
▁조심스럽게 214
▁조용한 214
▁주도로 214
▁주인공은 214
▁지목된 214
▁지부 214
▁채운 214
▁처음이 214
▁하남 214
▁후유 214
▁휘발 214
난을 214
로그 214
선한 214
에이치 214
왔다고 214
으라고 214
으시면 214
테이션 214
프와 214
CI 213
▁가슴을 213
▁가옥 213
▁강하고 213
▁갱 213
▁걱정하는 213
▁경제와 213
▁국토부가 213
▁급증하고 213
▁날짜가 213
▁단계는 213
▁도발 213
▁독재 213
▁막걸 213
▁만족할 213
▁많아지고 213
▁맡기 213
▁배우의 213
▁번만 213
▁법규 213
▁상승으로 213
▁생기지 213
▁생산성 213
▁소주 213
▁순차적으로 213
▁신부 213
▁신용등급 213
▁압수 213
▁어플 213
▁왓 213
▁웨딩 213
▁의존도가 213
▁이씨가 213
▁자리하고 213
▁자율적으로 213
▁잦 213
▁좌파 213
▁주석 213
▁중요하지 213
▁진상 213
▁찾아왔다 213
▁촘촘 213
▁추방 213
▁추진된다 213
▁출시를 213
▁춥 213
▁친박 213
▁평양을 213
▁포르 213
▁포인 213
▁한국노총 213
▁한국인들이 213
▁항일 213
▁현수 213
▁홈쇼핑 213
▁홈페이 213
▁활용이 213
곡이 213
냅 213
년만에 213
높 213
당으로 213
동부 213
변에 213
사와의 213
셔널 213
슛 213
연과 213
왔는데 213
월에도 213
일에서 213
작업이 213
절차 213
좋 213
주시겠습니까 213
지출 213
(25 212
▁‘4 212
▁가세요 212
▁강화하기 212
▁건조한 212
▁경기장에서 212
▁공개하지 212
▁공격이 212
▁공수 212
▁공연과 212
▁광장에서 212
▁광주시가 212
▁교섭단체 212
▁국책 212
▁글자 212
▁기쁜 212
▁꿈과 212
▁년이 212
▁동점 212
▁리모델링 212
▁뮌헨 212
▁발자 212
▁봄이 212
▁분쟁이 212
▁사막 212
▁산악 212
▁세금이 212
▁수수료가 212
▁수요에 212
▁수학을 212
▁스케줄을 212
▁신체적 212
▁심리가 212
▁약세를 212
▁얘 212
▁어깨를 212
▁여기가 212
▁역사에서 212
▁예술이 212
▁예측하는 212
▁원소의 212
▁음료를 212
▁의욕 212
▁자사의 212
▁장난감 212
▁접경 212
▁정식으로 212
▁주기로 212
▁중요해요 212
▁지워 212
▁질병을 212
▁집무 212
▁참가할 212
▁특히나 212
▁파열 212
▁플레이오프 212
▁하고자 212
▁햄 212
▁협정 212
개씩 212
게는 212
됨 212
무기 212
반도 212
버리 212
봅시다 212
부장관 212
분까지 212
시행 212
아르 212
전화 212
제국 212
지상 212
테크노 212
특보가 212
포인 212
폴리 212
피고 212
44 211
6, 211
AA 211
IoT 211
▁가세 211
▁가족에게 211
▁갑작 211
▁경쟁에서 211
▁구매가 211
▁기뻤 211
▁나가겠다 211
▁나치 211
▁나타낸 211
▁노인이 211
▁놀고 211
▁니체의 211
▁문재인정부 211
▁법제 211
▁봉사활동을 211
▁분식 211
▁분자의 211
▁비난했다 211
▁비판의 211
▁비판적 211
▁빚은 211
▁사진에는 211
▁사태에 211
▁산란 211
▁서비스와 211
▁쇼트트랙 211
▁수량이 211
▁신촌 211
▁실험이 211
▁쓰인다 211
▁어업 211
▁에프 211
▁예약한 211
▁요건 211
▁운행이 211
▁원하고 211
▁유교 211
▁유쾌한 211
▁유흥 211
▁은평 211
▁의원에 211
▁자라는 211
▁자리로 211
▁재앙 211
▁준비에 211
▁줄은 211
▁중국과의 211
▁중부지방 211
▁중이야 211
▁지난해까지 211
▁질문은 211
▁처음엔 211
▁체감할 211
▁체인 211
▁체중 211
▁치아 211
▁타야 211
▁폭염으로 211
▁하늘이 211
▁핵심인 211
▁효과에 211
가격이 211
겹 211
계획이 211
기부 211
나가고 211
농협 211
만원에서 211
박람회 211
방송이 211
범위 211
썸 211
앨범 211
을수록 211
착륙 211
처벌 211
첼 211
쳤지만 211
컨설팅 211
콰 211
탕을 211
항에 211
행성 211
TP 210
▁1,500 210
▁82 210
▁각인 210
▁개념의 210
▁건넸 210
▁걸립니다 210
▁곡으로 210
▁나눴다 210
▁남과 210
▁대국민 210
▁대량으로 210
▁딸은 210
▁만기 210
▁맺는 210
▁민관 210
▁믿었다 210
▁발언에 210
▁번식 210
▁불가피하다 210
▁불허 210
▁생산에 210
▁선생이 210
▁섬세한 210
▁섰 210
▁성능이 210
▁세울 210
▁소각 210
▁쇼핑을 210
▁시사했다 210
▁싸게 210
▁아버 210
▁아홉 210
▁안무 210
▁양호한 210
▁연방준비제도 210
▁염증 210
▁우정 210
▁우파 210
▁원로 210
▁유선 210
▁인도적 210
▁자격증을 210
▁자극을 210
▁자유한국당의 210
▁작용하고 210
▁저널리스트 210
▁정문 210
▁정주 210
▁지점에 210
▁취소하고 210
▁침착 210
▁테헤란 210
▁투입된 210
▁틈새 210
▁한가운데 210
▁항생 210
▁혈관 210
권도 210
년차 210
딱 210
뜸 210
러브 210
럿 210
롭다 210
매치 210
스트는 210
영향 210
중이다 210
창출 210
천명 210
클래 210
팀에서 210
판의 210
학술 210
협력을 210
.8%) 209
▁1985 209
▁CGV 209
▁QR 209
▁가구를 209
▁가벼 209
▁가상화폐 209
▁개정이 209
▁걸러 209
▁골드만삭 209
▁금융감독 209
▁남는다 209
▁단체로 209
▁달라지는 209
▁덴마크 209
▁만나기 209
▁무리하게 209
▁문화체육관광부 209
▁미생물이 209
▁미혼 209
▁법칙을 209
▁뺏 209
▁사고와 209
▁서울시의 209
▁설치할 209
▁성접대 209
▁쏜 209
▁어린아이 209
▁얼마인가요 209
▁오르면 209
▁왕의 209
▁외국에서 209
▁의상 209
▁의하여 209
▁이르렀 209
▁인가 209
▁일상에서 209
▁있더라도 209
▁장비가 209
▁전념 209
▁접대 209
▁정면으로 209
▁정부도 209
▁준다는 209
▁줄기 209
▁지극히 209
▁지형 209
▁질환을 209
▁차지한다 209
▁초미세먼지 209
▁최하 209
▁추진에 209
▁치명 209
▁탄산가 209
▁통계청이 209
▁퇴임 209
▁튼튼 209
▁팥 209
▁포함될 209
▁해결에 209
▁해에 209
▁행사할 209
▁훗날 209
골로 209
기업들이 209
릴라 209
본이 209
쁜 209
스트로 209
앤은 209
에프 209
춰 209
커뮤니 209
특구 209
팩트 209
하였다고 209
KBS 208
▁IB 208
▁VIP 208
▁간소 208
▁거치지 208
▁검찰과 208
▁고갈 208
▁공개하는 208
▁교육과정을 208
▁극도로 208
▁끼워 208
▁나뉘어 208
▁넓어 208
▁노력으로 208
▁농축 208
▁능력에 208
▁다가온 208
▁단백질을 208
▁대표팀이 208
▁대학과 208
▁도입하는 208
▁뒤집어 208
▁마드리드 208
▁만들어져 208
▁맡길 208
▁매매가 208
▁목록을 208
▁못한다면 208
▁바꿔야 208
▁발암 208
▁병원이 208
▁사연을 208
▁산업단지 208
▁세종학 208
▁승계 208
▁싸움이 208
▁아기를 208
▁안팎에서는 208
▁알린 208
▁암살 208
▁애정을 208
▁없으나 208
▁에코 208
▁엿 208
▁인터넷이 208
▁장기적 208
▁잦아 208
▁저널리즘의 208
▁전역에서 208
▁정권을 208
▁조업 208
▁지난해에 208
▁지켜볼 208
▁초보 208
▁추천하는 208
▁코오롱 208
▁통하는 208
▁폭넓게 208
▁플로 208
▁학부모들이 208
▁할아버 208
▁현장이 208
▁협동조합 208
▁힘에의 208
것은 208
넌 208
년부터는 208
다를 208
두에 208
라기 208
레드 208
명도 208
사이클 208
상대 208
서에는 208
심리가 208
으신가요 208
천억원 208
폭탄 208
해보세요 208
혐 208
환의 208
히기 208
(27 207
RS 207
_ 207
th 207
▁83 207
▁가파른 207
▁강대 207
▁강화된 207
▁개그 207
▁거론되고 207
▁건전한 207
▁고의로 207
▁공감대를 207
▁공존하는 207
▁교내 207
▁국정농단 207
▁그들과 207
▁근육이 207
▁긁 207
▁넷마블 207
▁다가올 207
▁답장을 207
▁덤 207
▁뒤섞 207
▁마약을 207
▁말처럼 207
▁맞춰서 207
▁명백 207
▁명예를 207
▁무시할 207
▁박준 207
▁반발했다 207
▁방은 207
▁병역거부 207
▁봤습니다 207
▁부산시는 207
▁부탁드려요 207
▁사용되었다 207
▁사정을 207
▁산에 207
▁삼성바이오로직스 207
▁상원 207
▁선고받은 207
▁세션 207
▁수에 207
▁수중 207
▁스스로가 207
▁시작되기 207
▁시절에 207
▁알레르기 207
▁업무협약을 207
▁용도 207
▁우리은행 207
▁울타 207
▁원시 207
▁의존하는 207
▁이례적인 207
▁임무 207
▁작곡가 207
▁접착 207
▁제작해 207
▁주민들을 207
▁주소로 207
▁질량이 207
▁차질 207
▁케이크를 207
▁타이밍 207
▁패턴이 207
▁합시다 207
▁해소를 207
▁해주고 207
▁현저히 207
▁화웨이가 207
▁회의는 207
걸이 207
댐 207
되었어요 207
드리면 207
란드 207
론으로 207
베이션 207
여개의 207
이기에 207
이동 207
지붕 207
질적인 207
티의 207
훈의 207
art 206
▁0.5 206
▁OTT 206
▁UAE 206
▁결집 206
▁공개할 206
▁공공기관이 206
▁관광지 206
▁교회에서 206
▁구슬 206
▁기념촬영을 206
▁긴장감이 206
▁긴장이 206
▁나섰지만 206
▁낭독 206
▁녀 206
▁닐 206
▁당하는 206
▁대웅 206
▁등에게 206
▁등장인 206
▁등장할 206
▁디저트 206
▁뜯어 206
▁보기에는 206
▁복음 206
▁부디 206
▁비율로 206
▁상품과 206
▁색깔을 206
▁선정했다 206
▁선행연구 206
▁성장했다 206
▁소유하고 206
▁손님들이 206
▁스타가 206
▁아랍에미리트 206
▁아팠 206
▁앞뒤 206
▁어머니를 206
▁오름 206
▁의석 206
▁의심하고 206
▁이례적으로 206
▁인근의 206
▁작동하는 206
▁재킷 206
▁전환하는 206
▁조치는 206
▁종사자 206
▁좋은데 206
▁지원사업 206
▁참으로 206
▁취지를 206
▁컸던 206
▁크루즈 206
▁타격이 206
▁파격적인 206
▁표적 206
▁하자는 206
▁형태는 206
▁황희 206
▁회식 206
대변 206
도어 206
딧 206
레이터 206
로이드 206
발생 206
보의 206
성적 206
세포가 206
엑 206
인민 206
작이 206
짱 206
턱 206
폼 206
필드 206
회장이 206
.4%) 205
FTA 205
NS 205
ap 205
▁l 205
▁가뜩이나 205
▁감추지 205
▁강세 205
▁갱신 205
▁건넨 205
▁경계가 205
▁고충 205
▁공단 205
▁공통된 205
▁교사와 205
▁금융당국은 205
▁기생 205
▁기차를 205
▁김명 205
▁끝났다 205
▁내비 205
▁노년 205
▁노는 205
▁대표적으로 205
▁디바이 205
▁마드리 205
▁바닥을 205
▁바빠서 205
▁발열 205
▁발표에 205
▁배워야 205
▁부총리가 205
▁붙을 205
▁브리핑 205
▁뿐입니다 205
▁서포 205
▁성향을 205
▁세로 205
▁세르 205
▁세포가 205
▁손흥민의 205
▁수사하고 205
▁수위가 205
▁스토리가 205
▁시스템으로 205
▁신종 205
▁신차 205
▁아래에서 205
▁아이스크림 205
▁앞당겨 205
▁야당의 205
▁예약하고 205
▁옴 205
▁완벽히 205
▁운영되는 205
▁유난히 205
▁이륙 205
▁이야기도 205
▁읽은 205
▁입대 205
▁자연과 205
▁자유의 205
▁정도만 205
▁제주도에 205
▁좌파적 205
▁주민들에게 205
▁주일 205
▁창출하는 205
▁채널이 205
▁탐험 205
▁통과할 205
▁판결했다 205
▁판매한 205
▁플러 205
▁협상에서 205
겼습니다 205
급한 205
둬 205
명씩 205
을지 205
주자 205
탭 205
퐁 205
피니 205
해외 205
현을 205
협동조합 205
(12 204
▁ES 204
▁TF 204
▁가능하지만 204
▁경험하는 204
▁곡이 204
▁공통점이 204
▁군수 204
▁금감원이 204
▁기능에 204
▁길버 204
▁꼬리 204
▁낱 204
▁놀란 204
▁뇌의 204
▁누나 204
▁늦춰 204
▁대금 204
▁도마 204
▁됐지만 204
▁머물고 204
▁모레 204
▁무너진 204
▁미팅을 204
▁발전소 204
▁배수 204
▁벗고 204
▁보내주시면 204
▁보유세 204
▁부는 204
▁비결 204
▁뽑은 204
▁사태로 204
▁생각에는 204
▁생각으로 204
▁생각하며 204
▁성명 204
▁소요될 204
▁스마트폰이 204
▁어둡 204
▁여고 204
▁외국인의 204
▁울고 204
▁워싱턴포스트 204
▁위조 204
▁유지를 204
▁육아휴 204
▁이라크 204
▁일삼 204
▁일조 204
▁정상회담의 204
▁조건은 204
▁조그 204
▁주말에는 204
▁죽음에 204
▁죽음의 204
▁중국으로 204
▁지방자치단체가 204
▁짓을 204
▁챙기 204
▁통일을 204
▁필요하지만 204
▁한남 204
▁한중 204
▁활기를 204
▁흔적 204
각은 204
길은 204
라미 204
런트 204
뮤직 204
번이 204
블랙 204
성분 204
신으로 204
아산 204
었음을 204
연락 204
팟 204
피해가 204
하다며 204
US 203
ess 203
▁BBC 203
▁in 203
▁갑작스럽게 203
▁겨냥 203
▁경부 203
▁고조되고 203
▁공급할 203
▁귀엽 203
▁기쁘 203
▁기운이 203
▁남아있다 203
▁넣으면 203
▁노력해 203
▁느슨 203
▁다닌 203
▁다저 203
▁당뇨병 203
▁당당 203
▁드러낸다 203
▁라고 203
▁릴 203
▁먹었어요 203
▁박사가 203
▁박유 203
▁블로 203
▁사우 203
▁사자 203
▁살아온 203
▁삼은 203
▁샀는데 203
▁상표 203
▁선교사 203
▁실패했다 203
▁언젠가는 203
▁엘리 203
▁역사적으로 203
▁연계한 203
▁영종 203
▁예상됩니다 203
▁오른다 203
▁왔지만 203
▁외교적 203
▁움직임에 203
▁원주민 203
▁위상이 203
▁은행에서 203
▁이론과 203
▁작가들이 203
▁재즈 203
▁전문성 203
▁절제 203
▁정복 203
▁정정 203
▁정치를 203
▁제목으로 203
▁최근까지 203
▁출발하는 203
▁치닫 203
▁카드가 203
▁카지노 203
▁코믹 203
▁쿠데 203
▁프로그램에서 203
▁필라 203
▁하락하는 203
▁현명한 203
▁화학반응 203
▁힘들어요 203
겼고 203
그런데 203
당했다 203
랑이 203
복음 203
비율이 203
쉐 203
스토어 203
십자 203
오스 203
이트를 203
자면 203
졌으면 203
조원에 203
찜 203
창이 203
했나요 203
1000 202
72 202
MD 202
▁가수가 202
▁가처분 202
▁개념에 202
▁거론된다 202
▁결국은 202
▁고소한 202
▁골드 202
▁관계자들은 202
▁구입할 202
▁극적으로 202
▁기금운용 202
▁기량을 202
▁다이애 202
▁대명 202
▁듯했다 202
▁맡을 202
▁모임이 202
▁무겁 202
▁무색 202
▁발견되었다 202
▁밝히며 202
▁보내야 202
▁봉사활동 202
▁부분적으로 202
▁브리핑을 202
▁비빔밥 202
▁빌린 202
▁빚고 202
▁상황에서는 202
▁석탑 202
▁스마트폰으로 202
▁아세 202
▁얘기해 202
▁여긴 202
▁영국과 202
▁월평균 202
▁윤종 202
▁이야기로 202
▁잠들 202
▁전기요금 202
▁전략으로 202
▁지옥 202
▁챌린 202
▁출시했다 202
▁컨디 202
▁프로듀 202
▁해결되지 202
▁홀로그램 202
▁홈페이지에서 202
▁확고한 202
교육에 202
도미사일 202
듯한 202
라이브 202
락에 202
메르 202
민들의 202
반에 202
부족 202
시설에 202
이노 202
페스티벌 202
학교는 202
.3%) 201
▁0.2 201
▁2·4 201
▁가족들은 201
▁각계 201
▁각지에서 201
▁개회 201
▁계시는 201
▁고른 201
▁고부가 201
▁곧장 201
▁골이 201
▁공개하고 201
▁광주광역 201
▁구속영장 201
▁그것들은 201
▁극단적 201
▁김명수 201
▁끼친 201
▁네팔 201
▁농작 201
▁놓을 201
▁누군가를 201
▁단거리 201
▁대가를 201
▁동성 201
▁됐을 201
▁뭔가를 201
▁본연의 201
▁부과하는 201
▁사회와 201
▁상세히 201
▁솟 201
▁수락 201
▁스튜어드십 201
▁스티브 201
▁시작되자 201
▁시절의 201
▁신일 201
▁쓰게 201
▁아이스크 201
▁안경 201
▁않을까요 201
▁애초에 201
▁엘리자베 201
▁연구팀이 201
▁영역은 201
▁올리면 201
▁외의 201
▁욕구가 201
▁유방암 201
▁의사결 201
▁이를테면 201
▁이전보다 201
▁이전부터 201
▁자기를 201
▁자세가 201
▁자유한국당은 201
▁장사 201
▁제때 201
▁중년 201
▁중세 201
▁철학을 201
▁취재진 201
▁킨 201
▁통신은 201
▁팬덤 201
▁학력 201
▁한계에 201
▁할머니의 201
▁현상으로 201
▁호텔로 201
▁회복이 201
▁획일 201
과세 201
노동위원회 201
당국 201
맞이 201
분들이 201
선생 201
오의 201
전통 201
질과 201
쭉 201
차산업 201
푼 201
합시다 201
효율 201
PGA 200
▁RNA 200
▁간담회에서 200
▁감상할 200
▁고액 200
▁과도 200
▁과태료 200
▁국내총생산 200
▁권력의 200
▁남원 200
▁내려다 200
▁논의에 200
▁대비한 200
▁도중에 200
▁되었는데 200
▁디자인과 200
▁딱히 200
▁매체의 200
▁무역협상 200
▁밤에는 200
▁법과 200
▁뵙 200
▁사직 200
▁산소가 200
▁상세 200
▁상태는 200
▁새겨 200
▁생태계가 200
▁선관 200
▁소재가 200
▁시한 200
▁씹 200
▁아파트에서 200
▁야채 200
▁없애는 200
▁연달아 200
▁우려되는 200
▁유지될 200
▁이야기했다 200
▁인지하고 200
▁임기가 200
▁있는데도 200
▁재미가 200
▁전파를 200
▁정도면 200
▁주축이 200
▁중첩 200
▁첫번째 200
▁체온 200
▁콘셉트 200
▁태안 200
▁통산 200
▁트렌드 200
▁평상 200
▁포지 200
▁하버드 200
▁학교폭력 200
▁한정된 200
▁해볼 200
▁혼인 200
▁홍역 200
▁회담에서 200
▁히로 200
걸요 200
광이 200
기다 200
남이 200
당하는 200
도우 200
되었는지 200
든다 200
러리 200
력발전소 200
록을 200
뤼 200
링이 200
미투 200
소수 200
스퍼 200
싸움 200
암호 200
율에 200
형태 200
회사에 200
(-0 199
900 199
▁가능하기 199
▁가능하면 199
▁가미 199
▁개선하고 199
▁검경 199
▁겨울이 199
▁계산할 199
▁과정이다 199
▁기회로 199
▁김학 199
▁논리적 199
▁누리고 199
▁달을 199
▁담을 199
▁대사를 199
▁독보적인 199
▁드러나지 199
▁또다른 199
▁라인을 199
▁러시아는 199
▁리서치 199
▁매출액이 199
▁문희상 199
▁밝혔다고 199
▁배로 199
▁베타 199
▁보호무역 199
▁사각지 199
▁사령탑 199
▁삼았다 199
▁상관이 199
▁선에서 199
▁성격의 199
▁세미 199
▁순위에 199
▁알렉산 199
▁영화로 199
▁온열 199
▁유지했다 199
▁이날은 199
▁이들과 199
▁이불 199
▁인스타그램에 199
▁일상적인 199
▁전망하고 199
▁정경 199
▁제로 199
▁중앙아시아 199
▁찾아오는 199
▁칼슘 199
▁타당성 199
▁태도는 199
▁판결에 199
▁패스를 199
▁협력업체 199
▁화답 199
▁화장품을 199
▁확대되는 199
▁회고 199
▁회복을 199
▁흐른 199
가야 199
거가 199
공간이 199
교와 199
금액이 199
기관으로 199
득점 199
릅 199
림에 199
분권 199
솜 199
어가고 199
업무를 199
전에는 199
제일 199
족이 199
회담을 199
▁4·3 198
▁갈등의 198
▁갖기 198
▁경제협력 198
▁고체 198
▁공기청정 198
▁구분할 198
▁국정감사에서 198
▁기술력을 198
▁기획한 198
▁꼼 198
▁내부적으로 198
▁내셔널 198
▁당기 198
▁더위를 198
▁도입할 198
▁드라마와 198
▁를 198
▁리스크가 198
▁마당 198
▁바라며 198
▁박씨는 198
▁배에 198
▁법원행정처가 198
▁베어 198
▁부수 198
▁부위를 198
▁불발 198
▁뷰 198
▁상권 198
▁생생한 198
▁섞어 198
▁선수와 198
▁설정한 198
▁성산 198
▁수사의 198
▁수없이 198
▁시기의 198
▁신자유 198
▁쏘아 198
▁안내를 198
▁안타깝게도 198
▁애플의 198
▁여자의 198
▁여태 198
▁영국이 198
▁영원 198
▁오디 198
▁옮긴 198
▁요소는 198
▁웃음이 198
▁유치를 198
▁의자 198
▁인형을 198
▁일제의 198
▁임종헌 198
▁전당대회 198
▁전화해 198
▁조장 198
▁주택담보대출 198
▁증거로 198
▁지날수록 198
▁직면한 198
▁직속 198
▁직업이 198
▁진공 198
▁집단이 198
▁찾아보 198
▁체제로 198
▁최적화된 198
▁추세가 198
▁추정했다 198
▁출신이 198
▁풋 198
▁하라 198
▁허물 198
▁화장실에 198
건물 198
경기를 198
남에 198
더가 198
드시 198
미국이 198
북부 198
브가 198
원자력 198
웠어 198
위성 198
일드 198
주행 198
직은 198
학교의 198
학에서 198
75 197
▁갔어 197
▁공격에 197
▁공기청정기 197
▁구성돼 197
▁국정감사 197
▁그렸다 197
▁나왔지만 197
▁남편과 197
▁내성 197
▁넘겼다 197
▁넷플릭스 197
▁노하우 197
▁눈은 197
▁뉴미디어 197
▁단체는 197
▁단호 197
▁덕분 197
▁덧붙 197
▁동반한 197
▁동영상이 197
▁두었다 197
▁뛰고 197
▁마릴 197
▁맞추고 197
▁머물렀 197
▁메뉴는 197
▁문명 197
▁미치 197
▁바다가 197
▁본질적으로 197
▁부속 197
▁분들은 197
▁불편함을 197
▁삶에서 197
▁섣 197
▁성차별 197
▁손혜원 197
▁솔직하게 197
▁수납 197
▁수돗 197
▁어서 197
▁언론과 197
▁엄격하게 197
▁유은혜 197
▁의사의 197
▁자본시장 197
▁잔류 197
▁장마 197
▁접종 197
▁접하는 197
▁제기되는 197
▁직후인 197
▁처리해 197
▁천문학 197
▁코치가 197
▁트위터를 197
▁파악한 197
▁파티에 197
▁펠 197
▁플루 197
▁필요하면 197
▁학계 197
▁휠 197
검증 197
궐 197
냈습니다 197
동해 197
보좌 197
소송을 197
유는 197
주에게 197
지식 197
질서 197
친화 197
토르 197
헬스 197
화재 197
활용 197
.1%) 196
.2%) 196
WSJ 196
▁2023 196
▁거리로 196
▁검토하는 196
▁견딜 196
▁경찰관이 196
▁계좌로 196
▁관객들에게 196
▁그것들을 196
▁기다려주세요 196
▁기한 196
▁깨끗하게 196
▁꼽혔다 196
▁끊어 196
▁농담 196
▁누르면 196
▁뉴욕타임스 196
▁느껴졌다 196
▁당진 196
▁대내외 196
▁됐던 196
▁로컬 196
▁막힌 196
▁말씀하신 196
▁몫을 196
▁미술관 196
▁발화 196
▁배럴 196
▁변수로 196
▁복잡하고 196
▁본사가 196
▁사범 196
▁살리기 196
▁상류 196
▁성질이 196
▁스타일의 196
▁승리로 196
▁식중독 196
▁신제품을 196
▁실무협 196
▁얼굴로 196
▁얼룩 196
▁엿보 196
▁원화 196
▁이방 196
▁이전과 196
▁이천 196
▁재원 196
▁제도로 196
▁중단된 196
▁중소벤처기업 196
▁중앙에 196
▁지리적 196
▁초중 196
▁충주 196
▁친숙 196
▁평면 196
▁평소보다 196
▁학문적 196
▁확연히 196
거리에 196
급의 196
두리 196
시겠어요 196
악의 196
연속 196
의사 196
인으로서 196
일보가 196
일째 196
지방법 196
지진 196
(14 195
(16 195
CA 195
▁105 195
▁가면서 195
▁계몽 195
▁권영 195
▁김한 195
▁김현미 195
▁꼼꼼하게 195
▁끊임없는 195
▁높습니다 195
▁뉘 195
▁니콜 195
▁단지는 195
▁든든한 195
▁레전드 195
▁리조트 195
▁마운드 195
▁마지막에 195
▁만취 195
▁면접을 195
▁명동 195
▁모빌리티 195
▁묻혀 195
▁받아들이고 195
▁변함 195
▁보습 195
▁보조금을 195
▁부회장의 195
▁분노를 195
▁빵을 195
▁산업용 195
▁삼성은 195
▁선생님의 195
▁수행한다 195
▁순이익 195
▁신재 195
▁씌 195
▁않은데 195
▁알았는데 195
▁어디서나 195
▁언어와 195
▁역할과 195
▁연탄 195
▁열띤 195
▁영국에서 195
▁오류를 195
▁유의미한 195
▁음식물 195
▁이야기의 195
▁자릿 195
▁전시회를 195
▁접수됐다 195
▁정서를 195
▁주목받는 195
▁지정을 195
▁진실이 195
▁친구들에게 195
▁특별법 195
▁특활 195
▁화면이 195
결한 195
관계에 195
구조가 195
더군요 195
베리 195
벽을 195
세포를 195
수석이 195
압을 195
인재 195
차례에 195
첫 195
카는 195
킬로 195
(200 194
▁4∼5 194
▁GP 194
▁고양이가 194
▁곳입니다 194
▁구분하는 194
▁구성한 194
▁구입한 194
▁권익 194
▁글과 194
▁기사에 194
▁나아가는 194
▁납니다 194
▁넘어가는 194
▁노릇 194
▁늙 194
▁단독으로 194
▁더한 194
▁드나 194
▁디자인의 194
▁로맨틱 194
▁마련하기 194
▁막강한 194
▁몸과 194
▁밀도가 194
▁박경 194
▁발전하는 194
▁법정에 194
▁사망자가 194
▁산타 194
▁삼촌 194
▁상대적 194
▁상황입니다 194
▁선발된 194
▁순서 194
▁알려주실 194
▁어학 194
▁영등포 194
▁오너 194
▁온라인에서 194
▁외국인들이 194
▁육상 194
▁익명 194
▁인상적인 194
▁입장은 194
▁장담 194
▁재료가 194
▁쟁점이 194
▁전라남도 194
▁제안하는 194
▁주최로 194
▁줄게 194
▁지혜를 194
▁참전 194
▁총기 194
▁최악 194
▁쿠키 194
▁투명하게 194
▁파문이 194
▁폭력을 194
▁해당된다 194
▁향상에 194
▁홍대 194
▁환상적인 194
▁활기 194
▁효율이 194
객들이 194
거진 194
겠네 194
경기도 194
닭 194
라고도 194
변의 194
보호법 194
본부장은 194
부상 194
억원대 194
유공자 194
장치를 194
전남 194
증명 194
청소 194
타와 194
홈쇼핑 194
▁DJ 193
▁가던 193
▁고통이 193
▁공감대가 193
▁공용 193
▁교복 193
▁구글의 193
▁국가정보 193
▁그만두 193
▁기자간담회에서 193
▁김용균 193
▁날씨에 193
▁남자의 193
▁녹화 193
▁농악 193
▁단점을 193
▁대답했다 193
▁독창 193
▁둬 193
▁들어서면 193
▁말씀하시는 193
▁명칭을 193
▁보일러 193
▁브랜 193
▁사려고 193
▁살지 193
▁살펴보았다 193
▁순조롭게 193
▁시너지를 193
▁시도하는 193
▁시작하기 193
▁쓰나 193
▁얻는다 193
▁연관된 193
▁요즘에는 193
▁운행을 193
▁원치 193
▁의혹으로 193
▁이광 193
▁이행을 193
▁잇따른 193
▁장래 193
▁저자 193
▁전자담 193
▁절대적으로 193
▁조금은 193
▁지역별로 193
▁집중된다 193
▁청구한 193
▁치를 193
▁치열하게 193
▁캡 193
▁타이틀곡 193
▁편에 193
▁포함해서 193
▁플레이어 193
관계의 193
댄스 193
매는 193
모니 193
번호가 193
보단 193
사나 193
상태를 193
약품 193
여건 193
일간의 193
제도의 193
지도록 193
질은 193
총을 193
추를 193
패로 193
해지면 193
85 192
MP 192
PL 192
ee 192
▁101 192
▁개편을 192
▁경우에만 192
▁고용노동부가 192
▁구자 192
▁국민들에게 192
▁국민청 192
▁규모와 192
▁규제개혁 192
▁글루 192
▁기상청 192
▁기술이다 192
▁노출된 192
▁느린 192
▁달래 192
▁돌파했다 192
▁떠나지 192
▁라돈 192
▁망막 192
▁맥스 192
▁모색하는 192
▁미세먼지를 192
▁바이러스가 192
▁반발을 192
▁배우기 192
▁보였고 192
▁분위기에 192
▁소비자들에게 192
▁시작되고 192
▁시점이다 192
▁시트 192
▁심리를 192
▁악수를 192
▁안정적 192
▁알았어요 192
▁액세서 192
▁야당이 192
▁어떨까 192
▁여권을 192
▁오시면 192
▁외화 192
▁이내로 192
▁일방적인 192
▁일상이 192
▁자외 192
▁점으로 192
▁정리하고 192
▁정상회의 192
▁정준영 192
▁최씨가 192
▁출마를 192
▁취약계층 192
▁취직 192
▁카이 192
▁캘 192
▁토종 192
▁통화정책 192
▁투자의 192
▁폐암 192
▁필로 192
▁하루하 192
▁하이브리드 192
▁했으면 192
▁형편 192
가구가 192
가들은 192
강에서 192
거렸다 192
겼던 192
끼를 192
분양 192
상황이 192
스타일 192
워즈 192
원에게 192
재생 192
저녁 192
줄을 192
진화 192
짐을 192
층에는 192
표로 192
품과 192
하드 192
해준다 192
OECD 191
og 191
▁“3 191
▁가계대출 191
▁가입자가 191
▁개는 191
▁갯벌 191
▁건물로 191
▁경희 191
▁고성능 191
▁공무원들이 191
▁관계에서 191
▁귀중한 191
▁김원 191
▁까다로운 191
▁냄새를 191
▁논의하고 191
▁대학교에 191
▁대한민 191
▁돌을 191
▁동조 191
▁마을이 191
▁먹이를 191
▁메르켈 191
▁바다에서 191
▁배터 191
▁법의 191
▁베트남의 191
▁북서 191
▁비판도 191
▁셔 191
▁셔츠 191
▁소실 191
▁스리랑카 191
▁쓴다 191
▁아키 191
▁아파트는 191
▁악기 191
▁연구결과 191
▁영국은 191
▁예산은 191
▁운문 191
▁위기의 191
▁유병 191
▁음악적 191
▁일러스트 191
▁임직 191
▁잊을 191
▁자유가 191
▁잣 191
▁전략에 191
▁전화번호 191
▁접근하는 191
▁제거하는 191
▁주도적으로 191
▁증가는 191
▁증액 191
▁지금껏 191
▁진정으로 191
▁창원시 191
▁치르는 191
▁코칭 191
▁터진 191
▁트랜 191
▁폐지를 191
▁함을 191
▁행사에서는 191
▁현실은 191
고발 191
곳으로 191
군수 191
드렸습니다 191
들에겐 191
라우 191
면접 191
모와 191
바가 191
사기 191
쇼핑몰 191
안에서 191
저우 191
줬으면 191
집의 191
쩌 191
철은 191
특위 191
히면서 191
73 190
ity 190
▁92 190
▁Ch 190
▁PO 190
▁간격으로 190
▁개개 190
▁개조 190
▁거부하는 190
▁거액의 190
▁경쟁에 190
▁공동체의 190
▁국제유 190
▁그러기 190
▁그토록 190
▁끊은 190
▁나들이 190
▁나오게 190
▁노선이 190
▁단계의 190
▁달랐 190
▁더이상 190
▁도전이 190
▁독립적인 190
▁돌이 190
▁따르지 190
▁따를 190
▁라운 190
▁마이너 190
▁만들어낼 190
▁매체에 190
▁메시지는 190
▁목사의 190
▁몸으로 190
▁무서워 190
▁무의 190
▁무차별 190
▁물의를 190
▁바라보며 190
▁배틀 190
▁부사 190
▁부산을 190
▁불편이 190
▁사용에 190
▁서울중앙 190
▁신진 190
▁알렉 190
▁압도적으로 190
▁어려웠던 190
▁욕설 190
▁우세 190
▁유리하다 190
▁유일하다 190
▁유형을 190
▁응원하는 190
▁이해관계가 190
▁인출 190
▁장인 190
▁재정적 190
▁저조한 190
▁적법 190
▁주기율표 190
▁주중 190
▁증가세가 190
▁진행해야 190
▁책으로 190
▁컴퓨팅 190
▁테니스 190
▁토로 190
▁통합을 190
▁품은 190
▁프로그래밍 190
▁호텔이 190
게도 190
규가 190
그가 190
극이 190
기관에서 190
다의 190
드래곤 190
라인이 190
빔 190
생활에 190
석유 190
쉽 190
시킨다는 190
얄 190
양과 190
원자 190
이었다면 190
장들이 190
정에서 190
켄 190
코드를 190
폭행 190
2,000 189
′ 189
▁1984 189
▁CP 189
▁“5 189
▁강호 189
▁교수를 189
▁구멍을 189
▁구실을 189
▁구인 189
▁굳건 189
▁끝을 189
▁내서 189
▁논의될 189
▁농사를 189
▁대마 189
▁머스크 189
▁목표에 189
▁물러나 189
▁발걸 189
▁발행한 189
▁병사 189
▁선사한다 189
▁성령 189
▁성분을 189
▁성인이 189
▁성폭행을 189
▁소통하고 189
▁시간적 189
▁싸이의 189
▁쓰일 189
▁앵커 189
▁양천 189
▁영위 189
▁예견 189
▁우리나라에 189
▁원칙이 189
▁위태 189
▁유람 189
▁유의해야 189
▁유진 189
▁육성을 189
▁의심을 189
▁이국 189
▁이대로 189
▁이미지의 189
▁이바지 189
▁작용한다 189
▁장군 189
▁전시를 189
▁절망 189
▁정렬 189
▁주목해야 189
▁창문을 189
▁코레 189
▁텅 189
▁파크 189
▁피터 189
▁해결책 189
▁향토 189
▁활동한 189
강남 189
개방 189
구리 189
돌고 189
떠 189
러블 189
마한 189
배의 189
벤처기업 189
심판 189
연구소가 189
웍 189
중앙회 189
천군 189
청장 189
축제가 189
캐슬 189
캡 189
파리 189
플렉스 189
(24 188
DS 188
ard 188
▁7000 188
▁결실을 188
▁구동 188
▁국가들의 188
▁규제에 188
▁근로기준 188
▁느껴질 188
▁달러가 188
▁도구가 188
▁도착해서 188
▁동방 188
▁동승 188
▁링크를 188
▁마리의 188
▁머릿속에 188
▁모아진다 188
▁무소속 188
▁발발 188
▁보내기 188
▁부분으로 188
▁불가피할 188
▁불평 188
▁사랑스러운 188
▁사리 188
▁사용하던 188
▁사장의 188
▁살피 188
▁상응하는 188
▁생산량이 188
▁생산하고 188
▁서사 188
▁서울교통 188
▁서울시장이 188
▁싶고 188
▁아다 188
▁아름답고 188
▁얽혀 188
▁에너 188
▁여성에게 188
▁영상과 188
▁오키나와 188
▁원래의 188
▁유세 188
▁의원도 188
▁이득을 188
▁이르게 188
▁이인 188
▁이철 188
▁자막 188
▁제출할 188
▁진행한다고 188
▁질병관리 188
▁창출할 188
▁촌 188
▁춘추 188
▁컴퓨터에 188
▁크기와 188
▁터키의 188
▁파주시 188
▁페이지를 188
▁한몫 188
▁해결이 188
▁현재와 188
▁희망한다 188
고령 188
기존 188
대한민국 188
링은 188
매출 188
묘한 188
수당을 188
억여 188
업종 188
전자가 188
접촉 188
제재 188
준을 188
지원센터 188
초에 188
쿠버 188
항공사 188
66 187
7, 187
ers 187
▁1979 187
▁故 187
▁가게를 187
▁가리키는 187
▁강진 187
▁겨냥해 187
▁경청 187
▁고가의 187
▁공방이 187
▁관리와 187
▁교통이 187
▁구축에 187
▁귀한 187
▁그동안의 187
▁그러는데 187
▁그루 187
▁기각했다 187
▁날려 187
▁노동자들의 187
▁당정 187
▁데뷔한 187
▁독일과 187
▁동계 187
▁동력이 187
▁동안에 187
▁돼지고기 187
▁매체가 187
▁먹었습니다 187
▁명명 187
▁못하면서 187
▁무주택 187
▁방화 187
▁법은 187
▁벙 187
▁보내면 187
▁부가가치 187
▁부지에 187
▁부터 187
▁사회적인 187
▁삼국 187
▁상징적 187
▁서류가 187
▁서울시와 187
▁석사 187
▁선물이 187
▁세인트 187
▁실전 187
▁아랫 187
▁안건 187
▁안드로이드 187
▁어제는 187
▁없애고 187
▁에서 187
▁연결돼 187
▁요동 187
▁욕망 187
▁이용을 187
▁인정받고 187
▁일본어 187
▁일이에요 187
▁자세하게 187
▁전문가를 187
▁전문가와 187
▁전통시장 187
▁제시해 187
▁종교의 187
▁주당 187
▁지구에 187
▁지난해에는 187
▁지방이 187
▁차이나 187
▁참을 187
▁측과 187
▁탁월 187
▁톡톡히 187
▁판매되고 187
▁페미니즘 187
▁형광 187
▁확률은 187
경기장에서 187
곶 187
구치 187
뒀 187
룩한 187
모리 187
박람 187
손으로 187
야의 187
연에 187
풍의 187
학자들은 187
해왔던 187
해의 187
IST 186
▁가습기 186
▁강구 186
▁개발자 186
▁경험에 186
▁공동성 186
▁그려져 186
▁기사의 186
▁기자들에게 186
▁김밥 186
▁꾸준 186
▁남북경협 186
▁남자와 186
▁높이가 186
▁다큐멘터 186
▁단계가 186
▁대다수가 186
▁댓글이 186
▁도달할 186
▁라이벌 186
▁랭 186
▁만나지 186
▁매티스 186
▁모양새 186
▁바라볼 186
▁박씨가 186
▁박주 186
▁발걸음을 186
▁밝혀진 186
▁버릴 186
▁번호가 186
▁보였지만 186
▁부문은 186
▁서기 186
▁설명은 186
▁성남시 186
▁세계와 186
▁슈팅 186
▁스트레스가 186
▁시설물 186
▁시청자들에게 186
▁신청하면 186
▁실시된 186
▁심장이 186
▁안타 186
▁애로 186
▁업체들은 186
▁여왕 186
▁연설을 186
▁예고한 186
▁예방에 186
▁예측했다 186
▁우려해 186
▁원인과 186
▁월간 186
▁유럽과 186
▁유쾌 186
▁이후부터 186
▁일기 186
▁주길 186
▁주민과 186
▁주석의 186
▁줄게요 186
▁줄어든다 186
▁중소형 186
▁지방에 186
▁집어넣 186
▁창건 186
▁창업을 186
▁총재가 186
▁친선 186
▁카메라에 186
▁태우고 186
▁투어를 186
▁판매량 186
▁편을 186
▁한전 186
▁해왔다 186
▁햇볕 186
▁행보가 186
▁헤이 186
▁혁신성 186
▁협의해 186
▁확산될 186
▁후문이다 186
개국에서 186
경기에 186
공항에서 186
금에 186
길로 186
끄럽 186
는지에 186
단체의 186
단한 186
됐어요 186
렌즈 186
모바일 186
미안 186
민간 186
법관 186
보통 186
사자 186
셨는데 186
손이 186
앉 186
울산 186
월로 186
자율 186
점도 186
창의 186
쳤을 186
타르 186
티드 186
해주면 186
했더니 186
', 185
8% 185
KT 185
ate 185
ip 185
▁94 185
▁PB 185
▁각별히 185
▁거부한 185
▁거세게 185
▁거창 185
▁검사는 185
▁결정될 185
▁괴롭힘 185
▁기대와 185
▁기아차 185
▁누군가의 185
▁달콤 185
▁대전시 185
▁디자인으로 185
▁떨어지면서 185
▁마법 185
▁모멘텀 185
▁목소 185
▁무기를 185
▁바디 185
▁밝고 185
▁변호인 185
▁보답 185
▁브리 185
▁사단법인 185
▁산업과 185
▁소비하는 185
▁소재의 185
▁속도에 185
▁솟아 185
▁수집한 185
▁승객이 185
▁싸우 185
▁안이 185
▁약이 185
▁업체들의 185
▁에너지로 185
▁연구진이 185
▁영상에 185
▁유지해 185
▁이튿날 185
▁인정을 185
▁인터랙 185
▁입각 185
▁자동차에 185
▁작품들을 185
▁저해 185
▁지급을 185
▁차별화 185
▁최첨단 185
▁캐나다에서 185
▁코딩 185
▁탔다 185
▁판문 185
▁평가한 185
▁포함한다 185
▁필두로 185
▁행보에 185
▁홍콩의 185
▁활용하면 185
공항에 185
듐 185
렸기 185
물류 185
베르크 185
색과 185
식물 185
었나요 185
여러 185
월을 185
이사장 185
중간 185
처음 185
칙을 185
컵을 185
투기 185
DP 184
LS 184
ell 184
▁“4 184
▁가르치고 184
▁가정용 184
▁거치면서 184
▁괜찮을까요 184
▁구축한 184
▁그룹을 184
▁그림의 184
▁기다렸다 184
▁기와 184
▁까닭에 184
▁깜 184
▁남녀노소 184
▁낳고 184
▁내려와 184
▁넘어설 184
▁노조의 184
▁다가왔다 184
▁달성하기 184
▁당사자 184
▁당사자가 184
▁대상자 184
▁대화에 184
▁동기를 184
▁뒤처 184
▁땀을 184
▁띄었다 184
▁마무리했다 184
▁맞추기 184
▁먹습니다 184
▁모델에 184
▁모습이었다 184
▁묶여 184
▁바란 184
▁벗겨 184
▁베스트셀러 184
▁보냈어요 184
▁보험금 184
▁복합적으로 184
▁볶 184
▁부모님의 184
▁빠뜨 184
▁사명 184
▁상대방이 184
▁상여 184
▁상이 184
▁서비스업 184
▁선한 184
▁성균관 184
▁수강생 184
▁수익률을 184
▁스타일이 184
▁시기와 184
▁식약처는 184
▁신성 184
▁아들과 184
▁엑스포 184
▁역학 184
▁예정이어서 184
▁옮길 184
▁우유를 184
▁운전면허 184
▁유화 184
▁이런저런 184
▁인텔 184
▁작게 184
▁접촉을 184
▁조사와 184
▁주가는 184
▁주역 184
▁지났지만 184
▁지불해야 184
▁지평 184
▁쪽의 184
▁찍힌 184
▁창의적 184
▁총격 184
▁총력 184
▁추억이 184
▁충격에 184
▁캠퍼스 184
▁커리큘럼 184
▁커뮤니케이션을 184
▁크로아 184
▁타워 184
▁테이블에 184
▁포천 184
▁플라톤 184
▁하라고 184
▁한국계 184
▁해본 184
▁형태와 184
▁화살 184
▁힘들다는 184
각의 184
격에 184
과정에 184
구간 184
나노 184
대문 184
레일 184
인데다 184
일까요 184
중독 184
찬이 184
토를 184
파워 184
핍 184
하였지만 184
함의 184
허가를 184
9% 183
ack 183
▁0.3 183
▁8,000 183
▁감각이 183
▁것인가요 183
▁결정하고 183
▁골프장 183
▁공연으로 183
▁교훈 183
▁군대를 183
▁나오는데 183
▁니체 183
▁대나무 183
▁도가 183
▁둥근 183
▁떡볶 183
▁마리아 183
▁마무 183
▁만들면 183
▁만들어지고 183
▁매료 183
▁문구를 183
▁발달한 183
▁발렌 183
▁발전하고 183
▁방증 183
▁보려고 183
▁보태 183
▁볼거리 183
▁북상 183
▁산소를 183
▁상반된 183
▁생겨난 183
▁설문조사를 183
▁시간으로 183
▁시사하는 183
▁아리랑 183
▁알면서도 183
▁에디 183
▁외무성 183
▁욕망을 183
▁이루었다 183
▁이뤘 183
▁자를 183
▁장갑 183
▁전가 183
▁전문가는 183
▁정세 183
▁조절할 183
▁종의 183
▁주어지는 183
▁주택이 183
▁중요시 183
▁차례의 183
▁차장이 183
▁최영 183
▁추가해 183
▁탈세 183
▁태운 183
▁통제할 183
▁특성과 183
▁하와이 183
▁한국교회 183
▁해커 183
▁현지인 183
▁환경오염 183
가들의 183
과가 183
노가 183
노총 183
들끼리 183
류와 183
르담 183
사실을 183
사이드 183
쓰는 183
웹 183
지정 183
쿤 183
탠 183
통의 183
42 182
79 182
II 182
▁97 182
▁CC 182
▁“2 182
▁가짜뉴 182
▁간격 182
▁갈등은 182
▁갔던 182
▁거면 182
▁것이므로 182
▁공정위가 182
▁관문 182
▁금융감독원은 182
▁기관과 182
▁기념하는 182
▁기업에서 182
▁기조를 182
▁김문 182
▁김미 182
▁김부겸 182
▁낀 182
▁높지만 182
▁누르고 182
▁눈치를 182
▁다니며 182
▁대수 182
▁때였다 182
▁로고 182
▁마셔 182
▁만회 182
▁많았습니다 182
▁먹어요 182
▁명도 182
▁명의로 182
▁무제한 182
▁미안합니다 182
▁바뀐다 182
▁방향과 182
▁보인다는 182
▁부문에 182
▁분야별 182
▁불명 182
▁불복 182
▁블라디보스토 182
▁솔릭 182
▁안락 182
▁양호 182
▁어느새 182
▁어른이 182
▁어머니와 182
▁옥수수 182
▁왔다고 182
▁요리는 182
▁우주를 182
▁윤석 182
▁의외로 182
▁이진 182
▁이창 182
▁인생이 182
▁인수한 182
▁일만 182
▁장현 182
▁전망입니다 182
▁전작 182
▁져야 182
▁좋겠다고 182
▁주목했다 182
▁중앙은행 182
▁청계 182
▁캠퍼 182
▁트윗 182
▁평화가 182
▁폭발적으로 182
▁한도 182
▁항해 182
▁환불을 182
▁회부 182
너의 182
년대부터 182
느냐고 182
더블 182
든가 182
뛰 182
메달을 182
브는 182
상블 182
순이 182
연준 182
워야 182
전력 182
지사와 182
총회 182
클라 182
휴가 182
(50 181
FO 181
UN 181
ang 181
▁81 181
▁NA 181
▁가디언 181
▁가이드라인을 181
▁감안할 181
▁강점 181
▁개개인의 181
▁개항 181
▁경영에 181
▁경주시 181
▁경직 181
▁교보 181
▁교직 181
▁깊다 181
▁남산 181
▁내놓지 181
▁뇌물을 181
▁단속을 181
▁대인 181
▁덴 181
▁도입했다 181
▁돌려보 181
▁되었어 181
▁떨어진다는 181
▁뜯 181
▁만들어질 181
▁맞이하는 181
▁멈추고 181
▁면적이 181
▁바늘 181
▁병에 181
▁보장을 181
▁부탁을 181
▁서비스도 181
▁세척 181
▁습관이 181
▁시각으로 181
▁신을 181
▁안정화 181
▁어울릴 181
▁올라간 181
▁유상 181
▁응답자 181
▁이도 181
▁이유입니다 181
▁자처 181
▁전략이다 181
▁정체성 181
▁정화 181
▁증가를 181
▁증발 181
▁직접적 181
▁찾게 181
▁총선에서 181
▁트리플 181
▁프랭 181
▁프로듀서 181
▁플랫폼의 181
▁한국당의 181
▁한류스타 181
▁한반도를 181
▁함양 181
값은 181
경기가 181
나라의 181
냈고 181
놓을 181
무부 181
받아야 181
변경 181
산업에 181
셨던 181
쑤 181
원들의 181
이민 181
자동차가 181
종인 181
종일 181
지어 181
진다면 181
타이어 181
토는 181
폈다 181
푸르 181
69 180
LB 180
MR 180
ine 180
ive 180
∼12 180
▁‘2 180
▁간식 180
▁강점을 180
▁개별적으로 180
▁것보다는 180
▁계산이 180
▁공연의 180
▁과학기술정보통신부 180
▁그러는 180
▁극장에서 180
▁깊어 180
▁난무 180
▁내일부터 180
▁단어는 180
▁단체의 180
▁레저 180
▁롯데마트 180
▁마냥 180
▁마이크로소프트 180
▁마트 180
▁먹방 180
▁바에 180
▁벌일 180
▁봉투 180
▁봐서 180
▁붙었다 180
▁빈번하게 180
▁사람이라면 180
▁색상이 180
▁선정됐다고 180
▁소식통을 180
▁소통할 180
▁수요는 180
▁스케이 180
▁시사한다 180
▁신한은행 180
▁알림 180
▁어젯밤에 180
▁영유아 180
▁영화들이 180
▁유기농 180
▁유지하면서 180
▁의거 180
▁인테리 180
▁자본이 180
▁전범 180
▁주택가격 180
▁지식은 180
▁직권 180
▁진술이 180
▁체코 180
▁클레 180
▁터트 180
▁포화 180
▁피하는 180
▁필연 180
▁학원에 180
▁항소심에서 180
▁해외여행 180
▁향유 180
▁호주의 180
▁흔들리는 180
가루 180
극장 180
또한 180
맡 180
분석을 180
분한 180
분할 180
사업과 180
속도 180
시설의 180
업과 180
챈 180
천만원 180
틸렌 180
판은 180
한지 180
혈을 180
히면 180
(26 179
MI 179
PD 179
VE 179
▁DB 179
▁w 179
▁가수들의 179
▁갖춰야 179
▁개혁이 179
▁고착 179
▁과학자들이 179
▁국가주석이 179
▁굴뚝 179
▁그친 179
▁근무를 179
▁나뉜다 179
▁나보다 179
▁나이를 179
▁남편을 179
▁단골 179
▁대법원장의 179
▁대통령과의 179
▁도착하는 179
▁돌아다 179
▁들뢰 179
▁들어가고 179
▁뚜껑 179
▁마니아 179
▁멜라 179
▁몸무게 179
▁문제라고 179
▁미만의 179
▁바뀌면서 179
▁바라본 179
▁백종 179
▁베이비 179
▁부드러 179
▁사과했다 179
▁사장님 179
▁상급 179
▁상반기에 179
▁상위권 179
▁선거법 179
▁선고됐다 179
▁선수단 179
▁성과는 179
▁소득주도성 179
▁수교 179
▁시립 179
▁시키는 179
▁식료 179
▁안방극 179
▁않는데 179
▁업무추진 179
▁없었는데 179
▁에티 179
▁연속으로 179
▁예정대로 179
▁오존 179
▁올시즌 179
▁요소다 179
▁웨스트 179
▁위해서라도 179
▁응답했다 179
▁일깨 179
▁입장에선 179
▁자녀들이 179
▁전할 179
▁정거 179
▁제시된 179
▁조짐을 179
▁주장과 179
▁증권사 179
▁증식 179
▁지침을 179
▁진입을 179
▁집중된 179
▁찾아보기 179
▁책임감을 179
▁총재 179
▁추신 179
▁카시 179
▁평가와 179
▁포인트가 179
▁플랫폼으로 179
▁플러스 179
▁하는가 179
▁하락을 179
▁한겨레 179
▁한식을 179
▁헝 179
▁호황 179
거래소 179
구속 179
규모가 179
기업은 179
령은 179
림과 179
발전소 179
방송을 179
벽이 179
뿔 179
사회는 179
생명이 179
썼 179
아메리카 179
역까지 179
이야말로 179
파일 179
하셨나요 179
해주길 179
▁거부했다 178
▁격차 178
▁견적을 178
▁경우엔 178
▁고심 178
▁골프를 178
▁구축할 178
▁국왕 178
▁그려졌다 178
▁금지하고 178
▁기관은 178
▁까지 178
▁껴 178
▁남부지방 178
▁넘겨졌다 178
▁높았고 178
▁뉴욕의 178
▁담당한다 178
▁대기업과 178
▁대표되는 178
▁데이터베이 178
▁들어오면 178
▁마이크로닷 178
▁무더기로 178
▁물어볼 178
▁발굴해 178
▁발목 178
▁밝혀지지 178
▁보고서가 178
▁보여줬 178
▁부쩍 178
▁북미정상회담을 178
▁분석은 178
▁분은 178
▁사람들로 178
▁산을 178
▁생산되는 178
▁생중계 178
▁서류는 178
▁성장동 178
▁속성을 178
▁수련 178
▁시설에 178
▁신나는 178
▁실시할 178
▁싫은 178
▁아이와 178
▁안개가 178
▁않다면 178
▁알려준 178
▁에버랜드 178
▁예배를 178
▁오르내 178
▁유격 178
▁유익한 178
▁유지되고 178
▁이곳이 178
▁이노 178
▁인구는 178
▁인원을 178
▁점쳐 178
▁제철 178
▁좋겠다는 178
▁짧고 178
▁천둥 178
▁초반에 178
▁출연을 178
▁크리에이티브 178
▁토대를 178
▁톡 178
▁판매되는 178
▁폄 178
▁평가에 178
▁평범 178
▁포맷 178
▁학급 178
▁한국은행 178
▁핵실험 178
▁행위의 178
▁현관 178
▁확정했다 178
▁환불이 178
▁효율을 178
▁후보에 178
▁훔친 178
▁휴일 178
겼다는 178
공화국 178
구요 178
길래 178
대회는 178
더는 178
더를 178
렬하게 178
발굴 178
보훈 178
분기에 178
빈의 178
세대가 178
세인 178
시설과 178
시스템이 178
여고 178
있어요 178
잠을 178
적이거나 178
제인 178
지방선거 178
지회 178
펑 178
품의 178
풋 178
학적으로 178
한반도 178
▁1200 177
▁가성 177
▁갈색 177
▁경험하고 177
▁교체를 177
▁국감 177
▁그도 177
▁금천 177
▁기리는 177
▁기울여 177
▁긴축 177
▁내연 177
▁농부 177
▁농장 177
▁단지가 177
▁도시철도 177
▁됐는데 177
▁들렸다 177
▁등극 177
▁떨어지면 177
▁또래 177
▁르노삼성 177
▁마을에서 177
▁마지막까지 177
▁말씀해주세요 177
▁매개로 177
▁머리카 177
▁물질로 177
▁미디어에 177
▁백혈 177
▁버거 177
▁번째다 177
▁불안이 177
▁사이즈를 177
▁살리 177
▁생각하세요 177
▁생존을 177
▁서강 177
▁성탄 177
▁소리는 177
▁소장은 177
▁순매 177
▁시도해 177
▁시작합니다 177
▁식당에 177
▁신문을 177
▁신은 177
▁여건을 177
▁역동적인 177
▁영주 177
▁온난 177
▁왠지 177
▁요청하신 177
▁우주가 177
▁원래는 177
▁원숭 177
▁유모 177
▁의지와 177
▁일원에서 177
▁입맛에 177
▁잘못이 177
▁재연 177
▁전년보다 177
▁제공하지 177
▁좋겠 177
▁줄인 177
▁지구가 177
▁질문에는 177
▁총파 177
▁치과 177
▁카슈끄 177
▁크로스 177
▁태극기 177
▁텍사스 177
▁페이팔 177
▁폭언 177
▁학사 177
▁행위로 177
▁혐의는 177
▁호날두 177
▁환율이 177
▁회사들이 177
▁후폭 177
갯 177
거리에서 177
결혼 177
공연을 177
단계로 177
률과 177
립을 177
보전 177
사회복지 177
신고를 177
씨도 177
언스 177
였다면 177
오피스 177
조류 177
족의 177
종과 177
주의보가 177
진영 177
케미칼 177
폐지 177
해수욕 177
해져서 177
현황 177
43 176
82 176
9· 176
▁20∼30 176
▁가능해졌다 176
▁갈비 176
▁감옥 176
▁갖췄 176
▁건강하고 176
▁결함이 176
▁경사 176
▁공동체를 176
▁과감하게 176
▁과제는 176
▁국내의 176
▁국립중앙 176
▁기자의 176
▁김인 176
▁깊숙이 176
▁끄덕 176
▁나가지 176
▁나름 176
▁네트워킹 176
▁누군가에게 176
▁도청 176
▁디저 176
▁떨어지지 176
▁뛴 176
▁뜨고 176
▁림 176
▁마닐라 176
▁많을수록 176
▁망명 176
▁못하다 176
▁민원을 176
▁믿기 176
▁바른미래당이 176
▁반영하고 176
▁받아들인 176
▁받았을 176
▁방위비 176
▁보여줍니다 176
▁부지를 176
▁사용해서 176
▁사천 176
▁상상할 176
▁샐러드 176
▁선사했다 176
▁설레 176
▁세라믹 176
▁센터는 176
▁속도와 176
▁손수 176
▁수요일에 176
▁수탁 176
▁시행한 176
▁식약 176
▁아니더라도 176
▁아티스트들이 176
▁연기로 176
▁예능프로그램 176
▁예민 176
▁오토바이 176
▁와이파이 176
▁요인에 176
▁우아 176
▁위배 176
▁유발할 176
▁이동을 176
▁이미지에 176
▁이용하기 176
▁이전을 176
▁임직원들이 176
▁있기도 176
▁전화번호를 176
▁정리를 176
▁중형 176
▁지구온난 176
▁지방선거에서 176
▁지속할 176
▁지질 176
▁책임지는 176
▁충분하다 176
▁텐데요 176
▁토론이 176
▁통계에 176
▁통신이 176
▁판을 176
▁팬미팅 176
▁포기할 176
▁풀어야 176
▁필연적으로 176
▁필요하기 176
▁하반기에 176
▁한국에는 176
▁함께할 176
▁했다면 176
▁헷갈 176
▁회동 176
▁후보자를 176
공단은 176
그를 176
근한 176
년제 176
대학의 176
댈 176
데도 176
렬한 176
문화적 176
물가 176
미술관 176
배송 176
뽕 176
시키려는 176
십을 176
오자 176
운동은 176
자이자 176
재단은 176
전선 176
카드가 176
하였다는 176
학교에서 176
IMF 175
ea 175
▁1948 175
▁간담회 175
▁갈래 175
▁갖췄다 175
▁거두고 175
▁검색어 175
▁견고 175
▁경제사회 175
▁고고 175
▁관계자의 175
▁관측된다 175
▁구한 175
▁귀하의 175
▁그런데도 175
▁기조가 175
▁김세 175
▁나비 175
▁논란으로 175
▁논쟁을 175
▁돋보인다 175
▁동력 175
▁동요 175
▁들으면 175
▁때로 175
▁많아졌다 175
▁맛은 175
▁맛집 175
▁망원 175
▁문턱 175
▁미디어와 175
▁미션 175
▁바꿨다 175
▁바우 175
▁반가운 175
▁반대의 175
▁반대하고 175
▁발생하기 175
▁발생하면서 175
▁발생합니다 175
▁발생했다고 175
▁별세 175
▁브랜드에 175
▁비핵화가 175
▁빠지게 175
▁살린 175
▁생각엔 175
▁성악 175
▁성장률이 175
▁순회 175
▁시즌이 175
▁실명 175
▁안은 175
▁알았어 175
▁왼쪽으로 175
▁원동 175
▁유치에 175
▁이씨 175
▁일반적 175
▁임의로 175
▁임종석 175
▁자극하는 175
▁재조명 175
▁정신의 175
▁종전선언을 175
▁주소가 175
▁주파수 175
▁증빙 175
▁찔러 175
▁최선 175
▁축구대표팀 175
▁취소를 175
▁커넥 175
▁커뮤니케이션의 175
▁컴퓨터는 175
▁쿠폰을 175
▁크루 175
▁태도로 175
▁패소 175
▁프로토 175
▁하강 175
▁해독 175
▁현안을 175
▁협력사 175
▁화려하게 175
▁확인되면 175
거에요 175
게이트 175
견으로 175
관세 175
국가의 175
당국에 175
들처럼 175
바운드 175
비밀 175
시죠 175
업체와 175
옴 175
저는 175
종교 175
지막 175
처로 175
콘서트 175
)” 174
OR 174
ce 174
▁간접적으로 174
▁갈등과 174
▁개선하기 174
▁개학 174
▁거리의 174
▁거품이 174
▁것들 174
▁격렬한 174
▁결혼식을 174
▁고려인 174
▁고려하고 174
▁고용노동 174
▁공짜 174
▁국민연금의 174
▁국장은 174
▁국회의원이 174
▁극의 174
▁기름을 174
▁기인 174
▁기회에 174
▁내년에도 174
▁놓는 174
▁뉴턴의 174
▁늑 174
▁달해 174
▁대표팀의 174
▁뒤흔 174
▁만났을 174
▁맥도날 174
▁목소리는 174
▁무한히 174
▁바꿨 174
▁바뀌지 174
▁바라보 174
▁박항서 174
▁법정에서 174
▁보훈 174
▁분리된 174
▁빌리 174
▁사역 174
▁사연이 174
▁샀다 174
▁상황이라 174
▁선동 174
▁성폭 174
▁세수 174
▁손바닥 174
▁쇄도 174
▁스마트폰에 174
▁승인이 174
▁시간대에 174
▁시나 174
▁아바 174
▁악의 174
▁압박이 174
▁양해 174
▁업황 174
▁여느 174
▁연구위원은 174
▁열리지 174
▁영상의 174
▁영어는 174
▁왔고 174
▁용어가 174
▁원산 174
▁의견으로 174
▁이분 174
▁인생에서 174
▁입지가 174
▁저런 174
▁적자를 174
▁전하며 174
▁전향 174
▁정계 174
▁제주도의 174
▁존재로 174
▁주문하신 174
▁주자 174
▁지적하고 174
▁징후 174
▁천문 174
▁쳤다 174
▁추궁 174
▁태풍의 174
▁터뜨렸다 174
▁토대가 174
▁통지 174
▁파격 174
▁홍익 174
▁훈련이 174
▁흐르고 174
례로 174
료의 174
리기도 174
리포 174
매일 174
머리를 174
바퀴 174
법인이 174
봐요 174
사람이 174
상이다 174
실점 174
약의 174
우선 174
유도 174
전당 174
제도는 174
조사는 174
지오 174
추행 174
측에 174
친구 174
편은 174
하느냐에 174
혔던 174
6% 173
CN 173
·19 173
▁1∼3 173
▁9, 173
▁강화한 173
▁개선된 173
▁개정안에 173
▁걸을 173
▁것뿐 173
▁경기둔 173
▁경위 173
▁계좌를 173
▁계획대로 173
▁관제 173
▁궁금해요 173
▁근무하고 173
▁기원하는 173
▁나타났다고 173
▁냉전 173
▁녹여 173
▁달라졌다 173
▁대법관이 173
▁대변인 173
▁대북정책 173
▁도미 173
▁로열 173
▁마시면 173
▁맞이한 173
▁맺었다 173
▁멤버가 173
▁모임에 173
▁목숨 173
▁바울 173
▁박민 173
▁받도록 173
▁발전의 173
▁법원에서 173
▁부모님께 173
▁분데스리가 173
▁분량의 173
▁불이익 173
▁불확실성 173
▁사기를 173
▁사칭 173
▁산업에서 173
▁산이 173
▁새롭고 173
▁샐러 173
▁생활하는 173
▁셜리 173
▁수증 173
▁순서로 173
▁숲을 173
▁시끄러 173
▁식재 173
▁신기한 173
▁실현을 173
▁아라 173
▁아쉽다 173
▁않았으며 173
▁알면 173
▁연필 173
▁영사 173
▁예방하기 173
▁오이 173
▁오후부터 173
▁올리브 173
▁이더리 173
▁이번주 173
▁이해해야 173
▁일각에선 173
▁일찍이 173
▁일축 173
▁잠겨 173
▁장으로 173
▁저온 173
▁저희도 173
▁적용돼 173
▁전광 173
▁점유율을 173
▁정진 173
▁제법 173
▁주택의 173
▁지점을 173
▁참석을 173
▁채용을 173
▁청와 173
▁통관 173
▁통화가 173
▁파헤 173
▁평가도 173
▁풀기 173
▁피아니스트 173
▁하늘에 173
▁하우스 173
▁학습이 173
▁호흡이 173
▁후원을 173
개입 173
검사가 173
경찰이 173
구청장 173
귀가 173
냄 173
다시피 173
디의 173
만원씩 173
맞게 173
바람이 173
발전에 173
병원을 173
복무 173
성폭력 173
실천 173
인상 173
정하게 173
지표가 173
질에 173
참모 173
해당 173
(13 172
EF 172
▁8000 172
▁가기로 172
▁가져왔다 172
▁개인정보를 172
▁것인지에 172
▁고공 172
▁고용이 172
▁고층 172
▁골자다 172
▁공방 172
▁국세청 172
▁급진 172
▁기록했다고 172
▁기여를 172
▁긴밀히 172
▁날개 172
▁남동생 172
▁다쳤다 172
▁단위의 172
▁당선된 172
▁더불어민주당과 172
▁데일리 172
▁되었으며 172
▁되죠 172
▁들썩 172
▁따돌 172
▁땅에서 172
▁마른 172
▁무형 172
▁물결 172
▁박모 172
▁발표하면서 172
▁변경된 172
▁보여주기 172
▁보이기도 172
▁부처가 172
▁불공 172
▁불안감을 172
▁브랜드와 172
▁뾰 172
▁산은 172
▁살리는 172
▁선사할 172
▁선정하는 172
▁셰프 172
▁송부 172
▁수컷 172
▁시작하여 172
▁시점은 172
▁시청자들이 172
▁식품의 172
▁실태를 172
▁안철수 172
▁얼굴과 172
▁연맹 172
▁예비타당성 172
▁와야 172
▁우려하고 172
▁원내대표의 172
▁인정받은 172
▁임박 172
▁자산이 172
▁자치구 172
▁작성된 172
▁제품들은 172
▁조성한 172
▁주고받는 172
▁주파 172
▁지중 172
▁진주시 172
▁차지하며 172
▁추천을 172
▁컴퓨터의 172
▁크라우드 172
▁판사가 172
▁플로리다 172
▁하나입니다 172
▁한다며 172
▁항목을 172
▁해석은 172
▁형태다 172
▁홍남기 172
▁후원하는 172
▁훔쳐 172
▁휩싸인 172
개월의 172
거리며 172
공은 172
기준이 172
다음 172
러닝 172
룡은 172
메이트 172
서비스가 172
약은 172
오염 172
왈 172
정책과 172
짓는 172
체계가 172
축제는 172
츠의 172
코리아가 172
킨다 172
플레 172
1· 171
▁1965 171
▁6.1 171
▁JY 171
▁OST 171
▁가보고 171
▁강아지를 171
▁강화와 171
▁견뎌 171
▁경찰서 171
▁곤두 171
▁공동의 171
▁공통적으로 171
▁공평 171
▁국고 171
▁국유 171
▁궤도 171
▁기여하는 171
▁김태우 171
▁내리지 171
▁농경 171
▁농사 171
▁놓지 171
▁누구를 171
▁다쳐 171
▁당국자는 171
▁당원 171
▁대고 171
▁만드 171
▁말아요 171
▁모집에 171
▁바빠 171
▁반죽 171
▁방문했을 171
▁방송사 171
▁보아야 171
▁부담으로 171
▁부드럽고 171
▁부모는 171
▁브랜드는 171
▁비판적인 171
▁사실이지만 171
▁색소 171
▁생물학적 171
▁센서가 171
▁수산물 171
▁숙제 171
▁스타일로 171
▁신성장 171
▁쌍용차 171
▁쓰러진 171
▁아르바이트를 171
▁아시아의 171
▁아저씨 171
▁알았 171
▁억지로 171
▁엄중 171
▁열기를 171
▁예상한다 171
▁온다고 171
▁왜냐면 171
▁유공 171
▁유소년 171
▁의상을 171
▁이곳에는 171
▁이민자 171
▁이밖에도 171
▁인명피해는 171
▁인삼 171
▁인식과 171
▁인해서 171
▁일몰 171
▁일반상대 171
▁일의 171
▁일탈 171
▁작가와 171
▁잔여 171
▁재능이 171
▁저조 171
▁적재 171
▁접하고 171
▁정리한 171
▁정상은 171
▁조성에 171
▁주민들 171
▁주상 171
▁지구촌 171
▁직원들 171
▁초속 171
▁총력을 171
▁켄 171
▁크리스티 171
▁특별검사 171
▁폴더블폰 171
▁필요하다면 171
▁하우 171
▁학부 171
▁학생에게 171
▁행성 171
▁환산 171
관리가 171
교회가 171
국대 171
기관은 171
꿀 171
나갔다 171
년보다 171
단지가 171
[...]
