<unk>	0
<s>	0
</s>	0
▁이	-0
▁있	-1
으로	-2
▁수	-3
에서	-4
▁대	-5
▁사	-6
▁그	-7
▁것	-8
▁지	-9
▁가	-10
니다	-11
▁한	-12
▁기	-13
▁전	-14
하는	-15
했다	-16
▁1	-17
▁시	-18
▁있다	-19
▁아	-20
▁보	-21
▁정	-22
▁나	-23
▁주	-24
▁2	-25
▁제	-26
하고	-27
▁다	-28
▁자	-29
▁경	-30
이다	-31
▁중	-32
▁일	-33
▁등	-34
▁인	-35
▁공	-36
▁부	-37
▁위	-38
▁하	-39
▁내	-40
▁상	-41
▁‘	-42
▁관	-43
▁모	-44
습니다	-45
▁있는	-46
▁않	-47
들이	-48
▁어	-49
▁비	-50
▁오	-51
▁국	-52
▁해	-53
▁미	-54
▁유	-55
▁우	-56
▁때	-57
▁의	-58
▁없	-59
▁소	-60
▁고	-61
▁여	-62
▁조	-63
▁만	-64
▁연	-65
▁“	-66
▁개	-67
었다	-68
▁마	-69
▁문	-70
▁발	-71
▁당	-72
▁방	-73
▁선	-74
지만	-75
▁서	-76
▁생	-77
▁구	-78
▁말	-79
▁영	-80
▁신	-81
▁바	-82
▁3	-83
▁거	-84
▁도	-85
▁통	-86
▁최	-87
▁예	-88
다는	-89
이라	-90
00	-91
에게	-92
▁세	-93
▁안	-94
▁무	-95
▁동	-96
▁많	-97
▁저	-98
▁한국	-99
▁진	-100
에는	-101
▁결	-102
▁현	-103
▁강	-104
▁실	-105
▁성	-106
▁분	-107
▁교	-108
▁더	-109
한다	-110
적인	-111
▁불	-112
▁같	-113
면서	-114
▁김	-115
적으로	-116
▁스	-117
▁장	-118
까지	-119
▁우리	-120
▁되	-121
▁알	-122
▁확	-123
▁원	-124
▁대한	-125
▁따	-126
▁받	-127
하게	-128
▁것으로	-129
▁특	-130
▁반	-131
▁사람	-132
▁차	-133
▁계	-134
된다	-135
▁재	-136
▁노	-137
▁남	-138
부터	-139
▁매	-140
▁추	-141
하기	-142
▁과	-143
▁지난	-144
▁감	-145
들은	-146
▁20	-147
▁때문	-148
▁위해	-149
▁적	-150
어요	-151
▁학	-152
▁5	-153
▁배	-154
▁입	-155
▁들	-156
▁단	-157
▁4	-158
다고	-159
▁설	-160
▁회	-161
▁건	-162
들의	-163
▁좋	-164
▁물	-165
▁후	-166
▁할	-167
▁열	-168
▁필	-169
▁작	-170
▁것이	-171
▁행	-172
▁요	-173
▁올	-174
▁두	-175
▁참	-176
▁출	-177
▁것이다	-178
▁당신	-179
▁직	-180
입니다	-181
▁점	-182
▁집	-183
▁포	-184
▁역	-185
▁달	-186
▁가능	-187
하지	-188
▁못	-189
▁높	-190
▁밝	-191
▁미국	-192
▁평	-193
합니다	-194
▁활	-195
▁하는	-196
▁함	-197
▁통해	-198
▁문제	-199
에서는	-200
▁금	-201
▁게	-202
▁한다	-203
▁경우	-204
▁생각	-205
▁새	-206
▁필요	-207
▁파	-208
▁운	-209
▁청	-210
▁화	-211
▁피	-212
▁외	-213
▁데	-214
▁프	-215
▁나는	-216
▁변	-217
▁북	-218
기를	-219
▁아니	-220
됐다	-221
▁증	-222
▁판	-223
는데	-224
▁앞	-225
▁또	-226
▁6	-227
▁대해	-228
▁산	-229
았다	-230
도록	-231
이라고	-232
▁서울	-233
▁다른	-234
▁잘	-235
▁사용	-236
▁양	-237
▁명	-238
였다	-239
▁"	-240
장이	-241
▁검	-242
▁드	-243
하다	-244
들을	-245
▁목	-246
▁201	-247
▁것은	-248
되는	-249
▁함께	-250
자가	-251
▁초	-252
▁10	-253
▁투	-254
▁같은	-255
▁간	-256
▁처	-257
▁맞	-258
▁살	-259
보다	-260
▁너	-261
▁했다	-262
리고	-263
▁가장	-264
▁많은	-265
성이	-266
통령	-267
▁시간	-268
▁관련	-269
▁본	-270
▁정부	-271
지는	-272
▁지역	-273
에도	-274
혔다	-275
."	-276
▁있습니다	-277
▁중국	-278
▁이번	-279
▁심	-280
▁대통령	-281
▁박	-282
▁들어	-283
▁따라	-284
▁각	-285
▁시작	-286
▁7	-287
▁음	-288
▁법	-289
▁종	-290
하면	-291
▁있어	-292
이나	-293
사를	-294
으며	-295
▁것을	-296
▁환	-297
하여	-298
▁진행	-299
▁밝혔다	-300
▁자신	-301
▁속	-302
▁언	-303
▁19	-304
▁및	-305
해야	-306
▁크	-307
▁광	-308
라고	-309
리는	-310
▁만들	-311
장을	-312
사가	-313
▁민	-314
라는	-315
지고	-316
▁뒤	-317
▁번	-318
기가	-319
▁때문에	-320
▁8	-321
▁하나	-322
대로	-323
▁업	-324
▁찾	-325
▁이상	-326
▁규	-327
▁약	-328
▁말했다	-329
▁싶	-330
자는	-331
졌다	-332
▁임	-333
▁표	-334
▁취	-335
▁이어	-336
▁체	-337
▁치	-338
▁총	-339
세요	-340
▁대표	-341
▁저는	-342
▁관계	-343
▁근	-344
▁기업	-345
이라는	-346
▁호	-347
지를	-348
▁큰	-349
원이	-350
▁줄	-351
▁타	-352
▁손	-353
▁걸	-354
▁세계	-355
▁아이	-356
▁위한	-357
리를	-358
▁독	-359
▁담	-360
▁상황	-361
▁논	-362
성을	-363
▁그는	-364
위원	-365
▁네	-366
▁형	-367
▁결과	-368
하며	-369
▁사실	-370
▁돌	-371
▁협	-372
▁사회	-373
▁확인	-374
기도	-375
▁충	-376
▁사업	-377
▁9	-378
리가	-379
▁친	-380
▁카	-381
▁편	-382
되고	-383
▁지금	-384
▁이후	-385
▁연구	-386
기에	-387
▁합	-388
▁메	-389
▁다양	-390
▁채	-391
▁경찰	-392
▁했	-393
장은	-394
▁일본	-395
해서	-396
▁모두	-397
▁경제	-398
▁에	-399
▁이용	-400
▁그러	-401
▁될	-402
화를	-403
▁넘	-404
▁온	-405
▁완	-406
로운	-407
▁있을	-408
▁트	-409
▁프로	-410
▁발생	-411
▁교육	-412
▁준	-413
시간	-414
거나	-415
▁식	-416
▁커	-417
하면서	-418
▁설명	-419
▁곳	-420
▁정도	-421
▁있다는	-422
▁삼	-423
▁하고	-424
되어	-425
▁다시	-426
으면	-427
▁국내	-428
처럼	-429
▁모든	-430
▁제품	-431
스트	-432
▁날	-433
시아	-434
▁알려	-435
▁복	-436
▁많이	-437
▁않는	-438
▁창	-439
운데	-440
▁현재	-441
▁최근	-442
▁태	-443
▁이유	-444
력을	-445
▁리	-446
서는	-447
▁눈	-448
들에게	-449
▁등을	-450
▁먹	-451
▁없는	-452
▁힘	-453
비스	-454
▁중요	-455
정을	-456
▁누	-457
▁항	-458
상을	-459
▁보고	-460
나요	-461
이고	-462
▁가운데	-463
▁때문이다	-464
▁늘	-465
▁지원	-466
▁있었다	-467
▁내가	-468
▁학생	-469
▁사이	-470
▁없다	-471
▁국가	-472
▁다양한	-473
▁A	-474
▁어떤	-475
▁책	-476
▁된다	-477
▁효	-478
▁아니라	-479
▁폭	-480
▁얼	-481
▁북한	-482
자의	-483
▁다음	-484
000	-485
▁특히	-486
▁순	-487
▁접	-488
▁오늘	-489
▁기술	-490
니까	-491
▁문화	-492
▁이런	-493
▁나타	-494
▁질	-495
▁내용	-496
인이	-497
▁등이	-498
▁관심	-499
▁영화	-500
▁코	-501
▁참여	-502
▁승	-503
▁그리고	-504
▁갖	-505
▁토	-506
▁있었	-507
▁절	-508
명이	-509
에요	-510
이는	-511
▁디	-512
학교	-513
▁시장	-514
▁지난해	-515
▁향	-516
▁분석	-517
▁측	-518
▁축	-519
▁브	-520
▁모습	-521
▁난	-522
▁느	-523
▁제가	-524
▁글	-525
▁우리는	-526
▁새로운	-527
▁영향	-528
▁기대	-529
에서도	-530
르면	-531
레이	-532
▁의미	-533
▁끝	-534
▁12	-535
들과	-536
▁갈	-537
▁11	-538
▁여러	-539
▁올해	-540
▁버	-541
기는	-542
식을	-543
▁볼	-544
▁정보	-545
▁예정	-546
자를	-547
▁첫	-548
력이	-549
▁빠	-550
▁전문	-551
사는	-552
기업	-553
도가	-554
▁이미	-555
▁처음	-556
▁벌	-557
▁그런	-558
주의	-559
▁좋은	-560
왔다	-561
▁베	-562
▁권	-563
▁로	-564
▁개발	-565
▁너무	-566
▁군	-567
▁당시	-568
▁직접	-569
▁농	-570
▁존	-571
지가	-572
▁길	-573
▁활동	-574
▁제공	-575
▁이날	-576
▁운영	-577
상이	-578
▁이를	-579
▁과정	-580
겠습니다	-581
▁사건	-582
원을	-583
▁포함	-584
▁그것	-585
▁계획	-586
회의	-587
▁어려	-588
▁홍	-589
▁쓰	-590
했던	-591
▁어떻	-592
▁용	-593
▁따르면	-594
▁30	-595
▁서비스	-596
▁국민	-597
▁증가	-598
▁평가	-599
▁좋아	-600
▁만들어	-601
▁있다고	-602
렇게	-603
사의	-604
▁허	-605
▁있도록	-606
▁어떻게	-607
▁병	-608
이었다	-609
인다	-610
어나	-611
▁동안	-612
이터	-613
▁않은	-614
▁잡	-615
▁보여	-616
▁된	-617
▁이야	-618
도를	-619
▁조사	-620
▁발표	-621
부가	-622
▁결정	-623
가는	-624
수가	-625
원은	-626
▁학교	-627
▁피해	-628
▁라	-629
▁방법	-630
▁공개	-631
▁애	-632
▁면	-633
▁급	-634
▁친구	-635
▁막	-636
▁사진	-637
음을	-638
해요	-639
▁산업	-640
▁철	-641
▁않고	-642
▁보내	-643
▁중심	-644
▁가격	-645
▁이해	-646
은행	-647
▁고객	-648
그램	-649
▁금융	-650
▁소비	-651
▁하지만	-652
▁경기	-653
회가	-654
▁200	-655
▁대상	-656
▁실제	-657
▁준비	-658
▁정책	-659
▁패	-660
원의	-661
났다	-662
▁S	-663
▁극	-664
▁낮	-665
▁높은	-666
▁판매	-667
자들이	-668
▁K	-669
▁이러	-670
▁바로	-671
▁수도	-672
▁기록	-673
▁합니다	-674
▁방문	-675
했다고	-676
▁자유	-677
▁콘	-678
▁부산	-679
▁상태	-680
▁않았	-681
▁만큼	-682
▁잠	-683
▁지적	-684
▁활용	-685
씨가	-686
▁계속	-687
▁오후	-688
랜드	-689
▁전망	-690
▁투자	-691
기로	-692
▁이것	-693
▁백	-694
▁주장	-695
▁추가	-696
▁좀	-697
▁그래	-698
▁이러한	-699
으나	-700
▁정치	-701
▁부분	-702
▁15	-703
20	-704
▁플	-705
▁효과	-706
▁요구	-707
체가	-708
페이	-709
▁정상	-710
되었다	-711
▁기존	-712
▁생산	-713
▁당신은	-714
관이	-715
▁배우	-716
▁인터	-717
▁핵	-718
▁추진	-719
▁있고	-720
▁찾아	-721
▁떨	-722
▁가지	-723
▁사고	-724
▁국제	-725
▁떠	-726
치를	-727
▁몰	-728
▁등의	-729
▁일부	-730
하려	-731
▁무엇	-732
▁개인	-733
▁몇	-734
▁사람이	-735
▁구성	-736
회를	-737
▁받아	-738
진다	-739
겠다	-740
▁테	-741
케이	-742
장의	-743
▁뉴	-744
▁천	-745
▁열린	-746
▁당신이	-747
▁대학	-748
▁또한	-749
▁검찰	-750
▁기준	-751
의를	-752
했습니다	-753
렸다	-754
부분	-755
럼프	-756
위를	-757
제를	-758
▁해당	-759
▁자신의	-760
디어	-761
▁매우	-762
▁범	-763
되지	-764
▁마련	-765
어서	-766
▁않아	-767
▁보인다	-768
센터	-769
▁골	-770
▁아직	-771
교육	-772
라도	-773
▁먼	-774
▁나오	-775
▁예상	-776
▁야	-777
사업	-778
리에	-779
▁인간	-780
가요	-781
▁여성	-782
▁블	-783
었습니다	-784
▁환경	-785
▁최대	-786
▁왜	-787
▁C	-788
▁시민	-789
▁방송	-790
주시	-791
▁돌아	-792
▁쉽	-793
장에서	-794
▁확대	-795
▁경쟁	-796
▁있어요	-797
▁즐	-798
▁같아	-799
▁삼성	-800
▁혐	-801
▁나온	-802
▁역할	-803
하였다	-804
▁월	-805
스를	-806
▁트럼프	-807
▁최고	-808
▁이루	-809
▁우리가	-810
▁일반	-811
▁공연	-812
▁사랑	-813
▁수준	-814
인을	-815
▁분야	-816
▁없이	-817
▁귀	-818
▁그녀	-819
▁얻	-820
▁얼마	-821
▁되는	-822
▁존재	-823
▁판단	-824
▁탄	-825
▁같이	-826
▁가족	-827
▁18	-828
▁방식	-829
▁참석	-830
▁경험	-831
▁선수	-832
▁전체	-833
이가	-834
▁떨어	-835
▁더욱	-836
▁적용	-837
▁머	-838
했고	-839
화가	-840
▁후보	-841
▁감독	-842
▁프로그램	-843
주는	-844
부는	-845
점을	-846
▁규모	-847
사에	-848
▁그러나	-849
▁대부분	-850
까요	-851
정이	-852
▁안전	-853
▁엄	-854
치는	-855
▁도시	-856
시키	-857
▁노동	-858
▁강조	-859
▁송	-860
▁별	-861
▁응	-862
동안	-863
마트	-864
대표	-865
▁지속	-866
▁있지만	-867
스템	-868
▁놓	-869
▁공동	-870
▁가능성이	-871
▁주요	-872
▁휴	-873
▁정말	-874
▁아닌	-875
▁해결	-876
▁구조	-877
▁전국	-878
▁마음	-879
대가	-880
▁몸	-881
▁성공	-882
▁발견	-883
▁즉	-884
스가	-885
▁발전	-886
▁작품	-887
▁대통령이	-888
▁문제가	-889
▁오전	-890
▁여기	-891
▁이는	-892
▁돈	-893
▁팀	-894
▁이름	-895
▁성장	-896
적이	-897
▁알고	-898
▁상품	-899
▁선택	-900
시에	-901
회담	-902
인의	-903
▁둘	-904
▁우려	-905
▁고려	-906
▁드러	-907
안을	-908
르는	-909
물을	-910
드는	-911
▁특별	-912
▁이뤄	-913
료를	-914
위원회	-915
▁팬	-916
▁이제	-917
▁혹	-918
밖에	-919
▁개선	-920
▁악	-921
한국	-922
▁위원	-923
다면	-924
이트	-925
▁제작	-926
▁일이	-927
▁100	-928
▁관계자는	-929
▁만나	-930
▁공간	-931
▁보면	-932
▁그의	-933
됩니다	-934
임을	-935
▁필요한	-936
금을	-937
▁먼저	-938
▁답	-939
었던	-940
▁비롯	-941
전히	-942
▁혼	-943
명의	-944
인지	-945
▁것입니다	-946
▁크게	-947
▁자동	-948
▁놀	-949
▁중요한	-950
▁시간이	-951
도로	-952
리아	-953
▁유지	-954
▁않았다	-955
▁역시	-956
장에	-957
▁집중	-958
제가	-959
▁외국	-960
▁영향을	-961
하지만	-962
▁오는	-963
문화	-964
수를	-965
▁현대	-966
▁해외	-967
이에요	-968
▁폐	-969
시는	-970
명을	-971
▁기간	-972
▁맡	-973
▁관리	-974
▁여행	-975
▁자연	-976
▁광고	-977
▁캐	-978
▁암	-979
▁키	-980
마다	-981
동을	-982
한다는	-983
▁표현	-984
▁정부가	-985
대를	-986
▁삶	-987
움을	-988
▁터	-989
▁B	-990
▁아무	-991
▁침	-992
▁스타	-993
▁가지고	-994
▁어느	-995
▁황	-996
▁조금	-997
▁밀	-998
▁물론	-999
▁사람들이	-1000
▁건강	-1001
인데	-1002
업을	-1003
▁주민	-1004
식이	-1005
는다	-1006
지역	-1007
▁남북	-1008
라인	-1009
▁풀	-1010
▁민주	-1011
▁풍	-1012
▁맛	-1013
▁음악	-1014
▁데이터	-1015
▁않을	-1016
▁있으며	-1017
▁클	-1018
▁보도	-1019
억원	-1020
▁것도	-1021
는지	-1022
▁16	-1023
▁서로	-1024
▁받고	-1025
▁국회	-1026
자로	-1027
감을	-1028
▁의견	-1029
▁지방	-1030
▁당신의	-1031
부를	-1032
지로	-1033
▁죽	-1034
▁과거	-1035
▁긴	-1036
기관	-1037
▁압	-1038
계를	-1039
▁생활	-1040
서를	-1041
▁구매	-1042
▁기능	-1043
▁그렇	-1044
▁설명했다	-1045
▁제기	-1046
▁교수	-1047
스로	-1048
씨는	-1049
▁와	-1050
▁청와	-1051
▁희	-1052
▁13	-1053
▁뜻	-1054
▁앞으로	-1055
▁러	-1056
이며	-1057
▁업무	-1058
▁주문	-1059
했지만	-1060
▁요청	-1061
,000	-1062
스는	-1063
▁개최	-1064
▁의혹	-1065
▁14	-1066
네요	-1067
▁또는	-1068
▁수사	-1069
주세요	-1070
소를	-1071
하다는	-1072
▁뿐	-1073
▁레	-1074
요일	-1075
텐츠	-1076
선을	-1077
▁가능한	-1078
▁25	-1079
▁행사	-1080
인은	-1081
했다는	-1082
가가	-1083
정한	-1084
▁있는데	-1085
지에	-1086
치가	-1087
장과	-1088
로벌	-1089
▁그가	-1090
▁스마트	-1091
▁번째	-1092
라마	-1093
▁석	-1094
혁신	-1095
▁거래	-1096
▁이렇게	-1097
▁주목	-1098
▁강화	-1099
▁변화	-1100
▁정확	-1101
▁다만	-1102
▁돼	-1103
▁부족	-1104
▁한다는	-1105
▁어렵	-1106
▁형태	-1107
▁이에	-1108
개월	-1109
▁상승	-1110
▁높아	-1111
▁적극	-1112
기술	-1113
트를	-1114
머니	-1115
▁상대	-1116
▁감사	-1117
원에	-1118
▁논란	-1119
▁펼	-1120
▁전달	-1121
▁숨	-1122
▁나라	-1123
연구	-1124
예요	-1125
세를	-1126
▁받은	-1127
▁비용	-1128
▁빨	-1129
▁지나	-1130
▁과학	-1131
전을	-1132
▁17	-1133
물이	-1134
점이	-1135
▁능	-1136
▁어린	-1137
▁과정에서	-1138
▁해야	-1139
▁목표	-1140
했어요	-1141
▁독일	-1142
나라	-1143
▁있기	-1144
▁미래	-1145
▁현실	-1146
▁어디	-1147
▁회사	-1148
▁혐의	-1149
대에	-1150
▁탈	-1151
▁관광	-1152
▁언론	-1153
▁저희	-1154
▁현지	-1155
▁있나요	-1156
산업	-1157
리스	-1158
▁윤	-1159
▁하지	-1160
▁노력	-1161
▁도입	-1162
▁설치	-1163
▁비판	-1164
▁있게	-1165
▁글로벌	-1166
▁언제	-1167
▁논의	-1168
▁시스템	-1169
▁따른	-1170
년에	-1171
▁되어	-1172
▁하루	-1173
하도록	-1174
▁확보	-1175
▁육	-1176
▁게임	-1177
▁인정	-1178
자와	-1179
움이	-1180
▁연결	-1181
▁울	-1182
▁관심이	-1183
자인	-1184
▁차량	-1185
재인	-1186
▁제시	-1187
이를	-1188
▁참가	-1189
되면서	-1190
▁부담	-1191
들도	-1192
르게	-1193
▁역할을	-1194
되면	-1195
▁자리	-1196
▁끌	-1197
▁영어	-1198
▁선거	-1199
▁등에	-1200
므로	-1201
▁재판	-1202
정은	-1203
정부	-1204
한다고	-1205
계가	-1206
▁소개	-1207
겠다는	-1208
▁자기	-1209
▁보이	-1210
과의	-1211
시가	-1212
▁I	-1213
▁됐다	-1214
▁유럽	-1215
▁이루어	-1216
▁콘텐츠	-1217
▁붙	-1218
TV	-1219
▁믿	-1220
▁50	-1221
전에	-1222
▁브랜드	-1223
▁색	-1224
하였	-1225
▁전에	-1226
▁뛰	-1227
▁만든	-1228
▁전통	-1229
다가	-1230
▁올라	-1231
▁계약	-1232
자들은	-1233
▁예술	-1234
▁주변	-1235
▁인터넷	-1236
▁이동	-1237
▁되었다	-1238
자들의	-1239
▁공급	-1240
▁해요	-1241
원에서	-1242
▁그래서	-1243
하거나	-1244
▁앞서	-1245
▁우선	-1246
▁제주	-1247
었고	-1248
권을	-1249
▁없어	-1250
▁기본	-1251
▁아파	-1252
▁전했다	-1253
▁L	-1254
▁에너	-1255
사와	-1256
▁비교	-1257
가를	-1258
▁경기도	-1259
▁의원	-1260
▁인도	-1261
▁음식	-1262
▁위험	-1263
냈다	-1264
▁각각	-1265
문을	-1266
어난	-1267
▁움	-1268
지막	-1269
▁인천	-1270
▁대비	-1271
▁드라마	-1272
▁한국의	-1273
성과	-1274
▁조선	-1275
▁아니다	-1276
소가	-1277
제로	-1278
▁깊	-1279
▁전략	-1280
▁사례	-1281
▁일을	-1282
▁신청	-1283
▁없었다	-1284
려고	-1285
보고	-1286
▁왕	-1287
▁고용	-1288
▁수출	-1289
▁핵심	-1290
▁공공	-1291
사회	-1292
하다고	-1293
위가	-1294
▁불가	-1295
▁상당	-1296
▁궁	-1297
▁나온다	-1298
▁문제를	-1299
▁러시아	-1300
시설	-1301
▁예정이다	-1302
기의	-1303
▁유명	-1304
▁시행	-1305
▁모델	-1306
▁밤	-1307
대의	-1308
▁차지	-1309
▁인해	-1310
당이	-1311
▁위치	-1312
▁기다	-1313
▁조직	-1314
▁문재인	-1315
로부터	-1316
▁업체	-1317
▁합의	-1318
▁그동안	-1319
▁M	-1320
▁마지막	-1321
▁운동	-1322
▁직원	-1323
▁내년	-1324
),	-1325
▁기반	-1326
▁견	-1327
▁24	-1328
국의	-1329
▁품	-1330
▁아주	-1331
▁착	-1332
▁무역	-1333
경제	-1334
지도	-1335
▁자동차	-1336
구가	-1337
▁수가	-1338
▁움직	-1339
▁팔	-1340
▁등으로	-1341
▁않는다	-1342
▁반응	-1343
로는	-1344
▁만에	-1345
▁가까	-1346
▁국무	-1347
▁방향	-1348
▁거의	-1349
▁경찰은	-1350
정보	-1351
▁가진	-1352
단체	-1353
▁얼마나	-1354
수록	-1355
▁작은	-1356
하자	-1357
▁대신	-1358
▁흐	-1359
▁바이	-1360
▁제대로	-1361
▁대상으로	-1362
▁중심으로	-1363
▁넘어	-1364
▁살아	-1365
▁두고	-1366
없이	-1367
▁자신이	-1368
▁이야기	-1369
▁미디어	-1370
▁얘	-1371
▁행복	-1372
▁전문가	-1373
▁아래	-1374
상의	-1375
▁등장	-1376
더라도	-1377
소년	-1378
게요	-1379
▁읽	-1380
▁일자	-1381
지지	-1382
▁보호	-1383
▁선정	-1384
스의	-1385
▁꾸	-1386
▁알아	-1387
▁숙	-1388
나는	-1389
단이	-1390
량이	-1391
도의	-1392
▁나서	-1393
▁연락	-1394
하던	-1395
▁감소	-1396
▁흥	-1397
그룹	-1398
▁자체	-1399
▁내려	-1400
▁청와대	-1401
▁은	-1402
▁겪	-1403
▁점을	-1404
▁지난달	-1405
▁깨	-1406
▁P	-1407
▁대중	-1408
일부터	-1409
▁전시	-1410
▁충분	-1411
▁반영	-1412
▁있어서	-1413
▁장관	-1414
립니다	-1415
년간	-1416
▁달리	-1417
▁관심을	-1418
▁갑	-1419
▁모습을	-1420
스타	-1421
▁넣	-1422
▁정도로	-1423
지의	-1424
▁흔	-1425
촬영	-1426
▁결국	-1427
▁경영	-1428
만원	-1429
▁21	-1430
시면	-1431
도는	-1432
▁40	-1433
▁분위	-1434
일을	-1435
▁혁신	-1436
▁대법	-1437
▁가져	-1438
▁것이라는	-1439
(1	-1440
▁사실을	-1441
▁관한	-1442
정책	-1443
▁예산	-1444
▁누구	-1445
▁격	-1446
있는	-1447
▁작업	-1448
▁내부	-1449
▁도착	-1450
▁정상회담	-1451
▁건설	-1452
▁촉	-1453
▁갖고	-1454
▁이것은	-1455
▁검토	-1456
분이	-1457
▁따라서	-1458
▁되고	-1459
▁꿈	-1460
▁겨	-1461
▁인사	-1462
▁있던	-1463
하기로	-1464
▁0	-1465
▁하면	-1466
업체	-1467
성에	-1468
▁티	-1469
▁전해	-1470
▁왔	-1471
▁쪽	-1472
▁중인	-1473
▁23	-1474
드를	-1475
201	-1476
▁공유	-1477
▁그럼	-1478
▁주택	-1479
▁컴	-1480
▁부모	-1481
▁시험	-1482
▁많아	-1483
갔다	-1484
▁그룹	-1485
불어	-1486
성은	-1487
▁D	-1488
▁나타났다	-1489
상에	-1490
▁말을	-1491
했을	-1492
▁역사	-1493
▁사회적	-1494
▁치료	-1495
▁행정	-1496
▁듯	-1497
▁듣	-1498
▁대응	-1499
라이	-1500
지면서	-1501
▁필요가	-1502
▁신고	-1503
습니까	-1504
가지	-1505
▁최종	-1506
리의	-1507
들에	-1508
▁가는	-1509
▁쉽게	-1510
▁거예요	-1511
)’	-1512
▁시청	-1513
▁파악	-1514
▁찍	-1515
만큼	-1516
민주	-1517
롭게	-1518
▁기억	-1519
▁받는	-1520
▁소속	-1521
▁받을	-1522
▁것이라고	-1523
▁택	-1524
학생	-1525
일까지	-1526
으로써	-1527
안이	-1528
▁않다	-1529
으니	-1530
▁싶은	-1531
▁바람	-1532
▁특징	-1533
▁받았	-1534
▁온라인	-1535
▁목소	-1536
▁구체	-1537
▁그렇게	-1538
어를	-1539
구를	-1540
▁이곳	-1541
시장	-1542
▁의해	-1543
개발	-1544
▁늦	-1545
▁수요	-1546
▁좌	-1547
겠다고	-1548
▁녹	-1549
▁많다	-1550
▁시간을	-1551
▁아파트	-1552
▁퇴	-1553
▁정보를	-1554
▁이전	-1555
▁구축	-1556
인들이	-1557
▁됩니다	-1558
▁스스로	-1559
▁네가	-1560
스러	-1561
▁해석	-1562
▁위해서는	-1563
▁상황에서	-1564
▁반대	-1565
▁퍼	-1566
르고	-1567
▁최초	-1568
동산	-1569
▁페	-1570
▁봉	-1571
▁중앙	-1572
▁평균	-1573
▁더불어	-1574
이기	-1575
트남	-1576
▁개념	-1577
감이	-1578
▁여전히	-1579
비를	-1580
▁씨	-1581
▁199	-1582
▁제조	-1583
▁빛	-1584
▁힘들	-1585
▁수익	-1586
▁곧	-1587
▁27	-1588
율이	-1589
수의	-1590
▁안에	-1591
▁정신	-1592
국이	-1593
▁노래	-1594
▁광주	-1595
▁그림	-1596
▁필요하다	-1597
▁빈	-1598
▁매출	-1599
▁22	-1600
▁내일	-1601
내는	-1602
▁부탁	-1603
▁나왔다	-1604
▁우리나라	-1605
건을	-1606
개의	-1607
대한	-1608
▁거야	-1609
▁본격	-1610
전자	-1611
보다는	-1612
▁언급	-1613
▁미국의	-1614
▁은행	-1615
▁성과	-1616
위에	-1617
▁항상	-1618
▁페이	-1619
▁책임	-1620
리지	-1621
▁워	-1622
▁수업	-1623
▁담당	-1624
▁청년	-1625
▁최저	-1626
어야	-1627
▁알려졌다	-1628
통신	-1629
▁비핵	-1630
▁실시	-1631
금이	-1632
▁잘못	-1633
▁불법	-1634
▁제출	-1635
▁각종	-1636
디오	-1637
▁안정	-1638
▁공식	-1639
▁공격	-1640
▁호텔	-1641
로서	-1642
▁케이	-1643
스럽	-1644
한테	-1645
▁지급	-1646
▁못한	-1647
환경	-1648
▁동시에	-1649
▁비해	-1650
▁인상	-1651
▁죄	-1652
▁강조했다	-1653
▁E	-1654
▁전환	-1655
▁제한	-1656
▁조성	-1657
▁의료	-1658
▁단순	-1659
달러	-1660
치고	-1661
▁기획	-1662
▁염	-1663
규모	-1664
었어요	-1665
겠어요	-1666
스크	-1667
▁중소	-1668
▁아시아	-1669
▁쇼	-1670
▁걱	-1671
▁해도	-1672
▁홈	-1673
▁베트남	-1674
▁처리	-1675
자에게	-1676
▁오래	-1677
▁실제로	-1678
▁우리의	-1679
세가	-1680
▁2018	-1681
스터	-1682
▁인식	-1683
▁출신	-1684
하기도	-1685
운동	-1686
▁28	-1687
▁말씀	-1688
량을	-1689
▁수행	-1690
▁26	-1691
▁아름	-1692
▁공부	-1693
랍니다	-1694
관리	-1695
▁같다	-1696
▁수밖에	-1697
▁적이	-1698
▁프랑	-1699
▁건물	-1700
▁사망	-1701
▁주는	-1702
▁학습	-1703
▁꼭	-1704
▁것과	-1705
▁것에	-1706
▁소득	-1707
▁회의	-1708
▁경우가	-1709
하는데	-1710
▁한다고	-1711
▁기념	-1712
원으로	-1713
▁장기	-1714
▁촬영	-1715
▁2016	-1716
▁하락	-1717
조사	-1718
▁전기	-1719
▁결혼	-1720
▁젊	-1721
▁어려운	-1722
▁정부의	-1723
차가	-1724
등학교	-1725
▁한류	-1726
트가	-1727
▁비슷	-1728
▁보유	-1729
▁대해서	-1730
정에	-1731
▁위해서	-1732
▁보는	-1733
▁없습니다	-1734
두고	-1735
▁얼굴	-1736
▁봐	-1737
▁징	-1738
으로는	-1739
▁대구	-1740
▁맥	-1741
▁이론	-1742
▁사무	-1743
거래	-1744
▁예약	-1745
▁마을	-1746
▁통신	-1747
▁행동	-1748
훈련	-1749
전이	-1750
▁시설	-1751
▁그들은	-1752
▁사람은	-1753
회는	-1754
주택	-1755
.5	-1756
▁영국	-1757
▁혹시	-1758
▁됐	-1759
▁옷	-1760
▁접근	-1761
▁바랍니다	-1762
▁기자	-1763
▁해서	-1764
▁같아요	-1765
▁선보	-1766
▁빌	-1767
되었	-1768
▁예측	-1769
▁대통령은	-1770
▁자료	-1771
▁잔	-1772
▁자유한국	-1773
▁대형	-1774
상은	-1775
▁남아	-1776
에선	-1777
▁교통	-1778
▁단계	-1779
▁실험	-1780
▁살펴	-1781
▁전화	-1782
▁바라	-1783
▁설립	-1784
0%	-1785
차를	-1786
▁기관	-1787
▁변경	-1788
보는	-1789
▁내용을	-1790
▁헤	-1791
▁컴퓨	-1792
▁메시	-1793
▁그것은	-1794
▁웃	-1795
▁관련해	-1796
▁만드는	-1797
이크	-1798
▁받았다	-1799
▁잃	-1800
▁하는데	-1801
지털	-1802
▁제외	-1803
▁컨	-1804
▁진출	-1805
▁달러	-1806
▁저녁	-1807
▁부동산	-1808
▁협력	-1809
▁이유는	-1810
▁싸	-1811
▁독립	-1812
▁그런데	-1813
▁아침	-1814
어가	-1815
▁장애	-1816
▁수입	-1817
▁제안	-1818
년부터	-1819
▁대체	-1820
▁첨	-1821
섰다	-1822
했는데	-1823
품을	-1824
▁달라	-1825
▁제품을	-1826
님이	-1827
▁사람들은	-1828
와의	-1829
▁미세	-1830
도에	-1831
▁없다는	-1832
▁주로	-1833
▁벗	-1834
거리	-1835
▁근로	-1836
▁영역	-1837
▁끊	-1838
▁싱	-1839
드리	-1840
▁결과를	-1841
▁질문	-1842
▁때는	-1843
행을	-1844
부의	-1845
▁구속	-1846
▁쉬	-1847
▁공정	-1848
▁낙	-1849
적을	-1850
케팅	-1851
▁측면	-1852
▁분명	-1853
도시	-1854
▁줄어	-1855
장으로	-1856
▁개정	-1857
▁출시	-1858
일에	-1859
▁그대로	-1860
▁규제	-1861
▁여자	-1862
(2	-1863
현지	-1864
▁체험	-1865
지원	-1866
▁나의	-1867
회에서	-1868
▁그녀는	-1869
수는	-1870
▁모르	-1871
▁모습이	-1872
기와	-1873
▁민간	-1874
▁도움이	-1875
▁딸	-1876
증을	-1877
▁평화	-1878
▁긍	-1879
▁항공	-1880
생활	-1881
▁지도	-1882
년대	-1883
▁아마	-1884
▁아버	-1885
▁스마트폰	-1886
▁없을	-1887
▁인근	-1888
▁프로젝	-1889
임금	-1890
▁수학	-1891
▁있는지	-1892
랫폼	-1893
▁주세요	-1894
▁지지	-1895
구의	-1896
비가	-1897
포츠	-1898
▁고민	-1899
▁보험	-1900
단을	-1901
부에	-1902
▁F	-1903
▁가능하다	-1904
▁특정	-1905
▁집에	-1906
▁부정	-1907
▁시즌	-1908
▁전자	-1909
▁입장	-1910
▁갈등	-1911
위는	-1912
▁컴퓨터	-1913
▁술	-1914
바이	-1915
히려	-1916
▁출연	-1917
▁활성	-1918
▁물질	-1919
뮤니	-1920
일이	-1921
▁비핵화	-1922
▁뜨	-1923
▁지하	-1924
▁한번	-1925
▁엔	-1926
계의	-1927
▁나와	-1928
▁강원	-1929
▁디지털	-1930
▁되면	-1931
만이	-1932
▁젊은	-1933
▁것처럼	-1934
▁관객	-1935
▁단체	-1936
▁(	-1937
▁최소	-1938
률이	-1939
아가	-1940
제는	-1941
▁찬	-1942
▁대화	-1943
▁작성	-1944
▁형성	-1945
▁남자	-1946
▁북미	-1947
▁긍정	-1948
▁순간	-1949
격을	-1950
30	-1951
▁홍보	-1952
▁G	-1953
▁덕	-1954
▁대통령의	-1955
리그	-1956
▁돈을	-1957
▁29	-1958
▁자주	-1959
▁외교	-1960
화된	-1961
이지만	-1962
▁가수	-1963
▁이유로	-1964
▁벌어	-1965
▁보도했다	-1966
▁전반	-1967
▁전혀	-1968
▁봤	-1969
▁2015	-1970
▁일어나	-1971
린다	-1972
▁넓	-1973
겼다	-1974
▁이끌	-1975
▁사라	-1976
롯데	-1977
▁외국인	-1978
▁괜	-1979
진이	-1980
관을	-1981
해주	-1982
▁점에서	-1983
▁만약	-1984
▁오른	-1985
▁이상의	-1986
▁정의	-1987
▁어린이	-1988
▁오히려	-1989
▁추천	-1990
워크	-1991
점에서	-1992
▁옮	-1993
쳤다	-1994
분을	-1995
▁시각	-1996
▁마케팅	-1997
성의	-1998
이자	-1999
▁바탕	-2000
▁선생	-2001
▁보다	-2002
▁빨리	-2003
▁타고	-2004
▁뇌	-2005
랐다	-2006
▁멀	-2007
되기	-2008
▁자유한국당	-2009
▁신뢰	-2010
▁원하는	-2011
▁영상	-2012
▁망	-2013
.1	-2014
경찰	-2015
▁보이는	-2016
▁서비스를	-2017
▁헌	-2018
▁여름	-2019
▁2017	-2020
▁잇	-2021
▁플랫폼	-2022
▁사는	-2023
▁강력	-2024
실을	-2025
▁앤	-2026
▁느끼	-2027
▁훨	-2028
▁배경	-2029
▁한반	-2030
적이고	-2031
사로	-2032
▁작용	-2033
▁통한	-2034
함을	-2035
▁훨씬	-2036
▁커뮤니	-2037
▁이야기를	-2038
▁확산	-2039
▁근무	-2040
▁영업	-2041
▁익	-2042
리로	-2043
▁국토	-2044
▁약속	-2045
▁혐의로	-2046
노동	-2047
▁가치	-2048
▁궁금	-2049
심을	-2050
▁솔	-2051
▁슬	-2052
리와	-2053
▁화장	-2054
▁논란이	-2055
50	-2056
▁요즘	-2057
▁대해서는	-2058
약을	-2059
▁이들이	-2060
▁들어가	-2061
▁이들	-2062
▁둔	-2063
자에	-2064
오는	-2065
이라며	-2066
▁활동을	-2067
▁괜찮	-2068
한다면	-2069
▁통과	-2070
▁문제는	-2071
▁겁	-2072
해도	-2073
▁상황이	-2074
회에	-2075
체를	-2076
▁내놓	-2077
인과	-2078
▁변호	-2079
었지만	-2080
▁경남	-2081
▁옆	-2082
▁싶습니다	-2083
%)	-2084
년이	-2085
주가	-2086
▁희망	-2087
교통	-2088
▁시절	-2089
▁향후	-2090
▁아름다	-2091
지와	-2092
▁롯데	-2093
▁수는	-2094
서비스	-2095
▁쌓	-2096
▁추정	-2097
▁꼽	-2098
▁캠	-2099
보험	-2100
▁장면	-2101
▁불편	-2102
▁신경	-2103
어도	-2104
▁제재	-2105
드립니다	-2106
▁섬	-2107
▁말이	-2108
▁물리	-2109
▁대출	-2110
▁하나의	-2111
▁지정	-2112
건이	-2113
만의	-2114
▁어제	-2115
▁둘러	-2116
선거	-2117
관은	-2118
▁인공	-2119
형을	-2120
▁얘기	-2121
▁유치	-2122
▁중에	-2123
하세요	-2124
▁근거	-2125
▁블록	-2126
▁현장	-2127
으로부터	-2128
관계	-2129
기간	-2130
안전	-2131
▁맞아	-2132
▁의사	-2133
려면	-2134
▁가정	-2135
▁소통	-2136
▁원내	-2137
▁가입	-2138
▁못하고	-2139
에서의	-2140
▁종합	-2141
▁우수	-2142
하겠다	-2143
▁계획이다	-2144
▁화학	-2145
개를	-2146
느냐	-2147
▁통합	-2148
드가	-2149
▁나가	-2150
▁앞두고	-2151
▁대책	-2152
▁전쟁	-2153
▁있으면	-2154
▁끼	-2155
▁주장했다	-2156
▁시도	-2157
▁전망이다	-2158
널드	-2159
▁혹은	-2160
으면서	-2161
멤버	-2162
▁일으	-2163
▁비중	-2164
선이	-2165
▁국방	-2166
거운	-2167
▁<	-2168
리즘	-2169
▁이와	-2170
▁발언	-2171
▁등록	-2172
▁동일	-2173
겠지만	-2174
▁푸	-2175
▁확정	-2176
▁수용	-2177
▁속에서	-2178
▁같습니다	-2179
▁방식으로	-2180
▁빼	-2181
소득	-2182
▁재미	-2183
▁지켜	-2184
▁일정	-2185
었는데	-2186
▁슈	-2187
금융	-2188
▁건축	-2189
▁불가능	-2190
대는	-2191
▁비롯한	-2192
▁넘는	-2193
▁명의	-2194
시키는	-2195
▁땅	-2196
되며	-2197
스에	-2198
▁덧	-2199
구하고	-2200
▁졸	-2201
▁입장을	-2202
만을	-2203
▁심각	-2204
▁강한	-2205
▁욕	-2206
▁하기	-2207
현지시간	-2208
▁혜	-2209
▁차례	-2210
▁주도	-2211
▁사진을	-2212
시켜	-2213
▁다르	-2214
트는	-2215
인으로	-2216
청은	-2217
▁31	-2218
▁루	-2219
’(	-2220
▁앉	-2221
▁의원이	-2222
▁비행	-2223
▁납	-2224
과학	-2225
▁곡	-2226
민주당	-2227
문이	-2228
▁상황을	-2229
▁명이	-2230
▁걱정	-2231
▁미세먼	-2232
드시	-2233
▁지적했다	-2234
·1	-2235
▁좋아하는	-2236
▁도로	-2237
▁계산	-2238
▁방침	-2239
▁N	-2240
▁비롯해	-2241
▁이들은	-2242
▁동물	-2243
▁정부는	-2244
했으며	-2245
별로	-2246
▁상호	-2247
▁탐	-2248
▁처음으로	-2249
▁나선	-2250
▁모양	-2251
계획	-2252
▁주고	-2253
▁위반	-2254
대학교	-2255
사에서	-2256
▁그것을	-2257
▁도널드	-2258
▁스트	-2259
사고	-2260
▁종류	-2261
▁장소	-2262
▁멤버	-2263
▁제도	-2264
▁에너지	-2265
▁도와	-2266
트워크	-2267
▁셈	-2268
▁중단	-2269
▁보니	-2270
▁여기에	-2271
▁힘을	-2272
▁빅	-2273
▁엄마	-2274
▁묻	-2275
▁사람의	-2276
▁김정은	-2277
투자	-2278
▁만족	-2279
하려는	-2280
바일	-2281
▁낮은	-2282
▁되지	-2283
▁축구	-2284
▁곳이	-2285
▁지금까지	-2286
리기	-2287
였던	-2288
▁나누	-2289
▁거쳐	-2290
단의	-2291
▁관련된	-2292
▁198	-2293
▁매년	-2294
▁배송	-2295
▁내용이	-2296
▁않습니다	-2297
▁학생들이	-2298
▁시작했다	-2299
자기	-2300
▁기초	-2301
▁펼쳐	-2302
▁발생한	-2303
▁소방	-2304
▁있었던	-2305
▁운전	-2306
▁늘어나	-2307
▁낸	-2308
▁프랑스	-2309
▁출발	-2310
▁기업이	-2311
▁효과가	-2312
▁의원은	-2313
려는	-2314
▁과정을	-2315
▁뉴욕	-2316
적이다	-2317
▁액	-2318
이션	-2319
▁꽃	-2320
이지	-2321
▁취소	-2322
서가	-2323
중에	-2324
▁T	-2325
법을	-2326
▁어머니	-2327
▁경찰이	-2328
▁있다면	-2329
▁선발	-2330
가의	-2331
학과	-2332
론을	-2333
▁화재	-2334
▁밖	-2335
▁완성	-2336
▁마무	-2337
케이션	-2338
▁뭐	-2339
▁흘	-2340
▁싶어	-2341
지방	-2342
▁너는	-2343
▁무슨	-2344
km	-2345
▁결합	-2346
▁못했다	-2347
국은	-2348
▁판결	-2349
▁갔	-2350
▁웹	-2351
▁밝혀	-2352
호를	-2353
▁새로	-2354
▁외부	-2355
▁바뀌	-2356
▁유통	-2357
심히	-2358
▁조정	-2359
NS	-2360
▁쏟	-2361
도체	-2362
.2	-2363
▁사실이	-2364
▁범죄	-2365
▁이하	-2366
▁하다	-2367
BS	-2368
▁반면	-2369
▁채용	-2370
▁덧붙	-2371
▁죄송	-2372
▁있지	-2373
▁불과	-2374
▁회복	-2375
▁수상	-2376
▁반드시	-2377
▁바탕으로	-2378
op	-2379
복지	-2380
▁연속	-2381
▁이른	-2382
웠다	-2383
▁반복	-2384
▁인터뷰	-2385
정상	-2386
▁속에	-2387
권이	-2388
▁혈	-2389
씨의	-2390
▁혼자	-2391
▁신규	-2392
▁중국의	-2393
반기	-2394
스러운	-2395
▁냉	-2396
▁소유	-2397
▁끝나	-2398
▁모여	-2399
▁언어	-2400
▁생각이	-2401
▁인한	-2402
▁짧	-2403
▁강남	-2404
우는	-2405
준다	-2406
▁보통	-2407
▁우승	-2408
▁소비자	-2409
▁확실	-2410
▁민주당	-2411
▁소재	-2412
▁자녀	-2413
이어	-2414
▁높다	-2415
▁서울시	-2416
▁눈에	-2417
질을	-2418
▁차이가	-2419
▁모바일	-2420
▁빠르게	-2421
▁놓고	-2422
▁카드	-2423
▁한국에	-2424
▁홍콩	-2425
▁말한다	-2426
예술	-2427
▁있으	-2428
▁경북	-2429
▁탑	-2430
▁프리	-2431
▁겨울	-2432
▁연기	-2433
▁나오는	-2434
▁주인	-2435
(3	-2436
체의	-2437
▁선고	-2438
▁오랜	-2439
보면	-2440
이란	-2441
부와	-2442
년을	-2443
메라	-2444
▁업계	-2445
화에	-2446
▁억	-2447
▁틀	-2448
격이	-2449
항공	-2450
들로	-2451
많은	-2452
▁않으면	-2453
▁정확한	-2454
길을	-2455
▁회원	-2456
▁청소년	-2457
하겠습니다	-2458
위로	-2459
..	-2460
▁금액	-2461
▁사업을	-2462
내고	-2463
▁앞에서	-2464
스와	-2465
▁마음을	-2466
▁없다고	-2467
같이	-2468
전쟁	-2469
▁증거	-2470
▁벤	-2471
대학	-2472
er	-2473
▁후에	-2474
항을	-2475
▁종교	-2476
▁중소기업	-2477
▁불안	-2478
▁이사	-2479
▁최저임금	-2480
▁대한민	-2481
지면	-2482
페인	-2483
▁사이에	-2484
▁열리는	-2485
▁나를	-2486
▁사실상	-2487
’,	-2488
▁브라	-2489
▁정리	-2490
▁나도	-2491
▁나에게	-2492
▁일자리	-2493
▁불러	-2494
▁그들의	-2495
▁맞는	-2496
▁점이	-2497
▁사용하는	-2498
▁마무리	-2499
▁그때	-2500
▁원내대표	-2501
서에	-2502
▁수술	-2503
▁이벤	-2504
월부터	-2505
뿐만	-2506
스코	-2507
▁왔다	-2508
▁2019	-2509
▁겸	-2510
BC	-2511
라면	-2512
▁1,	-2513
발전	-2514
하려고	-2515
연합	-2516
체인	-2517
▁60	-2518
▁중간	-2519
▁우려가	-2520
시킨	-2521
▁마찬	-2522
▁상대로	-2523
▁위에	-2524
▁맞춰	-2525
▁매일	-2526
▁뮤	-2527
▁뒷	-2528
단은	-2529
▁디자인	-2530
▁지식	-2531
▁취업	-2532
▁커피	-2533
▁투입	-2534
▁소송	-2535
▁대규모	-2536
▁여기서	-2537
시를	-2538
프트	-2539
▁보수	-2540
인가요	-2541
릭터	-2542
▁크다	-2543
리카	-2544
셔서	-2545
하고자	-2546
▁보였다	-2547
▁의견을	-2548
10	-2549
▁훈련	-2550
▁했습니다	-2551
▁월드	-2552
▁인간의	-2553
▁더불어민주당	-2554
▁남편	-2555
받은	-2556
▁고양	-2557
세대	-2558
▁객	-2559
무를	-2560
▁완전히	-2561
원과	-2562
▁관측	-2563
▁열심히	-2564
▁느낌	-2565
▁점검	-2566
▁이익	-2567
사들이	-2568
▁가서	-2569
▁창업	-2570
▁하며	-2571
▁회담	-2572
스럽게	-2573
▁싶어요	-2574
▁흡	-2575
▁엘	-2576
▁그냥	-2577
었어	-2578
▁꾸준	-2579
▁대전	-2580
▁나타나	-2581
▁캐릭터	-2582
.3	-2583
▁개혁	-2584
▁지구	-2585
▁라이	-2586
▁찾는	-2587
의가	-2588
▁주말	-2589
▁그리	-2590
▁창출	-2591
가고	-2592
▁이란	-2593
류를	-2594
▁미리	-2595
▁페이스	-2596
▁스포츠	-2597
▁결제	-2598
산을	-2599
▁히	-2600
이드	-2601
▁효율	-2602
▁가격이	-2603
▁사람을	-2604
주를	-2605
▁지배	-2606
력과	-2607
▁발표한	-2608
▁이름을	-2609
▁충분히	-2610
▁대법원	-2611
▁방법을	-2612
▁예상된다	-2613
분에	-2614
았던	-2615
▁재정	-2616
▁대표가	-2617
▁당신에게	-2618
게임	-2619
미래	-2620
시고	-2621
▁바꾸	-2622
▁적절	-2623
상으로	-2624
▁불구하고	-2625
주고	-2626
활동	-2627
▁균	-2628
어진	-2629
물의	-2630
▁흥미	-2631
▁나섰다	-2632
안에	-2633
▁실패	-2634
▁공무	-2635
▁차별	-2636
▁쿠	-2637
▁겁니다	-2638
▁특별한	-2639
in	-2640
제의	-2641
질이	-2642
▁효과를	-2643
포르	-2644
▁당연	-2645
▁써	-2646
이에	-2647
▁TV	-2648
▁시대	-2649
님의	-2650
▁공항	-2651
▁가르	-2652
▁노조	-2653
▁감독이	-2654
▁다가	-2655
▁못하는	-2656
상에서	-2657
▁2014	-2658
▁니	-2659
▁기여	-2660
▁완료	-2661
과는	-2662
기고	-2663
월에	-2664
▁절대	-2665
호가	-2666
▁유일	-2667
▁수많은	-2668
▁요소	-2669
▁미국이	-2670
▁한국에서	-2671
▁벽	-2672
▁그들이	-2673
▁사태	-2674
운드	-2675
▁측정	-2676
▁휴대	-2677
▁조건	-2678
관에서	-2679
▁군사	-2680
▁통일	-2681
▁기회를	-2682
▁옥	-2683
▁네트워크	-2684
트에	-2685
▁없고	-2686
▁자본	-2687
▁흐름	-2688
▁인기를	-2689
방송	-2690
▁부문	-2691
함으로써	-2692
▁비슷한	-2693
▁사용할	-2694
▁덧붙였다	-2695
▁신용	-2696
▁자세	-2697
▁지역의	-2698
▁R	-2699
▁쏟아	-2700
프로	-2701
▁정당	-2702
▁기술을	-2703
평가	-2704
▁제일	-2705
▁이번에	-2706
▁스토	-2707
▁도움을	-2708
▁가득	-2709
▁대변	-2710
▁있어야	-2711
관광	-2712
▁국회의	-2713
▁거주	-2714
▁늘어	-2715
▁맺	-2716
▁의심	-2717
진을	-2718
▁무엇보다	-2719
중앙	-2720
명으로	-2721
구조	-2722
▁국립	-2723
림픽	-2724
▁북한이	-2725
▁쓴	-2726
시켰	-2727
하신	-2728
해를	-2729
▁했어요	-2730
▁것이에요	-2731
▁점점	-2732
▁예방	-2733
도와	-2734
작용	-2735
▁대회	-2736
으로서	-2737
▁빠른	-2738
▁느껴	-2739
▁경찰에	-2740
▁바다	-2741
▁국정	-2742
세기	-2743
▁유리	-2744
▁대표는	-2745
▁페이스북	-2746
▁상징	-2747
▁여론	-2748
▁휘	-2749
▁때까지	-2750
.7	-2751
▁셈이다	-2752
▁똑	-2753
▁수정	-2754
▁반도체	-2755
일로	-2756
▁최고의	-2757
▁묘	-2758
구는	-2759
분기	-2760
▁거부	-2761
▁태양	-2762
▁설계	-2763
▁선언	-2764
수로	-2765
▁초기	-2766
▁안내	-2767
▁책을	-2768
하겠다는	-2769
어로	-2770
▁검찰은	-2771
▁바른	-2772
부모	-2773
점은	-2774
▁엄청	-2775
%,	-2776
▁건가요	-2777
▁O	-2778
▁만한	-2779
▁복잡	-2780
▁인기	-2781
▁전남	-2782
▁콜	-2783
.4	-2784
목을	-2785
on	-2786
▁쉽지	-2787
▁싱가	-2788
▁채널	-2789
▁방안을	-2790
화폐	-2791
▁중이다	-2792
지기	-2793
▁말해	-2794
▁반발	-2795
고를	-2796
▁했지만	-2797
▁일은	-2798
▁자리를	-2799
▁예를	-2800
▁위협	-2801
▁결과가	-2802
▁폴	-2803
▁담긴	-2804
회사	-2805
▁앞에	-2806
▁일단	-2807
▁혜택	-2808
▁민족	-2809
▁않도록	-2810
에게는	-2811
▁상담	-2812
▁원자	-2813
점에	-2814
▁단지	-2815
▁사법	-2816
▁아시	-2817
▁들고	-2818
▁사전	-2819
▁관광객	-2820
.8	-2821
해진	-2822
▁토론	-2823
실에서	-2824
▁북한의	-2825
▁없어요	-2826
▁자체가	-2827
▁대부분의	-2828
점으로	-2829
▁금지	-2830
경기	-2831
▁먹고	-2832
▁이용해	-2833
나다	-2834
에만	-2835
▁점이다	-2836
른다	-2837
▁자율	-2838
년까지	-2839
▁선호	-2840
▁의미를	-2841
▁관람	-2842
▁꺼	-2843
이의	-2844
▁목적	-2845
▁무료	-2846
▁있음을	-2847
▁생각해	-2848
▁‘201	-2849
로를	-2850
석이	-2851
화와	-2852
▁검색	-2853
▁졸업	-2854
▁처벌	-2855
▁습	-2856
실이	-2857
드릴	-2858
네시아	-2859
.9	-2860
▁빠져	-2861
▁에이	-2862
간의	-2863
분의	-2864
▁집단	-2865
▁따로	-2866
▁받지	-2867
▁한반도	-2868
있다	-2869
▁미술	-2870
▁남성	-2871
▁생명	-2872
▁시작한	-2873
증이	-2874
행이	-2875
▁선물	-2876
▁유사	-2877
▁적극적으로	-2878
시킬	-2879
▁비가	-2880
▁유전	-2881
만으로	-2882
▁개의	-2883
▁조치	-2884
▁관계를	-2885
성장	-2886
▁말고	-2887
▁있을까요	-2888
▁끌어	-2889
▁부과	-2890
▁청구	-2891
▁포함한	-2892
소에	-2893
▁특수	-2894
표를	-2895
▁아내	-2896
▁뿌	-2897
지능	-2898
▁마치	-2899
▁한편	-2900
이라면	-2901
▁갑자기	-2902
.6	-2903
즈니	-2904
여명이	-2905
▁다소	-2906
▁쇼핑	-2907
▁이슈	-2908
▁이탈	-2909
▁활발	-2910
▁탓	-2911
▁이재	-2912
▁때마다	-2913
▁답변	-2914
▁평양	-2915
▁당신을	-2916
▁의미가	-2917
▁쓸	-2918
▁짓	-2919
했기	-2920
▁고통	-2921
▁대북	-2922
▁측은	-2923
▁나무	-2924
▁주최	-2925
▁다니	-2926
▁생태	-2927
an	-2928
▁보장	-2929
▁했던	-2930
▁뉴스	-2931
▁통계	-2932
▁마음이	-2933
▁아프	-2934
음이	-2935
▁허용	-2936
▁카메라	-2937
▁싱가포르	-2938
.”	-2939
▁국무위원	-2940
소는	-2941
▁강제	-2942
제품	-2943
▁그곳	-2944
▁떠나	-2945
▁규정	-2946
▁지금은	-2947
씨를	-2948
지게	-2949
세계	-2950
었을	-2951
▁성폭	-2952
인들의	-2953
력은	-2954
받고	-2955
히는	-2956
19	-2957
▁년	-2958
▁일어	-2959
▁자신을	-2960
지자	-2961
▁길을	-2962
▁나머	-2963
시코	-2964
▁베이	-2965
▁확장	-2966
▁기업의	-2967
보가	-2968
▁규모의	-2969
스탄	-2970
성도	-2971
트의	-2972
▁주식	-2973
▁가까운	-2974
공항	-2975
했으나	-2976
▁정치적	-2977
▁던	-2978
▁사과	-2979
▁음식을	-2980
위의	-2981
▁든	-2982
▁싫	-2983
님께	-2984
류가	-2985
프라	-2986
학을	-2987
▁암호	-2988
받는	-2989
았습니다	-2990
▁뛰어	-2991
▁U	-2992
동이	-2993
▁구분	-2994
▁앨	-2995
▁칼	-2996
▁원래	-2997
같은	-2998
▁시장이	-2999
▁확인할	-3000
듯이	-3001
▁인생	-3002
▁돕	-3003
종의	-3004
트로	-3005
스토	-3006
▁가야	-3007
▁제공하는	-3008
▁멋	-3009
▁짐	-3010
▁지키	-3011
▁유명한	-3012
▁잊	-3013
이라도	-3014
이야	-3015
행정	-3016
▁부인	-3017
▁인도네시아	-3018
율을	-3019
제에	-3020
▁타이	-3021
▁편의	-3022
아야	-3023
▁콘서	-3024
▁변화를	-3025
▁위치한	-3026
학년	-3027
▁생각을	-3028
인가	-3029
청이	-3030
▁가고	-3031
▁홀	-3032
멕시코	-3033
산이	-3034
학적	-3035
▁인물	-3036
▁전날	-3037
▁사상	-3038
▁체계	-3039
▁오늘은	-3040
레스	-3041
▁확인해	-3042
다른	-3043
▁활성화	-3044
원들이	-3045
▁기능을	-3046
국제	-3047
나무	-3048
▁대만	-3049
방을	-3050
▁체결	-3051
▁바이오	-3052
▁중요하다	-3053
▁응답	-3054
학의	-3055
▁대기	-3056
▁진술	-3057
임이	-3058
▁500	-3059
이익	-3060
▁기회가	-3061
세포	-3062
▁밝힌	-3063
▁피해를	-3064
▁70	-3065
▁하면서	-3066
▁대한민국	-3067
▁임대	-3068
과정	-3069
▁원칙	-3070
▁주관	-3071
▁의무	-3072
▁이상이	-3073
▁밥	-3074
▁보기	-3075
▁앱	-3076
경을	-3077
▁안에서	-3078
▁SK	-3079
▁고위	-3080
됐다고	-3081
▁그러면	-3082
▁몽	-3083
▁좋다	-3084
면에	-3085
▁사유	-3086
▁살고	-3087
▁우주	-3088
카오	-3089
실에	-3090
▁레이	-3091
자동	-3092
▁절반	-3093
▁완벽	-3094
▁대표적인	-3095
료가	-3096
화의	-3097
▁삶을	-3098
시의	-3099
란다	-3100
▁부여	-3101
병원	-3102
▁적은	-3103
▁보이고	-3104
▁어렵다	-3105
▁캐나다	-3106
명은	-3107
소의	-3108
▁나올	-3109
까지는	-3110
▁사람들의	-3111
▁간의	-3112
▁애플	-3113
▁블랙	-3114
▁협상	-3115
대회	-3116
▁교체	-3117
▁조사를	-3118
▁주인공	-3119
▁버스	-3120
▁기준으로	-3121
▁상대적으로	-3122
차례	-3123
협회	-3124
▁강력한	-3125
▁괴	-3126
▁동영	-3127
▁통해서	-3128
▁대통령과	-3129
아이	-3130
▁디자	-3131
자들에게	-3132
식에	-3133
▁가치를	-3134
관의	-3135
신을	-3136
▁다음과	-3137
▁직후	-3138
▁폭발	-3139
▁자료를	-3140
▁H	-3141
민이	-3142
연금	-3143
▁아름다운	-3144
향이	-3145
자들을	-3146
▁피부	-3147
▁값	-3148
▁202	-3149
군요	-3150
▁대로	-3151
▁듣고	-3152
▁명확	-3153
(5	-3154
함이	-3155
▁곳곳	-3156
(4	-3157
장애	-3158
▁SNS	-3159
▁197	-3160
▁교수는	-3161
▁끝난	-3162
▁빚	-3163
역을	-3164
▁도전	-3165
▁이르	-3166
▁일상	-3167
▁할인	-3168
▁벗어나	-3169
▁영화를	-3170
시스템	-3171
▁그것이	-3172
권의	-3173
▁접수	-3174
▁후반	-3175
▁최대한	-3176
▁2013	-3177
체육	-3178
▁노출	-3179
식은	-3180
▁동의	-3181
▁케	-3182
텔레	-3183
▁전해졌다	-3184
▁생각합니다	-3185
당한	-3186
▁등은	-3187
▁잠시	-3188
▁J	-3189
▁식당	-3190
▁마이크	-3191
▁메뉴	-3192
▁많았다	-3193
▁사건을	-3194
▁뽑	-3195
▁놀라	-3196
▁대기업	-3197
▁줄어들	-3198
▁가능성을	-3199
▁있었습니다	-3200
구에	-3201
▁아이디어	-3202
▁V	-3203
▁300	-3204
▁근처	-3205
▁변화가	-3206
▁때문입니다	-3207
▁까	-3208
▁배치	-3209
▁분양	-3210
▁미국과	-3211
▁획	-3212
개가	-3213
목이	-3214
▁나왔	-3215
▁이유가	-3216
냐는	-3217
▁구글	-3218
▁집에서	-3219
▁그를	-3220
▁받아들	-3221
▁기상	-3222
▁주거	-3223
▁새롭게	-3224
마을	-3225
잖아	-3226
조차	-3227
▁공모	-3228
▁기계	-3229
▁혐의를	-3230
▁좋을	-3231
▁주시	-3232
▁필수	-3233
▁부분이	-3234
군이	-3235
▁최초로	-3236
▁사건이	-3237
▁이것이	-3238
명에	-3239
회견	-3240
팀이	-3241
▁하늘	-3242
▁지속적으로	-3243
웨이	-3244
치지	-3245
▁이때	-3246
▁카페	-3247
전에서	-3248
▁꾸준히	-3249
▁지적이	-3250
전문	-3251
▁아동	-3252
▁연장	-3253
▁모두가	-3254
▁법률	-3255
▁연출	-3256
▁작가	-3257
공사	-3258
선언	-3259
향을	-3260
▁사항	-3261
▁이들의	-3262
▁발달	-3263
▁멕시코	-3264
니아	-3265
▁물어	-3266
▁병원	-3267
▁완화	-3268
▁잇따	-3269
▁누가	-3270
▁폭염	-3271
보를	-3272
우고	-3273
▁따뜻	-3274
▁생긴	-3275
▁간단	-3276
▁옛	-3277
든지	-3278
▁가게	-3279
▁세포	-3280
▁알게	-3281
▁샘	-3282
▁쏠	-3283
지에서	-3284
▁다루	-3285
▁의한	-3286
▁만난	-3287
▁실질	-3288
▁인기가	-3289
수수	-3290
▁블록체인	-3291
명한	-3292
▁검사	-3293
▁삶의	-3294
대에서	-3295
플레이	-3296
감독	-3297
▁개입	-3298
▁이달	-3299
▁멈	-3300
▁걷	-3301
공간	-3302
면을	-3303
유의	-3304
▁흔들	-3305
라스	-3306
제도	-3307
▁협의	-3308
▁회장이	-3309
력의	-3310
▁형태로	-3311
▁프로그램을	-3312
▁해소	-3313
정상회담	-3314
▁손을	-3315
▁추가로	-3316
▁진입	-3317
▁크리스	-3318
관에	-3319
▁설정	-3320
▁오늘날	-3321
▁덜	-3322
단에	-3323
▁먹을	-3324
▁압박	-3325
이너	-3326
재를	-3327
▁포기	-3328
식으로	-3329
▁택시	-3330
▁헬	-3331
체는	-3332
▁너의	-3333
▁통화	-3334
▁경험이	-3335
▁무엇을	-3336
▁기울	-3337
▁자극	-3338
▁문을	-3339
▁인공지능	-3340
시오	-3341
▁깊은	-3342
▁조합	-3343
요일에	-3344
▁봄	-3345
▁그려	-3346
▁연계	-3347
▁기자회견	-3348
대책	-3349
바이오	-3350
▁필리	-3351
▁장관이	-3352
60	-3353
▁사고가	-3354
▁지하철	-3355
영화	-3356
고가	-3357
번째	-3358
▁개별	-3359
▁배출	-3360
▁향해	-3361
▁계획을	-3362
▁눈길을	-3363
▁미치는	-3364
▁굴	-3365
▁시장에	-3366
력에	-3367
▁왜냐	-3368
▁식품	-3369
▁한국어	-3370
▁만들고	-3371
▁운영하는	-3372
하겠다고	-3373
▁극복	-3374
▁신문	-3375
▁이메	-3376
▁지원을	-3377
▁한국당	-3378
▁분리	-3379
▁일본의	-3380
라며	-3381
석을	-3382
▁모아	-3383
▁임시	-3384
▁2000	-3385
NA	-3386
▁쌍	-3387
▁열고	-3388
▁인수	-3389
우드	-3390
▁수수	-3391
티브	-3392
▁나오고	-3393
▁끈	-3394
▁검증	-3395
▁힘든	-3396
신이	-3397
▁먹는	-3398
▁알려진	-3399
▁개편	-3400
▁일찍	-3401
▁울산	-3402
▁제거	-3403
▁검찰이	-3404
▁게시	-3405
▁세종	-3406
▁직업	-3407
▁삼성전	-3408
▁아시안	-3409
법이	-3410
▁데이터를	-3411
▁유튜	-3412
년에는	-3413
나가	-3414
▁달성	-3415
▁유형	-3416
▁충남	-3417
▁생각한다	-3418
리며	-3419
▁학부모	-3420
▁보낸	-3421
▁분류	-3422
▁작동	-3423
▁규모가	-3424
재가	-3425
▁임금	-3426
정의	-3427
▁주차	-3428
▁즐길	-3429
▁지자	-3430
▁구체적인	-3431
▁널	-3432
▁새벽	-3433
▁실적	-3434
▁하겠습니다	-3435
▁씨가	-3436
▁갖추	-3437
▁공감	-3438
▁누군	-3439
▁하게	-3440
▁참석한	-3441
▁2012	-3442
▁글을	-3443
▁로봇	-3444
▁나머지	-3445
▁알려져	-3446
겠어	-3447
▁전용	-3448
▁김영	-3449
▁실현	-3450
▁경험을	-3451
전한	-3452
▁입고	-3453
▁진단	-3454
▁바른미래	-3455
카드	-3456
▁충돌	-3457
쪽으로	-3458
▁있습니까	-3459
▁수소	-3460
심이	-3461
▁불교	-3462
▁어려움을	-3463
되어야	-3464
▁어려워	-3465
▁여부를	-3466
결과	-3467
▁기존의	-3468
▁류	-3469
▁LG	-3470
▁상상	-3471
▁양자	-3472
▁열어	-3473
▁하였다	-3474
▁챙	-3475
었다고	-3476
▁걸쳐	-3477
▁지역에	-3478
군의	-3479
▁커지고	-3480
▁위원장이	-3481
끄는	-3482
▁보건	-3483
▁같은데	-3484
▁참여하는	-3485
률을	-3486
▁거듭	-3487
▁의혹을	-3488
았고	-3489
▁생각하는	-3490
▁비상	-3491
▁성과를	-3492
▁필리핀	-3493
▁진짜	-3494
하시	-3495
▁발굴	-3496
▁본다	-3497
▁등에서	-3498
하우	-3499
▁나아가	-3500
트너	-3501
▁촉구	-3502
▁브라질	-3503
가지로	-3504
▁시작된	-3505
▁하여	-3506
▁진행된	-3507
식품	-3508
▁비난	-3509
▁상황에	-3510
협력	-3511
▁둘째	-3512
▁앉아	-3513
▁인구	-3514
▁정규	-3515
▁아르	-3516
▁그래도	-3517
▁시장에서	-3518
이면	-3519
▁상황이다	-3520
▁목소리가	-3521
▁융	-3522
량의	-3523
없는	-3524
하려면	-3525
더니	-3526
▁정책을	-3527
웨어	-3528
데이터	-3529
▁않아요	-3530
▁했는데	-3531
가에	-3532
▁상관	-3533
▁보이지	-3534
화로	-3535
▁교환	-3536
▁시기	-3537
▁어떠	-3538
음에도	-3539
▁미안	-3540
아시아	-3541
▁말하는	-3542
▁바란다	-3543
리적	-3544
▁그린	-3545
▁복지	-3546
▁저렴	-3547
▁수요가	-3548
▁한국인	-3549
ar	-3550
▁센	-3551
▁방안	-3552
▁수도권	-3553
▁할머니	-3554
▁감안	-3555
▁쓰는	-3556
▁연습	-3557
▁투표	-3558
▁커뮤니케이션	-3559
해온	-3560
액이	-3561
▁전개	-3562
▁메시지를	-3563
▁발생하는	-3564
▁관찰	-3565
▁미세먼지	-3566
or	-3567
▁예고	-3568
자치	-3569
▁카카오	-3570
▁지시	-3571
개혁	-3572
▁시장의	-3573
주로	-3574
▁심사	-3575
▁긴급	-3576
▁좋지	-3577
▁코스	-3578
▁사이의	-3579
▁월드컵	-3580
독교	-3581
됐고	-3582
▁법원	-3583
▁자산	-3584
▁표시	-3585
펀드	-3586
▁나타난	-3587
조합	-3588
▁표준	-3589
▁왼	-3590
▁점은	-3591
상공	-3592
처가	-3593
▁실천	-3594
이기도	-3595
▁옮겨	-3596
▁생기	-3597
▁폭행	-3598
가족	-3599
▁기온	-3600
처를	-3601
▁담겨	-3602
▁안타	-3603
▁중국이	-3604
생이	-3605
▁증명	-3606
상과	-3607
▁태풍	-3608
▁심각한	-3609
▁뒤에	-3610
▁참고	-3611
▁부탁드립니다	-3612
▁소셜	-3613
▁철저	-3614
▁이어질	-3615
억원을	-3616
▁떨어진	-3617
인트	-3618
▁우리에게	-3619
▁맨	-3620
▁여야	-3621
▁공개된	-3622
▁경우에는	-3623
▁연간	-3624
▁입주	-3625
▁오픈	-3626
▁그녀의	-3627
▁수사를	-3628
▁점차	-3629
al	-3630
▁굳	-3631
졌고	-3632
▁않게	-3633
▁훌	-3634
▁암호화폐	-3635
해가	-3636
▁초대	-3637
▁곳에	-3638
▁회계	-3639
▁주제로	-3640
▁왜냐하면	-3641
션을	-3642
▁인지	-3643
▁터키	-3644
▁평소	-3645
▁지역에서	-3646
▁이내	-3647
비는	-3648
유치	-3649
▁앨범	-3650
▁치열	-3651
▁호주	-3652
▁자금	-3653
▁방법이	-3654
해주세요	-3655
업계	-3656
형이	-3657
▁급격	-3658
▁길이	-3659
▁드리	-3660
구나	-3661
건설	-3662
▁구입	-3663
▁경제적	-3664
▁35	-3665
▁교과	-3666
진흥	-3667
함에	-3668
▁전년	-3669
▁조작	-3670
▁드러났다	-3671
▁자랑	-3672
▁탄생	-3673
▁힘이	-3674
로가	-3675
선의	-3676
▁추구	-3677
▁들여	-3678
▁유엔	-3679
▁집을	-3680
▁회장	-3681
시키고	-3682
▁평가를	-3683
▁방침이다	-3684
수사	-3685
▁교회	-3686
▁남은	-3687
지며	-3688
▁잠재	-3689
▁설득	-3690
▁전부	-3691
기준	-3692
에너	-3693
▁아는	-3694
▁행사를	-3695
▁작업을	-3696
되자	-3697
본부	-3698
▁교사	-3699
지어	-3700
▁맞추	-3701
▁발행	-3702
▁밝히	-3703
▁준다	-3704
▁폼	-3705
동의	-3706
명과	-3707
비용	-3708
훼손	-3709
▁끝에	-3710
▁풀이	-3711
▁가까이	-3712
▁기술이	-3713
▁부족한	-3714
리즈	-3715
미가	-3716
▁실행	-3717
▁이용할	-3718
▁곤	-3719
▁숫	-3720
▁골프	-3721
▁법무	-3722
▁생겨	-3723
▁축제	-3724
▁플레이	-3725
▁기소	-3726
▁비밀	-3727
▁수립	-3728
▁마찬가지로	-3729
져야	-3730
▁때도	-3731
▁와서	-3732
▁금리	-3733
▁가을	-3734
▁그만큼	-3735
▁석유	-3736
▁센터	-3737
▁이행	-3738
▁그리스	-3739
▁문제로	-3740
님은	-3741
▁담은	-3742
▁사우	-3743
▁직장	-3744
▁질병	-3745
▁리더	-3746
▁여행을	-3747
▁중에서	-3748
수와	-3749
▁만날	-3750
▁인권	-3751
▁장르	-3752
▁문제에	-3753
위원회가	-3754
▁당장	-3755
▁흑	-3756
재판	-3757
▁집행	-3758
▁특성	-3759
▁아니면	-3760
▁의견이	-3761
▁하나요	-3762
▁유출	-3763
▁설명이다	-3764
▁뿐만	-3765
▁스페인	-3766
시험	-3767
▁개막	-3768
▁지불	-3769
▁되었습니다	-3770
▁바른미래당	-3771
드리겠습니다	-3772
▁전면	-3773
▁특허	-3774
▁것인지	-3775
▁거리	-3776
▁한국과	-3777
▁홈페이	-3778
▁밑	-3779
▁감정	-3780
▁패션	-3781
▁띄	-3782
∼2	-3783
▁풍부	-3784
40	-3785
체에	-3786
▁이건	-3787
▁지연	-3788
▁친구가	-3789
거든	-3790
버스	-3791
셔야	-3792
교회	-3793
법에	-3794
▁무너	-3795
▁축하	-3796
▁통제	-3797
방이	-3798
▁실무	-3799
▁전공	-3800
리한	-3801
▁신속	-3802
▁고객이	-3803
▁득	-3804
▁도서	-3805
▁책임을	-3806
▁삭	-3807
관과	-3808
▁공사	-3809
▁근본	-3810
▁상품을	-3811
민의	-3812
조를	-3813
▁번역	-3814
▁일주	-3815
▁뚜	-3816
▁보안	-3817
▁불이	-3818
▁들어서	-3819
▁필요하다는	-3820
▁꼬	-3821
분쯤	-3822
기구	-3823
▁춤	-3824
국가	-3825
▁의미한다	-3826
▁수집	-3827
경영	-3828
▁동료	-3829
▁오르	-3830
▁비즈니	-3831
▁샤	-3832
▁대표팀	-3833
▁좁	-3834
협의	-3835
화는	-3836
▁만들었다	-3837
▁발표했다	-3838
▁시간에	-3839
▁제품이	-3840
하나	-3841
▁소프트	-3842
▁아쉬	-3843
▁올려	-3844
▁프로젝트	-3845
량은	-3846
물은	-3847
▁드릴	-3848
▁방향으로	-3849
▁수십	-3850
▁비중이	-3851
▁고등학교	-3852
면서도	-3853
▁이제는	-3854
드러	-3855
진은	-3856
황을	-3857
▁바닥	-3858
▁적합	-3859
스티	-3860
Pop	-3861
▁뜻을	-3862
▁행사가	-3863
업이	-3864
▁환자	-3865
란드	-3866
▁일이다	-3867
▁차원에서	-3868
화하는	-3869
▁말레이	-3870
▁사랑을	-3871
만에	-3872
▁사람들에게	-3873
▁예비	-3874
▁짜	-3875
렀다	-3876
▁에어	-3877
▁문화를	-3878
▁한국을	-3879
mm	-3880
댓글	-3881
이번	-3882
▁고발	-3883
력으로	-3884
▁주의	-3885
▁향상	-3886
▁정확히	-3887
▁별로	-3888
▁생존	-3889
만원을	-3890
중한	-3891
▁낮아	-3892
▁다녀	-3893
▁샘플	-3894
▁내에서	-3895
▁선수들이	-3896
리오	-3897
▁달려	-3898
▁바꿔	-3899
▁정도의	-3900
▁싶은데	-3901
▁이유를	-3902
▁저희가	-3903
▁테스트	-3904
▁프리미	-3905
▁결론	-3906
▁정기	-3907
▁첨부	-3908
▁유튜브	-3909
▁최선을	-3910
▁갤	-3911
▁핸	-3912
▁내에	-3913
▁부회	-3914
▁요리	-3915
▁전북	-3916
페이오	-3917
▁되나요	-3918
▁뭔	-3919
러스	-3920
하이	-3921
▁의존	-3922
▁아이들이	-3923
▁척	-3924
▁못할	-3925
▁들었다	-3926
▁처음이다	-3927
효과	-3928
▁해양	-3929
졌습니다	-3930
경이	-3931
▁공장	-3932
▁그에	-3933
▁분야에서	-3934
▁의혹이	-3935
-1	-3936
▁텐	-3937
설을	-3938
▁지닌	-3939
▁초청	-3940
▁광주시	-3941
.0	-3942
▁셀	-3943
범죄	-3944
▁내는	-3945
▁머물	-3946
▁부총	-3947
▁가치가	-3948
▁될까요	-3949
▁알고리즘	-3950
▁첫째	-3951
인에	-3952
▁데뷔	-3953
▁메이	-3954
▁참여한	-3955
▁삼성전자	-3956
▁공통	-3957
대와	-3958
시다	-3959
▁일제	-3960
시켰다	-3961
▁교육을	-3962
▁고정	-3963
▁긴장	-3964
▁내고	-3965
▁정체	-3966
▁공기	-3967
▁싶다	-3968
▁에스	-3969
▁취임	-3970
▁대상이	-3971
되었습니다	-3972
▁클럽	-3973
▁컸	-3974
연을	-3975
▁AI	-3976
▁느낄	-3977
▁공연을	-3978
▁굉	-3979
▁어울	-3980
▁말이다	-3981
적으로는	-3982
▁낳	-3983
금은	-3984
▁출범	-3985
▁저에게	-3986
▁것이었다	-3987
▁커뮤니티	-3988
▁사장	-3989
년의	-3990
일은	-3991
▁감각	-3992
▁감염	-3993
▁기부	-3994
▁맞춤	-3995
▁조절	-3996
▁찾을	-3997
권에	-3998
en	-3999
▁기사	-4000
▁슈퍼	-4001
▁연예	-4002
▁잡아	-4003
▁체크	-4004
▁덕분에	-4005
▁상당히	-4006
▁대해서도	-4007
님을	-4008
피언	-4009
▁가면	-4010
주시면	-4011
▁낼	-4012
▁컬	-4013
▁관련한	-4014
당의	-4015
▁눈이	-4016
▁유기	-4017
▁동일한	-4018
▁못해	-4019
줍니다	-4020
단계	-4021
일에는	-4022
▁장관은	-4023
간다	-4024
해보	-4025
▁당선	-4026
▁화려	-4027
▁누구나	-4028
▁하나로	-4029
국에	-4030
리게	-4031
보호	-4032
▁가슴	-4033
▁떠올	-4034
▁위로	-4035
▁잡고	-4036
▁한국은	-4037
연이	-4038
▁구현	-4039
▁시장을	-4040
▁기록했다	-4041
▁보여주는	-4042
사진	-4043
▁상장	-4044
▁여의	-4045
십시오	-4046
▁모집	-4047
▁세월	-4048
정으로	-4049
▁단백	-4050
▁상영	-4051
▁경고	-4052
▁된다는	-4053
▁발생할	-4054
at	-4055
▁유도	-4056
▁권한	-4057
▁사로	-4058
▁옷을	-4059
▁나중에	-4060
됐던	-4061
서울	-4062
▁교류	-4063
▁댓글	-4064
▁능력을	-4065
▁고령	-4066
▁다이	-4067
▁실시간	-4068
▁영상을	-4069
▁며	-4070
서의	-4071
▁네이	-4072
▁기독교	-4073
▁늘어난	-4074
▁말레이시아	-4075
안은	-4076
▁높이	-4077
▁거짓	-4078
▁폼페이오	-4079
▁W	-4080
▁굉장	-4081
▁스크	-4082
▁단순히	-4083
혁명	-4084
▁음주	-4085
위원장	-4086
▁수업을	-4087
챔피언	-4088
▁기대된다	-4089
▁파트너	-4090
식의	-4091
리스트	-4092
자동차	-4093
▁80	-4094
▁밖에	-4095
▁하이	-4096
▁제품은	-4097
쪽에	-4098
▁초반	-4099
받을	-4100
▁취재	-4101
된다는	-4102
▁작품을	-4103
▁보여주	-4104
비아	-4105
▁불거	-4106
치게	-4107
기까지	-4108
스에서	-4109
▁아이돌	-4110
▁이것을	-4111
▁감사합니다	-4112
▁벨	-4113
품이	-4114
▁돌아가	-4115
▁기반으로	-4116
▁저장	-4117
선에	-4118
▁떨어져	-4119
▁아무리	-4120
▁2020	-4121
▁건립	-4122
▁물을	-4123
▁대학교	-4124
▁딱	-4125
▁주목된다	-4126
▁갖는	-4127
▁얻을	-4128
▁이끌어	-4129
어는	-4130
▁깔	-4131
▁여러분	-4132
리면	-4133
특별	-4134
▁관세	-4135
▁이틀	-4136
▁취약	-4137
▁사람들	-4138
▁등과	-4139
▁이민	-4140
라가	-4141
진의	-4142
▁특징이다	-4143
봤다	-4144
▁대단	-4145
▁입증	-4146
▁입학	-4147
▁관계가	-4148
▁「	-4149
▁깜	-4150
▁서류	-4151
근혜	-4152
생을	-4153
▁규칙	-4154
▁긍정적인	-4155
질환	-4156
▁시내	-4157
▁역대	-4158
▁뜨거운	-4159
▁아니냐는	-4160
▁단일	-4161
▁연방	-4162
▁시스템을	-4163
공원	-4164
▁현장에서	-4165
영업	-4166
▁있으니	-4167
▁반응을	-4168
▁사로잡	-4169
배를	-4170
▁수비	-4171
▁2010	-4172
산화	-4173
▁계열	-4174
▁자격	-4175
▁차단	-4176
▁프레	-4177
▁행위	-4178
인들은	-4179
▁국토교통	-4180
자들	-4181
500	-4182
▁이른바	-4183
번에	-4184
▁입을	-4185
▁증권	-4186
▁없지만	-4187
▁보완	-4188
▁시장은	-4189
▁층	-4190
자원	-4191
▁무게	-4192
됐다는	-4193
▁만들기	-4194
▁뮤지	-4195
▁포장	-4196
▁이처럼	-4197
▁있을지	-4198
▁붕	-4199
파크	-4200
해질	-4201
▁단독	-4202
▁밝혔	-4203
▁트위	-4204
▁흘러	-4205
▁이탈리아	-4206
전의	-4207
▁KT	-4208
▁발휘	-4209
▁2011	-4210
물질	-4211
▁보관	-4212
▁악화	-4213
▁방문해	-4214
하면서도	-4215
▁저의	-4216
▁경우도	-4217
▁'	-4218
▁곳은	-4219
▁만남	-4220
▁수능	-4221
▁충북	-4222
▁강원도	-4223
▁결정을	-4224
▁핀	-4225
이로	-4226
▁나아	-4227
▁있으나	-4228
물로	-4229
▁소리	-4230
▁짧은	-4231
사무	-4232
사인	-4233
▁그게	-4234
▁이번이	-4235
▁전부터	-4236
▁흉	-4237
우리	-4238
전은	-4239
▁스타트	-4240
소와	-4241
▁점도	-4242
▁감독은	-4243
▁경기를	-4244
▁비용을	-4245
▁활용해	-4246
돼야	-4247
▁강의	-4248
▁내다	-4249
▁성적	-4250
▁비교적	-4251
받아	-4252
▁연주	-4253
▁둘러싼	-4254
▁부장	-4255
▁주기	-4256
▁이끄는	-4257
▁셋	-4258
▁전력	-4259
▁불리는	-4260
▁확인됐다	-4261
▁낭	-4262
키는	-4263
▁보인	-4264
▁배제	-4265
랫동안	-4266
시티	-4267
▁올린	-4268
▁차를	-4269
▁드러나	-4270
에스	-4271
▁가로	-4272
약이	-4273
▁천안	-4274
▁분석했다	-4275
우가	-4276
▁다행	-4277
▁손흥	-4278
▁호흡	-4279
개로	-4280
었기	-4281
유가	-4282
▁보조	-4283
해지고	-4284
바로	-4285
▁쓰고	-4286
▁구성된	-4287
▁분석이	-4288
▁인프라	-4289
▁있었지만	-4290
▁콘텐츠를	-4291
▁나눠	-4292
▁보냈	-4293
▁있었고	-4294
▁포함해	-4295
마저	-4296
▁무시	-4297
▁오랫동안	-4298
낸다	-4299
당을	-4300
▁징역	-4301
▁창조	-4302
▁토대로	-4303
▁이웃	-4304
▁그녀가	-4305
▁태국	-4306
▁향한	-4307
▁부분을	-4308
어져	-4309
▁거론	-4310
▁재무	-4311
▁마음에	-4312
▁이용한	-4313
▁발생했다	-4314
테인	-4315
▁동원	-4316
▁눈을	-4317
▁복합	-4318
▁환불	-4319
▁선수가	-4320
▁현상이	-4321
대출	-4322
▁열렸다	-4323
▁이름이	-4324
▁기재	-4325
▁티켓	-4326
▁치료를	-4327
▁회사의	-4328
리트	-4329
어버	-4330
입니까	-4331
▁기다려	-4332
▁부담이	-4333
▁사람들을	-4334
▁벌써	-4335
▁편집	-4336
▁참석해	-4337
▁칠	-4338
르크	-4339
수에	-4340
▁동반	-4341
▁명예	-4342
▁노력을	-4343
▁수준의	-4344
▁요구하는	-4345
율은	-4346
▁세부	-4347
▁헌법	-4348
▁그렇지	-4349
▁피해가	-4350
▁개방	-4351
▁경기가	-4352
▁방식을	-4353
▁아직도	-4354
▁일어난	-4355
▁장애인	-4356
▁저희는	-4357
▁형태의	-4358
▁일반적으로	-4359
▁호소	-4360
▁혼란	-4361
됐지만	-4362
▁곳에서	-4363
▁세상을	-4364
▁조치를	-4365
소로	-4366
미디어	-4367
▁비용이	-4368
▁과도	-4369
▁후원	-4370
소에서	-4371
▁썼	-4372
그래	-4373
즈를	-4374
▁절차	-4375
▁사례가	-4376
공단	-4377
▁세워	-4378
▁소녀	-4379
▁아닐	-4380
▁미국은	-4381
▁전문가들은	-4382
(6	-4383
▁묵	-4384
▁두려	-4385
▁부진	-4386
▁장비	-4387
▁강하게	-4388
▁물건	-4389
▁출석	-4390
▁분위기	-4391
▁소식을	-4392
▁금감	-4393
▁아이가	-4394
▁학교에	-4395
▁소화	-4396
▁외에	-4397
▁지원하는	-4398
▁김성	-4399
▁적발	-4400
속도로	-4401
▁대화를	-4402
증권	-4403
▁그렇다면	-4404
조건	-4405
황이	-4406
▁돌려	-4407
▁모르는	-4408
▁가능성도	-4409
▁이어지고	-4410
부장	-4411
▁물건을	-4412
▁갖춘	-4413
▁돌파	-4414
▁손해	-4415
▁어떠한	-4416
주에	-4417
▁돈이	-4418
▁유발	-4419
▁가능합니다	-4420
▁당부	-4421
▁인하	-4422
▁방법은	-4423
▁몽골	-4424
▁승리	-4425
▁유입	-4426
▁보유한	-4427
▁불가피	-4428
▁올림픽	-4429
▁무역전쟁	-4430
사항	-4431
▁그건	-4432
▁종료	-4433
▁난민	-4434
▁출입	-4435
▁현상	-4436
시부터	-4437
▁뛰어난	-4438
▁트위터	-4439
▁학생이	-4440
▁않는다는	-4441
▁보일	-4442
▁수영	-4443
와는	-4444
월까지	-4445
해졌다	-4446
▁최초의	-4447
였습니다	-4448
∼1	-4449
이스	-4450
▁사립	-4451
▁주어	-4452
▁추세	-4453
▁업무를	-4454
▁그럴	-4455
▁조각	-4456
▁집으로	-4457
▁받아들이	-4458
만한	-4459
▁꿈을	-4460
▁말할	-4461
▁상위	-4462
▁한국이	-4463
물에	-4464
▁계좌	-4465
▁심지어	-4466
국민	-4467
▁부상	-4468
▁연령	-4469
▁계기로	-4470
▁가동	-4471
▁성격	-4472
▁적지	-4473
▁고려해	-4474
▁기분이	-4475
▁행동을	-4476
▁화장품	-4477
▁시작으로	-4478
·2	-4479
테크	-4480
▁가상	-4481
▁머리	-4482
▁국민의	-4483
▁참석했다	-4484
라서	-4485
여서	-4486
▁기회	-4487
▁사업이	-4488
▁여성이	-4489
름이	-4490
▁그중	-4491
▁시사	-4492
▁제외한	-4493
선수	-4494
액을	-4495
이던	-4496
▁농업	-4497
▁다수	-4498
▁찾고	-4499
▁늘고	-4500
▁인증	-4501
▁발송	-4502
▁수백	-4503
▁입은	-4504
▁시민들이	-4505
▁측면에서	-4506
▁마지막으로	-4507
산의	-4508
▁연합	-4509
▁이외	-4510
▁창의	-4511
▁곳으로	-4512
▁굉장히	-4513
▁숲	-4514
아버	-4515
▁가구	-4516
▁떠오	-4517
▁탁	-4518
가로	-4519
▁매체	-4520
▁포함된	-4521
▁1000	-4522
▁섭	-4523
주도	-4524
하라	-4525
해져	-4526
▁생성	-4527
▁자원	-4528
▁포착	-4529
▁국내외	-4530
▁방탄	-4531
▁변동	-4532
▁챔피언	-4533
▁샌	-4534
조가	-4535
▁독특	-4536
▁파괴	-4537
▁없어서	-4538
▁런	-4539
공동	-4540
국을	-4541
군은	-4542
등급	-4543
책을	-4544
▁백악	-4545
▁부르	-4546
▁않기	-4547
▁부품	-4548
▁시범	-4549
▁주장이	-4550
▁결승	-4551
▁불확	-4552
▁훌륭	-4553
▁적절한	-4554
▁돋	-4555
▁무대	-4556
▁수석	-4557
▁접촉	-4558
▁체육	-4559
단으로	-4560
▁정부와	-4561
보니	-4562
사이	-4563
▁끌고	-4564
▁혜택을	-4565
▁자연스럽게	-4566
계에	-4567
▁공포	-4568
▁공간을	-4569
▁외에도	-4570
▁질문에	-4571
▁높아지고	-4572
법은	-4573
▁익숙	-4574
▁핸드	-4575
▁이유다	-4576
▁거기	-4577
▁복귀	-4578
▁출판	-4579
▁역사를	-4580
▁목적으로	-4581
복을	-4582
▁우즈	-4583
▁질환	-4584
▁하나는	-4585
▁2009	-4586
▁과학기술	-4587
▁학생들의	-4588
▁즐거	-4589
사이트	-4590
▁당신과	-4591
▁하나가	-4592
다니	-4593
▁줘	-4594
봐야	-4595
▁모으	-4596
▁받게	-4597
닙니다	-4598
▁필요하다고	-4599
연맹	-4600
▁양성	-4601
▁연극	-4602
▁196	-4603
▁응원	-4604
▁제품의	-4605
▁2008	-4606
▁테니	-4607
▁않지만	-4608
▁확인하고	-4609
▁승인	-4610
다시	-4611
망을	-4612
▁상태로	-4613
▁방법으로	-4614
▁적극적인	-4615
시대	-4616
▁맞이	-4617
▁신체	-4618
▁채택	-4619
▁패턴	-4620
▁품질	-4621
▁예정입니다	-4622
구역	-4623
▁상업	-4624
▁초과	-4625
▁폐지	-4626
▁아빠	-4627
▁경우는	-4628
▁않아도	-4629
▁전투	-4630
▁몸을	-4631
▁재생	-4632
▁가격을	-4633
수한	-4634
였고	-4635
▁쓰레	-4636
▁기업들이	-4637
승을	-4638
▁경상	-4639
▁소설	-4640
▁집계	-4641
졌다는	-4642
란히	-4643
▁차가	-4644
당은	-4645
▁남녀	-4646
▁했다고	-4647
사일	-4648
▁가맹	-4649
▁강릉	-4650
▁분쟁	-4651
▁없기	-4652
▁구체적으로	-4653
로그	-4654
리면서	-4655
▁목표로	-4656
▁‘2018	-4657
▁본격적으로	-4658
조선	-4659
하셨	-4660
▁희생	-4661
▁체포	-4662
▁이해할	-4663
기지	-4664
▁고급	-4665
▁스티	-4666
▁사실은	-4667
▁하반기	-4668
▁공개했다	-4669
▁자아	-4670
▁위원장은	-4671
▁넷	-4672
▁렌	-4673
하니	-4674
▁비서	-4675
▁열린다	-4676
리티	-4677
▁재개	-4678
▁꽤	-4679
▁냄	-4680
가락	-4681
▁작년	-4682
해주는	-4683
▁급증	-4684
▁때가	-4685
▁연말	-4686
▁내용은	-4687
▁만들어진	-4688
하였습니다	-4689
▁매장	-4690
▁몰려	-4691
▁사용한	-4692
▁일정을	-4693
▁피해자	-4694
먼트	-4695
제와	-4696
▁포항	-4697
▁결코	-4698
▁다섯	-4699
▁화가	-4700
해서는	-4701
▁것보다	-4702
▁공연이	-4703
▁사람에게	-4704
조정	-4705
줬다	-4706
평화	-4707
▁들이	-4708
▁저널	-4709
▁분명히	-4710
▁분위기를	-4711
미터	-4712
▁보존	-4713
▁이미지	-4714
▁이어졌다	-4715
한데	-4716
▁옆에	-4717
▁철학	-4718
▁아버지	-4719
▁엄청난	-4720
▁이야기가	-4721
▁진화	-4722
인에게	-4723
▁개인의	-4724
▁자리에	-4725
처리	-4726
▁2,	-4727
▁과연	-4728
▁끊임	-4729
▁날짜	-4730
▁않았지만	-4731
▁임명	-4732
▁불확실	-4733
법인	-4734
숨을	-4735
시민	-4736
씨와	-4737
할지	-4738
▁김동	-4739
▁잘못된	-4740
▁묶	-4741
나마	-4742
▁현금	-4743
▁합격	-4744
▁쌀	-4745
피스	-4746
▁가해	-4747
▁대사	-4748
▁축소	-4749
▁종류의	-4750
▁본격적인	-4751
▁객관	-4752
▁내린	-4753
▁내세	-4754
▁배달	-4755
▁팀이	-4756
되었고	-4757
▁원인	-4758
▁방탄소년	-4759
▁해주	-4760
▁운동을	-4761
▁기대한다	-4762
▁사이에서	-4763
▁당사	-4764
▁소요	-4765
▁숨진	-4766
▁철도	-4767
▁회사가	-4768
▁금속	-4769
▁기후	-4770
▁충족	-4771
상품	-4772
▁넘겨	-4773
▁배터	-4774
▁유용	-4775
해왔다	-4776
▁안팎	-4777
▁쟁	-4778
▁올랐다	-4779
▁공공기관	-4780
▁흰	-4781
호는	-4782
▁그간	-4783
▁생물	-4784
▁적응	-4785
▁상태에서	-4786
무역	-4787
문은	-4788
▁지휘	-4789
▁영화는	-4790
▁팬들이	-4791
영이	-4792
▁넣어	-4793
▁저도	-4794
▁무엇이	-4795
▁비율이	-4796
▁어디서	-4797
개국	-4798
싱턴	-4799
직을	-4800
▁되기	-4801
▁텔레	-4802
았지만	-4803
건의	-4804
문에	-4805
퍼센	-4806
▁32	-4807
▁형사	-4808
지사	-4809
▁저지	-4810
▁했고	-4811
된다고	-4812
▁후보가	-4813
분간	-4814
치의	-4815
▁영양	-4816
▁찾은	-4817
▁이미지를	-4818
리어	-4819
판을	-4820
▁너희	-4821
▁유력	-4822
▁상반기	-4823
▁아시안게임	-4824
▁엑	-4825
▁출전	-4826
▁텍	-4827
▁펜	-4828
▁의식	-4829
▁폐기	-4830
성으로	-4831
축구	-4832
▁문의	-4833
▁법칙	-4834
▁주주	-4835
▁활용한	-4836
cm	-4837
▁털	-4838
말로	-4839
미를	-4840
▁파티	-4841
▁속도를	-4842
조원	-4843
▁물이	-4844
▁화면	-4845
오고	-4846
▁법정	-4847
▁운용	-4848
▁종목	-4849
▁충전	-4850
▁영향으로	-4851
안보	-4852
▁여겨	-4853
니터	-4854
이사	-4855
▁면접	-4856
▁무한	-4857
▁예능	-4858
▁기획재	-4859
▁유일한	-4860
▁생각해요	-4861
es	-4862
▁넥	-4863
▁건조	-4864
▁김정	-4865
▁넘게	-4866
▁수원	-4867
▁이중	-4868
▁인용	-4869
▁정착	-4870
▁훼손	-4871
▁아닙니다	-4872
▁풀이된다	-4873
계약	-4874
▁대답	-4875
▁되었	-4876
▁마약	-4877
▁결과에	-4878
▁공부를	-4879
약품	-4880
전거	-4881
▁법적	-4882
▁실내	-4883
직원	-4884
▁즉시	-4885
▁게임을	-4886
▁따뜻한	-4887
벤처	-4888
재단	-4889
▁단축	-4890
▁대폭	-4891
▁심리	-4892
▁조언	-4893
차는	-4894
▁부처	-4895
▁인력	-4896
▁소식이	-4897
▁목소리를	-4898
드로	-4899
▁겪고	-4900
▁멀리	-4901
▁능력이	-4902
▁올해는	-4903
위원회는	-4904
▁초등학교	-4905
▁나갈	-4906
▁식사	-4907
▁운행	-4908
▁생각했다	-4909
▁댄	-4910
일과	-4911
달라고	-4912
하지는	-4913
▁갈수록	-4914
▁구속영	-4915
▁방향을	-4916
▁도쿄	-4917
▁탓에	-4918
▁담아	-4919
▁봉사	-4920
▁키워	-4921
집니다	-4922
▁여의도	-4923
▁가끔	-4924
▁충격	-4925
▁환영	-4926
▁환경을	-4927
▁말한	-4928
▁한인	-4929
만명	-4930
▁동남	-4931
▁보급	-4932
▁착용	-4933
▁내용의	-4934
▁박근혜	-4935
▁전망이	-4936
▁칭	-4937
들어	-4938
▁연관	-4939
▁지출	-4940
▁최적	-4941
▁측이	-4942
▁폐쇄	-4943
▁교수가	-4944
▁세계적인	-4945
▁걸어	-4946
▁나이	-4947
▁뚜렷	-4948
▁인류	-4949
▁공무원	-4950
▁과정이	-4951
▁분야의	-4952
▁음악을	-4953
▁의지를	-4954
▁국회에서	-4955
80	-4956
구로	-4957
▁면역	-4958
▁법인	-4959
▁않으	-4960
하라고	-4961
하시는	-4962
▁가능할	-4963
▁이벤트	-4964
▁필요합니다	-4965
음악	-4966
▁기도	-4967
▁붙잡	-4968
▁죄송합니다	-4969
▁칸	-4970
단지	-4971
▁방지	-4972
▁선박	-4973
받았다	-4974
▁상당한	-4975
▁어디에	-4976
▁자유롭게	-4977
▁마치고	-4978
색을	-4979
전략	-4980
▁노인	-4981
▁붕괴	-4982
▁세대	-4983
▁종로	-4984
▁편안	-4985
▁붉	-4986
계는	-4987
▁신설	-4988
▁앞둔	-4989
▁할지	-4990
겠습니까	-4991
∼3	-4992
▁섞	-4993
▁제약	-4994
▁종종	-4995
▁연구를	-4996
▁쪽으로	-4997
▁현재의	-4998
▁분위기가	-4999
▁자리에서	-5000
▁않았습니다	-5001
선은	-5002
었다는	-5003
메달	-5004
주민	-5005
▁계약을	-5006
▁회장은	-5007
▁쥐	-5008
형의	-5009
▁소상공	-5010
▁어려울	-5011
▁충분한	-5012
▁빅데이터	-5013
건축	-5014
▁45	-5015
▁남성이	-5016
▁당연히	-5017
▁사이트	-5018
▁이같이	-5019
▁정보가	-5020
IC	-5021
it	-5022
▁도달	-5023
▁보편	-5024
▁양국	-5025
▁정비	-5026
▁않다는	-5027
▁1,000	-5028
카르	-5029
▁성능	-5030
▁한정	-5031
▁부담을	-5032
▁재미있	-5033
월드	-5034
▁소식	-5035
메이션	-5036
▁구간	-5037
▁하던	-5038
▁노래를	-5039
▁전략을	-5040
▁특성을	-5041
▁횡	-5042
▁말은	-5043
▁선진	-5044
▁150	-5045
▁풀어	-5046
터테인	-5047
▁제조업	-5048
▁참여해	-5049
▁관점에서	-5050
겁게	-5051
근로	-5052
▁맛있	-5053
▁미생	-5054
▁사회의	-5055
EO	-5056
▁동아	-5057
▁조기	-5058
렸습니다	-5059
▁갔다	-5060
▁명령	-5061
▁출근	-5062
하시면	-5063
▁다르다	-5064
▁유전자	-5065
표가	-5066
▁안보	-5067
▁위기	-5068
▁계기가	-5069
▁아이를	-5070
▁미국에서	-5071
워서	-5072
▁대리	-5073
▁보상	-5074
되기도	-5075
▁차지하는	-5076
로드	-5077
하실	-5078
▁90	-5079
▁예전	-5080
▁통상	-5081
티스트	-5082
▁논의가	-5083
▁개봉	-5084
▁언제나	-5085
구와	-5086
시즌	-5087
▁이승	-5088
라스틱	-5089
▁개발한	-5090
▁이전에	-5091
▁알려주세요	-5092
료로	-5093
매가	-5094
▁많고	-5095
▁천연	-5096
▁트렌	-5097
▁10%	-5098
▁광역	-5099
▁매각	-5100
▁의뢰	-5101
▁달하는	-5102
▁여성의	-5103
▁주민들이	-5104
▁방북	-5105
▁크고	-5106
▁들어간	-5107
▁춘	-5108
나게	-5109
실로	-5110
폰을	-5111
▁다르게	-5112
▁사우디	-5113
대상	-5114
직한	-5115
▁날이	-5116
▁관해	-5117
활동을	-5118
▁목표를	-5119
▁워싱턴	-5120
▁이용하는	-5121
▁깊이	-5122
▁테이	-5123
▁하더라도	-5124
금리	-5125
문의	-5126
▁CC	-5127
▁당초	-5128
▁신분	-5129
▁유해	-5130
▁추억	-5131
부터는	-5132
▁노력이	-5133
▁중심의	-5134
▁보여준다	-5135
▁십	-5136
▁보낼	-5137
▁스테	-5138
▁흡수	-5139
▁했다는	-5140
▁수준으로	-5141
▁경향이	-5142
▁부분은	-5143
▁사랑하는	-5144
▁몇몇	-5145
▁방사	-5146
▁입력	-5147
하였고	-5148
▁아무런	-5149
▁위하여	-5150
▁제주도	-5151
▁팽	-5152
▁선임	-5153
▁손님	-5154
▁스튜	-5155
▁검찰에	-5156
▁구조를	-5157
▁그만	-5158
▁기타	-5159
▁도덕	-5160
▁선사	-5161
▁예수	-5162
▁직원이	-5163
▁대변인은	-5164
▁전망된다	-5165
▁프리미엄	-5166
▁산불	-5167
▁선교	-5168
▁진보	-5169
키스탄	-5170
▁단순한	-5171
크를	-5172
▁맡은	-5173
▁매력	-5174
▁생겼	-5175
▁투자를	-5176
▁세계에서	-5177
▁주력	-5178
▁침해	-5179
▁편리	-5180
▁반대로	-5181
▁겹	-5182
▁닫	-5183
가능	-5184
상태	-5185
.5%	-5186
▁33	-5187
▁고마	-5188
▁실종	-5189
연구원	-5190
코리아	-5191
▁바람이	-5192
론이	-5193
세로	-5194
소한	-5195
▁차이	-5196
▁빗	-5197
▁2007	-5198
▁살해	-5199
▁베이징	-5200
▁스트레	-5201
▁무엇인지	-5202
▁존재하는	-5203
▁무기	-5204
릅니다	-5205
▁네이버	-5206
▁상태가	-5207
▁영어를	-5208
▁설문	-5209
▁텐데	-5210
▁영화의	-5211
▁튀	-5212
▁가시	-5213
▁권고	-5214
▁의도	-5215
▁과정에	-5216
▁기능이	-5217
▁냄새	-5218
▁돼요	-5219
▁맞게	-5220
▁색깔	-5221
기기	-5222
▁클라	-5223
▁20%	-5224
▁인간이	-5225
▁일하는	-5226
트리	-5227
▁“(	-5228
▁갖게	-5229
▁때부터	-5230
노총	-5231
률은	-5232
▁업종	-5233
▁일에	-5234
▁재산	-5235
▁주지	-5236
▁연구는	-5237
▁행사는	-5238
합의	-5239
화할	-5240
▁개설	-5241
▁유의	-5242
▁육성	-5243
▁추락	-5244
▁결과는	-5245
▁진행된다	-5246
▁학생들은	-5247
일의	-5248
▁걸려	-5249
▁비록	-5250
▁싫어	-5251
▁속도가	-5252
▁전화를	-5253
▁진행되는	-5254
감한	-5255
▁마주	-5256
▁마침	-5257
▁빠진	-5258
았어요	-5259
▁기간이	-5260
▁국민연금	-5261
▁나타나는	-5262
▁비즈니스	-5263
고기	-5264
발을	-5265
했어	-5266
▁36	-5267
▁강경	-5268
▁애니	-5269
▁각각의	-5270
▁독특한	-5271
▁모른다	-5272
▁휴대전	-5273
자리	-5274
▁늦게	-5275
▁맥락	-5276
▁스케	-5277
졌다고	-5278
▁관계자	-5279
▁모색	-5280
라운드	-5281
▁났	-5282
▁검은	-5283
▁근대	-5284
▁발급	-5285
▁피의	-5286
▁근육	-5287
▁자치	-5288
▁창원	-5289
▁탑승	-5290
▁것이고	-5291
▁부작용	-5292
수도	-5293
유를	-5294
▁영화가	-5295
친다	-5296
화학	-5297
▁활용할	-5298
▁그러므로	-5299
▁나쁜	-5300
▁감독의	-5301
▁사업에	-5302
▁이르는	-5303
▁기다리고	-5304
▁밟	-5305
▁밴	-5306
말을	-5307
분야	-5308
▁모니터	-5309
▁이어지는	-5310
타임	-5311
▁194	-5312
▁인사를	-5313
▁정확하게	-5314
마를	-5315
▁전파	-5316
▁획득	-5317
▁시간은	-5318
▁생각하고	-5319
▁야구	-5320
▁뿐이다	-5321
▁맹	-5322
됨에	-5323
▁데다	-5324
▁사찰	-5325
▁스웨	-5326
▁연휴	-5327
▁밖으로	-5328
▁없었던	-5329
방에	-5330
▁멋진	-5331
▁반응이	-5332
▁경기에서	-5333
▁진행하는	-5334
▁대거	-5335
▁유행	-5336
▁활약	-5337
IS	-5338
트랙	-5339
해진다	-5340
▁사건의	-5341
▁스타트업	-5342
11	-5343
고는	-5344
▁건너	-5345
▁미칠	-5346
▁뮤지컬	-5347
▁리그	-5348
▁이래	-5349
▁판단했다	-5350
팀은	-5351
▁오염	-5352
▁하노	-5353
▁것이라	-5354
▁친환경	-5355
▁능력	-5356
▁재난	-5357
▁조용	-5358
했는지	-5359
▁아이템	-5360
객이	-5361
석은	-5362
운영	-5363
▁38	-5364
▁IT	-5365
▁대립	-5366
▁임상	-5367
▁조심	-5368
▁대학생	-5369
▁복잡한	-5370
어의	-5371
화한	-5372
▁DNA	-5373
▁우수한	-5374
▁이뤄질	-5375
▁서비스가	-5376
일간	-5377
▁널리	-5378
▁도심	-5379
▁반려	-5380
▁셋째	-5381
▁얻고	-5382
시간이	-5383
▁수사에	-5384
▁압수수	-5385
▁팬들의	-5386
사랑	-5387
자금	-5388
▁그날	-5389
▁동기	-5390
▁분노	-5391
▁거에요	-5392
▁기대하고	-5393
▁진행되고	-5394
▁아들	-5395
▁종전	-5396
조사를	-5397
▁그에게	-5398
▁진정한	-5399
70	-5400
▁박물	-5401
▁지상	-5402
전으로	-5403
▁공개한	-5404
▁상태를	-5405
▁하는지	-5406
드릴게요	-5407
▁현재까지	-5408
색이	-5409
점과	-5410
▁노사	-5411
▁공간이	-5412
▁평가했다	-5413
▁덮	-5414
실은	-5415
함과	-5416
▁극단	-5417
▁중구	-5418
▁하자	-5419
▁멜	-5420
산물	-5421
치에	-5422
▁공직	-5423
▁기각	-5424
▁단기	-5425
▁술을	-5426
거든요	-5427
▁맞춤형	-5428
▁아티스트	-5429
모델	-5430
의료	-5431
층이	-5432
평양	-5433
힌다	-5434
회의에서	-5435
치로	-5436
기관이	-5437
▁갈등이	-5438
▁선생님	-5439
▁절차를	-5440
▁해당하는	-5441
시와	-5442
안의	-5443
▁그다	-5444
▁노후	-5445
▁제목	-5446
▁비판했다	-5447
▁최근에는	-5448
▁친구들과	-5449
▁느꼈	-5450
▁거라고	-5451
▁대체로	-5452
▁상태다	-5453
▁지자체	-5454
층의	-5455
▁그러한	-5456
▁맛이	-5457
▁부채	-5458
▁쉬운	-5459
▁현행	-5460
▁마친	-5461
▁수리	-5462
▁기대를	-5463
▁시기에	-5464
▁있었는데	-5465
권은	-5466
서와	-5467
▁동네	-5468
▁너무나	-5469
▁유치원	-5470
▁의원의	-5471
▁행복한	-5472
길이	-5473
주기	-5474
▁파견	-5475
등학생	-5476
▁소리를	-5477
▁콩	-5478
제한	-5479
▁52	-5480
▁것이란	-5481
▁제품에	-5482
▁위원장의	-5483
재로	-5484
▁합성	-5485
▁기준을	-5486
▁삼성바이오	-5487
▁관여	-5488
하기는	-5489
하기를	-5490
▁미래를	-5491
▁식으로	-5492
▁대부분이	-5493
▁전망했다	-5494
▁정상회담을	-5495
생산	-5496
▁된다고	-5497
▁시선을	-5498
▁증가한	-5499
▁가계	-5500
▁대선	-5501
▁반박	-5502
▁자전거	-5503
▁지속적인	-5504
절을	-5505
▁EU	-5506
▁자살	-5507
▁한글	-5508
▁합리	-5509
▁가족이	-5510
▁매출이	-5511
▁올렸다	-5512
▁제공한다	-5513
▁공을	-5514
▁며칠	-5515
역에서	-5516
▁물리학	-5517
▁사업은	-5518
ED	-5519
▁34	-5520
▁듯한	-5521
▁뮤직	-5522
▁스토리	-5523
▁플라스틱	-5524
원한	-5525
▁위안	-5526
▁주에	-5527
▁원인을	-5528
즈가	-5529
▁첨단	-5530
▁아예	-5531
▁저항	-5532
주년을	-5533
▁거대한	-5534
▁국가의	-5535
▁방문한	-5536
▁좋아요	-5537
▁콘서트	-5538
▁계속해서	-5539
▁진행하고	-5540
▁옳	-5541
아서	-5542
용이	-5543
▁가난	-5544
▁산하	-5545
▁인쇄	-5546
▁창작	-5547
았는데	-5548
▁잇따라	-5549
▁중학교	-5550
▁이번에는	-5551
받침	-5552
버그	-5553
서로	-5554
식과	-5555
청에	-5556
▁취득	-5557
▁사용자	-5558
▁조금씩	-5559
·4	-5560
▁옹	-5561
▁과제	-5562
▁단속	-5563
▁시리즈	-5564
▁가질	-5565
▁올바	-5566
▁직무	-5567
▁평가가	-5568
양이	-5569
호텔	-5570
▁투명	-5571
▁내렸다	-5572
▁아니고	-5573
마자	-5574
역이	-5575
▁내내	-5576
▁시는	-5577
▁융합	-5578
▁곧바로	-5579
▁다음달	-5580
▁사고를	-5581
▁끊임없이	-5582
▁증가하고	-5583
공개	-5584
기능	-5585
▁마이	-5586
▁일각	-5587
▁점유	-5588
졌지만	-5589
▁경쟁이	-5590
▁비판이	-5591
▁자영업	-5592
드의	-5593
모를	-5594
▁사기	-5595
▁속도	-5596
▁아니라는	-5597
주년	-5598
▁지역을	-5599
▁총리가	-5600
다운	-5601
순환	-5602
▁산림	-5603
▁신선	-5604
▁유니	-5605
베이	-5606
▁깨끗	-5607
▁한층	-5608
▁높이는	-5609
▁세계를	-5610
▁원인이	-5611
▁사실이다	-5612
▁아프리카	-5613
동에	-5614
▁김경	-5615
▁당일	-5616
▁대량	-5617
▁느끼는	-5618
▁활동이	-5619
가스	-5620
단과	-5621
시로	-5622
판에	-5623
▁발사	-5624
▁좌우	-5625
였지만	-5626
▁달라고	-5627
kg	-5628
판이	-5629
▁나설	-5630
▁신한	-5631
▁이로	-5632
▁죽음	-5633
화하고	-5634
▁이익을	-5635
▁케이팝	-5636
스플레이	-5637
가와	-5638
산은	-5639
▁너를	-5640
▁대다	-5641
▁미중	-5642
▁성인	-5643
것도	-5644
▁점심	-5645
▁영향이	-5646
▁보입니다	-5647
감과	-5648
놓고	-5649
▁무관	-5650
▁계획이	-5651
▁단백질	-5652
▁만나는	-5653
▁문제의	-5654
▁생활을	-5655
▁좋습니다	-5656
▁지방선거	-5657
PO	-5658
여명의	-5659
▁시대에	-5660
▁이들을	-5661
▁이상을	-5662
본다	-5663
프가	-5664
▁남부	-5665
▁도출	-5666
▁심의	-5667
▁씨는	-5668
▁한화	-5669
월에는	-5670
▁건강한	-5671
▁얼굴을	-5672
▁주장을	-5673
▁초점을	-5674
▁북미정상회담	-5675
CC	-5676
결을	-5677
▁데이	-5678
▁선출	-5679
▁최우	-5680
위에서	-5681
하다가	-5682
▁간담	-5683
▁완전	-5684
▁요금	-5685
▁사고로	-5686
▁유사한	-5687
배가	-5688
화될	-5689
▁냈다	-5690
▁목격	-5691
▁전후	-5692
▁존중	-5693
▁의사를	-5694
▁아니지만	-5695
▁지방자치	-5696
.9%	-5697
▁평생	-5698
▁되면서	-5699
▁머리를	-5700
▁일반적인	-5701
느라	-5702
▁막기	-5703
▁이렇	-5704
▁지니	-5705
▁않았던	-5706
▁열었다	-5707
▁회사는	-5708
▁회사에	-5709
ic	-5710
라의	-5711
연한	-5712
연히	-5713
▁깜짝	-5714
▁시상	-5715
▁청소	-5716
▁곳이다	-5717
▁대표하는	-5718
▁소프트웨어	-5719
정과	-5720
▁가스	-5721
▁고교	-5722
▁기원	-5723
▁넓은	-5724
하기에	-5725
▁역사적	-5726
북한	-5727
학습	-5728
▁『	-5729
▁들려	-5730
▁몸이	-5731
▁특검	-5732
▁다음에	-5733
▁앞으로도	-5734
▁신흥	-5735
▁이게	-5736
▁참여할	-5737
▁상호작용	-5738
르지	-5739
▁면세	-5740
▁400	-5741
▁지금도	-5742
▁Y	-5743
망이	-5744
님께서	-5745
▁스크린	-5746
미술	-5747
석의	-5748
화되고	-5749
▁정도가	-5750
▁진행할	-5751
▁아니었다	-5752
▁기자회견을	-5753
차별	-5754
▁초래	-5755
올림픽	-5756
▁당부했다	-5757
매를	-5758
세에	-5759
▁검출	-5760
▁돋보	-5761
▁동해	-5762
▁매니	-5763
▁보지	-5764
스티벌	-5765
스포츠	-5766
▁스웨덴	-5767
5%	-5768
EC	-5769
인권	-5770
회장	-5771
식에서	-5772
▁뜻이다	-5773
▁일종의	-5774
▁텔레비	-5775
▁꺾	-5776
▁그저	-5777
▁말에	-5778
▁무려	-5779
▁경제가	-5780
▁뒷받침	-5781
▁목숨을	-5782
▁연구가	-5783
▁애니메이션	-5784
경쟁	-5785
신의	-5786
▁마감	-5787
해지는	-5788
▁미국에	-5789
▁준비를	-5790
▁빌려	-5791
▁서서	-5792
▁일방	-5793
▁합류	-5794
▁비디오	-5795
▁세계의	-5796
▁아마존	-5797
▁올라가	-5798
▁쾌	-5799
럭시	-5800
에너지	-5801
▁확실히	-5802
로의	-5803
자산	-5804
▁걸릴	-5805
▁문건	-5806
▁일대	-5807
▁문화가	-5808
▁한계가	-5809
▁사용하고	-5810
▁닿	-5811
▁방해	-5812
관계를	-5813
시까지	-5814
었으며	-5815
정부가	-5816
▁대하여	-5817
▁르	-5818
지법	-5819
▁문학	-5820
▁발의	-5821
▁어른	-5822
▁엘리	-5823
▁원활	-5824
▁종사	-5825
▁흔히	-5826
억달러	-5827
절한	-5828
▁내게	-5829
▁방영	-5830
▁성남	-5831
▁들어오	-5832
▁방식이	-5833
▁위험이	-5834
▁1990	-5835
양의	-5836
▁농촌	-5837
▁대처	-5838
▁받으	-5839
▁발효	-5840
▁지향	-5841
▁출동	-5842
▁50%	-5843
▁보내는	-5844
하더라도	-5845
션이	-5846
이상	-5847
▁동생	-5848
▁모임	-5849
▁물러	-5850
▁일치	-5851
▁기록한	-5852
공업	-5853
이하	-5854
종합	-5855
▁동작	-5856
▁맞지	-5857
▁서초	-5858
▁오프	-5859
▁장식	-5860
들이다	-5861
하기가	-5862
▁사진이	-5863
▁즐거운	-5864
▁국회의원	-5865
▁쳐	-5866
물과	-5867
▁내리	-5868
▁스피	-5869
▁시점	-5870
당국은	-5871
▁번째로	-5872
▁현장에	-5873
▁자신들의	-5874
사람	-5875
쇼핑	-5876
지구	-5877
▁왼쪽	-5878
▁KBS	-5879
▁없으면	-5880
▁떼	-5881
▁간편	-5882
▁수준을	-5883
▁화려한	-5884
▁민주주의	-5885
드려	-5886
사건	-5887
자도	-5888
체로	-5889
▁북측	-5890
▁진료	-5891
▁떨어지는	-5892
▁틈	-5893
자유	-5894
화점	-5895
▁그랬	-5896
▁데는	-5897
▁모은	-5898
▁한마	-5899
시장이	-5900
▁것들이	-5901
▁서울중앙	-5902
▁청와대가	-5903
층에	-5904
▁신호	-5905
▁분야에	-5906
▁위에서	-5907
▁재판에	-5908
하러	-5909
.2%	-5910
▁KB	-5911
▁않을까	-5912
▁지역은	-5913
▁중국에서	-5914
광역	-5915
이와	-5916
인터	-5917
졌던	-5918
.7%	-5919
▁봤다	-5920
▁상용	-5921
▁어쩌	-5922
선으로	-5923
▁받는다	-5924
건강	-5925
부로	-5926
워요	-5927
▁개성	-5928
▁곳을	-5929
▁나섰	-5930
▁생각에	-5931
▁소비자가	-5932
?"	-5933
심의	-5934
평등	-5935
▁이슬	-5936
▁무료로	-5937
▁발견된	-5938
▁마찬가지	-5939
▁프로그램이	-5940
문학	-5941
▁경계	-5942
▁스위	-5943
▁어깨	-5944
▁보내주	-5945
▁사용해	-5946
▁죄송하지만	-5947
간에	-5948
검사	-5949
▁매달	-5950
▁몰랐	-5951
신가요	-5952
▁맛있는	-5953
▁에너지를	-5954
▁학교에서	-5955
▁잉	-5956
▁휩	-5957
렸고	-5958
여야	-5959
▁만났	-5960
▁비례	-5961
▁얻은	-5962
▁고객의	-5963
▁동영상	-5964
▁환자가	-5965
료는	-5966
사령	-5967
차로	-5968
파가	-5969
▁높게	-5970
▁세계적으로	-5971
2)	-5972
▁아베	-5973
▁찾기	-5974
▁편성	-5975
▁가이드	-5976
▁노동자	-5977
집을	-5978
통을	-5979
▁가짜	-5980
▁독자	-5981
▁맞은	-5982
▁그림을	-5983
▁행사에	-5984
▁CCTV	-5985
▁제공하고	-5986
▁직원들이	-5987
▁차지했다	-5988
▁크리스마	-5989
▁압도	-5990
▁인재	-5991
▁일관	-5992
▁정책이	-5993
감은	-5994
설이	-5995
위와	-5996
터를	-5997
▁가속	-5998
▁본질	-5999
▁선도	-6000
억원의	-6001
▁기온이	-6002
▁소리가	-6003
▁아무도	-6004
중이	-6005
▁판문	-6006
▁만든다	-6007
▁언급한	-6008
▁국내에서	-6009
▁국무위원장이	-6010
le	-6011
▁담고	-6012
▁벤처	-6013
▁위축	-6014
▁후속	-6015
▁분석한	-6016
▁자세히	-6017
▁다수의	-6018
▁줄어든	-6019
▁아무것도	-6020
▁샀	-6021
그러	-6022
더라	-6023
역에	-6024
▁명시	-6025
▁생길	-6026
▁신입	-6027
▁오직	-6028
▁추적	-6029
▁너에게	-6030
▁성장을	-6031
▁수준이	-6032
짜리	-6033
▁집값	-6034
▁출산	-6035
회의를	-6036
▁내다봤다	-6037
▁뼈	-6038
내기	-6039
중국	-6040
▁미팅	-6041
▁배려	-6042
▁지분	-6043
▁협상이	-6044
▁훌륭한	-6045
▁저널리즘	-6046
▁조사하고	-6047
밀한	-6048
보자	-6049
실한	-6050
주와	-6051
진과	-6052
▁문자	-6053
▁합동	-6054
▁변호사	-6055
12	-6056
소비	-6057
▁몸에	-6058
▁못한다	-6059
례를	-6060
미는	-6061
하길	-6062
▁비대	-6063
었으나	-6064
▁사이버	-6065
▁전까지	-6066
인들에게	-6067
께서	-6068
노조	-6069
▁간에	-6070
▁이집	-6071
사업을	-6072
▁적어도	-6073
▁중에는	-6074
▁좋겠어요	-6075
해왔	-6076
▁저작	-6077
▁관련이	-6078
▁기업은	-6079
▁치열한	-6080
.1%	-6081
▁보증	-6082
▁저를	-6083
▁국가가	-6084
▁않아서	-6085
▁알려주	-6086
▁작업이	-6087
▁때문이에요	-6088
▁인터뷰에서	-6089
▁햇	-6090
▁날씨	-6091
▁논쟁	-6092
▁병역	-6093
▁부각	-6094
▁붉은	-6095
▁시공	-6096
▁포털	-6097
▁똑같은	-6098
▁많아서	-6099
▁우리를	-6100
▁분석이다	-6101
▁멘	-6102
끄러	-6103
▁날씨가	-6104
▁마세요	-6105
▁닭	-6106
니어	-6107
▁과목	-6108
▁단위	-6109
▁퇴직	-6110
▁나라의	-6111
▁하겠다	-6112
▁국가대표	-6113
IT	-6114
▁펴	-6115
다란	-6116
종이	-6117
▁없애	-6118
▁주제	-6119
▁펀드	-6120
으로도	-6121
▁미래에	-6122
▁보고서	-6123
▁사전에	-6124
▁서울대	-6125
▁제시한	-6126
▁이루어진	-6127
재생	-6128
풍이	-6129
▁미군	-6130
▁신앙	-6131
된다면	-6132
▁개념을	-6133
▁행위를	-6134
이니	-6135
▁균형	-6136
▁세금	-6137
▁약간	-6138
▁접속	-6139
re	-6140
▁떡	-6141
지요	-6142
.8%	-6143
▁법안	-6144
▁정지	-6145
▁지목	-6146
▁늘어날	-6147
▁발전을	-6148
▁시대의	-6149
▁움직임	-6150
▁질문을	-6151
▁한다면	-6152
▁보유하고	-6153
우러	-6154
▁IC	-6155
▁물에	-6156
▁응급	-6157
▁허가	-6158
클럽	-6159
▁등도	-6160
▁많지	-6161
▁메모	-6162
▁보자	-6163
보세요	-6164
으니까	-6165
정부의	-6166
▁현상을	-6167
▁경쟁력을	-6168
▁들어가는	-6169
▁부정적인	-6170
▁일자리를	-6171
▁t	-6172
▁진행될	-6173
▁풍부한	-6174
래요	-6175
▁공화	-6176
▁요인	-6177
▁출장	-6178
시키기	-6179
▁가격은	-6180
▁일주일	-6181
▁좋겠다	-6182
▁곁	-6183
▁엉	-6184
대문	-6185
▁애초	-6186
▁학술	-6187
하는지	-6188
.3%	-6189
▁라인	-6190
▁오지	-6191
겠네요	-6192
▁나선다	-6193
▁부분에	-6194
(7	-6195
스테	-6196
.6%	-6197
▁김현	-6198
▁받기	-6199
▁원을	-6200
▁테러	-6201
▁나오지	-6202
▁이뤄진	-6203
하였으며	-6204
▁추진하는	-6205
여행	-6206
해줄	-6207
▁듣는	-6208
▁불어	-6209
▁전형	-6210
▁최신	-6211
▁허위	-6212
심에서	-6213
15	-6214
이한	-6215
.4%	-6216
▁살인	-6217
▁시가	-6218
▁직전	-6219
▁책은	-6220
▁태권	-6221
데이트	-6222
▁195	-6223
▁위원장	-6224
▁개인정보	-6225
각을	-6226
▁상임	-6227
▁없게	-6228
▁토지	-6229
시킨다	-6230
▁서울의	-6231
▁진행한	-6232
기록	-6233
일보	-6234
정규	-6235
피해	-6236
▁빛을	-6237
▁찍은	-6238
되는데	-6239
▁거리가	-6240
▁국방부	-6241
▁담겼다	-6242
▁저렴한	-6243
현이	-6244
▁이명	-6245
▁클래	-6246
▁쫓	-6247
▁느낀	-6248
▁안녕	-6249
▁우울	-6250
▁기록을	-6251
렸던	-6252
▁걸린	-6253
▁손에	-6254
유치원	-6255
은행이	-6256
▁광고를	-6257
▁주변에	-6258
▁점에	-6259
▁간단한	-6260
급을	-6261
▁떠난	-6262
▁일시	-6263
▁자발	-6264
억원이	-6265
▁사례를	-6266
▁업체가	-6267
▁제도를	-6268
▁어렵다는	-6269
▁제외하고	-6270
▁증가했다	-6271
st	-6272
▁꼼	-6273
심한	-6274
▁가깝	-6275
▁가리	-6276
▁브리	-6277
▁여부	-6278
▁운송	-6279
▁재활	-6280
▁종이	-6281
▁쇼핑몰	-6282
▁신고를	-6283
▁있을까	-6284
▁가능성은	-6285
▁낯	-6286
▁65	-6287
▁간호	-6288
▁겪는	-6289
▁고향	-6290
▁국경	-6291
▁김태	-6292
▁달아	-6293
▁데려	-6294
▁런던	-6295
▁채권	-6296
▁테마	-6297
▁협약	-6298
▁없는데	-6299
비의	-6300
행한	-6301
▁뒤를	-6302
▁석탄	-6303
▁화합	-6304
카르타	-6305
▁감정을	-6306
▁증상이	-6307
회와	-6308
▁김종	-6309
▁의결	-6310
▁촉진	-6311
▁주목을	-6312
보건	-6313
았을	-6314
자본	-6315
▁마시	-6316
▁몰아	-6317
▁30%	-6318
▁부장판	-6319
▁전기차	-6320
▁차이를	-6321
▁회장의	-6322
▁뚫	-6323
범위	-6324
속에	-6325
▁추석	-6326
▁라디오	-6327
▁수익을	-6328
▁제공할	-6329
▁토요일	-6330
▁대통령을	-6331
▁입장이다	-6332
▁궤	-6333
▁맑	-6334
▁빵	-6335
로나	-6336
악의	-6337
▁고소	-6338
▁받아야	-6339
▁아침에	-6340
▁즐기는	-6341
▁업데이트	-6342
늦게	-6343
미나	-6344
이즈	-6345
▁내지	-6346
▁소수	-6347
▁보면서	-6348
끼리	-6349
▁들을	-6350
▁유효	-6351
▁충청	-6352
심으로	-6353
▁가져다	-6354
▁음주운	-6355
▁이름은	-6356
▁훈	-6357
포를	-6358
호의	-6359
▁깨달	-6360
▁폭로	-6361
이라서	-6362
▁대책을	-6363
▁배우는	-6364
▁음식이	-6365
▁낫	-6366
사법	-6367
지수	-6368
▁쓰러	-6369
▁엄격	-6370
▁의지	-6371
▁한미	-6372
▁관측이	-6373
▁주었다	-6374
▁중국은	-6375
▁아니라고	-6376
고에	-6377
카이	-6378
▁37	-6379
▁고대	-6380
▁삭제	-6381
▁재능	-6382
▁찬성	-6383
▁표면	-6384
기에는	-6385
▁아마도	-6386
▁일정이	-6387
▁필요할	-6388
▁모습으로	-6389
▁켜	-6390
▁남겨	-6391
▁얻어	-6392
▁입법	-6393
▁진정	-6394
▁착수	-6395
▁얘기를	-6396
▁최소한	-6397
▁살펴보면	-6398
▁막을	-6399
▁답했다	-6400
▁당분간	-6401
▁자카르타	-6402
지검	-6403
▁매입	-6404
▁시급	-6405
▁즉각	-6406
▁지내	-6407
▁나한테	-6408
▁모델을	-6409
▁보았다	-6410
▁성폭력	-6411
▁이슬람	-6412
▁고용노동	-6413
▁영업이익	-6414
-2	-6415
▁웨	-6416
렉시	-6417
▁금강	-6418
▁노무	-6419
▁번도	-6420
▁봐야	-6421
▁수면	-6422
▁용산	-6423
되거나	-6424
▁오래된	-6425
▁커다란	-6426
▁현대차	-6427
▁100%	-6428
▁성공적으로	-6429
▁멈추	-6430
▁부당	-6431
▁이정	-6432
구에서	-6433
▁높았다	-6434
▁많습니다	-6435
철도	-6436
▁PC	-6437
▁무더	-6438
▁연락을	-6439
▁일어나는	-6440
모가	-6441
주행	-6442
치료	-6443
터가	-6444
▁묘사	-6445
▁부서	-6446
▁유동	-6447
▁품목	-6448
시간을	-6449
▁김씨는	-6450
▁변화에	-6451
▁얘기다	-6452
▁어우러	-6453
▁이후에	-6454
▁원내대표는	-6455
비로	-6456
▁작품이	-6457
▁텍스트	-6458
되었으며	-6459
▁문화예술	-6460
천만	-6461
▁어때	-6462
▁입원	-6463
주시기	-6464
▁조사한	-6465
▁이해하고	-6466
▁갖춰	-6467
▁주가	-6468
▁치러	-6469
▁한때	-6470
▁드러난	-6471
▁패스트	-6472
▁주장하는	-6473
▁공익	-6474
▁나은	-6475
▁들은	-6476
▁빨간	-6477
당에서	-6478
레이드	-6479
억원으로	-6480
놨다	-6481
설팅	-6482
파이	-6483
해양	-6484
회계	-6485
▁그걸	-6486
▁대외	-6487
▁양측	-6488
▁기사를	-6489
▁조사됐다	-6490
심사	-6491
▁중반	-6492
관계가	-6493
▁수사가	-6494
방의	-6495
스턴	-6496
온다	-6497
▁누적	-6498
▁당한	-6499
만은	-6500
▁보내고	-6501
▁아들이	-6502
▁최근에	-6503
▁편지를	-6504
됐습니다	-6505
AI	-6506
평균	-6507
▁계절	-6508
▁기무	-6509
리에서	-6510
▁오른쪽	-6511
▁정규직	-6512
▁특유의	-6513
ou	-6514
가격	-6515
골을	-6516
대사	-6517
아의	-6518
▁외무	-6519
▁이주	-6520
▁기대가	-6521
▁준비가	-6522
▁압수수색	-6523
▁영향력을	-6524
▁링	-6525
▁방어	-6526
어지고	-6527
▁늘었다	-6528
▁필요로	-6529
▁띠	-6530
분석	-6531
▁시간과	-6532
센터에서	-6533
권과	-6534
문제	-6535
크가	-6536
▁돌입	-6537
▁메르	-6538
▁비트	-6539
▁선적	-6540
▁오면	-6541
관으로	-6542
▁내놓은	-6543
▁발언을	-6544
▁분석을	-6545
▁손해배	-6546
남도	-6547
린이	-6548
선과	-6549
▁감상	-6550
▁잠을	-6551
▁정식	-6552
▁같았다	-6553
▁근처에	-6554
▁둘러싸	-6555
▁무대에	-6556
▁있다며	-6557
▁제출한	-6558
▁지금의	-6559
비와	-6560
▁노트	-6561
▁무릎	-6562
▁이룬	-6563
았다고	-6564
▁고개를	-6565
▁공정거래	-6566
▁어려움이	-6567
▁친구들이	-6568
▁하나님의	-6569
▁겉	-6570
결정	-6571
▁배가	-6572
▁작곡	-6573
▁함유	-6574
단체가	-6575
▁사람과	-6576
▁대한항공	-6577
▁확인했다	-6578
위기	-6579
▁믿고	-6580
▁사물	-6581
▁세상	-6582
▁지표	-6583
▁피곤	-6584
스토랑	-6585
▁갤럭시	-6586
▁끝나고	-6587
고용	-6588
▁강아	-6589
▁맡고	-6590
▁서명	-6591
▁아우	-6592
▁웹툰	-6593
▁사건은	-6594
▁세상에	-6595
▁특징을	-6596
▁제기됐다	-6597
신은	-6598
▁39	-6599
▁신임	-6600
▁징계	-6601
되도록	-6602
보기	-6603
얀마	-6604
전과	-6605
타운	-6606
▁식민	-6607
▁컬러	-6608
됐으며	-6609
▁아름답	-6610
▁기획재정부	-6611
▁쇠	-6612
▁엠	-6613
담을	-6614
질의	-6615
히고	-6616
▁예외	-6617
▁높이고	-6618
▁젊은이	-6619
▁지식을	-6620
▁지원이	-6621
▁연구원은	-6622
정치	-6623
태를	-6624
학이	-6625
ing	-6626
▁비싸	-6627
▁갖추고	-6628
▁기업에	-6629
▁리스트	-6630
▁역량을	-6631
소송	-6632
어질	-6633
▁심한	-6634
▁올랐	-6635
▁세월호	-6636
위원장이	-6637
▁스튜디오	-6638
▁이해하는	-6639
포먼	-6640
프를	-6641
학자	-6642
▁부적	-6643
▁아쉽	-6644
▁안정적인	-6645
▁드리겠습니다	-6646
MW	-6647
기념	-6648
로소	-6649
분쟁	-6650
지난	-6651
▁탄소	-6652
▁진행됐다	-6653
FC	-6654
등록	-6655
▁본인이	-6656
▁어린이집	-6657
내가	-6658
년도	-6659
▁역량	-6660
잖아요	-6661
▁이곳은	-6662
▁이재명	-6663
▁테이블	-6664
▁현재는	-6665
▁협상을	-6666
▁1980	-6667
디언	-6668
뷰티	-6669
웠던	-6670
티즌	-6671
▁크로	-6672
▁비행기	-6673
▁특별히	-6674
형은	-6675
▁대안	-6676
▁바뀐	-6677
▁비율	-6678
▁올리	-6679
▁넘치는	-6680
▁사건에	-6681
▁없도록	-6682
▁투자가	-6683
25	-6684
받지	-6685
자연	-6686
도에서	-6687
▁교육과	-6688
▁코리아	-6689
▁포스코	-6690
24	-6691
수요	-6692
▁다운	-6693
▁야외	-6694
▁호응	-6695
▁리스크	-6696
▁안전한	-6697
▁조건을	-6698
놓은	-6699
무원	-6700
실과	-6701
▁대목	-6702
▁더해	-6703
▁불을	-6704
▁승용	-6705
▁유족	-6706
▁청약	-6707
▁컸다	-6708
▁퇴근	-6709
산화탄	-6710
생활을	-6711
▁거기에	-6712
▁국민이	-6713
▁느낌이	-6714
▁모으고	-6715
▁부정적	-6716
▁소송을	-6717
▁시대를	-6718
▁흐름을	-6719
▁운영하고	-6720
▁을	-6721
렬한	-6722
세의	-6723
허가	-6724
▁공동체	-6725
▁문화의	-6726
▁2005	-6727
▁레스토랑	-6728
▁존재한다	-6729
▁앓	-6730
·18	-6731
▁방치	-6732
연구소	-6733
▁급격히	-6734
▁의지가	-6735
▁중국에	-6736
프로그램	-6737
봉사	-6738
재는	-6739
pop	-6740
▁기름	-6741
▁명절	-6742
▁세탁	-6743
▁진상	-6744
비디오	-6745
▁MBC	-6746
▁끝까지	-6747
▁속도로	-6748
▁이어진	-6749
▁인식이	-6750
▁일본이	-6751
▁들어갔다	-6752
국인	-6753
버트	-6754
▁미만	-6755
▁재료	-6756
▁과도한	-6757
▁안으로	-6758
▁종로구	-6759
▁덩	-6760
부문	-6761
▁시나	-6762
▁문화적	-6763
▁입장이	-6764
▁2006	-6765
▁재판부는	-6766
드에	-6767
친구	-6768
▁치매	-6769
▁금요일	-6770
▁기준이	-6771
▁발생해	-6772
▁예산을	-6773
▁냈	-6774
액은	-6775
져서	-6776
▁고전	-6777
▁논문	-6778
▁대우	-6779
▁도는	-6780
▁상생	-6781
▁유권	-6782
▁이스	-6783
▁접어	-6784
▁추모	-6785
▁항소	-6786
▁별다른	-6787
▁병원에	-6788
▁성공을	-6789
▁역할이	-6790
▁늘어나고	-6791
▁거두	-6792
▁났다	-6793
▁새해	-6794
▁세운	-6795
▁제정	-6796
▁크기	-6797
▁확신	-6798
법으로	-6799
씨에게	-6800
∼201	-6801
▁결론을	-6802
▁금메달	-6803
▁장면이	-6804
▁현장을	-6805
▁받았습니다	-6806
TA	-6807
백을	-6808
조직	-6809
체험	-6810
▁가요	-6811
▁유연	-6812
▁장난	-6813
▁조달	-6814
▁통보	-6815
▁투어	-6816
로서의	-6817
사들의	-6818
▁지적이다	-6819
▁기본적으로	-6820
▁급등	-6821
▁맡아	-6822
▁무용	-6823
▁세균	-6824
▁임신	-6825
▁증언	-6826
▁탑재	-6827
자들과	-6828
▁비교해	-6829
▁중국과	-6830
▁태도를	-6831
▁빙	-6832
▁옵	-6833
국과	-6834
루킹	-6835
점검	-6836
▁감시	-6837
▁권력	-6838
▁극대	-6839
▁양의	-6840
▁파이	-6841
▁했을	-6842
국에서	-6843
▁것이며	-6844
▁여기는	-6845
▁활동에	-6846
▁있었다고	-6847
자료	-6848
▁뒤로	-6849
▁숙박	-6850
▁잊지	-6851
▁적어	-6852
▁커질	-6853
▁해명	-6854
▁홀로	-6855
▁그나마	-6856
▁세계에	-6857
▁승리를	-6858
▁올바른	-6859
et	-6860
▁캘	-6861
▁고조	-6862
▁논리	-6863
▁시에	-6864
▁포인트	-6865
공장	-6866
양을	-6867
▁간주	-6868
▁이념	-6869
▁패러	-6870
▁방안이	-6871
▁태양광	-6872
▁할아버	-6873
▁않았다는	-6874
소통	-6875
▁가공	-6876
▁되돌	-6877
▁매주	-6878
▁채워	-6879
▁네티즌	-6880
▁느낌을	-6881
▁들어갈	-6882
▁빠져나	-6883
▁이해가	-6884
▁차원의	-6885
▁법원행정	-6886
▁지나치게	-6887
1)	-6888
▁삽	-6889
지인	-6890
▁구청	-6891
▁뒤집	-6892
▁부활	-6893
▁이거	-6894
▁폭력	-6895
는데요	-6896
하나요	-6897
▁회의를	-6898
▁이용하여	-6899
▁증가하는	-6900
3)	-6901
군에	-6902
당과	-6903
200	-6904
▁소형	-6905
▁수강	-6906
이었던	-6907
▁퍼포먼	-6908
▁한국문화	-6909
el	-6910
세는	-6911
아요	-6912
종을	-6913
준이	-6914
평을	-6915
폭력	-6916
▁선행	-6917
▁일환	-6918
▁국무장	-6919
▁미얀마	-6920
▁나타난다	-6921
▁종전선언	-6922
▁잦	-6923
▁팝	-6924
라엘	-6925
▁도움	-6926
▁솔루	-6927
▁열릴	-6928
▁총리	-6929
▁하니	-6930
▁혈액	-6931
으므로	-6932
▁벌이고	-6933
▁아이폰	-6934
▁위기에	-6935
시장에서	-6936
놀이	-6937
령을	-6938
▁"“	-6939
▁기뻐	-6940
▁서버	-6941
▁장악	-6942
▁집권	-6943
▁해상	-6944
이어서	-6945
▁나가는	-6946
▁이곳에서	-6947
▁분해	-6948
▁성분	-6949
▁성향	-6950
▁캠페	-6951
▁나타났	-6952
▁된다면	-6953
▁부르는	-6954
▁왔습니다	-6955
▁전통적인	-6956
▁힐	-6957
려서	-6958
무는	-6959
치며	-6960
▁김수	-6961
▁놀이	-6962
▁바꿀	-6963
▁추측	-6964
▁한강	-6965
시장의	-6966
▁경우에	-6967
▁또다시	-6968
18	-6969
병을	-6970
산에	-6971
▁경비	-6972
▁공시	-6973
▁부딪	-6974
▁서해	-6975
▁주체	-6976
들에게는	-6977
▁내야	-6978
▁명칭	-6979
▁미니	-6980
▁보며	-6981
▁성추	-6982
사회의	-6983
했다가	-6984
▁사회에	-6985
▁생기는	-6986
▁클라우드	-6987
▁함께하는	-6988
▁그와	-6989
▁비싼	-6990
▁식물	-6991
사들은	-6992
정규직	-6993
▁산업의	-6994
▁스티븐	-6995
▁쏠리고	-6996
▁인상을	-6997
ol	-6998
리포	-6999
업에	-7000
▁강요	-7001
▁해체	-7002
▁배우고	-7003
▁일어날	-7004
▁하노이	-7005
비서	-7006
▁나면	-7007
▁내릴	-7008
▁탄력	-7009
▁바람에	-7010
▁위기를	-7011
▁차량이	-7012
▁드립니다	-7013
90	-7014
당에	-7015
서도	-7016
에이	-7017
트와	-7018
▁43	-7019
▁김용	-7020
▁남긴	-7021
▁무리	-7022
▁잡은	-7023
▁피아	-7024
▁경쟁력	-7025
▁인스타	-7026
▁예상되는	-7027
접한	-7028
호선	-7029
▁기아	-7030
▁김해	-7031
▁어쩔	-7032
건으로	-7033
에서부터	-7034
▁촉구했다	-7035
구청	-7036
기만	-7037
아웃	-7038
운용	-7039
▁각자	-7040
▁구멍	-7041
▁날아	-7042
▁미친	-7043
▁바깥	-7044
▁부실	-7045
▁수를	-7046
▁실업	-7047
하라는	-7048
▁기반을	-7049
▁추진하고	-7050
▁줬	-7051
견이	-7052
경은	-7053
두에	-7054
책임	-7055
통상	-7056
▁직면	-7057
▁칭찬	-7058
▁해제	-7059
▁논의를	-7060
▁사람도	-7061
▁안타까	-7062
▁없다면	-7063
▁확인한	-7064
▁닮	-7065
체계	-7066
▁구미	-7067
▁나노	-7068
▁낮추	-7069
▁달에	-7070
▁먹어	-7071
▁박람	-7072
▁빼앗	-7073
기업이	-7074
▁장점이	-7075
▁정책에	-7076
리케이션	-7077
기획	-7078
데이	-7079
림을	-7080
번호	-7081
술을	-7082
안과	-7083
▁못하게	-7084
▁생각할	-7085
▁소규모	-7086
만으로도	-7087
렸을	-7088
▁감지	-7089
▁무서	-7090
▁상세	-7091
▁시달	-7092
▁주재	-7093
▁중의	-7094
▁국무총	-7095
▁다이어	-7096
▁실적이	-7097
▁카드를	-7098
▁움직이는	-7099
▁일본에서	-7100
배우	-7101
법원	-7102
▁말로	-7103
▁음료	-7104
▁일도	-7105
▁재배	-7106
▁철거	-7107
교육청	-7108
ion	-7109
▁박정	-7110
▁스페	-7111
▁평범	-7112
▁고려하면	-7113
▁추구하는	-7114
▁회사에서	-7115
PG	-7116
점의	-7117
▁몰라	-7118
▁수급	-7119
▁승객	-7120
▁억제	-7121
▁축적	-7122
▁사회가	-7123
▁상품이	-7124
▁스케줄	-7125
▁우즈베	-7126
▁조금만	-7127
▁공동으로	-7128
9)	-7129
성한	-7130
음에	-7131
▁잠깐	-7132
기업의	-7133
▁사이즈	-7134
▁친구를	-7135
▁페스티벌	-7136
야구	-7137
판매	-7138
▁생일	-7139
▁이성	-7140
▁체감	-7141
▁갈등을	-7142
▁북한에	-7143
케어	-7144
포럼	-7145
▁권리	-7146
▁무척	-7147
▁은퇴	-7148
국으로	-7149
▁가족과	-7150
▁두드러	-7151
▁땀	-7152
자나	-7153
▁꺼내	-7154
▁뭔가	-7155
▁재현	-7156
▁한데	-7157
선에서	-7158
▁가졌다	-7159
▁보여준	-7160
▁성적을	-7161
▁영어로	-7162
▁적합한	-7163
▁차량을	-7164
▁현실을	-7165
▁젖	-7166
▁동참	-7167
▁보러	-7168
▁읽고	-7169
▁별도의	-7170
▁보건복지	-7171
론은	-7172
장한	-7173
지다	-7174
▁건의	-7175
▁급여	-7176
▁벌금	-7177
▁수치	-7178
▁전원	-7179
▁정해	-7180
▁투쟁	-7181
▁설치된	-7182
▁인간은	-7183
▁자리가	-7184
▁정부에	-7185
▁셰	-7186
고의	-7187
시쯤	-7188
일으	-7189
▁밀어	-7190
▁음성	-7191
▁설명을	-7192
▁정상이	-7193
▁해결하기	-7194
▁찌	-7195
▁드는	-7196
▁로맨	-7197
▁어두	-7198
▁협조	-7199
장애인	-7200
▁환자의	-7201
▁있었어요	-7202
▁엇	-7203
▁짙	-7204
타를	-7205
▁섭취	-7206
▁영장	-7207
▁옛날	-7208
▁창립	-7209
▁팀을	-7210
▁대상을	-7211
▁시험을	-7212
▁보고서를	-7213
르기	-7214
박물	-7215
▁무언	-7216
▁무죄	-7217
▁중독	-7218
▁패키	-7219
▁해수	-7220
시장은	-7221
▁포함되어	-7222
DP	-7223
▁쏘	-7224
▁앙	-7225
군을	-7226
만여	-7227
▁거세	-7228
▁기쁨	-7229
▁김진	-7230
▁목사	-7231
▁복원	-7232
▁소환	-7233
▁알지	-7234
▁지각	-7235
▁찍어	-7236
▁탄핵	-7237
방에서	-7238
▁가지는	-7239
▁규모로	-7240
▁기업을	-7241
▁독일의	-7242
▁신청을	-7243
▁친구와	-7244
▁해결할	-7245
▁불가능한	-7246
신청	-7247
▁영수	-7248
▁조명	-7249
▁조현	-7250
▁경제의	-7251
▁물었다	-7252
▁브렉시	-7253
▁시민들의	-7254
▁시작됐다	-7255
용을	-7256
자고	-7257
▁거대	-7258
▁맛을	-7259
▁솔직	-7260
▁체제	-7261
▁치킨	-7262
▁하셨	-7263
▁화물	-7264
▁것들을	-7265
▁무대를	-7266
▁신뢰를	-7267
▁완전한	-7268
▁휴대폰	-7269
▁기상청은	-7270
시각	-7271
일본	-7272
졌을	-7273
편이	-7274
▁겨냥	-7275
▁모인	-7276
▁본인	-7277
▁정권	-7278
▁논란을	-7279
▁선물을	-7280
▁완벽한	-7281
▁교통사고	-7282
▁사용하지	-7283
▁한국어를	-7284
-0	-7285
교류	-7286
▁3,	-7287
▁만화	-7288
▁무산	-7289
▁부대	-7290
▁못했던	-7291
▁백악관	-7292
▁사회를	-7293
▁수수료	-7294
▁특정한	-7295
▁환경이	-7296
▁받아들여	-7297
▁실질적인	-7298
▁인스타그램	-7299
14	-7300
마가	-7301
▁그들	-7302
▁끈다	-7303
▁높고	-7304
▁서민	-7305
▁전세	-7306
▁흥행	-7307
까지도	-7308
▁관람객	-7309
▁다행히	-7310
▁불러일으	-7311
▁이상으로	-7312
17	-7313
▁Q	-7314
▁언니	-7315
▁연금	-7316
▁조별	-7317
▁진지	-7318
색으로	-7319
▁긍정적	-7320
▁들여다	-7321
▁사장이	-7322
▁알리는	-7323
농단	-7324
층을	-7325
▁순위	-7326
▁연동	-7327
▁즐겨	-7328
▁넘어서	-7329
▁메이저	-7330
▁모습은	-7331
▁일본은	-7332
▁자금을	-7333
▁준비한	-7334
▁곰	-7335
용품	-7336
파로	-7337
▁물류	-7338
▁193	-7339
▁기술의	-7340
▁대표의	-7341
▁매니저	-7342
▁외교부	-7343
▁의하면	-7344
▁이스라엘	-7345
▁자가	-7346
▁나이가	-7347
▁매력을	-7348
▁실시한	-7349
▁요구를	-7350
▁전체를	-7351
▁판문점	-7352
▁기본적인	-7353
북도	-7354
▁맞서	-7355
▁이곳에	-7356
▁금융감독	-7357
공연	-7358
박한	-7359
포구	-7360
▁서양	-7361
▁일요일	-7362
▁하나인	-7363
▁방식이다	-7364
▁이뤄지지	-7365
▁우리나라의	-7366
AR	-7367
의원	-7368
패를	-7369
▁48	-7370
▁가벼	-7371
▁기분	-7372
▁댄스	-7373
▁투수	-7374
▁항목	-7375
보았다	-7376
하자는	-7377
▁기존에	-7378
▁끌었다	-7379
▁처음에는	-7380
▁셔	-7381
건에	-7382
면이	-7383
▁42	-7384
▁고성	-7385
▁무상	-7386
▁방출	-7387
▁성사	-7388
▁용인	-7389
▁재발	-7390
▁전직	-7391
▁근거로	-7392
▁선호하는	-7393
he	-7394
차에	-7395
▁단어	-7396
▁붙어	-7397
▁지어	-7398
▁배터리	-7399
▁손흥민	-7400
▁케이블	-7401
▁활용하는	-7402
▁보좌	-7403
▁새겨	-7404
▁수천	-7405
▁실망	-7406
▁입국	-7407
▁호기	-7408
▁눈물을	-7409
▁마스크	-7410
▁선택한	-7411
▁시대가	-7412
▁시작해	-7413
▁있었다는	-7414
▁파악하고	-7415
면의	-7416
프는	-7417
▁밝은	-7418
▁배당	-7419
▁중동	-7420
▁학문	-7421
되지만	-7422
았다는	-7423
할게요	-7424
▁약속을	-7425
▁유럽연합	-7426
▁원내대표가	-7427
도서	-7428
추진	-7429
행사	-7430
▁동맹	-7431
▁바닷	-7432
▁출마	-7433
점이다	-7434
▁돌아오	-7435
▁때보다	-7436
▁소중한	-7437
▁영국의	-7438
▁일정한	-7439
▁곳곳에서	-7440
▁바라보는	-7441
▁학생들에게	-7442
IA	-7443
▁둥	-7444
▁딜	-7445
수석	-7446
았어	-7447
들과의	-7448
▁김씨가	-7449
▁놀라운	-7450
▁요인이	-7451
▁보여주고	-7452
▁X	-7453
고한	-7454
드와	-7455
▁금방	-7456
▁많을	-7457
▁목록	-7458
▁임원	-7459
▁털어	-7460
▁홈런	-7461
력발전	-7462
였다고	-7463
▁규제를	-7464
▁서류를	-7465
▁움직임이	-7466
▁카카오톡	-7467
▁우즈베키스탄	-7468
▁e	-7469
축제	-7470
▁김상	-7471
▁농민	-7472
▁묻는	-7473
▁베네	-7474
▁서구	-7475
▁소년	-7476
▁양쪽	-7477
▁워낙	-7478
▁읽어	-7479
▁제게	-7480
▁주된	-7481
▁추출	-7482
▁항의	-7483
▁걱정이	-7484
▁답변을	-7485
▁뛰어나	-7486
▁찾아가	-7487
▁디스플레이	-7488
▁뭉	-7489
닝썬	-7490
려야	-7491
▁돕는	-7492
▁든다	-7493
▁무렵	-7494
▁진로	-7495
▁방식은	-7496
▁요구했다	-7497
▁판매하는	-7498
감사	-7499
법의	-7500
보증	-7501
영의	-7502
처는	-7503
헨티	-7504
▁비타	-7505
▁쓰레기	-7506
▁의미다	-7507
▁이메일	-7508
▁사용되는	-7509
▁가능한가요	-7510
기한	-7511
등을	-7512
살을	-7513
폭이	-7514
▁건데	-7515
▁끝내	-7516
▁블루	-7517
▁실용	-7518
▁곳곳에	-7519
▁꼽힌다	-7520
▁전체가	-7521
▁통하여	-7522
▁소득주도	-7523
▁엿	-7524
로로	-7525
조의	-7526
▁거절	-7527
▁다룬	-7528
▁담배	-7529
야말로	-7530
에서만	-7531
▁경찰의	-7532
▁금융당	-7533
▁되는데	-7534
▁문화재	-7535
▁디자이너	-7536
▁발생한다	-7537
▁손해배상	-7538
▁시민단체	-7539
터테인먼트	-7540
락을	-7541
리도	-7542
삼성	-7543
온이	-7544
▁구별	-7545
▁싶지	-7546
▁유포	-7547
면으로	-7548
▁그들을	-7549
▁바라는	-7550
▁점수를	-7551
▁사용자가	-7552
▁뮤직비디오	-7553
FA	-7554
▁얽	-7555
동은	-7556
신문	-7557
토록	-7558
▁신중	-7559
▁씨의	-7560
▁죽은	-7561
▁챙겨	-7562
인지를	-7563
▁SBS	-7564
▁결과로	-7565
▁어디로	-7566
▁차세대	-7567
▁격려	-7568
▁분자	-7569
▁소외	-7570
▁송금	-7571
▁신발	-7572
▁일고	-7573
▁청주	-7574
▁포럼	-7575
▁월요일	-7576
▁주문한	-7577
▁즐겁게	-7578
▁판매가	-7579
▁중입니다	-7580
16	-7581
게도	-7582
련의	-7583
줘야	-7584
크는	-7585
▁가량	-7586
▁대장	-7587
▁패널	-7588
트에서	-7589
▁개발을	-7590
▁게다가	-7591
▁뒤늦게	-7592
▁말하면	-7593
▁부드러	-7594
▁위치를	-7595
▁자료에	-7596
▁늘어나는	-7597
▁정상회담이	-7598
아라	-7599
현실	-7600
▁수여	-7601
▁전담	-7602
교육을	-7603
용으로	-7604
▁600	-7605
▁법원이	-7606
▁별도로	-7607
▁위해선	-7608
▁잃어버	-7609
▁감안하면	-7610
견을	-7611
롭고	-7612
림이	-7613
장인	-7614
▁강연	-7615
▁기호	-7616
▁바르	-7617
▁손상	-7618
▁개발에	-7619
▁뭘	-7620
두로	-7621
협상	-7622
화문	-7623
▁44	-7624
▁고기	-7625
▁고유	-7626
▁박사	-7627
▁선제	-7628
▁지능	-7629
인터넷	-7630
▁버스를	-7631
▁전체의	-7632
▁책임이	-7633
▁상관없이	-7634
▁않는다고	-7635
▁뻔	-7636
결이	-7637
▁글이	-7638
▁아까	-7639
▁왜곡	-7640
▁유아	-7641
까지만	-7642
더라고	-7643
부에서	-7644
시설을	-7645
▁가르쳐	-7646
▁형태를	-7647
위원회의	-7648
▁모니터링	-7649
경에	-7650
론의	-7651
▁골목	-7652
▁굳이	-7653
▁분이	-7654
▁사퇴	-7655
▁어떨	-7656
▁한계	-7657
▁공시가	-7658
▁끌어올	-7659
▁않았을	-7660
▁일본에	-7661
▁일하고	-7662
▁합의를	-7663
▁회사를	-7664
들로부터	-7665
▁고객에게	-7666
▁소비자의	-7667
▁아이들을	-7668
▁멸	-7669
달아	-7670
마켓	-7671
▁김민	-7672
▁높여	-7673
▁도중	-7674
▁두산	-7675
▁방금	-7676
▁수의	-7677
▁아울	-7678
▁영광	-7679
▁육아	-7680
▁확충	-7681
▁기업과	-7682
▁보냈다	-7683
▁않았고	-7684
▁이같은	-7685
▁드러냈다	-7686
▁반대하는	-7687
▁자동으로	-7688
▁차지하고	-7689
가구	-7690
동물	-7691
추가	-7692
100	-7693
▁파란	-7694
▁평창	-7695
▁식사를	-7696
▁전반에	-7697
▁지적도	-7698
▁총리는	-7699
▁민주노총	-7700
▁아시아나	-7701
▁아기	-7702
는지를	-7703
되었던	-7704
지사가	-7705
▁끝나면	-7706
▁모았다	-7707
▁미사일	-7708
▁정의당	-7709
▁제기한	-7710
▁사회에서	-7711
▁아버지가	-7712
am	-7713
곳이	-7714
브리	-7715
수산	-7716
탄을	-7717
▁얻는	-7718
▁이걸	-7719
▁이영	-7720
▁주류	-7721
바이트	-7722
자로서	-7723
▁맡았다	-7724
▁바람직	-7725
▁상황은	-7726
▁선택할	-7727
▁유럽의	-7728
▁인구가	-7729
▁프로세	-7730
▁핸드폰	-7731
▁구성되어	-7732
▁등장하는	-7733
▁이름으로	-7734
분께	-7735
상황	-7736
열을	-7737
▁들면	-7738
▁밤에	-7739
▁열려	-7740
▁전송	-7741
▁관계에	-7742
▁선택을	-7743
▁충격을	-7744
7)	-7745
▁봅	-7746
▁간접	-7747
▁범행	-7748
▁저기	-7749
▁합병	-7750
▁장면을	-7751
▁2022	-7752
▁추정된다	-7753
수익	-7754
톨릭	-7755
▁가격에	-7756
▁사용이	-7757
▁편이다	-7758
▁해마다	-7759
▁살아가는	-7760
▁프로그램은	-7761
▁웅	-7762
감에	-7763
박스	-7764
법상	-7765
▁맞고	-7766
▁붙여	-7767
▁지진	-7768
▁헤어	-7769
형으로	-7770
▁내리는	-7771
연대	-7772
▁결의	-7773
▁김재	-7774
▁지났	-7775
▁크지	-7776
십니다	-7777
▁브리핑	-7778
▁사업의	-7779
▁참여를	-7780
▁병원으로	-7781
▁연구개발	-7782
▁요청했다	-7783
▁효과적으로	-7784
치와	-7785
▁취급	-7786
▁프린	-7787
▁교육의	-7788
▁방송을	-7789
▁하려고	-7790
▁넌	-7791
가량	-7792
▁가려	-7793
▁영토	-7794
▁오를	-7795
▁온도	-7796
▁처분	-7797
그룹이	-7798
▁고통을	-7799
▁말하고	-7800
▁부부가	-7801
PS	-7802
준비	-7803
컨대	-7804
▁고맙	-7805
▁넣고	-7806
▁선배	-7807
▁원천	-7808
▁주실	-7809
시하는	-7810
▁건강을	-7811
▁저소득	-7812
▁‘2019	-7813
오염	-7814
참여	-7815
▁김병	-7816
▁메인	-7817
▁신인	-7818
▁조항	-7819
▁주행	-7820
▁진학	-7821
듭니다	-7822
▁다루는	-7823
▁에어컨	-7824
▁오프라인	-7825
▁좋겠습니다	-7826
13	-7827
무가	-7828
▁북쪽	-7829
▁앞선	-7830
▁줄을	-7831
▁포괄	-7832
▁폭이	-7833
▁협업	-7834
▁휴가	-7835
퍼센트	-7836
▁배경으로	-7837
▁윌	-7838
상담	-7839
장기	-7840
주지	-7841
▁55	-7842
▁쓰지	-7843
▁자국	-7844
▁정작	-7845
▁준공	-7846
▁해가	-7847
▁현황	-7848
했다면	-7849
▁거리를	-7850
▁대해선	-7851
▁실험을	-7852
▁영상이	-7853
▁중국을	-7854
생명	-7855
전시	-7856
퍼런	-7857
환이	-7858
▁거죠	-7859
▁다를	-7860
▁부부	-7861
▁송파	-7862
▁자문	-7863
▁짐작	-7864
▁가까워	-7865
▁나누어	-7866
▁아이디어를	-7867
공급	-7868
트넘	-7869
▁벌인	-7870
▁분산	-7871
▁아픈	-7872
▁워크	-7873
▁아이의	-7874
▁얼굴이	-7875
▁올리는	-7876
▁최악의	-7877
▁아르헨티	-7878
8)	-7879
▁펀	-7880
래도	-7881
매매	-7882
유럽	-7883
재의	-7884
지않	-7885
▁꼼꼼	-7886
▁나눔	-7887
▁로마	-7888
▁말도	-7889
▁앞장	-7890
▁검사를	-7891
▁다니는	-7892
▁분들이	-7893
▁연락이	-7894
▁요청한	-7895
▁의사가	-7896
▁이루고	-7897
▁하거나	-7898
▁진행한다	-7899
▁참여했다	-7900
5)	-7901
▁밥을	-7902
▁시중	-7903
▁터뜨	-7904
▁유지하고	-7905
▁감동	-7906
▁독점	-7907
▁스캔	-7908
▁알리	-7909
가들이	-7910
▁1970	-7911
▁웹사이트	-7912
▁공중	-7913
▁단단	-7914
▁몰입	-7915
▁법을	-7916
▁빛의	-7917
▁타임	-7918
▁아니야	-7919
▁캠페인	-7920
▁발견됐다	-7921
▁발생하지	-7922
▁않는다면	-7923
∼4	-7924
▁낚	-7925
▁짚	-7926
공정	-7927
내며	-7928
로지	-7929
쁘게	-7930
요한	-7931
▁시너	-7932
▁이례	-7933
▁입시	-7934
▁하드	-7935
▁한창	-7936
하자면	-7937
▁되도록	-7938
▁작성한	-7939
▁사람들과	-7940
▁소개했다	-7941
▁대통령에게	-7942
▁짝	-7943
▁가중	-7944
▁것일	-7945
▁조회	-7946
드라마	-7947
▁무조건	-7948
▁법무부	-7949
▁보도가	-7950
▁음식은	-7951
▁가능하게	-7952
▁서울에서	-7953
▁진행했다	-7954
령이	-7955
만간	-7956
액의	-7957
▁다채	-7958
▁대륙	-7959
▁배울	-7960
▁좋고	-7961
▁타당	-7962
식에는	-7963
였다는	-7964
▁과거의	-7965
▁들어와	-7966
▁듯하다	-7967
▁성폭행	-7968
▁여지가	-7969
▁주가가	-7970
정보통신	-7971
TS	-7972
실히	-7973
▁번에	-7974
▁빨라	-7975
▁측의	-7976
▁팀의	-7977
▁기간을	-7978
▁높다는	-7979
▁조치가	-7980
▁여기에서	-7981
ac	-7982
▁끓	-7983
능력	-7984
여개	-7985
천히	-7986
▁갈아	-7987
▁고스	-7988
▁남쪽	-7989
▁답을	-7990
운동을	-7991
월드컵	-7992
▁교육이	-7993
▁기간에	-7994
▁기다리	-7995
▁성격을	-7996
▁이루는	-7997
▁재판을	-7998
한국시간	-7999
▁나타나고	-8000
▁드라마를	-8001
▁활성화를	-8002
▁몫	-8003
보며	-8004
재산	-8005
협약	-8006
▁도구	-8007
▁양승	-8008
▁양이	-8009
▁장례	-8010
▁출국	-8011
▁택배	-8012
▁힘입	-8013
으려고	-8014
▁내용에	-8015
▁높이기	-8016
▁살아남	-8017
▁스타일	-8018
▁일으킨	-8019
▁행위가	-8020
▁완벽하게	-8021
▁자신에게	-8022
▁학생들을	-8023
▁이르기까지	-8024
진핑	-8025
▁대략	-8026
▁물품	-8027
▁부지	-8028
▁수험	-8029
▁시위	-8030
▁언젠	-8031
▁엔진	-8032
▁연봉	-8033
▁제어	-8034
▁총괄	-8035
▁한진	-8036
▁190	-8037
▁개선을	-8038
▁광범위	-8039
▁나서는	-8040
▁문화에	-8041
▁상태에	-8042
▁않다고	-8043
▁있어도	-8044
▁판결을	-8045
▁자율주행	-8046
▁부근	-8047
▁입금	-8048
▁전라	-8049
▁주한	-8050
▁지명	-8051
▁해운	-8052
들었다	-8053
▁근로자	-8054
▁면에서	-8055
▁오피스	-8056
▁판단이	-8057
▁교육과정	-8058
▁않았다고	-8059
▁행사에는	-8060
복합	-8061
여성	-8062
이게	-8063
▁게재	-8064
▁부착	-8065
▁즐기	-8066
레이션	-8067
▁결정이	-8068
▁나타날	-8069
▁일으키	-8070
▁태어나	-8071
▁하나도	-8072
▁입장에서	-8073
구속	-8074
▁고백	-8075
▁고의	-8076
▁꿈꾸	-8077
▁스탠	-8078
▁위탁	-8079
▁저하	-8080
▁금액을	-8081
▁기자가	-8082
▁성공한	-8083
▁어렵게	-8084
▁일부를	-8085
▁지사가	-8086
▁천천히	-8087
▁환경에	-8088
▁시작하는	-8089
비에	-8090
▁명백	-8091
▁뿌리	-8092
▁안심	-8093
▁지침	-8094
▁코너	-8095
시간에	-8096
정책을	-8097
5000	-8098
▁걸그룹	-8099
▁보여줄	-8100
▁선보인	-8101
▁일부가	-8102
(8	-8103
운이	-8104
▁가기	-8105
▁구상	-8106
▁깨닫	-8107
▁노선	-8108
▁매수	-8109
▁시정	-8110
▁영원	-8111
▁와이	-8112
▁인적	-8113
▁기억이	-8114
▁지역이	-8115
▁확실한	-8116
▁결정했다	-8117
▁흥미로운	-8118
▁듀	-8119
▁픽	-8120
▁없던	-8121
▁장학	-8122
▁첫날	-8123
▁해안	-8124
▁남자가	-8125
▁엄마가	-8126
▁기업들의	-8127
▁시작한다	-8128
▁유일하게	-8129
▁프로젝트를	-8130
미널	-8131
우스	-8132
전기	-8133
▁범위	-8134
▁연료	-8135
▁유대	-8136
▁피고	-8137
센터가	-8138
▁마련된	-8139
▁미국을	-8140
▁여론이	-8141
▁조사에	-8142
▁좋겠어	-8143
▁혐의가	-8144
▁직접적인	-8145
▁한국으로	-8146
NG	-8147
▁벼	-8148
년째	-8149
▁46	-8150
▁귀국	-8151
▁대피	-8152
▁도내	-8153
▁파는	-8154
▁같아서	-8155
▁것인가	-8156
▁관리가	-8157
▁많다는	-8158
▁메일을	-8159
▁블로그	-8160
▁신제품	-8161
▁철저한	-8162
▁특성상	-8163
▁훈련을	-8164
▁2002	-8165
▁유지하는	-8166
셔널	-8167
셔도	-8168
콜릿	-8169
▁공산	-8170
▁변형	-8171
▁오고	-8172
▁이수	-8173
▁중부	-8174
▁지사	-8175
▁지혜	-8176
냅니다	-8177
▁관리를	-8178
▁시작할	-8179
▁후에는	-8180
▁있으므로	-8181
▁준비하고	-8182
▁때문이었다	-8183
주인	-8184
.0%	-8185
▁나름	-8186
▁잃은	-8187
▁누군가	-8188
▁우승을	-8189
▁유지할	-8190
▁존재하지	-8191
▁행정안전	-8192
▁삼성전자가	-8193
▁롤	-8194
교를	-8195
사카	-8196
▁궁극	-8197
▁높일	-8198
▁드론	-8199
▁버튼	-8200
▁저축	-8201
▁형식	-8202
▁40%	-8203
▁노하우	-8204
▁메시지	-8205
▁수준에	-8206
▁주말에	-8207
▁드릴게요	-8208
▁마음으로	-8209
▁가볍	-8210
▁등급	-8211
▁로드	-8212
▁성취	-8213
▁연루	-8214
▁주신	-8215
▁포인	-8216
▁한쪽	-8217
▁할리	-8218
▁120	-8219
▁비중을	-8220
▁시진핑	-8221
▁한마디	-8222
▁5·18	-8223
▁문화체육	-8224
▁비정규직	-8225
▁빛이	-8226
▁사안	-8227
▁심장	-8228
▁이기	-8229
자리에	-8230
▁자체를	-8231
▁한계를	-8232
고등학교	-8233
▁필요성을	-8234
리라	-8235
연의	-8236
▁더는	-8237
▁리얼	-8238
▁메타	-8239
▁발매	-8240
▁엇갈	-8241
▁재밌	-8242
▁줄일	-8243
▁찾지	-8244
▁개인이	-8245
▁비타민	-8246
▁설명할	-8247
▁기대감이	-8248
▁서울시가	-8249
▁시스템이	-8250
▁오랜만에	-8251
본을	-8252
회로	-8253
▁갑작	-8254
▁개척	-8255
▁거로	-8256
거리가	-8257
▁80%	-8258
▁교육부	-8259
▁비서실	-8260
▁조만간	-8261
▁하나를	-8262
▁협력을	-8263
▁인테	-8264
만달러	-8265
어지는	-8266
임에도	-8267
▁나라가	-8268
▁이명박	-8269
▁프로모	-8270
▁생각하지	-8271
▁추정되는	-8272
TO	-8273
편의	-8274
▁놓여	-8275
▁동시	-8276
▁배운	-8277
▁영혼	-8278
▁인건	-8279
▁추산	-8280
▁현직	-8281
시장에	-8282
하므로	-8283
▁고위급	-8284
▁비판을	-8285
▁컨설팅	-8286
▁판단을	-8287
▁거주하는	-8288
▁모습이다	-8289
둘러	-8290
▁누리	-8291
▁담보	-8292
▁삶이	-8293
▁자꾸	-8294
▁중재	-8295
▁차관	-8296
음으로	-8297
▁3·1	-8298
▁범위를	-8299
▁성적이	-8300
▁타이틀	-8301
▁소상공인	-8302
▁시나리오	-8303
대전	-8304
실의	-8305
왔던	-8306
음은	-8307
즈는	-8308
▁겨우	-8309
▁동북	-8310
▁전제	-8311
▁집안	-8312
▁기술은	-8313
▁느끼고	-8314
▁서로를	-8315
▁의혹에	-8316
▁효과적인	-8317
∼6	-8318
▁나빠	-8319
▁되길	-8320
▁앞세	-8321
▁증시	-8322
▁탄탄	-8323
에게도	-8324
이면서	-8325
▁목적이	-8326
▁바이러	-8327
▁고스란히	-8328
▁의원들이	-8329
▁주장이다	-8330
▁린	-8331
기금	-8332
달라	-8333
부산	-8334
스팅	-8335
▁걸리	-8336
▁길게	-8337
▁내외	-8338
▁보게	-8339
▁줄여	-8340
▁해군	-8341
치면서	-8342
▁관심과	-8343
▁리더십	-8344
▁성범죄	-8345
▁요소가	-8346
▁위주로	-8347
▁일어났	-8348
▁태어난	-8349
왔습니다	-8350
웠습니다	-8351
▁분석된다	-8352
▁주장한다	-8353
▁준비하는	-8354
▁처음부터	-8355
▁없었습니다	-8356
▁애플리케이션	-8357
법과	-8358
속히	-8359
임대	-8360
조에	-8361
학은	-8362
·13	-8363
▁공략	-8364
▁매개	-8365
▁번호	-8366
▁봐도	-8367
▁솔로	-8368
▁정교	-8369
▁지붕	-8370
▁청도	-8371
▁관세를	-8372
▁되어야	-8373
▁생태계	-8374
▁손가락	-8375
▁하루에	-8376
▁선생님이	-8377
▁지방자치단체	-8378
둥이	-8379
미국	-8380
켰다	-8381
확인	-8382
▁김지	-8383
▁마크	-8384
▁미뤄	-8385
▁밀려	-8386
▁보아	-8387
▁강남구	-8388
▁나누고	-8389
▁분석해	-8390
▁불만을	-8391
▁실력을	-8392
▁어쩌면	-8393
ed	-8394
is	-8395
시한	-8396
키로	-8397
▁공원	-8398
▁딸이	-8399
▁만일	-8400
▁문서	-8401
▁속의	-8402
▁스펙	-8403
▁원소	-8404
▁인명	-8405
▁있겠	-8406
▁합쳐	-8407
였어요	-8408
▁CEO	-8409
▁당국이	-8410
▁도시의	-8411
▁웃음을	-8412
▁닦	-8413
드니	-8414
▁발을	-8415
▁세트	-8416
▁앤이	-8417
였는데	-8418
▁70%	-8419
▁경찰과	-8420
▁구매할	-8421
▁기술과	-8422
▁말까지	-8423
▁벌어진	-8424
▁수업이	-8425
▁조사가	-8426
위원회를	-8427
▁결정하는	-8428
▁구성하는	-8429
▁아이들의	-8430
il	-8431
▁횟	-8432
창업	-8433
▁남해	-8434
▁부러	-8435
▁파리	-8436
▁한해	-8437
▁규모는	-8438
▁방식의	-8439
▁성과가	-8440
▁요소를	-8441
▁우려를	-8442
▁주문을	-8443
▁화제가	-8444
리포니아	-8445
▁건강보험	-8446
화해	-8447
▁감축	-8448
▁냉장	-8449
▁노란	-8450
▁막아	-8451
▁시의	-8452
▁입찰	-8453
▁자라	-8454
▁접목	-8455
▁차기	-8456
▁플라	-8457
은행의	-8458
자료를	-8459
▁고객을	-8460
▁선정된	-8461
▁세미나	-8462
▁어려움	-8463
▁중심이	-8464
▁지난주	-8465
▁다양하게	-8466
▁눌	-8467
년과	-8468
름을	-8469
석에	-8470
▁감당	-8471
▁금호	-8472
▁인종	-8473
▁전주	-8474
▁파워	-8475
▁한일	-8476
주의를	-8477
▁노무현	-8478
▁들어온	-8479
▁작품은	-8480
▁참가한	-8481
▁화제를	-8482
▁이산화탄	-8483
▁참여하고	-8484
뉴스	-8485
미의	-8486
▁연일	-8487
적이며	-8488
▁거래가	-8489
▁나란히	-8490
▁막대한	-8491
▁비용은	-8492
▁연기를	-8493
▁이상한	-8494
▁자기가	-8495
▁재건축	-8496
▁2004	-8497
▁곽	-8498
▁명을	-8499
▁보복	-8500
▁조례	-8501
▁때에는	-8502
▁오르는	-8503
▁주어진	-8504
▁포스트	-8505
▁중에서도	-8506
▁소비자들이	-8507
니즘	-8508
신과	-8509
인당	-8510
하의	-8511
▁목포	-8512
▁스폰	-8513
▁장벽	-8514
▁포토	-8515
▁혼합	-8516
일랜드	-8517
▁당국은	-8518
▁들어갔	-8519
▁문제와	-8520
▁왔어요	-8521
▁정해진	-8522
▁피의자	-8523
▁나타내는	-8524
▁일환으로	-8525
▁필요성이	-8526
결제	-8527
대체	-8528
인도	-8529
집이	-8530
▁모자	-8531
▁연설	-8532
▁태극	-8533
▁한식	-8534
▁성격이	-8535
▁잡았다	-8536
▁주시면	-8537
▁가능하며	-8538
▁궁금증을	-8539
▁아이들은	-8540
▁호텔에서	-8541
▁아르바이트	-8542
▁멍	-8543
민족	-8544
반응	-8545
지대	-8546
코올	-8547
▁가전	-8548
▁건지	-8549
▁공존	-8550
▁자칫	-8551
▁중순	-8552
▁편입	-8553
억원에	-8554
▁가톨릭	-8555
▁갖는다	-8556
▁경쟁을	-8557
▁경찰청	-8558
▁하나다	-8559
▁학교를	-8560
적이었다	-8561
▁고속도로	-8562
▁섹	-8563
교의	-8564
처분	-8565
▁놓은	-8566
▁맥주	-8567
▁발주	-8568
▁배상	-8569
▁약을	-8570
▁여당	-8571
▁장을	-8572
▁탈출	-8573
▁한복	-8574
렸어요	-8575
센터는	-8576
▁구체적	-8577
▁등장한	-8578
▁인물이	-8579
▁정도는	-8580
▁찾았다	-8581
▁철저히	-8582
▁대부분은	-8583
▁재미있는	-8584
▁구속영장을	-8585
4)	-8586
▁래	-8587
열이	-8588
오늘	-8589
▁공약	-8590
▁구단	-8591
▁땅을	-8592
▁수주	-8593
시설이	-8594
▁초콜릿	-8595
▁그렇지만	-8596
▁생각보다	-8597
▁이동통신	-8598
색의	-8599
행위	-8600
▁부사	-8601
은행은	-8602
▁되었고	-8603
▁소속사	-8604
▁위험을	-8605
▁해석이	-8606
▁신용카드	-8607
▁않았어요	-8608
▁헌법재판	-8609
스포	-8610
조는	-8611
▁읽는	-8612
▁철강	-8613
▁라이브	-8614
▁사장은	-8615
▁사항을	-8616
▁취하고	-8617
▁편의점	-8618
▁합의가	-8619
▁활발한	-8620
▁힘입어	-8621
▁인터뷰를	-8622
▁제기된다	-8623
▁좋아합니다	-8624
고도	-8625
방향	-8626
아는	-8627
▁국세	-8628
▁김치	-8629
▁삼아	-8630
▁순천	-8631
▁의회	-8632
기관의	-8633
부르크	-8634
▁남편이	-8635
▁보세요	-8636
▁생겼다	-8637
▁안타깝	-8638
통상자원	-8639
▁언급했다	-8640
▁주민들의	-8641
되던	-8642
뱅크	-8643
산과	-8644
▁간부	-8645
▁계엄	-8646
▁그릇	-8647
▁끝날	-8648
▁멀티	-8649
▁설비	-8650
▁심화	-8651
▁존경	-8652
▁지갑	-8653
▁경기에	-8654
▁모양새	-8655
▁물리적	-8656
▁손으로	-8657
▁출신의	-8658
▁관리하는	-8659
▁제시했다	-8660
▁조사에서	-8661
▁남북정상회담	-8662
▁흙	-8663
됐을	-8664
오프	-8665
적의	-8666
터는	-8667
▁장치	-8668
나라는	-8669
십니까	-8670
▁기관이	-8671
▁마련한	-8672
▁정말로	-8673
▁학생의	-8674
▁화재가	-8675
▁필요해요	-8676
▁중요하다고	-8677
▁구경	-8678
만원이	-8679
장에게	-8680
▁광화문	-8681
▁그곳에	-8682
▁마침내	-8683
▁못하면	-8684
▁없으며	-8685
▁주목할	-8686
▁해결을	-8687
▁희망을	-8688
▁관련하여	-8689
▁피해자가	-8690
▁2,000	-8691
투표	-8692
▁고등	-8693
▁배정	-8694
▁신약	-8695
▁싱글	-8696
▁이종	-8697
▁전인	-8698
▁없나요	-8699
▁전에는	-8700
▁확률이	-8701
▁그렇다고	-8702
▁자신들이	-8703
6)	-8704
MF	-8705
개선	-8706
기반	-8707
리다	-8708
요금	-8709
현대	-8710
▁공론	-8711
▁메일	-8712
▁사내	-8713
▁소극	-8714
▁여유	-8715
▁춤을	-8716
청소년	-8717
▁180	-8718
▁반영된	-8719
▁인용해	-8720
▁지원할	-8721
▁m	-8722
▁찰	-8723
가며	-8724
냐고	-8725
동생	-8726
▁CJ	-8727
▁가방	-8728
▁개를	-8729
▁둔화	-8730
▁매매	-8731
▁북부	-8732
▁실정	-8733
▁영입	-8734
에서다	-8735
▁발전에	-8736
▁사용을	-8737
▁위험한	-8738
▁자세한	-8739
▁제도가	-8740
▁크기가	-8741
▁편하게	-8742
▁병원에서	-8743
▁이후에도	-8744
▁문화체육관광	-8745
21	-8746
적은	-8747
▁무사	-8748
▁순수	-8749
▁커버	-8750
▁하위	-8751
문화를	-8752
시장을	-8753
졌어요	-8754
▁영역을	-8755
▁의해서	-8756
▁저녁에	-8757
▁정도다	-8758
▁캘리포니아	-8759
ay	-8760
▁훔	-8761
공을	-8762
디움	-8763
실험	-8764
아무	-8765
중인	-8766
채를	-8767
▁조리	-8768
▁증폭	-8769
▁집이	-8770
▁키우	-8771
▁회전	-8772
공사가	-8773
▁눈으로	-8774
▁서울에	-8775
▁연구의	-8776
▁예산이	-8777
▁이후로	-8778
▁포함돼	-8779
▁기대감을	-8780
▁산업혁명	-8781
▁어머니가	-8782
▁크리스마스	-8783
수엘	-8784
팀의	-8785
▁CN	-8786
▁순환	-8787
▁양산	-8788
▁예쁜	-8789
▁휩싸	-8790
위원은	-8791
▁권리를	-8792
▁아울러	-8793
▁출연해	-8794
관련	-8795
우의	-8796
▁당국	-8797
▁상처	-8798
▁생생	-8799
▁속한	-8800
▁원전	-8801
▁윤리	-8802
▁해방	-8803
연합회	-8804
테이션	-8805
▁경제를	-8806
▁고려할	-8807
▁먹으면	-8808
▁사태가	-8809
▁서로의	-8810
▁성장할	-8811
▁유리한	-8812
▁제공해	-8813
▁지지를	-8814
▁근본적인	-8815
▁이해하기	-8816
▁씻	-8817
살이	-8818
치기	-8819
▁비리	-8820
▁서술	-8821
▁성립	-8822
▁줄기	-8823
▁지은	-8824
▁페르	-8825
▁하시	-8826
▁황금	-8827
기간이	-8828
▁엄청나게	-8829
▁이루어져	-8830
청년	-8831
...	-8832
▁본래	-8833
▁절감	-8834
▁조율	-8835
▁산업이	-8836
▁여자가	-8837
▁산업통상자원	-8838
디션	-8839
크라	-8840
▁보육	-8841
▁제임	-8842
▁친절	-8843
▁250	-8844
▁과제를	-8845
▁구성원	-8846
▁북한은	-8847
▁이목이	-8848
▁임직원	-8849
▁있기를	-8850
▁커졌다	-8851
위원장은	-8852
▁5000	-8853
▁한국에서는	-8854
희가	-8855
▁경주	-8856
▁공인	-8857
▁다리	-8858
▁다짐	-8859
▁마릴	-8860
▁면제	-8861
▁부합	-8862
▁신라	-8863
▁예배	-8864
▁만나고	-8865
▁오사카	-8866
▁이론을	-8867
▁이해를	-8868
▁정신을	-8869
▁제작한	-8870
서비스를	-8871
▁이뤄졌다	-8872
▁이미지가	-8873
▁제안했다	-8874
▁안녕하세요	-8875
▁입장에서는	-8876
28	-8877
로워	-8878
부총	-8879
풍을	-8880
SNS	-8881
▁앤은	-8882
▁여수	-8883
▁위의	-8884
▁근거가	-8885
▁말씀을	-8886
▁바꾸는	-8887
▁벨기에	-8888
▁태권도	-8889
교가	-8890
나이	-8891
슈타	-8892
스키	-8893
▁마리	-8894
▁불꽃	-8895
▁상반	-8896
▁선포	-8897
하느냐	-8898
▁건물이	-8899
▁검찰의	-8900
▁나누는	-8901
▁도착한	-8902
▁로이터	-8903
▁수술을	-8904
▁얻었다	-8905
▁주변의	-8906
▁다음으로	-8907
▁아무래도	-8908
▁《	-8909
▁곱	-8910
값이	-8911
▁몰래	-8912
렸다고	-8913
만원의	-8914
▁BMW	-8915
▁불편한	-8916
▁사망한	-8917
▁시민이	-8918
▁자유를	-8919
▁설명하는	-8920
▁패스트트랙	-8921
던데	-8922
사용	-8923
▁급락	-8924
▁내비	-8925
▁안산	-8926
▁여섯	-8927
▁적정	-8928
▁적혀	-8929
▁전수	-8930
▁한참	-8931
홀에서	-8932
▁가능해	-8933
▁구조가	-8934
▁부모가	-8935
▁수출이	-8936
▁추진할	-8937
▁확대를	-8938
▁성공적인	-8939
▁때문이라고	-8940
▁시청자들의	-8941
▁일각에서는	-8942
▁닥	-8943
▁붓	-8944
▁핑	-8945
소시	-8946
어와	-8947
태가	-8948
▁빅뱅	-8949
▁산책	-8950
▁아랍	-8951
▁탁월	-8952
▁화웨	-8953
기술을	-8954
만명이	-8955
해야만	-8956
▁남아있	-8957
▁힘들다	-8958
교육청은	-8959
▁검토하고	-8960
▁그럼에도	-8961
▁담당하는	-8962
▁독립운동	-8963
▁지역사회	-8964
▁활발하게	-8965
▁탔	-8966
러가	-8967
아리	-8968
조치	-8969
통이	-8970
협정	-8971
▁납품	-8972
▁독서	-8973
▁아끼	-8974
▁야당	-8975
▁적게	-8976
▁피드	-8977
달라는	-8978
밀하게	-8979
▁상처를	-8980
▁이하의	-8981
▁있었기	-8982
▁적용해	-8983
▁전략이	-8984
▁정황이	-8985
▁대중교통	-8986
▁정보통신	-8987
IP	-8988
▁밸	-8989
로에	-8990
루를	-8991
▁구제	-8992
▁극장	-8993
▁목회	-8994
▁인보	-8995
▁종일	-8996
▁콘셉	-8997
▁프랜	-8998
면에서	-8999
▁가맹점	-9000
▁걸리는	-9001
▁교사가	-9002
▁때로는	-9003
▁아니요	-9004
▁예정된	-9005
▁정책의	-9006
▁평범한	-9007
▁이벤트를	-9008
▁전달하는	-9009
업무	-9010
플릭	-9011
▁47	-9012
▁기내	-9013
▁미루	-9014
▁미적	-9015
▁삶에	-9016
▁실감	-9017
▁탈퇴	-9018
▁해킹	-9019
옵니다	-9020
인들을	-9021
▁가난한	-9022
▁개념이	-9023
▁드라이	-9024
▁부른다	-9025
▁부모님	-9026
▁연구에	-9027
▁안전하게	-9028
▁좋아해요	-9029
∼5	-9030
미세	-9031
사한	-9032
▁관중	-9033
▁뷰티	-9034
▁유료	-9035
거리는	-9036
▁가능성	-9037
▁경위를	-9038
▁과정은	-9039
▁규모를	-9040
▁자리매	-9041
▁토트넘	-9042
▁하세요	-9043
▁브렉시트	-9044
▁주관하는	-9045
om	-9046
미한	-9047
키퍼	-9048
피를	-9049
▁다들	-9050
▁될지	-9051
▁외환	-9052
▁횡령	-9053
사업이	-9054
(201	-9055
▁규정을	-9056
▁많은데	-9057
▁벌였다	-9058
▁이르면	-9059
▁전시회	-9060
▁발견했다	-9061
▁원인으로	-9062
▁자리매김	-9063
▁활동하고	-9064
▁5,000	-9065
졌기	-9066
▁미흡	-9067
▁원유	-9068
▁투기	-9069
▁가득한	-9070
▁김경수	-9071
▁대학에	-9072
▁역사가	-9073
▁판결이	-9074
▁확보한	-9075
▁밝혀졌다	-9076
▁생산하는	-9077
▁이어가고	-9078
▁갚	-9079
뒀다	-9080
량과	-9081
으러	-9082
▁고장	-9083
▁교섭	-9084
▁남한	-9085
▁블라	-9086
▁오류	-9087
▁재고	-9088
산으로	-9089
합니까	-9090
▁1∼2	-9091
▁규제가	-9092
▁나서고	-9093
▁세금을	-9094
▁의미로	-9095
▁이어져	-9096
▁장소를	-9097
▁찾아볼	-9098
▁체계를	-9099
▁포스터	-9100
▁무역분쟁	-9101
▁방문하는	-9102
▁중요성을	-9103
▁진심으로	-9104
35	-9105
급여	-9106
▁발령	-9107
▁방정	-9108
▁분포	-9109
▁상무	-9110
▁상응	-9111
▁시켜	-9112
▁오리	-9113
▁잡지	-9114
▁중고	-9115
▁경제에	-9116
▁높였다	-9117
▁드디어	-9118
▁뛰어넘	-9119
▁발표를	-9120
▁요리를	-9121
▁제안한	-9122
▁투자자	-9123
▁했으나	-9124
▁후보는	-9125
▁해주세요	-9126
루가	-9127
▁김기	-9128
▁나쁘	-9129
▁물가	-9130
▁수색	-9131
▁재벌	-9132
거리를	-9133
는데도	-9134
▁금액이	-9135
▁기대해	-9136
▁마시고	-9137
▁목적을	-9138
▁사진은	-9139
▁이용자	-9140
▁평가다	-9141
▁표현을	-9142
▁발생하고	-9143
▁일자리가	-9144
▁관계자들이	-9145
99	-9146
계와	-9147
니가	-9148
다리	-9149
디아	-9150
를린	-9151
카데	-9152
팀을	-9153
피아	-9154
▁거친	-9155
▁국악	-9156
▁대대	-9157
▁때의	-9158
▁소멸	-9159
▁스프	-9160
▁제고	-9161
▁줄이	-9162
기에서	-9163
▁결정할	-9164
▁국회가	-9165
▁문화와	-9166
▁미래의	-9167
▁유학생	-9168
▁이내에	-9169
▁생각하면	-9170
▁업체들이	-9171
▁콘텐츠가	-9172
▁혁	-9173
영은	-9174
크로	-9175
▁너와	-9176
▁선을	-9177
▁용이	-9178
▁정서	-9179
▁출제	-9180
▁피할	-9181
경찰청	-9182
역으로	-9183
중공업	-9184
▁변화는	-9185
▁수차례	-9186
▁심사를	-9187
▁전략적	-9188
벤처기업	-9189
▁공간으로	-9190
▁보고서는	-9191
▁해석된다	-9192
▁깃	-9193
▁얇	-9194
치면	-9195
▁견인	-9196
▁군산	-9197
▁레드	-9198
▁믿을	-9199
▁쌓아	-9200
▁진실	-9201
▁책이	-9202
▁환율	-9203
으세요	-9204
▁그녀를	-9205
▁물질이	-9206
▁아닌가	-9207
▁않으며	-9208
▁열리고	-9209
▁요청을	-9210
▁준비해	-9211
▁코스닥	-9212
▁베네수엘	-9213
▁사용하여	-9214
▁제품으로	-9215
피가	-9216
해지	-9217
▁김대	-9218
▁당황	-9219
▁산소	-9220
▁신혼	-9221
▁이모	-9222
▁장착	-9223
▁조세	-9224
▁코미	-9225
▁허락	-9226
사항을	-9227
산업의	-9228
▁거래를	-9229
▁본인의	-9230
▁불편을	-9231
▁알아야	-9232
▁염두에	-9233
▁스트레스	-9234
▁이들에게	-9235
▁일상생활	-9236
▁펼쳐진다	-9237
▁합리적인	-9238
▁쇄	-9239
▁큐	-9240
장치	-9241
증은	-9242
300	-9243
▁고수	-9244
▁그거	-9245
▁모른	-9246
▁물고	-9247
▁미용	-9248
▁약한	-9249
▁제휴	-9250
▁탈락	-9251
▁남자는	-9252
▁명확히	-9253
▁운동이	-9254
▁자료가	-9255
▁줄이고	-9256
▁플랫폼을	-9257
등이	-9258
작을	-9259
조로	-9260
▁기성	-9261
▁방위	-9262
▁염색	-9263
▁진동	-9264
▁파일	-9265
▁마련해	-9266
▁요구가	-9267
▁절차가	-9268
▁제재를	-9269
▁증가할	-9270
▁팬들은	-9271
▁강조하는	-9272
27	-9273
▁맘	-9274
▁컵	-9275
금의	-9276
량에	-9277
로직	-9278
장관	-9279
▁거울	-9280
▁관할	-9281
▁부천	-9282
▁오토	-9283
▁의류	-9284
▁트럭	-9285
▁떨어질	-9286
▁목사는	-9287
▁비트코	-9288
과정에서	-9289
▁3000	-9290
▁이뤄지는	-9291
▁아르헨티나	-9292
▁깎	-9293
보지	-9294
습을	-9295
쾌한	-9296
파를	-9297
▁간다	-9298
▁맞물	-9299
▁전당	-9300
▁청원	-9301
년대에	-9302
▁끊이지	-9303
▁끝나는	-9304
▁나라를	-9305
▁자회사	-9306
▁힘들어	-9307
▁국민들이	-9308
▁민주당이	-9309
▁현지에서	-9310
▁환경에서	-9311
▁못했습니다	-9312
▁전문가들이	-9313
담당	-9314
풀이	-9315
▁녹색	-9316
▁당뇨	-9317
▁데에	-9318
▁득점	-9319
▁배포	-9320
▁산화	-9321
▁테크	-9322
메리카	-9323
▁골키퍼	-9324
▁대표와	-9325
▁도입을	-9326
▁작가가	-9327
▁전세계	-9328
▁2003	-9329
▁등장했다	-9330
▁조별리그	-9331
▁지역으로	-9332
▁확인하는	-9333
▁프로그램에	-9334
두를	-9335
▁LA	-9336
▁높을	-9337
▁육군	-9338
▁일회	-9339
▁침체	-9340
▁태어	-9341
▁협박	-9342
주의적	-9343
▁강화를	-9344
▁노동당	-9345
▁누구도	-9346
▁돌아온	-9347
▁2001	-9348
▁내용이다	-9349
▁휴대전화	-9350
▁끄	-9351
바닥	-9352
▁사령	-9353
▁살짝	-9354
▁서부	-9355
▁있니	-9356
목으로	-9357
적이지	-9358
졌으며	-9359
▁건강에	-9360
▁국내에	-9361
▁사건과	-9362
▁예정인	-9363
▁조건이	-9364
▁크다는	-9365
▁판매를	-9366
▁마이크로	-9367
막을	-9368
즈의	-9369
.”"	-9370
▁갤러	-9371
▁대여	-9372
▁맞춘	-9373
▁매진	-9374
▁무선	-9375
▁번의	-9376
▁2∼3	-9377
▁갑니다	-9378
▁국민청	-9379
▁미치지	-9380
▁부산시	-9381
▁비로소	-9382
▁사라진	-9383
▁줄이는	-9384
▁줍니다	-9385
음과	-9386
음의	-9387
조한	-9388
▁늦은	-9389
▁안고	-9390
▁유죄	-9391
▁임직	-9392
센터를	-9393
▁국회에	-9394
▁농도가	-9395
▁되기를	-9396
▁양승태	-9397
▁동영상을	-9398
▁아니에요	-9399
▁연결하는	-9400
▁가능하다는	-9401
▁이루어지는	-9402
▁팟	-9403
검찰	-9404
공학	-9405
숙한	-9406
▁뭐가	-9407
▁밀집	-9408
▁섬유	-9409
▁오해	-9410
▁출간	-9411
계획을	-9412
▁받으며	-9413
▁언론에	-9414
▁이집트	-9415
▁일본인	-9416
▁지니고	-9417
▁2021	-9418
▁예상했다	-9419
▁갇	-9420
나고	-9421
바람	-9422
융합	-9423
차의	-9424
최근	-9425
통합	-9426
프리	-9427
▁귀여	-9428
▁넥센	-9429
▁믿는	-9430
▁진주	-9431
▁편이	-9432
▁공격을	-9433
▁기여할	-9434
▁똑같이	-9435
▁버닝썬	-9436
▁소득이	-9437
▁입니다	-9438
▁작가의	-9439
▁지원한다	-9440
▁회의에서	-9441
스피	-9442
줘서	-9443
촛불	-9444
▁복구	-9445
▁손잡	-9446
그리고	-9447
▁개선이	-9448
▁데이트	-9449
▁아내가	-9450
▁피아노	-9451
▁문제점을	-9452
▁변호사는	-9453
▁들었습니다	-9454
▁경유	-9455
▁고무	-9456
▁되자	-9457
▁드물	-9458
▁모래	-9459
▁벤투	-9460
▁복용	-9461
▁신념	-9462
▁썼다	-9463
▁주축	-9464
▁허리	-9465
주의가	-9466
▁강조한	-9467
▁생명을	-9468
▁연기가	-9469
▁원장은	-9470
기보다는	-9471
▁에너지가	-9472
▁여성들이	-9473
▁움직임을	-9474
MO	-9475
▁윗	-9476
간담	-9477
▁까다	-9478
▁돌봄	-9479
▁면담	-9480
▁면허	-9481
▁방학	-9482
▁소장	-9483
▁외면	-9484
▁점포	-9485
▁춘천	-9486
포스트	-9487
협의회	-9488
화하기	-9489
▁떨어뜨	-9490
▁신도시	-9491
▁주시기	-9492
▁진출을	-9493
▁프라이	-9494
▁중요하게	-9495
▁결과적으로	-9496
UV	-9497
▁p	-9498
들고	-9499
상승	-9500
적일	-9501
체제	-9502
▁감수	-9503
▁과일	-9504
▁매운	-9505
▁상가	-9506
▁역전	-9507
▁자사	-9508
▁정한	-9509
▁지낸	-9510
차이즈	-9511
▁권한을	-9512
▁단위로	-9513
▁불만이	-9514
▁제기된	-9515
▁펼치고	-9516
▁근로시간	-9517
▁보내주세요	-9518
DA	-9519
▁땐	-9520
밀히	-9521
부처	-9522
소리	-9523
차전	-9524
▁49	-9525
▁네덜	-9526
▁도망	-9527
▁어르	-9528
▁업그	-9529
▁연내	-9530
▁의장	-9531
라인을	-9532
▁뉴스를	-9533
▁시청률	-9534
▁여부가	-9535
▁행정부	-9536
▁고객들이	-9537
▁때문으로	-9538
▁법원행정처	-9539
▁당첨	-9540
▁응용	-9541
▁의문	-9542
▁일간	-9543
▁주간	-9544
▁파동	-9545
▁혐오	-9546
▁거래소	-9547
▁달러를	-9548
▁손님이	-9549
▁아래로	-9550
▁차이는	-9551
어에	-9552
▁기하	-9553
▁김포	-9554
▁끝났	-9555
▁나지	-9556
▁무장	-9557
▁비극	-9558
▁산정	-9559
▁새끼	-9560
▁시술	-9561
▁없었	-9562
▁온갖	-9563
▁운항	-9564
▁집은	-9565
▁화제	-9566
▁고양이	-9567
▁대화가	-9568
▁모델이	-9569
▁북한과	-9570
▁예약을	-9571
▁가족들이	-9572
▁이야기는	-9573
▁가능하도록	-9574
PC	-9575
▁굽	-9576
금과	-9577
니얼	-9578
마는	-9579
막이	-9580
채널	-9581
▁것만	-9582
▁불량	-9583
▁사후	-9584
▁성경	-9585
▁측에	-9586
▁커플	-9587
생들이	-9588
스러워	-9589
태평양	-9590
▁방송된	-9591
▁서초구	-9592
▁적용할	-9593
▁학교가	-9594
▁내년부터	-9595
▁요인으로	-9596
▁전반적인	-9597
37	-9598
BA	-9599
신고	-9600
언이	-9601
적한	-9602
POP	-9603
▁각기	-9604
▁개가	-9605
▁개통	-9606
▁마땅	-9607
▁실태	-9608
▁아웃	-9609
▁유망	-9610
▁태도	-9611
▁한가	-9612
보다도	-9613
▁드러내	-9614
▁문제다	-9615
▁부상을	-9616
▁싶어서	-9617
▁여부에	-9618
▁인식을	-9619
▁합의한	-9620
적이라는	-9621
▁경우에도	-9622
▁선정됐다	-9623
▁어디에서	-9624
▁자유로운	-9625
▁뽐	-9626
생의	-9627
신한	-9628
텔링	-9629
▁고속	-9630
▁노벨	-9631
▁류현	-9632
▁발병	-9633
▁빈곤	-9634
▁산출	-9635
▁이혼	-9636
▁타는	-9637
▁포르	-9638
▁블랙홀	-9639
▁운전자	-9640
▁이사회	-9641
▁중국인	-9642
▁공개됐다	-9643
▁기다리는	-9644
▁드라마가	-9645
▁마련했다	-9646
▁불가능하다	-9647
▁전체적으로	-9648
▁아시아나항공	-9649
ES	-9650
세한	-9651
▁도모	-9652
▁세우	-9653
▁슬픔	-9654
▁좋게	-9655
▁파손	-9656
별로는	-9657
주의의	-9658
▁각자의	-9659
▁것이기	-9660
▁내년에	-9661
▁높아질	-9662
▁보도에	-9663
▁사정이	-9664
▁수학적	-9665
▁원인은	-9666
▁선보였다	-9667
자흐	-9668
주얼	-9669
진한	-9670
호와	-9671
▁농협	-9672
▁이겨	-9673
▁중기	-9674
▁콜라	-9675
▁해줄	-9676
감으로	-9677
정보를	-9678
▁기사가	-9679
▁넷플릭	-9680
▁당시의	-9681
▁시리아	-9682
▁아닐까	-9683
▁영화제	-9684
▁주제를	-9685
▁중심에	-9686
▁수단으로	-9687
▁여론조사	-9688
▁지원하고	-9689
MA	-9690
션은	-9691
차원	-9692
▁특혜	-9693
▁헬스	-9694
▁과학적	-9695
▁대단히	-9696
▁뚜렷한	-9697
▁말이야	-9698
▁방문할	-9699
▁불거진	-9700
▁속에는	-9701
▁지사는	-9702
▁진술을	-9703
▁선수들의	-9704
23	-9705
나와	-9706
크의	-9707
토리	-9708
▁괴롭	-9709
▁나눌	-9710
▁법관	-9711
▁이자	-9712
▁일로	-9713
▁중성	-9714
개월간	-9715
광역시	-9716
▁감정이	-9717
▁기후변	-9718
▁받으면	-9719
▁백화점	-9720
▁신고가	-9721
▁그들에게	-9722
▁부드러운	-9723
▁팩	-9724
장비	-9725
▁대개	-9726
▁벗어	-9727
▁양식	-9728
▁우편	-9729
▁유독	-9730
▁짐을	-9731
▁학원	-9732
▁괜찮은	-9733
▁그렇다	-9734
▁모양의	-9735
▁물질을	-9736
▁베스트	-9737
▁측면이	-9738
▁헝	-9739
▁거둔	-9740
▁기숙	-9741
▁김씨	-9742
▁대가	-9743
▁되며	-9744
▁마라	-9745
▁부를	-9746
▁분식	-9747
▁어릴	-9748
▁원의	-9749
금으로	-9750
페이스	-9751
하시고	-9752
▁게스트	-9753
▁기소된	-9754
▁대비해	-9755
▁베를린	-9756
▁업계의	-9757
▁장비를	-9758
▁지나면	-9759
▁한동안	-9760
▁국토교통부	-9761
바다	-9762
제재	-9763
췄다	-9764
▁납부	-9765
▁눈빛	-9766
▁맞대	-9767
▁소중	-9768
▁시원	-9769
▁신축	-9770
▁실효	-9771
▁써야	-9772
▁아미	-9773
▁판사	-9774
▁했어	-9775
셨어요	-9776
▁119	-9777
▁25%	-9778
▁결혼을	-9779
▁부산의	-9780
▁제안을	-9781
▁1960	-9782
▁국가안보	-9783
▁사회복지	-9784
▁있는지를	-9785
▁긍정적으로	-9786
▁미세먼지가	-9787
OC	-9788
▁햄	-9789
곳을	-9790
교사	-9791
▁고도	-9792
▁구독	-9793
▁규명	-9794
▁늘려	-9795
▁다름	-9796
▁신곡	-9797
▁아픔	-9798
▁알파	-9799
▁여객	-9800
▁철회	-9801
▁플래	-9802
▁확립	-9803
▁가지가	-9804
▁생긴다	-9805
▁우연히	-9806
▁행복을	-9807
▁그러면서	-9808
▁디자인을	-9809
▁사람들도	-9810
▁할리우드	-9811
주시겠어요	-9812
길에	-9813
독립	-9814
킬로	-9815
▁민원	-9816
▁밀레	-9817
▁싸움	-9818
▁일할	-9819
▁지루	-9820
콘텐츠	-9821
▁실적을	-9822
▁여성을	-9823
▁저한테	-9824
▁키우는	-9825
▁강화하는	-9826
▁브랜드를	-9827
▁언제든지	-9828
▁요구하고	-9829
▁포함됐다	-9830
▁형식으로	-9831
구니	-9832
군과	-9833
로도	-9834
석과	-9835
▁감성	-9836
▁고창	-9837
▁마사	-9838
▁무인	-9839
▁배워	-9840
▁인민	-9841
▁책의	-9842
▁한꺼	-9843
경영자	-9844
스리그	-9845
지기도	-9846
지역의	-9847
▁90%	-9848
▁대표적	-9849
▁설립한	-9850
▁타격을	-9851
▁흥미를	-9852
▁전반적으로	-9853
▁붐	-9854
곳에	-9855
물리	-9856
편에	-9857
▁골라	-9858
▁바가	-9859
▁비준	-9860
▁신년	-9861
▁얻기	-9862
▁체류	-9863
▁표기	-9864
캐스트	-9865
▁공연은	-9866
▁모르고	-9867
▁부총리	-9868
▁온도가	-9869
▁올리고	-9870
▁지분을	-9871
▁해주는	-9872
▁화웨이	-9873
구성	-9874
역의	-9875
예산	-9876
중심	-9877
▁반사	-9878
▁별도	-9879
▁수단	-9880
▁조종	-9881
▁질의	-9882
▁청문	-9883
▁초록	-9884
▁개발이	-9885
▁광고는	-9886
▁사무실	-9887
▁사항이	-9888
▁성분이	-9889
▁싶다는	-9890
▁예술의	-9891
▁잘하는	-9892
▁지위를	-9893
▁최저임	-9894
▁학생은	-9895
▁후에도	-9896
▁서비스는	-9897
▁인터넷을	-9898
▁해외에서	-9899
▁자유한국당이	-9900
SD	-9901
출산	-9902
타워	-9903
▁녹아	-9904
▁동성	-9905
▁박스	-9906
▁소련	-9907
▁주소	-9908
▁포도	-9909
▁학과	-9910
니스트	-9911
로서는	-9912
문으로	-9913
였으며	-9914
자마자	-9915
▁상품은	-9916
▁승인을	-9917
▁영화에	-9918
▁민주평화	-9919
▁한꺼번에	-9920
as	-9921
▁c	-9922
기사	-9923
르몬	-9924
수지	-9925
현의	-9926
히지	-9927
▁54	-9928
▁실수	-9929
▁외출	-9930
▁유래	-9931
▁탄산	-9932
서에서	-9933
장에는	-9934
▁라이프	-9935
▁서둘러	-9936
▁속으로	-9937
▁언론의	-9938
▁장관의	-9939
▁줄었다	-9940
▁행동이	-9941
▁이용자가	-9942
▁축구대표	-9943
▁밝혔습니다	-9944
EU	-9945
사실	-9946
역사	-9947
하듯	-9948
▁귀가	-9949
▁내수	-9950
▁발간	-9951
▁수직	-9952
▁쉽고	-9953
▁야생	-9954
▁캠프	-9955
했으면	-9956
▁공급이	-9957
▁대상에	-9958
▁사례는	-9959
▁오후에	-9960
▁작품의	-9961
▁주셔서	-9962
▁폭염이	-9963
▁이뤄지고	-9964
▁집중되고	-9965
▁효율적으로	-9966
과도	-9967
역은	-9968
▁56	-9969
▁AP	-9970
▁강좌	-9971
▁결심	-9972
▁경력	-9973
▁교차	-9974
▁답답	-9975
▁동양	-9976
▁아트	-9977
▁역설	-9978
▁오빠	-9979
▁자존	-9980
▁총수	-9981
▁획기	-9982
미세먼	-9983
▁대학의	-9984
▁설명해	-9985
▁시작되었다	-9986
▁과학기술정보통신	-9987
MC	-9988
MS	-9989
병이	-9990
보장	-9991
스레	-9992
저히	-9993
플러	-9994
▁걸고	-9995
▁길에	-9996
▁달콤	-9997
▁박원	-9998
▁블룸	-9999
▁열대	-10000
▁짓고	-10001
▁출현	-10002
▁치고	-10003
▁내리고	-10004
▁데리고	-10005
▁생각은	-10006
▁여학생	-10007
▁위대한	-10008
▁공유하고	-10009
▁의사소통	-10010
▁소방당국은	-10011
▁실시간으로	-10012
광고	-10013
뉴얼	-10014
니스	-10015
신에	-10016
욕을	-10017
저가	-10018
청정	-10019
통화	-10020
하가	-10021
▁김모	-10022
▁리콜	-10023
▁모순	-10024
▁열쇠	-10025
▁요양	-10026
▁침입	-10027
▁800	-10028
▁꼽히는	-10029
▁시간의	-10030
▁친구는	-10031
▁트레이	-10032
있습니다	-10033
▁그러니까	-10034
▁성공했다	-10035
돌이	-10036
하에	-10037
형에	-10038
▁가라	-10039
▁기차	-10040
▁너도	-10041
▁민속	-10042
▁상실	-10043
▁영등	-10044
▁웨이	-10045
▁잡는	-10046
▁쪽에	-10047
▁치솟	-10048
번호를	-10049
▁가벼운	-10050
▁급격한	-10051
▁분야를	-10052
▁장기간	-10053
▁현상은	-10054
경찰서는	-10055
▁공유하는	-10056
▁관광객이	-10057
▁의미하는	-10058
▁주목받고	-10059
▁꽉	-10060
▁퓨	-10061
럽게	-10062
악한	-10063
▁바쁜	-10064
▁발라	-10065
▁불필	-10066
▁실리	-10067
▁정수	-10068
▁푸틴	-10069
▁휘발	-10070
셨나요	-10071
▁봅니다	-10072
▁시기를	-10073
▁이슈가	-10074
▁주식을	-10075
▁기록하며	-10076
▁마련됐다	-10077
▁영향력이	-10078
▁이후에는	-10079
가리	-10080
보드	-10081
보에	-10082
심과	-10083
아파	-10084
여름	-10085
현재	-10086
▁41	-10087
▁말라	-10088
▁서식	-10089
▁여권	-10090
▁잉글	-10091
▁정준	-10092
▁타깃	-10093
▁국가주	-10094
▁노트북	-10095
▁높아진	-10096
▁되어서	-10097
▁들어선	-10098
▁명확한	-10099
▁의약품	-10100
▁인상이	-10101
▁일부는	-10102
▁정보는	-10103
▁패러다	-10104
▁삼성전자는	-10105
(9	-10106
▁숭	-10107
되게	-10108
▁57	-10109
▁강행	-10110
▁겪은	-10111
▁동부	-10112
▁민정	-10113
▁발명	-10114
▁상환	-10115
▁샌드	-10116
▁유로	-10117
▁임차	-10118
▁잡을	-10119
사업에	-10120
▁가족의	-10121
▁거리에	-10122
▁것인데	-10123
▁고민이	-10124
▁다음날	-10125
▁대다수	-10126
▁모델로	-10127
▁물건이	-10128
▁서서히	-10129
▁소감을	-10130
▁시드니	-10131
▁시설을	-10132
▁하도록	-10133
▁떨어졌다	-10134
▁집계됐다	-10135
▁예정이라고	-10136
▁삼성바이오로직	-10137
26	-10138
인들	-10139
체와	-10140
▁75	-10141
▁강도	-10142
▁검거	-10143
▁보행	-10144
▁수렴	-10145
▁아세	-10146
▁진전	-10147
가에서	-10148
▁너한테	-10149
▁돌아와	-10150
▁서울과	-10151
▁있었을	-10152
▁지방의	-10153
▁최우수	-10154
▁파일을	-10155
▁전국에서	-10156
▁전문가가	-10157
▁몬	-10158
값을	-10159
디가	-10160
론에	-10161
일지	-10162
TBC	-10163
▁비평	-10164
▁요약	-10165
▁지주	-10166
렸지만	-10167
▁강의를	-10168
▁바람을	-10169
▁사진과	-10170
▁신세계	-10171
▁안전을	-10172
▁진행해	-10173
▁핀테크	-10174
축구연맹	-10175
▁데이터가	-10176
▁변호사가	-10177
▁이메일을	-10178
▁표현하는	-10179
례가	-10180
올해	-10181
찰을	-10182
트라	-10183
800	-10184
▁골을	-10185
▁뇌물	-10186
▁다큐	-10187
▁달린	-10188
▁부드	-10189
▁속속	-10190
▁처방	-10191
▁해변	-10192
▁공간에	-10193
▁김성태	-10194
▁느끼게	-10195
▁대출을	-10196
▁도착할	-10197
▁불평등	-10198
▁유형의	-10199
▁인근에	-10200
▁파악할	-10201
▁방법이다	-10202
더블	-10203
수원	-10204
자다	-10205
천여	-10206
총장	-10207
▁머릿	-10208
▁숨겨	-10209
▁열차	-10210
▁입건	-10211
▁출생	-10212
▁투약	-10213
시에서	-10214
에게서	-10215
주시는	-10216
▁과거에	-10217
▁예컨대	-10218
▁죽음을	-10219
▁카자흐	-10220
▁커피를	-10221
▁그리스도	-10222
▁다채로운	-10223
▁신속하게	-10224
▁이어진다	-10225
▁주장하고	-10226
▁랭	-10227
위험	-10228
호한	-10229
▁고가	-10230
▁민생	-10231
▁사흘	-10232
▁식약	-10233
▁퍼져	-10234
느냐는	-10235
렸다는	-10236
화되는	-10237
▁결정에	-10238
▁상품의	-10239
▁설명이	-10240
▁신선한	-10241
▁어렵고	-10242
▁있는가	-10243
▁확인된	-10244
▁노력하고	-10245
▁서울시는	-10246
▁자신만의	-10247
·3	-10248
▁윈	-10249
▁흩	-10250
긴다	-10251
동강	-10252
▁변환	-10253
▁실력	-10254
▁저질	-10255
▁치명	-10256
렸는데	-10257
미사일	-10258
▁늘리는	-10259
▁당연한	-10260
▁무거운	-10261
▁사실에	-10262
▁강화하고	-10263
▁네덜란드	-10264
▁대회에서	-10265
▁모르겠어요	-10266
마의	-10267
프레	-10268
▁교민	-10269
▁놀랍	-10270
▁대결	-10271
▁로그	-10272
▁로스	-10273
▁무덤	-10274
▁바퀴	-10275
▁수록	-10276
▁영구	-10277
▁유학	-10278
▁푸른	-10279
▁국토부	-10280
▁목적은	-10281
▁싶었다	-10282
▁있었어	-10283
▁지속될	-10284
▁그곳에서	-10285
▁제시하는	-10286
29	-10287
▁낡	-10288
▁결성	-10289
▁도민	-10290
▁돼지	-10291
▁무의	-10292
▁방에	-10293
▁배를	-10294
▁올릴	-10295
▁철수	-10296
▁최다	-10297
하게도	-10298
▁가족을	-10299
▁논란에	-10300
▁목표는	-10301
▁사랑의	-10302
▁처분을	-10303
▁둘러싸고	-10304
▁3,000	-10305
반을	-10306
브를	-10307
재정	-10308
▁명품	-10309
▁반등	-10310
▁반해	-10311
▁짓는	-10312
협회가	-10313
▁동아리	-10314
▁뜻한다	-10315
▁바닥에	-10316
▁보이며	-10317
▁성장이	-10318
▁아이는	-10319
▁예전에	-10320
▁일련의	-10321
▁벌어졌다	-10322
▁안정적으로	-10323
▁페이스북에	-10324
널티	-10325
부채	-10326
신경	-10327
유예	-10328
▁과잉	-10329
▁과장	-10330
▁안의	-10331
▁앱을	-10332
▁정무	-10333
▁침묵	-10334
▁호남	-10335
▁화를	-10336
계에서	-10337
해주고	-10338
▁기반의	-10339
▁기술적	-10340
▁등이다	-10341
▁중간에	-10342
▁흐르는	-10343
▁살펴보고	-10344
▁시작된다	-10345
▁추가적인	-10346
▁해결하는	-10347
2,	-10348
말이	-10349
무늬	-10350
▁5%	-10351
▁그로	-10352
▁낯선	-10353
▁내륙	-10354
▁불리	-10355
▁용의	-10356
▁좁은	-10357
지역에	-10358
▁감소한	-10359
▁드루킹	-10360
▁박물관	-10361
▁분명한	-10362
▁역사의	-10363
▁저지른	-10364
▁최대의	-10365
▁비핵화를	-10366
▁홈페이지	-10367
▁활동하는	-10368
▁전국적으로	-10369
EA	-10370
중소	-10371
훈이	-10372
희롱	-10373
▁국어	-10374
▁반환	-10375
▁신기	-10376
▁역동	-10377
의약품	-10378
▁생기면	-10379
▁시기가	-10380
▁언론이	-10381
▁주의를	-10382
▁펼쳤다	-10383
으로서의	-10384
▁일어났다	-10385
▁텔레비전	-10386
▁턱	-10387
브이	-10388
▁병행	-10389
▁연대	-10390
▁폭넓	-10391
▁표를	-10392
▁관리에	-10393
▁미생물	-10394
▁산업혁	-10395
▁알리고	-10396
▁언어를	-10397
▁의식을	-10398
▁의혹과	-10399
▁지원해	-10400
▁앞으로는	-10401
▁일으키는	-10402
▁초등학생	-10403
아트	-10404
▁IP	-10405
▁가령	-10406
▁개그	-10407
▁대입	-10408
▁돌연	-10409
▁동행	-10410
▁돼서	-10411
▁되찾	-10412
▁매도	-10413
▁삼각	-10414
▁안방	-10415
▁회수	-10416
▁이상인	-10417
▁있거나	-10418
▁정치권	-10419
▁클래식	-10420
▁평화를	-10421
▁혁신을	-10422
▁확인을	-10423
네트워크	-10424
▁기업들은	-10425
▁모르겠다	-10426
▁시스템은	-10427
▁소비자들의	-10428
▁스토리텔링	-10429
▁족	-10430
▁캄	-10431
▁핫	-10432
각이	-10433
교는	-10434
연은	-10435
▁구직	-10436
▁대조	-10437
▁박성	-10438
▁실증	-10439
▁양극	-10440
▁억울	-10441
▁적립	-10442
▁하얀	-10443
문화가	-10444
방안을	-10445
▁내용과	-10446
▁번호를	-10447
▁요구한	-10448
▁인사청	-10449
▁주민이	-10450
▁추천해	-10451
▁혜택이	-10452
▁불과하다	-10453
▁프랜차이즈	-10454
▁톱	-10455
금지	-10456
나갈	-10457
남북	-10458
조작	-10459
팅을	-10460
편을	-10461
▁53	-10462
▁각별	-10463
▁따져	-10464
▁만성	-10465
▁민중	-10466
▁법조	-10467
▁비닐	-10468
▁신도	-10469
▁정밀	-10470
▁조립	-10471
▁후배	-10472
이므로	-10473
층으로	-10474
▁냄새가	-10475
▁두려워	-10476
▁성추행	-10477
▁인간을	-10478
▁페널티	-10479
▁하나님	-10480
▁블룸버그	-10481
▁아직까지	-10482
▁불확실성이	-10483
고객	-10484
청의	-10485
하되	-10486
▁까닭	-10487
▁막판	-10488
▁상의	-10489
▁선별	-10490
▁수확	-10491
▁입소	-10492
▁저번	-10493
▁화성	-10494
계약을	-10495
사무소	-10496
지거나	-10497
▁결과다	-10498
▁나오면	-10499
▁만나서	-10500
▁우려도	-10501
▁익숙한	-10502
▁특징은	-10503
▁확인이	-10504
만원으로	-10505
▁대목이다	-10506
▁벌어지는	-10507
▁보이지만	-10508
▁소개하는	-10509
SA	-10510
∼8	-10511
▁쉴	-10512
스카	-10513
▁봐요	-10514
▁원정	-10515
▁조지	-10516
▁죽을	-10517
효과가	-10518
▁대법관	-10519
▁말씀해	-10520
▁블록체	-10521
▁식민지	-10522
▁아래와	-10523
▁작업에	-10524
▁나라에서	-10525
▁예상보다	-10526
▁적용되는	-10527
▁집중적으로	-10528
가치	-10529
야만	-10530
▁곳도	-10531
▁봤을	-10532
▁상속	-10533
▁신생	-10534
▁제천	-10535
▁하천	-10536
나가는	-10537
▁메모리	-10538
▁좋다고	-10539
▁할게요	-10540
위원회에	-10541
▁금감원은	-10542
▁원합니다	-10543
▁제기되고	-10544
ST	-10545
건은	-10546
규칙	-10547
레일	-10548
인력	-10549
집에	-10550
파의	-10551
한을	-10552
▁근데	-10553
▁기기	-10554
▁내면	-10555
▁수령	-10556
▁입맛	-10557
▁햇빛	-10558
갑니다	-10559
베이터	-10560
▁경우를	-10561
▁남북이	-10562
▁부인이	-10563
▁실력이	-10564
▁운영을	-10565
▁효과는	-10566
▁스트레스를	-10567
▁국무위원장의	-10568
데다	-10569
들인	-10570
러는	-10571
신저	-10572
한이	-10573
호로	-10574
▁난다	-10575
▁손쉽	-10576
▁아인	-10577
▁접할	-10578
▁차로	-10579
▁추상	-10580
▁커진	-10581
▁탐구	-10582
텔레콤	-10583
▁건물을	-10584
▁되는지	-10585
▁시점에	-10586
▁연결된	-10587
▁이른다	-10588
▁자리잡	-10589
▁지나지	-10590
▁경기도가	-10591
▁메시지가	-10592
▁물론이고	-10593
▁실정이다	-10594
▁지속가능	-10595
셔츠	-10596
임은	-10597
LED	-10598
▁58	-10599
▁공영	-10600
▁기금	-10601
▁뜨거	-10602
▁민감	-10603
▁심판	-10604
▁입사	-10605
▁입자	-10606
▁전도	-10607
▁전술	-10608
▁터져	-10609
▁해고	-10610
▁화해	-10611
되었을	-10612
어졌다	-10613
▁60%	-10614
▁꼽았다	-10615
▁많아요	-10616
▁바라요	-10617
▁시설이	-10618
▁언제든	-10619
▁이끌고	-10620
▁인생을	-10621
▁전쟁을	-10622
▁피부에	-10623
▁흐름이	-10624
▁1998	-10625
▁선보인다	-10626
▁말했습니다	-10627
ch	-10628
ig	-10629
나의	-10630
소방	-10631
이닝	-10632
400	-10633
▁강서	-10634
▁게이	-10635
▁공적	-10636
▁김부	-10637
▁남양	-10638
▁남지	-10639
▁당내	-10640
▁매월	-10641
▁빈번	-10642
▁세무	-10643
▁쉽다	-10644
▁시티	-10645
▁우유	-10646
▁주면	-10647
▁패배	-10648
년으로	-10649
▁같네요	-10650
▁내놨다	-10651
▁말았다	-10652
▁머리가	-10653
▁메이크	-10654
▁스타벅	-10655
▁위안부	-10656
▁주장한	-10657
▁행사로	-10658
▁가능하고	-10659
▁공부하는	-10660
▁들어오는	-10661
▁사업으로	-10662
▁제기했다	-10663
▁우리나라는	-10664
▁튼	-10665
공유	-10666
렘방	-10667
르트	-10668
있어	-10669
▁날을	-10670
▁사각	-10671
▁이의	-10672
▁잠정	-10673
▁팀은	-10674
▁한달	-10675
▁후회	-10676
드리고	-10677
명에게	-10678
속에서	-10679
▁교회가	-10680
▁동남아	-10681
▁블라디	-10682
▁수업에	-10683
▁아직은	-10684
▁정신이	-10685
▁하다가	-10686
▁후보자	-10687
더라고요	-10688
▁높아졌다	-10689
▁평가하는	-10690
▁이루어진다	-10691
▁굿	-10692
심은	-10693
움과	-10694
진에	-10695
책이	-10696
▁4,	-10697
▁모범	-10698
▁분기	-10699
▁비건	-10700
▁살려	-10701
▁아저	-10702
▁전격	-10703
▁촛불	-10704
▁추후	-10705
▁항암	-10706
▁감동을	-10707
▁약간의	-10708
▁요즘은	-10709
▁정도를	-10710
▁크리에	-10711
▁관련해서	-10712
▁비례대표	-10713
▁사용한다	-10714
▁세상에서	-10715
▁주십시오	-10716
ro	-10717
un	-10718
▁뻗	-10719
주간	-10720
ECD	-10721
▁깊게	-10722
▁나간	-10723
▁리듬	-10724
▁선전	-10725
▁영웅	-10726
▁유인	-10727
▁임종	-10728
▁자고	-10729
▁채무	-10730
▁걸렸다	-10731
▁계약이	-10732
▁더욱더	-10733
▁모은다	-10734
▁자녀가	-10735
▁차량에	-10736
▁가능성에	-10737
▁사건으로	-10738
▁주최하고	-10739
AP	-10740
기자	-10741
차량	-10742
▁NC	-10743
▁관료	-10744
▁무늬	-10745
▁열정	-10746
▁예로	-10747
▁이송	-10748
▁지수	-10749
▁진압	-10750
▁트리	-10751
석으로	-10752
일수록	-10753
▁기업인	-10754
▁내년도	-10755
▁대상은	-10756
▁축제가	-10757
▁호응을	-10758
▁가격으로	-10759
▁서비스에	-10760
▁시점에서	-10761
▁의미에서	-10762
▁무엇인가요	-10763
22	-10764
▁퀴	-10765
우를	-10766
▁FA	-10767
▁감추	-10768
▁거라	-10769
▁구름	-10770
▁맺고	-10771
▁복제	-10772
▁성도	-10773
▁시골	-10774
▁앞당	-10775
▁우린	-10776
▁우호	-10777
▁재해	-10778
▁편지	-10779
▁해산	-10780
테이너	-10781
▁고객은	-10782
▁교육에	-10783
▁달라진	-10784
▁대중의	-10785
▁시민의	-10786
▁아이들	-10787
▁안에는	-10788
▁장관과	-10789
▁중이던	-10790
▁증거가	-10791
▁채널을	-10792
해지면서	-10793
▁내용으로	-10794
▁수행하는	-10795
▁아이들에게	-10796
▁이루어지고	-10797
▁주시겠어요	-10798
규제	-10799
다이	-10800
마크	-10801
신용	-10802
ent	-10803
▁계정	-10804
▁관절	-10805
▁넣은	-10806
▁녹음	-10807
▁무력	-10808
▁미드	-10809
▁쓰여	-10810
▁액션	-10811
▁용역	-10812
▁자제	-10813
▁적힌	-10814
▁착공	-10815
▁핵무	-10816
았으며	-10817
▁개정안	-10818
▁거기서	-10819
▁밖에서	-10820
▁줄이기	-10821
▁중대한	-10822
▁지키는	-10823
▁질문이	-10824
▁토론토	-10825
▁폴란드	-10826
▁매력적인	-10827
▁받았다고	-10828
▁주도하는	-10829
▁힌	-10830
두는	-10831
비리	-10832
오스	-10833
징용	-10834
침을	-10835
▁남는	-10836
▁만만	-10837
▁변수	-10838
▁송치	-10839
▁양도	-10840
▁여가	-10841
▁잃고	-10842
▁중도	-10843
▁초등	-10844
▁하러	-10845
▁해를	-10846
하우스	-10847
▁가족은	-10848
▁노조가	-10849
▁되기도	-10850
▁말아야	-10851
▁방침을	-10852
▁북한을	-10853
▁심리적	-10854
▁역사상	-10855
▁오늘도	-10856
▁이렇듯	-10857
▁형태가	-10858
▁단계에서	-10859
▁사업이다	-10860
▁어머니는	-10861
▁쪼	-10862
보수	-10863
설에	-10864
으려	-10865
피는	-10866
▁곤란	-10867
▁교정	-10868
▁권위	-10869
▁먹은	-10870
▁방을	-10871
▁쉬는	-10872
▁스핀	-10873
▁응시	-10874
▁임의	-10875
▁카운	-10876
▁금강산	-10877
▁사업자	-10878
▁세상이	-10879
▁않았기	-10880
▁알코올	-10881
▁오스트	-10882
▁왔는데	-10883
▁특성이	-10884
▁선보이는	-10885
ID	-10886
oT	-10887
▁캡	-10888
▁헐	-10889
됐기	-10890
점기	-10891
▁계승	-10892
▁그해	-10893
▁발부	-10894
▁본사	-10895
▁불투	-10896
▁위법	-10897
▁재직	-10898
▁호랑	-10899
▁휴식	-10900
스럽다	-10901
업체가	-10902
▁균형을	-10903
▁내려가	-10904
▁됐다고	-10905
▁뒤에는	-10906
▁못해서	-10907
▁업무에	-10908
▁의미는	-10909
▁제작된	-10910
▁추세다	-10911
▁경쟁력이	-10912
▁미디어를	-10913
▁확대하고	-10914
수출	-10915
원장	-10916
▁골든	-10917
▁끝이	-10918
▁원격	-10919
▁조짐	-10920
▁중복	-10921
▁집어	-10922
▁촉발	-10923
교육의	-10924
▁괜찮을	-10925
▁대표를	-10926
▁많았고	-10927
▁범행을	-10928
▁손쉽게	-10929
▁얘기가	-10930
▁지구의	-10931
▁촬영한	-10932
고속도로	-10933
되었는데	-10934
▁경기도는	-10935
▁국방부는	-10936
▁도시재생	-10937
▁만들어야	-10938
▁명확하게	-10939
▁직원들의	-10940
▁차별화된	-10941
▁행복하게	-10942
▁꽂	-10943
▁톡	-10944
겠고	-10945
대구	-10946
분은	-10947
정지	-10948
철이	-10949
하긴	-10950
▁깔끔	-10951
▁남측	-10952
▁년간	-10953
▁땅에	-10954
▁수혜	-10955
▁외모	-10956
▁자부	-10957
▁정류	-10958
▁클릭	-10959
▁혁명	-10960
어린이	-10961
▁광고가	-10962
▁구매한	-10963
▁방식에	-10964
▁상당의	-10965
▁영원히	-10966
▁이전의	-10967
▁인원이	-10968
▁있다가	-10969
▁절대로	-10970
▁하여금	-10971
▁협의를	-10972
▁공간에서	-10973
▁이뤄진다	-10974
45	-10975
▁굵	-10976
▁넉	-10977
▁싼	-10978
계층	-10979
고사	-10980
균형	-10981
데요	-10982
축산	-10983
통일	-10984
▁과세	-10985
▁달이	-10986
▁중개	-10987
▁청탁	-10988
▁공정한	-10989
▁김동연	-10990
▁샘플을	-10991
▁선진국	-10992
▁세웠다	-10993
▁일본을	-10994
▁제공한	-10995
▁지내고	-10996
▁처벌을	-10997
▁혼자서	-10998
▁시작되는	-10999
▁확산되고	-11000
ad	-11001
슨은	-11002
지표	-11003
▁국외	-11004
▁본부	-11005
▁성별	-11006
▁원이	-11007
▁정황	-11008
▁첨가	-11009
▁총장	-11010
▁팽창	-11011
▁확률	-11012
문화재	-11013
▁교수의	-11014
▁법원은	-11015
▁수시로	-11016
▁위주의	-11017
▁정부를	-11018
▁존재를	-11019
▁1950	-11020
▁나타냈다	-11021
▁비롯하여	-11022
▁마찬가지다	-11023
▁알겠습니다	-11024
▁띈	-11025
페라	-11026
▁결렬	-11027
▁구로	-11028
▁먹지	-11029
▁밴드	-11030
▁불고	-11031
▁원고	-11032
▁유관	-11033
▁이온	-11034
▁한옥	-11035
▁합법	-11036
▁그러니	-11037
▁남겼다	-11038
▁내부의	-11039
▁실리콘	-11040
▁정신적	-11041
▁주인이	-11042
▁증거를	-11043
▁커지는	-11044
▁어렵습니다	-11045
▁s	-11046
공공	-11047
대행	-11048
레인	-11049
리자	-11050
추어	-11051
▁59	-11052
▁고난	-11053
▁고생	-11054
▁과태	-11055
▁번씩	-11056
▁아나	-11057
▁여는	-11058
▁연애	-11059
▁정원	-11060
석에서	-11061
▁가방을	-11062
▁것임을	-11063
▁마스터	-11064
▁목사가	-11065
▁성희롱	-11066
▁선택하는	-11067
▁여러분의	-11068
▁영역에서	-11069
▁청와대는	-11070
▁랩	-11071
겠지	-11072
르며	-11073
영을	-11074
우지	-11075
해볼	-11076
희는	-11077
▁값을	-11078
▁견제	-11079
▁때에	-11080
▁멈춰	-11081
▁야기	-11082
▁위생	-11083
▁차원	-11084
통신은	-11085
▁감사를	-11086
▁군사적	-11087
▁번째는	-11088
▁수요일	-11089
▁신경을	-11090
▁어두운	-11091
▁올해도	-11092
▁위치에	-11093
▁지상파	-11094
▁필요는	-11095
▁학생을	-11096
▁허가를	-11097
되었다는	-11098
▁개인적인	-11099
▁무대에서	-11100
▁주민들은	-11101
TF	-11102
▁샐	-11103
계열	-11104
란이	-11105
하를	-11106
▁경향	-11107
▁내보	-11108
▁놀러	-11109
▁농림	-11110
▁무작	-11111
▁불만	-11112
▁수신	-11113
▁야간	-11114
▁유가	-11115
▁입어	-11116
▁타입	-11117
▁협동	-11118
▁황교	-11119
▁대책이	-11120
▁세계가	-11121
▁세우고	-11122
▁요구에	-11123
▁이목을	-11124
▁투입해	-11125
▁티켓을	-11126
▁휴식을	-11127
회에서는	-11128
▁아버지의	-11129
▁어울리는	-11130
▁캐릭터를	-11131
▁효율적인	-11132
1%	-11133
머스	-11134
세와	-11135
속을	-11136
운을	-11137
인구	-11138
프의	-11139
플루	-11140
▁것인	-11141
▁문이	-11142
▁바꾼	-11143
▁반짝	-11144
▁숨어	-11145
▁아가	-11146
▁준수	-11147
▁키가	-11148
▁700	-11149
▁같다고	-11150
▁게임이	-11151
▁민감한	-11152
▁세계적	-11153
▁장소가	-11154
▁주소를	-11155
▁대학에서	-11156
▁미국으로	-11157
▁잉글랜드	-11158
▁정상적인	-11159
▁중이에요	-11160
▁컴퓨터를	-11161
▁팟캐스트	-11162
▁스마트폰을	-11163
▁업그레이드	-11164
▁감사드립니다	-11165
수술	-11166
장도	-11167
정신	-11168
▁가열	-11169
▁걸로	-11170
▁경매	-11171
▁뒤따	-11172
▁설탕	-11173
▁신조	-11174
▁토로	-11175
▁피로	-11176
납니다	-11177
동에서	-11178
됐으나	-11179
었는지	-11180
제품을	-11181
▁기록이	-11182
▁받았던	-11183
▁분야는	-11184
▁의원을	-11185
▁자금이	-11186
▁장점을	-11187
▁전쟁이	-11188
▁출연한	-11189
▁평화의	-11190
▁후보를	-11191
▁인식하고	-11192
▁자신감을	-11193
▁카메라를	-11194
▁카자흐스탄	-11195
였을	-11196
우주	-11197
준의	-11198
함은	-11199
회관	-11200
▁교원	-11201
▁국산	-11202
▁귀를	-11203
▁많기	-11204
▁밖의	-11205
▁시인	-11206
▁유예	-11207
▁이득	-11208
▁점령	-11209
▁흰색	-11210
부동산	-11211
▁KBO	-11212
▁기준에	-11213
▁아닌지	-11214
▁위치해	-11215
▁폭으로	-11216
▁동아시아	-11217
▁스타디움	-11218
검토	-11219
급이	-11220
멘터	-11221
에겐	-11222
투어	-11223
600	-11224
▁놓인	-11225
▁단말	-11226
▁모듈	-11227
▁세력	-11228
▁세련	-11229
▁소매	-11230
▁어쨌	-11231
▁이가	-11232
▁중계	-11233
사고가	-11234
체계를	-11235
▁가지를	-11236
▁경험과	-11237
▁대가로	-11238
▁발표된	-11239
▁어렸을	-11240
▁자격이	-11241
▁자신과	-11242
▁판단해	-11243
▁속에서도	-11244
▁수상했다	-11245
▁대법원장이	-11246
▁일방적으로	-11247
AE	-11248
SR	-11249
복무	-11250
오를	-11251
(19	-11252
▁99	-11253
▁관행	-11254
▁뉴턴	-11255
▁맺은	-11256
▁상향	-11257
▁안다	-11258
분으로	-11259
었으면	-11260
▁거라는	-11261
▁그것도	-11262
▁기억에	-11263
▁민주화	-11264
▁방문을	-11265
▁변화의	-11266
▁사용된	-11267
▁살펴볼	-11268
▁종류가	-11269
▁규정하고	-11270
▁돌아왔다	-11271
▁비교하면	-11272
▁선거에서	-11273
▁인사청문	-11274
▁자연스러운	-11275
▁감사하겠습니다	-11276
im	-11277
그런	-11278
면적	-11279
문과	-11280
봐도	-11281
와이	-11282
취를	-11283
카페	-11284
▁나뉘	-11285
▁내의	-11286
▁데서	-11287
▁마르	-11288
▁멘토	-11289
▁부패	-11290
▁참모	-11291
회사의	-11292
▁금융위	-11293
▁도대체	-11294
▁많지만	-11295
▁선수의	-11296
▁언제쯤	-11297
▁유용한	-11298
▁하나씩	-11299
▁합니까	-11300
▁휴가를	-11301
▁높아지는	-11302
▁떨어지고	-11303
▁슛	-11304
▁젠	-11305
▁쿼	-11306
우며	-11307
주면	-11308
타르	-11309
타이	-11310
▁PD	-11311
▁건국	-11312
▁경사	-11313
▁고구	-11314
▁기조	-11315
▁눈앞	-11316
▁도약	-11317
▁매번	-11318
▁알레	-11319
▁완공	-11320
▁유착	-11321
▁입점	-11322
▁입지	-11323
▁자는	-11324
▁전교	-11325
▁제이	-11326
▁처한	-11327
▁헤드	-11328
▁관계는	-11329
▁받았고	-11330
▁신호를	-11331
▁앞장서	-11332
▁최적의	-11333
▁다하겠다	-11334
▁중요합니다	-11335
동과	-11336
만히	-11337
버거	-11338
변이	-11339
여자	-11340
왕이	-11341
작업	-11342
▁가파	-11343
▁분담	-11344
▁제로	-11345
▁취한	-11346
물질이	-11347
▁달라질	-11348
▁뜻으로	-11349
▁반영한	-11350
▁발표할	-11351
▁상담을	-11352
▁시원한	-11353
▁의정부	-11354
▁제도다	-11355
▁참가해	-11356
▁코스피	-11357
▁표현이	-11358
▁확보할	-11359
되었다고	-11360
터테인먼	-11361
▁1999	-11362
▁사용하면	-11363
▁하나님이	-11364
류의	-11365
시기	-11366
퇴근	-11367
▁간섭	-11368
▁글쓰	-11369
▁머무	-11370
▁무지	-11371
▁불참	-11372
▁생애	-11373
▁선두	-11374
▁소모	-11375
▁씨를	-11376
▁오브	-11377
▁잇는	-11378
▁적당	-11379
▁집회	-11380
▁쪽은	-11381
▁타결	-11382
졌는데	-11383
했다며	-11384
▁권력을	-11385
▁그다지	-11386
▁다리를	-11387
▁마드리	-11388
▁선수를	-11389
▁전국의	-11390
▁취지로	-11391
▁프레젠	-11392
초등학교	-11393
▁개발하는	-11394
▁분석하고	-11395
▁한국전쟁	-11396
▁확대되고	-11397
∼7	-11398
▁캔	-11399
경원	-11400
는가	-11401
시청	-11402
투를	-11403
▁동계	-11404
▁에피	-11405
▁연수	-11406
▁영세	-11407
▁이산	-11408
▁차에	-11409
▁총선	-11410
▁티비	-11411
▁합작	-11412
트럼프	-11413
▁기대할	-11414
▁방문객	-11415
▁여자친	-11416
▁집중할	-11417
▁화이트	-11418
▁고등학생	-11419
▁관계없이	-11420
▁밀레니얼	-11421
▁받아들일	-11422
▁붙잡혔다	-11423
▁설명하고	-11424
▁힙	-11425
곡을	-11426
곳의	-11427
보로	-11428
타가	-11429
▁개관	-11430
▁골드	-11431
▁누릴	-11432
▁르노	-11433
▁만찬	-11434
▁모의	-11435
▁배후	-11436
▁부가	-11437
▁스파	-11438
▁위성	-11439
▁이뤘	-11440
▁타격	-11441
답니다	-11442
질랜드	-11443
층에서	-11444
▁그것에	-11445
▁모두를	-11446
▁본격화	-11447
▁얼굴에	-11448
▁업체에	-11449
▁우리도	-11450
▁전달할	-11451
▁제임스	-11452
▁제품과	-11453
▁판정을	-11454
▁JTBC	-11455
▁러시아의	-11456
▁손흥민이	-11457
▁인정하고	-11458
▁제조업체	-11459
-3	-11460
재해	-11461
형과	-11462
▁남용	-11463
▁남을	-11464
▁동향	-11465
▁사모	-11466
▁인턴	-11467
▁주방	-11468
▁중견	-11469
들보다	-11470
▁무게를	-11471
▁발견한	-11472
▁배경을	-11473
▁보호를	-11474
▁상하이	-11475
▁수요를	-11476
▁심하게	-11477
▁표현할	-11478
▁확대될	-11479
▁바이러스	-11480
▁인테리어	-11481
▁자발적으로	-11482
감도	-11483
공헌	-11484
리안	-11485
았기	-11486
퍼스	-11487
합을	-11488
▁고시	-11489
▁공군	-11490
▁극우	-11491
▁대성	-11492
▁방이	-11493
▁북핵	-11494
▁않자	-11495
▁얼른	-11496
▁잠실	-11497
▁전임	-11498
▁척추	-11499
작업을	-11500
할수록	-11501
▁높다고	-11502
▁데에는	-11503
▁로버트	-11504
▁빠르고	-11505
▁인력을	-11506
▁지역구	-11507
▁평소에	-11508
▁들었어요	-11509
▁아버지는	-11510
▁이용해서	-11511
▁일이었다	-11512
▁콘텐츠의	-11513
▁할머니가	-11514
▁사우디아라	-11515
▁연구에서는	-11516
oo	-11517
답을	-11518
론적	-11519
방안	-11520
시마	-11521
지금	-11522
▁나눈	-11523
▁두는	-11524
▁반가	-11525
▁비유	-11526
▁수거	-11527
▁승진	-11528
▁열광	-11529
되기를	-11530
했었다	-11531
▁고려한	-11532
▁그쳤다	-11533
▁극심한	-11534
▁병원을	-11535
▁선보일	-11536
▁성매매	-11537
▁어르신	-11538
▁음악이	-11539
▁학교의	-11540
▁활약을	-11541
▁갔습니다	-11542
▁교육부는	-11543
▁다큐멘터	-11544
▁아인슈타	-11545
ER	-11546
개에	-11547
데스	-11548
반이	-11549
방울	-11550
셨다	-11551
순위	-11552
종일	-11553
주실	-11554
지주	-11555
▁가자	-11556
▁다해	-11557
▁돕기	-11558
▁복사	-11559
▁분할	-11560
▁삽입	-11561
▁주저	-11562
▁치유	-11563
▁포트	-11564
는지는	-11565
사회가	-11566
▁1.5	-11567
▁130	-11568
▁거짓말	-11569
▁계열사	-11570
▁박원순	-11571
▁발언이	-11572
▁의도가	-11573
▁일들이	-11574
▁협상에	-11575
▁회담을	-11576
장에서는	-11577
▁국토부는	-11578
▁모양새다	-11579
▁분명하다	-11580
▁참여한다	-11581
▁추진한다	-11582
▁대표적이다	-11583
▁앵	-11584
브라	-11585
역과	-11586
처에	-11587
층은	-11588
▁비자	-11589
▁소지	-11590
▁시키	-11591
▁연상	-11592
▁이끈	-11593
▁전염	-11594
팔렘방	-11595
효과를	-11596
▁강렬한	-11597
▁개최된	-11598
▁대학이	-11599
▁떠나는	-11600
▁만나게	-11601
▁방법에	-11602
▁자원을	-11603
▁걱정하지	-11604
▁고려해야	-11605
▁소개하고	-11606
▁오피스텔	-11607
▁인사들이	-11608
▁자랑하는	-11609
▁제시하고	-11610
▁개인적으로	-11611
▁베네수엘라	-11612
2%	-11613
▁휠	-11614
경의	-11615
디는	-11616
류에	-11617
리랑	-11618
슨이	-11619
씨에	-11620
일리	-11621
캐피	-11622
현은	-11623
▁63	-11624
▁김의	-11625
▁동굴	-11626
▁둘이	-11627
▁부추	-11628
▁살이	-11629
▁수송	-11630
▁흡연	-11631
포인트	-11632
▁공사를	-11633
▁귀추가	-11634
▁그렇기	-11635
▁동의를	-11636
▁불렀다	-11637
▁감소했다	-11638
▁결정적인	-11639
▁기자간담	-11640
SC	-11641
iv	-11642
생물	-11643
아를	-11644
연료	-11645
워드	-11646
인증	-11647
차게	-11648
▁백화	-11649
▁버티	-11650
▁빌딩	-11651
▁뽑아	-11652
▁성형	-11653
▁소위	-11654
▁스키	-11655
▁쌍용	-11656
▁압축	-11657
▁원료	-11658
▁이듬	-11659
▁인문	-11660
▁자택	-11661
▁직권	-11662
▁토끼	-11663
▁통증	-11664
▁표명	-11665
▁표본	-11666
▁화폐	-11667
까지의	-11668
문제를	-11669
하셔야	-11670
하지도	-11671
▁달했다	-11672
▁도시를	-11673
▁반영해	-11674
▁법원의	-11675
▁순으로	-11676
▁신흥국	-11677
▁쏠린다	-11678
▁유가족	-11679
▁치료가	-11680
▁통증이	-11681
▁학생과	-11682
48	-11683
눈에	-11684
작가	-11685
▁것의	-11686
▁내신	-11687
▁누워	-11688
▁도박	-11689
▁동서	-11690
▁막는	-11691
▁분당	-11692
▁읽을	-11693
▁입체	-11694
▁적대	-11695
▁전신	-11696
▁절실	-11697
단에서	-11698
▁공장을	-11699
▁나라에	-11700
▁단기간	-11701
▁마이너	-11702
▁사태를	-11703
▁이해찬	-11704
▁항공기	-11705
▁경고했다	-11706
▁부회장이	-11707
▁않으면서	-11708
위원회에서	-11709
▁공개적으로	-11710
▁알려지면서	-11711
▁갱	-11712
▁솟	-11713
일까	-11714
저널	-11715
학기	-11716
▁광복	-11717
▁꾸며	-11718
▁때와	-11719
▁브로	-11720
▁슬로	-11721
▁악용	-11722
▁용어	-11723
▁은폐	-11724
▁장점	-11725
▁중력	-11726
▁책정	-11727
디자인	-11728
앞으로	-11729
퍼런스	-11730
▁격차가	-11731
▁공사가	-11732
▁비율은	-11733
▁비율을	-11734
▁솔직히	-11735
▁여유가	-11736
▁일제히	-11737
▁차지한	-11738
▁처음에	-11739
▁패턴을	-11740
▁프로듀	-11741
자에게는	-11742
▁1997	-11743
▁드라마의	-11744
▁줄어드는	-11745
▁중간선거	-11746
▁해당한다	-11747
▁갓	-11748
▁밭	-11749
▁찔	-11750
미로	-11751
생태	-11752
▁갈라	-11753
▁고립	-11754
▁교도	-11755
▁나랑	-11756
▁반입	-11757
▁벌여	-11758
▁상습	-11759
▁상을	-11760
▁알기	-11761
▁적자	-11762
▁정성	-11763
▁제발	-11764
▁청취	-11765
▁희귀	-11766
케스트	-11767
하고도	-11768
▁고민을	-11769
▁규정이	-11770
▁도서관	-11771
▁만하다	-11772
▁알렸다	-11773
▁이듬해	-11774
▁조직을	-11775
▁주택을	-11776
▁활동은	-11777
▁브랜드가	-11778
▁업계에서는	-11779
SK	-11780
▁꿀	-11781
드린	-11782
벌이	-11783
부담	-11784
주차	-11785
학에	-11786
▁경협	-11787
▁김명	-11788
▁낙태	-11789
▁듯이	-11790
▁반성	-11791
▁세제	-11792
▁소홀	-11793
▁참사	-11794
▁해설	-11795
▁휴게	-11796
▁189	-11797
▁갔어요	-11798
▁개념은	-11799
▁계획에	-11800
▁대표이	-11801
▁돌아갈	-11802
▁벌이는	-11803
▁숨지고	-11804
▁의무를	-11805
▁이어지	-11806
▁장소로	-11807
▁전기를	-11808
▁좋아서	-11809
▁직원을	-11810
▁국민들의	-11811
▁부총리는	-11812
▁상승세를	-11813
▁판매량이	-11814
▁d	-11815
광주	-11816
울루	-11817
환은	-11818
▁67	-11819
▁날카	-11820
▁누락	-11821
▁박지	-11822
▁소폭	-11823
▁엔지	-11824
▁영하	-11825
▁증대	-11826
▁집착	-11827
▁현안	-11828
과정을	-11829
▁결정한	-11830
▁경찰관	-11831
▁국무부	-11832
▁마시는	-11833
▁불이익	-11834
▁이렇다	-11835
▁일본과	-11836
▁조직이	-11837
▁주장에	-11838
▁강제징용	-11839
▁금메달을	-11840
▁부문에서	-11841
▁있겠지만	-11842
▁전형적인	-11843
▁엔터테인먼트	-11844
ir	-11845
▁찢	-11846
분과	-11847
재와	-11848
주주	-11849
▁걸친	-11850
▁다툼	-11851
▁뜨겁	-11852
▁미성	-11853
▁부엌	-11854
▁분실	-11855
▁쌓여	-11856
▁온실	-11857
▁좌파	-11858
▁언젠가	-11859
▁우주의	-11860
▁이익이	-11861
▁전망을	-11862
▁취업자	-11863
▁후보로	-11864
▁공급하는	-11865
▁그렇군요	-11866
▁못하도록	-11867
▁[	-11868
▁덴	-11869
기소	-11870
내야	-11871
라리	-11872
버린	-11873
벤션	-11874
종은	-11875
통계	-11876
통제	-11877
▁강동	-11878
▁됐고	-11879
▁맞을	-11880
▁양육	-11881
▁이룰	-11882
▁코치	-11883
▁크루	-11884
플러스	-11885
▁고유의	-11886
▁단어를	-11887
▁떠났다	-11888
▁메신저	-11889
▁알려줄	-11890
▁오로지	-11891
▁운영에	-11892
▁일제강	-11893
▁자연의	-11894
▁전환을	-11895
▁화장실	-11896
▁경제성장	-11897
▁공장에서	-11898
▁공항에서	-11899
▁시민사회	-11900
▁여러분이	-11901
▁공식적으로	-11902
▁정상회담에서	-11903
▁꾀	-11904
▁델	-11905
개인	-11906
농구	-11907
레나	-11908
엑스	-11909
인인	-11910
전지	-11911
▁68	-11912
▁간절	-11913
▁값이	-11914
▁경연	-11915
▁과시	-11916
▁대두	-11917
▁도주	-11918
▁모를	-11919
▁바뀔	-11920
▁버려	-11921
▁임진	-11922
▁차트	-11923
▁최상	-11924
▁출토	-11925
▁코드	-11926
▁탐색	-11927
▁하향	-11928
▁회신	-11929
기간을	-11930
산업이	-11931
▁교육은	-11932
▁그래픽	-11933
▁금감원	-11934
▁노조는	-11935
▁대회를	-11936
▁분석도	-11937
▁사회는	-11938
▁성공할	-11939
▁소재로	-11940
▁이유도	-11941
▁인사가	-11942
▁작년에	-11943
▁재개발	-11944
▁정책은	-11945
▁참여가	-11946
▁호텔에	-11947
▁후보의	-11948
하기에는	-11949
▁떠올랐다	-11950
▁분위기다	-11951
▁관련해서는	-11952
▁진행되었다	-11953
▁탱	-11954
절이	-11955
(15	-11956
▁견적	-11957
▁소액	-11958
▁속초	-11959
▁승부	-11960
▁약화	-11961
▁어딘	-11962
▁이윤	-11963
▁정유	-11964
▁지점	-11965
제도를	-11966
▁들어올	-11967
▁레이저	-11968
▁모델은	-11969
▁살펴보	-11970
▁승리가	-11971
▁이었다	-11972
▁지정된	-11973
▁택시를	-11974
▁모두에게	-11975
▁발생하면	-11976
▁언제까지	-11977
▁네트워크를	-11978
▁킹	-11979
▁푹	-11980
기본	-11981
발이	-11982
차와	-11983
테이	-11984
▁MC	-11985
▁기둥	-11986
▁법이	-11987
▁분배	-11988
▁수산	-11989
▁예매	-11990
▁이태	-11991
▁재일	-11992
▁취향	-11993
▁토마	-11994
▁파업	-11995
▁후손	-11996
대회를	-11997
사회적	-11998
였으나	-11999
카데미	-12000
회의에	-12001
▁깨끗한	-12002
▁나와서	-12003
▁무역협	-12004
▁비중은	-12005
▁여름철	-12006
▁워크숍	-12007
▁이유에	-12008
▁적용한	-12009
▁정당한	-12010
▁조화를	-12011
▁증가로	-12012
▁직원의	-12013
▁판단한	-12014
▁히어로	-12015
▁계속되고	-12016
▁공기청정	-12017
▁부산에서	-12018
▁수준이다	-12019
▁아이스크	-12020
▁연구에서	-12021
▁솜	-12022
▁잎	-12023
니는	-12024
무장	-12025
백이	-12026
원자	-12027
줄이	-12028
채가	-12029
청구	-12030
▁가축	-12031
▁고분	-12032
▁대칭	-12033
▁뜻이	-12034
▁명문	-12035
▁부유	-12036
▁안양	-12037
▁알렉	-12038
▁일과	-12039
▁취할	-12040
▁포용	-12041
▁환호	-12042
▁달한다	-12043
▁매출을	-12044
▁밀접한	-12045
▁밝히고	-12046
▁소통을	-12047
▁순수한	-12048
▁양질의	-12049
▁접근할	-12050
▁지원에	-12051
과학기술	-12052
▁프리미어	-12053
▁챔피언스리그	-12054
공화	-12055
이도	-12056
티아	-12057
CEO	-12058
▁교착	-12059
▁궁궐	-12060
▁꾸려	-12061
▁띈다	-12062
▁배열	-12063
▁신동	-12064
▁양념	-12065
▁우체	-12066
▁유적	-12067
▁잘라	-12068
▁주를	-12069
▁지리	-12070
▁채취	-12071
자리를	-12072
▁고객님	-12073
▁구조적	-12074
▁기술로	-12075
▁남자친	-12076
▁늘면서	-12077
▁도입한	-12078
▁모스크	-12079
▁방으로	-12080
▁법안을	-12081
▁우리와	-12082
▁의원과	-12083
▁크기의	-12084
▁호흡을	-12085
적이라고	-12086
▁개발하고	-12087
▁등장한다	-12088
▁반박했다	-12089
▁보고서에	-12090
▁부작용이	-12091
▁얼마든지	-12092
▁전문가들의	-12093
▁최고경영자	-12094
DC	-12095
▁벚	-12096
강을	-12097
누리	-12098
란을	-12099
불을	-12100
학원	-12101
▁교실	-12102
▁단행	-12103
▁사서	-12104
▁성질	-12105
▁스승	-12106
▁식량	-12107
▁어긋	-12108
▁와인	-12109
▁중대	-12110
▁참조	-12111
▁창고	-12112
▁청중	-12113
▁초월	-12114
▁꾸준한	-12115
▁대학을	-12116
▁범위가	-12117
▁선정한	-12118
▁촬영을	-12119
▁펼치는	-12120
▁한국교	-12121
▁회의가	-12122
▁2030	-12123
▁미디어의	-12124
▁방송에서	-12125
▁설명한다	-12126
▁어렵다고	-12127
▁지역경제	-12128
▁콘서트를	-12129
▁민주평화당	-12130
▁기자회견에서	-12131
▁a	-12132
돈을	-12133
등한	-12134
박람	-12135
안정	-12136
였어	-12137
익을	-12138
▁경과	-12139
▁경로	-12140
▁김광	-12141
▁이병	-12142
백화점	-12143
센터에	-12144
회사가	-12145
▁가볍게	-12146
▁계속될	-12147
▁마련할	-12148
▁변화와	-12149
▁보험료	-12150
▁이어가	-12151
▁이용이	-12152
▁일일이	-12153
▁정보의	-12154
▁조용히	-12155
▁차가운	-12156
▁피부를	-12157
▁한류의	-12158
적으로도	-12159
▁개정안이	-12160
▁기대했다	-12161
▁내부에서	-12162
▁말하자면	-12163
▁운영되고	-12164
▁월요일에	-12165
▁위해서다	-12166
▁음주운전	-12167
▁청년들이	-12168
▁컨테이너	-12169
▁프랑스의	-12170
▁사립유치원	-12171
1,	-12172
개는	-12173
공이	-12174
인사	-12175
장벽	-12176
▁64	-12177
▁돼야	-12178
▁되살	-12179
▁디저	-12180
▁딸을	-12181
▁상고	-12182
▁성수	-12183
▁유산	-12184
▁트로	-12185
▁한두	-12186
글로벌	-12187
기관에	-12188
르면서	-12189
인들과	-12190
▁감안해	-12191
▁공정위	-12192
▁노래가	-12193
▁단체가	-12194
▁대신에	-12195
▁목요일	-12196
▁불어넣	-12197
▁쓰이는	-12198
▁위기가	-12199
▁학생들	-12200
▁한국전	-12201
▁개최했다	-12202
▁사회주의	-12203
▁여기에는	-12204
▁정체성을	-12205
▁확인되지	-12206
▁이루어졌다	-12207
▁프로그램의	-12208
왕의	-12209
청을	-12210
출을	-12211
▁구할	-12212
▁남동	-12213
▁마켓	-12214
▁만료	-12215
▁베르	-12216
▁샤워	-12217
▁숨을	-12218
▁자외	-12219
▁재차	-12220
▁쪽이	-12221
공사는	-12222
대통령	-12223
명에서	-12224
사업은	-12225
▁가져가	-12226
▁겪었다	-12227
▁부당한	-12228
▁사랑이	-12229
▁성질을	-12230
▁아래의	-12231
▁자격을	-12232
▁진실을	-12233
▁카드로	-12234
▁기록하고	-12235
▁나옵니다	-12236
▁부족하다	-12237
▁브랜드의	-12238
▁상징하는	-12239
▁일주일에	-12240
▁전체적인	-12241
▁포함된다	-12242
▁관광객들이	-12243
▁엘리베이터	-12244
▁참가자들이	-12245
내지	-12246
년여	-12247
달을	-12248
레가	-12249
면은	-12250
바지	-12251
스틱	-12252
▁51	-12253
▁공수	-12254
▁꽃을	-12255
▁붙은	-12256
▁수습	-12257
▁술에	-12258
▁신의	-12259
▁쳐다	-12260
▁친척	-12261
▁특례	-12262
▁필름	-12263
거래가	-12264
라이언	-12265
성장을	-12266
하네요	-12267
▁개최한	-12268
▁대응을	-12269
▁데이비	-12270
▁버리고	-12271
▁스위스	-12272
▁실수를	-12273
▁원리를	-12274
▁이론은	-12275
▁접근이	-12276
▁중장기	-12277
▁축제를	-12278
▁학교는	-12279
▁사용된다	-12280
▁사회공헌	-12281
▁일어나지	-12282
▁조건으로	-12283
▁행정부가	-12284
▁톤	-12285
겠죠	-12286
대응	-12287
반도	-12288
비한	-12289
상대	-12290
재난	-12291
터의	-12292
▁VR	-12293
▁넷째	-12294
▁띄는	-12295
▁막고	-12296
▁복무	-12297
▁앓고	-12298
▁적도	-12299
▁전방	-12300
▁주사	-12301
그룹의	-12302
진흥원	-12303
▁각국의	-12304
▁구성해	-12305
▁매력이	-12306
▁메일로	-12307
▁목표다	-12308
▁신청할	-12309
▁올해로	-12310
▁전자가	-12311
▁티셔츠	-12312
▁환경부	-12313
▁개성공단	-12314
▁관객들이	-12315
▁뉴질랜드	-12316
▁비행기를	-12317
▁한국당이	-12318
▁는	-12319
중독	-12320
파는	-12321
활성	-12322
▁길어	-12323
▁나갔	-12324
▁리포	-12325
▁비춰	-12326
▁속이	-12327
▁외곽	-12328
▁표출	-12329
▁학업	-12330
▁호날	-12331
행위를	-12332
▁가라앉	-12333
▁가려고	-12334
▁고마워	-12335
▁광고의	-12336
▁기관의	-12337
▁내부에	-12338
▁바뀌는	-12339
▁숫자가	-12340
▁싶다고	-12341
▁여파로	-12342
▁원하지	-12343
▁이외에	-12344
▁재미를	-12345
▁적당한	-12346
▁행동에	-12347
▁황교안	-12348
▁알려지지	-12349
▁이해관계	-12350
▁커지면서	-12351
▁탄력근로	-12352
▁파악하는	-12353
▁궁금합니다	-12354
대비	-12355
두가	-12356
매체	-12357
세종	-12358
즈와	-12359
후의	-12360
▁감싸	-12361
▁계급	-12362
▁과기	-12363
▁때만	-12364
▁미쳤	-12365
▁분열	-12366
▁상정	-12367
▁생리	-12368
▁얼음	-12369
▁염려	-12370
▁장이	-12371
▁크림	-12372
▁해리	-12373
공무원	-12374
과장은	-12375
▁고양시	-12376
▁뜻하는	-12377
▁마음의	-12378
▁시각이	-12379
▁어때요	-12380
▁없었고	-12381
▁작가는	-12382
▁전체에	-12383
▁총리의	-12384
▁팬들을	-12385
▁흔적이	-12386
▁공부하고	-12387
▁무엇인가	-12388
▁자원봉사	-12389
▁주인공이	-12390
▁늘어나면서	-12391
ha	-12392
▁읍	-12393
오가	-12394
의회	-12395
취업	-12396
해준	-12397
▁66	-12398
▁거지	-12399
▁견해	-12400
▁낸다	-12401
▁농구	-12402
▁대치	-12403
▁맑은	-12404
▁며느	-12405
▁서산	-12406
▁연다	-12407
▁원장	-12408
▁은혜	-12409
▁토크	-12410
▁펼칠	-12411
▁풍경	-12412
▁한양	-12413
▁가져야	-12414
▁공간의	-12415
▁그림은	-12416
▁상관없	-12417
▁일으킬	-12418
▁전하는	-12419
▁출시한	-12420
▁하려면	-12421
▁현황을	-12422
▁같은데요	-12423
▁경제정책	-12424
▁그녀에게	-12425
▁대법원장	-12426
▁동일하게	-12427
▁사람으로	-12428
▁있었으나	-12429
세이	-12430
수준	-12431
시스	-12432
(10	-12433
▁간격	-12434
▁경호	-12435
▁무효	-12436
▁얻게	-12437
▁원작	-12438
▁자립	-12439
▁조카	-12440
▁채로	-12441
물이다	-12442
했듯이	-12443
▁건물은	-12444
▁다르지	-12445
▁대회가	-12446
▁바꾸고	-12447
▁버스가	-12448
▁생각한	-12449
▁솔루션	-12450
▁파장이	-12451
▁핀란드	-12452
▁해수욕	-12453
셨습니다	-12454
▁그야말로	-12455
▁돋보이는	-12456
▁멤버들이	-12457
▁위원장과	-12458
▁이외에도	-12459
▁있었는지	-12460
▁줄기세포	-12461
▁꼴	-12462
강의	-12463
난다	-12464
녀가	-12465
라를	-12466
유통	-12467
▁가늠	-12468
▁눌러	-12469
▁똑같	-12470
▁몸의	-12471
▁물려	-12472
▁민선	-12473
▁살던	-12474
▁색이	-12475
▁영암	-12476
▁운반	-12477
▁중립	-12478
▁중지	-12479
▁초고	-12480
▁플로	-12481
▁해보	-12482
공간을	-12483
운드를	-12484
하니까	-12485
화되어	-12486
▁그룹의	-12487
▁돌아올	-12488
▁못지않	-12489
▁분야가	-12490
▁사무총	-12491
▁수사권	-12492
▁수행할	-12493
▁시위를	-12494
▁원칙을	-12495
▁인하여	-12496
▁장관을	-12497
▁지키고	-12498
▁직업을	-12499
▁당시에는	-12500
▁일어나고	-12501
▁전달했다	-12502
▁현실적으로	-12503
▁칩	-12504
▁험	-12505
골프	-12506
레는	-12507
맞은	-12508
전선	-12509
전환	-12510
혐의	-12511
▁가사	-12512
▁걸음	-12513
▁덕분	-12514
▁바쁘	-12515
▁상기	-12516
▁이은	-12517
▁임기	-12518
▁저와	-12519
▁파급	-12520
▁했기	-12521
물질을	-12522
속으로	-12523
테리아	-12524
하느라	-12525
회에는	-12526
▁궁금한	-12527
▁귀사의	-12528
▁꿈꾸는	-12529
▁넘겨진	-12530
▁말하지	-12531
▁신문은	-12532
▁양국의	-12533
▁크다고	-12534
▁표현한	-12535
▁프레임	-12536
▁한류가	-12537
만으로는	-12538
▁가족들과	-12539
▁돌아가는	-12540
▁서비스로	-12541
▁진단했다	-12542
▁촉구하는	-12543
▁때문이라는	-12544
▁사우디아라비아	-12545
OS	-12546
▁룸	-12547
▁몹	-12548
▁싣	-12549
▁톰	-12550
강에	-12551
로스	-12552
외교	-12553
일인	-12554
재료	-12555
▁강사	-12556
▁김혜	-12557
▁나고	-12558
▁상시	-12559
▁상해	-12560
▁예보	-12561
▁오바	-12562
▁이낙	-12563
▁타협	-12564
▁트래	-12565
국장은	-12566
권에서	-12567
량으로	-12568
문화의	-12569
▁가지로	-12570
▁끝으로	-12571
▁때문이	-12572
▁문제도	-12573
▁사이로	-12574
▁세대가	-12575
▁스피커	-12576
▁어쨌든	-12577
▁재판이	-12578
▁탄탄한	-12579
▁강조하고	-12580
▁선고받았다	-12581
동맹	-12582
면허	-12583
미르	-12584
였기	-12585
유산	-12586
이런	-12587
(18	-12588
▁다닐	-12589
▁발걸	-12590
▁시세	-12591
▁의학	-12592
▁적고	-12593
▁지는	-12594
▁초에	-12595
▁힘에	-12596
했음을	-12597
▁공항에	-12598
▁그룹이	-12599
▁방송인	-12600
▁방향이	-12601
▁서대문	-12602
▁송파구	-12603
▁숨졌다	-12604
▁시행령	-12605
▁아들을	-12606
▁아래에	-12607
▁즐기고	-12608
▁증상을	-12609
▁취지의	-12610
▁포즈를	-12611
▁현장의	-12612
▁확대에	-12613
▁회담이	-12614
▁느껴지는	-12615
▁성장하는	-12616
▁주변에서	-12617
▁가능하다고	-12618
▁노력하겠다	-12619
▁무엇보다도	-12620
▁실질적으로	-12621
BM	-12622
경북	-12623
루미	-12624
수입	-12625
주식	-12626
타는	-12627
▁각국	-12628
▁기쁘	-12629
▁넘쳐	-12630
▁만세	-12631
▁바빠	-12632
▁볼턴	-12633
▁부풀	-12634
▁입는	-12635
▁장려	-12636
▁파격	-12637
▁항생	-12638
▁형제	-12639
개월이	-12640
본부는	-12641
식간에	-12642
▁계획은	-12643
▁교과서	-12644
▁근거를	-12645
▁영상은	-12646
▁오전에	-12647
▁전국에	-12648
▁좀처럼	-12649
▁증시가	-12650
▁코미디	-12651
▁확정된	-12652
▁적용된다	-12653
▁확인하기	-12654
▁후보자가	-12655
인천	-12656
▁1%	-12657
▁강북	-12658
▁국채	-12659
▁국한	-12660
▁보전	-12661
▁보충	-12662
▁사냥	-12663
▁삶과	-12664
▁스태	-12665
▁신장	-12666
▁악영	-12667
▁오신	-12668
▁입구	-12669
▁회피	-12670
통신이	-12671
▁감독과	-12672
▁그림이	-12673
▁넘어가	-12674
▁모습에	-12675
▁물질의	-12676
▁부족해	-12677
▁비주얼	-12678
▁안정을	-12679
▁않았어	-12680
▁언론은	-12681
▁이곳을	-12682
▁인간과	-12683
▁잠시만	-12684
▁적용된	-12685
▁정리해	-12686
▁조직의	-12687
▁주장은	-12688
▁추억을	-12689
▁출동한	-12690
▁취약한	-12691
▁항소심	-12692
▁확보를	-12693
▁매장에서	-12694
▁바뀌었다	-12695
▁부분에서	-12696
▁유전자를	-12697
▁이동하는	-12698
▁편리하게	-12699
▁투자자들이	-12700
▁중소벤처기업	-12701
TT	-12702
us	-12703
라와	-12704
롭지	-12705
링을	-12706
아동	-12707
압이	-12708
인한	-12709
▁85	-12710
▁들지	-12711
▁물은	-12712
▁박탈	-12713
▁보강	-12714
▁사정	-12715
▁서예	-12716
▁양보	-12717
▁연쇄	-12718
▁오렌	-12719
▁중점	-12720
▁지냈	-12721
▁추운	-12722
문재인	-12723
스타일	-12724
판에서	-12725
▁가지게	-12726
▁감사의	-12727
▁귀여운	-12728
▁다시는	-12729
▁움직일	-12730
▁이낙연	-12731
▁출신인	-12732
▁1994	-12733
▁1995	-12734
▁6·13	-12735
▁성장하고	-12736
▁신분으로	-12737
▁올해부터	-12738
▁있겠습니다	-12739
▁론	-12740
끔찍	-12741
당시	-12742
대교	-12743
리조	-12744
사태	-12745
효율	-12746
▁관내	-12747
▁기증	-12748
▁낭비	-12749
▁더블	-12750
▁문항	-12751
▁서쪽	-12752
▁숙소	-12753
▁시일	-12754
▁오더	-12755
▁음원	-12756
▁인원	-12757
▁중화	-12758
▁출하	-12759
▁하죠	-12760
들에서	-12761
우리가	-12762
으로만	-12763
주의는	-12764
카드를	-12765
▁감독을	-12766
▁경남도	-12767
▁농식품	-12768
▁마이클	-12769
▁반면에	-12770
▁버튼을	-12771
▁시간도	-12772
▁안팎의	-12773
▁엄격한	-12774
▁저작권	-12775
▁전자의	-12776
▁중학생	-12777
▁하늘을	-12778
▁핵심은	-12779
▁활발히	-12780
되었지만	-12781
▁대법원이	-12782
▁불필요한	-12783
▁연결되어	-12784
▁이용하면	-12785
▁컴퓨터가	-12786
▁자체적으로	-12787
남부	-12788
락이	-12789
면과	-12790
모든	-12791
▁고추	-12792
▁예멘	-12793
▁주파	-12794
▁현역	-12795
드려요	-12796
만명을	-12797
▁물품을	-12798
▁보다는	-12799
▁서울을	-12800
▁쌍둥이	-12801
▁오래전	-12802
▁운동은	-12803
▁편안한	-12804
▁표현의	-12805
▁형성된	-12806
현지시각	-12807
▁이루어질	-12808
▁인근에서	-12809
▁재미있게	-12810
▁팬들에게	-12811
▁방탄소년단	-12812
▁현대자동차	-12813
▁서울중앙지검	-12814
게는	-12815
대요	-12816
변을	-12817
전도	-12818
▁기지	-12819
▁대접	-12820
▁수월	-12821
▁온몸	-12822
▁재단	-12823
▁추첨	-12824
▁카테	-12825
▁한은	-12826
센티브	-12827
▁과거사	-12828
▁대도시	-12829
▁미성년	-12830
▁변수가	-12831
▁역사와	-12832
▁인상에	-12833
▁진전이	-12834
교육청이	-12835
해달라고	-12836
▁디자인이	-12837
▁운전자가	-12838
▁있으니까	-12839
▁즐거움을	-12840
▁동남아시아	-12841
(0	-12842
▁늙	-12843
그라	-12844
더스	-12845
주일	-12846
청과	-12847
▁73	-12848
▁내기	-12849
▁대행	-12850
▁마실	-12851
▁삶은	-12852
▁어색	-12853
▁열을	-12854
▁좌절	-12855
▁특이	-12856
▁파라	-12857
일자리	-12858
▁개선에	-12859
▁개인적	-12860
▁경로를	-12861
▁기사는	-12862
▁도덕적	-12863
▁마쳤다	-12864
▁이마트	-12865
▁점유율	-12866
▁조사할	-12867
ation	-12868
▁공시가격	-12869
▁과거에는	-12870
▁교육부가	-12871
▁마케팅을	-12872
▁부분이다	-12873
▁시스템에	-12874
▁아시안컵	-12875
▁연구결과	-12876
▁유지하기	-12877
▁집행유예	-12878
▁하나하나	-12879
강남	-12880
공립	-12881
국적	-12882
설계	-12883
여명	-12884
투쟁	-12885
▁개시	-12886
▁교양	-12887
▁구호	-12888
▁국영	-12889
▁꿈이	-12890
▁노회	-12891
▁맡겨	-12892
▁상한	-12893
▁스킨	-12894
▁진영	-12895
그룹은	-12896
대학원	-12897
셨으면	-12898
집에서	-12899
▁그다음	-12900
▁대회는	-12901
▁무리가	-12902
▁미소를	-12903
▁법원에	-12904
▁신속한	-12905
▁여건이	-12906
▁영향력	-12907
▁오류가	-12908
▁의사결	-12909
▁정하는	-12910
▁지식이	-12911
▁찾아야	-12912
▁할까요	-12913
▁목소리로	-12914
▁있었으며	-12915
음식	-12916
PGA	-12917
▁84	-12918
▁김학	-12919
▁내로	-12920
▁반납	-12921
▁부른	-12922
▁석방	-12923
▁수시	-12924
▁시뮬	-12925
▁역을	-12926
▁전액	-12927
러스터	-12928
영화제	-12929
주시고	-12930
▁SUV	-12931
▁가져올	-12932
▁금리인	-12933
▁됐다는	-12934
▁만이다	-12935
▁맞나요	-12936
▁문건을	-12937
▁보니까	-12938
▁상황과	-12939
▁세상의	-12940
▁수익이	-12941
▁실질적	-12942
▁업체의	-12943
▁이하로	-12944
▁장시간	-12945
▁정책과	-12946
▁주최한	-12947
▁특이한	-12948
▁특징이	-12949
▁활력을	-12950
차전에서	-12951
▁공정위는	-12952
▁나오면서	-12953
▁사용하기	-12954
▁순식간에	-12955
▁외국인이	-12956
▁정도였다	-12957
▁중이라고	-12958
▁지역에서는	-12959
GM	-12960
▁웰	-12961
국내	-12962
으시	-12963
청사	-12964
푸드	-12965
▁구사	-12966
▁박병	-12967
▁시속	-12968
▁약물	-12969
시대의	-12970
▁가만히	-12971
▁경험한	-12972
▁느꼈다	-12973
▁대구시	-12974
▁되돌아	-12975
▁방송이	-12976
▁배제할	-12977
▁연습을	-12978
▁연평균	-12979
▁올라온	-12980
▁특성에	-12981
▁노동조합	-12982
▁대부분을	-12983
▁모르겠어	-12984
▁수준에서	-12985
▁어려웠다	-12986
▁이벤트가	-12987
▁전적으로	-12988
▁프로모션	-12989
▁사물인터넷	-12990
▁프레젠테이션	-12991
ow	-12992
▁뜯	-12993
실장	-12994
웠고	-12995
▁다녔	-12996
▁독려	-12997
▁승차	-12998
▁심해	-12999
▁조화	-13000
▁차분	-13001
느냐에	-13002
시키지	-13003
협약을	-13004
2000	-13005
▁나서야	-13006
▁매뉴얼	-13007
▁면세점	-13008
▁미스터	-13009
▁반발이	-13010
▁알았다	-13011
▁인생의	-13012
▁자녀를	-13013
▁정권이	-13014
▁지사의	-13015
차적으로	-13016
호텔에서	-13017
▁모릅니다	-13018
▁배우들이	-13019
▁국내에서는	-13020
기인	-13021
소개	-13022
언을	-13023
위인	-13024
택시	-13025
표준	-13026
▁꼬집	-13027
▁던져	-13028
▁맛볼	-13029
▁명에	-13030
▁변신	-13031
▁샐러	-13032
▁성숙	-13033
▁잠이	-13034
▁집합	-13035
▁출력	-13036
▁쿠폰	-13037
▁팽팽	-13038
금리를	-13039
산에서	-13040
조치를	-13041
▁강제로	-13042
▁김의겸	-13043
▁내놓을	-13044
▁시선이	-13045
▁없이는	-13046
▁이견이	-13047
▁저녁을	-13048
▁조합원	-13049
▁친구의	-13050
▁자동차를	-13051
▁체계적인	-13052
▁회원들이	-13053
▁이어지면서	-13054
▁체계적으로	-13055
▁껍	-13056
▁첼	-13057
방은	-13058
셀러	-13059
유총	-13060
인식	-13061
전남	-13062
▁NH	-13063
▁강정	-13064
▁끔찍	-13065
▁날은	-13066
▁눈치	-13067
▁대항	-13068
▁돕고	-13069
▁신화	-13070
▁자진	-13071
▁재학	-13072
▁증상	-13073
▁합창	-13074
▁환전	-13075
사업의	-13076
오면서	-13077
우리는	-13078
▁관객이	-13079
▁단계에	-13080
▁담았다	-13081
▁도와줄	-13082
▁설치해	-13083
▁소식에	-13084
▁신청한	-13085
▁이후의	-13086
▁지시를	-13087
▁청주시	-13088
▁최소화	-13089
투자증권	-13090
▁1996	-13091
▁약속했다	-13092
▁이메일로	-13093
▁지자체가	-13094
▁테스트를	-13095
▁정상적으로	-13096
▁홈페이지에	-13097
들여	-13098
발표	-13099
어촌	-13100
월말	-13101
전형	-13102
중을	-13103
트롤	-13104
▁개개	-13105
▁구형	-13106
▁길로	-13107
▁납치	-13108
▁낮게	-13109
▁몹시	-13110
▁정통	-13111
▁치른	-13112
▁친한	-13113
▁콜롬	-13114
▁특화	-13115
만큼은	-13116
함으로	-13117
▁ICT	-13118
▁가져오	-13119
▁간단히	-13120
▁디즈니	-13121
▁먹거리	-13122
▁변하지	-13123
▁빠졌다	-13124
▁성명을	-13125
▁스트리	-13126
▁앞세워	-13127
▁예술가	-13128
▁원활한	-13129
▁인건비	-13130
▁정보와	-13131
▁주변을	-13132
▁최근의	-13133
▁케이티	-13134
▁필요해	-13135
▁한눈에	-13136
▁현실화	-13137
▁화요일	-13138
이었다는	-13139
▁가르치는	-13140
▁경제부총	-13141
▁관계자가	-13142
▁기업으로	-13143
▁부상으로	-13144
▁사라지고	-13145
▁생각된다	-13146
▁서비스의	-13147
▁인정하는	-13148
▁적용하는	-13149
▁한반도의	-13150
▁근본적으로	-13151
▁대한민국의	-13152
▁소셜미디어	-13153
▁예정이에요	-13154
▁있으신가요	-13155
▁b	-13156
공제	-13157
보안	-13158
부대	-13159
영상	-13160
작품	-13161
팀에	-13162
∼20	-13163
▁계신	-13164
▁국군	-13165
▁김창	-13166
▁높지	-13167
▁당당	-13168
▁부재	-13169
▁빼고	-13170
▁우회	-13171
▁전무	-13172
▁할까	-13173
조사에	-13174
▁개혁을	-13175
▁경향을	-13176
▁공격수	-13177
▁나경원	-13178
▁두번째	-13179
▁만남을	-13180
▁소개해	-13181
▁손해를	-13182
▁시기는	-13183
▁신뢰가	-13184
▁없으니	-13185
▁여름에	-13186
▁이보다	-13187
▁인증을	-13188
▁중국산	-13189
▁처리를	-13190
▁탁월한	-13191
▁환자를	-13192
▁경제협력	-13193
▁못했어요	-13194
▁제공된다	-13195
▁알려주시면	-13196
▁프로그램으로	-13197
라우	-13198
마이	-13199
범이	-13200
부품	-13201
▁77	-13202
▁같지	-13203
▁다저	-13204
▁싶을	-13205
▁쓰기	-13206
▁예의	-13207
▁옷이	-13208
▁음반	-13209
▁작아	-13210
▁질을	-13211
▁차려	-13212
▁캠핑	-13213
▁품고	-13214
▁환승	-13215
경제의	-13216
스마트	-13217
해하는	-13218
▁검은색	-13219
▁경기는	-13220
▁당국의	-13221
▁만났다	-13222
▁목표가	-13223
▁여성은	-13224
▁의미의	-13225
▁장소에	-13226
▁적었다	-13227
▁전망도	-13228
▁주문이	-13229
▁테니까	-13230
▁모스크바	-13231
▁이번에도	-13232
▁작품이다	-13233
▁판매하고	-13234
▁시장에서는	-13235
▁최종적으로	-13236
▁서울중앙지법	-13237
▁첩	-13238
업의	-13239
처벌	-13240
▁갑질	-13241
▁길고	-13242
▁끄는	-13243
▁두께	-13244
▁떠날	-13245
▁떠났	-13246
▁영남	-13247
▁영유	-13248
▁이데	-13249
▁전과	-13250
▁지고	-13251
▁포지	-13252
▁환상	-13253
위원이	-13254
▁공기가	-13255
▁교회를	-13256
▁그보다	-13257
▁김영철	-13258
▁대안을	-13259
▁따르는	-13260
▁사랑에	-13261
▁생명의	-13262
▁생산을	-13263
▁실패한	-13264
▁아이스	-13265
▁오늘의	-13266
▁인류의	-13267
▁재료를	-13268
▁전력이	-13269
▁지나가	-13270
▁개최되는	-13271
▁계속되는	-13272
▁앞으로의	-13273
▁인센티브	-13274
▁참가하는	-13275
▁행사에서	-13276
▁헛	-13277
▁흠	-13278
보좌	-13279
불이	-13280
센트	-13281
속한	-13282
수당	-13283
트럼	-13284
피고	-13285
▁공천	-13286
▁김승	-13287
▁다각	-13288
▁돈은	-13289
▁레알	-13290
▁시카	-13291
▁정례	-13292
▁진열	-13293
▁착각	-13294
▁카풀	-13295
▁파고	-13296
▁파인	-13297
▁필연	-13298
능력을	-13299
▁가치는	-13300
▁공부할	-13301
▁논문을	-13302
▁다문화	-13303
▁당대표	-13304
▁맞았다	-13305
▁믿는다	-13306
▁배송이	-13307
▁배우가	-13308
▁보도를	-13309
▁살면서	-13310
▁선수는	-13311
▁선택이	-13312
▁업계는	-13313
▁이뤄지	-13314
▁자체에	-13315
▁재학생	-13316
▁저번에	-13317
▁축제는	-13318
▁판단할	-13319
하였는데	-13320
▁구매하는	-13321
▁맥락에서	-13322
▁못했지만	-13323
▁비상대책	-13324
▁판단된다	-13325
▁해명했다	-13326
▁직접적으로	-13327
VR	-13328
ot	-13329
ut	-13330
▁-	-13331
▁릴	-13332
묘한	-13333
방지	-13334
스런	-13335
움의	-13336
원인	-13337
제작	-13338
▁걸림	-13339
▁소집	-13340
▁안동	-13341
▁의외	-13342
▁장병	-13343
▁조처	-13344
▁주유	-13345
▁줄고	-13346
▁지문	-13347
▁행렬	-13348
리라는	-13349
▁겨울철	-13350
▁나갔다	-13351
▁낙동강	-13352
▁남편은	-13353
▁대학원	-13354
▁동원해	-13355
▁들었어	-13356
▁만만치	-13357
▁불공정	-13358
▁상당수	-13359
▁에피소	-13360
▁연결해	-13361
▁일부러	-13362
▁정도에	-13363
▁정황을	-13364
▁제도적	-13365
▁태평양	-13366
▁내놓았다	-13367
▁변화하는	-13368
▁보냅니다	-13369
▁않겠다는	-13370
▁줄어들고	-13371
▁캠페인을	-13372
▁확실하게	-13373
36	-13374
답게	-13375
부부	-13376
정당	-13377
젯밤	-13378
초를	-13379
코드	-13380
▁나눴	-13381
▁넉넉	-13382
▁노예	-13383
▁다스	-13384
▁독창	-13385
▁방과	-13386
▁세라	-13387
▁식의	-13388
▁추격	-13389
▁출고	-13390
▁튼튼	-13391
▁학기	-13392
▁그러던	-13393
▁김씨의	-13394
▁대응할	-13395
▁대회에	-13396
▁메르스	-13397
▁세계로	-13398
▁아나운	-13399
▁완성차	-13400
▁인력이	-13401
▁주체가	-13402
▁판단에	-13403
▁편리한	-13404
▁행보를	-13405
▁활동의	-13406
미세먼지	-13407
지역에서	-13408
▁누군가가	-13409
▁실제로는	-13410
▁아주머니	-13411
▁요구된다	-13412
▁확대하는	-13413
▁만들어내는	-13414
▁지난해보다	-13415
▁청소년들이	-13416
담보	-13417
안타	-13418
킨다	-13419
프란	-13420
프린	-13421
▁광양	-13422
▁교역	-13423
▁당의	-13424
▁동화	-13425
▁서브	-13426
▁잦은	-13427
▁정면	-13428
▁취해	-13429
경찰서	-13430
됐는데	-13431
아무개	-13432
으려는	-13433
인데요	-13434
▁160	-13435
▁거뒀다	-13436
▁광고에	-13437
▁기록해	-13438
▁다리가	-13439
▁돈으로	-13440
▁많다고	-13441
▁법안이	-13442
▁상품에	-13443
▁설립된	-13444
▁아이콘	-13445
▁않거나	-13446
▁않기로	-13447
▁여자는	-13448
▁연예인	-13449
▁음식점	-13450
▁이번엔	-13451
▁전통적	-13452
▁차례로	-13453
▁평화와	-13454
▁회원국	-13455
▁들어서는	-13456
▁사법농단	-13457
▁장소에서	-13458
▁조사결과	-13459
▁최소한의	-13460
▁메이저리그	-13461
▁장기적으로	-13462
.’	-13463
38	-13464
52	-13465
TE	-13466
동향	-13467
들만	-13468
우기	-13469
우면	-13470
우와	-13471
월과	-13472
이용	-13473
있던	-13474
측은	-13475
▁5,	-13476
▁낡은	-13477
▁될까	-13478
▁비누	-13479
▁상륙	-13480
▁손꼽	-13481
▁시계	-13482
▁안을	-13483
▁중이	-13484
▁침대	-13485
곳에서	-13486
자들에	-13487
주셔서	-13488
투자가	-13489
▁구조조	-13490
▁기억을	-13491
▁나오기	-13492
▁나타내	-13493
▁단계를	-13494
▁물량이	-13495
▁박정희	-13496
▁보상을	-13497
▁생산이	-13498
▁여야가	-13499
▁열악한	-13500
▁위험에	-13501
▁유니폼	-13502
▁이상은	-13503
▁재활용	-13504
▁전자기	-13505
▁헝가리	-13506
드릴까요	-13507
▁못했다는	-13508
▁없었어요	-13509
▁이어갔다	-13510
▁있음에도	-13511
▁좋아하지	-13512
▁피해자의	-13513
▁확보하고	-13514
▁중요하다는	-13515
▁프로그램이다	-13516
루는	-13517
망에	-13518
스틴	-13519
야가	-13520
오픈	-13521
유로	-13522
토론	-13523
학회	-13524
▁GS	-13525
▁도래	-13526
▁서귀	-13527
▁이적	-13528
▁인과	-13529
▁인접	-13530
▁정립	-13531
▁중증	-13532
▁착한	-13533
▁틀림	-13534
▁티저	-13535
▁형이	-13536
성에서	-13537
▁가져온	-13538
▁과거와	-13539
▁과정의	-13540
▁교사의	-13541
▁국제적	-13542
▁금융권	-13543
▁기반이	-13544
▁목소리	-13545
▁부회장	-13546
▁앉아서	-13547
▁여부는	-13548
▁열정을	-13549
▁예측이	-13550
▁자체의	-13551
▁작품에	-13552
▁제목의	-13553
▁존재가	-13554
▁좋았다	-13555
▁중점을	-13556
▁체험을	-13557
▁합의에	-13558
▁확대할	-13559
▁바라보고	-13560
▁유명하다	-13561
▁이해하지	-13562
▁주최하는	-13563
▁확보하는	-13564
▁금융당국이	-13565
)·	-13566
ra	-13567
르다	-13568
린은	-13569
올로	-13570
일반	-13571
티드	-13572
▁‘1	-13573
▁거북	-13574
▁되게	-13575
▁리버	-13576
▁바꿨	-13577
▁세로	-13578
▁세일	-13579
▁실례	-13580
▁언덕	-13581
▁예선	-13582
▁육박	-13583
▁이길	-13584
▁인형	-13585
▁저가	-13586
▁트랙	-13587
▁파주	-13588
세기에	-13589
웠어요	-13590
▁IMF	-13591
▁강화할	-13592
▁국가를	-13593
▁나무를	-13594
▁비공개	-13595
▁사고는	-13596
▁아미노	-13597
▁연이어	-13598
▁장면은	-13599
▁주머니	-13600
▁찾아와	-13601
▁팬클럽	-13602
▁표정을	-13603
▁호르몬	-13604
경찰서에	-13605
▁뉴욕타임	-13606
▁돌아오는	-13607
▁러시아가	-13608
▁사라졌다	-13609
▁예정이며	-13610
▁포함하는	-13611
▁활용하여	-13612
▁고용노동부	-13613
▁만들어지는	-13614
▁펠	-13615
롭다	-13616
번의	-13617
부족	-13618
수행	-13619
(20	-13620
▁건네	-13621
▁공립	-13622
▁모터	-13623
▁몰고	-13624
▁문장	-13625
▁법제	-13626
▁살기	-13627
▁시를	-13628
▁악성	-13629
▁우세	-13630
▁인디	-13631
▁전두	-13632
▁창단	-13633
여행을	-13634
청에서	-13635
▁공화당	-13636
▁그리는	-13637
▁급하게	-13638
▁남다른	-13639
▁등장해	-13640
▁말하기	-13641
▁원자력	-13642
▁인구의	-13643
▁작용할	-13644
▁지진이	-13645
▁개최한다	-13646
▁농림축산	-13647
▁데이터는	-13648
▁됐습니다	-13649
▁판단하고	-13650
▁o	-13651
▁딴	-13652
▁율	-13653
담한	-13654
발의	-13655
빨리	-13656
짐에	-13657
▁88	-13658
▁거다	-13659
▁교훈	-13660
▁국적	-13661
▁깔려	-13662
▁두루	-13663
▁리조	-13664
▁송도	-13665
▁수평	-13666
▁예쁘	-13667
▁자이	-13668
▁줘야	-13669
네스코	-13670
셧다운	-13671
정책이	-13672
▁강하다	-13673
▁국민적	-13674
▁방안에	-13675
▁사과를	-13676
▁색다른	-13677
▁시도가	-13678
▁시즌을	-13679
▁아쉬운	-13680
▁안방극	-13681
▁이어갈	-13682
▁조선의	-13683
▁존재할	-13684
▁초기에	-13685
▁확보해	-13686
▁개발했다	-13687
▁국민청원	-13688
▁부장판사	-13689
▁선거제도	-13690
▁이산가족	-13691
▁f	-13692
▁x	-13693
▁잭	-13694
가인	-13695
기계	-13696
마에	-13697
▁내정	-13698
▁본선	-13699
▁상주	-13700
▁써서	-13701
▁캄보	-13702
▁투여	-13703
▁트랜	-13704
▁효능	-13705
라이트	-13706
문에서	-13707
▁CNN	-13708
▁그치지	-13709
▁다니고	-13710
▁로드맵	-13711
▁만약에	-13712
▁맞추어	-13713
▁무대가	-13714
▁수상한	-13715
▁스티커	-13716
▁승용차	-13717
▁아니기	-13718
▁용산구	-13719
▁위협을	-13720
▁유력한	-13721
▁이론이	-13722
▁있기에	-13723
▁있듯이	-13724
▁전원이	-13725
▁접어들	-13726
▁진출한	-13727
▁현실이	-13728
▁혐의에	-13729
▁협력해	-13730
▁혼란을	-13731
5,000	-13732
▁남북관계	-13733
▁부위원장	-13734
▁수수료를	-13735
▁주어진다	-13736
▁지급하는	-13737
▁어린이들이	-13738
DI	-13739
년은	-13740
비율	-13741
서부	-13742
유공	-13743
제조	-13744
특위	-13745
▁76	-13746
▁78	-13747
▁면이	-13748
▁미사	-13749
▁부의	-13750
▁정전	-13751
▁토큰	-13752
되지는	-13753
박물관	-13754
시스코	-13755
운동이	-13756
▁KTX	-13757
▁가시면	-13758
▁것에서	-13759
▁교류가	-13760
▁규칙을	-13761
▁날짜를	-13762
▁산업을	-13763
▁소비가	-13764
▁없는지	-13765
▁예정이	-13766
▁유전체	-13767
▁있겠다	-13768
▁장르의	-13769
▁체제를	-13770
▁탓이다	-13771
▁현실에	-13772
▁국가에서	-13773
▁되었다고	-13774
▁들었는데	-13775
▁만들어졌다	-13776
간이	-13777
개사	-13778
고와	-13779
어드	-13780
▁FC	-13781
▁공지	-13782
▁기구	-13783
▁동방	-13784
▁보살	-13785
▁사인	-13786
▁자의	-13787
▁좌석	-13788
▁히트	-13789
인데도	-13790
증으로	-13791
▁나라는	-13792
▁내일은	-13793
▁넘어선	-13794
▁논의할	-13795
▁뭐라고	-13796
▁서귀포	-13797
▁쏟아져	-13798
▁어렵지	-13799
▁영역이	-13800
▁우위를	-13801
▁인정한	-13802
▁잘못을	-13803
▁쪽에서	-13804
▁회장을	-13805
대회에서	-13806
시스템을	-13807
▁노력하는	-13808
▁다릅니다	-13809
▁보인다고	-13810
▁소송에서	-13811
▁임상시험	-13812
▁퀄	-13813
로만	-13814
시지	-13815
심에	-13816
티스	-13817
하진	-13818
행동	-13819
▁객실	-13820
▁고집	-13821
▁낙관	-13822
▁능동	-13823
▁도둑	-13824
▁막혀	-13825
▁맛과	-13826
▁북극	-13827
▁불행	-13828
▁요새	-13829
▁윌리	-13830
▁음란	-13831
▁이라	-13832
▁찍고	-13833
▁콘크	-13834
▁황의	-13835
본부가	-13836
빌리티	-13837
시나요	-13838
지사의	-13839
▁같다는	-13840
▁겨냥한	-13841
▁결론이	-13842
▁구성을	-13843
▁그런지	-13844
▁금액은	-13845
▁바다에	-13846
▁발언은	-13847
▁사실도	-13848
▁삼성이	-13849
▁수업은	-13850
▁예약이	-13851
▁원장이	-13852
▁의무가	-13853
▁이어서	-13854
▁주한미	-13855
▁진단을	-13856
▁패키지	-13857
▁흐름에	-13858
▁금융위기	-13859
▁무언가를	-13860
▁방송되는	-13861
▁비핵화와	-13862
▁스토리를	-13863
▁인정했다	-13864
▁정부에서	-13865
▁제외하면	-13866
▁철저하게	-13867
▁무엇입니까	-13868
▁중요하지만	-13869
▁방탄소년단의	-13870
러의	-13871
리나	-13872
북부	-13873
▁걷는	-13874
▁극히	-13875
▁박용	-13876
▁배급	-13877
▁번거	-13878
▁불에	-13879
▁비전	-13880
▁외식	-13881
▁우아	-13882
▁유류	-13883
▁청춘	-13884
▁통행	-13885
주시길	-13886
▁공간은	-13887
▁공감을	-13888
▁관계로	-13889
▁늘어났	-13890
▁당했다	-13891
▁바르셀	-13892
▁받아서	-13893
▁빛나는	-13894
▁소지가	-13895
▁약속한	-13896
▁영역에	-13897
▁진행을	-13898
▁하기도	-13899
▁행위에	-13900
▁확대해	-13901
▁공무원이	-13902
▁과도하게	-13903
▁관객들의	-13904
▁구축하는	-13905
▁대표이사	-13906
▁마련이다	-13907
▁분석하는	-13908
▁상태였다	-13909
▁어떨까요	-13910
▁여러분은	-13911
▁인천국제	-13912
▁일입니다	-13913
▁있었으면	-13914
▁함으로써	-13915
▁높아지면서	-13916
▁미안하지만	-13917
▁정기적으로	-13918
vN	-13919
▁볶	-13920
▁으	-13921
균이	-13922
변호	-13923
원도	-13924
탄이	-13925
IST	-13926
▁감자	-13927
▁곡을	-13928
▁공소	-13929
▁너랑	-13930
▁두꺼	-13931
▁문턱	-13932
▁반찬	-13933
▁방한	-13934
▁수감	-13935
▁순서	-13936
▁숫자	-13937
▁잡혀	-13938
▁전사	-13939
▁치즈	-13940
▁플랜	-13941
명하게	-13942
시켜야	-13943
제도가	-13944
커니즘	-13945
프리카	-13946
학년도	-13947
▁개발해	-13948
▁경력이	-13949
▁기온은	-13950
▁노회찬	-13951
▁담배를	-13952
▁대체할	-13953
▁맛있게	-13954
▁맞아요	-13955
▁매장을	-13956
▁발목을	-13957
▁생활에	-13958
▁손실을	-13959
▁수단이	-13960
▁스프링	-13961
▁알아보	-13962
▁어젯밤	-13963
▁예산안	-13964
▁오가는	-13965
▁일정에	-13966
▁지역과	-13967
▁집회를	-13968
▁코로나	-13969
▁폭행을	-13970
▁행위는	-13971
▁근무하는	-13972
▁금요일에	-13973
▁기존에는	-13974
▁늘어났다	-13975
▁드라마는	-13976
▁말합니다	-13977
▁발표하는	-13978
▁작품으로	-13979
▁지금부터	-13980
GB	-13981
ce	-13982
▁싹	-13983
경남	-13984
국회	-13985
러를	-13986
세트	-13987
자문	-13988
집행	-13989
티를	-13990
▁구급	-13991
▁데도	-13992
▁민사	-13993
▁벚꽃	-13994
▁직선	-13995
▁질이	-13996
▁하버	-13997
공항을	-13998
기관인	-13999
사회에	-14000
▁기간은	-14001
▁내세운	-14002
▁노력할	-14003
▁다이애	-14004
▁마포구	-14005
▁살아가	-14006
▁살해한	-14007
▁상대가	-14008
▁스페셜	-14009
▁양상을	-14010
▁외에는	-14011
▁원해요	-14012
▁이동할	-14013
▁인천시	-14014
▁작업은	-14015
▁재고가	-14016
▁전제로	-14017
▁전통을	-14018
▁출시된	-14019
▁출퇴근	-14020
▁하루를	-14021
▁협의가	-14022
▁남자친구	-14023
▁만들어낸	-14024
▁부모님이	-14025
▁위원장을	-14026
▁이사장은	-14027
▁전문적인	-14028
▁토요일에	-14029
▁노동자들이	-14030
▁오스트리아	-14031
▁프로젝트에	-14032
▁록	-14033
군사	-14034
·25	-14035
▁거센	-14036
▁낮다	-14037
▁말과	-14038
▁물량	-14039
▁빠질	-14040
▁사료	-14041
▁색을	-14042
▁세분	-14043
▁어찌	-14044
▁여건	-14045
▁여럿	-14046
▁있죠	-14047
▁작고	-14048
다시피	-14049
러시아	-14050
보고서	-14051
회의가	-14052
▁110	-14053
▁가진다	-14054
▁괜찮아	-14055
▁구매를	-14056
▁돼지고	-14057
▁들어왔	-14058
▁뜨겁게	-14059
▁머리카	-14060
▁명령을	-14061
▁미드필	-14062
▁바로잡	-14063
▁사이클	-14064
▁산업에	-14065
▁주장도	-14066
▁준비할	-14067
▁태도가	-14068
자동차가	-14069
▁벌어지고	-14070
▁의사결정	-14071
▁이뤄져야	-14072
▁이야기다	-14073
▁참석하는	-14074
▁프로그래	-14075
▁합의했다	-14076
▁호기심을	-14077
id	-14078
▁갯	-14079
▁럭	-14080
▁쉼	-14081
만족	-14082
심리	-14083
영과	-14084
인민	-14085
정원	-14086
▁김관	-14087
▁김준	-14088
▁뚜껑	-14089
▁배분	-14090
▁삼고	-14091
▁수축	-14092
▁아스	-14093
▁액체	-14094
▁억압	-14095
▁조형	-14096
▁친근	-14097
도까지	-14098
방으로	-14099
주었다	-14100
▁개정을	-14101
▁구름이	-14102
▁드러났	-14103
▁마음은	-14104
▁모습과	-14105
▁소문이	-14106
▁여동생	-14107
▁예상치	-14108
▁요금을	-14109
▁운영할	-14110
▁중으로	-14111
▁최선의	-14112
청사에서	-14113
▁대북제재	-14114
▁설문조사	-14115
▁이용하고	-14116
▁중요성이	-14117
▁소비자에게	-14118
▁지난해부터	-14119
감의	-14120
남용	-14121
만대	-14122
에르	-14123
포가	-14124
▁김선	-14125
▁끌려	-14126
▁날인	-14127
▁다뤄	-14128
▁멜로	-14129
▁물의	-14130
▁반품	-14131
▁상봉	-14132
▁습득	-14133
▁유익	-14134
▁폴리	-14135
건설이	-14136
▁350	-14137
▁걸었다	-14138
▁맞물려	-14139
▁부가가	-14140
▁사례로	-14141
▁세력이	-14142
▁와중에	-14143
▁치료제	-14144
▁키우고	-14145
▁타이어	-14146
▁행동은	-14147
▁형식을	-14148
▁흘러나	-14149
▁말했다고	-14150
▁사용되고	-14151
▁없었지만	-14152
▁연구하는	-14153
▁부탁합니다	-14154
LA	-14155
▁숯	-14156
거부	-14157
그는	-14158
금속	-14159
동원	-14160
박이	-14161
소재	-14162
어스	-14163
움에	-14164
제주	-14165
하죠	-14166
▁공매	-14167
▁과감	-14168
▁근접	-14169
▁기저	-14170
▁득표	-14171
▁무단	-14172
▁불렀	-14173
▁열이	-14174
▁원리	-14175
▁유성	-14176
▁일곱	-14177
▁재가	-14178
▁힙합	-14179
쁩니다	-14180
▁기록할	-14181
▁뒤에도	-14182
▁모델의	-14183
▁민족의	-14184
▁압력을	-14185
▁일으켜	-14186
▁입었다	-14187
▁지도를	-14188
▁체험할	-14189
▁티브이	-14190
크라이나	-14191
▁높아진다	-14192
▁누구보다	-14193
▁되었어요	-14194
▁보여줬다	-14195
▁유네스코	-14196
▁있어서다	-14197
▁좋아하고	-14198
▁직원에게	-14199
▁진지하게	-14200
▁아이디어가	-14201
▁직원들에게	-14202
39	-14203
간을	-14204
디를	-14205
설명	-14206
저우	-14207
전국	-14208
▁개체	-14209
▁고쳐	-14210
▁근절	-14211
▁길은	-14212
▁모험	-14213
▁반갑	-14214
▁손이	-14215
▁수동	-14216
▁수만	-14217
▁엑스	-14218
▁원동	-14219
▁위장	-14220
▁위헌	-14221
▁종결	-14222
▁주입	-14223
▁찬반	-14224
....	-14225
▁1·2	-14226
▁게임은	-14227
▁결제가	-14228
▁경기장	-14229
▁관심은	-14230
▁내놓고	-14231
▁비교할	-14232
▁실수로	-14233
▁아내는	-14234
▁예측할	-14235
▁의견도	-14236
▁친구들	-14237
▁회장과	-14238
▁공직선거	-14239
▁친구들은	-14240
▁국무위원장과	-14241
WS	-14242
▁엮	-14243
림은	-14244
민과	-14245
보조	-14246
상도	-14247
진단	-14248
▁기법	-14249
▁던진	-14250
▁떡볶	-14251
▁면적	-14252
▁비공	-14253
▁사면	-14254
▁씨와	-14255
▁원산	-14256
▁위임	-14257
▁인성	-14258
▁일산	-14259
▁통찰	-14260
▁틀을	-14261
▁후기	-14262
달러를	-14263
업계의	-14264
편으로	-14265
▁112	-14266
▁가구의	-14267
▁검사가	-14268
▁게이트	-14269
▁달콤한	-14270
▁대응이	-14271
▁말부터	-14272
▁사항은	-14273
▁소수의	-14274
▁않나요	-14275
▁없음을	-14276
▁장치를	-14277
▁점검을	-14278
▁처리가	-14279
▁처리할	-14280
▁카테고	-14281
▁토론을	-14282
▁표면에	-14283
▁하루가	-14284
▁했는지	-14285
▁확보가	-14286
스트리트	-14287
▁강조한다	-14288
▁국가정보	-14289
▁말했어요	-14290
▁모르지만	-14291
▁아일랜드	-14292
▁임대주택	-14293
▁표정으로	-14294
▁개최되었다	-14295
▁젊은이들이	-14296
▁조금이라도	-14297
▁Z	-14298
류는	-14299
블록	-14300
절로	-14301
하늘	-14302
▁고온	-14303
▁고지	-14304
▁권장	-14305
▁귀찮	-14306
▁내달	-14307
▁돌이	-14308
▁동쪽	-14309
▁발탁	-14310
▁사육	-14311
▁서면	-14312
▁성실	-14313
▁스틸	-14314
▁예민	-14315
▁옹호	-14316
▁일괄	-14317
▁장미	-14318
▁전설	-14319
▁조국	-14320
▁주위	-14321
▁중시	-14322
▁증진	-14323
▁천재	-14324
정부는	-14325
주의에	-14326
협회는	-14327
환경을	-14328
▁가치와	-14329
▁공론화	-14330
▁눈물이	-14331
▁대신해	-14332
▁도시로	-14333
▁마련을	-14334
▁마을에	-14335
▁무사히	-14336
▁비전을	-14337
▁생기고	-14338
▁순위를	-14339
▁실형을	-14340
▁은행이	-14341
▁있느냐	-14342
▁주기율	-14343
▁주요한	-14344
▁협약을	-14345
▁강력하게	-14346
▁도시계획	-14347
▁못한다는	-14348
▁지배구조	-14349
▁처리하는	-14350
▁해결해야	-14351
▁확보하기	-14352
▁방탄소년단이	-14353
MP	-14354
ur	-14355
근무	-14356
근이	-14357
농업	-14358
놓을	-14359
될지	-14360
마한	-14361
받기	-14362
배에	-14363
분리	-14364
조리	-14365
차피	-14366
테랑	-14367
플렉	-14368
▁과다	-14369
▁내포	-14370
▁덜어	-14371
▁말아	-14372
▁신이	-14373
▁연초	-14374
▁왕이	-14375
▁유저	-14376
▁주춤	-14377
▁펼친	-14378
도서관	-14379
브랜드	-14380
주의와	-14381
중학교	-14382
▁가정의	-14383
▁공급을	-14384
▁그랜드	-14385
▁기술에	-14386
▁동대문	-14387
▁문자를	-14388
▁서울로	-14389
▁수비수	-14390
▁시간당	-14391
▁압박을	-14392
▁역할은	-14393
▁이룬다	-14394
▁잇달아	-14395
▁자세를	-14396
이었다고	-14397
▁반발하고	-14398
▁사용자의	-14399
▁생태계를	-14400
▁않더라도	-14401
▁자전거를	-14402
▁지지하는	-14403
▁포기하지	-14404
▁해상에서	-14405
▁혁신적인	-14406
ON	-14407
교수	-14408
머리	-14409
민은	-14410
밥을	-14411
앤이	-14412
현직	-14413
화장	-14414
▁가도	-14415
▁감옥	-14416
▁동결	-14417
▁드레	-14418
▁러브	-14419
▁비하	-14420
▁잡기	-14421
▁추론	-14422
▁터널	-14423
지는데	-14424
활동에	-14425
▁관측도	-14426
▁국가에	-14427
▁국민연	-14428
▁그래야	-14429
▁금리를	-14430
▁기능은	-14431
▁남성의	-14432
▁무게가	-14433
▁문서를	-14434
▁방송에	-14435
▁불구속	-14436
▁생활이	-14437
▁엄마는	-14438
▁여기저	-14439
▁인재를	-14440
▁전력을	-14441
▁집값이	-14442
▁합리적	-14443
▁협조를	-14444
▁회사와	-14445
경기에서	-14446
민주당이	-14447
▁기자들과	-14448
▁나타낸다	-14449
▁들어왔다	-14450
▁박테리아	-14451
▁보내주신	-14452
▁사이트를	-14453
▁알려주는	-14454
▁청와대의	-14455
▁계획이라고	-14456
▁과학자들은	-14457
림의	-14458
망의	-14459
생은	-14460
소나	-14461
오던	-14462
투갈	-14463
▁개장	-14464
▁등판	-14465
▁믿지	-14466
▁신형	-14467
▁실물	-14468
▁심어	-14469
▁양을	-14470
▁유혹	-14471
▁하도	-14472
▁협회	-14473
루미늄	-14474
업계가	-14475
지난해	-14476
▁결합한	-14477
▁배경이	-14478
▁사교육	-14479
▁셧다운	-14480
▁시험이	-14481
▁신기술	-14482
▁에스엔	-14483
▁오디션	-14484
▁올라와	-14485
▁요금이	-14486
▁음악에	-14487
▁전국이	-14488
▁조성을	-14489
▁종교적	-14490
▁취지다	-14491
▁캐스팅	-14492
▁향하는	-14493
▁개정안은	-14494
▁급격하게	-14495
▁기대되는	-14496
▁내년에는	-14497
▁발표하고	-14498
▁스펙트럼	-14499
▁아메리카	-14500
▁인천공항	-14501
▁지속되고	-14502
▁한국어로	-14503
▁펄	-14504
계좌	-14505
달이	-14506
분양	-14507
없다	-14508
용은	-14509
▁69	-14510
▁공헌	-14511
▁낚시	-14512
▁때면	-14513
▁법령	-14514
▁성찰	-14515
▁어떡	-14516
▁오기	-14517
▁이리	-14518
▁줬다	-14519
▁최선	-14520
▁취미	-14521
▁치는	-14522
당국이	-14523
받는다	-14524
▁가로막	-14525
▁건물의	-14526
▁계정을	-14527
▁말라고	-14528
▁사운드	-14529
▁상대방	-14530
▁수준인	-14531
▁업무가	-14532
▁없어도	-14533
▁의문이	-14534
▁주의가	-14535
▁차질이	-14536
▁책에서	-14537
▁협상의	-14538
▁국가인권	-14539
▁기다려야	-14540
▁만족도가	-14541
▁언급하며	-14542
▁프리미어리그	-14543
55	-14544
▁얹	-14545
가루	-14546
돈이	-14547
마리	-14548
방식	-14549
시피	-14550
지부	-14551
▁낮춰	-14552
▁내각	-14553
▁넓혀	-14554
▁벽에	-14555
▁상하	-14556
▁셔틀	-14557
▁잔뜩	-14558
▁전복	-14559
▁점수	-14560
▁지날	-14561
▁청사	-14562
▁프라	-14563
▁하동	-14564
기관과	-14565
재단이	-14566
▁강아지	-14567
▁공유할	-14568
▁국정감	-14569
▁국정원	-14570
▁놀랐다	-14571
▁다가가	-14572
▁답변이	-14573
▁바뀌고	-14574
▁발표가	-14575
▁밝히는	-14576
▁스카이	-14577
▁제한이	-14578
▁폴더블	-14579
▁향상을	-14580
▁대대적인	-14581
▁사무실에	-14582
▁작용하는	-14583
▁현실이다	-14584
프란시스코	-14585
▁그중에서도	-14586
▁알고리즘을	-14587
▁시작했습니다	-14588
pp	-14589
▁쭉	-14590
개와	-14591
러블	-14592
방문	-14593
방해	-14594
습이	-14595
지노	-14596
최저	-14597
측이	-14598
트릭	-14599
▁갖지	-14600
▁거점	-14601
▁계층	-14602
▁녹지	-14603
▁똑똑	-14604
▁만드	-14605
▁먹기	-14606
▁산다	-14607
▁서열	-14608
▁수제	-14609
▁왕세	-14610
▁외신	-14611
▁주둔	-14612
▁지칭	-14613
▁체력	-14614
▁출품	-14615
▁침투	-14616
경제가	-14617
관리를	-14618
민들이	-14619
사항이	-14620
▁140	-14621
▁3∼4	-14622
▁걸어서	-14623
▁대표로	-14624
▁드러낸	-14625
▁라이트	-14626
▁마음껏	-14627
▁만나면	-14628
▁박수를	-14629
▁방안도	-14630
▁부모의	-14631
▁상처가	-14632
▁새마을	-14633
▁설명한	-14634
▁시도를	-14635
▁열기가	-14636
▁영장을	-14637
▁용도로	-14638
▁지키기	-14639
▁지키지	-14640
▁징계를	-14641
연구원은	-14642
▁공동주택	-14643
▁미디어가	-14644
▁분식회계	-14645
▁상당수가	-14646
▁스트리밍	-14647
▁아파트를	-14648
▁어디까지	-14649
▁체결했다	-14650
▁희망하는	-14651
▁현대중공업	-14652
ct	-14653
금액	-14654
미스	-14655
불교	-14656
수학	-14657
온은	-14658
위권	-14659
전용	-14660
카를	-14661
터로	-14662
통은	-14663
▁관점	-14664
▁든든	-14665
▁백제	-14666
▁살균	-14667
▁웃음	-14668
▁이별	-14669
▁주전	-14670
▁증정	-14671
▁팀에	-14672
▁확진	-14673
군으로	-14674
▁LED	-14675
▁개선될	-14676
▁극대화	-14677
▁금리가	-14678
▁길이가	-14679
▁당신도	-14680
▁도시가	-14681
▁박람회	-14682
▁봤어요	-14683
▁수입이	-14684
▁영감을	-14685
▁이로써	-14686
▁입장에	-14687
▁재확인	-14688
▁조언을	-14689
▁햄버거	-14690
▁형식의	-14691
▁1987	-14692
▁건강하게	-14693
▁남아있는	-14694
▁대상이다	-14695
▁선언했다	-14696
▁핸드폰을	-14697
▁무역전쟁이	-14698
▁우리나라가	-14699
▁행정안전부	-14700
67	-14701
ea	-14702
민을	-14703
여고	-14704
이미	-14705
이제	-14706
증과	-14707
하곤	-14708
▁74	-14709
▁각광	-14710
▁공고	-14711
▁교황	-14712
▁꿈은	-14713
▁넘은	-14714
▁눈물	-14715
▁다자	-14716
▁대면	-14717
▁슬픈	-14718
▁시연	-14719
▁안락	-14720
▁어둠	-14721
▁없지	-14722
▁오락	-14723
▁원형	-14724
▁이강	-14725
▁평택	-14726
▁폭락	-14727
▁화상	-14728
됩니까	-14729
마케팅	-14730
분부터	-14731
시리즈	-14732
주에서	-14733
▁검토할	-14734
▁경험할	-14735
▁교사는	-14736
▁구조로	-14737
▁마을의	-14738
▁속도는	-14739
▁신청이	-14740
▁아닌데	-14741
▁언어로	-14742
▁연계해	-14743
▁오페라	-14744
▁올해의	-14745
▁이사장	-14746
▁전하고	-14747
▁중이며	-14748
해주셔서	-14749
▁기준금리	-14750
▁단독주택	-14751
▁도시에서	-14752
▁드러나는	-14753
▁만들어서	-14754
▁배경에는	-14755
▁보호하기	-14756
▁사이트에	-14757
▁실시하고	-14758
▁안타까운	-14759
▁올라왔다	-14760
▁전해진다	-14761
▁준비해야	-14762
▁찾아가는	-14763
▁파키스탄	-14764
▁영업이익이	-14765
▁농림축산식품	-14766
▁우리나라에서	-14767
▁띤	-14768
간접	-14769
보도	-14770
예방	-14771
움은	-14772
준표	-14773
쳤던	-14774
크와	-14775
합창	-14776
▁“‘	-14777
▁급한	-14778
▁내어	-14779
▁등재	-14780
▁리뷰	-14781
▁수년	-14782
▁실려	-14783
▁쌓인	-14784
▁씨앗	-14785
▁우버	-14786
▁전락	-14787
▁중산	-14788
▁진천	-14789
▁침수	-14790
▁피난	-14791
상이다	-14792
하시기	-14793
▁교류를	-14794
▁국회를	-14795
▁기준은	-14796
▁김학의	-14797
▁대단한	-14798
▁미안해	-14799
▁발견할	-14800
▁변하는	-14801
▁삼성물	-14802
▁아니며	-14803
▁옆에서	-14804
▁예정돼	-14805
▁재산을	-14806
▁지식과	-14807
▁협력이	-14808
▁화면에	-14809
▁화면을	-14810
▁회의에	-14811
▁가능한지	-14812
▁독일에서	-14813
▁드러내는	-14814
▁사용했다	-14815
▁상승했다	-14816
▁에스케이	-14817
▁오케스트	-14818
▁제시한다	-14819
▁혁신성장	-14820
▁우크라이나	-14821
▁홈페이지를	-14822
▁샌프란시스코	-14823
▁뜬	-14824
겨울	-14825
네마	-14826
레를	-14827
보유	-14828
영리	-14829
이랑	-14830
정통	-14831
추는	-14832
캠프	-14833
테일	-14834
학규	-14835
회말	-14836
and	-14837
▁나흘	-14838
▁단절	-14839
▁등기	-14840
▁뚫고	-14841
▁맡게	-14842
▁바위	-14843
▁박영	-14844
▁백성	-14845
▁수질	-14846
▁신비	-14847
▁왔던	-14848
▁일선	-14849
▁저감	-14850
▁주먹	-14851
▁채팅	-14852
사업자	-14853
소리를	-14854
훈련을	-14855
▁객관적	-14856
▁관해서	-14857
▁구성이	-14858
▁기념해	-14859
▁논란은	-14860
▁미쳤다	-14861
▁박사는	-14862
▁사례다	-14863
▁선물로	-14864
▁선순환	-14865
▁정권의	-14866
▁정상화	-14867
▁제기돼	-14868
▁추진해	-14869
▁태풍이	-14870
회관에서	-14871
▁가능해요	-14872
▁결정된다	-14873
▁국민일보	-14874
▁나타나지	-14875
▁느껴진다	-14876
▁메커니즘	-14877
▁미드필더	-14878
▁받았다는	-14879
▁사업자가	-14880
▁우려했다	-14881
▁일어난다	-14882
▁준비되어	-14883
▁집중하고	-14884
▁콜롬비아	-14885
▁한국인의	-14886
▁부족하다는	-14887
▁종합적으로	-14888
7%	-14889
님과	-14890
수영	-14891
철수	-14892
체적	-14893
컴퓨	-14894
함께	-14895
혈압	-14896
▁간판	-14897
▁군의	-14898
▁바흐	-14899
▁복수	-14900
▁손실	-14901
▁주무	-14902
▁헌신	-14903
는다는	-14904
장이나	-14905
종으로	-14906
하여야	-14907
행사를	-14908
▁3.1	-14909
▁개발된	-14910
▁고기를	-14911
▁과정과	-14912
▁국민을	-14913
▁나서서	-14914
▁니체는	-14915
▁보내준	-14916
▁서울고	-14917
▁여부와	-14918
▁연락해	-14919
▁임진왜	-14920
▁재검토	-14921
▁주위를	-14922
▁주제에	-14923
▁함께한	-14924
▁형식은	-14925
계에서는	-14926
하시나요	-14927
▁도착했다	-14928
▁시스템의	-14929
▁집중하는	-14930
▁친구에게	-14931
▁카페에서	-14932
▁모르겠지만	-14933
▁받아들이지	-14934
▁탄력근로제	-14935
FI	-14936
▁맵	-14937
니의	-14938
독한	-14939
러닝	-14940
론과	-14941
미와	-14942
밀리	-14943
발로	-14944
소설	-14945
원전	-14946
집은	-14947
팀과	-14948
▁61	-14949
▁김일	-14950
▁모형	-14951
▁무섭	-14952
▁박상	-14953
▁보석	-14954
▁숙명	-14955
▁식탁	-14956
▁예금	-14957
▁향이	-14958
소리가	-14959
정책에	-14960
품으로	-14961
▁가구가	-14962
▁동성애	-14963
▁만남이	-14964
▁부진한	-14965
▁사라져	-14966
▁성장과	-14967
▁소재를	-14968
▁시각적	-14969
▁시너지	-14970
▁업로드	-14971
▁의장은	-14972
▁자기의	-14973
▁자체로	-14974
▁잠재적	-14975
▁적절히	-14976
▁측면을	-14977
킬로미터	-14978
했음에도	-14979
▁노하우를	-14980
▁스스로를	-14981
▁어우러져	-14982
▁영화에서	-14983
▁이데올로	-14984
▁이미지는	-14985
▁장기적인	-14986
▁투자하는	-14987
▁파악됐다	-14988
▁한마디로	-14989
▁확인해야	-14990
▁가능하다면	-14991
▁구속영장이	-14992
▁사람입니다	-14993
▁의도적으로	-14994
ia	-14995
▁놔	-14996
▁롱	-14997
과거	-14998
물인	-14999
정도	-15000
제약	-15001
(30	-15002
∼19	-15003
▁72	-15004
▁구리	-15005
▁다룰	-15006
▁단편	-15007
▁린드	-15008
▁반전	-15009
조원을	-15010
체스터	-15011
▁것과는	-15012
▁과제로	-15013
▁급속히	-15014
▁느끼지	-15015
▁독일은	-15016
▁독일이	-15017
▁되풀이	-15018
▁맡는다	-15019
▁메뉴를	-15020
▁민간인	-15021
▁사유가	-15022
▁선거를	-15023
▁쇼케이	-15024
▁아끼지	-15025
▁용기를	-15026
▁의문을	-15027
▁이밖에	-15028
▁장소는	-15029
▁점심을	-15030
▁지었다	-15031
▁통일부	-15032
▁평가할	-15033
▁프로필	-15034
하였으나	-15035
▁1992	-15036
▁다이어트	-15037
▁상품으로	-15038
▁실시한다	-15039
▁제공하기	-15040
▁지속해서	-15041
▁펼쳐졌다	-15042
▁사로잡았다	-15043
▁사회적으로	-15044
▁닛	-15045
▁폰	-15046
감치	-15047
그린	-15048
글로	-15049
비행	-15050
이든	-15051
창을	-15052
타로	-15053
▁관념	-15054
▁군은	-15055
▁글로	-15056
▁돌고	-15057
▁듣기	-15058
▁리드	-15059
▁부양	-15060
▁안쪽	-15061
▁잡힌	-15062
▁장의	-15063
▁전산	-15064
▁촉매	-15065
▁최장	-15066
▁화석	-15067
만명의	-15068
▁결정된	-15069
▁고유한	-15070
▁과제가	-15071
▁교수와	-15072
▁구조는	-15073
▁단계로	-15074
▁물고기	-15075
▁미래가	-15076
▁바다를	-15077
▁불투명	-15078
▁사실과	-15079
▁성능을	-15080
▁오바마	-15081
▁음악과	-15082
▁제재가	-15083
▁주차장	-15084
▁지시한	-15085
▁지적한	-15086
▁찾아온	-15087
▁통과한	-15088
▁펼쳐질	-15089
자로부터	-15090
▁다양하고	-15091
▁대기오염	-15092
▁들어가면	-15093
▁민주당의	-15094
▁선보이고	-15095
▁심사위원	-15096
▁악영향을	-15097
▁어머니의	-15098
▁없었다는	-15099
▁우려된다	-15100
▁인터넷에	-15101
▁판단이다	-15102
▁스타디움에서	-15103
31	-15104
▁댐	-15105
니를	-15106
래곤	-15107
서치	-15108
실질	-15109
∼10	-15110
▁과징	-15111
▁귀족	-15112
▁규탄	-15113
▁난방	-15114
▁소진	-15115
▁수분	-15116
▁초상	-15117
▁통치	-15118
▁학대	-15119
반도체	-15120
비용이	-15121
하셔서	-15122
▁국가와	-15123
▁마리가	-15124
▁많았던	-15125
▁매출액	-15126
▁방문이	-15127
▁브라운	-15128
▁윌리엄	-15129
▁인보이	-15130
▁주민의	-15131
▁직장인	-15132
▁팬들과	-15133
▁하기로	-15134
▁한복을	-15135
▁환자는	-15136
만큼이나	-15137
▁광범위한	-15138
▁뉴욕에서	-15139
▁벗어나지	-15140
▁연구팀은	-15141
▁인정하지	-15142
▁접근성이	-15143
▁친구들을	-15144
▁캐릭터가	-15145
34	-15146
빈이	-15147
빌딩	-15148
운송	-15149
응답	-15150
▁걷고	-15151
▁계곡	-15152
▁김연	-15153
▁내재	-15154
▁늦어	-15155
▁딱딱	-15156
▁배양	-15157
▁성접	-15158
▁성황	-15159
▁승무	-15160
▁양은	-15161
▁연인	-15162
▁엿볼	-15163
▁왔을	-15164
▁용서	-15165
▁일일	-15166
▁자매	-15167
▁종업	-15168
▁탐사	-15169
▁하실	-15170
▁홍영	-15171
다니는	-15172
되는지	-15173
스럽고	-15174
업계는	-15175
찌감치	-15176
▁KIA	-15177
▁겁니까	-15178
▁교회에	-15179
▁모르게	-15180
▁몰라요	-15181
▁무죄를	-15182
▁배경에	-15183
▁분석에	-15184
▁오르고	-15185
▁올라갈	-15186
▁이론의	-15187
▁일상을	-15188
▁좋아해	-15189
▁떠오르는	-15190
▁메이크업	-15191
▁예고했다	-15192
▁주문했다	-15193
▁직원들은	-15194
▁콘서트가	-15195
▁하겠다는	-15196
▁보냈습니다	-15197
▁시작하였다	-15198
▁아름다움을	-15199
▁컷	-15200
경과	-15201
들께	-15202
반의	-15203
브로	-15204
와도	-15205
월의	-15206
지던	-15207
첨단	-15208
티비	-15209
호흡	-15210
▁꽃이	-15211
▁냉동	-15212
▁뒤인	-15213
▁망가	-15214
▁박종	-15215
▁부임	-15216
▁실어	-15217
▁어휘	-15218
▁원에	-15219
카메라	-15220
해주실	-15221
환경이	-15222
▁걸어가	-15223
▁궁금해	-15224
▁머리에	-15225
▁모양을	-15226
▁미지수	-15227
▁반응은	-15228
▁베테랑	-15229
▁영역의	-15230
▁요구할	-15231
▁운동에	-15232
▁원으로	-15233
▁원자의	-15234
▁임금을	-15235
▁장치가	-15236
▁점수가	-15237
▁하니까	-15238
▁하시는	-15239
▁행정처	-15240
▁1500	-15241
▁감소하는	-15242
▁거짓말을	-15243
▁받았어요	-15244
▁사립유치	-15245
▁선수들은	-15246
▁시장으로	-15247
▁에너지의	-15248
▁유럽에서	-15249
▁의원들의	-15250
▁자영업자	-15251
▁제주도는	-15252
▁지난주에	-15253
84	-15254
ul	-15255
▁킬	-15256
골이	-15257
나눔	-15258
마드	-15259
병에	-15260
사례	-15261
수용	-15262
슨의	-15263
쟁이	-15264
직자	-15265
채는	-15266
현장	-15267
효가	-15268
희망	-15269
∼30	-15270
▁가뭄	-15271
▁건전	-15272
▁겹쳐	-15273
▁고안	-15274
▁곤충	-15275
▁공표	-15276
▁등산	-15277
▁묶어	-15278
▁문헌	-15279
▁발현	-15280
▁브이	-15281
▁울릉	-15282
▁짧게	-15283
▁최강	-15284
▁형평	-15285
년간의	-15286
원들은	-15287
▁0.0	-15288
▁가려면	-15289
▁꼼꼼히	-15290
▁나가야	-15291
▁다수가	-15292
▁뜨겁다	-15293
▁부산항	-15294
▁세계는	-15295
▁수익률	-15296
▁스폰서	-15297
▁여행객	-15298
▁이재용	-15299
▁일었다	-15300
▁일회용	-15301
▁중국어	-15302
▁지난번	-15303
▁형이상	-15304
▁돌입했다	-15305
▁명예훼손	-15306
▁안전하고	-15307
▁않았는데	-15308
▁정책으로	-15309
▁주목하고	-15310
▁지역주민	-15311
▁핵심이다	-15312
▁것만으로도	-15313
LO	-15314
메이	-15315
외과	-15316
으신	-15317
줘요	-15318
터에	-15319
토의	-15320
트륨	-15321
▁CD	-15322
▁내걸	-15323
▁넘기	-15324
▁더운	-15325
▁무슬	-15326
▁시그	-15327
▁열풍	-15328
▁옮기	-15329
▁원가	-15330
▁입에	-15331
▁찍는	-15332
▁커서	-15333
▁코인	-15334
▁탄압	-15335
▁표지	-15336
▁회화	-15337
드루킹	-15338
방식을	-15339
신도시	-15340
전문가	-15341
하자고	-15342
▁광주형	-15343
▁기쁨을	-15344
▁내용도	-15345
▁단어가	-15346
▁모르겠	-15347
▁사업장	-15348
▁선정해	-15349
▁소리로	-15350
▁알아요	-15351
▁약속이	-15352
▁운동의	-15353
▁의식이	-15354
▁일본군	-15355
▁제시할	-15356
▁지나친	-15357
▁학습을	-15358
▁대중문화	-15359
▁미안해요	-15360
▁아쉬움을	-15361
▁인프라를	-15362
▁적발됐다	-15363
▁전까지는	-15364
▁학생들과	-15365
▁현금으로	-15366
▁하나님께서	-15367
∼9	-15368
결합	-15369
르의	-15370
블릿	-15371
양호	-15372
▁‘3	-15373
▁가설	-15374
▁거시	-15375
▁공업	-15376
▁낭만	-15377
▁달걀	-15378
▁답이	-15379
▁믿어	-15380
▁분비	-15381
▁여신	-15382
▁오찬	-15383
▁이원	-15384
▁입양	-15385
▁자식	-15386
▁재편	-15387
▁중남	-15388
▁통영	-15389
▁팔을	-15390
▁휘두	-15391
년보다	-15392
6000	-15393
▁감각을	-15394
▁구속된	-15395
▁나이에	-15396
▁불과한	-15397
▁상승을	-15398
▁서울은	-15399
▁순간을	-15400
▁시점이	-15401
▁요소로	-15402
▁위치가	-15403
▁직원은	-15404
▁최우선	-15405
▁피하기	-15406
시간으로	-15407
▁대형마트	-15408
▁드릴까요	-15409
▁벌써부터	-15410
▁비슷하다	-15411
▁사용해야	-15412
▁선수들을	-15413
▁나왔습니다	-15414
▁받아들이는	-15415
▁시작하면서	-15416
▁이유에서다	-15417
▁프로젝트가	-15418
AS	-15419
▁탕	-15420
구매	-15421
국장	-15422
날을	-15423
도도	-15424
먹는	-15425
부진	-15426
사다	-15427
스톤	-15428
직이	-15429
콘서	-15430
플라	-15431
후보	-15432
희의	-15433
▁귀농	-15434
▁기장	-15435
▁낮고	-15436
▁늘릴	-15437
▁도요	-15438
▁드문	-15439
▁딸의	-15440
▁로비	-15441
▁모금	-15442
▁무소	-15443
▁백두	-15444
▁보라	-15445
▁보컬	-15446
▁스코	-15447
▁심상	-15448
▁에릭	-15449
▁이대	-15450
▁이지	-15451
▁재임	-15452
▁적다	-15453
▁짙은	-15454
자금을	-15455
▁가정을	-15456
▁다루고	-15457
▁댓글을	-15458
▁더해져	-15459
▁매체는	-15460
▁미국인	-15461
▁바꾸어	-15462
▁보내줄	-15463
▁부끄러	-15464
▁비하면	-15465
▁선거에	-15466
▁소유한	-15467
▁신속히	-15468
▁인도의	-15469
▁조기에	-15470
▁특수한	-15471
▁학생부	-15472
▁항공사	-15473
▁화학적	-15474
위원회와	-15475
하겠지만	-15476
▁공개된다	-15477
▁노동자의	-15478
▁반영하는	-15479
▁받았지만	-15480
▁수익률이	-15481
▁시작했고	-15482
▁요구되는	-15483
▁요청하는	-15484
▁이끌었다	-15485
▁지점에서	-15486
▁캄보디아	-15487
57	-15488
▁뚝	-15489
▁썩	-15490
내려	-15491
때로	-15492
래가	-15493
쳤고	-15494
출이	-15495
터와	-15496
회복	-15497
est	-15498
▁김희	-15499
▁날로	-15500
▁물과	-15501
▁미처	-15502
▁바와	-15503
▁발로	-15504
▁비빔	-15505
▁양해	-15506
▁장성	-15507
▁적시	-15508
▁즐겁	-15509
▁청량	-15510
▁측근	-15511
▁틀어	-15512
▁후임	-15513
능력이	-15514
사회를	-15515
조치가	-15516
▁구하는	-15517
▁기무사	-15518
▁기업가	-15519
▁농산물	-15520
▁늘리고	-15521
▁알리기	-15522
▁어차피	-15523
▁역할에	-15524
▁은행의	-15525
▁이름과	-15526
▁적용될	-15527
▁절차에	-15528
▁최상의	-15529
▁투자에	-15530
▁한국영	-15531
▁힘으로	-15532
들에게도	-15533
적이지만	-15534
▁괜찮아요	-15535
▁다가오는	-15536
▁다르다는	-15537
▁다운로드	-15538
▁만듭니다	-15539
▁목소리도	-15540
▁미디어는	-15541
▁일찌감치	-15542
▁있으세요	-15543
▁추정하고	-15544
▁콘텐츠는	-15545
▁편안하게	-15546
▁포르투갈	-15547
▁계획입니다	-15548
엔터테인먼트	-15549
OP	-15550
▁엽	-15551
▁잤	-15552
개정	-15553
날이	-15554
루의	-15555
숙이	-15556
시께	-15557
업자	-15558
천이	-15559
▁거니	-15560
▁공이	-15561
▁그라	-15562
▁넘지	-15563
▁듣지	-15564
▁라벨	-15565
▁모방	-15566
▁사드	-15567
▁심층	-15568
▁안겨	-15569
▁애국	-15570
▁어리	-15571
▁워너	-15572
▁유감	-15573
▁일원	-15574
▁점과	-15575
▁좀더	-15576
▁하반	-15577
▁하청	-15578
교육과	-15579
들까지	-15580
러스트	-15581
작으로	-15582
지역은	-15583
폴리오	-15584
▁BTS	-15585
▁고구려	-15586
▁길거리	-15587
▁나아갈	-15588
▁내려진	-15589
▁놀이터	-15590
▁능력은	-15591
▁등록된	-15592
▁발견돼	-15593
▁보고를	-15594
▁성장에	-15595
▁세대의	-15596
▁수용할	-15597
▁에이스	-15598
▁온전히	-15599
▁요청이	-15600
▁자산을	-15601
▁제주시	-15602
▁측에서	-15603
위원장을	-15604
으면서도	-15605
▁광주시는	-15606
▁데이터의	-15607
▁상대방의	-15608
▁싫어하는	-15609
▁아버지를	-15610
▁언론들은	-15611
▁없었다고	-15612
▁여성들의	-15613
▁일대에서	-15614
▁장점이다	-15615
32	-15616
LG	-15617
OU	-15618
것이	-15619
되길	-15620
법칙	-15621
벨트	-15622
정비	-15623
증에	-15624
채용	-15625
▁김제	-15626
▁내밀	-15627
▁놀랐	-15628
▁동호	-15629
▁수반	-15630
▁실은	-15631
▁어지	-15632
▁얼어	-15633
▁연안	-15634
▁의병	-15635
▁인체	-15636
▁일행	-15637
▁잠수	-15638
▁주연	-15639
▁질적	-15640
▁크라	-15641
▁한잔	-15642
▁해임	-15643
▁흔한	-15644
기업을	-15645
아파트	-15646
이거나	-15647
▁강력히	-15648
▁강세를	-15649
▁구멍이	-15650
▁남북한	-15651
▁느낀다	-15652
▁뒤에서	-15653
▁마을을	-15654
▁몰랐다	-15655
▁발전과	-15656
▁부모와	-15657
▁성장한	-15658
▁아니냐	-15659
▁영향은	-15660
▁정보에	-15661
▁조처를	-15662
▁표정이	-15663
▁1988	-15664
▁대법원은	-15665
▁떨어진다	-15666
▁발견하고	-15667
▁쏟아졌다	-15668
▁전문성을	-15669
▁에스엔에스	-15670
▁투자자들의	-15671
3%	-15672
가입	-15673
드라	-15674
르가	-15675
모임	-15676
상한	-15677
창호	-15678
▁대의	-15679
▁뛰는	-15680
▁백신	-15681
▁센서	-15682
▁식별	-15683
▁영변	-15684
▁왕복	-15685
▁용기	-15686
▁월급	-15687
▁유방	-15688
▁이럴	-15689
▁이색	-15690
▁임용	-15691
▁판정	-15692
기관을	-15693
만원에	-15694
비용을	-15695
행사가	-15696
▁가슴이	-15697
▁게임의	-15698
▁공개해	-15699
▁그것의	-15700
▁노선을	-15701
▁다음의	-15702
▁동물을	-15703
▁말씀이	-15704
▁발휘할	-15705
▁비무장	-15706
▁숨지게	-15707
▁연구소	-15708
▁연루된	-15709
▁임금이	-15710
▁정신과	-15711
▁추진한	-15712
▁1991	-15713
▁개정안을	-15714
▁객관적인	-15715
▁노동자가	-15716
▁소프트웨	-15717
▁심각하게	-15718
▁어우러진	-15719
▁역사적인	-15720
▁지원하기	-15721
▁지적한다	-15722
▁참석하고	-15723
▁중소기업의	-15724
CD	-15725
OD	-15726
os	-15727
▁$	-15728
거를	-15729
교섭	-15730
기상	-15731
닷컴	-15732
여대	-15733
조와	-15734
철을	-15735
커녕	-15736
평이	-15737
홀딩	-15738
▁6,	-15739
▁79	-15740
▁끼어	-15741
▁다중	-15742
▁대미	-15743
▁드려	-15744
▁불합	-15745
▁비어	-15746
▁소음	-15747
▁송영	-15748
▁쉬고	-15749
▁앤드	-15750
▁옵션	-15751
▁있긴	-15752
▁터치	-15753
▁펜션	-15754
▁풀려	-15755
▁흥분	-15756
교육이	-15757
▁가지의	-15758
▁건축물	-15759
▁구축을	-15760
▁기다릴	-15761
▁기재부	-15762
▁놓치지	-15763
▁도구를	-15764
▁도입에	-15765
▁도저히	-15766
▁됐어요	-15767
▁모여서	-15768
▁모이는	-15769
▁상용화	-15770
▁순위가	-15771
▁시장과	-15772
▁십자가	-15773
▁아들의	-15774
▁양국이	-15775
▁위상을	-15776
▁이씨는	-15777
▁장점은	-15778
▁조속히	-15779
▁타인의	-15780
▁폐기물	-15781
▁하락한	-15782
▁해결해	-15783
사회에서	-15784
▁노력해야	-15785
▁담겨있다	-15786
▁드러난다	-15787
▁비트코인	-15788
▁비핵화에	-15789
▁세계대전	-15790
▁시민들은	-15791
▁인플레이	-15792
▁일요일에	-15793
▁정보기술	-15794
▁판단하는	-15795
▁홍콩에서	-15796
지방경찰청	-15797
체육관에서	-15798
▁보여주었다	-15799
▁월스트리트	-15800
KB	-15801
꾸로	-15802
닉스	-15803
라늄	-15804
재에	-15805
포로	-15806
▁2%	-15807
▁98	-15808
▁냉각	-15809
▁단정	-15810
▁말의	-15811
▁모호	-15812
▁버린	-15813
▁생체	-15814
▁스카	-15815
▁열흘	-15816
▁일명	-15817
▁정답	-15818
▁침략	-15819
기업인	-15820
리지널	-15821
베스트	-15822
신문은	-15823
▁가입자	-15824
▁건강이	-15825
▁교회의	-15826
▁나가서	-15827
▁달라는	-15828
▁동북아	-15829
▁되지만	-15830
▁보시면	-15831
▁불안정	-15832
▁사소한	-15833
▁실장은	-15834
▁연동형	-15835
▁요청할	-15836
▁유튜버	-15837
▁적극적	-15838
▁증가에	-15839
▁편의를	-15840
노동조합	-15841
▁결정한다	-15842
▁기록하는	-15843
▁달라진다	-15844
▁맞습니다	-15845
▁예상하고	-15846
▁요구하며	-15847
▁제한하는	-15848
▁청와대와	-15849
▁프로야구	-15850
▁필수적인	-15851
▁필요하지	-15852
▁현실적인	-15853
▁후보자의	-15854
▁가능할까요	-15855
▁단계적으로	-15856
▁일시적으로	-15857
▁생각했습니다	-15858
거야	-15859
겨레	-15860
과목	-15861
기무	-15862
리던	-15863
인간	-15864
작은	-15865
후가	-15866
ICT	-15867
▁YG	-15868
▁공학	-15869
▁나을	-15870
▁루이	-15871
▁마찰	-15872
▁부친	-15873
▁삭감	-15874
▁소금	-15875
▁영리	-15876
▁인내	-15877
▁장수	-15878
▁전동	-15879
▁착륙	-15880
▁카르	-15881
▁평일	-15882
▁휩쓸	-15883
리라고	-15884
심사를	-15885
▁그려진	-15886
▁나가고	-15887
▁방에서	-15888
▁사이를	-15889
▁산업은	-15890
▁손학규	-15891
▁싶다면	-15892
▁아세안	-15893
▁아파서	-15894
▁음식에	-15895
▁진상규	-15896
▁차량의	-15897
▁청년이	-15898
▁특별감	-15899
▁담당하고	-15900
▁민주당은	-15901
▁불과했다	-15902
▁신고했다	-15903
▁아닌가요	-15904
▁언제부터	-15905
▁여자친구	-15906
▁테마파크	-15907
▁통신원이	-15908
▁해결책을	-15909
▁현실에서	-15910
▁상황에서도	-15911
▁프로젝트는	-15912
64	-15913
언론	-15914
코스	-15915
할까	-15916
▁가죽	-15917
▁국비	-15918
▁깎아	-15919
▁때려	-15920
▁때를	-15921
▁랭킹	-15922
▁미투	-15923
▁송환	-15924
▁오일	-15925
▁위촉	-15926
▁적을	-15927
▁타자	-15928
▁통역	-15929
▁페미	-15930
▁해지	-15931
▁환급	-15932
겠다며	-15933
깁니다	-15934
대표가	-15935
대회가	-15936
실장이	-15937
▁개발과	-15938
▁견해를	-15939
▁대회의	-15940
▁바이어	-15941
▁방송은	-15942
▁사람에	-15943
▁생산할	-15944
▁승리의	-15945
▁업계가	-15946
▁없네요	-15947
▁연세대	-15948
▁주제는	-15949
▁진료를	-15950
▁해외로	-15951
▁국민에게	-15952
▁대응하는	-15953
▁소통하는	-15954
▁최고위원	-15955
▁필요했다	-15956
▁하나님을	-15957
?”	-15958
▁쿨	-15959
업은	-15960
인멸	-15961
점유	-15962
칭을	-15963
할게	-15964
▁감면	-15965
▁넣는	-15966
▁노르	-15967
▁당해	-15968
▁덕에	-15969
▁동포	-15970
▁막강	-15971
▁목이	-15972
▁밀접	-15973
▁열람	-15974
▁유한	-15975
디스크	-15976
버스를	-15977
실장은	-15978
인지는	-15979
했으니	-15980
▁기계가	-15981
▁남기고	-15982
▁벗어난	-15983
▁보조금	-15984
▁블랙핑	-15985
▁사용될	-15986
▁시각을	-15987
▁업체를	-15988
▁여사가	-15989
▁영업을	-15990
▁영화와	-15991
▁오세요	-15992
▁이외의	-15993
▁장례식	-15994
▁전보다	-15995
▁전화가	-15996
▁좋다는	-15997
▁지적을	-15998
▁하므로	-15999
▁확대가	-16000
▁회원이	-16001
▁도로에서	-16002
▁마음대로	-16003
▁설치하고	-16004
▁영등포구	-16005
▁점검하고	-16006
▁지역에는	-16007
▁진상조사	-16008
▁호소했다	-16009
▁확보했다	-16010
엔터테인먼	-16011
▁블랙리스트	-16012
▁증가하면서	-16013
▁러시아월드컵	-16014
▁뱀	-16015
수소	-16016
인치	-16017
품은	-16018
▁EX	-16019
▁IS	-16020
▁개헌	-16021
▁공룡	-16022
▁규범	-16023
▁기체	-16024
▁남의	-16025
▁내장	-16026
▁래퍼	-16027
▁마케	-16028
▁메가	-16029
▁보류	-16030
▁빚을	-16031
▁사적	-16032
▁상금	-16033
▁성동	-16034
▁쉬워	-16035
▁암시	-16036
▁의제	-16037
▁이식	-16038
▁직결	-16039
▁찬양	-16040
▁청산	-16041
▁항구	-16042
드에서	-16043
병으로	-16044
소비자	-16045
체제를	-16046
캐피탈	-16047
▁GDP	-16048
▁경제성	-16049
▁관리할	-16050
▁그래요	-16051
▁놓았다	-16052
▁능력과	-16053
▁먹으러	-16054
▁분야로	-16055
▁암세포	-16056
▁없다며	-16057
▁요건을	-16058
▁우즈벡	-16059
▁정하고	-16060
▁주도한	-16061
▁지도자	-16062
▁컨트롤	-16063
▁해석을	-16064
▁했으며	-16065
▁홍준표	-16066
연구원이	-16067
쳤습니다	-16068
▁6·25	-16069
▁고려하여	-16070
▁국방부가	-16071
▁대변인이	-16072
▁방문했다	-16073
▁창의적인	-16074
▁트위터에	-16075
▁필리핀에	-16076
▁재생에너지	-16077
▁펌	-16078
기아	-16079
받게	-16080
병은	-16081
여년	-16082
있고	-16083
▁간이	-16084
▁견디	-16085
▁계란	-16086
▁나뭇	-16087
▁덩어	-16088
▁독보	-16089
▁밀착	-16090
▁바보	-16091
▁박진	-16092
▁배타	-16093
▁본능	-16094
▁부스	-16095
▁불펜	-16096
▁상파	-16097
▁선점	-16098
▁소아	-16099
▁순조	-16100
▁실습	-16101
▁음향	-16102
▁주름	-16103
▁크레	-16104
▁터라	-16105
▁표정	-16106
▁하느	-16107
리거나	-16108
사에게	-16109
상품을	-16110
했거나	-16111
▁개그맨	-16112
▁기여한	-16113
▁다국적	-16114
▁드리고	-16115
▁무서운	-16116
▁사망자	-16117
▁사생활	-16118
▁사우스	-16119
▁세종시	-16120
▁에이전	-16121
▁영어가	-16122
▁의도를	-16123
▁인연이	-16124
▁자체는	-16125
▁저자는	-16126
▁전자상	-16127
▁지내는	-16128
▁총리와	-16129
▁투명한	-16130
▁투표를	-16131
▁파티를	-16132
▁하려는	-16133
▁간단하게	-16134
▁도와주는	-16135
▁모른다는	-16136
▁부적절한	-16137
▁스타들이	-16138
▁시중은행	-16139
▁주도권을	-16140
▁진행되며	-16141
▁국내에서도	-16142
▁제외하고는	-16143
▁랜	-16144
▁벡	-16145
네이	-16146
럽고	-16147
로봇	-16148
마일	-16149
목적	-16150
뱅킹	-16151
슬러	-16152
양성	-16153
티가	-16154
피의	-16155
호에	-16156
환자	-16157
700	-16158
▁가산	-16159
▁구두	-16160
▁닮은	-16161
▁마신	-16162
▁생선	-16163
▁쓰인	-16164
▁왔어	-16165
▁윤곽	-16166
▁이시	-16167
▁질서	-16168
▁차는	-16169
▁텍사	-16170
▁팀장	-16171
▁폭을	-16172
▁형상	-16173
▁히틀	-16174
▁힐링	-16175
기업에	-16176
발전을	-16177
뿐이다	-16178
선수권	-16179
신문이	-16180
어머니	-16181
으로의	-16182
주들이	-16183
터미널	-16184
하듯이	-16185
▁감성을	-16186
▁거꾸로	-16187
▁공간과	-16188
▁그레이	-16189
▁도입된	-16190
▁동안의	-16191
▁맞는지	-16192
▁머무는	-16193
▁먹어야	-16194
▁모습도	-16195
▁벌어질	-16196
▁벗어날	-16197
▁사안이	-16198
▁설치한	-16199
▁성관계	-16200
▁시작될	-16201
▁아픔을	-16202
▁이르러	-16203
▁임대료	-16204
▁지장이	-16205
▁참석할	-16206
▁펼쳐진	-16207
▁간담회를	-16208
▁고민하고	-16209
▁관객들은	-16210
▁모양으로	-16211
▁못했다고	-16212
▁분석됐다	-16213
▁비용으로	-16214
▁성황리에	-16215
▁실시하는	-16216
▁잃어버린	-16217
▁중에서는	-16218
▁포함되지	-16219
▁한편으로는	-16220
TC	-16221
em	-16222
나를	-16223
디에	-16224
베르	-16225
중의	-16226
챌린	-16227
혹한	-16228
▁고사	-16229
▁사슬	-16230
▁쌓은	-16231
▁안성	-16232
▁알바	-16233
▁우월	-16234
▁전성	-16235
▁휴양	-16236
구조를	-16237
병원에	-16238
시키며	-16239
졌는지	-16240
졌으나	-16241
▁건물에	-16242
▁건수가	-16243
▁경기침	-16244
▁공연에	-16245
▁국경을	-16246
▁권한이	-16247
▁동생이	-16248
▁범죄를	-16249
▁살아갈	-16250
▁새겨진	-16251
▁생각도	-16252
▁세련된	-16253
▁수험생	-16254
▁업체는	-16255
▁인류가	-16256
▁잊어버	-16257
▁저마다	-16258
▁지원과	-16259
▁차라리	-16260
▁축제로	-16261
▁축제의	-16262
▁투자한	-16263
▁페이지	-16264
화되면서	-16265
▁개념으로	-16266
▁과기정통	-16267
▁관리하고	-16268
▁나타내고	-16269
▁논의했다	-16270
▁들어간다	-16271
▁명목으로	-16272
▁부산지역	-16273
▁생각했던	-16274
▁의심되는	-16275
▁제출했다	-16276
▁조언했다	-16277
▁주민등록	-16278
▁착수했다	-16279
▁챔피언십	-16280
▁필요한데	-16281
▁알고리즘이	-16282
33	-16283
▁웬	-16284
▁찜	-16285
난히	-16286
봉을	-16287
선교	-16288
슈퍼	-16289
운전	-16290
장려	-16291
점인	-16292
초가	-16293
한화	-16294
해결	-16295
▁‘5	-16296
▁너머	-16297
▁담임	-16298
▁동창	-16299
▁마구	-16300
▁보람	-16301
▁불신	-16302
▁생계	-16303
▁소망	-16304
▁온다	-16305
▁전지	-16306
▁제국	-16307
▁조재	-16308
▁친화	-16309
▁키울	-16310
▁키움	-16311
▁팬이	-16312
▁피자	-16313
마저도	-16314
정책의	-16315
조차도	-16316
▁강화해	-16317
▁개념과	-16318
▁기대에	-16319
▁놀라게	-16320
▁되었을	-16321
▁때때로	-16322
▁목적에	-16323
▁무리한	-16324
▁바다로	-16325
▁밝히지	-16326
▁부산에	-16327
▁살펴본	-16328
▁역사에	-16329
▁전두환	-16330
▁지켜야	-16331
▁진출이	-16332
▁첨부된	-16333
▁체크인	-16334
▁출장을	-16335
▁협업을	-16336
▁것이라며	-16337
▁경상북도	-16338
▁나머지는	-16339
▁다르지만	-16340
▁마스크를	-16341
▁문제들을	-16342
▁부드럽게	-16343
▁스테이크	-16344
▁아이들과	-16345
▁엔지니어	-16346
▁자기소개	-16347
▁측정하는	-16348
▁반복적으로	-16349
▁포트폴리오	-16350
65	-16351
PM	-16352
▁굶	-16353
▁젤	-16354
경험	-16355
극을	-16356
린의	-16357
실적	-16358
예를	-16359
크에	-16360
▁감기	-16361
▁감리	-16362
▁강성	-16363
▁김주	-16364
▁농가	-16365
▁당이	-16366
▁드림	-16367
▁마술	-16368
▁미스	-16369
▁발산	-16370
▁병을	-16371
▁보름	-16372
▁불황	-16373
▁비위	-16374
▁사단	-16375
▁세이	-16376
▁이젠	-16377
▁잃지	-16378
▁정우	-16379
▁정형	-16380
▁제압	-16381
▁통학	-16382
▁평등	-16383
▁픽업	-16384
▁하신	-16385
기준을	-16386
소시엄	-16387
시간은	-16388
▁15%	-16389
▁과언이	-16390
▁남편의	-16391
▁남학생	-16392
▁넣었다	-16393
▁논란의	-16394
▁달러의	-16395
▁도와주	-16396
▁돕는다	-16397
▁수입을	-16398
▁시신을	-16399
▁아내의	-16400
▁열정이	-16401
▁위협이	-16402
▁이동이	-16403
▁제치고	-16404
▁주주총	-16405
▁찾는다	-16406
▁초점이	-16407
▁태블릿	-16408
▁프레스	-16409
▁확대와	-16410
▁고마워요	-16411
▁공식적인	-16412
▁그것이다	-16413
▁넘어서는	-16414
▁마련하고	-16415
▁마련하는	-16416
▁부작용을	-16417
▁서울시장	-16418
▁선보이며	-16419
▁손흥민은	-16420
▁알아보고	-16421
▁저소득층	-16422
▁출신으로	-16423
▁하락세를	-16424
▁하락했다	-16425
▁활용하고	-16426
▁제공합니다	-16427
PA	-16428
▁꿰	-16429
▁튜	-16430
말라	-16431
명령	-16432
사각	-16433
사원	-16434
설비	-16435
쓰고	-16436
용의	-16437
침해	-16438
▁71	-16439
▁95	-16440
▁CG	-16441
▁공제	-16442
▁기득	-16443
▁독도	-16444
▁동구	-16445
▁막상	-16446
▁맡는	-16447
▁빚어	-16448
▁세븐	-16449
▁세입	-16450
▁여전	-16451
▁자궁	-16452
▁전승	-16453
▁증선	-16454
▁지을	-16455
▁채굴	-16456
▁충실	-16457
▁혼잡	-16458
그러나	-16459
디지털	-16460
물리학	-16461
비에스	-16462
▁결정적	-16463
▁경계를	-16464
▁고객과	-16465
▁교수님	-16466
▁그리워	-16467
▁문장을	-16468
▁미끄러	-16469
▁미치고	-16470
▁설치를	-16471
▁오디오	-16472
▁오렌지	-16473
▁잘하고	-16474
▁지켜보	-16475
▁풍경을	-16476
▁화재로	-16477
▁화제다	-16478
▁것이어서	-16479
▁구조조정	-16480
▁데이비드	-16481
▁들어가서	-16482
▁마련되어	-16483
▁보이는데	-16484
▁사이에는	-16485
▁전달하고	-16486
▁지하철을	-16487
▁이용자들이	-16488
▁닉	-16489
▁립	-16490
교과	-16491
브란	-16492
약한	-16493
연수	-16494
오지	-16495
지배	-16496
창한	-16497
퍼드	-16498
항이	-16499
▁남기	-16500
▁눈높	-16501
▁도의	-16502
▁문법	-16503
▁물체	-16504
▁비관	-16505
▁사야	-16506
▁속출	-16507
▁슬퍼	-16508
▁않겠	-16509
▁어필	-16510
▁정시	-16511
▁증강	-16512
▁책에	-16513
▁커리	-16514
▁팔레	-16515
▁편한	-16516
▁폭스	-16517
▁푸는	-16518
▁한껏	-16519
▁행안	-16520
▁훌쩍	-16521
테스트	-16522
▁국가는	-16523
▁규정에	-16524
▁그러자	-16525
▁눈앞에	-16526
▁동해안	-16527
▁리모델	-16528
▁마련돼	-16529
▁말하며	-16530
▁바이올	-16531
▁번이나	-16532
▁세우는	-16533
▁소득을	-16534
▁아빠가	-16535
▁예측을	-16536
▁응답이	-16537
▁졸업한	-16538
▁주제가	-16539
▁줄줄이	-16540
▁커진다	-16541
▁크기를	-16542
▁파란색	-16543
▁휘발유	-16544
▁“201	-16545
▁국무총리	-16546
▁극복하고	-16547
▁못합니다	-16548
▁부족으로	-16549
▁불가피한	-16550
▁비판하는	-16551
▁운영한다	-16552
▁제작하는	-16553
▁포함하고	-16554
▁폭발적인	-16555
디스플레이	-16556
▁크리에이터	-16557
RA	-16558
대기	-16559
력도	-16560
수화	-16561
아와	-16562
양은	-16563
예정	-16564
윤리	-16565
집단	-16566
▁US	-16567
▁감찰	-16568
▁고래	-16569
▁김은	-16570
▁낯설	-16571
▁라면	-16572
▁박찬	-16573
▁부검	-16574
▁부하	-16575
▁안착	-16576
▁외로	-16577
▁웃고	-16578
▁이순	-16579
▁정반	-16580
▁차등	-16581
▁축복	-16582
▁컬렉	-16583
▁팔고	-16584
▁풍성	-16585
업체의	-16586
으려면	-16587
▁가상의	-16588
▁달러로	-16589
▁대화의	-16590
▁도시에	-16591
▁로맨스	-16592
▁맞추는	-16593
▁발의한	-16594
▁보이기	-16595
▁부르고	-16596
▁비영리	-16597
▁생산한	-16598
▁선택의	-16599
▁시행된	-16600
▁아내를	-16601
▁아레나	-16602
▁없었기	-16603
▁여자를	-16604
▁역사는	-16605
▁우선순	-16606
▁위원회	-16607
▁음악의	-16608
▁의장이	-16609
▁전략은	-16610
▁좋지만	-16611
▁찾아서	-16612
▁커지자	-16613
▁태어났	-16614
▁통계를	-16615
▁홍보를	-16616
사업으로	-16617
▁구성된다	-16618
▁사진으로	-16619
▁아니라면	-16620
▁올라가는	-16621
▁유도하는	-16622
▁조성하는	-16623
▁평양에서	-16624
▁경제적으로	-16625
▁오래전부터	-16626
▁이루어지지	-16627
▁중소기업이	-16628
▁산업통상자원부	-16629
동기	-16630
드레	-16631
사장	-16632
속이	-16633
저감	-16634
좋은	-16635
현과	-16636
홍보	-16637
▁갇혀	-16638
▁검정	-16639
▁격리	-16640
▁과열	-16641
▁권유	-16642
▁노원	-16643
▁동래	-16644
▁띄게	-16645
▁만의	-16646
▁무거	-16647
▁비치	-16648
▁빼돌	-16649
▁스포	-16650
▁애를	-16651
▁양심	-16652
▁운명	-16653
▁위를	-16654
▁증여	-16655
▁체내	-16656
▁톡톡	-16657
기업과	-16658
놓았다	-16659
되었기	-16660
모비스	-16661
소득이	-16662
시대에	-16663
▁tvN	-16664
▁경제는	-16665
▁공장이	-16666
▁깨닫게	-16667
▁남성은	-16668
▁다음은	-16669
▁더했다	-16670
▁따라가	-16671
▁만들지	-16672
▁문제점	-16673
▁삼성의	-16674
▁실종된	-16675
▁완성된	-16676
▁욕구를	-16677
▁정의를	-16678
▁조건에	-16679
▁조성된	-16680
▁지수가	-16681
▁지지율	-16682
▁짐작할	-16683
▁추천한	-16684
▁피부가	-16685
▁하나만	-16686
▁환경의	-16687
공원에서	-16688
▁가상현실	-16689
▁날카로운	-16690
▁대우조선	-16691
▁대통령에	-16692
▁떠오르고	-16693
▁부여하는	-16694
▁식당에서	-16695
▁신한금융	-16696
▁아카데미	-16697
▁오리지널	-16698
▁우려하는	-16699
▁원한다면	-16700
▁임진왜란	-16701
▁지도부가	-16702
▁지향하는	-16703
▁트렌드를	-16704
하기보다는	-16705
▁사로잡는다	-16706
▁요청합니다	-16707
:1	-16708
▁씁	-16709
닐라	-16710
마당	-16711
법률	-16712
아니	-16713
에미	-16714
준은	-16715
타당	-16716
팅이	-16717
혈관	-16718
▁of	-16719
▁간과	-16720
▁다크	-16721
▁다투	-16722
▁두뇌	-16723
▁밑에	-16724
▁병이	-16725
▁사임	-16726
▁소나	-16727
▁승려	-16728
▁승소	-16729
▁시흥	-16730
▁원주	-16731
▁의구	-16732
▁재조	-16733
▁팬미	-16734
▁편향	-16735
▁폭탄	-16736
▁환원	-16737
됐는지	-16738
사령부	-16739
업체인	-16740
왔어요	-16741
▁2.5	-16742
▁노래는	-16743
▁동물의	-16744
▁부분도	-16745
▁부분의	-16746
▁비난을	-16747
▁사랑과	-16748
▁성장률	-16749
▁업체인	-16750
▁은행에	-16751
▁정책적	-16752
▁제한을	-16753
▁조사는	-16754
▁초부터	-16755
▁피드백	-16756
▁한유총	-16757
▁해외에	-16758
▁해운대	-16759
▁호평을	-16760
하기까지	-16761
▁극단적인	-16762
▁금융위는	-16763
▁금융투자	-16764
▁되었다는	-16765
▁않았다면	-16766
▁이르렀다	-16767
▁임시정부	-16768
▁자신감이	-16769
▁자유무역	-16770
▁초기에는	-16771
▁포함하여	-16772
▁바르셀로나	-16773
▁보았습니다	-16774
CS	-16775
밸리	-16776
수급	-16777
여겨	-16778
자격	-16779
타의	-16780
▁62	-16781
▁거는	-16782
▁거칠	-16783
▁관건	-16784
▁국빈	-16785
▁눈과	-16786
▁단원	-16787
▁더러	-16788
▁러닝	-16789
▁명은	-16790
▁목에	-16791
▁벽화	-16792
▁비만	-16793
▁선풍	-16794
▁엘지	-16795
▁염기	-16796
▁자선	-16797
▁줄곧	-16798
▁중등	-16799
▁찍을	-16800
▁총을	-16801
▁한지	-16802
▁항만	-16803
공단이	-16804
기보다	-16805
기온이	-16806
▁건설을	-16807
▁과거를	-16808
▁나오자	-16809
▁다주택	-16810
▁대출이	-16811
▁도로가	-16812
▁모두의	-16813
▁미국산	-16814
▁방사선	-16815
▁봤는데	-16816
▁부품을	-16817
▁불안한	-16818
▁살았다	-16819
▁소개한	-16820
▁소통이	-16821
▁신발을	-16822
▁없거나	-16823
▁여론을	-16824
▁입지를	-16825
▁전달해	-16826
▁정치에	-16827
▁힘들게	-16828
드리도록	-16829
▁금지하는	-16830
▁배우들의	-16831
▁사망했다	-16832
▁연방준비	-16833
▁해양수산	-16834
▁일제강점기	-16835
▁최저임금을	-16836
▁모르겠습니다	-16837
77	-16838
MZ	-16839
▁〈	-16840
▁쉐	-16841
시밀	-16842
폐기	-16843
GDP	-16844
▁8,	-16845
▁96	-16846
▁SW	-16847
▁St	-16848
▁UN	-16849
▁곳의	-16850
▁공주	-16851
▁김천	-16852
▁넘나	-16853
▁떼어	-16854
▁반도	-16855
▁분홍	-16856
▁상공	-16857
▁쇼트	-16858
▁쓰면	-16859
▁연체	-16860
▁온천	-16861
▁운이	-16862
▁원본	-16863
▁이따	-16864
▁제자	-16865
▁팔아	-16866
▁폐업	-16867
▁해준	-16868
경제를	-16869
았으나	-16870
업체에	-16871
쪽에서	-16872
활동이	-16873
▁눈여겨	-16874
▁때문인	-16875
▁물체의	-16876
▁밀어붙	-16877
▁발견해	-16878
▁보기에	-16879
▁상승한	-16880
▁색깔이	-16881
▁선언한	-16882
▁시위가	-16883
▁심의를	-16884
▁양측이	-16885
▁없이도	-16886
▁적용을	-16887
▁전통의	-16888
▁차관이	-16889
▁쾌적한	-16890
▁필자는	-16891
▁홈런을	-16892
문화예술	-16893
지역으로	-16894
▁고민하는	-16895
▁단기간에	-16896
▁대안으로	-16897
▁부모님은	-16898
▁설치하는	-16899
▁이상적인	-16900
▁이야기할	-16901
▁저희에게	-16902
▁적절하게	-16903
▁할머니는	-16904
▁국민연금이	-16905
▁생각했어요	-16906
▁보내드리겠습니다	-16907
oc	-16908
▁뿜	-16909
▁콤	-16910
▁헨	-16911
광장	-16912
단위	-16913
리얼	-16914
배나	-16915
서야	-16916
유지	-16917
지휘	-16918
희정	-16919
▁강수	-16920
▁겪을	-16921
▁결함	-16922
▁군데	-16923
▁기밀	-16924
▁길러	-16925
▁높인	-16926
▁달고	-16927
▁로켓	-16928
▁마산	-16929
▁묻어	-16930
▁시신	-16931
▁신작	-16932
▁알릴	-16933
▁역임	-16934
▁예뻐	-16935
▁제보	-16936
▁카메	-16937
▁카슈	-16938
▁피어	-16939
▁학살	-16940
▁합산	-16941
▁후퇴	-16942
기술이	-16943
면에는	-16944
새로운	-16945
연하게	-16946
▁게시판	-16947
▁관객을	-16948
▁그러고	-16949
▁기법을	-16950
▁도로를	-16951
▁물질은	-16952
▁믿음을	-16953
▁방향에	-16954
▁부문의	-16955
▁부부의	-16956
▁불교의	-16957
▁사례도	-16958
▁슈퍼주	-16959
▁온도를	-16960
▁웃으며	-16961
▁재능을	-16962
▁저출산	-16963
▁조선인	-16964
▁증가가	-16965
▁충남도	-16966
▁확보에	-16967
병원에서	-16968
▁개최된다	-16969
▁보호하는	-16970
▁사라지는	-16971
▁연결되는	-16972
▁작용했다	-16973
▁참여하지	-16974
▁포인트를	-16975
▁한자리에	-16976
▁기대해본다	-16977
▁이야기하는	-16978
▁싱가포르에서	-16979
강이	-16980
공무	-16981
관절	-16982
동포	-16983
시경	-16984
위안	-16985
훈은	-16986
▁SM	-16987
▁같고	-16988
▁광장	-16989
▁구석	-16990
▁금전	-16991
▁높기	-16992
▁달간	-16993
▁바둑	-16994
▁변해	-16995
▁상자	-16996
▁생중	-16997
▁아사	-16998
▁연못	-16999
▁재수	-17000
▁주부	-17001
▁집필	-17002
▁쫓아	-17003
▁최정	-17004
▁충성	-17005
메이크	-17006
비서관	-17007
운동의	-17008
지역을	-17009
지원을	-17010
▁ICO	-17011
▁가치에	-17012
▁것들은	-17013
▁넘는다	-17014
▁다이아	-17015
▁보스턴	-17016
▁생명이	-17017
▁속한다	-17018
▁시공간	-17019
▁시도한	-17020
▁작용을	-17021
▁작용한	-17022
▁통화를	-17023
▁판매할	-17024
▁현실과	-17025
▁홍영표	-17026
▁활용될	-17027
▁4000	-17028
▁간편하게	-17029
▁비행기가	-17030
▁선생님은	-17031
▁시작하면	-17032
▁아파트가	-17033
▁인상으로	-17034
▁작품들이	-17035
▁지배하는	-17036
▁지시했다	-17037
▁할아버지	-17038
▁사무실에서	-17039
▁오른쪽으로	-17040
▁전자상거래	-17041
돼서	-17042
모로	-17043
▁고인	-17044
▁급변	-17045
▁삼는	-17046
▁소스	-17047
▁점진	-17048
▁좁아	-17049
▁지킬	-17050
책으로	-17051
▁가격과	-17052
▁관여한	-17053
▁낮추는	-17054
▁달랐다	-17055
▁때에도	-17056
▁몰리는	-17057
▁미친다	-17058
▁민원이	-17059
▁사진에	-17060
▁살았던	-17061
▁선택해	-17062
▁수치를	-17063
▁시급한	-17064
▁시작을	-17065
▁앞에는	-17066
▁어려웠	-17067
▁의의가	-17068
▁자리는	-17069
▁자연을	-17070
▁제작에	-17071
▁주문할	-17072
▁치료에	-17073
▁풍성한	-17074
업체들이	-17075
▁경상남도	-17076
▁궁금증이	-17077
▁기억하고	-17078
▁넘어섰다	-17079
▁대응하기	-17080
▁대중음악	-17081
▁따뜻하게	-17082
▁말입니다	-17083
▁시행하고	-17084
▁싶은데요	-17085
▁응답자의	-17086
▁하나님께	-17087
▁확정됐다	-17088
▁효율성을	-17089
▁국제사회의	-17090
▁궁극적으로	-17091
▁그렇습니다	-17092
▁만들어진다	-17093
▁베트남에서	-17094
▁삼성전자의	-17095
▁시민들에게	-17096
3,	-17097
88	-17098
란한	-17099
보게	-17100
스쿨	-17101
신탁	-17102
에다	-17103
와서	-17104
은혜	-17105
커가	-17106
하든	-17107
▁AS	-17108
▁고작	-17109
▁끼고	-17110
▁넣을	-17111
▁들러	-17112
▁렌즈	-17113
▁모욕	-17114
▁미소	-17115
▁산학	-17116
▁상식	-17117
▁실린	-17118
▁얇은	-17119
▁연소	-17120
▁입술	-17121
▁있나	-17122
▁줘서	-17123
▁진한	-17124
▁청정	-17125
▁초창	-17126
▁표방	-17127
▁하에	-17128
▁행태	-17129
▁회귀	-17130
학교를	-17131
▁강경화	-17132
▁강서구	-17133
▁경험은	-17134
▁고려대	-17135
▁과학의	-17136
▁그곳은	-17137
▁기기를	-17138
▁명단에	-17139
▁명백한	-17140
▁사법부	-17141
▁산불이	-17142
▁상원의	-17143
▁생각과	-17144
▁승부를	-17145
▁여력이	-17146
▁인물로	-17147
▁자료는	-17148
▁전반을	-17149
▁조치로	-17150
▁지원한	-17151
▁직장을	-17152
▁질서를	-17153
▁차이로	-17154
▁테크놀	-17155
▁확산을	-17156
▁환경과	-17157
▁개최하고	-17158
▁고객들의	-17159
▁기대하는	-17160
▁맨체스터	-17161
▁불법촬영	-17162
▁서로에게	-17163
▁압도적인	-17164
▁자아냈다	-17165
▁정신질환	-17166
▁평가하고	-17167
▁부장판사는	-17168
!"	-17169
].	-17170
농도	-17171
박을	-17172
방법	-17173
사도	-17174
시안	-17175
옷을	-17176
즈음	-17177
▁가다	-17178
▁갔을	-17179
▁공작	-17180
▁군대	-17181
▁군인	-17182
▁납득	-17183
▁내며	-17184
▁다친	-17185
▁레슬	-17186
▁맞다	-17187
▁분수	-17188
▁불쌍	-17189
▁뿌듯	-17190
▁사격	-17191
▁수료	-17192
▁신사	-17193
▁심야	-17194
▁앉은	-17195
▁앤의	-17196
▁영문	-17197
▁조상	-17198
▁출자	-17199
▁파기	-17200
문제가	-17201
베트남	-17202
병원이	-17203
았으면	-17204
평가를	-17205
하다면	-17206
▁경제학	-17207
▁고혈압	-17208
▁관점을	-17209
▁교육청	-17210
▁극복할	-17211
▁김병준	-17212
▁도전을	-17213
▁됩니까	-17214
▁두바이	-17215
▁메뉴가	-17216
▁모임을	-17217
▁무릎을	-17218
▁발전할	-17219
▁브레이	-17220
▁사안에	-17221
▁사이가	-17222
▁소개할	-17223
▁싶었던	-17224
▁아들은	-17225
▁알아서	-17226
▁완화를	-17227
▁운전을	-17228
▁이곳의	-17229
▁이름의	-17230
▁인정할	-17231
▁정상의	-17232
▁학교로	-17233
▁행사의	-17234
▁활동과	-17235
아일랜드	-17236
▁1930	-17237
▁기념촬영	-17238
▁기점으로	-17239
▁긴장감을	-17240
▁도착하면	-17241
▁성장세를	-17242
▁소비자를	-17243
▁여기저기	-17244
▁외부에서	-17245
▁펼쳐지는	-17246
▁평가된다	-17247
▁헬스케어	-17248
▁미국에서는	-17249
4%	-17250
▁뽀	-17251
급식	-17252
꺼이	-17253
버넌	-17254
오른	-17255
임에	-17256
제이	-17257
척이	-17258
홈런	-17259
(11	-17260
ter	-17261
▁3%	-17262
▁갖다	-17263
▁단연	-17264
▁달할	-17265
▁레벨	-17266
▁묻고	-17267
▁받던	-17268
▁발이	-17269
▁밤새	-17270
▁부자	-17271
▁브뤼	-17272
▁사귀	-17273
▁소독	-17274
▁실재	-17275
▁연꽃	-17276
▁유물	-17277
▁유재	-17278
▁전진	-17279
▁지친	-17280
▁집주	-17281
▁창설	-17282
▁헬기	-17283
▁현존	-17284
대한민	-17285
드린다	-17286
지수가	-17287
8000	-17288
▁결합해	-17289
▁경영권	-17290
▁과목을	-17291
▁김대중	-17292
▁다르기	-17293
▁대사관	-17294
▁문구가	-17295
▁믿음이	-17296
▁본다면	-17297
▁불리한	-17298
▁수치가	-17299
▁않고도	-17300
▁엄마의	-17301
▁이슈를	-17302
▁장애가	-17303
▁좋아할	-17304
▁진지한	-17305
▁초래할	-17306
▁피해는	-17307
▁핵시설	-17308
▁구성하고	-17309
▁논의하는	-17310
▁대표팀은	-17311
▁모아지고	-17312
▁방지하기	-17313
▁아름답게	-17314
▁연말까지	-17315
▁영수증을	-17316
▁예전에는	-17317
▁오늘날의	-17318
▁인물이다	-17319
▁치명적인	-17320
▁한국인이	-17321
▁한진그룹	-17322
▁국무장관이	-17323
▁바이오시밀	-17324
▁주었습니다	-17325
▁월스트리트저널	-17326
▁퀸	-17327
돼지	-17328
세서	-17329
소유	-17330
아직	-17331
조달	-17332
충전	-17333
▁89	-17334
▁고찰	-17335
▁도울	-17336
▁랜드	-17337
▁만인	-17338
▁바를	-17339
▁밤을	-17340
▁부시	-17341
▁비고	-17342
▁습관	-17343
▁승강	-17344
▁얻지	-17345
▁우대	-17346
▁일한	-17347
▁자란	-17348
▁전이	-17349
▁조약	-17350
▁지극	-17351
▁책상	-17352
▁카라	-17353
▁타면	-17354
▁테슬	-17355
▁해병	-17356
▁해온	-17357
동으로	-17358
린다는	-17359
민주화	-17360
센터의	-17361
.5%)	-17362
▁결정은	-17363
▁달리는	-17364
▁대사가	-17365
▁도입해	-17366
▁매장에	-17367
▁먹어도	-17368
▁반려동	-17369
▁방식과	-17370
▁보편적	-17371
▁부통령	-17372
▁빠지는	-17373
▁빨간색	-17374
▁선거제	-17375
▁수년간	-17376
▁스태프	-17377
▁애플이	-17378
▁언어의	-17379
▁요청에	-17380
▁음악은	-17381
▁자원이	-17382
▁정교한	-17383
▁처벌이	-17384
▁축구를	-17385
▁평가는	-17386
▁근처에서	-17387
▁기울이고	-17388
▁꼬집었다	-17389
▁돌아갔다	-17390
▁러시아와	-17391
▁멤버들의	-17392
▁부인했다	-17393
▁소개한다	-17394
▁소비자는	-17395
▁수익성이	-17396
▁신중하게	-17397
▁인지도가	-17398
▁잇따르고	-17399
▁작동하지	-17400
▁지속되는	-17401
▁참여하여	-17402
▁체크아웃	-17403
특별위원회	-17404
▁시작했어요	-17405
▁원칙적으로	-17406
▁이산화탄소	-17407
▁존재한다는	-17408
▁프로젝트의	-17409
▁피해자들이	-17410
▁현지인들이	-17411
▁i	-17412
▁램	-17413
▁룰	-17414
나도	-17415
맛이	-17416
블리	-17417
비시	-17418
압의	-17419
어떤	-17420
용량	-17421
치다	-17422
테르	-17423
투스	-17424
폭을	-17425
표는	-17426
플랜	-17427
▁7,	-17428
▁곁에	-17429
▁계단	-17430
▁구워	-17431
▁그릴	-17432
▁바나	-17433
▁박해	-17434
▁법에	-17435
▁선착	-17436
▁아산	-17437
▁암흑	-17438
▁오게	-17439
▁워킹	-17440
▁접한	-17441
▁지체	-17442
▁힘의	-17443
공학과	-17444
군에서	-17445
라이프	-17446
버스터	-17447
점검을	-17448
진다는	-17449
▁170	-17450
▁갔다가	-17451
▁건강과	-17452
▁공기를	-17453
▁권리가	-17454
▁기꺼이	-17455
▁기승을	-17456
▁대하는	-17457
▁들어설	-17458
▁뛰어들	-17459
▁마크롱	-17460
▁연결이	-17461
▁옮기는	-17462
▁일들을	-17463
▁자녀의	-17464
▁제도는	-17465
▁지역인	-17466
▁진출에	-17467
▁총장은	-17468
▁추진을	-17469
▁출발해	-17470
▁투자와	-17471
▁튀어나	-17472
▁해준다	-17473
▁형식이	-17474
▁효과도	-17475
되었으나	-17476
▁그리하여	-17477
▁자연스레	-17478
▁저렴하게	-17479
▁주변에는	-17480
▁하는데요	-17481
▁하드웨어	-17482
▁활동으로	-17483
▁괜찮습니다	-17484
▁사람이에요	-17485
▁한국에서도	-17486
▁현대모비스	-17487
BI	-17488
갈등	-17489
국악	-17490
대강	-17491
대원	-17492
린을	-17493
믹스	-17494
상가	-17495
선물	-17496
선택	-17497
역량	-17498
열에	-17499
조절	-17500
통에	-17501
▁86	-17502
▁감탄	-17503
▁거둘	-17504
▁걷어	-17505
▁경총	-17506
▁공백	-17507
▁공예	-17508
▁공조	-17509
▁김장	-17510
▁낳은	-17511
▁노골	-17512
▁따르	-17513
▁불로	-17514
▁섞여	-17515
▁열애	-17516
▁잃게	-17517
▁전속	-17518
▁죄를	-17519
▁주총	-17520
▁지탱	-17521
▁키운	-17522
▁태워	-17523
▁푸드	-17524
▁힘은	-17525
경제적	-17526
과대학	-17527
놀이를	-17528
신청을	-17529
왔지만	-17530
화했다	-17531
▁대학은	-17532
▁도구로	-17533
▁도시는	-17534
▁무대로	-17535
▁방법도	-17536
▁사유를	-17537
▁세대를	-17538
▁속하는	-17539
▁수출을	-17540
▁스님은	-17541
▁승무원	-17542
▁시카고	-17543
▁앨범을	-17544
▁예술을	-17545
▁오해를	-17546
▁용어를	-17547
▁적용이	-17548
▁제안이	-17549
▁지나는	-17550
▁지식의	-17551
▁충격이	-17552
▁특성화	-17553
▁한국식	-17554
됨으로써	-17555
▁OECD	-17556
▁공격적인	-17557
▁교사들이	-17558
▁기록적인	-17559
▁누구에게	-17560
▁대체복무	-17561
▁생각하기	-17562
▁이미지와	-17563
▁이사장이	-17564
▁스마트시티	-17565
▁&	-17566
▁덥	-17567
고교	-17568
국립	-17569
내외	-17570
련을	-17571
인드	-17572
일자	-17573
지급	-17574
직에	-17575
째를	-17576
행복	-17577
▁가닥	-17578
▁고리	-17579
▁급히	-17580
▁미미	-17581
▁버전	-17582
▁자생	-17583
▁작전	-17584
▁절약	-17585
▁채소	-17586
▁카톡	-17587
▁편견	-17588
문이다	-17589
북한이	-17590
인프라	-17591
자들도	-17592
프라이	-17593
하이머	-17594
▁개입한	-17595
▁김관영	-17596
▁남자를	-17597
▁노사가	-17598
▁누리꾼	-17599
▁마라톤	-17600
▁모양이	-17601
▁못해요	-17602
▁보내지	-17603
▁비정상	-17604
▁사업비	-17605
▁생겨서	-17606
▁셀트리	-17607
▁역량이	-17608
▁이론적	-17609
▁인물을	-17610
▁인플루	-17611
▁자유로	-17612
▁적발된	-17613
▁접수된	-17614
▁조사해	-17615
▁즐거워	-17616
▁취업을	-17617
▁친절한	-17618
▁코드를	-17619
▁탄력을	-17620
▁희망이	-17621
중소기업	-17622
하자마자	-17623
▁계획하고	-17624
▁그로부터	-17625
▁다양하다	-17626
▁리스트를	-17627
▁미래에셋	-17628
▁받으면서	-17629
▁보이면서	-17630
▁시행하는	-17631
▁신청했다	-17632
▁의원들은	-17633
▁있는데요	-17634
▁조선시대	-17635
▁주의해야	-17636
▁털어놨다	-17637
▁환자들이	-17638
▁환자에게	-17639
▁삼성전자와	-17640
▁소득주도성장	-17641
49	-17642
ag	-17643
▁뱃	-17644
▁셜	-17645
너가	-17646
드림	-17647
망과	-17648
맥을	-17649
섬유	-17650
완전	-17651
왔고	-17652
왕은	-17653
은이	-17654
졌어	-17655
클리	-17656
토지	-17657
트워	-17658
▁AR	-17659
▁과천	-17660
▁관악	-17661
▁그늘	-17662
▁몰린	-17663
▁본토	-17664
▁상점	-17665
▁악취	-17666
▁앞의	-17667
▁입수	-17668
▁적폐	-17669
▁정동	-17670
▁제네	-17671
▁종속	-17672
▁죽어	-17673
▁쥐고	-17674
▁치우	-17675
▁쿠바	-17676
▁클린	-17677
▁풍요	-17678
▁하원	-17679
▁횡단	-17680
권으로	-17681
금리가	-17682
더라면	-17683
버렸다	-17684
은행과	-17685
자라는	-17686
플랫폼	-17687
하였던	-17688
-201	-17689
▁각별한	-17690
▁개최를	-17691
▁갤러리	-17692
▁거쳐야	-17693
▁공개돼	-17694
▁구글이	-17695
▁기숙사	-17696
▁나무가	-17697
▁담당자	-17698
▁대안이	-17699
▁라운드	-17700
▁복수의	-17701
▁서울이	-17702
▁선거가	-17703
▁양자역	-17704
▁연구와	-17705
▁영수증	-17706
▁외국어	-17707
▁운영이	-17708
▁이란의	-17709
▁일정은	-17710
▁저질렀	-17711
▁전해져	-17712
▁조양호	-17713
▁조정이	-17714
▁출석해	-17715
▁해법을	-17716
▁회사로	-17717
▁감소하고	-17718
▁원활하게	-17719
▁유발하는	-17720
▁이용자의	-17721
▁인프라가	-17722
▁핵심적인	-17723
▁블라디미르	-17724
▁팁	-17725
▁훗	-17726
계로	-17727
담이	-17728
더러	-17729
모는	-17730
우로	-17731
월이	-17732
으론	-17733
이러	-17734
있게	-17735
혁이	-17736
▁1/	-17737
▁간직	-17738
▁깜빡	-17739
▁논술	-17740
▁뒤덮	-17741
▁멸종	-17742
▁발족	-17743
▁분단	-17744
▁상설	-17745
▁상쇄	-17746
▁섰다	-17747
▁수성	-17748
▁에버	-17749
▁인위	-17750
▁읽기	-17751
▁자재	-17752
▁지낼	-17753
▁진해	-17754
▁진흥	-17755
▁키즈	-17756
▁활짝	-17757
간다는	-17758
더불어	-17759
성이나	-17760
지지만	-17761
행위가	-17762
▁360	-17763
▁3·4	-17764
▁같지만	-17765
▁경사노	-17766
▁과감한	-17767
▁관객의	-17768
▁구조의	-17769
▁국공립	-17770
▁기능성	-17771
▁기분을	-17772
▁냉장고	-17773
▁다음주	-17774
▁대응에	-17775
▁때문일	-17776
▁면모를	-17777
▁변경을	-17778
▁별개로	-17779
▁부진이	-17780
▁비롯된	-17781
▁수량을	-17782
▁수익성	-17783
▁숫자를	-17784
▁슬라이	-17785
▁시신이	-17786
▁알아볼	-17787
▁역으로	-17788
▁원자가	-17789
▁의미와	-17790
▁자격증	-17791
▁정상에	-17792
▁제한된	-17793
▁지닌다	-17794
▁지정한	-17795
▁초대형	-17796
▁촬영이	-17797
▁탄생한	-17798
▁터미널	-17799
▁1986	-17800
▁가정에서	-17801
▁구축하고	-17802
▁노동시간	-17803
▁마련해야	-17804
▁무관하게	-17805
▁발견되지	-17806
▁쓰레기를	-17807
▁위치하고	-17808
▁이전에는	-17809
▁재판에서	-17810
▁주목하는	-17811
▁증거인멸	-17812
▁지지율이	-17813
▁지켜보는	-17814
▁충분하지	-17815
▁포착됐다	-17816
▁행정부의	-17817
▁허용하는	-17818
▁활성화에	-17819
▁인터넷에서	-17820
2’	-17821
PR	-17822
ov	-17823
노스	-17824
단다	-17825
딩을	-17826
비상	-17827
비전	-17828
츠는	-17829
터널	-17830
(17	-17831
▁In	-17832
▁견줘	-17833
▁겸손	-17834
▁광산	-17835
▁극중	-17836
▁급감	-17837
▁김도	-17838
▁낙찰	-17839
▁농산	-17840
▁눈부	-17841
▁대세	-17842
▁마비	-17843
▁망설	-17844
▁설렘	-17845
▁쇠퇴	-17846
▁스님	-17847
▁에듀	-17848
▁에드	-17849
▁옳은	-17850
▁직관	-17851
▁축산	-17852
▁탐지	-17853
▁파생	-17854
상황을	-17855
해보고	-17856
해주신	-17857
7000	-17858
▁간호사	-17859
▁기록은	-17860
▁들어요	-17861
▁라오스	-17862
▁라이선	-17863
▁레이더	-17864
▁머물러	-17865
▁무너뜨	-17866
▁변경이	-17867
▁부적절	-17868
▁비밀을	-17869
▁생산과	-17870
▁성향의	-17871
▁압력이	-17872
▁업체와	-17873
▁엘리트	-17874
▁여행은	-17875
▁자이언	-17876
▁전주시	-17877
▁졸업생	-17878
▁지적에	-17879
▁추세를	-17880
▁충돌이	-17881
▁파악해	-17882
▁펼친다	-17883
▁표했다	-17884
▁필요에	-17885
▁활약이	-17886
담보대출	-17887
현장에서	-17888
▁OLED	-17889
▁가계부채	-17890
▁경쟁률을	-17891
▁고양이를	-17892
▁근로자가	-17893
▁금융기관	-17894
▁나서면서	-17895
▁내에서도	-17896
▁드라마에	-17897
▁비슷하게	-17898
▁사랑하고	-17899
▁석유화학	-17900
▁유전자가	-17901
▁주장하며	-17902
▁지나가는	-17903
▁클러스터	-17904
▁플랫폼이	-17905
▁후보자는	-17906
▁바람직하다	-17907
▁인터넷으로	-17908
▁참가자들은	-17909
▁청와대에서	-17910
▁국토교통부가	-17911
▁국토교통부는	-17912
YT	-17913
글라	-17914
마블	-17915
모의	-17916
상환	-17917
석희	-17918
처의	-17919
카가	-17920
커스	-17921
키가	-17922
표에	-17923
▁가꾸	-17924
▁걷기	-17925
▁구비	-17926
▁구원	-17927
▁금연	-17928
▁링크	-17929
▁무궁	-17930
▁벽을	-17931
▁사촌	-17932
▁사형	-17933
▁새만	-17934
▁소문	-17935
▁인격	-17936
▁자정	-17937
▁전한	-17938
▁정차	-17939
▁좁혀	-17940
▁중장	-17941
▁짧아	-17942
▁총회	-17943
▁컨셉	-17944
▁호전	-17945
▁흑인	-17946
검사를	-17947
공동체	-17948
년에도	-17949
봤는데	-17950
센터와	-17951
시장과	-17952
인가를	-17953
차이나	-17954
판으로	-17955
학교가	-17956
.7%)	-17957
▁0.1	-17958
▁결제를	-17959
▁구조와	-17960
▁남녀노	-17961
▁동력을	-17962
▁등록을	-17963
▁설립을	-17964
▁숙제를	-17965
▁원자로	-17966
▁음식과	-17967
▁전문의	-17968
▁전한다	-17969
▁정서적	-17970
▁증가해	-17971
▁지역별	-17972
▁품질을	-17973
▁품질이	-17974
들입니다	-17975
상공회의	-17976
▁국가들이	-17977
▁국제적인	-17978
▁문제점이	-17979
▁받았는데	-17980
▁변동성이	-17981
▁보장하는	-17982
▁아랍에미	-17983
▁영역으로	-17984
▁인식하는	-17985
▁인정받아	-17986
▁중시하는	-17987
▁지금보다	-17988
▁지식재산	-17989
▁퍼포먼스	-17990
▁하나금융	-17991
▁지속가능한	-17992
AA	-17993
OT	-17994
과를	-17995
무용	-17996
보상	-17997
분해	-17998
시절	-17999
저축	-18000
종에	-18001
품질	-18002
프랑	-18003
▁고르	-18004
▁곰팡	-18005
▁다듬	-18006
▁불쾌	-18007
▁사외	-18008
▁스릴	-18009
▁시야	-18010
▁야근	-18011
▁이통	-18012
▁임산	-18013
▁조류	-18014
▁증인	-18015
▁쫓겨	-18016
▁판교	-18017
▁판타	-18018
▁행운	-18019
되므로	-18020
되어서	-18021
박근혜	-18022
버스가	-18023
시키면	-18024
일에도	-18025
정부와	-18026
집으로	-18027
▁가는데	-18028
▁감소가	-18029
▁개선할	-18030
▁것이나	-18031
▁겨울에	-18032
▁경북도	-18033
▁그녀와	-18034
▁마두로	-18035
▁매장이	-18036
▁명성을	-18037
▁사라질	-18038
▁사랑은	-18039
▁생산된	-18040
▁수백만	-18041
▁시험에	-18042
▁신뢰할	-18043
▁아기가	-18044
▁이루기	-18045
▁자유와	-18046
▁작성해	-18047
▁장자연	-18048
▁현실의	-18049
▁확대로	-18050
▁부당하게	-18051
▁사무실을	-18052
▁생각이다	-18053
▁아마추어	-18054
▁오르면서	-18055
▁일정으로	-18056
▁있었다면	-18057
▁카메라가	-18058
▁대부분이다	-18059
HD	-18060
um	-18061
▁딥	-18062
걸음	-18063
면세	-18064
앤젤	-18065
오면	-18066
츠가	-18067
침이	-18068
컴퍼	-18069
특례	-18070
▁고문	-18071
▁구역	-18072
▁날에	-18073
▁넓게	-18074
▁리튬	-18075
▁마중	-18076
▁북방	-18077
▁분주	-18078
▁비단	-18079
▁서는	-18080
▁워터	-18081
▁이력	-18082
▁이준	-18083
▁홍수	-18084
▁화산	-18085
림으로	-18086
상태에	-18087
왔다는	-18088
쳤다고	-18089
학교에	-18090
▁가슴에	-18091
▁감소로	-18092
▁계약서	-18093
▁관심도	-18094
▁국가적	-18095
▁기도를	-18096
▁기자는	-18097
▁긴밀한	-18098
▁단점이	-18099
▁방사능	-18100
▁보도한	-18101
▁분석할	-18102
▁사업과	-18103
▁설치돼	-18104
▁성과에	-18105
▁성향이	-18106
▁세월이	-18107
▁소나무	-18108
▁소비를	-18109
▁스테이	-18110
▁싶지만	-18111
▁안내해	-18112
▁유나이	-18113
▁임무를	-18114
▁자동화	-18115
▁자사고	-18116
▁자신은	-18117
▁전자는	-18118
▁전쟁의	-18119
▁중남미	-18120
▁중심을	-18121
▁철학적	-18122
▁체결한	-18123
▁카리스	-18124
▁한숨을	-18125
이라고도	-18126
▁1993	-18127
▁불이익을	-18128
▁않겠다고	-18129
▁알루미늄	-18130
▁여성가족	-18131
▁자동차가	-18132
▁파악하기	-18133
▁필요하고	-18134
▁한국당은	-18135
▁형성하는	-18136
▁상황이었다	-18137
▁최저임금이	-18138
▁퍼포먼스를	-18139
-4	-18140
NC	-18141
TM	-18142
▁툴	-18143
도르	-18144
래를	-18145
로와	-18146
맞춤	-18147
보와	-18148
분배	-18149
전담	-18150
조약	-18151
증후	-18152
지향	-18153
파에	-18154
혜원	-18155
▁87	-18156
▁LH	-18157
▁가마	-18158
▁가이	-18159
▁계류	-18160
▁광명	-18161
▁근원	-18162
▁깨고	-18163
▁내구	-18164
▁넘긴	-18165
▁다변	-18166
▁대부	-18167
▁때다	-18168
▁매립	-18169
▁믿음	-18170
▁백인	-18171
▁불빛	-18172
▁뿌려	-18173
▁수화	-18174
▁승점	-18175
▁신원	-18176
▁신학	-18177
▁은하	-18178
▁촉촉	-18179
▁추경	-18180
▁클로	-18181
▁한결	-18182
▁허무	-18183
수요가	-18184
을수록	-18185
하기만	-18186
▁FTA	-18187
▁LNG	-18188
▁그러다	-18189
▁금품을	-18190
▁김치를	-18191
▁끝내고	-18192
▁다시금	-18193
▁마련에	-18194
▁마련이	-18195
▁모형을	-18196
▁미세한	-18197
▁보이게	-18198
▁손잡고	-18199
▁스캔들	-18200
▁신재생	-18201
▁쓰러져	-18202
▁안정된	-18203
▁언론사	-18204
▁언론을	-18205
▁우라늄	-18206
▁있기는	-18207
▁자신도	-18208
▁재구성	-18209
▁전면에	-18210
▁진출할	-18211
▁카타르	-18212
▁투자할	-18213
▁특허를	-18214
▁현지의	-18215
산업단지	-18216
▁개최하는	-18217
▁되었으면	-18218
▁들어가지	-18219
▁뛰어넘는	-18220
▁방문하고	-18221
▁방송통신	-18222
▁슈퍼마켓	-18223
▁제출받은	-18224
▁콘텐츠에	-18225
▁통화에서	-18226
▁국무총리가	-18227
▁보건복지부	-18228
▁하였습니다	-18229
ie	-18230
ob	-18231
▁꿇	-18232
▁썰	-18233
▁켈	-18234
▁큽	-18235
강도	-18236
강화	-18237
과에	-18238
네가	-18239
노인	-18240
돼요	-18241
백화	-18242
영사	-18243
의학	-18244
제철	-18245
청와	-18246
코노	-18247
퀘어	-18248
▁강타	-18249
▁공청	-18250
▁반송	-18251
▁보잉	-18252
▁새우	-18253
▁속해	-18254
▁수량	-18255
▁숙련	-18256
▁애매	-18257
▁여덟	-18258
▁여쭤	-18259
▁웃는	-18260
▁유머	-18261
▁이화	-18262
▁재선	-18263
▁전월	-18264
▁지인	-18265
▁청렴	-18266
▁칼로	-18267
▁필터	-18268
▁한시	-18269
▁훈훈	-18270
그래서	-18271
노동자	-18272
니까요	-18273
사진을	-18274
업체를	-18275
직으로	-18276
킵니다	-18277
터에서	-18278
▁게임에	-18279
▁극적인	-18280
▁기능과	-18281
▁기반한	-18282
▁넘었다	-18283
▁노력과	-18284
▁늦어도	-18285
▁다녀온	-18286
▁던졌다	-18287
▁독립을	-18288
▁되어있	-18289
▁면밀히	-18290
▁모였다	-18291
▁시간대	-18292
▁여당이	-18293
▁오늘이	-18294
▁완료된	-18295
▁원칙에	-18296
▁위반한	-18297
▁이뤘다	-18298
▁인상과	-18299
▁입자의	-18300
▁자발적	-18301
▁조치에	-18302
▁조항이	-18303
▁참가자	-18304
▁창출을	-18305
▁케이크	-18306
▁타이거	-18307
▁학교와	-18308
▁향하고	-18309
▁향했다	-18310
▁혁신이	-18311
광장에서	-18312
총연합회	-18313
▁1989	-18314
▁개선하는	-18315
▁기쁩니다	-18316
▁너무나도	-18317
▁보편적인	-18318
▁안전사고	-18319
▁여기서는	-18320
▁컨소시엄	-18321
▁한국영화	-18322
▁해소하기	-18323
▁갑작스러운	-18324
4,	-18325
TX	-18326
if	-18327
▁젓	-18328
▁홋	-18329
내륙	-18330
방과	-18331
본명	-18332
언더	-18333
오니	-18334
유출	-18335
지하	-18336
토가	-18337
티노	-18338
파인	-18339
▁개원	-18340
▁권역	-18341
▁기가	-18342
▁나뉜	-18343
▁디젤	-18344
▁봉쇄	-18345
▁에르	-18346
▁일컫	-18347
▁잘생	-18348
▁장내	-18349
▁재외	-18350
▁쟁점	-18351
▁종부	-18352
▁첨예	-18353
▁친일	-18354
▁트윈	-18355
▁훗날	-18356
되나요	-18357
성이다	-18358
처에서	-18359
▁걸리지	-18360
▁검증된	-18361
▁구조다	-18362
▁구축해	-18363
▁다르고	-18364
▁데려다	-18365
▁명단을	-18366
▁상대를	-18367
▁식당이	-18368
▁싸움을	-18369
▁업무상	-18370
▁여성과	-18371
▁연관이	-18372
▁옆으로	-18373
▁원자핵	-18374
▁자세로	-18375
▁전남도	-18376
▁주위에	-18377
▁지갑을	-18378
▁집단의	-18379
▁출전한	-18380
▁하원의	-18381
▁해보고	-18382
임대주택	-18383
▁1920	-18384
▁가능했다	-18385
▁거리에서	-18386
▁것입니까	-18387
▁대중에게	-18388
▁생생하게	-18389
▁서울경제	-18390
▁정부서울	-18391
▁주한미군	-18392
▁토로했다	-18393
▁하겠다고	-18394
▁사이에서는	-18395
▁n	-18396
니와	-18397
대리	-18398
방학	-18399
병의	-18400
분별	-18401
사리	-18402
위해	-18403
주거	-18404
포스	-18405
혜택	-18406
▁개소	-18407
▁겪어	-18408
▁결핍	-18409
▁넘을	-18410
▁대동	-18411
▁마디	-18412
▁면을	-18413
▁목을	-18414
▁문희	-18415
▁묻자	-18416
▁바랄	-18417
▁부흥	-18418
▁브루	-18419
▁설사	-18420
▁심심	-18421
▁진도	-18422
▁질량	-18423
▁파울	-18424
만명에	-18425
산업을	-18426
회사인	-18427
▁가리지	-18428
▁검증을	-18429
▁공소시	-18430
▁남았다	-18431
▁노력은	-18432
▁미적분	-18433
▁부인은	-18434
▁사회로	-18435
▁수단을	-18436
▁언어가	-18437
▁업계에	-18438
▁여행이	-18439
▁오디언	-18440
▁전달한	-18441
▁절반이	-18442
▁접근을	-18443
▁정당이	-18444
▁정해져	-18445
▁조항을	-18446
▁진전을	-18447
▁큽니다	-18448
▁풍경이	-18449
▁2025	-18450
▁경제적인	-18451
▁기술개발	-18452
▁못지않게	-18453
▁무시하고	-18454
▁스타벅스	-18455
▁시작하고	-18456
▁좋아해서	-18457
▁직권남용	-18458
▁충청남도	-18459
▁피해자를	-18460
▁다큐멘터리	-18461
▁브리핑에서	-18462
▁알고리즘은	-18463
▁촘	-18464
나지	-18465
녀는	-18466
대장	-18467
시길	-18468
업소	-18469
완화	-18470
익이	-18471
지나	-18472
창조	-18473
코가	-18474
회초	-18475
▁강해	-18476
▁과반	-18477
▁다할	-18478
▁때나	-18479
▁마포	-18480
▁맥도	-18481
▁밸런	-18482
▁북구	-18483
▁생략	-18484
▁승격	-18485
▁엉뚱	-18486
▁창문	-18487
▁청각	-18488
▁침몰	-18489
▁팀원	-18490
▁피력	-18491
▁후쿠	-18492
▁흡입	-18493
그동안	-18494
날로그	-18495
래프트	-18496
지사는	-18497
회사로	-18498
회사를	-18499
▁CBS	-18500
▁강도가	-18501
▁검토를	-18502
▁검토해	-18503
▁내놓는	-18504
▁도입이	-18505
▁말해서	-18506
▁문화는	-18507
▁반려견	-18508
▁방법과	-18509
▁보여요	-18510
▁부르며	-18511
▁사고의	-18512
▁사안을	-18513
▁이틀간	-18514
▁이해와	-18515
▁인물의	-18516
▁인접한	-18517
▁인체에	-18518
▁입자가	-18519
▁정치인	-18520
▁제도의	-18521
▁증가와	-18522
▁참고로	-18523
▁체계가	-18524
▁출발한	-18525
▁크기는	-18526
▁통증을	-18527
▁판사는	-18528
▁폭넓은	-18529
▁해석할	-18530
▁호텔을	-18531
▁권고했다	-18532
▁기본으로	-18533
▁담당자가	-18534
▁상황으로	-18535
▁솔루션을	-18536
▁않았으면	-18537
▁움직이지	-18538
▁재판부가	-18539
▁제공되는	-18540
▁조사하는	-18541
▁진술했다	-18542
▁참석한다	-18543
▁경기장에서	-18544
59	-18545
▁삐	-18546
▁숏	-18547
▁푼	-18548
가정	-18549
내용	-18550
련이	-18551
렸어	-18552
아주	-18553
욱이	-18554
음료	-18555
헤란	-18556
▁“1	-18557
▁경신	-18558
▁구해	-18559
▁기적	-18560
▁난이	-18561
▁두지	-18562
▁만다	-18563
▁버섯	-18564
▁부평	-18565
▁불균	-18566
▁섞인	-18567
▁수목	-18568
▁스쿨	-18569
▁않던	-18570
▁위함	-18571
▁착안	-18572
▁충당	-18573
▁치안	-18574
▁카피	-18575
▁컴백	-18576
▁필립	-18577
▁환기	-18578
들이는	-18579
수수료	-18580
▁개발할	-18581
▁검토한	-18582
▁결혼식	-18583
▁공사는	-18584
▁관계의	-18585
▁노력에	-18586
▁논쟁이	-18587
▁뉴스가	-18588
▁등장인	-18589
▁로봇이	-18590
▁못했을	-18591
▁문의가	-18592
▁새벽에	-18593
▁생일을	-18594
▁설치할	-18595
▁시대적	-18596
▁신호가	-18597
▁양식을	-18598
▁없었어	-18599
▁여론의	-18600
▁여배우	-18601
▁외부의	-18602
▁우울증	-18603
▁인문학	-18604
▁자극을	-18605
▁진행이	-18606
▁차원이	-18607
▁효과에	-18608
▁힘들고	-18609
되더라도	-18610
위원장과	-18611
▁가수들이	-18612
▁강조하며	-18613
▁다이아몬	-18614
▁도움으로	-18615
▁독자적인	-18616
▁많았지만	-18617
▁부합하는	-18618
▁브랜드로	-18619
▁설치되어	-18620
▁없었다면	-18621
▁온실가스	-18622
▁있으시면	-18623
▁주문하고	-18624
▁패러다임	-18625
▁한반도에	-18626
▁현상이다	-18627
▁가이드라인	-18628
▁경제부총리	-18629
▁식품의약품	-18630
63	-18631
86	-18632
▁락	-18633
▁샷	-18634
▁짠	-18635
놓는	-18636
로우	-18637
마르	-18638
상인	-18639
소매	-18640
위치	-18641
전드	-18642
지상	-18643
판사	-18644
·27	-18645
▁거제	-18646
▁구도	-18647
▁딸기	-18648
▁론칭	-18649
▁말미	-18650
▁매칭	-18651
▁문체	-18652
▁사다	-18653
▁소용	-18654
▁소주	-18655
▁수호	-18656
▁어마	-18657
[...]
