<unk>	0
<s>	0
</s>	0
▁t	-0
he	-1
▁a	-2
in	-3
▁the	-4
re	-5
on	-6
▁s	-7
er	-8
▁w	-9
at	-10
▁o	-11
en	-12
▁c	-13
an	-14
is	-15
it	-16
ed	-17
▁p	-18
or	-19
▁b	-20
▁f	-21
es	-22
ing	-23
▁of	-24
▁an	-25
▁in	-26
al	-27
ou	-28
ar	-29
▁m	-30
▁to	-31
ion	-32
ic	-33
▁and	-34
▁d	-35
as	-36
▁th	-37
▁h	-38
ent	-39
om	-40
le	-41
▁re	-42
il	-43
▁e	-44
▁I	-45
ct	-46
▁is	-47
ro	-48
▁be	-49
▁l	-50
ve	-51
▁n	-52
st	-53
▁T	-54
ation	-55
id	-56
▁g	-57
▁that	-58
im	-59
ce	-60
ly	-61
un	-62
▁S	-63
ut	-64
ol	-65
▁on	-66
et	-67
us	-68
▁for	-69
ot	-70
ore	-71
ch	-72
▁A	-73
▁y	-74
▁it	-75
▁C	-76
▁K	-77
▁st	-78
ig	-79
ur	-80
ver	-81
▁wh	-82
am	-83
ad	-84
▁The	-85
ay	-86
ir	-87
ow	-88
▁as	-89
ment	-90
ill	-91
▁con	-92
ter	-93
ul	-94
ith	-95
th	-96
se	-97
▁was	-98
▁with	-99
▁pro	-100
ong	-101
▁are	-102
▁he	-103
▁P	-104
if	-105
▁ex	-106
▁com	-107
▁M	-108
el	-109
▁you	-110
▁at	-111
ers	-112
▁"	-113
ge	-114
op	-115
est	-116
▁r	-117
oun	-118
▁al	-119
▁H	-120
▁by	-121
em	-122
ld	-123
▁su	-124
ist	-125
ere	-126
art	-127
ri	-128
res	-129
her	-130
ate	-131
ain	-132
ity	-133
▁v	-134
ave	-135
oo	-136
ec	-137
ess	-138
pp	-139
▁will	-140
ak	-141
▁Kore	-142
▁1	-143
um	-144
▁J	-145
rom	-146
ect	-147
ive	-148
ort	-149
oc	-150
▁D	-151
▁In	-152
▁B	-153
ial	-154
▁G	-155
ies	-156
ud	-157
ear	-158
▁ch	-159
os	-160
du	-161
and	-162
ang	-163
▁W	-164
▁sh	-165
▁N	-166
igh	-167
▁not	-168
▁2	-169
▁have	-170
ac	-171
▁from	-172
ant	-173
▁ne	-174
▁or	-175
iv	-176
▁comp	-177
ab	-178
ice	-179
▁has	-180
ich	-181
▁can	-182
ee	-183
end	-184
qu	-185
▁whe	-186
▁exp	-187
ure	-188
▁which	-189
▁un	-190
▁de	-191
iz	-192
▁le	-193
▁wor	-194
▁L	-195
▁who	-196
▁E	-197
▁F	-198
gh	-199
ast	-200
▁this	-201
act	-202
ap	-203
▁tr	-204
▁pl	-205
▁me	-206
▁Ch	-207
ould	-208
all	-209
▁but	-210
use	-211
ime	-212
ult	-213
▁sa	-214
▁inc	-215
ated	-216
ough	-217
▁ab	-218
▁sp	-219
."	-220
age	-221
out	-222
▁U	-223
▁go	-224
▁Y	-225
our	-226
▁Korea	-227
▁It	-228
are	-229
ry	-230
ue	-231
ous	-232
▁year	-233
▁int	-234
ard	-235
ust	-236
00	-237
▁k	-238
ight	-239
cc	-240
up	-241
ip	-242
▁ad	-243
▁res	-244
▁se	-245
ff	-246
▁bec	-247
▁cont	-248
ase	-249
ome	-250
ance	-251
▁mo	-252
▁R	-253
ark	-254
ition	-255
▁im	-256
der	-257
ans	-258
▁were	-259
ung	-260
ary	-261
▁so	-262
▁said	-263
▁j	-264
ie	-265
▁time	-266
▁O	-267
ire	-268
ction	-269
fter	-270
ber	-271
▁(	-272
so	-273
▁there	-274
▁we	-275
ther	-276
ag	-277
▁part	-278
▁man	-279
▁dis	-280
ical	-281
▁been	-282
▁ar	-283
ident	-284
ke	-285
ell	-286
ide	-287
orm	-288
ound	-289
▁Se	-290
og	-291
▁te	-292
ame	-293
▁ev	-294
port	-295
▁pe	-296
▁Th	-297
▁out	-298
▁also	-299
ause	-300
ood	-301
ount	-302
ae	-303
ine	-304
▁they	-305
▁when	-306
ye	-307
ople	-308
ake	-309
ational	-310
od	-311
ign	-312
▁his	-313
▁do	-314
ace	-315
▁per	-316
ence	-317
▁ag	-318
ations	-319
▁Korean	-320
▁after	-321
▁cl	-322
▁us	-323
▁app	-324
▁pre	-325
▁As	-326
▁en	-327
▁off	-328
irst	-329
▁their	-330
▁more	-331
▁work	-332
ib	-333
▁people	-334
ren	-335
one	-336
▁if	-337
ike	-338
form	-339
▁all	-340
pt	-341
▁Kim	-342
▁than	-343
ru	-344
ding	-345
▁about	-346
ress	-347
ook	-348
ub	-349
ass	-350
erv	-351
▁first	-352
▁rec	-353
ack	-354
▁compan	-355
ree	-356
▁pr	-357
vel	-358
ual	-359
ens	-360
▁inv	-361
lic	-362
ince	-363
ions	-364
▁because	-365
vern	-366
lo	-367
per	-368
ile	-369
ade	-370
▁such	-371
▁gr	-372
▁20	-373
ia	-374
▁my	-375
▁3	-376
▁pol	-377
▁sc	-378
▁new	-379
▁produ	-380
ious	-381
ors	-382
very	-383
▁up	-384
▁co	-385
iff	-386
▁att	-387
rough	-388
vers	-389
ach	-390
aw	-391
▁em	-392
▁like	-393
▁one	-394
int	-395
able	-396
ents	-397
▁over	-398
▁had	-399
ced	-400
▁other	-401
▁am	-402
▁day	-403
▁cons	-404
lud	-405
ict	-406
▁po	-407
▁its	-408
▁acc	-409
av	-410
▁act	-411
ory	-412
▁comm	-413
▁ro	-414
ased	-415
ish	-416
air	-417
▁fin	-418
hed	-419
▁reg	-420
▁diff	-421
vernment	-422
▁This	-423
lect	-424
ities	-425
▁qu	-426
ond	-427
ning	-428
▁St	-429
now	-430
itt	-431
ok	-432
▁stud	-433
ink	-434
▁tw	-435
ater	-436
▁through	-437
nt	-438
ail	-439
uc	-440
▁rel	-441
▁only	-442
▁includ	-443
old	-444
▁bet	-445
ose	-446
ating	-447
ite	-448
▁imp	-449
▁dec	-450
row	-451
ative	-452
tern	-453
oon	-454
▁them	-455
▁sec	-456
▁sy	-457
▁your	-458
cho	-459
anc	-460
▁invest	-461
resident	-462
▁government	-463
▁mark	-464
orth	-465
low	-466
▁no	-467
▁Un	-468
▁two	-469
ject	-470
chool	-471
con	-472
hen	-473
we	-474
▁high	-475
▁Min	-476
▁incre	-477
▁where	-478
illion	-479
▁fe	-480
ep	-481
ular	-482
▁pos	-483
▁bus	-484
▁would	-485
man	-486
▁know	-487
ific	-488
,"	-489
oul	-490
▁partic	-491
▁last	-492
▁market	-493
▁should	-494
▁won	-495
▁He	-496
red	-497
▁supp	-498
▁rep	-499
▁form	-500
olog	-501
▁into	-502
▁mon	-503
ics	-504
▁med	-505
ized	-506
ublic	-507
▁North	-508
velop	-509
ates	-510
uring	-511
ally	-512
▁5	-513
▁under	-514
iness	-515
▁cr	-516
stem	-517
ution	-518
▁There	-519
ll	-520
ks	-521
▁Seoul	-522
enter	-523
ected	-524
min	-525
dust	-526
omm	-527
enc	-528
ds	-529
▁loc	-530
oup	-531
▁due	-532
▁say	-533
ied	-534
▁even	-535
yeong	-536
▁min	-537
▁201	-538
ween	-539
xt	-540
▁sm	-541
▁need	-542
▁pers	-543
▁between	-544
ild	-545
ered	-546
▁made	-547
▁col	-548
▁show	-549
iss	-550
▁Chin	-551
▁count	-552
▁ph	-553
reat	-554
ise	-555
▁num	-556
▁char	-557
▁get	-558
ility	-559
▁dr	-560
▁bu	-561
▁want	-562
▁product	-563
▁sub	-564
ons	-565
▁conf	-566
ention	-567
▁school	-568
▁4	-569
▁many	-570
conom	-571
ivers	-572
ange	-573
▁Pro	-574
▁If	-575
ian	-576
gan	-577
▁system	-578
▁car	-579
fore	-580
▁mem	-581
ble	-582
▁str	-583
ved	-584
▁develop	-585
▁Lee	-586
ited	-587
les	-588
▁years	-589
▁including	-590
▁play	-591
ments	-592
▁some	-593
▁des	-594
▁op	-595
▁offic	-596
ese	-597
▁her	-598
ife	-599
ert	-600
ener	-601
▁disc	-602
▁vis	-603
way	-604
▁add	-605
gr	-606
ible	-607
▁serv	-608
▁again	-609
▁good	-610
istr	-611
▁think	-612
get	-613
▁soc	-614
▁prov	-615
day	-616
▁make	-617
▁spec	-618
▁jo	-619
▁National	-620
▁An	-621
▁V	-622
▁company	-623
▁report	-624
▁could	-625
▁eff	-626
▁public	-627
ouse	-628
▁fact	-629
▁We	-630
te	-631
ience	-632
▁br	-633
▁cre	-634
▁business	-635
ings	-636
ower	-637
▁while	-638
ick	-639
▁well	-640
▁any	-641
▁number	-642
▁var	-643
▁lead	-644
▁held	-645
gu	-646
apan	-647
▁since	-648
ven	-649
▁companies	-650
ording	-651
resent	-652
ove	-653
The	-654
rop	-655
ures	-656
▁month	-657
ural	-658
▁19	-659
▁did	-660
ily	-661
▁inst	-662
▁ac	-663
iet	-664
aking	-665
▁meet	-666
iew	-667
▁ann	-668
ful	-669
▁person	-670
ju	-671
app	-672
▁bl	-673
▁che	-674
▁inter	-675
▁ind	-676
▁how	-677
che	-678
▁met	-679
cess	-680
▁dire	-681
▁sur	-682
▁start	-683
▁right	-684
▁econom	-685
▁being	-686
▁indust	-687
ank	-688
▁ear	-689
▁Japan	-690
ost	-691
▁take	-692
▁trans	-693
000	-694
▁resp	-695
▁Wh	-696
icult	-697
▁what	-698
▁est	-699
▁ins	-700
ital	-701
▁team	-702
▁dep	-703
▁most	-704
▁On	-705
▁ref	-706
▁long	-707
chn	-708
ared	-709
ather	-710
▁Je	-711
▁our	-712
ism	-713
ices	-714
amp	-715
▁President	-716
▁How	-717
▁differe	-718
▁rece	-719
▁emp	-720
ock	-721
▁result	-722
▁conc	-723
own	-724
▁real	-725
▁use	-726
▁fun	-727
ever	-728
ron	-729
▁cur	-730
ization	-731
urn	-732
lease	-733
▁world	-734
▁call	-735
▁official	-736
▁just	-737
▁art	-738
▁used	-739
outh	-740
▁10	-741
▁point	-742
▁Tr	-743
ason	-744
▁investig	-745
▁fam	-746
▁lar	-747
),	-748
erg	-749
▁Part	-750
ax	-751
ng	-752
▁see	-753
▁child	-754
▁grow	-755
▁main	-756
hip	-757
▁look	-758
▁don	-759
sel	-760
▁plan	-761
ft	-762
▁perform	-763
,000	-764
ries	-765
blem	-766
▁Park	-767
▁ed	-768
wn	-769
led	-770
▁way	-771
lear	-772
▁poss	-773
▁problem	-774
▁ass	-775
▁same	-776
ty	-777
▁iss	-778
▁law	-779
▁rem	-780
▁during	-781
▁every	-782
▁each	-783
istry	-784
▁aut	-785
▁three	-786
ister	-787
▁next	-788
▁before	-789
nam	-790
▁now	-791
ize	-792
ind	-793
▁contin	-794
rib	-795
▁6	-796
ward	-797
▁local	-798
▁process	-799
▁support	-800
▁second	-801
▁You	-802
ided	-803
▁cult	-804
ting	-805
ology	-806
erest	-807
▁place	-808
▁end	-809
▁sign	-810
▁head	-811
▁Party	-812
other	-813
its	-814
ract	-815
▁Comm	-816
▁comple	-817
ew	-818
▁techn	-819
uch	-820
cept	-821
▁Gyeong	-822
▁det	-823
ams	-824
▁gener	-825
formation	-826
▁group	-827
▁found	-828
▁order	-829
ency	-830
▁direct	-831
▁Sh	-832
mb	-833
▁fore	-834
read	-835
ys	-836
iversity	-837
▁oper	-838
▁mat	-839
▁China	-840
riv	-841
▁interest	-842
▁particip	-843
▁own	-844
▁life	-845
▁expected	-846
ruct	-847
▁requ	-848
▁ent	-849
▁import	-850
▁difficult	-851
▁sal	-852
▁wr	-853
▁ob	-854
▁cor	-855
uation	-856
▁bro	-857
▁Al	-858
▁ca	-859
▁various	-860
▁back	-861
▁students	-862
ute	-863
uss	-864
▁sit	-865
▁him	-866
▁When	-867
▁del	-868
▁open	-869
als	-870
hing	-871
▁without	-872
ra	-873
ives	-874
ret	-875
▁expl	-876
▁may	-877
do	-878
sec	-879
▁opp	-880
rent	-881
▁prev	-882
▁exper	-883
▁ele	-884
▁very	-885
arm	-886
bers	-887
▁ret	-888
▁dem	-889
▁Ministry	-890
ient	-891
lish	-892
▁7	-893
yun	-894
arch	-895
ually	-896
▁hel	-897
ained	-898
▁educ	-899
▁pass	-900
▁prof	-901
▁police	-902
wang	-903
▁case	-904
ision	-905
ollow	-906
▁around	-907
▁special	-908
▁much	-909
▁rev	-910
riend	-911
ord	-912
won	-913
▁pay	-914
ants	-915
▁announ	-916
▁lot	-917
ancial	-918
ense	-919
▁tri	-920
▁she	-921
oy	-922
airman	-923
imes	-924
▁rest	-925
▁set	-926
▁pur	-927
▁though	-928
▁Acc	-929
ourt	-930
▁pop	-931
▁“	-932
▁bel	-933
▁const	-934
▁different	-935
▁house	-936
▁inf	-937
▁adv	-938
▁help	-939
ases	-940
▁commun	-941
▁million	-942
alk	-943
▁South	-944
ished	-945
aj	-946
ently	-947
▁'	-948
▁power	-949
▁information	-950
▁fi	-951
▁project	-952
ium	-953
iving	-954
mm	-955
ck	-956
▁effect	-957
▁gu	-958
ath	-959
▁former	-960
▁emplo	-961
uk	-962
▁hum	-963
▁fil	-964
▁However	-965
▁buil	-966
▁does	-967
▁small	-968
▁According	-969
▁def	-970
ues	-971
ters	-972
ef	-973
▁consid	-974
▁chang	-975
▁At	-976
▁hand	-977
ission	-978
▁prom	-979
▁organ	-980
▁follow	-981
▁large	-982
pect	-983
ork	-984
ts	-985
ering	-986
osp	-987
agement	-988
rodu	-989
ale	-990
▁polic	-991
irm	-992
oth	-993
por	-994
▁8	-995
▁these	-996
▁fl	-997
▁industry	-998
▁area	-999
▁meeting	-1000
▁wee	-1001
aining	-1002
▁saying	-1003
▁Prov	-1004
ittee	-1005
ists	-1006
▁sim	-1007
▁event	-1008
iety	-1009
▁Dae	-1010
pr	-1011
▁food	-1012
▁products	-1013
▁home	-1014
▁ter	-1015
ature	-1016
▁increase	-1017
▁country	-1018
omen	-1019
▁estab	-1020
▁sol	-1021
abor	-1022
osed	-1023
▁feel	-1024
atic	-1025
ness	-1026
ump	-1027
▁class	-1028
▁members	-1029
▁dist	-1030
ustom	-1031
ying	-1032
yung	-1033
▁Am	-1034
▁compet	-1035
ived	-1036
▁Cho	-1037
yp	-1038
▁ask	-1039
iation	-1040
▁down	-1041
omp	-1042
duct	-1043
inc	-1044
▁days	-1045
▁visit	-1046
▁social	-1047
oung	-1048
▁must	-1049
▁addition	-1050
io	-1051
alth	-1052
▁media	-1053
elf	-1054
ior	-1055
▁rese	-1056
ministr	-1057
▁fac	-1058
▁price	-1059
▁ra	-1060
▁become	-1061
akes	-1062
gest	-1063
▁val	-1064
used	-1065
▁current	-1066
▁cap	-1067
▁mov	-1068
▁against	-1069
▁come	-1070
omet	-1071
ata	-1072
▁mus	-1073
▁change	-1074
ages	-1075
ajor	-1076
▁service	-1077
▁seem	-1078
eep	-1079
iod	-1080
artment	-1081
ised	-1082
▁national	-1083
▁party	-1084
▁contro	-1085
▁city	-1086
▁bo	-1087
▁eas	-1088
though	-1089
▁water	-1090
▁Bus	-1091
iron	-1092
▁whether	-1093
▁win	-1094
▁education	-1095
ug	-1096
▁four	-1097
▁book	-1098
▁president	-1099
ruction	-1100
uture	-1101
▁rate	-1102
ively	-1103
▁going	-1104
▁impro	-1105
ai	-1106
▁custom	-1107
ov	-1108
▁hard	-1109
li	-1110
▁state	-1111
ternational	-1112
▁activ	-1113
▁9	-1114
ody	-1115
ted	-1116
▁important	-1117
▁air	-1118
▁design	-1119
ired	-1120
▁investigation	-1121
▁prep	-1122
eration	-1123
hes	-1124
▁reason	-1125
line	-1126
▁summ	-1127
▁University	-1128
▁Che	-1129
▁possible	-1130
▁war	-1131
▁elect	-1132
ising	-1133
self	-1134
▁children	-1135
▁Con	-1136
▁meas	-1137
▁economic	-1138
stand	-1139
▁attention	-1140
ric	-1141
▁Re	-1142
▁anal	-1143
ional	-1144
▁tax	-1145
▁introdu	-1146
▁big	-1147
▁job	-1148
▁reported	-1149
ope	-1150
ces	-1151
▁development	-1152
▁happ	-1153
▁strong	-1154
▁ext	-1155
▁belie	-1156
▁Moon	-1157
▁City	-1158
▁major	-1159
▁care	-1160
▁express	-1161
ner	-1162
▁week	-1163
▁past	-1164
▁Province	-1165
▁rele	-1166
▁room	-1167
▁sent	-1168
▁Ar	-1169
▁billion	-1170
▁sk	-1171
▁ser	-1172
▁sus	-1173
▁using	-1174
land	-1175
ended	-1176
▁particular	-1177
entr	-1178
▁friend	-1179
▁aff	-1180
▁charact	-1181
▁redu	-1182
▁Is	-1183
ilit	-1184
▁still	-1185
▁announced	-1186
▁data	-1187
ctions	-1188
▁office	-1189
▁US	-1190
▁situation	-1191
▁For	-1192
▁future	-1193
▁those	-1194
▁check	-1195
▁period	-1196
▁cost	-1197
leg	-1198
▁performance	-1199
▁move	-1200
nce	-1201
▁pat	-1202
▁management	-1203
▁great	-1204
▁occ	-1205
▁level	-1206
▁stand	-1207
bal	-1208
▁New	-1209
▁related	-1210
oh	-1211
▁based	-1212
▁low	-1213
oney	-1214
▁then	-1215
▁mid	-1216
▁financial	-1217
ocr	-1218
ex	-1219
▁family	-1220
semb	-1221
viron	-1222
▁polit	-1223
me	-1224
ances	-1225
▁put	-1226
ines	-1227
▁30	-1228
▁too	-1229
▁crit	-1230
ending	-1231
▁why	-1232
ately	-1233
ibility	-1234
▁Jae	-1235
▁200	-1236
pl	-1237
▁hist	-1238
▁let	-1239
ality	-1240
▁lear	-1241
▁neg	-1242
ne	-1243
▁Ye	-1244
▁able	-1245
▁typ	-1246
ival	-1247
the	-1248
iting	-1249
hor	-1250
not	-1251
▁view	-1252
▁dom	-1253
▁prosec	-1254
▁enter	-1255
▁consum	-1256
ically	-1257
▁ful	-1258
▁toget	-1259
▁la	-1260
▁together	-1261
vironment	-1262
▁left	-1263
ned	-1264
cent	-1265
▁foreign	-1266
ugh	-1267
▁countries	-1268
sembly	-1269
▁jud	-1270
▁called	-1271
▁prot	-1272
▁human	-1273
eng	-1274
▁Han	-1275
cheon	-1276
▁post	-1277
dong	-1278
▁today	-1279
▁technology	-1280
tal	-1281
▁Go	-1282
▁Japanese	-1283
ix	-1284
▁top	-1285
iven	-1286
dition	-1287
▁represent	-1288
lement	-1289
orts	-1290
▁policy	-1291
▁here	-1292
▁sales	-1293
uclear	-1294
▁sing	-1295
ins	-1296
gi	-1297
▁run	-1298
▁Minister	-1299
ains	-1300
aring	-1301
▁young	-1302
alf	-1303
▁May	-1304
▁amount	-1305
▁came	-1306
idents	-1307
ructure	-1308
ars	-1309
atch	-1310
▁unt	-1311
▁read	-1312
▁popular	-1313
▁old	-1314
ront	-1315
▁test	-1316
▁building	-1317
▁progr	-1318
▁Chinese	-1319
▁money	-1320
▁fire	-1321
ateg	-1322
iber	-1323
ms	-1324
▁press	-1325
ried	-1326
▁After	-1327
▁game	-1328
ued	-1329
▁times	-1330
▁news	-1331
▁best	-1332
▁Busan	-1333
iver	-1334
▁quest	-1335
ilities	-1336
ulation	-1337
ten	-1338
ilitary	-1339
lobal	-1340
▁list	-1341
▁hour	-1342
▁mod	-1343
▁working	-1344
▁took	-1345
▁until	-1346
▁give	-1347
▁15	-1348
oss	-1349
reen	-1350
▁present	-1351
ection	-1352
▁discuss	-1353
▁increased	-1354
▁tem	-1355
je	-1356
▁Please	-1357
▁Sec	-1358
▁early	-1359
▁promot	-1360
▁growth	-1361
▁bas	-1362
▁allow	-1363
▁account	-1364
▁total	-1365
▁De	-1366
ief	-1367
amsung	-1368
▁cannot	-1369
aving	-1370
▁nec	-1371
▁Gang	-1372
▁conduct	-1373
▁making	-1374
nd	-1375
ministration	-1376
ho	-1377
▁culture	-1378
less	-1379
▁confirm	-1380
▁demand	-1381
cast	-1382
▁fiel	-1383
▁Assembly	-1384
▁among	-1385
▁relations	-1386
▁They	-1387
▁What	-1388
san	-1389
▁exist	-1390
ony	-1391
▁tour	-1392
▁equ	-1393
hod	-1394
lished	-1395
ified	-1396
▁ve	-1397
▁body	-1398
▁character	-1399
▁12	-1400
▁find	-1401
ification	-1402
▁store	-1403
▁priv	-1404
ined	-1405
▁Samsung	-1406
▁11	-1407
▁susp	-1408
▁short	-1409
ergy	-1410
den	-1411
▁understand	-1412
▁mean	-1413
ling	-1414
▁center	-1415
iqu	-1416
ob	-1417
▁ke	-1418
▁Although	-1419
▁trad	-1420
▁rul	-1421
▁music	-1422
▁spe	-1423
▁foc	-1424
sc	-1425
▁Dong	-1426
uty	-1427
▁saf	-1428
▁My	-1429
ivid	-1430
▁near	-1431
az	-1432
▁appear	-1433
▁hig	-1434
arent	-1435
itiz	-1436
ames	-1437
ready	-1438
▁received	-1439
here	-1440
▁profess	-1441
▁half	-1442
▁experience	-1443
▁research	-1444
▁Hyun	-1445
▁issue	-1446
ospital	-1447
▁author	-1448
▁aud	-1449
▁18	-1450
▁general	-1451
lected	-1452
▁both	-1453
▁percent	-1454
▁Gwang	-1455
▁Pol	-1456
▁method	-1457
▁Ex	-1458
▁went	-1459
ched	-1460
▁already	-1461
asing	-1462
▁Eng	-1463
istrict	-1464
▁released	-1465
▁agree	-1466
hy	-1467
▁United	-1468
▁Ad	-1469
urity	-1470
▁expand	-1471
▁Man	-1472
▁leg	-1473
ination	-1474
▁military	-1475
stit	-1476
aterial	-1477
We	-1478
▁free	-1479
inal	-1480
▁Trump	-1481
▁Off	-1482
▁decided	-1483
▁Gr	-1484
aim	-1485
▁ap	-1486
ird	-1487
▁Sp	-1488
▁Dem	-1489
▁mor	-1490
oll	-1491
▁somet	-1492
airs	-1493
oint	-1494
▁pain	-1495
erc	-1496
▁return	-1497
▁women	-1498
estic	-1499
▁regard	-1500
▁health	-1501
▁proper	-1502
ccess	-1503
▁appro	-1504
▁vide	-1505
rial	-1506
▁condition	-1507
aff	-1508
▁Do	-1509
▁environment	-1510
▁phot	-1511
▁name	-1512
▁Act	-1513
▁Jung	-1514
▁global	-1515
wan	-1516
▁Chung	-1517
▁beg	-1518
▁Fin	-1519
▁words	-1520
iol	-1521
dle	-1522
tain	-1523
▁But	-1524
▁lo	-1525
▁necess	-1526
▁broad	-1527
ication	-1528
▁side	-1529
ros	-1530
▁live	-1531
▁Jong	-1532
▁construction	-1533
yeon	-1534
▁ide	-1535
▁light	-1536
▁front	-1537
▁dam	-1538
▁material	-1539
▁imm	-1540
▁employ	-1541
▁another	-1542
).	-1543
▁reve	-1544
osition	-1545
ead	-1546
▁hope	-1547
ways	-1548
▁success	-1549
▁economy	-1550
mp	-1551
RW	-1552
acher	-1553
reme	-1554
▁private	-1555
ides	-1556
ik	-1557
ged	-1558
▁So	-1559
▁away	-1560
▁things	-1561
▁Democr	-1562
▁exc	-1563
ets	-1564
▁became	-1565
▁Center	-1566
▁sl	-1567
▁100	-1568
work	-1569
.”	-1570
▁cert	-1571
ceed	-1572
▁study	-1573
ones	-1574
▁fall	-1575
▁lim	-1576
ash	-1577
▁areas	-1578
ety	-1579
ption	-1580
▁thought	-1581
▁within	-1582
▁land	-1583
ves	-1584
▁labor	-1585
▁results	-1586
vert	-1587
ene	-1588
▁coop	-1589
▁less	-1590
▁occur	-1591
▁means	-1592
estival	-1593
olit	-1594
▁talk	-1595
▁Sup	-1596
▁five	-1597
und	-1598
▁society	-1599
hic	-1600
▁viol	-1601
▁space	-1602
▁ord	-1603
utes	-1604
▁got	-1605
▁Ind	-1606
▁Gyeonggi	-1607
▁Court	-1608
▁request	-1609
▁av	-1610
hib	-1611
▁Even	-1612
▁seems	-1613
hold	-1614
nel	-1615
▁turn	-1616
▁once	-1617
▁Ass	-1618
▁production	-1619
▁signific	-1620
aken	-1621
▁draw	-1622
reng	-1623
ger	-1624
▁concer	-1625
▁domestic	-1626
▁KRW	-1627
▁Since	-1628
▁claim	-1629
▁bre	-1630
▁Shin	-1631
▁hol	-1632
ittle	-1633
ph	-1634
▁hot	-1635
▁instit	-1636
▁rather	-1637
▁exch	-1638
▁enj	-1639
itizens	-1640
▁expect	-1641
▁workers	-1642
ogn	-1643
▁history	-1644
ple	-1645
▁Hong	-1646
▁activities	-1647
▁content	-1648
▁emerg	-1649
▁cand	-1650
▁Can	-1651
▁opin	-1652
rap	-1653
▁position	-1654
▁improve	-1655
▁love	-1656
▁clear	-1657
▁beh	-1658
It	-1659
cil	-1660
itive	-1661
▁film	-1662
▁court	-1663
rug	-1664
▁flo	-1665
▁streng	-1666
▁reveal	-1667
▁States	-1668
▁prosecution	-1669
▁grad	-1670
▁share	-1671
▁better	-1672
▁hous	-1673
▁value	-1674
▁model	-1675
▁started	-1676
▁treat	-1677
jin	-1678
▁enjoy	-1679
▁previous	-1680
▁political	-1681
▁cour	-1682
▁dram	-1683
izing	-1684
",	-1685
lied	-1686
▁coun	-1687
ociation	-1688
be	-1689
▁vict	-1690
eric	-1691
▁known	-1692
▁critic	-1693
▁Chairman	-1694
▁cases	-1695
olitan	-1696
oot	-1697
thing	-1698
▁establish	-1699
▁full	-1700
fact	-1701
ropolitan	-1702
▁Met	-1703
▁mar	-1704
▁teacher	-1705
▁Serv	-1706
▁prices	-1707
▁fail	-1708
dict	-1709
▁prop	-1710
▁stat	-1711
ecial	-1712
▁Office	-1713
▁net	-1714
▁didn	-1715
cer	-1716
▁little	-1717
▁tell	-1718
ories	-1719
▁send	-1720
mber	-1721
▁contract	-1722
▁investment	-1723
▁Young	-1724
▁according	-1725
erence	-1726
aster	-1727
▁Te	-1728
aged	-1729
▁measures	-1730
▁infl	-1731
▁always	-1732
▁self	-1733
▁please	-1734
▁deter	-1735
▁suff	-1736
▁line	-1737
side	-1738
ving	-1739
▁Eu	-1740
▁likely	-1741
▁Co	-1742
ension	-1743
▁er	-1744
entral	-1745
▁create	-1746
▁necessary	-1747
▁pract	-1748
ortun	-1749
ges	-1750
▁story	-1751
▁morning	-1752
▁site	-1753
▁orig	-1754
▁charge	-1755
▁laun	-1756
▁parent	-1757
▁fre	-1758
▁recently	-1759
▁nat	-1760
ember	-1761
▁energy	-1762
▁began	-1763
▁bur	-1764
par	-1765
earch	-1766
duc	-1767
▁late	-1768
▁hours	-1769
▁13	-1770
▁subject	-1771
20	-1772
▁conn	-1773
ross	-1774
▁living	-1775
▁residents	-1776
ipp	-1777
▁chairman	-1778
▁And	-1779
ream	-1780
▁trade	-1781
▁committee	-1782
▁significant	-1783
angu	-1784
▁field	-1785
orld	-1786
orrow	-1787
ha	-1788
▁keep	-1789
▁tar	-1790
▁never	-1791
▁hospital	-1792
▁Jun	-1793
▁vol	-1794
▁sex	-1795
▁exam	-1796
▁asked	-1797
▁months	-1798
▁led	-1799
▁candid	-1800
▁attract	-1801
fer	-1802
▁becom	-1803
▁Comp	-1804
▁soon	-1805
oice	-1806
ability	-1807
▁close	-1808
▁Democratic	-1809
▁explained	-1810
ividual	-1811
▁Pr	-1812
▁night	-1813
▁purch	-1814
▁ur	-1815
▁16	-1816
▁created	-1817
▁cultural	-1818
▁problems	-1819
ured	-1820
▁international	-1821
urance	-1822
irc	-1823
▁Rep	-1824
▁taking	-1825
▁No	-1826
▁video	-1827
▁buy	-1828
▁cent	-1829
▁program	-1830
▁stop	-1831
▁tal	-1832
▁Americ	-1833
▁Dep	-1834
▁seen	-1835
▁Be	-1836
▁Ger	-1837
irl	-1838
ocu	-1839
nov	-1840
▁div	-1841
▁That	-1842
▁appe	-1843
▁sold	-1844
▁Committee	-1845
ilar	-1846
rest	-1847
▁citizens	-1848
▁agreement	-1849
yang	-1850
ator	-1851
yees	-1852
▁Cheong	-1853
▁member	-1854
▁card	-1855
▁Jin	-1856
itted	-1857
▁ris	-1858
▁Choi	-1859
ored	-1860
▁English	-1861
▁along	-1862
▁Educ	-1863
▁director	-1864
▁stage	-1865
▁role	-1866
▁applic	-1867
▁Res	-1868
▁disp	-1869
▁prevent	-1870
▁With	-1871
aces	-1872
▁summit	-1873
▁sell	-1874
▁song	-1875
▁recogn	-1876
ury	-1877
▁den	-1878
▁far	-1879
▁men	-1880
▁provide	-1881
▁vehic	-1882
▁docu	-1883
rd	-1884
istics	-1885
▁individual	-1886
sang	-1887
▁hold	-1888
▁something	-1889
▁continue	-1890
▁World	-1891
Kore	-1892
▁sect	-1893
▁competition	-1894
idence	-1895
▁predict	-1896
▁En	-1897
▁eval	-1898
▁14	-1899
▁Pe	-1900
▁changed	-1901
▁respons	-1902
▁focus	-1903
▁often	-1904
▁tradition	-1905
▁civ	-1906
▁others	-1907
▁coll	-1908
epend	-1909
▁election	-1910
ball	-1911
▁distrib	-1912
gress	-1913
▁dev	-1914
▁par	-1915
▁meaning	-1916
yo	-1917
▁season	-1918
▁third	-1919
ats	-1920
aper	-1921
▁employees	-1922
▁eng	-1923
▁following	-1924
▁trave	-1925
▁movie	-1926
▁Education	-1927
aid	-1928
▁customers	-1929
▁wa	-1930
▁25	-1931
▁negot	-1932
▁mob	-1933
vey	-1934
▁analy	-1935
▁ben	-1936
▁shop	-1937
▁German	-1938
▁pict	-1939
acy	-1940
▁deb	-1941
▁confirmed	-1942
ential	-1943
▁corpor	-1944
ached	-1945
▁Indust	-1946
▁middle	-1947
aur	-1948
onse	-1949
ran	-1950
ier	-1951
ample	-1952
ients	-1953
▁strateg	-1954
ecause	-1955
▁ant	-1956
▁floor	-1957
▁leader	-1958
▁standard	-1959
urch	-1960
▁implement	-1961
ternal	-1962
▁medical	-1963
▁few	-1964
▁circ	-1965
▁broadcast	-1966
▁face	-1967
▁advert	-1968
▁mom	-1969
rope	-1970
▁Just	-1971
▁services	-1972
verage	-1973
ological	-1974
inary	-1975
▁Sun	-1976
erem	-1977
▁relationship	-1978
▁spread	-1979
▁established	-1980
▁showed	-1981
▁added	-1982
▁50	-1983
▁officials	-1984
cher	-1985
▁key	-1986
▁Gwangju	-1987
▁flow	-1988
chie	-1989
▁income	-1990
▁record	-1991
▁Jeju	-1992
anguage	-1993
▁facilities	-1994
ternet	-1995
▁Liber	-1996
com	-1997
▁comb	-1998
▁17	-1999
▁makes	-2000
▁colle	-2001
▁really	-2002
▁having	-2003
▁Commission	-2004
EO	-2005
▁achie	-2006
▁receive	-2007
ison	-2008
▁Europe	-2009
▁pres	-2010
▁brand	-2011
▁review	-2012
▁accept	-2013
▁accident	-2014
.5	-2015
att	-2016
▁Ju	-2017
rit	-2018
▁Kang	-2019
▁parents	-2020
ze	-2021
▁cause	-2022
▁sem	-2023
▁mess	-2024
imum	-2025
▁Association	-2026
▁representative	-2027
▁issues	-2028
▁administration	-2029
▁caused	-2030
▁item	-2031
▁later	-2032
urther	-2033
▁dri	-2034
▁final	-2035
ns	-2036
▁bea	-2037
▁watch	-2038
▁similar	-2039
▁complete	-2040
aek	-2041
su	-2042
▁separ	-2043
illed	-2044
▁quick	-2045
▁given	-2046
rast	-2047
▁Yong	-2048
▁el	-2049
▁ident	-2050
▁base	-2051
▁safety	-2052
sh	-2053
▁community	-2054
▁sw	-2055
▁revealed	-2056
time	-2057
▁es	-2058
ays	-2059
▁Cult	-2060
▁plans	-2061
ills	-2062
▁visited	-2063
▁phys	-2064
▁non	-2065
▁players	-2066
▁Service	-2067
▁School	-2068
▁miss	-2069
▁smart	-2070
▁To	-2071
▁existing	-2072
▁influ	-2073
▁friends	-2074
▁cerem	-2075
agn	-2076
retary	-2077
ened	-2078
▁stock	-2079
▁rights	-2080
▁expert	-2081
▁Then	-2082
▁mother	-2083
▁increasing	-2084
▁controvers	-2085
▁object	-2086
▁developed	-2087
▁decision	-2088
▁cell	-2089
▁Yang	-2090
▁fans	-2091
ament	-2092
by	-2093
stitute	-2094
ring	-2095
ware	-2096
▁age	-2097
udget	-2098
▁Sa	-2099
▁pointed	-2100
▁sug	-2101
let	-2102
ysis	-2103
istic	-2104
veral	-2105
▁begin	-2106
▁joint	-2107
▁Russ	-2108
▁detail	-2109
▁camp	-2110
ences	-2111
utions	-2112
▁six	-2113
young	-2114
▁control	-2115
br	-2116
▁opposition	-2117
▁road	-2118
▁invol	-2119
▁Ag	-2120
▁death	-2121
▁Asian	-2122
▁question	-2123
▁exhib	-2124
yong	-2125
▁block	-2126
▁Su	-2127
▁Because	-2128
ape	-2129
▁ruling	-2130
▁looking	-2131
cing	-2132
▁Ge	-2133
▁trial	-2134
▁Police	-2135
augh	-2136
▁interv	-2137
▁recomm	-2138
▁course	-2139
aker	-2140
▁Incheon	-2141
oman	-2142
▁Cor	-2143
▁changes	-2144
▁March	-2145
rance	-2146
▁easy	-2147
▁benef	-2148
▁structure	-2149
▁conducted	-2150
▁region	-2151
ique	-2152
▁enough	-2153
▁applied	-2154
▁Song	-2155
▁higher	-2156
sw	-2157
▁raised	-2158
▁match	-2159
▁taken	-2160
▁restaur	-2161
▁communication	-2162
▁schools	-2163
▁heart	-2164
avor	-2165
▁gre	-2166
▁International	-2167
▁complex	-2168
orn	-2169
▁eat	-2170
year	-2171
▁directly	-2172
▁Bl	-2173
▁ceremony	-2174
adem	-2175
▁yet	-2176
▁manag	-2177
olution	-2178
edi	-2179
seas	-2180
loy	-2181
▁compared	-2182
▁House	-2183
▁goal	-2184
▁victim	-2185
In	-2186
▁language	-2187
atory	-2188
▁regul	-2189
▁Group	-2190
▁Don	-2191
ctor	-2192
▁cal	-2193
▁opening	-2194
▁vot	-2195
▁outside	-2196
▁security	-2197
▁treatment	-2198
▁decre	-2199
▁leaders	-2200
▁several	-2201
buk	-2202
▁size	-2203
▁nation	-2204
▁cooperation	-2205
▁opportun	-2206
ili	-2207
▁ban	-2208
▁temper	-2209
▁Institute	-2210
.,	-2211
▁student	-2212
▁screen	-2213
▁Sang	-2214
▁pri	-2215
▁answ	-2216
ude	-2217
▁arrest	-2218
▁Jang	-2219
▁lack	-2220
▁dise	-2221
▁kind	-2222
▁cut	-2223
ening	-2224
like	-2225
▁24	-2226
▁budget	-2227
▁Pl	-2228
▁Liberty	-2229
▁nuclear	-2230
▁possibility	-2231
▁gl	-2232
ayed	-2233
▁response	-2234
▁tren	-2235
iter	-2236
iding	-2237
▁Jeong	-2238
▁believe	-2239
▁household	-2240
▁natural	-2241
▁mult	-2242
▁Air	-2243
▁port	-2244
▁vill	-2245
▁ship	-2246
▁text	-2247
▁Some	-2248
▁fine	-2249
Korean	-2250
▁works	-2251
▁Le	-2252
▁farm	-2253
rees	-2254
udd	-2255
▁Ji	-2256
▁ago	-2257
head	-2258
▁located	-2259
▁analysis	-2260
▁lower	-2261
▁minutes	-2262
▁traditional	-2263
▁While	-2264
ault	-2265
▁deg	-2266
▁Mr	-2267
elfare	-2268
▁oil	-2269
▁Seung	-2270
▁capital	-2271
Ch	-2272
ators	-2273
ufact	-2274
ping	-2275
▁Elect	-2276
▁First	-2277
onst	-2278
▁apply	-2279
uge	-2280
▁recent	-2281
▁conflic	-2282
▁overseas	-2283
enior	-2284
▁single	-2285
▁negoti	-2286
▁break	-2287
▁Supreme	-2288
▁exchange	-2289
▁considered	-2290
0.	-2291
▁bank	-2292
▁terms	-2293
has	-2294
▁told	-2295
▁concept	-2296
book	-2297
▁fund	-2298
▁decl	-2299
▁participate	-2300
▁organiz	-2301
▁introduced	-2302
▁online	-2303
riving	-2304
▁sat	-2305
▁exec	-2306
▁heat	-2307
pril	-2308
▁additional	-2309
▁supply	-2310
▁hit	-2311
illeg	-2312
▁deal	-2313
rist	-2314
▁try	-2315
▁One	-2316
▁Sung	-2317
▁reality	-2318
uted	-2319
cy	-2320
▁trillion	-2321
orry	-2322
yes	-2323
▁certain	-2324
▁training	-2325
ocal	-2326
▁average	-2327
▁personal	-2328
▁common	-2329
▁innov	-2330
▁gave	-2331
▁damage	-2332
▁illeg	-2333
▁subm	-2334
▁shows	-2335
▁selected	-2336
ici	-2337
enced	-2338
ify	-2339
▁contact	-2340
▁Internet	-2341
▁Metropolitan	-2342
empt	-2343
▁points	-2344
▁groups	-2345
term	-2346
▁rise	-2347
ressed	-2348
▁April	-2349
▁CEO	-2350
woo	-2351
▁needed	-2352
▁phone	-2353
atives	-2354
▁install	-2355
▁regular	-2356
▁insurance	-2357
▁quality	-2358
▁mind	-2359
▁sense	-2360
▁father	-2361
ague	-2362
▁manufact	-2363
▁park	-2364
▁independ	-2365
avy	-2366
▁color	-2367
▁moment	-2368
▁industrial	-2369
▁cle	-2370
▁mobile	-2371
▁events	-2372
▁ste	-2373
▁June	-2374
▁department	-2375
▁paid	-2376
▁target	-2377
▁2018	-2378
▁inspect	-2379
▁needs	-2380
▁Budd	-2381
▁chief	-2382
elt	-2383
road	-2384
vernor	-2385
▁21	-2386
▁cris	-2387
gen	-2388
▁might	-2389
▁Yes	-2390
▁She	-2391
▁gen	-2392
▁expens	-2393
oms	-2394
▁operation	-2395
ograp	-2396
▁TV	-2397
▁example	-2398
fort	-2399
▁matter	-2400
▁step	-2401
soo	-2402
redit	-2403
lier	-2404
▁suggest	-2405
▁Tae	-2406
▁bir	-2407
▁40	-2408
▁expressed	-2409
▁abs	-2410
▁leave	-2411
▁Mar	-2412
aily	-2413
▁getting	-2414
▁fem	-2415
▁District	-2416
▁Ph	-2417
▁mass	-2418
▁active	-2419
▁continued	-2420
▁red	-2421
▁emphas	-2422
▁quickly	-2423
ah	-2424
co	-2425
▁passed	-2426
dai	-2427
▁basic	-2428
▁tom	-2429
aration	-2430
▁function	-2431
▁conditions	-2432
yu	-2433
she	-2434
ott	-2435
▁wage	-2436
▁interp	-2437
pecial	-2438
▁civil	-2439
▁Yoon	-2440
▁actively	-2441
pite	-2442
▁enc	-2443
▁lost	-2444
▁sound	-2445
▁housing	-2446
▁Coun	-2447
▁drink	-2448
incip	-2449
▁largest	-2450
▁Sc	-2451
rel	-2452
▁Bank	-2453
▁purp	-2454
po	-2455
cell	-2456
ober	-2457
▁kin	-2458
▁27	-2459
▁Jeon	-2460
▁exhibition	-2461
▁reform	-2462
bo	-2463
yle	-2464
hyun	-2465
ountain	-2466
▁Hyundai	-2467
▁true	-2468
secut	-2469
▁Gyeongsang	-2470
▁sector	-2471
usion	-2472
▁electric	-2473
lex	-2474
▁controversy	-2475
▁slow	-2476
▁wind	-2477
▁pus	-2478
▁growing	-2479
▁Chang	-2480
▁heard	-2481
▁compl	-2482
▁lives	-2483
▁ce	-2484
▁itself	-2485
▁further	-2486
▁fr	-2487
▁dig	-2488
▁artic	-2489
ula	-2490
▁toward	-2491
hee	-2492
▁199	-2493
▁Christ	-2494
▁travel	-2495
▁anim	-2496
▁23	-2497
ground	-2498
▁thing	-2499
▁currently	-2500
▁survey	-2501
▁learning	-2502
▁Government	-2503
▁di	-2504
▁contrib	-2505
▁businesses	-2506
▁quar	-2507
▁acqu	-2508
go	-2509
▁eyes	-2510
▁woman	-2511
▁progress	-2512
▁trip	-2513
▁frequ	-2514
▁experi	-2515
▁Seo	-2516
▁tast	-2517
▁respond	-2518
▁transfer	-2519
▁Gu	-2520
▁Station	-2521
▁walk	-2522
▁appoint	-2523
▁web	-2524
▁Jan	-2525
▁materials	-2526
noon	-2527
▁included	-2528
▁costs	-2529
▁employment	-2530
▁bad	-2531
rup	-2532
▁”	-2533
▁advance	-2534
▁afternoon	-2535
dern	-2536
▁round	-2537
▁Fore	-2538
▁tomorrow	-2539
▁unf	-2540
▁caus	-2541
▁participated	-2542
oring	-2543
▁July	-2544
▁consumers	-2545
ably	-2546
▁alleg	-2547
▁respect	-2548
▁opinion	-2549
▁interview	-2550
▁pub	-2551
ronics	-2552
hern	-2553
rastructure	-2554
▁impact	-2555
ester	-2556
▁pot	-2557
▁inside	-2558
▁attended	-2559
▁fell	-2560
▁crisis	-2561
hest	-2562
▁alone	-2563
▁Financial	-2564
iment	-2565
▁Sept	-2566
▁host	-2567
▁speed	-2568
▁starting	-2569
▁argu	-2570
ina	-2571
▁vac	-2572
▁easily	-2573
▁Nam	-2574
▁leading	-2575
▁ground	-2576
▁Econom	-2577
jong	-2578
▁done	-2579
▁university	-2580
ners	-2581
▁happy	-2582
come	-2583
ietnam	-2584
ift	-2585
▁God	-2586
▁wanted	-2587
ellig	-2588
▁provided	-2589
vest	-2590
itten	-2591
▁built	-2592
▁movement	-2593
▁Or	-2594
ession	-2595
▁saw	-2596
▁wife	-2597
▁Reg	-2598
cel	-2599
ging	-2600
▁sens	-2601
osing	-2602
▁princip	-2603
▁image	-2604
▁obs	-2605
▁type	-2606
▁repl	-2607
▁z	-2608
akers	-2609
▁takes	-2610
▁deep	-2611
▁hy	-2612
▁comput	-2613
▁dest	-2614
▁sorry	-2615
▁fish	-2616
ledge	-2617
▁scene	-2618
▁funds	-2619
▁questions	-2620
fully	-2621
ources	-2622
▁produced	-2623
".	-2624
▁games	-2625
irt	-2626
▁theory	-2627
▁lawm	-2628
▁entire	-2629
▁original	-2630
▁parties	-2631
▁serious	-2632
▁specific	-2633
hoon	-2634
▁Vietnam	-2635
▁opened	-2636
▁action	-2637
▁completed	-2638
ercial	-2639
▁Fe	-2640
ises	-2641
▁Oct	-2642
▁users	-2643
▁Therefore	-2644
▁rain	-2645
anced	-2646
▁doesn	-2647
▁bring	-2648
ots	-2649
▁disapp	-2650
els	-2651
▁immedi	-2652
▁rap	-2653
▁authorities	-2654
lection	-2655
▁mention	-2656
▁doll	-2657
▁famous	-2658
▁wear	-2659
▁planning	-2660
light	-2661
▁All	-2662
▁rank	-2663
▁denuclear	-2664
▁continu	-2665
▁conference	-2666
▁Council	-2667
▁estate	-2668
▁payment	-2669
▁2016	-2670
▁These	-2671
▁Daegu	-2672
▁peace	-2673
▁san	-2674
▁Let	-2675
▁(1	-2676
▁ut	-2677
▁favor	-2678
▁22	-2679
▁minister	-2680
▁September	-2681
▁girl	-2682
▁network	-2683
▁Prime	-2684
leep	-2685
ton	-2686
to	-2687
action	-2688
▁district	-2689
▁bar	-2690
▁rent	-2691
▁doing	-2692
▁projects	-2693
iful	-2694
pecially	-2695
▁stay	-2696
▁concentr	-2697
▁temperature	-2698
▁poor	-2699
▁medium	-2700
▁minimum	-2701
▁played	-2702
▁Trans	-2703
▁female	-2704
▁dust	-2705
▁Justice	-2706
▁Aug	-2707
▁photo	-2708
▁28	-2709
uary	-2710
▁force	-2711
▁birth	-2712
▁1,	-2713
dule	-2714
ration	-2715
▁Hwang	-2716
▁nature	-2717
▁consider	-2718
▁26	-2719
▁Aff	-2720
▁contents	-2721
▁pen	-2722
▁jobs	-2723
▁sche	-2724
iday	-2725
rect	-2726
▁pressure	-2727
ches	-2728
▁senior	-2729
▁efforts	-2730
val	-2731
▁bill	-2732
▁station	-2733
aced	-2734
▁ver	-2735
▁clot	-2736
for	-2737
▁fig	-2738
sy	-2739
▁Yoo	-2740
▁parts	-2741
▁comes	-2742
mosp	-2743
▁Seong	-2744
▁felt	-2745
aint	-2746
▁festival	-2747
▁regarding	-2748
▁candidate	-2749
▁rad	-2750
astic	-2751
ining	-2752
▁Department	-2753
cul	-2754
▁drama	-2755
▁analyz	-2756
ume	-2757
incial	-2758
▁Electronics	-2759
▁Festival	-2760
▁People	-2761
▁Yeong	-2762
▁direction	-2763
ipl	-2764
▁sexual	-2765
▁items	-2766
cement	-2767
▁profit	-2768
▁daily	-2769
▁atmosp	-2770
▁norm	-2771
atform	-2772
▁include	-2773
▁transport	-2774
uck	-2775
gun	-2776
aching	-2777
▁attend	-2778
tion	-2779
▁autom	-2780
▁sea	-2781
▁super	-2782
▁organization	-2783
▁Germany	-2784
▁inj	-2785
▁Trade	-2786
▁et	-2787
atively	-2788
▁difference	-2789
▁Island	-2790
▁idea	-2791
▁Affairs	-2792
de	-2793
▁required	-2794
▁King	-2795
▁adm	-2796
▁American	-2797
over	-2798
▁trying	-2799
▁drug	-2800
itude	-2801
icient	-2802
▁Kyung	-2803
▁cold	-2804
▁audience	-2805
▁message	-2806
▁Agency	-2807
▁club	-2808
bu	-2809
▁picture	-2810
▁avail	-2811
▁October	-2812
▁interpret	-2813
wa	-2814
aughter	-2815
▁dou	-2816
▁trend	-2817
▁Sing	-2818
▁black	-2819
ane	-2820
.1	-2821
▁ahead	-2822
ought	-2823
gle	-2824
yn	-2825
cl	-2826
▁ability	-2827
▁appeared	-2828
utiful	-2829
▁organizations	-2830
quar	-2831
▁achieve	-2832
▁determin	-2833
▁clean	-2834
▁term	-2835
▁commercial	-2836
▁search	-2837
elligence	-2838
▁rapid	-2839
▁driving	-2840
▁negotiations	-2841
▁coming	-2842
▁aim	-2843
ald	-2844
▁loss	-2845
▁date	-2846
▁conven	-2847
▁illegal	-2848
▁credit	-2849
▁instead	-2850
▁ess	-2851
▁risk	-2852
▁experts	-2853
ral	-2854
▁limit	-2855
▁gas	-2856
▁August	-2857
▁modern	-2858
-1	-2859
jeon	-2860
▁ball	-2861
▁Cl	-2862
▁interested	-2863
oud	-2864
▁mot	-2865
▁chall	-2866
mentary	-2867
▁behind	-2868
▁concert	-2869
▁staff	-2870
▁log	-2871
of	-2872
▁wide	-2873
▁beginning	-2874
If	-2875
then	-2876
▁available	-2877
▁charges	-2878
▁pun	-2879
▁becomes	-2880
▁prepared	-2881
icon	-2882
most	-2883
insula	-2884
▁cars	-2885
▁forward	-2886
▁learn	-2887
▁firm	-2888
▁written	-2889
▁actual	-2890
▁reduce	-2891
▁legal	-2892
▁High	-2893
new	-2894
▁emot	-2895
selves	-2896
▁advant	-2897
▁schedule	-2898
▁talks	-2899
▁Russia	-2900
▁platform	-2901
▁emergency	-2902
▁univers	-2903
▁etc	-2904
▁arri	-2905
▁son	-2906
▁State	-2907
▁operating	-2908
▁positive	-2909
ource	-2910
▁Administration	-2911
▁policies	-2912
just	-2913
▁consult	-2914
▁academ	-2915
ask	-2916
▁attack	-2917
▁Land	-2918
▁Me	-2919
ends	-2920
.2	-2921
▁institutions	-2922
▁plant	-2923
▁tried	-2924
▁purpose	-2925
chan	-2926
▁apartment	-2927
aps	-2928
▁blood	-2929
ovember	-2930
▁beautiful	-2931
▁Hall	-2932
▁January	-2933
▁central	-2934
▁strategy	-2935
▁Art	-2936
icial	-2937
▁restaurant	-2938
▁patients	-2939
aves	-2940
▁highest	-2941
▁series	-2942
▁Ab	-2943
▁desc	-2944
▁Fed	-2945
▁atmosphere	-2946
▁carried	-2947
▁purchase	-2948
▁anything	-2949
▁Won	-2950
friend	-2951
lebr	-2952
▁chem	-2953
▁knowledge	-2954
nal	-2955
▁church	-2956
▁2017	-2957
▁foot	-2958
▁status	-2959
30	-2960
icy	-2961
▁access	-2962
▁unique	-2963
▁lect	-2964
▁union	-2965
▁whole	-2966
▁attempt	-2967
▁Med	-2968
rehen	-2969
▁quant	-2970
▁simple	-2971
▁burden	-2972
▁professor	-2973
rim	-2974
cember	-2975
▁summer	-2976
ervation	-2977
5,	-2978
ilies	-2979
▁presidential	-2980
▁Ah	-2981
▁opportunity	-2982
▁strengthen	-2983
▁Soc	-2984
▁sure	-2985
ev	-2986
▁equip	-2987
▁Koreans	-2988
▁carry	-2989
▁manager	-2990
▁reflect	-2991
ode	-2992
▁fast	-2993
▁skin	-2994
know	-2995
pe	-2996
▁execut	-2997
▁Rec	-2998
▁places	-2999
▁considering	-3000
▁board	-3001
▁wrong	-3002
▁stre	-3003
▁cry	-3004
ley	-3005
ji	-3006
▁pack	-3007
▁Feb	-3008
ously	-3009
▁couldn	-3010
▁November	-3011
tainment	-3012
▁prepare	-3013
▁29	-3014
▁hands	-3015
ery	-3016
itting	-3017
▁customer	-3018
Th	-3019
ires	-3020
▁suspic	-3021
iel	-3022
▁least	-3023
▁regulations	-3024
▁agency	-3025
▁science	-3026
▁Cons	-3027
▁estim	-3028
▁evaluation	-3029
▁tick	-3030
▁Oh	-3031
▁Labor	-3032
▁December	-3033
▁Among	-3034
▁professional	-3035
▁wave	-3036
my	-3037
▁concerns	-3038
▁application	-3039
▁sun	-3040
ivity	-3041
▁Many	-3042
▁characteristics	-3043
▁fair	-3044
▁Def	-3045
▁bit	-3046
▁showing	-3047
▁marketing	-3048
▁college	-3049
gart	-3050
▁Jose	-3051
urs	-3052
▁Prof	-3053
▁worth	-3054
asons	-3055
▁award	-3056
▁someone	-3057
▁rice	-3058
iveness	-3059
▁equipment	-3060
▁thinking	-3061
▁launch	-3062
▁holding	-3063
▁Corpor	-3064
heon	-3065
eneral	-3066
▁effects	-3067
▁generation	-3068
▁init	-3069
▁programs	-3070
▁influence	-3071
dergart	-3072
▁link	-3073
ught	-3074
▁entered	-3075
oid	-3076
▁receiving	-3077
hedul	-3078
cle	-3079
▁teachers	-3080
ply	-3081
▁village	-3082
▁vehicle	-3083
▁immediately	-3084
ruary	-3085
▁actually	-3086
▁reduced	-3087
▁families	-3088
▁era	-3089
ban	-3090
▁dead	-3091
▁sleep	-3092
▁corporate	-3093
.3	-3094
▁ways	-3095
▁collect	-3096
▁died	-3097
ables	-3098
▁hall	-3099
▁chance	-3100
ords	-3101
urning	-3102
▁Transport	-3103
▁train	-3104
ao	-3105
▁By	-3106
▁Lot	-3107
▁celebr	-3108
▁disease	-3109
▁resear	-3110
▁demonst	-3111
▁daughter	-3112
▁jour	-3113
▁books	-3114
annel	-3115
▁failed	-3116
▁incident	-3117
▁tele	-3118
ocks	-3119
▁turned	-3120
▁evidence	-3121
▁displ	-3122
▁Na	-3123
▁resol	-3124
▁measure	-3125
▁conflict	-3126
▁coup	-3127
▁smartph	-3128
▁variety	-3129
▁schedul	-3130
athe	-3131
▁earlier	-3132
▁nothing	-3133
▁Buddh	-3134
▁below	-3135
▁aware	-3136
▁trust	-3137
▁distribution	-3138
onom	-3139
▁followed	-3140
▁February	-3141
jeong	-3142
ports	-3143
▁except	-3144
▁sports	-3145
met	-3146
▁Cup	-3147
ivery	-3148
▁choo	-3149
▁satis	-3150
▁Gangwon	-3151
▁dream	-3152
▁paper	-3153
▁Wa	-3154
▁protect	-3155
▁launched	-3156
▁internal	-3157
▁sanctions	-3158
band	-3159
comm	-3160
arant	-3161
▁assault	-3162
ians	-3163
▁release	-3164
▁population	-3165
ropri	-3166
uth	-3167
▁tre	-3168
▁vice	-3169
▁intention	-3170
▁word	-3171
rency	-3172
▁harm	-3173
▁indic	-3174
▁Inf	-3175
▁inspection	-3176
▁usually	-3177
There	-3178
icip	-3179
▁Asia	-3180
sized	-3181
▁repe	-3182
▁Mot	-3183
▁physical	-3184
▁opinions	-3185
si	-3186
▁build	-3187
▁War	-3188
▁drawing	-3189
egr	-3190
▁everything	-3191
▁rat	-3192
▁grand	-3193
ruit	-3194
▁criticism	-3195
▁longer	-3196
atures	-3197
▁sud	-3198
▁involved	-3199
▁governments	-3200
amed	-3201
▁skills	-3202
▁star	-3203
▁stri	-3204
▁sudden	-3205
face	-3206
erous	-3207
▁goods	-3208
▁industries	-3209
▁mach	-3210
▁says	-3211
▁across	-3212
mat	-3213
▁warm	-3214
▁bat	-3215
▁stores	-3216
▁Profess	-3217
izes	-3218
▁Pen	-3219
vere	-3220
▁ever	-3221
▁raise	-3222
▁engine	-3223
reg	-3224
▁worked	-3225
rant	-3226
▁exerc	-3227
▁histor	-3228
▁Ul	-3229
▁brother	-3230
overed	-3231
▁white	-3232
▁caught	-3233
▁hur	-3234
▁table	-3235
▁voice	-3236
▁affairs	-3237
affic	-3238
▁writing	-3239
.8	-3240
erson	-3241
▁repor	-3242
▁degrees	-3243
▁ordered	-3244
▁mentioned	-3245
▁phen	-3246
▁Lotte	-3247
▁occurred	-3248
▁administr	-3249
erce	-3250
.6	-3251
▁cities	-3252
▁properly	-3253
fect	-3254
▁delivery	-3255
▁Tw	-3256
▁excell	-3257
▁remark	-3258
inated	-3259
utional	-3260
reed	-3261
▁ten	-3262
0,000	-3263
▁convers	-3264
▁sett	-3265
▁personnel	-3266
▁eld	-3267
▁Secretary	-3268
rought	-3269
.4	-3270
aly	-3271
▁Jeoll	-3272
ansion	-3273
▁comfort	-3274
aign	-3275
▁themselves	-3276
.7	-3277
▁hom	-3278
▁player	-3279
▁quarter	-3280
▁require	-3281
site	-3282
▁198	-3283
cheong	-3284
▁comprehen	-3285
▁bri	-3286
▁fourth	-3287
▁becoming	-3288
▁Corporation	-3289
2,	-3290
▁tit	-3291
▁highly	-3292
velopment	-3293
quarters	-3294
▁vehicles	-3295
hood	-3296
▁rates	-3297
rew	-3298
related	-3299
▁Son	-3300
▁youth	-3301
▁weather	-3302
▁digital	-3303
▁phenomen	-3304
▁victims	-3305
loyment	-3306
based	-3307
ights	-3308
▁score	-3309
amer	-3310
▁Mayor	-3311
▁Sy	-3312
stances	-3313
▁owners	-3314
▁Are	-3315
▁establishment	-3316
▁prem	-3317
▁Joseon	-3318
▁welfare	-3319
ror	-3320
▁above	-3321
▁researcher	-3322
▁crime	-3323
▁channel	-3324
▁Bo	-3325
▁behav	-3326
▁recommend	-3327
▁completely	-3328
▁Ha	-3329
estern	-3330
▁solve	-3331
▁Ear	-3332
▁entrance	-3333
bon	-3334
▁Defense	-3335
vant	-3336
▁types	-3337
▁document	-3338
▁Emp	-3339
▁box	-3340
▁shopping	-3341
ental	-3342
▁volun	-3343
▁performances	-3344
▁31	-3345
▁seven	-3346
▁practice	-3347
irector	-3348
▁York	-3349
▁From	-3350
▁pet	-3351
▁hair	-3352
▁safe	-3353
▁proceed	-3354
▁dog	-3355
▁Cont	-3356
iversary	-3357
▁everyone	-3358
▁Of	-3359
▁bi	-3360
arily	-3361
level	-3362
▁Vice	-3363
▁Ahn	-3364
▁goes	-3365
▁moved	-3366
dro	-3367
▁Il	-3368
▁issued	-3369
esterday	-3370
chol	-3371
▁East	-3372
▁answer	-3373
▁creating	-3374
▁advertise	-3375
▁yesterday	-3376
ffee	-3377
▁taste	-3378
▁households	-3379
▁weak	-3380
▁reached	-3381
▁conv	-3382
▁Culture	-3383
▁bal	-3384
local	-3385
▁Research	-3386
▁prosecut	-3387
▁almost	-3388
▁Techn	-3389
,”	-3390
▁integr	-3391
ificial	-3392
▁Donald	-3393
sid	-3394
▁mis	-3395
▁Kong	-3396
▁promote	-3397
▁advantage	-3398
▁statement	-3399
▁gold	-3400
▁benefits	-3401
▁adjust	-3402
▁Conf	-3403
ender	-3404
▁limited	-3405
▁Security	-3406
▁evalu	-3407
▁exact	-3408
CT	-3409
useum	-3410
▁suit	-3411
▁letter	-3412
▁expansion	-3413
ming	-3414
▁raising	-3415
▁60	-3416
ighb	-3417
▁factors	-3418
▁documents	-3419
.9	-3420
seok	-3421
▁Why	-3422
▁traffic	-3423
▁depending	-3424
▁spir	-3425
▁virt	-3426
down	-3427
▁teams	-3428
▁surpr	-3429
lim	-3430
▁ill	-3431
▁Blue	-3432
▁restr	-3433
▁relatively	-3434
▁During	-3435
▁Now	-3436
▁especially	-3437
▁Public	-3438
▁giving	-3439
▁Foreign	-3440
▁predicted	-3441
room	-3442
encies	-3443
artments	-3444
round	-3445
▁himself	-3446
▁campaign	-3447
▁European	-3448
▁markets	-3449
▁util	-3450
▁Health	-3451
▁heavy	-3452
▁guarant	-3453
▁basis	-3454
icro	-3455
▁cop	-3456
▁wall	-3457
▁address	-3458
tained	-3459
▁secret	-3460
▁Central	-3461
bum	-3462
▁clothes	-3463
▁relig	-3464
▁negative	-3465
▁huge	-3466
▁correct	-3467
▁popularity	-3468
▁moving	-3469
▁export	-3470
▁reading	-3471
ney	-3472
hwan	-3473
▁Baek	-3474
▁introduce	-3475
▁recognized	-3476
▁sil	-3477
▁winter	-3478
icultural	-3479
▁2019	-3480
▁Invest	-3481
▁brought	-3482
▁hotel	-3483
▁criticized	-3484
aries	-3485
▁normal	-3486
▁despite	-3487
▁transportation	-3488
▁Chief	-3489
▁bott	-3490
▁Des	-3491
▁Sm	-3492
▁forest	-3493
erve	-3494
▁tou	-3495
50	-3496
BS	-3497
▁exceed	-3498
▁hon	-3499
▁soft	-3500
▁cross	-3501
▁threat	-3502
▁emb	-3503
iers	-3504
▁Day	-3505
▁effective	-3506
▁App	-3507
▁cancer	-3508
▁Eun	-3509
▁squ	-3510
▁Year	-3511
▁pick	-3512
usband	-3513
rary	-3514
ids	-3515
ship	-3516
▁unc	-3517
▁prior	-3518
ups	-3519
4,	-3520
▁reach	-3521
▁eight	-3522
▁educational	-3523
▁universities	-3524
iled	-3525
wh	-3526
▁produce	-3527
▁published	-3528
▁consist	-3529
▁(2	-3530
ares	-3531
ynast	-3532
▁select	-3533
▁Professor	-3534
▁intelligence	-3535
▁Union	-3536
▁banks	-3537
▁cy	-3538
▁Tai	-3539
▁century	-3540
▁cat	-3541
urrent	-3542
▁Cultural	-3543
▁computer	-3544
uff	-3545
▁believed	-3546
▁competit	-3547
ologies	-3548
▁anniversary	-3549
▁cook	-3550
▁earth	-3551
▁Law	-3552
▁kindergart	-3553
eria	-3554
▁divided	-3555
omb	-3556
▁surv	-3557
▁formed	-3558
▁scheduled	-3559
isc	-3560
▁Ins	-3561
▁refer	-3562
▁scient	-3563
▁investigating	-3564
atched	-3565
iverse	-3566
▁shown	-3567
▁liter	-3568
▁reasons	-3569
▁understanding	-3570
▁Peninsula	-3571
▁opt	-3572
▁owner	-3573
▁responsibility	-3574
pped	-3575
▁coach	-3576
▁broadcasting	-3577
▁medic	-3578
▁seek	-3579
▁Fr	-3580
idge	-3581
▁excellent	-3582
▁Pre	-3583
scale	-3584
▁classes	-3585
▁reports	-3586
▁Chungcheong	-3587
iconduct	-3588
▁biggest	-3589
▁connect	-3590
eral	-3591
▁eye	-3592
▁hearing	-3593
wide	-3594
▁circum	-3595
▁neighb	-3596
▁Industrial	-3597
▁houses	-3598
▁location	-3599
▁potential	-3600
ivered	-3601
urities	-3602
▁weight	-3603
▁Governor	-3604
▁camer	-3605
▁audit	-3606
▁appearance	-3607
▁encour	-3608
yond	-3609
▁filed	-3610
▁innovation	-3611
luded	-3612
▁posted	-3613
▁stressed	-3614
dr	-3615
▁Taiwan	-3616
▁council	-3617
adium	-3618
▁whose	-3619
ols	-3620
attle	-3621
athered	-3622
▁strength	-3623
▁Ki	-3624
▁rout	-3625
▁range	-3626
▁swe	-3627
▁focused	-3628
▁proposed	-3629
▁foundation	-3630
▁exchang	-3631
▁communic	-3632
▁expenses	-3633
▁lif	-3634
▁agreed	-3635
▁Tour	-3636
▁Mark	-3637
?"	-3638
▁cooper	-3639
▁significantly	-3640
uel	-3641
▁Not	-3642
▁mist	-3643
▁consumer	-3644
OS	-3645
▁article	-3646
▁delivered	-3647
▁Ne	-3648
▁facility	-3649
▁successful	-3650
▁Stud	-3651
▁Gangnam	-3652
▁gathered	-3653
▁manufacturing	-3654
▁appears	-3655
▁prec	-3656
▁defense	-3657
organ	-3658
▁changing	-3659
▁increases	-3660
▁coffee	-3661
▁returned	-3662
1,	-3663
na	-3664
▁Per	-3665
▁fight	-3666
▁Science	-3667
▁gather	-3668
▁husband	-3669
▁surround	-3670
sung	-3671
actions	-3672
▁discount	-3673
▁Col	-3674
pop	-3675
▁organized	-3676
chi	-3677
▁Sam	-3678
ossible	-3679
▁proced	-3680
ropriate	-3681
▁Also	-3682
ynasty	-3683
▁includes	-3684
han	-3685
▁viewers	-3686
▁Special	-3687
▁claimed	-3688
%,	-3689
ule	-3690
▁cells	-3691
▁nar	-3692
iring	-3693
▁protest	-3694
▁arrested	-3695
ression	-3696
▁analyzed	-3697
▁overall	-3698
▁Director	-3699
▁property	-3700
seong	-3701
▁symb	-3702
▁advertising	-3703
▁loans	-3704
▁participation	-3705
more	-3706
▁administrative	-3707
▁served	-3708
ilos	-3709
▁compens	-3710
BC	-3711
aven	-3712
▁journal	-3713
▁difficulties	-3714
3,	-3715
▁expectations	-3716
▁Aust	-3717
▁shar	-3718
▁Hu	-3719
▁presented	-3720
▁actor	-3721
▁green	-3722
▁Represent	-3723
▁wait	-3724
▁movies	-3725
▁Most	-3726
▁violence	-3727
▁although	-3728
▁running	-3729
▁sites	-3730
▁boy	-3731
▁disab	-3732
▁counter	-3733
▁smo	-3734
iplom	-3735
ilosop	-3736
CO	-3737
▁Infrastructure	-3738
▁bag	-3739
emp	-3740
ohn	-3741
anch	-3742
▁extreme	-3743
eech	-3744
▁elementary	-3745
umb	-3746
▁adding	-3747
▁frequently	-3748
▁dism	-3749
▁choice	-3750
▁allowed	-3751
resh	-3752
ush	-3753
▁Br	-3754
▁elections	-3755
▁fee	-3756
▁Iran	-3757
▁impossible	-3758
▁track	-3759
▁candidates	-3760
▁esc	-3761
▁Brit	-3762
▁authority	-3763
▁resources	-3764
▁source	-3765
▁fix	-3766
▁Economic	-3767
oses	-3768
ull	-3769
▁bond	-3770
▁accur	-3771
▁hydro	-3772
▁airport	-3773
▁path	-3774
ped	-3775
myeon	-3776
▁playing	-3777
▁artificial	-3778
▁throughout	-3779
kay	-3780
▁unit	-3781
▁looked	-3782
alled	-3783
▁looks	-3784
▁forced	-3785
▁anti	-3786
liament	-3787
▁continues	-3788
▁punish	-3789
▁Lim	-3790
▁altern	-3791
▁inform	-3792
▁studying	-3793
ulated	-3794
▁dance	-3795
pective	-3796
▁behavior	-3797
▁secretary	-3798
▁consumption	-3799
▁Face	-3800
arding	-3801
▁requested	-3802
▁entertainment	-3803
▁humans	-3804
▁discussion	-3805
▁improvement	-3806
▁fields	-3807
▁background	-3808
▁semiconduct	-3809
upp	-3810
▁70	-3811
ither	-3812
▁activity	-3813
porary	-3814
▁Found	-3815
▁beyond	-3816
▁excess	-3817
▁sale	-3818
▁accomp	-3819
▁subsid	-3820
▁Development	-3821
▁intens	-3822
▁watching	-3823
▁comprehens	-3824
▁forces	-3825
▁Prosecut	-3826
▁Her	-3827
▁Commun	-3828
▁rising	-3829
▁spirit	-3830
201	-3831
▁choose	-3832
▁waiting	-3833
▁restrict	-3834
▁ep	-3835
oes	-3836
unk	-3837
▁strug	-3838
▁investors	-3839
▁SK	-3840
aging	-3841
ori	-3842
erly	-3843
▁rob	-3844
▁hear	-3845
ties	-3846
▁regional	-3847
▁killed	-3848
▁drop	-3849
chang	-3850
▁wish	-3851
▁promotion	-3852
imate	-3853
▁expression	-3854
▁driver	-3855
▁division	-3856
▁solution	-3857
▁metropolitan	-3858
▁pit	-3859
▁mainly	-3860
iated	-3861
▁door	-3862
▁quite	-3863
▁session	-3864
▁philosop	-3865
▁constant	-3866
▁majority	-3867
ube	-3868
▁gap	-3869
etic	-3870
▁sharing	-3871
▁Finance	-3872
▁300	-3873
▁pros	-3874
▁gradu	-3875
▁songs	-3876
▁Kwon	-3877
▁submitted	-3878
▁weap	-3879
het	-3880
▁broke	-3881
▁Daejeon	-3882
osure	-3883
ronic	-3884
▁write	-3885
▁demonstr	-3886
▁speech	-3887
▁categ	-3888
As	-3889
gery	-3890
uman	-3891
▁explain	-3892
▁annual	-3893
▁secure	-3894
▁improved	-3895
▁newsp	-3896
▁bought	-3897
▁autonom	-3898
▁proport	-3899
lymp	-3900
▁subsc	-3901
▁provides	-3902
▁expanding	-3903
▁suspected	-3904
osal	-3905
▁ratio	-3906
▁holiday	-3907
▁500	-3908
chain	-3909
orial	-3910
▁dramas	-3911
▁studies	-3912
▁abroad	-3913
▁severe	-3914
▁carbon	-3915
▁prison	-3916
▁introduction	-3917
▁speak	-3918
▁mix	-3919
▁brok	-3920
▁Every	-3921
urrently	-3922
▁participants	-3923
▁Ho	-3924
acity	-3925
apore	-3926
▁mountain	-3927
ears	-3928
▁lun	-3929
▁branch	-3930
where	-3931
▁cover	-3932
▁truth	-3933
▁Hye	-3934
▁More	-3935
▁contains	-3936
▁mathe	-3937
▁theme	-3938
▁qual	-3939
▁allows	-3940
inner	-3941
▁Industry	-3942
▁Olymp	-3943
▁films	-3944
▁General	-3945
▁conserv	-3946
gment	-3947
▁poll	-3948
▁Woo	-3949
▁finished	-3950
▁max	-3951
▁diplom	-3952
▁however	-3953
▁photos	-3954
▁rapidly	-3955
▁selling	-3956
▁warrant	-3957
▁ult	-3958
▁brief	-3959
▁Facebook	-3960
amb	-3961
▁closed	-3962
nces	-3963
▁developing	-3964
▁Singapore	-3965
▁Da	-3966
▁crim	-3967
▁elements	-3968
▁fully	-3969
▁essential	-3970
resp	-3971
▁ple	-3972
▁newly	-3973
▁discovered	-3974
order	-3975
▁details	-3976
asion	-3977
▁nearby	-3978
back	-3979
▁responsible	-3980
▁judge	-3981
▁approval	-3982
▁standards	-3983
▁emphasized	-3984
▁Inst	-3985
▁external	-3986
▁ec	-3987
▁His	-3988
ipped	-3989
▁style	-3990
▁expanded	-3991
▁recorded	-3992
mine	-3993
▁leaving	-3994
▁Foundation	-3995
▁technologies	-3996
ifying	-3997
..	-3998
▁ir	-3999
▁artists	-4000
▁Technology	-4001
▁born	-4002
▁assess	-4003
▁diagn	-4004
▁avoid	-4005
outhern	-4006
▁methods	-4007
▁repeated	-4008
pro	-4009
▁joined	-4010
▁rating	-4011
▁wonder	-4012
▁shape	-4013
▁finish	-4014
▁dollars	-4015
▁arr	-4016
▁Hee	-4017
anks	-4018
▁preparing	-4019
',	-4020
▁Food	-4021
▁visiting	-4022
▁Church	-4023
▁headquarters	-4024
evit	-4025
▁challeng	-4026
▁accounting	-4027
iced	-4028
▁maintain	-4029
▁har	-4030
▁depos	-4031
▁Airport	-4032
▁advanced	-4033
▁prob	-4034
▁acting	-4035
ashion	-4036
okes	-4037
▁affect	-4038
▁lay	-4039
▁earn	-4040
▁characters	-4041
▁Jo	-4042
gent	-4043
▁psy	-4044
▁effort	-4045
▁Int	-4046
▁inevit	-4047
▁fundament	-4048
▁reportedly	-4049
▁LG	-4050
▁Phil	-4051
▁arrived	-4052
▁tourists	-4053
▁reduction	-4054
rote	-4055
▁replace	-4056
▁fresh	-4057
aded	-4058
▁origin	-4059
▁perfect	-4060
▁urban	-4061
▁pattern	-4062
▁River	-4063
ded	-4064
▁dang	-4065
▁planned	-4066
▁resident	-4067
istance	-4068
▁street	-4069
▁cos	-4070
▁reject	-4071
▁eventually	-4072
▁lecture	-4073
▁separate	-4074
iliar	-4075
urally	-4076
▁creation	-4077
▁announcement	-4078
hye	-4079
▁AI	-4080
▁seemed	-4081
▁stocks	-4082
▁operated	-4083
ole	-4084
▁enh	-4085
▁calcul	-4086
▁systems	-4087
ruption	-4088
▁implemented	-4089
▁explan	-4090
▁records	-4091
bit	-4092
▁Pyong	-4093
▁taxi	-4094
▁wants	-4095
▁historical	-4096
▁employee	-4097
▁gradually	-4098
jo	-4099
▁accidents	-4100
amm	-4101
illa	-4102
▁lat	-4103
▁decline	-4104
oration	-4105
▁principle	-4106
▁agr	-4107
rec	-4108
▁bab	-4109
▁wrote	-4110
▁signed	-4111
▁province	-4112
▁Par	-4113
▁winning	-4114
▁worried	-4115
▁dro	-4116
▁surgery	-4117
▁designated	-4118
▁determined	-4119
9,	-4120
▁king	-4121
▁regions	-4122
▁stories	-4123
▁Mus	-4124
▁participating	-4125
jung	-4126
▁values	-4127
▁Republic	-4128
▁chemical	-4129
▁independence	-4130
igation	-4131
▁else	-4132
ampions	-4133
yer	-4134
▁Federation	-4135
▁sup	-4136
▁initial	-4137
isory	-4138
▁older	-4139
▁appeal	-4140
▁constit	-4141
▁Goo	-4142
▁sister	-4143
▁spring	-4144
▁ox	-4145
suit	-4146
ada	-4147
tae	-4148
▁hor	-4149
▁suc	-4150
▁adop	-4151
▁Byung	-4152
▁remains	-4153
▁phenomenon	-4154
hwa	-4155
any	-4156
▁core	-4157
itation	-4158
▁provincial	-4159
▁lawmakers	-4160
ram	-4161
▁lic	-4162
▁eating	-4163
▁Hae	-4164
▁soccer	-4165
▁duty	-4166
▁Thank	-4167
▁Indones	-4168
mir	-4169
icious	-4170
▁describ	-4171
▁weeks	-4172
▁feeling	-4173
draw	-4174
▁beauty	-4175
▁respectively	-4176
▁refers	-4177
▁vacation	-4178
▁2,	-4179
iate	-4180
▁Our	-4181
▁mer	-4182
▁Austral	-4183
eed	-4184
▁shoot	-4185
▁figure	-4186
▁singer	-4187
▁pm	-4188
▁adult	-4189
▁connection	-4190
▁2015	-4191
▁spot	-4192
▁plants	-4193
▁lik	-4194
▁album	-4195
men	-4196
▁Due	-4197
▁causing	-4198
▁finding	-4199
▁protection	-4200
olf	-4201
▁cool	-4202
▁experiment	-4203
lus	-4204
▁passeng	-4205
▁succeed	-4206
▁vari	-4207
▁pictures	-4208
▁Yu	-4209
cont	-4210
▁unlike	-4211
▁clearly	-4212
▁installed	-4213
bed	-4214
▁rail	-4215
▁flu	-4216
▁email	-4217
ugg	-4218
iciency	-4219
▁League	-4220
▁section	-4221
▁Count	-4222
▁suffering	-4223
▁elderly	-4224
▁parliament	-4225
ios	-4226
▁lived	-4227
▁ing	-4228
▁democr	-4229
isted	-4230
▁pension	-4231
▁Net	-4232
▁deliver	-4233
erved	-4234
▁seats	-4235
▁greatly	-4236
▁assets	-4237
▁suffered	-4238
▁convenience	-4239
▁mag	-4240
▁delayed	-4241
lies	-4242
enture	-4243
▁ideas	-4244
ightly	-4245
▁exercise	-4246
▁fal	-4247
▁Wave	-4248
▁America	-4249
▁happened	-4250
▁capt	-4251
illing	-4252
ription	-4253
▁profits	-4254
▁dark	-4255
▁Regarding	-4256
▁gift	-4257
▁providing	-4258
▁discl	-4259
▁named	-4260
▁ones	-4261
▁bed	-4262
▁exports	-4263
▁serve	-4264
▁Sejong	-4265
▁conver	-4266
ented	-4267
atically	-4268
▁Saf	-4269
▁website	-4270
▁Rev	-4271
▁Dis	-4272
▁anyone	-4273
▁transl	-4274
▁factory	-4275
▁Hot	-4276
▁busy	-4277
▁prim	-4278
eneration	-4279
▁extra	-4280
▁symbol	-4281
▁Through	-4282
▁academic	-4283
▁devices	-4284
▁hydrogen	-4285
▁mathemat	-4286
▁Pyongyang	-4287
mpt	-4288
care	-4289
exic	-4290
▁fan	-4291
▁myself	-4292
▁units	-4293
▁alleged	-4294
▁Christian	-4295
▁Dynasty	-4296
▁tourism	-4297
▁197	-4298
▁career	-4299
▁volume	-4300
▁offer	-4301
▁shared	-4302
ops	-4303
▁ded	-4304
tery	-4305
▁202	-4306
▁reb	-4307
▁Anne	-4308
ards	-4309
▁suspect	-4310
mon	-4311
▁brain	-4312
▁withdraw	-4313
overy	-4314
▁revision	-4315
▁independent	-4316
▁News	-4317
▁rose	-4318
▁learned	-4319
▁multip	-4320
▁contain	-4321
▁discussed	-4322
dom	-4323
▁schol	-4324
▁device	-4325
standing	-4326
▁concern	-4327
▁performed	-4328
▁recommended	-4329
isl	-4330
▁0.	-4331
ius	-4332
▁0	-4333
sun	-4334
▁task	-4335
rs	-4336
▁Market	-4337
▁attitude	-4338
▁focusing	-4339
▁Currently	-4340
China	-4341
house	-4342
▁blue	-4343
▁crow	-4344
▁France	-4345
▁healthy	-4346
▁approach	-4347
▁Sports	-4348
▁feature	-4349
▁distance	-4350
▁micro	-4351
▁flight	-4352
▁politics	-4353
▁visitors	-4354
▁appropriate	-4355
ength	-4356
▁shot	-4357
mun	-4358
▁remarks	-4359
▁Hospital	-4360
▁coast	-4361
▁Sw	-4362
▁Roh	-4363
▁Ulsan	-4364
▁decrease	-4365
▁Dec	-4366
▁shock	-4367
▁counsel	-4368
▁comprehensive	-4369
▁expensive	-4370
▁caf	-4371
orthern	-4372
▁operate	-4373
hae	-4374
▁agencies	-4375
▁disaster	-4376
▁buildings	-4377
▁Bra	-4378
▁fat	-4379
aches	-4380
▁laws	-4381
▁stone	-4382
▁Myung	-4383
amples	-4384
iences	-4385
off	-4386
▁Pa	-4387
▁fees	-4388
▁liqu	-4389
▁Mexic	-4390
▁simply	-4391
▁lawmaker	-4392
ux	-4393
▁Last	-4394
med	-4395
iction	-4396
▁designed	-4397
coming	-4398
▁surface	-4399
▁determine	-4400
▁finally	-4401
▁patient	-4402
▁remaining	-4403
onent	-4404
▁ended	-4405
▁mission	-4406
▁attached	-4407
▁connected	-4408
▁Kak	-4409
▁leadership	-4410
▁eth	-4411
isions	-4412
▁index	-4413
▁ordinary	-4414
▁entering	-4415
▁remember	-4416
▁Environment	-4417
▁Chun	-4418
ranch	-4419
▁nice	-4420
▁Business	-4421
▁stable	-4422
▁appointed	-4423
▁Mal	-4424
▁capacity	-4425
▁medicine	-4426
▁estimated	-4427
known	-4428
▁join	-4429
▁Cheon	-4430
▁arch	-4431
▁standing	-4432
▁sometimes	-4433
▁circumstances	-4434
▁Form	-4435
▁talking	-4436
▁consecut	-4437
▁Car	-4438
▁blockchain	-4439
▁affected	-4440
▁Move	-4441
▁sympt	-4442
mi	-4443
▁cru	-4444
▁Complex	-4445
umn	-4446
▁novel	-4447
▁investigate	-4448
▁pret	-4449
▁print	-4450
▁corresp	-4451
▁Mid	-4452
lusion	-4453
▁paying	-4454
▁suddenly	-4455
▁ens	-4456
▁features	-4457
7,	-4458
▁painting	-4459
▁decreased	-4460
orough	-4461
▁actors	-4462
▁magn	-4463
rench	-4464
oday	-4465
▁Tur	-4466
▁title	-4467
▁Google	-4468
▁resign	-4469
▁tend	-4470
▁dinner	-4471
▁perspective	-4472
ilding	-4473
▁Games	-4474
▁belong	-4475
▁rental	-4476
8,	-4477
iles	-4478
▁guid	-4479
▁memory	-4480
▁supported	-4481
NS	-4482
▁Recently	-4483
▁perm	-4484
▁filled	-4485
▁premium	-4486
▁environmental	-4487
sts	-4488
▁Safety	-4489
ancing	-4490
▁camera	-4491
▁Welfare	-4492
▁imag	-4493
▁requires	-4494
▁-	-4495
ands	-4496
▁Deputy	-4497
▁aspect	-4498
▁governor	-4499
▁smartphone	-4500
▁stopped	-4501
ites	-4502
▁male	-4503
▁fa	-4504
▁stra	-4505
▁meant	-4506
▁KT	-4507
ij	-4508
vent	-4509
▁stated	-4510
▁experienced	-4511
▁Representative	-4512
▁missing	-4513
▁solid	-4514
▁tariff	-4515
orks	-4516
ki	-4517
▁Ac	-4518
aints	-4519
▁spend	-4520
▁compensation	-4521
▁subst	-4522
eo	-4523
pected	-4524
lying	-4525
istered	-4526
TS	-4527
▁(3	-4528
▁falling	-4529
▁machine	-4530
▁fashion	-4531
▁soldiers	-4532
eun	-4533
▁scen	-4534
▁double	-4535
asks	-4536
▁file	-4537
▁snow	-4538
▁suggested	-4539
▁island	-4540
▁sn	-4541
▁wood	-4542
▁asking	-4543
▁contest	-4544
person	-4545
▁stress	-4546
▁younger	-4547
▁gets	-4548
▁mole	-4549
▁user	-4550
▁Movement	-4551
▁functions	-4552
▁interesting	-4553
▁rare	-4554
▁rule	-4555
▁Award	-4556
▁animals	-4557
yeo	-4558
▁80	-4559
▁doub	-4560
▁ingred	-4561
▁anc	-4562
▁consc	-4563
▁psych	-4564
▁waste	-4565
▁consecutive	-4566
▁wearing	-4567
▁hop	-4568
▁grade	-4569
▁spent	-4570
▁straight	-4571
▁competitiveness	-4572
This	-4573
ript	-4574
▁calls	-4575
▁false	-4576
▁worry	-4577
▁remain	-4578
▁interests	-4579
ler	-4580
▁id	-4581
▁accepted	-4582
▁lines	-4583
▁destro	-4584
▁listen	-4585
▁calling	-4586
▁reporters	-4587
▁clos	-4588
inite	-4589
▁ticket	-4590
itness	-4591
▁Heung	-4592
▁retire	-4593
▁notice	-4594
▁causes	-4595
▁sad	-4596
▁Social	-4597
▁meaningful	-4598
▁196	-4599
▁Seok	-4600
▁criminal	-4601
zil	-4602
icken	-4603
▁debt	-4604
▁touch	-4605
.-	-4606
▁recruit	-4607
gy	-4608
ote	-4609
▁images	-4610
▁disabled	-4611
agon	-4612
▁monit	-4613
▁factor	-4614
▁thorough	-4615
NA	-4616
▁Jud	-4617
▁occup	-4618
▁victory	-4619
▁Mountain	-4620
▁fishing	-4621
▁officer	-4622
▁judgment	-4623
▁Str	-4624
oices	-4625
nings	-4626
▁freed	-4627
▁desire	-4628
▁ign	-4629
▁actions	-4630
jae	-4631
▁loan	-4632
▁town	-4633
▁rules	-4634
▁Russian	-4635
▁weekend	-4636
▁Soo	-4637
▁meters	-4638
▁detailed	-4639
▁Aut	-4640
▁deputy	-4641
▁regardless	-4642
▁allegations	-4643
au	-4644
hel	-4645
▁India	-4646
▁placed	-4647
▁Did	-4648
ield	-4649
▁vers	-4650
▁Motor	-4651
▁parking	-4652
tr	-4653
▁Att	-4654
▁crypt	-4655
▁liber	-4656
ography	-4657
▁Life	-4658
▁manip	-4659
▁interpreted	-4660
▁uses	-4661
▁punishment	-4662
▁electricity	-4663
▁prefer	-4664
▁diseases	-4665
▁conversation	-4666
▁shares	-4667
▁practical	-4668
▁wel	-4669
▁sides	-4670
▁arts	-4671
▁stars	-4672
▁French	-4673
oned	-4674
▁Human	-4675
.0	-4676
▁seat	-4677
▁baseball	-4678
▁Ro	-4679
▁decide	-4680
▁Western	-4681
no	-4682
▁kept	-4683
▁faith	-4684
coh	-4685
▁Former	-4686
▁window	-4687
▁concerned	-4688
▁accum	-4689
▁willing	-4690
▁Hotel	-4691
▁Fil	-4692
▁alg	-4693
▁ang	-4694
riage	-4695
▁alternative	-4696
▁manage	-4697
▁thanks	-4698
areun	-4699
▁nine	-4700
▁videos	-4701
▁accused	-4702
ses	-4703
▁restaurants	-4704
▁cash	-4705
▁Could	-4706
▁nom	-4707
▁models	-4708
▁centers	-4709
osis	-4710
cohol	-4711
▁Fair	-4712
▁Brazil	-4713
▁doctor	-4714
▁Af	-4715
▁Bu	-4716
▁amb	-4717
▁.	-4718
▁hab	-4719
▁wid	-4720
▁Work	-4721
raft	-4722
▁kil	-4723
▁ven	-4724
right	-4725
aft	-4726
▁Sat	-4727
▁bul	-4728
▁dial	-4729
▁Today	-4730
▁infrastructure	-4731
IS	-4732
▁defe	-4733
▁Under	-4734
key	-4735
▁Pal	-4736
▁lose	-4737
▁unable	-4738
▁forecast	-4739
loyed	-4740
ipping	-4741
▁Organ	-4742
▁guest	-4743
▁reflected	-4744
▁gives	-4745
▁topic	-4746
▁overcome	-4747
%.	-4748
▁theater	-4749
10	-4750
North	-4751
▁glass	-4752
quality	-4753
▁Unlike	-4754
▁affili	-4755
▁Bar	-4756
▁Kakao	-4757
▁goals	-4758
▁commission	-4759
▁colors	-4760
imb	-4761
▁catch	-4762
▁frame	-4763
▁Bareun	-4764
▁argued	-4765
▁musical	-4766
heast	-4767
▁leak	-4768
ny	-4769
▁meal	-4770
▁apartments	-4771
undred	-4772
enge	-4773
▁cosmet	-4774
▁resc	-4775
▁sentenced	-4776
▁British	-4777
▁Mong	-4778
▁rein	-4779
▁experiences	-4780
▁purs	-4781
▁Peace	-4782
▁relevant	-4783
▁symptoms	-4784
▁importance	-4785
ocur	-4786
▁pan	-4787
asure	-4788
bok	-4789
▁battle	-4790
▁executives	-4791
▁semiconductor	-4792
6,	-4793
itect	-4794
▁baby	-4795
▁hosted	-4796
apt	-4797
▁apprec	-4798
▁judges	-4799
▁display	-4800
▁twice	-4801
▁Prosecutors	-4802
▁subjects	-4803
▁excessive	-4804
sik	-4805
▁Mon	-4806
▁minute	-4807
apers	-4808
called	-4809
▁happen	-4810
▁drawn	-4811
▁heads	-4812
▁rich	-4813
▁comments	-4814
eter	-4815
▁vote	-4816
▁couple	-4817
▁occurs	-4818
▁freedom	-4819
▁renew	-4820
▁balance	-4821
▁naturally	-4822
▁unfair	-4823
▁revised	-4824
▁individuals	-4825
▁Sea	-4826
verse	-4827
▁Your	-4828
▁sending	-4829
▁Management	-4830
ui	-4831
▁Where	-4832
▁trading	-4833
▁sentence	-4834
▁Provincial	-4835
AT	-4836
▁percept	-4837
ogue	-4838
▁Employment	-4839
mark	-4840
▁Start	-4841
▁bottom	-4842
▁pray	-4843
▁Despite	-4844
▁collabor	-4845
▁screening	-4846
commun	-4847
▁stead	-4848
▁improving	-4849
▁discussions	-4850
ero	-4851
▁emerged	-4852
▁enterpr	-4853
▁construct	-4854
vious	-4855
▁thous	-4856
▁Addition	-4857
▁Port	-4858
▁combined	-4859
%)	-4860
▁sky	-4861
▁Inter	-4862
holders	-4863
▁Doo	-4864
▁drunk	-4865
▁Middle	-4866
aling	-4867
▁master	-4868
▁Hol	-4869
▁subway	-4870
▁difficulty	-4871
▁preparation	-4872
▁ge	-4873
▁fear	-4874
▁trou	-4875
▁prize	-4876
oph	-4877
▁breat	-4878
▁either	-4879
law	-4880
mirae	-4881
▁scale	-4882
▁County	-4883
▁broken	-4884
▁Buddhist	-4885
▁implementation	-4886
wha	-4887
▁ice	-4888
▁taxes	-4889
faction	-4890
ulum	-4891
▁monthly	-4892
▁i	-4893
▁isn	-4894
inate	-4895
▁electr	-4896
▁mouth	-4897
▁surrounding	-4898
ancy	-4899
▁petition	-4900
▁Har	-4901
idering	-4902
▁Bang	-4903
▁tree	-4904
▁explanation	-4905
Japan	-4906
▁legisl	-4907
▁favorite	-4908
▁innovative	-4909
▁prosecutor	-4910
▁reservation	-4911
free	-4912
▁Line	-4913
▁Women	-4914
▁comment	-4915
▁proposal	-4916
istration	-4917
▁evening	-4918
ees	-4919
▁runs	-4920
▁rooms	-4921
▁orders	-4922
▁dismiss	-4923
▁cryptocur	-4924
ulate	-4925
works	-4926
uations	-4927
▁Tourism	-4928
▁powerful	-4929
iling	-4930
ster	-4931
▁identity	-4932
▁conservative	-4933
▁opportunities	-4934
▁struct	-4935
▁closely	-4936
▁consideration	-4937
▁incon	-4938
▁plays	-4939
▁spons	-4940
▁fundamental	-4941
▁debate	-4942
▁alcohol	-4943
▁greater	-4944
▁crimes	-4945
▁ranked	-4946
▁Insurance	-4947
▁presentation	-4948
ingu	-4949
upper	-4950
▁meat	-4951
▁fixed	-4952
▁selection	-4953
▁manufacture	-4954
▁SM	-4955
▁Geun	-4956
ino	-4957
▁push	-4958
▁mechan	-4959
▁checked	-4960
▁Hak	-4961
▁pref	-4962
▁satisf	-4963
struction	-4964
▁nationwide	-4965
▁penal	-4966
▁Joon	-4967
▁regret	-4968
▁seeing	-4969
▁Vill	-4970
▁manner	-4971
ellow	-4972
umm	-4973
▁strongly	-4974
▁YouT	-4975
▁laugh	-4976
lin	-4977
aved	-4978
▁declaration	-4979
▁Only	-4980
▁upper	-4981
otion	-4982
▁army	-4983
▁kinds	-4984
▁articles	-4985
▁failure	-4986
af	-4987
▁loved	-4988
▁executive	-4989
▁feelings	-4990
▁examination	-4991
iors	-4992
▁ath	-4993
▁colon	-4994
▁reven	-4995
▁Museum	-4996
▁married	-4997
▁Geum	-4998
▁abol	-4999
▁White	-5000
▁creat	-5001
▁Pyeong	-5002
▁revolution	-5003
▁slightly	-5004
▁ran	-5005
▁command	-5006
ei	-5007
▁Yeon	-5008
▁haven	-5009
▁composed	-5010
▁Tem	-5011
aped	-5012
▁lawsuit	-5013
▁West	-5014
▁names	-5015
imately	-5016
▁square	-5017
▁currency	-5018
▁drugs	-5019
▁southern	-5020
▁teaching	-5021
▁foreigners	-5022
▁suspicion	-5023
▁appointment	-5024
ifth	-5025
raud	-5026
▁refuge	-5027
▁Philipp	-5028
taining	-5029
▁scored	-5030
ext	-5031
▁Si	-5032
▁Securities	-5033
▁35	-5034
▁Gim	-5035
▁Head	-5036
▁lunch	-5037
▁volunte	-5038
▁certific	-5039
▁Dr	-5040
type	-5041
▁Was	-5042
aters	-5043
▁trees	-5044
▁Koreas	-5045
▁flex	-5046
US	-5047
▁diss	-5048
apped	-5049
▁drinking	-5050
osy	-5051
ensive	-5052
▁paint	-5053
riculum	-5054
▁claims	-5055
▁prelim	-5056
▁newspaper	-5057
▁minor	-5058
▁reducing	-5059
rol	-5060
▁compar	-5061
▁inconven	-5062
▁thank	-5063
▁injured	-5064
▁promoted	-5065
▁agricultural	-5066
gang	-5067
iece	-5068
▁wasn	-5069
▁tired	-5070
▁thoughts	-5071
oke	-5072
▁Earth	-5073
▁crack	-5074
▁damaged	-5075
▁guarantee	-5076
▁transform	-5077
▁via	-5078
▁justice	-5079
▁exchanges	-5080
irect	-5081
▁foods	-5082
▁hundred	-5083
▁shut	-5084
▁registered	-5085
ky	-5086
▁anx	-5087
ervisory	-5088
▁differences	-5089
▁pow	-5090
vered	-5091
▁throw	-5092
▁concentration	-5093
▁Exper	-5094
▁signs	-5095
▁okay	-5096
▁Enter	-5097
▁smooth	-5098
▁Yi	-5099
▁mur	-5100
▁numerous	-5101
ido	-5102
▁2014	-5103
▁mill	-5104
▁putting	-5105
nes	-5106
▁mut	-5107
▁atom	-5108
▁numbers	-5109
ampionship	-5110
umed	-5111
orith	-5112
▁distin	-5113
▁setting	-5114
▁creative	-5115
▁Additionally	-5116
▁dispute	-5117
ading	-5118
▁bound	-5119
▁flag	-5120
▁Second	-5121
▁honor	-5122
▁refund	-5123
▁believes	-5124
▁Pri	-5125
idden	-5126
allyu	-5127
▁regime	-5128
king	-5129
▁dry	-5130
▁Star	-5131
▁copy	-5132
▁Child	-5133
▁dow	-5134
▁Village	-5135
▁passion	-5136
▁parliamentary	-5137
▁Indonesia	-5138
▁attending	-5139
ox	-5140
▁kn	-5141
▁rum	-5142
▁tro	-5143
odies	-5144
ellect	-5145
▁representatives	-5146
▁fer	-5147
▁multiple	-5148
▁Im	-5149
▁Mi	-5150
▁gain	-5151
▁leads	-5152
▁philosophy	-5153
place	-5154
▁degree	-5155
▁follows	-5156
▁narrow	-5157
▁religious	-5158
▁marriage	-5159
▁registration	-5160
'.	-5161
osystem	-5162
▁Policy	-5163
▁corporation	-5164
▁save	-5165
▁Grand	-5166
▁Canada	-5167
▁Constit	-5168
▁existence	-5169
jun	-5170
▁Joo	-5171
▁knew	-5172
▁lab	-5173
▁clin	-5174
▁exclus	-5175
▁proportion	-5176
eor	-5177
ibrary	-5178
▁ready	-5179
▁depart	-5180
▁mostly	-5181
seo	-5182
▁pushed	-5183
▁walking	-5184
▁supporting	-5185
▁Bareunmirae	-5186
▁(4	-5187
▁achieved	-5188
▁preliminary	-5189
▁stab	-5190
2.	-5191
ym	-5192
zz	-5193
▁Pan	-5194
▁Pomp	-5195
▁downt	-5196
▁figures	-5197
agers	-5198
asters	-5199
▁entry	-5200
Pop	-5201
iform	-5202
hol	-5203
▁bright	-5204
itter	-5205
aph	-5206
andal	-5207
▁assign	-5208
▁plastic	-5209
▁treated	-5210
▁committed	-5211
▁Tok	-5212
▁zone	-5213
▁earnest	-5214
▁previously	-5215
neung	-5216
▁prime	-5217
▁borrow	-5218
▁Hw	-5219
icted	-5220
▁nearly	-5221
▁collection	-5222
▁fuel	-5223
utical	-5224
▁temporary	-5225
▁reaction	-5226
▁immig	-5227
▁lawyer	-5228
▁continuously	-5229
▁2016,	-5230
sa	-5231
▁SNS	-5232
▁mall	-5233
expected	-5234
▁watched	-5235
▁confidence	-5236
▁fraud	-5237
▁mixed	-5238
look	-5239
▁drive	-5240
▁transactions	-5241
▁Energy	-5242
▁About	-5243
▁termin	-5244
▁Malays	-5245
▁covered	-5246
iance	-5247
▁2020	-5248
▁animal	-5249
▁applying	-5250
asant	-5251
▁nerv	-5252
▁ensure	-5253
onents	-5254
▁weapons	-5255
endent	-5256
▁guard	-5257
▁passing	-5258
run	-5259
▁der	-5260
▁venue	-5261
▁helped	-5262
▁listed	-5263
▁discrim	-5264
▁cast	-5265
▁tasks	-5266
▁Mexico	-5267
▁familiar	-5268
▁judicial	-5269
▁ecosystem	-5270
door	-5271
▁north	-5272
▁visual	-5273
▁instruct	-5274
▁architect	-5275
▁Mond	-5276
▁tickets	-5277
iculture	-5278
▁regulation	-5279
▁fierce	-5280
ilk	-5281
▁Apple	-5282
▁Jes	-5283
▁epis	-5284
▁realized	-5285
▁partners	-5286
▁retirement	-5287
▁Sim	-5288
onding	-5289
▁abuse	-5290
He	-5291
itage	-5292
under	-5293
▁homes	-5294
▁chicken	-5295
▁distributed	-5296
chul	-5297
▁hurt	-5298
▁multi	-5299
▁Australia	-5300
▁delay	-5301
uration	-5302
▁strike	-5303
▁algorith	-5304
▁90	-5305
osite	-5306
▁ingredients	-5307
▁exposed	-5308
▁BTS	-5309
▁grew	-5310
▁stim	-5311
▁YouTube	-5312
▁deposit	-5313
ador	-5314
▁rock	-5315
▁curriculum	-5316
▁recognition	-5317
▁cryptocurrency	-5318
▁Em	-5319
▁1,000	-5320
▁mayor	-5321
▁emerging	-5322
▁(5	-5323
▁anticip	-5324
▁collected	-5325
▁Agr	-5326
armace	-5327
▁quantum	-5328
▁suspended	-5329
▁convention	-5330
▁communicate	-5331
▁enjoyed	-5332
armaceutical	-5333
▁transaction	-5334
ograph	-5335
▁length	-5336
▁uncert	-5337
▁secured	-5338
▁scholars	-5339
▁Considering	-5340
part	-5341
▁identified	-5342
▁menu	-5343
▁Information	-5344
rep	-5345
▁prote	-5346
▁artist	-5347
▁maximum	-5348
▁Dan	-5349
▁amid	-5350
▁band	-5351
okesman	-5352
▁witness	-5353
▁Prom	-5354
▁worker	-5355
sing	-5356
▁golf	-5357
▁mart	-5358
forcement	-5359
pass	-5360
▁radio	-5361
wook	-5362
inance	-5363
▁accel	-5364
▁judged	-5365
▁elected	-5366
▁uniform	-5367
▁autonomous	-5368
bre	-5369
▁tim	-5370
▁jump	-5371
▁Academ	-5372
▁Buddhism	-5373
▁directors	-5374
▁conclusion	-5375
▁efficiency	-5376
▁maintained	-5377
When	-5378
urday	-5379
▁Jesus	-5380
▁south	-5381
set	-5382
▁Four	-5383
▁latest	-5384
inter	-5385
istan	-5386
tenance	-5387
▁elim	-5388
▁realize	-5389
▁pra	-5390
▁Here	-5391
▁widely	-5392
▁farmers	-5393
▁Olympics	-5394
point	-5395
luding	-5396
▁waves	-5397
▁license	-5398
▁Suwon	-5399
▁association	-5400
▁Hy	-5401
▁commem	-5402
▁kindergartens	-5403
stood	-5404
▁mental	-5405
▁nations	-5406
▁attracting	-5407
▁mount	-5408
▁scope	-5409
▁stance	-5410
▁birthday	-5411
▁mel	-5412
▁bact	-5413
regular	-5414
thening	-5415
▁Economy	-5416
▁researchers	-5417
son	-5418
▁offered	-5419
▁happiness	-5420
▁route	-5421
▁accord	-5422
▁carefully	-5423
friendly	-5424
▁resolve	-5425
▁iron	-5426
▁advertisements	-5427
obile	-5428
▁grown	-5429
▁Supp	-5430
▁Would	-5431
▁strugg	-5432
▁diplomatic	-5433
▁burn	-5434
▁sick	-5435
▁linked	-5436
▁transm	-5437
▁emotions	-5438
▁feed	-5439
▁accounts	-5440
▁channels	-5441
▁cosmetics	-5442
▁urgent	-5443
▁admission	-5444
▁conflicts	-5445
▁convenient	-5446
gg	-5447
kyung	-5448
ygen	-5449
▁San	-5450
▁pal	-5451
acing	-5452
▁Based	-5453
▁Cheonan	-5454
ma	-5455
▁Afric	-5456
▁Temple	-5457
eting	-5458
▁aimed	-5459
▁Monday	-5460
▁towards	-5461
▁challenge	-5462
▁officially	-5463
▁yourself	-5464
▁recognize	-5465
joon	-5466
▁gate	-5467
▁sharp	-5468
▁awareness	-5469
▁bow	-5470
craft	-5471
▁Girl	-5472
▁Jeolla	-5473
▁deliber	-5474
▁technical	-5475
long	-5476
▁combination	-5477
▁tourist	-5478
ellectual	-5479
▁promoting	-5480
eorological	-5481
eces	-5482
▁Coop	-5483
▁Sohn	-5484
▁enth	-5485
▁Another	-5486
▁destroy	-5487
▁electronic	-5488
▁advertisement	-5489
▁height	-5490
▁benefit	-5491
▁checking	-5492
▁textbook	-5493
▁boo	-5494
▁teen	-5495
▁Power	-5496
▁Friday	-5497
▁typhoon	-5498
▁spr	-5499
▁wors	-5500
edding	-5501
ledged	-5502
eared	-5503
Wh	-5504
mar	-5505
▁Ste	-5506
▁plane	-5507
▁statistics	-5508
0,	-5509
▁spreading	-5510
put	-5511
une	-5512
▁bonds	-5513
▁volunt	-5514
▁sweet	-5515
▁salary	-5516
▁demanded	-5517
▁civic	-5518
▁debut	-5519
▁minim	-5520
▁levels	-5521
▁sample	-5522
▁Supervisory	-5523
▁Saturday	-5524
▁Gyeongnam	-5525
▁concluded	-5526
▁Film	-5527
▁Mongol	-5528
▁Ryu	-5529
ohang	-5530
▁Rights	-5531
▁perception	-5532
etr	-5533
▁Es	-5534
ilater	-5535
▁flowers	-5536
▁Investment	-5537
icide	-5538
mbass	-5539
▁helps	-5540
▁Services	-5541
▁liquid	-5542
▁complaints	-5543
Kim	-5544
▁arrive	-5545
▁losing	-5546
osen	-5547
▁earthqu	-5548
▁Yun	-5549
▁gone	-5550
▁Project	-5551
▁allowing	-5552
▁facts	-5553
▁approved	-5554
▁delicious	-5555
▁Civ	-5556
▁gained	-5557
▁venture	-5558
▁sentiment	-5559
rier	-5560
uting	-5561
▁fost	-5562
▁Sunday	-5563
▁virtual	-5564
▁suspicions	-5565
▁Shim	-5566
▁brands	-5567
▁Stadium	-5568
usi	-5569
▁lots	-5570
ications	-5571
▁dialogue	-5572
▁unus	-5573
▁cloud	-5574
▁shipping	-5575
▁af	-5576
amily	-5577
▁Summ	-5578
elling	-5579
▁acknow	-5580
abilities	-5581
▁forget	-5582
▁scandal	-5583
▁complaint	-5584
▁suitable	-5585
▁bio	-5586
myung	-5587
▁wild	-5588
▁defend	-5589
hab	-5590
▁drew	-5591
▁faster	-5592
▁context	-5593
▁diverse	-5594
▁managed	-5595
How	-5596
ips	-5597
lled	-5598
▁fol	-5599
▁spl	-5600
▁accordance	-5601
▁Before	-5602
▁purchased	-5603
ja	-5604
building	-5605
▁mistake	-5606
▁agend	-5607
▁studied	-5608
▁smartphones	-5609
▁league	-5610
▁oxygen	-5611
▁firms	-5612
▁grades	-5613
▁separately	-5614
And	-5615
yal	-5616
ades	-5617
▁page	-5618
encing	-5619
wo	-5620
▁IT	-5621
ari	-5622
▁ruled	-5623
▁Philippines	-5624
▁comfortable	-5625
apse	-5626
class	-5627
arr	-5628
▁strange	-5629
▁attracted	-5630
▁specialized	-5631
asures	-5632
▁fifth	-5633
▁veget	-5634
▁obtained	-5635
▁Construction	-5636
▁36	-5637
▁Div	-5638
▁Gor	-5639
▁Mem	-5640
▁views	-5641
▁athlet	-5642
▁enthusi	-5643
▁Independ	-5644
▁evaluated	-5645
▁corruption	-5646
▁maintenance	-5647
▁Gal	-5648
ishes	-5649
▁fort	-5650
▁peak	-5651
▁cance	-5652
▁forms	-5653
▁subsidi	-5654
▁version	-5655
lementary	-5656
▁centered	-5657
arian	-5658
▁careful	-5659
loom	-5660
▁Pohang	-5661
▁argument	-5662
lig	-5663
▁Further	-5664
▁warning	-5665
▁spending	-5666
▁scientific	-5667
▁satisfaction	-5668
▁strengthening	-5669
▁UN	-5670
rupt	-5671
olute	-5672
▁Have	-5673
▁Plan	-5674
▁cart	-5675
▁Tokyo	-5676
▁Meteorological	-5677
oted	-5678
▁absor	-5679
▁Buddha	-5680
▁belief	-5681
▁particularly	-5682
udi	-5683
wol	-5684
▁blow	-5685
▁Super	-5686
▁divid	-5687
▁operations	-5688
▁declared	-5689
▁Arab	-5690
▁forg	-5691
▁Pompeo	-5692
▁govern	-5693
▁collaps	-5694
▁dropped	-5695
▁detect	-5696
▁easier	-5697
▁lowest	-5698
▁starts	-5699
▁northern	-5700
▁gender	-5701
char	-5702
▁Fire	-5703
▁coal	-5704
▁chart	-5705
▁border	-5706
▁pretty	-5707
▁states	-5708
▁officers	-5709
▁Bong	-5710
▁thus	-5711
▁damages	-5712
▁integrated	-5713
▁recruitment	-5714
isher	-5715
▁cruc	-5716
▁Mun	-5717
oyang	-5718
▁royal	-5719
▁situations	-5720
joo	-5721
▁begun	-5722
▁Instead	-5723
▁turning	-5724
▁194	-5725
▁Bae	-5726
using	-5727
▁Society	-5728
▁shooting	-5729
▁emotional	-5730
-2	-5731
▁code	-5732
▁2015,	-5733
▁unexpected	-5734
▁Each	-5735
▁convey	-5736
▁listening	-5737
▁shareholders	-5738
DA	-5739
soon	-5740
▁Cha	-5741
▁stick	-5742
▁disappeared	-5743
▁Gun	-5744
▁worse	-5745
▁buying	-5746
▁Organization	-5747
▁successfully	-5748
▁Cong	-5749
▁software	-5750
▁kindergarten	-5751
ara	-5752
▁revital	-5753
istant	-5754
▁Company	-5755
lling	-5756
▁partner	-5757
But	-5758
▁Cap	-5759
▁Sin	-5760
arden	-5761
▁empt	-5762
▁Hallyu	-5763
▁leaves	-5764
employed	-5765
▁constantly	-5766
raid	-5767
ijing	-5768
▁competitive	-5769
▁raw	-5770
▁Arts	-5771
▁Follow	-5772
what	-5773
▁inqu	-5774
▁cancel	-5775
▁Ko	-5776
uggish	-5777
▁aw	-5778
▁persu	-5779
▁extent	-5780
▁submit	-5781
▁enhance	-5782
▁particles	-5783
▁establishing	-5784
eth	-5785
otic	-5786
ishing	-5787
▁guide	-5788
▁steel	-5789
▁reorgan	-5790
mo	-5791
▁nut	-5792
isition	-5793
▁carrying	-5794
orage	-5795
hington	-5796
▁containing	-5797
▁3,	-5798
▁2000	-5799
▁10,000	-5800
▁Hyung	-5801
▁thick	-5802
▁harass	-5803
▁troops	-5804
▁recovery	-5805
▁technique	-5806
▁sluggish	-5807
gn	-5808
ishe	-5809
▁talent	-5810
▁pitcher	-5811
▁wedding	-5812
▁SME	-5813
▁superv	-5814
▁wealth	-5815
▁beer	-5816
▁solar	-5817
▁tight	-5818
vention	-5819
▁processing	-5820
▁institution	-5821
ocation	-5822
▁afraid	-5823
▁meetings	-5824
yl	-5825
ieces	-5826
▁optim	-5827
▁chosen	-5828
▁voices	-5829
▁Strateg	-5830
▁Bio	-5831
itime	-5832
▁spect	-5833
▁begins	-5834
▁museum	-5835
▁founded	-5836
hw	-5837
uses	-5838
▁wages	-5839
▁Thanks	-5840
▁bigger	-5841
▁football	-5842
▁hospitals	-5843
Se	-5844
fin	-5845
iger	-5846
sequ	-5847
essel	-5848
ommod	-5849
▁Over	-5850
▁steps	-5851
▁apolog	-5852
▁dishes	-5853
▁explos	-5854
▁Medical	-5855
▁opposed	-5856
▁applications	-5857
▁lux	-5858
▁rom	-5859
▁vir	-5860
▁Beijing	-5861
▁reporter	-5862
▁conducting	-5863
ntil	-5864
▁vul	-5865
▁collapse	-5866
▁critical	-5867
▁stability	-5868
▁pig	-5869
▁unp	-5870
isheries	-5871
▁regarded	-5872
▁negotiation	-5873
enn	-5874
▁acid	-5875
▁merch	-5876
▁freely	-5877
▁subscrib	-5878
▁Promotion	-5879
▁Washington	-5880
▁chat	-5881
▁race	-5882
▁shops	-5883
▁correspond	-5884
hi	-5885
▁facing	-5886
▁offices	-5887
▁contrast	-5888
mas	-5889
orient	-5890
▁inevitable	-5891
deok	-5892
▁note	-5893
▁distingu	-5894
▁invited	-5895
▁disappear	-5896
▁residential	-5897
▁Ok	-5898
ounds	-5899
▁boost	-5900
▁Engine	-5901
▁confident	-5902
▁Changwon	-5903
▁rejected	-5904
▁procedures	-5905
essed	-5906
▁magaz	-5907
▁suspension	-5908
▁composition	-5909
▁remin	-5910
▁repair	-5911
▁die	-5912
▁Furthermore	-5913
ales	-5914
▁egg	-5915
▁replaced	-5916
▁Gangneung	-5917
▁extremely	-5918
chen	-5919
oriented	-5920
▁accommod	-5921
▁promised	-5922
▁unve	-5923
itizen	-5924
laration	-5925
▁briefing	-5926
▁procedure	-5927
▁originally	-5928
▁personality	-5929
km	-5930
▁Yeou	-5931
▁upon	-5932
▁roads	-5933
▁remained	-5934
▁tea	-5935
▁Army	-5936
▁flood	-5937
issions	-5938
▁meantime	-5939
▁violation	-5940
lets	-5941
▁Two	-5942
▁aband	-5943
▁flower	-5944
▁vessel	-5945
▁reporting	-5946
uls	-5947
▁symp	-5948
▁2017,	-5949
▁bid	-5950
nament	-5951
▁tests	-5952
▁Academy	-5953
▁examine	-5954
▁telecommun	-5955
▁concentrated	-5956
▁mail	-5957
▁acceler	-5958
▁Sol	-5959
▁trends	-5960
▁Cheongju	-5961
going	-5962
▁2013	-5963
▁lectures	-5964
▁asset	-5965
▁System	-5966
▁primary	-5967
▁dangerous	-5968
▁absolute	-5969
▁continuing	-5970
▁passengers	-5971
hand	-5972
▁Val	-5973
▁losses	-5974
▁demands	-5975
▁Division	-5976
▁ministry	-5977
▁EU	-5978
▁Exp	-5979
▁farming	-5980
▁Green	-5981
▁amend	-5982
▁closer	-5983
▁limitations	-5984
pen	-5985
▁feels	-5986
▁charged	-5987
▁stadium	-5988
eds	-5989
abin	-5990
▁kit	-5991
▁objects	-5992
▁sectors	-5993
▁surprised	-5994
▁investigated	-5995
▁Big	-5996
bang	-5997
ching	-5998
oking	-5999
▁Corp	-6000
▁Paul	-6001
▁yellow	-6002
▁expects	-6003
▁accurate	-6004
▁responded	-6005
cean	-6006
board	-6007
▁bath	-6008
▁tomb	-6009
iciary	-6010
▁memories	-6011
▁positions	-6012
▁swim	-6013
▁chose	-6014
▁Motors	-6015
▁handle	-6016
▁talked	-6017
▁crucial	-6018
Al	-6019
oi	-6020
uri	-6021
▁Look	-6022
elines	-6023
▁assoc	-6024
Korea	-6025
▁Like	-6026
▁hike	-6027
▁nurs	-6028
▁Kwang	-6029
▁strict	-6030
▁storage	-6031
▁suicide	-6032
▁hundreds	-6033
▁messages	-6034
▁Tax	-6035
▁suffer	-6036
▁transp	-6037
▁Twitter	-6038
▁resolution	-6039
▁understood	-6040
▁river	-6041
▁tears	-6042
▁Yeouido	-6043
▁complic	-6044
▁Music	-6045
▁equipped	-6046
▁whenever	-6047
▁Following	-6048
vision	-6049
▁cards	-6050
novation	-6051
▁blocked	-6052
▁beat	-6053
▁fing	-6054
▁kick	-6055
AN	-6056
▁habit	-6057
▁defect	-6058
▁Revolution	-6059
asan	-6060
▁Prot	-6061
▁finance	-6062
▁challenging	-6063
power	-6064
▁acts	-6065
▁angry	-6066
▁chair	-6067
▁penalty	-6068
▁universe	-6069
▁400	-6070
▁shr	-6071
▁incor	-6072
▁gaining	-6073
▁consists	-6074
▁identify	-6075
▁conscious	-6076
▁reasonable	-6077
hetic	-6078
uction	-6079
▁canceled	-6080
▁Stat	-6081
icians	-6082
▁shoes	-6083
▁enterprises	-6084
An	-6085
how	-6086
▁analyze	-6087
500	-6088
aem	-6089
▁fit	-6090
▁hidden	-6091
▁mathematics	-6092
▁agenda	-6093
▁vision	-6094
▁opposite	-6095
▁assessment	-6096
IC	-6097
▁sac	-6098
▁whom	-6099
▁dress	-6100
SS	-6101
▁ICT	-6102
jang	-6103
▁handed	-6104
▁useful	-6105
▁corporations	-6106
body	-6107
▁Declaration	-6108
▁investments	-6109
izz	-6110
▁Wed	-6111
▁empty	-6112
▁rural	-6113
▁adults	-6114
▁climate	-6115
▁resolved	-6116
▁unification	-6117
▁Team	-6118
▁sources	-6119
▁strategies	-6120
anging	-6121
St	-6122
eeper	-6123
orter	-6124
▁sust	-6125
▁decor	-6126
▁murder	-6127
▁tariffs	-6128
▁literature	-6129
▁fill	-6130
acific	-6131
▁Until	-6132
▁Hanwha	-6133
▁offering	-6134
▁applicants	-6135
uce	-6136
nesday	-6137
▁error	-6138
▁Global	-6139
▁presence	-6140
▁properties	-6141
▁transferred	-6142
▁cas	-6143
▁gar	-6144
▁map	-6145
▁Small	-6146
▁Spain	-6147
▁vulner	-6148
▁disappoint	-6149
▁actress	-6150
▁cooking	-6151
▁bacteria	-6152
axy	-6153
▁Gold	-6154
▁unusual	-6155
▁accompan	-6156
▁efficient	-6157
1.	-6158
▁Analy	-6159
▁cycle	-6160
ores	-6161
▁joy	-6162
▁grav	-6163
▁Youth	-6164
▁coord	-6165
eek	-6166
ham	-6167
▁Ang	-6168
▁dece	-6169
▁Gyeongsangnam	-6170
▁tow	-6171
▁Actor	-6172
iable	-6173
rants	-6174
▁aging	-6175
▁postp	-6176
▁instance	-6177
▁paintings	-6178
style	-6179
▁corner	-6180
▁franch	-6181
▁Workers	-6182
▁repeatedly	-6183
▁CS	-6184
▁Real	-6185
▁reply	-6186
▁Children	-6187
▁category	-6188
▁prosecutors	-6189
▁KOS	-6190
▁aid	-6191
phone	-6192
▁piece	-6193
▁deeply	-6194
▁weaken	-6195
▁register	-6196
▁outstanding	-6197
EC	-6198
sp	-6199
income	-6200
▁phase	-6201
▁teach	-6202
▁commemor	-6203
▁Red	-6204
▁pil	-6205
▁smile	-6206
▁Goyang	-6207
▁injury	-6208
▁contracts	-6209
▁wins	-6210
▁medal	-6211
▁sharply	-6212
▁trouble	-6213
▁excluded	-6214
ED	-6215
▁sand	-6216
▁sufficient	-6217
ama	-6218
ocol	-6219
wood	-6220
▁react	-6221
▁Vietnamese	-6222
eon	-6223
olic	-6224
▁gun	-6225
▁Civil	-6226
▁Saudi	-6227
ortunately	-6228
▁Will	-6229
▁smell	-6230
▁Wednesday	-6231
▁contribute	-6232
aug	-6233
lete	-6234
▁Nak	-6235
▁tool	-6236
▁Support	-6237
▁neighbor	-6238
▁mir	-6239
▁feet	-6240
▁courses	-6241
▁extended	-6242
▁strategic	-6243
▁effectively	-6244
mother	-6245
▁Forest	-6246
▁element	-6247
▁counseling	-6248
40	-6249
▁Cal	-6250
arity	-6251
riers	-6252
▁escape	-6253
▁voting	-6254
▁colonial	-6255
▁quantity	-6256
▁resistance	-6257
urt	-6258
▁Wo	-6259
▁bills	-6260
▁interpretation	-6261
▁32	-6262
iant	-6263
▁Soon	-6264
▁dogs	-6265
change	-6266
holder	-6267
▁discipl	-6268
tes	-6269
▁Mok	-6270
cheol	-6271
orters	-6272
ensions	-6273
▁imported	-6274
▁acquisition	-6275
anam	-6276
▁Mer	-6277
iture	-6278
▁ancient	-6279
▁deterior	-6280
▁supports	-6281
oles	-6282
▁Sub	-6283
▁blind	-6284
▁stabil	-6285
▁temple	-6286
▁Attention	-6287
▁Christmas	-6288
otten	-6289
ailand	-6290
▁Myeong	-6291
▁priority	-6292
▁remove	-6293
▁Gyeongbuk	-6294
awei	-6295
▁SMEs	-6296
▁hole	-6297
▁reconst	-6298
▁introducing	-6299
You	-6300
gence	-6301
comfort	-6302
▁hiring	-6303
▁spaces	-6304
▁outcome	-6305
▁institutional	-6306
▁relationships	-6307
▁KB	-6308
▁DNA	-6309
icated	-6310
▁Command	-6311
▁episode	-6312
RA	-6313
ema	-6314
ivals	-6315
▁ease	-6316
apping	-6317
rete	-6318
▁larger	-6319
▁filming	-6320
reet	-6321
▁anxiety	-6322
▁Engineering	-6323
▁(6	-6324
▁45	-6325
▁52	-6326
rain	-6327
eless	-6328
▁fruit	-6329
▁kilomet	-6330
▁ranking	-6331
▁cooperate	-6332
▁automatically	-6333
yeol	-6334
apter	-6335
▁mood	-6336
▁wake	-6337
▁massive	-6338
▁aircraft	-6339
▁criteria	-6340
▁highlight	-6341
▁Industries	-6342
▁moves	-6343
▁exactly	-6344
▁Thailand	-6345
▁intellectual	-6346
▁bodies	-6347
▁recover	-6348
▁announce	-6349
gl	-6350
lege	-6351
▁idol	-6352
▁processes	-6353
iox	-6354
gers	-6355
rank	-6356
▁Mad	-6357
astern	-6358
▁provision	-6359
TC	-6360
zbe	-6361
▁milk	-6362
▁package	-6363
ager	-6364
▁stood	-6365
▁instru	-6366
▁perman	-6367
▁resulting	-6368
▁separated	-6369
athy	-6370
▁Past	-6371
▁attrib	-6372
▁referred	-6373
PI	-6374
oved	-6375
▁votes	-6376
▁pieces	-6377
▁internet	-6378
▁returning	-6379
asc	-6380
icle	-6381
▁wal	-6382
▁tools	-6383
▁letters	-6384
▁flexible	-6385
▁earthquake	-6386
yr	-6387
urb	-6388
▁traveling	-6389
▁uncertain	-6390
▁requirements	-6391
hour	-6392
▁Sur	-6393
ensus	-6394
▁typical	-6395
▁speaking	-6396
▁Especially	-6397
CTV	-6398
ultane	-6399
outheast	-6400
▁professors	-6401
▁PC	-6402
about	-6403
▁neut	-6404
▁Huawei	-6405
▁dollar	-6406
▁impress	-6407
pa	-6408
rown	-6409
▁100,000	-6410
▁singing	-6411
▁certificate	-6412
▁pled	-6413
▁rough	-6414
▁physics	-6415
ider	-6416
uous	-6417
▁writer	-6418
▁probably	-6419
zbek	-6420
▁logic	-6421
▁relie	-6422
▁recording	-6423
▁continuous	-6424
▁Ant	-6425
▁Rel	-6426
▁rescue	-6427
▁portion	-6428
▁athletes	-6429
▁Independence	-6430
ris	-6431
oral	-6432
isting	-6433
▁remov	-6434
▁turns	-6435
▁outdoor	-6436
▁generally	-6437
▁hung	-6438
▁neck	-6439
▁deleg	-6440
▁battery	-6441
▁singers	-6442
▁components	-6443
▁issu	-6444
▁nood	-6445
▁examples	-6446
▁Jeollanam	-6447
▁contribution	-6448
▁Ber	-6449
▁pushing	-6450
▁somewhat	-6451
▁contributed	-6452
▁discrimination	-6453
ER	-6454
load	-6455
reams	-6456
▁rally	-6457
▁reserv	-6458
▁recommendation	-6459
cles	-6460
▁KBS	-6461
▁sequ	-6462
▁writ	-6463
▁Naver	-6464
▁reward	-6465
▁Strategy	-6466
▁audiences	-6467
▁38	-6468
▁stake	-6469
▁broadc	-6470
▁spokesman	-6471
▁kid	-6472
cules	-6473
▁Three	-6474
▁decisions	-6475
ady	-6476
heung	-6477
▁quiet	-6478
▁opponent	-6479
▁Mo	-6480
▁species	-6481
▁distinct	-6482
ondo	-6483
▁inaug	-6484
▁surpass	-6485
▁John	-6486
ifically	-6487
▁stations	-6488
▁succeeded	-6489
▁33	-6490
▁pul	-6491
▁friendly	-6492
▁purchasing	-6493
▁substance	-6494
▁capabilities	-6495
▁Ui	-6496
ipe	-6497
▁synt	-6498
▁Uzbek	-6499
▁solved	-6500
employment	-6501
▁settlement	-6502
mail	-6503
anged	-6504
▁Paris	-6505
▁pregn	-6506
▁funeral	-6507
▁observed	-6508
▁payments	-6509
▁described	-6510
unt	-6511
▁syn	-6512
▁tons	-6513
▁retail	-6514
▁simultane	-6515
▁therefore	-6516
▁Local	-6517
▁guess	-6518
▁usage	-6519
ocated	-6520
▁helping	-6521
▁Malaysia	-6522
▁involving	-6523
comfortable	-6524
▁ton	-6525
▁prohib	-6526
▁library	-6527
▁downtown	-6528
▁formation	-6529
Ph	-6530
▁grant	-6531
▁Pension	-6532
dae	-6533
iques	-6534
▁dish	-6535
▁fake	-6536
▁aspects	-6537
▁Board	-6538
bin	-6539
ket	-6540
▁shall	-6541
▁answers	-6542
▁sitting	-6543
▁eco	-6544
▁offers	-6545
▁engaged	-6546
▁dispatched	-6547
▁pure	-6548
reement	-6549
▁arrange	-6550
▁confirmation	-6551
chon	-6552
icks	-6553
▁Koo	-6554
▁soup	-6555
▁relax	-6556
▁clothing	-6557
aming	-6558
▁cafe	-6559
▁Experts	-6560
▁kitchen	-6561
▁semester	-6562
▁disclosure	-6563
making	-6564
▁relief	-6565
▁therap	-6566
▁drivers	-6567
▁smaller	-6568
▁producing	-6569
▁engineering	-6570
azon	-6571
▁rot	-6572
▁poet	-6573
▁ride	-6574
▁fallen	-6575
▁College	-6576
▁exceeded	-6577
ucks	-6578
▁sav	-6579
▁Love	-6580
▁Once	-6581
▁memor	-6582
▁moist	-6583
▁bridge	-6584
▁gathering	-6585
▁tournament	-6586
anish	-6587
▁genre	-6588
▁creates	-6589
▁removed	-6590
▁interior	-6591
▁"201	-6592
▁CCTV	-6593
▁Ilbo	-6594
etition	-6595
▁maintaining	-6596
▁unless	-6597
▁defined	-6598
▁revenue	-6599
▁stronger	-6600
▁struggle	-6601
useok	-6602
▁Lead	-6603
▁cheap	-6604
▁phones	-6605
▁seriously	-6606
▁prevention	-6607
bong	-6608
▁risks	-6609
▁seeking	-6610
▁assembly	-6611
▁memorial	-6612
▁manipulation	-6613
▁Kum	-6614
▁stem	-6615
▁Hanoi	-6616
▁attempted	-6617
▁consultation	-6618
▁Adv	-6619
▁Bre	-6620
▁inn	-6621
▁tra	-6622
▁chain	-6623
▁kilometers	-6624
eup	-6625
berg	-6626
▁arm	-6627
ially	-6628
quare	-6629
▁winner	-6630
▁encourage	-6631
ustr	-6632
▁happens	-6633
▁clinical	-6634
▁interact	-6635
▁patterns	-6636
▁exclusive	-6637
▁uncomfortable	-6638
cks	-6639
win	-6640
▁150	-6641
water	-6642
▁Fund	-6643
ighter	-6644
▁metal	-6645
▁unknown	-6646
▁principles	-6647
isms	-6648
▁Tele	-6649
▁keen	-6650
▁moon	-6651
▁landsc	-6652
▁readers	-6653
▁Miss	-6654
▁inher	-6655
▁algorithm	-6656
▁democracy	-6657
▁Other	-6658
▁Those	-6659
▁refused	-6660
idays	-6661
▁meals	-6662
▁Congress	-6663
▁alt	-6664
▁jun	-6665
▁Amid	-6666
▁Both	-6667
entions	-6668
▁staying	-6669
▁supposed	-6670
▁upcoming	-6671
▁movements	-6672
sook	-6673
▁aims	-6674
▁Marine	-6675
▁discover	-6676
toon	-6677
▁Gong	-6678
▁merg	-6679
▁stages	-6680
▁strengthened	-6681
rene	-6682
pyeong	-6683
▁worst	-6684
▁commit	-6685
▁Earlier	-6686
▁compete	-6687
▁molecules	-6688
lam	-6689
▁dy	-6690
▁Pat	-6691
▁aired	-6692
▁Street	-6693
▁explains	-6694
▁contained	-6695
▁substances	-6696
▁accumulated	-6697
rence	-6698
while	-6699
▁recru	-6700
▁cultiv	-6701
▁keeping	-6702
▁Bi	-6703
▁rid	-6704
▁urged	-6705
▁signing	-6706
▁momentum	-6707
▁religion	-6708
▁appreciate	-6709
▁Nex	-6710
▁kill	-6711
▁proud	-6712
▁vital	-6713
▁Singer	-6714
▁missile	-6715
▁expressing	-6716
eff	-6717
▁kim	-6718
antic	-6719
▁wire	-6720
▁arbit	-6721
▁atoms	-6722
▁Gyeongsangbuk	-6723
▁obst	-6724
▁solo	-6725
▁usual	-6726
▁verification	-6727
▁luck	-6728
▁Times	-6729
oto	-6730
norm	-6731
▁detected	-6732
aze	-6733
▁roof	-6734
▁cancell	-6735
▁nervous	-6736
▁electrons	-6737
etary	-6738
▁calm	-6739
▁Stand	-6740
▁uncon	-6741
▁Confuc	-6742
▁Goryeo	-6743
▁Turkey	-6744
ilateral	-6745
▁jointly	-6746
▁collapsed	-6747
9.	-6748
advant	-6749
▁Smart	-6750
▁robot	-6751
▁trials	-6752
▁percentage	-6753
My	-6754
uct	-6755
▁glad	-6756
▁stream	-6757
CEO	-6758
▁upd	-6759
▁mand	-6760
▁Military	-6761
▁breaking	-6762
▁consensus	-6763
wing	-6764
▁boss	-6765
▁equal	-6766
rection	-6767
▁invested	-6768
▁transition	-6769
▁Intelligence	-6770
,'	-6771
ifts	-6772
▁Swed	-6773
▁poem	-6774
▁anymore	-6775
▁disadvant	-6776
▁thousands	-6777
▁Ham	-6778
▁hyp	-6779
▁vulnerable	-6780
uan	-6781
▁34	-6782
iments	-6783
▁inner	-6784
▁Amazon	-6785
▁inject	-6786
▁replacement	-6787
ibly	-6788
▁1.5	-6789
▁cup	-6790
▁swit	-6791
▁faced	-6792
▁adopted	-6793
5.	-6794
mical	-6795
aret	-6796
enty	-6797
pping	-6798
▁bomb	-6799
▁signal	-6800
▁absence	-6801
▁promise	-6802
▁diagnosis	-6803
▁psychological	-6804
pyo	-6805
ureau	-6806
▁diet	-6807
abinet	-6808
▁protein	-6809
▁sensitive	-6810
▁impression	-6811
bi	-6812
▁Mac	-6813
rison	-6814
▁observ	-6815
▁teenagers	-6816
▁generations	-6817
hyeon	-6818
▁Does	-6819
▁east	-6820
▁math	-6821
▁valu	-6822
ousing	-6823
▁favorable	-6824
▁generated	-6825
▁Any	-6826
▁dim	-6827
▁concrete	-6828
▁unveiled	-6829
▁Broad	-6830
▁Chuseok	-6831
▁intended	-6832
▁steadily	-6833
▁inevitably	-6834
▁departments	-6835
▁Camp	-6836
▁boom	-6837
▁feas	-6838
▁everyday	-6839
▁journalism	-6840
▁techniques	-6841
gin	-6842
▁territ	-6843
▁completion	-6844
▁Who	-6845
▁calc	-6846
▁prospect	-6847
▁solutions	-6848
bl	-6849
aza	-6850
▁Store	-6851
achment	-6852
▁Jongno	-6853
▁classified	-6854
▁respondents	-6855
▁customs	-6856
▁extension	-6857
▁securities	-6858
%),	-6859
haust	-6860
▁motion	-6861
▁employed	-6862
▁securing	-6863
▁diox	-6864
▁motiv	-6865
▁wouldn	-6866
gye	-6867
wondo	-6868
▁valid	-6869
▁thoroughly	-6870
▁guil	-6871
kyu	-6872
nic	-6873
gypt	-6874
▁mal	-6875
▁phr	-6876
icing	-6877
▁Next	-6878
▁knowing	-6879
▁certification	-6880
▁Hyo	-6881
▁aged	-6882
ulating	-6883
▁confront	-6884
▁agent	-6885
▁slowly	-6886
▁matches	-6887
▁visible	-6888
▁holidays	-6889
▁shareholder	-6890
▁195	-6891
▁Kia	-6892
▁Moo	-6893
vement	-6894
▁bread	-6895
▁mobil	-6896
▁Seocho	-6897
▁insuff	-6898
bs	-6899
▁fulf	-6900
▁cited	-6901
▁lease	-6902
▁imposed	-6903
rad	-6904
▁collaboration	-6905
umi	-6906
host	-6907
▁Post	-6908
▁Guard	-6909
▁receip	-6910
▁tempor	-6911
▁Yongsan	-6912
▁destination	-6913
▁inconvenience	-6914
▁Wang	-6915
initely	-6916
CC	-6917
eal	-6918
amber	-6919
▁Panmun	-6920
▁scenes	-6921
▁cutting	-6922
▁acquaint	-6923
osun	-6924
▁POS	-6925
▁flat	-6926
▁indu	-6927
ursday	-6928
▁visits	-6929
▁ratings	-6930
▁consulting	-6931
acle	-6932
aught	-6933
▁Which	-6934
▁kimchi	-6935
▁Analysts	-6936
▁enjoying	-6937
▁analyzing	-6938
fast	-6939
▁fest	-6940
▁Shinhan	-6941
▁matters	-6942
▁publish	-6943
▁secondary	-6944
▁Unification	-6945
▁complicated	-6946
azing	-6947
▁Egypt	-6948
▁excav	-6949
▁knows	-6950
▁serves	-6951
▁tension	-6952
▁computers	-6953
▁operators	-6954
▁customized	-6955
uro	-6956
▁Jak	-6957
generation	-6958
▁complexes	-6959
ES	-6960
▁noise	-6961
▁spicy	-6962
▁stayed	-6963
▁dioxide	-6964
intendent	-6965
▁survival	-6966
▁guidelines	-6967
▁regulatory	-6968
▁scr	-6969
▁Free	-6970
▁Given	-6971
▁Bridge	-6972
▁patent	-6973
▁intense	-6974
▁sustain	-6975
▁graduate	-6976
▁peninsula	-6977
▁Inc	-6978
▁nor	-6979
▁west	-6980
▁withdrawal	-6981
▁Entertainment	-6982
▁ju	-6983
inces	-6984
iosity	-6985
▁Italy	-6986
inating	-6987
▁revers	-6988
▁Citizens	-6989
▁destroyed	-6990
▁od	-6991
▁Bel	-6992
▁Pay	-6993
▁forum	-6994
▁smoke	-6995
▁Galaxy	-6996
▁advice	-6997
▁formal	-6998
▁Seongnam	-6999
▁Innovation	-7000
▁installation	-7001
▁pharmaceutical	-7002
▁Mrs	-7003
▁Doosan	-7004
▁concepts	-7005
▁purposes	-7006
▁districts	-7007
▁surve	-7008
▁serving	-7009
▁Sen	-7010
erent	-7011
▁boat	-7012
▁Third	-7013
▁holds	-7014
▁client	-7015
▁sincere	-7016
haps	-7017
▁Mor	-7018
▁buses	-7019
▁lowered	-7020
▁cleaning	-7021
ondon	-7022
▁Such	-7023
▁Polit	-7024
▁arriv	-7025
▁passenger	-7026
▁underground	-7027
▁temperatures	-7028
aes	-7029
▁Fl	-7030
isure	-7031
▁Kook	-7032
▁Road	-7033
▁Black	-7034
aekwondo	-7035
▁frequent	-7036
▁snack	-7037
▁Period	-7038
▁pursue	-7039
▁admitted	-7040
▁variables	-7041
▁restrictions	-7042
▁Gi	-7043
▁cake	-7044
▁doct	-7045
uesday	-7046
urches	-7047
▁occasion	-7048
▁insufficient	-7049
ana	-7050
arta	-7051
▁2014,	-7052
▁luxury	-7053
▁obtain	-7054
▁martial	-7055
▁fighting	-7056
▁collective	-7057
▁scientists	-7058
▁characteristic	-7059
▁Put	-7060
▁Gree	-7061
▁hate	-7062
▁dreams	-7063
▁England	-7064
▁curious	-7065
▁counterme	-7066
pir	-7067
omach	-7068
▁Cath	-7069
▁exhaust	-7070
▁65	-7071
apes	-7072
▁fle	-7073
▁Seon	-7074
▁wine	-7075
inking	-7076
▁Family	-7077
▁county	-7078
▁institute	-7079
▁objective	-7080
iny	-7081
▁Home	-7082
▁noted	-7083
▁controversial	-7084
omer	-7085
▁Abe	-7086
▁avo	-7087
▁thr	-7088
▁ships	-7089
▁London	-7090
▁liberal	-7091
▁reflects	-7092
▁superior	-7093
gil	-7094
▁auto	-7095
▁Girls	-7096
▁contem	-7097
▁weapon	-7098
▁railway	-7099
▁managers	-7100
▁Southeast	-7101
▁constructed	-7102
▁poly	-7103
▁pork	-7104
▁guests	-7105
▁cooperative	-7106
▁willingness	-7107
bing	-7108
mentia	-7109
▁basket	-7110
▁obvious	-7111
▁pleasant	-7112
▁illegally	-7113
▁37	-7114
▁irregular	-7115
case	-7116
iscal	-7117
uries	-7118
▁Chan	-7119
▁defic	-7120
▁falls	-7121
inition	-7122
▁Asiana	-7123
▁CO	-7124
field	-7125
peror	-7126
▁draft	-7127
▁owned	-7128
However	-7129
▁divers	-7130
▁informed	-7131
▁insisted	-7132
▁Constitutional	-7133
SC	-7134
▁La	-7135
▁fro	-7136
produ	-7137
▁amendment	-7138
▁Os	-7139
▁batter	-7140
▁hearts	-7141
▁sounds	-7142
▁donation	-7143
hai	-7144
aser	-7145
▁MBC	-7146
▁Ser	-7147
▁Hang	-7148
▁survive	-7149
▁artistic	-7150
▁villages	-7151
oyal	-7152
agram	-7153
▁cred	-7154
▁exists	-7155
▁indicators	-7156
▁El	-7157
Park	-7158
sche	-7159
▁fab	-7160
▁row	-7161
▁kids	-7162
▁recall	-7163
▁curiosity	-7164
▁demonstration	-7165
TA	-7166
mal	-7167
▁Chae	-7168
igaret	-7169
▁anger	-7170
▁girls	-7171
▁earnings	-7172
uties	-7173
▁helpful	-7174
bur	-7175
guk	-7176
▁Po	-7177
▁ast	-7178
ivest	-7179
▁Mike	-7180
▁bear	-7181
▁bere	-7182
arious	-7183
echeon	-7184
ounder	-7185
▁cond	-7186
▁Summit	-7187
▁autumn	-7188
▁genetic	-7189
▁indirect	-7190
hesis	-7191
print	-7192
▁Hist	-7193
▁booth	-7194
▁extract	-7195
▁monitoring	-7196
▁disciplinary	-7197
andom	-7198
▁Good	-7199
▁ends	-7200
▁ment	-7201
▁mort	-7202
▁Square	-7203
▁missed	-7204
▁boyfriend	-7205
▁dedicated	-7206
ker	-7207
oret	-7208
agues	-7209
▁Char	-7210
▁liked	-7211
▁managing	-7212
▁fed	-7213
▁Okay	-7214
ometown	-7215
▁Jeonju	-7216
▁beings	-7217
▁answered	-7218
▁refugees	-7219
▁displayed	-7220
▁Ky	-7221
▁Leg	-7222
force	-7223
▁Sewol	-7224
▁spark	-7225
▁inquir	-7226
▁aggress	-7227
▁killing	-7228
▁satisfied	-7229
▁ID	-7230
▁fo	-7231
▁Gil	-7232
▁denied	-7233
▁mutual	-7234
▁Jakarta	-7235
▁Spanish	-7236
▁imports	-7237
▁bereaved	-7238
▁permission	-7239
een	-7240
ivestock	-7241
▁4,	-7242
lude	-7243
▁Article	-7244
▁Looking	-7245
whel	-7246
▁faces	-7247
▁Express	-7248
▁statements	-7249
geun	-7250
▁Heo	-7251
ecess	-7252
▁sacr	-7253
▁shout	-7254
reprene	-7255
▁marine	-7256
▁stomach	-7257
▁Starting	-7258
▁Thursday	-7259
▁charging	-7260
▁politicians	-7261
▁UK	-7262
▁und	-7263
▁Nong	-7264
▁component	-7265
▁permanent	-7266
▁resignation	-7267
▁subscribers	-7268
▁Shang	-7269
la	-7270
hak	-7271
ked	-7272
osu	-7273
flow	-7274
▁evol	-7275
▁heav	-7276
▁studio	-7277
▁citizen	-7278
▁subsidiary	-7279
▁considerable	-7280
ga	-7281
▁Cr	-7282
▁overl	-7283
▁walls	-7284
▁precise	-7285
▁supplied	-7286
▁Chi	-7287
▁Chosun	-7288
▁franchise	-7289
▁struggling	-7290
tle	-7291
ello	-7292
▁Vol	-7293
father	-7294
▁maxim	-7295
inations	-7296
▁networks	-7297
▁supplies	-7298
▁subscription	-7299
▁gene	-7300
▁semi	-7301
▁risen	-7302
▁sight	-7303
▁Consum	-7304
▁Olympic	-7305
▁Election	-7306
▁overwhel	-7307
▁grandmother	-7308
8.	-7309
DP	-7310
equ	-7311
obby	-7312
▁Aud	-7313
▁tall	-7314
▁cream	-7315
▁deadline	-7316
▁influenced	-7317
▁neighborhood	-7318
awn	-7319
ste	-7320
▁Joint	-7321
▁prove	-7322
▁rises	-7323
▁Indian	-7324
▁discip	-7325
FA	-7326
▁ultra	-7327
▁arranged	-7328
▁shortly	-7329
▁Exchange	-7330
▁assaulted	-7331
Un	-7332
▁Mc	-7333
arsh	-7334
odes	-7335
▁env	-7336
▁folk	-7337
▁vacc	-7338
▁2016.	-7339
▁clubs	-7340
▁fault	-7341
▁Senior	-7342
▁Hon	-7343
▁Play	-7344
▁reun	-7345
▁garden	-7346
▁viewed	-7347
▁illness	-7348
▁settled	-7349
▁relation	-7350
▁neighbors	-7351
▁iPh	-7352
shaped	-7353
▁closing	-7354
▁suggests	-7355
▁pollution	-7356
▁volunteer	-7357
ona	-7358
que	-7359
▁Bible	-7360
▁Prize	-7361
▁appli	-7362
▁Rather	-7363
▁instruction	-7364
▁Custom	-7365
ows	-7366
▁Ke	-7367
▁furn	-7368
▁mere	-7369
▁sugar	-7370
▁streets	-7371
▁alliance	-7372
▁harassment	-7373
uly	-7374
▁600	-7375
▁solving	-7376
▁television	-7377
aka	-7378
gue	-7379
aemun	-7380
▁ideal	-7381
▁citing	-7382
▁desper	-7383
▁Jeonnam	-7384
ucle	-7385
▁Major	-7386
▁charm	-7387
▁Lun	-7388
itual	-7389
▁monk	-7390
▁Water	-7391
▁parad	-7392
▁defeat	-7393
▁joining	-7394
▁principal	-7395
▁structural	-7396
bor	-7397
lywood	-7398
▁motor	-7399
▁claiming	-7400
▁mountains	-7401
▁girlfriend	-7402
▁Nob	-7403
▁achievements	-7404
▁Deok	-7405
▁hero	-7406
stream	-7407
▁Africa	-7408
▁Heritage	-7409
▁performing	-7410
usan	-7411
▁ate	-7412
state	-7413
▁Great	-7414
▁interf	-7415
▁disputes	-7416
▁recession	-7417
jud	-7418
amun	-7419
▁err	-7420
▁sen	-7421
▁beach	-7422
▁fluct	-7423
▁abnorm	-7424
▁depends	-7425
▁harmony	-7426
▁precious	-7427
-19	-7428
eong	-7429
▁molec	-7430
▁timing	-7431
▁excited	-7432
aked	-7433
maker	-7434
▁greet	-7435
▁rumors	-7436
ibilities	-7437
▁accurately	-7438
She	-7439
oir	-7440
itor	-7441
osan	-7442
▁Above	-7443
▁POSCO	-7444
▁sixth	-7445
▁option	-7446
▁organic	-7447
▁surprise	-7448
▁significance	-7449
lar	-7450
▁Mu	-7451
▁Its	-7452
▁Niet	-7453
▁minds	-7454
▁heating	-7455
▁dismissed	-7456
MW	-7457
▁Ren	-7458
Since	-7459
▁Heavy	-7460
▁webtoon	-7461
▁rational	-7462
▁championship	-7463
PO	-7464
▁sole	-7465
▁western	-7466
▁hometown	-7467
▁violating	-7468
IT	-7469
▁pace	-7470
▁plate	-7471
▁finger	-7472
▁apology	-7473
▁factories	-7474
.'	-7475
ato	-7476
yers	-7477
esides	-7478
▁locals	-7479
▁churches	-7480
▁residence	-7481
▁misunder	-7482
▁textbooks	-7483
▁Agriculture	-7484
▁accompanied	-7485
▁expressions	-7486
▁dynam	-7487
▁circle	-7488
▁honest	-7489
▁Tuesday	-7490
▁annually	-7491
▁valuable	-7492
▁festivals	-7493
ya	-7494
chun	-7495
▁Mir	-7496
ifies	-7497
lines	-7498
▁Card	-7499
▁cheer	-7500
▁wooden	-7501
Japanese	-7502
▁Kookmin	-7503
taek	-7504
grade	-7505
▁Test	-7506
rivate	-7507
ructuring	-7508
▁resource	-7509
▁swimming	-7510
▁practices	-7511
▁mathematical	-7512
7.	-7513
▁Ter	-7514
▁unre	-7515
▁fiscal	-7516
▁communities	-7517
seon	-7518
zsche	-7519
▁sets	-7520
▁Future	-7521
▁awards	-7522
▁harmful	-7523
▁Students	-7524
▁platforms	-7525
▁silver	-7526
▁tendency	-7527
▁provinces	-7528
enary	-7529
▁adapt	-7530
▁semin	-7531
istical	-7532
▁depict	-7533
▁Chungnam	-7534
▁dementia	-7535
▁magazine	-7536
▁Nietzsche	-7537
▁preventing	-7538
▁Us	-7539
cers	-7540
exist	-7541
▁largely	-7542
▁reviews	-7543
▁acquired	-7544
asy	-7545
edy	-7546
appy	-7547
night	-7548
▁shift	-7549
▁impressive	-7550
▁legislation	-7551
ont	-7552
▁assum	-7553
ulations	-7554
▁leisure	-7555
▁variable	-7556
▁Uzbekistan	-7557
zy	-7558
rok	-7559
itis	-7560
uate	-7561
▁scenar	-7562
contract	-7563
▁circles	-7564
▁ownership	-7565
td	-7566
ils	-7567
see	-7568
▁Cre	-7569
▁extend	-7570
▁expectation	-7571
▁Myan	-7572
▁Thus	-7573
▁Angel	-7574
▁reign	-7575
▁scores	-7576
▁reaching	-7577
▁landscape	-7578
▁narr	-7579
▁firef	-7580
▁instant	-7581
▁chemistry	-7582
▁classical	-7583
▁framework	-7584
AS	-7585
▁Drug	-7586
▁doubt	-7587
▁grows	-7588
▁nucle	-7589
itional	-7590
▁atomic	-7591
▁exting	-7592
▁safely	-7593
▁awarded	-7594
▁39	-7595
▁KE	-7596
made	-7597
▁2017.	-7598
▁fever	-7599
▁posts	-7600
▁earned	-7601
▁preced	-7602
▁repres	-7603
▁dismant	-7604
▁extingu	-7605
awa	-7606
kyun	-7607
ashed	-7608
▁Airl	-7609
▁Pastor	-7610
▁amounts	-7611
▁machines	-7612
▁merchants	-7613
▁pill	-7614
▁tact	-7615
▁enact	-7616
▁sauce	-7617
▁dealing	-7618
▁resulted	-7619
▁sleeping	-7620
▁adjustment	-7621
▁Investigation	-7622
▁investigations	-7623
▁casual	-7624
▁Airlines	-7625
▁technological	-7626
orders	-7627
▁initi	-7628
▁Fisheries	-7629
▁indo	-7630
mented	-7631
▁pilot	-7632
▁afford	-7633
▁depend	-7634
▁sexually	-7635
▁confusion	-7636
▁represents	-7637
suk	-7638
▁10%	-7639
▁Eui	-7640
▁Club	-7641
▁enem	-7642
▁Media	-7643
▁argue	-7644
▁Palace	-7645
▁reprodu	-7646
▁requests	-7647
▁categories	-7648
▁Presidential	-7649
roll	-7650
▁Sch	-7651
ancer	-7652
▁2013,	-7653
▁saved	-7654
▁danger	-7655
▁imprison	-7656
▁disclosed	-7657
▁execution	-7658
▁definition	-7659
80	-7660
AR	-7661
▁Ap	-7662
name	-7663
▁ther	-7664
▁thin	-7665
▁Forum	-7666
▁slowdown	-7667
At	-7668
war	-7669
eters	-7670
▁truck	-7671
▁booked	-7672
▁portal	-7673
▁Myanmar	-7674
▁newspapers	-7675
▁consciousness	-7676
orthy	-7677
ryong	-7678
▁perce	-7679
Chairman	-7680
▁anywhere	-7681
▁bringing	-7682
What	-7683
▁advis	-7684
▁statue	-7685
▁grounds	-7686
▁noodles	-7687
▁Gyeongju	-7688
▁servants	-7689
▁reference	-7690
▁integration	-7691
osc	-7692
▁Sal	-7693
▁crew	-7694
▁duties	-7695
▁marked	-7696
▁routes	-7697
▁surprising	-7698
atin	-7699
▁Force	-7700
▁monop	-7701
▁recon	-7702
▁Unions	-7703
▁Housing	-7704
▁Confucian	-7705
▁inauguration	-7706
avil	-7707
▁samples	-7708
▁frequency	-7709
▁responses	-7710
▁vegetables	-7711
ria	-7712
▁Up	-7713
▁shel	-7714
▁Rural	-7715
▁spoke	-7716
▁attempts	-7717
▁characterized	-7718
lands	-7719
▁soul	-7720
▁taught	-7721
▁examined	-7722
▁Conference	-7723
▁connecting	-7724
▁achievement	-7725
▁anticipated	-7726
▁Com	-7727
▁refr	-7728
▁guilty	-7729
▁makeup	-7730
▁exception	-7731
▁profession	-7732
hun	-7733
▁ped	-7734
enery	-7735
Although	-7736
▁academy	-7737
▁offline	-7738
▁Cooperation	-7739
▁Author	-7740
▁emotion	-7741
▁renewable	-7742
▁legs	-7743
▁ferry	-7744
ighters	-7745
▁iPhone	-7746
▁estimate	-7747
▁unlikely	-7748
jom	-7749
▁Buk	-7750
▁SBS	-7751
elsius	-7752
▁winds	-7753
▁foster	-7754
▁Theater	-7755
▁invoice	-7756
ID	-7757
ech	-7758
ibr	-7759
▁hire	-7760
▁banking	-7761
▁Catholic	-7762
▁Particip	-7763
▁Ja	-7764
▁Nat	-7765
▁nan	-7766
▁2012	-7767
▁Somet	-7768
utation	-7769
▁dischar	-7770
▁ideology	-7771
▁initially	-7772
▁191	-7773
▁Foot	-7774
arrass	-7775
▁presc	-7776
▁restructuring	-7777
TV	-7778
▁Yeo	-7779
▁hack	-7780
▁heated	-7781
▁II	-7782
lose	-7783
▁Hana	-7784
▁Show	-7785
▁aest	-7786
ximately	-7787
▁deficit	-7788
▁Everyone	-7789
▁comparison	-7790
▁discussing	-7791
▁enforcement	-7792
▁effectiveness	-7793
rid	-7794
xit	-7795
▁193	-7796
▁sty	-7797
▁tun	-7798
eling	-7799
ourse	-7800
▁1990	-7801
ortion	-7802
▁recip	-7803
▁millions	-7804
▁demanding	-7805
▁reconstruction	-7806
chest	-7807
▁loud	-7808
▁sevent	-7809
▁Panmunjom	-7810
▁mandatory	-7811
▁increasingly	-7812
orted	-7813
▁mine	-7814
▁soil	-7815
▁hired	-7816
▁ritual	-7817
▁cigaret	-7818
ifications	-7819
itz	-7820
plus	-7821
rael	-7822
▁veter	-7823
▁donated	-7824
▁gravity	-7825
▁Elementary	-7826
▁proportional	-7827
wr	-7828
▁CN	-7829
▁Book	-7830
▁Byeong	-7831
▁equity	-7832
▁papers	-7833
▁pastor	-7834
▁shipment	-7835
▁Step	-7836
▁Various	-7837
▁Shanghai	-7838
▁reflecting	-7839
ails	-7840
tech	-7841
▁Town	-7842
anches	-7843
▁incent	-7844
▁palace	-7845
▁Commerce	-7846
▁realistic	-7847
▁arms	-7848
▁isol	-7849
▁tied	-7850
▁horse	-7851
▁harder	-7852
▁raises	-7853
▁Celsius	-7854
▁affiliates	-7855
▁attractive	-7856
▁nav	-7857
inema	-7858
oviet	-7859
irable	-7860
itative	-7861
▁plenary	-7862
▁captured	-7863
▁guaranteed	-7864
▁cancellation	-7865
70	-7866
▁exem	-7867
▁root	-7868
erences	-7869
▁Branch	-7870
▁passes	-7871
▁challenges	-7872
▁separation	-7873
zen	-7874
cert	-7875
▁contrary	-7876
▁interven	-7877
▁talented	-7878
▁immediate	-7879
▁utilizing	-7880
IN	-7881
▁Ma	-7882
▁Crit	-7883
▁cable	-7884
▁Brexit	-7885
▁terror	-7886
▁amazing	-7887
▁cultures	-7888
▁processed	-7889
▁Headquarters	-7890
▁42	-7891
rian	-7892
▁Bas	-7893
▁Wan	-7894
▁evac	-7895
ulates	-7896
▁virus	-7897
▁intern	-7898
▁sought	-7899
▁savings	-7900
▁Maritime	-7901
▁embarrass	-7902
hyuk	-7903
▁Dav	-7904
▁fru	-7905
▁hes	-7906
icate	-7907
▁boast	-7908
istries	-7909
▁shouldn	-7910
▁5,	-7911
▁Coast	-7912
▁waters	-7913
▁guidance	-7914
▁celebrate	-7915
▁supporters	-7916
imens	-7917
▁marks	-7918
▁Winter	-7919
▁tastes	-7920
▁elig	-7921
▁Hello	-7922
itively	-7923
▁Awards	-7924
▁herself	-7925
▁collecting	-7926
ien	-7927
▁FC	-7928
▁impe	-7929
oseong	-7930
beom	-7931
gage	-7932
▁fant	-7933
loaded	-7934
▁netiz	-7935
▁Confed	-7936
▁chances	-7937
▁opposing	-7938
▁printing	-7939
▁concentrate	-7940
▁restoration	-7941
iano	-7942
▁50%	-7943
▁rub	-7944
▁voc	-7945
▁elev	-7946
▁roles	-7947
▁finals	-7948
▁settle	-7949
▁hitting	-7950
▁journalists	-7951
fl	-7952
oly	-7953
▁48	-7954
▁Map	-7955
▁lyr	-7956
▁tough	-7957
▁greatest	-7958
▁Democracy	-7959
bles	-7960
play	-7961
ether	-7962
▁Open	-7963
▁blog	-7964
▁desk	-7965
▁pride	-7966
▁straw	-7967
▁Ambass	-7968
▁livestock	-7969
▁ministers	-7970
▁measurement	-7971
oe	-7972
aled	-7973
▁hat	-7974
▁Cand	-7975
▁Mean	-7976
icipal	-7977
▁Israel	-7978
▁Sweden	-7979
▁inning	-7980
▁stands	-7981
▁operator	-7982
▁targeting	-7983
▁virtually	-7984
▁automobile	-7985
fall	-7986
▁cha	-7987
▁pad	-7988
pring	-7989
ushed	-7990
▁lights	-7991
▁titled	-7992
▁worship	-7993
▁manufacturers	-7994
chae	-7995
▁hasn	-7996
▁mask	-7997
▁button	-7998
▁easing	-7999
▁mistakes	-8000
▁abandoned	-8001
▁breakfast	-8002
▁selecting	-8003
▁celebrities	-8004
▁voluntarily	-8005
-3	-8006
Am	-8007
bage	-8008
wise	-8009
igrap	-8010
▁doctors	-8011
▁utilize	-8012
▁finishing	-8013
▁reviewing	-8014
▁entreprene	-8015
▁Tom	-8016
▁2015.	-8017
▁reviewed	-8018
▁Hollywood	-8019
▁ministries	-8020
▁confrontation	-8021
amin	-8022
▁Ltd	-8023
▁1980	-8024
▁gifts	-8025
▁voters	-8026
▁Pacific	-8027
▁branches	-8028
▁experiencing	-8029
gyu	-8030
licop	-8031
▁aren	-8032
▁Silla	-8033
▁antib	-8034
▁fewer	-8035
amiliar	-8036
▁ending	-8037
▁engage	-8038
▁physic	-8039
▁Britain	-8040
▁Jeonbuk	-8041
▁handling	-8042
▁temporarily	-8043
▁Chungcheongnam	-8044
.5%	-8045
pool	-8046
▁beef	-8047
▁cute	-8048
▁graph	-8049
ranking	-8050
▁flavor	-8051
▁warned	-8052
▁Instagram	-8053
▁classroom	-8054
lor	-8055
comp	-8056
rooms	-8057
▁fold	-8058
▁tens	-8059
▁trig	-8060
▁Class	-8061
▁findings	-8062
▁judiciary	-8063
▁convergence	-8064
▁Championship	-8065
orney	-8066
▁trop	-8067
▁consent	-8068
▁praised	-8069
▁vessels	-8070
▁Football	-8071
▁semiconductors	-8072
▁20%	-8073
▁dies	-8074
▁sear	-8075
▁fires	-8076
hibition	-8077
▁comprom	-8078
▁helicop	-8079
ray	-8080
▁ax	-8081
▁robots	-8082
▁expense	-8083
▁passage	-8084
▁speaker	-8085
▁apologize	-8086
▁membership	-8087
▁Communication	-8088
▁43	-8089
▁ble	-8090
After	-8091
▁stir	-8092
▁unions	-8093
▁receipt	-8094
▁seconds	-8095
▁talents	-8096
▁therapy	-8097
▁unclear	-8098
▁welcome	-8099
▁Broadcast	-8100
▁supplement	-8101
▁Job	-8102
▁lies	-8103
▁proof	-8104
▁Ambassador	-8105
▁advantages	-8106
4.	-8107
▁Rest	-8108
▁stip	-8109
▁zero	-8110
▁Inspect	-8111
▁targets	-8112
▁startups	-8113
▁animation	-8114
▁controlled	-8115
▁transformed	-8116
▁corresponding	-8117
PG	-8118
shin	-8119
▁Out	-8120
▁Turk	-8121
antial	-8122
▁ancest	-8123
▁buried	-8124
President	-8125
▁phenomena	-8126
▁reactions	-8127
bak	-8128
grat	-8129
eline	-8130
▁evil	-8131
▁fabric	-8132
▁impose	-8133
▁Eastern	-8134
▁Federal	-8135
▁telling	-8136
▁ordinance	-8137
▁violations	-8138
▁translation	-8139
MA	-8140
lock	-8141
▁Well	-8142
▁soph	-8143
▁trib	-8144
glomer	-8145
▁Micro	-8146
▁script	-8147
▁Regional	-8148
▁colorful	-8149
▁Prosecutor	-8150
▁consistent	-8151
fit	-8152
▁Ed	-8153
Even	-8154
▁hang	-8155
▁Yeosu	-8156
▁crowded	-8157
▁daycare	-8158
▁smoking	-8159
▁directed	-8160
▁producer	-8161
▁representation	-8162
▁GM	-8163
▁mig	-8164
clock	-8165
uster	-8166
▁nose	-8167
ensity	-8168
myeong	-8169
▁Jinju	-8170
▁disag	-8171
▁innoc	-8172
▁Finally	-8173
▁violated	-8174
▁subsidies	-8175
▁structures	-8176
▁progressive	-8177
▁192	-8178
▁Mart	-8179
▁pool	-8180
▁Their	-8181
▁Soviet	-8182
▁congrat	-8183
▁bathroom	-8184
▁workplace	-8185
▁AS	-8186
▁Right	-8187
▁simpl	-8188
▁drinks	-8189
▁transc	-8190
▁cameras	-8191
▁balanced	-8192
▁operates	-8193
▁thousand	-8194
▁directions	-8195
▁CJ	-8196
▁por	-8197
▁Rail	-8198
▁exit	-8199
▁keeps	-8200
▁enters	-8201
▁limits	-8202
▁powder	-8203
anguages	-8204
▁logistics	-8205
tic	-8206
▁pou	-8207
▁frag	-8208
tering	-8209
▁Woori	-8210
▁tells	-8211
avilion	-8212
▁headed	-8213
▁Official	-8214
▁conglomer	-8215
▁feasibility	-8216
▁unemployment	-8217
PS	-8218
food	-8219
▁Gen	-8220
▁Kin	-8221
inent	-8222
▁picked	-8223
▁Teacher	-8224
▁seniors	-8225
▁radiation	-8226
▁tu	-8227
▁FSS	-8228
▁fare	-8229
▁2018,	-8230
▁Judge	-8231
▁Lunar	-8232
▁returns	-8233
▁deceased	-8234
▁detention	-8235
▁exchanged	-8236
▁represented	-8237
ouds	-8238
wave	-8239
▁essence	-8240
▁organize	-8241
▁calculation	-8242
▁transparent	-8243
So	-8244
▁hik	-8245
▁lie	-8246
month	-8247
▁Ship	-8248
angible	-8249
imensional	-8250
▁worldwide	-8251
▁calculated	-8252
▁functional	-8253
▁simultaneously	-8254
6.	-8255
gok	-8256
▁BMW	-8257
▁apart	-8258
▁skill	-8259
▁nursing	-8260
▁exposure	-8261
▁diagnosed	-8262
▁basketball	-8263
box	-8264
▁Daily	-8265
▁remem	-8266
▁Songpa	-8267
▁phrase	-8268
▁tonight	-8269
▁discovery	-8270
ifier	-8271
▁perp	-8272
▁quot	-8273
fledged	-8274
▁poison	-8275
▁graduation	-8276
▁reputation	-8277
ima	-8278
abet	-8279
page	-8280
sect	-8281
▁Gumi	-8282
▁hopes	-8283
▁fruits	-8284
▁Actress	-8285
▁options	-8286
▁scenery	-8287
▁departure	-8288
▁indicates	-8289
▁photograph	-8290
15	-8291
enses	-8292
uters	-8293
▁Base	-8294
▁pour	-8295
▁Islam	-8296
▁hypot	-8297
▁retal	-8298
▁swing	-8299
▁55	-8300
▁hits	-8301
▁cyber	-8302
▁layer	-8303
▁immers	-8304
▁prompt	-8305
▁assistance	-8306
▁interviews	-8307
▁observation	-8308
abuk	-8309
idate	-8310
perity	-8311
▁declined	-8312
▁pleasure	-8313
▁combining	-8314
▁governance	-8315
▁Confederation	-8316
▁constitutional	-8317
OC	-8318
word	-8319
▁salt	-8320
▁conce	-8321
▁wheel	-8322
▁reverse	-8323
▁smoothly	-8324
▁exhibitions	-8325
▁countermeasures	-8326
gram	-8327
▁han	-8328
adays	-8329
▁lady	-8330
▁ware	-8331
▁Cheol	-8332
▁repay	-8333
▁buyers	-8334
iability	-8335
▁funding	-8336
▁normally	-8337
▁succession	-8338
▁disabilities	-8339
IA	-8340
life	-8341
active	-8342
▁speculation	-8343
▁productivity	-8344
akh	-8345
inity	-8346
▁spin	-8347
▁Tower	-8348
▁horiz	-8349
▁likes	-8350
▁split	-8351
▁driven	-8352
▁Studies	-8353
▁Meanwhile	-8354
▁Taiwanese	-8355
lihood	-8356
▁ambass	-8357
▁assumed	-8358
▁Agreement	-8359
▁languages	-8360
hou	-8361
▁Dom	-8362
▁fly	-8363
▁Press	-8364
▁stored	-8365
▁rebound	-8366
▁theories	-8367
▁architecture	-8368
3.	-8369
gae	-8370
▁(7	-8371
xual	-8372
▁ori	-8373
▁bags	-8374
▁climb	-8375
▁Argent	-8376
▁desired	-8377
▁prolong	-8378
atization	-8379
▁punished	-8380
▁unfamiliar	-8381
▁bicy	-8382
▁incumb	-8383
▁winners	-8384
▁writers	-8385
▁Compared	-8386
▁assigned	-8387
▁donations	-8388
ps	-8389
hent	-8390
hyth	-8391
▁Dream	-8392
▁panel	-8393
▁Daewoo	-8394
▁Yongin	-8395
▁manual	-8396
▁friendship	-8397
ulf	-8398
▁44	-8399
▁topics	-8400
▁testing	-8401
▁Northern	-8402
▁quarters	-8403
▁preferred	-8404
▁acknowledged	-8405
dep	-8406
Anne	-8407
anda	-8408
▁Jour	-8409
▁emer	-8410
▁truly	-8411
▁digest	-8412
▁walked	-8413
▁electron	-8414
▁incorpor	-8415
▁dominated	-8416
▁affiliated	-8417
▁experiments	-8418
bery	-8419
stan	-8420
▁uns	-8421
stein	-8422
▁bullet	-8423
▁chocol	-8424
▁cartoon	-8425
▁inflation	-8426
On	-8427
▁Del	-8428
▁eggs	-8429
▁tail	-8430
ateful	-8431
ruking	-8432
▁genes	-8433
▁attacks	-8434
▁abnormal	-8435
urd	-8436
▁75	-8437
erted	-8438
▁alive	-8439
▁hoped	-8440
habilit	-8441
▁breath	-8442
▁affection	-8443
▁institutes	-8444
▁Imp	-8445
uated	-8446
▁ties	-8447
hwamun	-8448
▁2012,	-8449
▁founder	-8450
▁theoret	-8451
▁Chungbuk	-8452
▁childcare	-8453
▁conventional	-8454
▁om	-8455
ucheon	-8456
▁Reform	-8457
▁proved	-8458
▁expertise	-8459
▁consistently	-8460
▁specifically	-8461
▁800	-8462
▁urg	-8463
inals	-8464
▁Prem	-8465
▁cogn	-8466
▁2,000	-8467
▁Leader	-8468
▁golden	-8469
▁indict	-8470
▁lyrics	-8471
▁testim	-8472
▁advised	-8473
▁focuses	-8474
▁Mongolia	-8475
▁manpower	-8476
▁measured	-8477
▁Competition	-8478
bert	-8479
▁Dok	-8480
▁mun	-8481
▁laid	-8482
hether	-8483
itarian	-8484
▁format	-8485
▁revise	-8486
▁harvest	-8487
▁stepped	-8488
▁analysts	-8489
▁generate	-8490
▁purchases	-8491
oose	-8492
▁bub	-8493
▁glo	-8494
lessly	-8495
▁harsh	-8496
▁worksh	-8497
dimensional	-8498
60	-8499
▁Ur	-8500
ulpt	-8501
▁FTC	-8502
ighth	-8503
▁CSAT	-8504
▁Paju	-8505
▁dorm	-8506
▁Ansan	-8507
▁cargo	-8508
▁moral	-8509
▁encoun	-8510
▁jumped	-8511
ortheast	-8512
▁produces	-8513
▁weakness	-8514
▁Community	-8515
▁commander	-8516
▁incumbent	-8517
▁attendance	-8518
▁destruction	-8519
▁neighboring	-8520
▁subcontract	-8521
90	-8522
igious	-8523
▁farms	-8524
▁meets	-8525
▁defeated	-8526
▁excluding	-8527
oda	-8528
▁Kw	-8529
▁vary	-8530
▁demonstrated	-8531
car	-8532
mer	-8533
▁41	-8534
They	-8535
▁Bal	-8536
abled	-8537
▁Mount	-8538
▁cheering	-8539
▁everywhere	-8540
▁scholarship	-8541
▁Time	-8542
▁dawn	-8543
▁blank	-8544
chestra	-8545
▁Fourth	-8546
▁steady	-8547
▁equival	-8548
▁restore	-8549
▁coverage	-8550
▁correction	-8551
quet	-8552
▁Game	-8553
minute	-8554
▁Along	-8555
▁coexist	-8556
▁monitor	-8557
▁democratic	-8558
▁personally	-8559
▁intervention	-8560
▁Li	-8561
irth	-8562
▁190	-8563
▁edge	-8564
▁pred	-8565
▁unst	-8566
▁native	-8567
▁random	-8568
▁Southern	-8569
▁converted	-8570
▁investing	-8571
▁implementing	-8572
...	-8573
▁Ga	-8574
▁fav	-8575
▁lov	-8576
▁vit	-8577
▁Lord	-8578
▁Person	-8579
▁civilian	-8580
▁feedback	-8581
▁Exhibition	-8582
▁ultimately	-8583
▁8,	-8584
▁Bol	-8585
atching	-8586
ulative	-8587
▁heaven	-8588
▁invent	-8589
▁cheaper	-8590
▁particle	-8591
▁abilities	-8592
▁revealing	-8593
▁shipbuilding	-8594
cm	-8595
hyang	-8596
verty	-8597
▁5,000	-8598
▁distr	-8599
▁chronic	-8600
▁seventh	-8601
▁Thai	-8602
▁surge	-8603
▁lawyers	-8604
▁launching	-8605
▁immigration	-8606
▁involvement	-8607
spe	-8608
▁3-	-8609
▁Bund	-8610
acheon	-8611
▁burned	-8612
ottenham	-8613
▁evaluate	-8614
▁promising	-8615
▁livelihood	-8616
200	-8617
ifted	-8618
ument	-8619
▁3,000	-8620
▁abund	-8621
▁muscles	-8622
▁spiritual	-8623
▁wonderful	-8624
gung	-8625
▁wet	-8626
▁bowl	-8627
▁mini	-8628
opping	-8629
▁imper	-8630
▁imagine	-8631
▁poverty	-8632
▁reserve	-8633
▁romance	-8634
▁interaction	-8635
▁overwhelming	-8636
umes	-8637
▁maj	-8638
wards	-8639
ogether	-8640
▁listing	-8641
▁washing	-8642
stitution	-8643
▁indicted	-8644
▁childhood	-8645
▁desirable	-8646
▁explaining	-8647
enz	-8648
atis	-8649
▁unn	-8650
break	-8651
hyung	-8652
▁Aren	-8653
attered	-8654
▁Valley	-8655
▁immune	-8656
▁resume	-8657
astically	-8658
ciliation	-8659
▁blocking	-8660
▁accommodation	-8661
Lee	-8662
ymn	-8663
▁Ob	-8664
story	-8665
▁Wall	-8666
▁Bureau	-8667
▁remote	-8668
▁thinks	-8669
▁assistant	-8670
▁locations	-8671
▁associated	-8672
▁profitability	-8673
TE	-8674
iot	-8675
elled	-8676
▁Arabia	-8677
▁violent	-8678
▁scenario	-8679
▁voluntary	-8680
▁attraction	-8681
▁uncertainty	-8682
▁Bay	-8683
▁Dal	-8684
▁Kaz	-8685
eding	-8686
rible	-8687
▁gall	-8688
▁ring	-8689
▁vert	-8690
▁enorm	-8691
▁grass	-8692
▁rarely	-8693
▁refere	-8694
▁outlook	-8695
▁Sometimes	-8696
▁competing	-8697
▁preference	-8698
▁Gwanghwamun	-8699
▁deliberation	-8700
▁transmission	-8701
▁correspondent	-8702
hu	-8703
rem	-8704
▁USD	-8705
▁Mokpo	-8706
▁outer	-8707
▁20,000	-8708
▁Design	-8709
▁emerge	-8710
▁errors	-8711
▁Jinping	-8712
▁exciting	-8713
▁shoulder	-8714
▁probability	-8715
For	-8716
hin	-8717
moon	-8718
▁mac	-8719
▁Pres	-8720
▁Gunsan	-8721
▁banned	-8722
▁presents	-8723
▁receives	-8724
▁supervision	-8725
sm	-8726
▁deals	-8727
▁polar	-8728
▁leaked	-8729
centered	-8730
▁emphasizes	-8731
▁contemporary	-8732
-201	-8733
▁700	-8734
▁Joong	-8735
▁hurry	-8736
▁Should	-8737
▁seminar	-8738
▁crackdown	-8739
▁graduates	-8740
▁representing	-8741
▁tiss	-8742
▁clouds	-8743
▁indoor	-8744
▁acquire	-8745
ern	-8746
coin	-8747
bered	-8748
▁crowd	-8749
▁threw	-8750
▁autonomy	-8751
▁shortage	-8752
▁designation	-8753
25	-8754
ache	-8755
▁hub	-8756
▁1970	-8757
▁Canad	-8758
▁slump	-8759
▁Capital	-8760
▁Nuclear	-8761
▁failing	-8762
▁pursued	-8763
▁Cheongdo	-8764
▁entirely	-8765
▁relative	-8766
▁colleagues	-8767
▁publishing	-8768
▁threatened	-8769
habilitation	-8770
▁attractions	-8771
da	-8772
ilt	-8773
▁KO	-8774
rait	-8775
▁Suk	-8776
▁lit	-8777
▁Care	-8778
▁exag	-8779
scious	-8780
▁depth	-8781
▁flying	-8782
▁combines	-8783
cut	-8784
▁30%	-8785
▁vent	-8786
▁Later	-8787
▁draws	-8788
▁server	-8789
▁Iranian	-8790
▁viewing	-8791
▁Memorial	-8792
▁searching	-8793
▁Ann	-8794
▁cuts	-8795
aesong	-8796
earing	-8797
▁consol	-8798
▁laughter	-8799
▁relatives	-8800
▁creativity	-8801
▁Communications	-8802
100	-8803
mble	-8804
▁Tor	-8805
▁seiz	-8806
▁craft	-8807
▁infect	-8808
▁refugee	-8809
▁intensive	-8810
▁reflection	-8811
▁partnership	-8812
ago	-8813
iders	-8814
iforn	-8815
▁domin	-8816
▁deaths	-8817
▁ethnic	-8818
▁genres	-8819
▁capable	-8820
▁Broadcasting	-8821
▁100%	-8822
▁clar	-8823
▁slog	-8824
▁tank	-8825
▁James	-8826
▁ocean	-8827
▁Gimhae	-8828
▁authent	-8829
▁forming	-8830
▁choosing	-8831
▁Political	-8832
▁definitely	-8833
bezz	-8834
▁sle	-8835
eness	-8836
▁endu	-8837
▁stret	-8838
▁Hanjin	-8839
▁reveals	-8840
▁Typ	-8841
▁myth	-8842
▁Embass	-8843
▁designs	-8844
▁universal	-8845
▁grandfather	-8846
TO	-8847
inos	-8848
list	-8849
▁hal	-8850
▁bare	-8851
▁birds	-8852
▁lifest	-8853
▁posting	-8854
▁unified	-8855
▁reorganization	-8856
No	-8857
▁1.	-8858
▁oblig	-8859
eworthy	-8860
▁powers	-8861
▁prayer	-8862
ographic	-8863
▁Turkish	-8864
▁Californ	-8865
▁rankings	-8866
▁impeachment	-8867
.9%	-8868
well	-8869
west	-8870
▁sum	-8871
▁cher	-8872
▁armed	-8873
▁Embassy	-8874
▁Stephen	-8875
▁Agricultural	-8876
▁Constitution	-8877
▁crop	-8878
▁fert	-8879
atever	-8880
▁input	-8881
▁embezz	-8882
▁painful	-8883
▁territory	-8884
▁conversion	-8885
▁noteworthy	-8886
gyo	-8887
rog	-8888
icul	-8889
irty	-8890
▁Exc	-8891
▁tox	-8892
▁dump	-8893
priced	-8894
▁relat	-8895
▁sculpt	-8896
breaking	-8897
▁pregnant	-8898
▁traveled	-8899
▁evolution	-8900
▁imagination	-8901
▁sustainable	-8902
IP	-8903
va	-8904
atri	-8905
loor	-8906
▁2010	-8907
▁Cent	-8908
▁chest	-8909
▁Journal	-8910
▁explore	-8911
▁disclose	-8912
▁furniture	-8913
▁agreements	-8914
.7%	-8915
▁2-	-8916
fish	-8917
▁Dam	-8918
anies	-8919
▁grab	-8920
▁intr	-8921
▁Schol	-8922
▁History	-8923
▁granted	-8924
▁heading	-8925
AD	-8926
aut	-8927
drop	-8928
ueen	-8929
▁Yeah	-8930
▁midst	-8931
▁Contest	-8932
▁courage	-8933
▁Lawmaker	-8934
▁refriger	-8935
▁producers	-8936
enez	-8937
seop	-8938
▁Tong	-8939
▁Plaza	-8940
▁volat	-8941
▁heavily	-8942
▁replied	-8943
▁Taekwondo	-8944
▁California	-8945
▁liberation	-8946
)"	-8947
▁IP	-8948
▁Sure	-8949
▁2011,	-8950
▁output	-8951
ordinary	-8952
▁healing	-8953
col	-8954
▁6,	-8955
ogen	-8956
▁Web	-8957
▁satell	-8958
▁shocked	-8959
▁minimize	-8960
▁Jeollabuk	-8961
▁chocolate	-8962
▁Convention	-8963
▁investigative	-8964
▁transformation	-8965
rip	-8966
▁Mod	-8967
▁Psy	-8968
enger	-8969
▁Data	-8970
▁ongoing	-8971
▁worries	-8972
▁showcase	-8973
▁theaters	-8974
osa	-8975
▁120	-8976
▁Sil	-8977
▁bench	-8978
▁Forces	-8979
▁junior	-8980
▁utilized	-8981
▁container	-8982
▁decreasing	-8983
▁revitalize	-8984
▁civilization	-8985
aya	-8986
▁Oper	-8987
▁Talk	-8988
▁bell	-8989
▁bird	-8990
unction	-8991
▁exempt	-8992
▁pending	-8993
▁Suncheon	-8994
▁contacted	-8995
▁decreases	-8996
ami	-8997
asm	-8998
bae	-8999
aren	-9000
▁Mel	-9001
▁ages	-9002
▁hide	-9003
▁sees	-9004
▁flows	-9005
iations	-9006
▁50,000	-9007
▁Though	-9008
▁arrival	-9009
▁accomplish	-9010
yc	-9011
▁46	-9012
▁Gw	-9013
▁Franc	-9014
▁Sorry	-9015
▁humid	-9016
▁rhyth	-9017
▁happening	-9018
▁Australian	-9019
▁Kindergart	-9020
▁promotional	-9021
▁Geo	-9022
▁Five	-9023
▁muscle	-9024
▁weekly	-9025
▁mothers	-9026
▁netizens	-9027
▁decorated	-9028
▁prolonged	-9029
▁microorgan	-9030
week	-9031
▁Venez	-9032
▁boxes	-9033
▁vivid	-9034
▁bottle	-9035
▁journey	-9036
▁featured	-9037
▁Tottenham	-9038
▁worsening	-9039
▁immigrants	-9040
▁restricted	-9041
acket	-9042
▁Belg	-9043
▁Kumho	-9044
▁tower	-9045
▁zones	-9046
▁prepar	-9047
▁scoring	-9048
▁grateful	-9049
▁monetary	-9050
▁accounted	-9051
▁depression	-9052
.“	-9053
With	-9054
onym	-9055
▁ske	-9056
▁2008	-9057
▁burst	-9058
▁teeth	-9059
▁Cooper	-9060
▁Burning	-9061
▁seasons	-9062
▁enormous	-9063
▁regularly	-9064
▁completing	-9065
▁demonstrate	-9066
▁advantageous	-9067
imal	-9068
rome	-9069
▁Bro	-9070
▁pod	-9071
▁roll	-9072
▁prest	-9073
▁perfectly	-9074
▁encouraged	-9075
▁experimental	-9076
▁51	-9077
▁ru	-9078
zens	-9079
▁Lab	-9080
▁poured	-9081
▁dancing	-9082
▁Venezuel	-9083
▁magnetic	-9084
▁acceptance	-9085
▁distinguish	-9086
▁Bit	-9087
▁bold	-9088
▁scar	-9089
▁Without	-9090
▁decades	-9091
▁injuries	-9092
▁romantic	-9093
▁agriculture	-9094
igm	-9095
▁bin	-9096
oline	-9097
▁shed	-9098
▁lying	-9099
▁marry	-9100
itement	-9101
▁interm	-9102
▁Network	-9103
▁Building	-9104
▁protests	-9105
▁emphasize	-9106
▁explosion	-9107
▁complained	-9108
▁systematic	-9109
MF	-9110
▁god	-9111
▁gras	-9112
orship	-9113
▁opens	-9114
▁checks	-9115
▁merely	-9116
▁nights	-9117
▁Seungri	-9118
▁emphasis	-9119
▁electoral	-9120
born	-9121
▁Tre	-9122
there	-9123
▁lugg	-9124
▁Osaka	-9125
▁Urban	-9126
ulatory	-9127
▁habits	-9128
▁Expressway	-9129
hop	-9130
lix	-9131
vis	-9132
hong	-9133
▁Ban	-9134
▁Wol	-9135
▁nit	-9136
▁soy	-9137
▁van	-9138
table	-9139
▁2011	-9140
▁essay	-9141
▁legit	-9142
▁patri	-9143
▁Prince	-9144
▁harmon	-9145
▁fulfill	-9146
▁seizure	-9147
▁sponsored	-9148
kg	-9149
ura	-9150
▁(8	-9151
▁NC	-9152
▁drag	-9153
▁grave	-9154
viously	-9155
ographer	-9156
▁abolition	-9157
▁equivalent	-9158
▁differently	-9159
▁superintendent	-9160
▁49	-9161
anta	-9162
rate	-9163
▁Mapo	-9164
▁stuff	-9165
vereign	-9166
▁fought	-9167
▁enables	-9168
▁Protection	-9169
▁delegation	-9170
uit	-9171
leted	-9172
▁burd	-9173
▁feat	-9174
essions	-9175
telling	-9176
▁Cabinet	-9177
▁startup	-9178
▁Authority	-9179
▁diversity	-9180
▁approached	-9181
▁Environmental	-9182
▁Representatives	-9183
rae	-9184
▁Non	-9185
▁cow	-9186
▁Bill	-9187
▁liver	-9188
▁tries	-9189
▁Chamber	-9190
▁eligible	-9191
▁moisture	-9192
▁economies	-9193
▁Christianity	-9194
)."	-9195
.6%	-9196
▁Bent	-9197
▁Ital	-9198
▁KOSDA	-9199
▁overt	-9200
▁trail	-9201
section	-9202
▁fellow	-9203
▁shorter	-9204
▁floating	-9205
▁weekends	-9206
▁sovereign	-9207
▁relocation	-9208
Is	-9209
uis	-9210
ruck	-9211
view	-9212
▁belt	-9213
▁Berlin	-9214
▁enable	-9215
▁summar	-9216
▁compare	-9217
▁flights	-9218
▁shipped	-9219
▁adjusted	-9220
▁somewhere	-9221
▁electrical	-9222
▁broadcaster	-9223
dang	-9224
▁chef	-9225
▁Asset	-9226
▁immun	-9227
▁editing	-9228
▁luggage	-9229
▁questioned	-9230
▁organizational	-9231
11	-9232
▁1-	-9233
greg	-9234
▁wis	-9235
aired	-9236
▁exams	-9237
▁rainy	-9238
▁proven	-9239
▁heritage	-9240
▁batteries	-9241
▁missionary	-9242
ey	-9243
adow	-9244
▁Gap	-9245
▁Mag	-9246
ospel	-9247
▁clim	-9248
▁lifted	-9249
▁disposal	-9250
▁weakened	-9251
▁measuring	-9252
▁km	-9253
emen	-9254
izza	-9255
▁pip	-9256
▁Gall	-9257
▁guys	-9258
▁visa	-9259
length	-9260
▁shell	-9261
▁expend	-9262
▁riding	-9263
▁clients	-9264
▁inherit	-9265
▁lowering	-9266
▁underway	-9267
▁Americans	-9268
▁Indonesian	-9269
▁ambassador	-9270
▁inspections	-9271
▁manufacturer	-9272
▁Transportation	-9273
Ar	-9274
ado	-9275
udes	-9276
suing	-9277
contin	-9278
isticated	-9279
▁exemption	-9280
▁differentiated	-9281
OK	-9282
ouses	-9283
reced	-9284
General	-9285
▁dramatic	-9286
▁literary	-9287
▁utilization	-9288
.3%	-9289
▁VR	-9290
ician	-9291
▁Self	-9292
▁Wood	-9293
▁"2018	-9294
▁stuck	-9295
through	-9296
▁mirror	-9297
▁patrol	-9298
▁pledge	-9299
▁persons	-9300
▁surpassed	-9301
▁casualties	-9302
▁competitions	-9303
▁enthusiastic	-9304
Be	-9305
mmet	-9306
▁Isn	-9307
▁Coach	-9308
▁arise	-9309
▁spots	-9310
▁myster	-9311
▁Perhaps	-9312
▁burdens	-9313
▁forever	-9314
▁painted	-9315
▁Planning	-9316
▁Training	-9317
▁investor	-9318
▁unnecess	-9319
▁prominent	-9320
▁sentences	-9321
▁instructors	-9322
otyp	-9323
▁2.5	-9324
▁Ron	-9325
▁dil	-9326
agoda	-9327
▁tent	-9328
▁sells	-9329
▁Empire	-9330
▁contrad	-9331
▁sunlight	-9332
government	-9333
▁graduated	-9334
ads	-9335
▁7,	-9336
▁wash	-9337
igital	-9338
▁Rober	-9339
▁buyer	-9340
▁apparent	-9341
recedented	-9342
▁protected	-9343
▁aggressive	-9344
.4%	-9345
ford	-9346
rose	-9347
▁Chul	-9348
▁Kwak	-9349
▁Mich	-9350
▁caut	-9351
▁drove	-9352
▁dating	-9353
▁couples	-9354
▁observe	-9355
▁outlets	-9356
▁perpetr	-9357
▁brothers	-9358
▁breathing	-9359
▁emissions	-9360
▁appliances	-9361
▁attributed	-9362
▁negotiating	-9363
▁entrepreneurs	-9364
▁extraordinary	-9365
Go	-9366
▁bon	-9367
▁jur	-9368
▁flaw	-9369
▁sang	-9370
▁worn	-9371
▁KOSPI	-9372
▁bloom	-9373
▁fired	-9374
▁petro	-9375
▁toile	-9376
▁Reuters	-9377
▁designer	-9378
▁protecting	-9379
real	-9380
umin	-9381
▁rig	-9382
▁angle	-9383
▁vocal	-9384
▁Control	-9385
▁cautious	-9386
▁premiums	-9387
▁accepting	-9388
▁ears	-9389
▁pock	-9390
forced	-9391
▁floors	-9392
▁inland	-9393
▁peaceful	-9394
▁publicly	-9395
▁Candidate	-9396
▁Companies	-9397
▁finalized	-9398
▁narrative	-9399
appropriate	-9400
▁excitement	-9401
▁playground	-9402
▁theoretical	-9403
.8%	-9404
flix	-9405
hang	-9406
icular	-9407
▁switch	-9408
restrial	-9409
▁judging	-9410
▁describe	-9411
▁postpone	-9412
▁terminal	-9413
▁appearing	-9414
▁defendant	-9415
▁encouraging	-9416
▁disappointed	-9417
pay	-9418
..."	-9419
ammar	-9420
▁subt	-9421
▁Dokdo	-9422
▁sport	-9423
▁200,000	-9424
▁Consumer	-9425
▁instrument	-9426
▁competitors	-9427
▁provisional	-9428
can	-9429
▁Golden	-9430
▁frozen	-9431
ondition	-9432
▁daytime	-9433
iana	-9434
▁Pak	-9435
meter	-9436
▁enemy	-9437
▁gains	-9438
▁Meeting	-9439
▁affects	-9440
▁barriers	-9441
▁outbreak	-9442
▁Inspection	-9443
▁mainstream	-9444
▁47	-9445
▁Ref	-9446
▁mic	-9447
▁abst	-9448
▁seaw	-9449
▁breast	-9450
▁critics	-9451
▁federal	-9452
▁forests	-9453
▁economics	-9454
▁relativity	-9455
▁sophisticated	-9456
rogen	-9457
▁wound	-9458
▁Credit	-9459
▁frustr	-9460
▁Bucheon	-9461
▁footage	-9462
▁neither	-9463
▁humanity	-9464
▁restored	-9465
▁beneficial	-9466
▁instruments	-9467
Le	-9468
roid	-9469
▁Noh	-9470
inery	-9471
▁Ssang	-9472
▁infer	-9473
▁Nations	-9474
▁rescued	-9475
▁circumst	-9476
▁searched	-9477
▁unstable	-9478
▁urgently	-9479
▁municipal	-9480
▁consisting	-9481
▁unprecedented	-9482
NG	-9483
▁reluct	-9484
▁sensor	-9485
management	-9486
▁Kindergarten	-9487
lad	-9488
▁quit	-9489
▁hesit	-9490
▁30,000	-9491
▁welcom	-9492
▁Marilla	-9493
▁airline	-9494
▁eastern	-9495
▁lighting	-9496
▁telephone	-9497
▁remembered	-9498
izer	-9499
▁Hung	-9500
▁Trad	-9501
▁brib	-9502
▁fate	-9503
▁Hyeon	-9504
▁cryst	-9505
▁fried	-9506
▁stones	-9507
▁Netflix	-9508
▁roughly	-9509
▁Electric	-9510
▁concerts	-9511
▁tracking	-9512
▁calligrap	-9513
▁necessity	-9514
▁compromise	-9515
dri	-9516
kin	-9517
oys	-9518
▁9,	-9519
▁Huh	-9520
theless	-9521
▁feared	-9522
▁Italian	-9523
▁Republican	-9524
▁positively	-9525
▁legislative	-9526
45	-9527
lla	-9528
iest	-9529
▁nurt	-9530
▁dealt	-9531
▁drone	-9532
▁sheet	-9533
▁decade	-9534
▁heatwave	-9535
▁passport	-9536
▁diplomacy	-9537
▁predictions	-9538
▁consultations	-9539
▁Hi	-9540
eram	-9541
oric	-9542
▁lod	-9543
▁grace	-9544
▁behalf	-9545
▁ethics	-9546
▁capture	-9547
▁equality	-9548
▁occupied	-9549
▁dismissal	-9550
▁musicians	-9551
▁releasing	-9552
▁signature	-9553
▁presenting	-9554
▁publication	-9555
▁rehabilitation	-9556
▁Cy	-9557
undae	-9558
▁Bloom	-9559
▁Steel	-9560
▁texts	-9561
▁auction	-9562
▁carriers	-9563
▁issuance	-9564
▁infection	-9565
19	-9566
Let	-9567
▁tone	-9568
▁crying	-9569
▁applies	-9570
▁engines	-9571
▁handled	-9572
▁commonly	-9573
▁protested	-9574
▁intentions	-9575
18	-9576
ione	-9577
opic	-9578
rise	-9579
▁2009	-9580
▁lung	-9581
▁2010,	-9582
▁verify	-9583
▁Argentina	-9584
▁automatic	-9585
▁Statistics	-9586
▁prediction	-9587
omed	-9588
▁flock	-9589
▁trips	-9590
▁infring	-9591
▁noticed	-9592
▁congress	-9593
▁uploaded	-9594
▁primarily	-9595
▁arrangement	-9596
Don	-9597
nis	-9598
sil	-9599
yoon	-9600
▁vast	-9601
▁bloss	-9602
▁Kingdom	-9603
▁consequ	-9604
▁exceeds	-9605
▁lacking	-9606
▁pointing	-9607
▁featuring	-9608
▁recovered	-9609
.2%	-9610
outs	-9611
▁10-	-9612
▁bull	-9613
▁Liter	-9614
▁malls	-9615
▁incomp	-9616
formance	-9617
▁African	-9618
▁barrier	-9619
▁dynasty	-9620
▁commitment	-9621
.1%	-9622
LED	-9623
alle	-9624
imer	-9625
math	-9626
▁180	-9627
▁dual	-9628
▁pump	-9629
▁David	-9630
▁storm	-9631
▁novels	-9632
▁viewer	-9633
▁Kaesong	-9634
▁combine	-9635
▁psychology	-9636
▁identification	-9637
▁microorganisms	-9638
ERS	-9639
depth	-9640
▁dign	-9641
▁Stock	-9642
▁parks	-9643
diction	-9644
chairman	-9645
▁auditor	-9646
▁constitu	-9647
▁Chuncheon	-9648
▁indictment	-9649
▁criticizing	-9650
12	-9651
AI	-9652
onic	-9653
▁Los	-9654
▁Mom	-9655
owned	-9656
▁Take	-9657
▁crude	-9658
▁shots	-9659
iration	-9660
riminal	-9661
▁poetry	-9662
▁belongs	-9663
▁burning	-9664
▁ignored	-9665
▁imprisonment	-9666
lev	-9667
▁MO	-9668
dney	-9669
plant	-9670
▁hint	-9671
▁lone	-9672
▁Nexen	-9673
▁escal	-9674
▁Angeles	-9675
▁vitality	-9676
isa	-9677
usp	-9678
▁Pop	-9679
acent	-9680
gyeong	-9681
▁alley	-9682
▁stagn	-9683
▁stops	-9684
▁fairness	-9685
▁overtime	-9686
▁taxation	-9687
▁biological	-9688
▁initiative	-9689
DS	-9690
▁53	-9691
gans	-9692
▁USA	-9693
▁nin	-9694
segae	-9695
▁Dang	-9696
▁none	-9697
▁rush	-9698
utures	-9699
▁Beach	-9700
▁width	-9701
imeters	-9702
▁fisher	-9703
▁praise	-9704
▁Chapter	-9705
▁responding	-9706
azz	-9707
▁Jew	-9708
▁Fort	-9709
▁Space	-9710
▁divor	-9711
▁hyper	-9712
▁rival	-9713
▁sweat	-9714
▁implic	-9715
▁Goseong	-9716
▁passive	-9717
▁wireless	-9718
▁emergence	-9719
▁journalist	-9720
One	-9721
hoe	-9722
ora	-9723
elect	-9724
▁diam	-9725
▁erup	-9726
▁yuan	-9727
▁Ocean	-9728
▁brill	-9729
▁fines	-9730
▁holes	-9731
▁notes	-9732
▁snacks	-9733
▁congest	-9734
▁derived	-9735
▁dynamic	-9736
▁windows	-9737
▁develops	-9738
▁screened	-9739
▁Champions	-9740
▁documentary	-9741
ette	-9742
omes	-9743
▁hip	-9744
range	-9745
▁Mill	-9746
arents	-9747
▁Nobel	-9748
▁juice	-9749
▁unity	-9750
▁broker	-9751
▁latter	-9752
▁string	-9753
▁emperor	-9754
▁covering	-9755
▁disorder	-9756
▁founding	-9757
▁ourselves	-9758
▁unnecessary	-9759
▁,	-9760
sis	-9761
alem	-9762
▁Spring	-9763
▁Sydney	-9764
▁brings	-9765
▁resort	-9766
▁wisdom	-9767
▁Druking	-9768
▁Premier	-9769
▁attacked	-9770
▁disasters	-9771
▁postponed	-9772
▁developers	-9773
▁invitation	-9774
▁mechanical	-9775
▁conversations	-9776
▁qualification	-9777
▁Av	-9778
▁Ik	-9779
conn	-9780
▁Mob	-9781
asury	-9782
erity	-9783
woong	-9784
▁Audit	-9785
▁alarm	-9786
▁dissol	-9787
▁facial	-9788
▁lovely	-9789
▁merger	-9790
▁descend	-9791
▁horizon	-9792
▁slowing	-9793
▁typically	-9794
dam	-9795
▁250	-9796
oning	-9797
onsei	-9798
▁boil	-9799
hester	-9800
▁goalk	-9801
▁agents	-9802
▁cheese	-9803
▁scholar	-9804
▁gasoline	-9805
▁aftermath	-9806
▁comprehend	-9807
oT	-9808
▁x	-9809
▁je	-9810
chers	-9811
▁Never	-9812
▁laund	-9813
ergency	-9814
erential	-9815
▁Whether	-9816
▁chapter	-9817
▁depicts	-9818
▁deposits	-9819
▁minority	-9820
▁notified	-9821
▁approximately	-9822
MO	-9823
UV	-9824
ael	-9825
ests	-9826
▁10,	-9827
▁Sky	-9828
▁Hank	-9829
arency	-9830
▁tombs	-9831
ighting	-9832
▁absent	-9833
▁historic	-9834
▁Previously	-9835
oshi	-9836
endar	-9837
▁bone	-9838
▁arose	-9839
quarter	-9840
▁pulled	-9841
▁waited	-9842
▁bicycle	-9843
▁bribery	-9844
▁Canadian	-9845
▁abundant	-9846
▁scattered	-9847
▁organizing	-9848
13	-9849
BA	-9850
▁Rob	-9851
gwang	-9852
▁2009,	-9853
▁demol	-9854
▁fails	-9855
▁files	-9856
▁loyal	-9857
▁recur	-9858
▁Baekje	-9859
▁lesson	-9860
▁coastal	-9861
▁Language	-9862
▁aesthetic	-9863
▁allowance	-9864
▁confessed	-9865
▁exceeding	-9866
▁translated	-9867
bul	-9868
amen	-9869
ella	-9870
▁Sok	-9871
ested	-9872
▁Arch	-9873
▁Lake	-9874
▁Live	-9875
▁perf	-9876
▁sort	-9877
▁2014.	-9878
▁Maybe	-9879
▁cried	-9880
Because	-9881
▁unfold	-9882
▁Concert	-9883
▁edition	-9884
▁targeted	-9885
▁Shinsegae	-9886
oked	-9887
ribed	-9888
▁dict	-9889
▁wore	-9890
ushing	-9891
▁juris	-9892
▁nerve	-9893
▁obser	-9894
▁Kazakh	-9895
▁diesel	-9896
▁differ	-9897
▁underw	-9898
▁lessons	-9899
anchester	-9900
▁paradigm	-9901
▁terrible	-9902
zing	-9903
▁gro	-9904
▁vib	-9905
▁Hope	-9906
▁Kwan	-9907
▁grat	-9908
ieties	-9909
▁asleep	-9910
▁dozens	-9911
▁pedest	-9912
▁Fortunately	-9913
▁prestigious	-9914
,“	-9915
dy	-9916
uma	-9917
▁NH	-9918
ecut	-9919
▁189	-9920
▁Rad	-9921
enders	-9922
▁cataly	-9923
incerity	-9924
▁reaches	-9925
▁borrowed	-9926
▁connects	-9927
▁instructions	-9928
MC	-9929
imp	-9930
ito	-9931
igue	-9932
▁KBO	-9933
▁Sand	-9934
▁outs	-9935
▁Putin	-9936
▁Staff	-9937
▁neutr	-9938
▁assert	-9939
▁grammar	-9940
▁nucleus	-9941
▁shocking	-9942
▁workshop	-9943
▁copyright	-9944
▁entertain	-9945
▁partially	-9946
▁warehouse	-9947
▁mysterious	-9948
▁emphasizing	-9949
zo	-9950
sam	-9951
▁Est	-9952
▁Sar	-9953
▁mock	-9954
▁yard	-9955
▁accus	-9956
▁butter	-9957
▁legend	-9958
▁Product	-9959
▁retired	-9960
▁railroad	-9961
▁secretly	-9962
▁Brazilian	-9963
eous	-9964
▁edit	-9965
▁insp	-9966
▁spat	-9967
urious	-9968
▁Dance	-9969
▁Latin	-9970
▁electro	-9971
▁existed	-9972
▁logical	-9973
▁maritime	-9974
▁dependent	-9975
▁incorrect	-9976
▁prospects	-9977
▁approaching	-9978
▁acquaintances	-9979
Re	-9980
ta	-9981
▁(9	-9982
▁decis	-9983
▁Critics	-9984
▁synergy	-9985
▁surrounded	-9986
▁comfortably	-9987
▁broadcasters	-9988
▁irregularities	-9989
▁73	-9990
▁Sem	-9991
acles	-9992
▁Farm	-9993
▁pays	-9994
▁wise	-9995
▁alert	-9996
▁intest	-9997
▁organs	-9998
▁rivers	-9999
▁ordering	-10000
▁Northeast	-10001
▁belonging	-10002
▁comparing	-10003
▁incidents	-10004
▁confirming	-10005
▁instructor	-10006
rum	-10007
irts	-10008
rust	-10009
▁Dod	-10010
bucks	-10011
dings	-10012
itory	-10013
▁Geor	-10014
▁cats	-10015
▁onto	-10016
profit	-10017
▁Bento	-10018
▁filmed	-10019
▁rhythm	-10020
▁300,000	-10021
▁Francis	-10022
▁possess	-10023
▁texture	-10024
▁persuade	-10025
▁Mongolian	-10026
▁packaging	-10027
▁determining	-10028
.".	-10029
That	-10030
eries	-10031
tains	-10032
essert	-10033
ifiers	-10034
▁adopt	-10035
▁pages	-10036
idation	-10037
▁Gochang	-10038
▁captain	-10039
▁compuls	-10040
▁reduces	-10041
▁abortion	-10042
▁homework	-10043
▁testimony	-10044
▁specializing	-10045
▁inappropriate	-10046
New	-10047
ita	-10048
burg	-10049
▁eaten	-10050
▁Medium	-10051
▁assist	-10052
▁bookst	-10053
asonable	-10054
▁ceiling	-10055
▁whereas	-10056
▁displays	-10057
▁pursuing	-10058
▁enterprise	-10059
▁54	-10060
auty	-10061
oded	-10062
rend	-10063
▁52-	-10064
▁Had	-10065
▁Cell	-10066
▁lens	-10067
▁mode	-10068
▁nutr	-10069
▁Greek	-10070
▁rains	-10071
▁toler	-10072
▁absurd	-10073
▁removal	-10074
▁weekday	-10075
▁Baseball	-10076
▁reliable	-10077
▁eliminated	-10078
▁incentives	-10079
IST	-10080
kind	-10081
▁cum	-10082
▁Know	-10083
umption	-10084
ustration	-10085
▁offensive	-10086
▁Particular	-10087
▁motivation	-10088
AC	-10089
FC	-10090
EAN	-10091
▁Mat	-10092
▁ine	-10093
icine	-10094
▁embr	-10095
▁pron	-10096
driven	-10097
▁Plant	-10098
▁overs	-10099
instein	-10100
▁Yonsei	-10101
▁shaking	-10102
▁deployed	-10103
▁greeting	-10104
▁homepage	-10105
▁abolished	-10106
▁delivering	-10107
▁determines	-10108
”,	-10109
acc	-10110
oma	-10111
icer	-10112
▁cave	-10113
▁irre	-10114
Americ	-10115
▁geomet	-10116
▁disturb	-10117
▁partial	-10118
▁billions	-10119
▁believing	-10120
▁certainly	-10121
▁determination	-10122
PR	-10123
ksan	-10124
pper	-10125
deung	-10126
▁Seod	-10127
▁erad	-10128
ennial	-10129
▁Using	-10130
▁bases	-10131
▁honey	-10132
▁piano	-10133
▁aiming	-10134
▁struck	-10135
▁varies	-10136
▁deleted	-10137
▁interpre	-10138
▁severely	-10139
▁touching	-10140
▁reluctant	-10141
Ex	-10142
inee	-10143
▁Naz	-10144
▁rib	-10145
party	-10146
▁bron	-10147
▁rede	-10148
▁2018.	-10149
▁adequ	-10150
▁breaks	-10151
▁stimul	-10152
▁Chungju	-10153
▁Liberal	-10154
▁Manager	-10155
▁Telecom	-10156
▁tuition	-10157
▁Geumgang	-10158
▁infinite	-10159
▁Bloomberg	-10160
▁brilliant	-10161
▁guarantees	-10162
▁noticeable	-10163
▁supplementary	-10164
TBC	-10165
eok	-10166
ini	-10167
rie	-10168
▁4-	-10169
▁GS	-10170
onto	-10171
stone	-10172
▁Anti	-10173
▁Sook	-10174
abetes	-10175
incess	-10176
obiles	-10177
▁recre	-10178
▁planet	-10179
▁seafood	-10180
▁Criminal	-10181
▁lifestyle	-10182
▁mobilized	-10183
▁sincerity	-10184
▁Christians	-10185
▁goalkeeper	-10186
▁nomination	-10187
▁conglomerates	-10188
cure	-10189
▁Jim	-10190
▁Spe	-10191
▁pair	-10192
▁moder	-10193
illance	-10194
▁lonely	-10195
▁saving	-10196
▁upward	-10197
▁appeals	-10198
▁bidding	-10199
▁prevents	-10200
▁philosoph	-10201
▁Manchester	-10202
▁Particularly	-10203
hyup	-10204
roat	-10205
▁Rem	-10206
▁dad	-10207
front	-10208
liers	-10209
▁Pung	-10210
▁Seol	-10211
▁gang	-10212
▁Paulo	-10213
▁sorrow	-10214
▁traces	-10215
▁Gangseo	-10216
▁Private	-10217
▁avoided	-10218
▁notable	-10219
▁bulletin	-10220
▁strictly	-10221
▁achieving	-10222
▁prohibited	-10223
▁suspicious	-10224
▁FI	-10225
fire	-10226
▁Kyu	-10227
▁Lou	-10228
▁Mil	-10229
▁lip	-10230
▁Jams	-10231
iating	-10232
▁doors	-10233
ambling	-10234
▁fusion	-10235
▁shower	-10236
▁choices	-10237
▁laundry	-10238
▁equation	-10239
▁welcomed	-10240
▁mechanism	-10241
▁celebration	-10242
▁Du	-10243
comes	-10244
lings	-10245
track	-10246
▁Vlad	-10247
alysis	-10248
itudes	-10249
▁tooth	-10250
▁Namyang	-10251
▁dessert	-10252
▁neutral	-10253
▁invasion	-10254
▁sections	-10255
▁distribut	-10256
▁resolving	-10257
▁commemorate	-10258
▁unconscious	-10259
KRW	-10260
isp	-10261
roke	-10262
▁myst	-10263
▁rear	-10264
▁2008,	-10265
▁pione	-10266
agnetic	-10267
▁silent	-10268
▁Library	-10269
▁symbolic	-10270
▁cognitive	-10271
▁encounter	-10272
▁announcing	-10273
▁treatments	-10274
elly	-10275
urse	-10276
▁(19	-10277
▁Imm	-10278
▁Area	-10279
▁pine	-10280
▁pull	-10281
▁temp	-10282
▁nutri	-10283
▁copies	-10284
▁Account	-10285
▁Jecheon	-10286
▁landing	-10287
▁thermal	-10288
▁downward	-10289
▁hardship	-10290
▁modified	-10291
▁verified	-10292
▁developer	-10293
▁distribute	-10294
▁jurisdiction	-10295
▁commemorative	-10296
▁conservatives	-10297
PCO	-10298
sin	-10299
▁63	-10300
rich	-10301
▁Gye	-10302
▁pin	-10303
▁sin	-10304
▁Disc	-10305
▁Gwan	-10306
▁Spec	-10307
▁Solid	-10308
▁fortun	-10309
▁soared	-10310
aughters	-10311
▁inquiry	-10312
▁sequence	-10313
▁Councilor	-10314
▁Starbucks	-10315
▁helicopter	-10316
▁drastically	-10317
▁multicultural	-10318
sol	-10319
▁PM	-10320
high	-10321
rane	-10322
rows	-10323
▁80%	-10324
▁Hit	-10325
▁Best	-10326
▁renow	-10327
▁Kimchi	-10328
▁clause	-10329
▁garbage	-10330
▁hosting	-10331
▁privacy	-10332
▁59	-10333
iser	-10334
step	-10335
▁119	-10336
▁Ben	-10337
▁Bet	-10338
▁Chil	-10339
▁lapt	-10340
ndrome	-10341
▁upset	-10342
▁accuracy	-10343
▁listened	-10344
▁celebrity	-10345
▁schedules	-10346
▁storytelling	-10347
▁Nov	-10348
▁Seog	-10349
▁publ	-10350
liance	-10351
▁shook	-10352
▁stamp	-10353
▁suits	-10354
▁Madrid	-10355
▁column	-10356
▁insect	-10357
▁Mexican	-10358
▁Toronto	-10359
▁linking	-10360
▁persist	-10361
▁touched	-10362
▁utility	-10363
▁Moreover	-10364
▁Teachers	-10365
▁counties	-10366
▁monument	-10367
▁Chungcheongbuk	-10368
24	-10369
acts	-10370
▁Lar	-10371
aning	-10372
▁asks	-10373
▁leap	-10374
▁Again	-10375
▁Night	-10376
▁aside	-10377
▁firmly	-10378
▁hiding	-10379
▁traded	-10380
secution	-10381
▁dressed	-10382
▁lifting	-10383
▁allegedly	-10384
▁arguments	-10385
▁intermedi	-10386
▁automobiles	-10387
To	-10388
ica	-10389
ixt	-10390
▁1.2	-10391
▁Ret	-10392
▁Asan	-10393
▁Hill	-10394
▁Long	-10395
▁apps	-10396
▁nick	-10397
▁soap	-10398
finals	-10399
osable	-10400
▁ghost	-10401
▁Friend	-10402
▁blocks	-10403
▁propag	-10404
elligent	-10405
▁beating	-10406
▁delight	-10407
▁dominant	-10408
▁infected	-10409
▁resigned	-10410
▁certified	-10411
▁strengths	-10412
▁disadvantage	-10413
mu	-10414
orous	-10415
▁lift	-10416
aduate	-10417
▁Yemen	-10418
▁acids	-10419
▁constr	-10420
▁nerves	-10421
▁wishes	-10422
▁Islamic	-10423
▁Program	-10424
▁formula	-10425
▁marking	-10426
▁attracts	-10427
▁basement	-10428
▁vertical	-10429
▁activated	-10430
▁photographs	-10431
▁transparency	-10432
HA	-10433
▁56	-10434
▁85	-10435
atar	-10436
▁tot	-10437
▁Call	-10438
▁Navy	-10439
▁Pass	-10440
▁horm	-10441
▁Muslim	-10442
▁Resear	-10443
▁repeat	-10444
▁batting	-10445
▁glasses	-10446
▁massage	-10447
▁abstract	-10448
▁referring	-10449
▁Di	-10450
anes	-10451
icism	-10452
▁Golf	-10453
▁Honam	-10454
ilation	-10455
lighten	-10456
▁Around	-10457
▁resemb	-10458
▁decisive	-10459
▁impressed	-10460
▁passionate	-10461
▁certificates	-10462
uum	-10463
▁Ms	-10464
Mart	-10465
cies	-10466
isan	-10467
▁Eth	-10468
▁Tell	-10469
▁boys	-10470
▁Gimpo	-10471
▁beliefs	-10472
▁relieve	-10473
▁satisfy	-10474
▁satellite	-10475
▁businessmen	-10476
auc	-10477
▁Mt	-10478
▁Ve	-10479
▁Boo	-10480
asium	-10481
▁2007	-10482
▁Orig	-10483
▁forth	-10484
ignment	-10485
▁Excuse	-10486
▁margin	-10487
▁treaty	-10488
ymnasium	-10489
▁crossed	-10490
▁soldier	-10491
▁conveyed	-10492
▁molecule	-10493
▁renowned	-10494
▁desperate	-10495
▁inequality	-10496
▁threatening	-10497
▁preferential	-10498
▁systematically	-10499
ca	-10500
VID	-10501
net	-10502
▁57	-10503
▁Gl	-10504
▁MC	-10505
▁Wi	-10506
▁Guro	-10507
▁pink	-10508
▁acted	-10509
▁dried	-10510
▁Jamsil	-10511
▁tested	-10512
▁briefly	-10513
▁highway	-10514
▁countless	-10515
▁suppliers	-10516
▁Prevention	-10517
▁attempting	-10518
opy	-10519
▁Jack	-10520
▁cosm	-10521
daemun	-10522
▁lacks	-10523
▁pizza	-10524
general	-10525
▁abused	-10526
▁poster	-10527
▁500,000	-10528
▁lending	-10529
▁sponsor	-10530
▁warming	-10531
▁confused	-10532
▁maximize	-10533
▁distinction	-10534
▁highlighted	-10535
▁communications	-10536
agen	-10537
▁Hum	-10538
▁obl	-10539
allel	-10540
speed	-10541
▁fasc	-10542
▁upgr	-10543
inseng	-10544
▁2019,	-10545
▁hobby	-10546
▁monks	-10547
▁wides	-10548
▁Seosan	-10549
▁bankrupt	-10550
▁diabetes	-10551
▁daughters	-10552
▁humanities	-10553
▁networking	-10554
▁recruiting	-10555
▁embezzlement	-10556
▁intentionally	-10557
Oh	-10558
▁72	-10559
▁40%	-10560
▁Bok	-10561
▁Bul	-10562
▁Cur	-10563
▁Gov	-10564
▁ads	-10565
▁cul	-10566
reens	-10567
▁1960	-10568
isible	-10569
▁attach	-10570
▁categor	-10571
▁inflamm	-10572
▁shutdown	-10573
▁sympathy	-10574
▁Standards	-10575
▁stabilize	-10576
▁algorithms	-10577
▁exploration	-10578
▁Ri	-10579
▁Gar	-10580
▁Kyo	-10581
onies	-10582
pread	-10583
▁Things	-10584
▁hardly	-10585
▁shapes	-10586
▁threats	-10587
▁Einstein	-10588
▁tropical	-10589
▁Emergency	-10590
▁expresses	-10591
▁publicity	-10592
▁realizing	-10593
▁wondering	-10594
▁acquaintance	-10595
ek	-10596
ih	-10597
ECD	-10598
fine	-10599
oche	-10600
▁Eul	-10601
▁Hans	-10602
▁JTBC	-10603
▁Prior	-10604
▁Short	-10605
▁ceram	-10606
▁click	-10607
▁funny	-10608
ologist	-10609
▁charts	-10610
▁tunnel	-10611
▁wallet	-10612
election	-10613
▁anytime	-10614
▁innings	-10615
▁Yeongdeung	-10616
▁programming	-10617
▁84	-10618
lers	-10619
▁70%	-10620
school	-10621
▁backl	-10622
▁clock	-10623
▁label	-10624
▁seeds	-10625
jeongbu	-10626
▁covers	-10627
▁hotels	-10628
▁invite	-10629
▁tennis	-10630
▁proteins	-10631
▁forgotten	-10632
▁nominated	-10633
▁approaches	-10634
▁overcoming	-10635
▁credibility	-10636
bow	-10637
▁IC	-10638
▁GDP	-10639
▁Treat	-10640
▁incur	-10641
▁occas	-10642
▁Proper	-10643
▁reader	-10644
▁faction	-10645
▁issuing	-10646
▁uniforms	-10647
▁Resources	-10648
▁compounds	-10649
▁expecting	-10650
▁prosperity	-10651
ann	-10652
gar	-10653
▁IB	-10654
inct	-10655
entle	-10656
named	-10657
▁rushed	-10658
▁seller	-10659
▁Chemical	-10660
▁Domestic	-10661
▁dissatis	-10662
▁pitchers	-10663
▁preserve	-10664
▁financing	-10665
▁suggesting	-10666
▁widespread	-10667
▁terrestrial	-10668
▁regeneration	-10669
▁subsidiaries	-10670
iar	-10671
ola	-10672
sea	-10673
▁2.	-10674
▁Den	-10675
▁Room	-10676
ifting	-10677
▁Report	-10678
▁Review	-10679
▁campus	-10680
▁define	-10681
▁glance	-10682
▁prejud	-10683
▁besides	-10684
▁enthusiasm	-10685
▁remarkable	-10686
▁surveillance	-10687
ba	-10688
▁Lo	-10689
soft	-10690
▁Max	-10691
▁guy	-10692
▁Robert	-10693
▁traged	-10694
▁Digital	-10695
▁defects	-10696
▁stepping	-10697
▁calculate	-10698
▁eliminate	-10699
▁intensity	-10700
▁neglected	-10701
▁description	-10702
▁influential	-10703
▁architectural	-10704
Do	-10705
ka	-10706
top	-10707
▁Op	-10708
otive	-10709
▁adds	-10710
▁hill	-10711
▁Corps	-10712
▁lands	-10713
looking	-10714
▁advent	-10715
▁hungry	-10716
▁slight	-10717
▁density	-10718
▁assessed	-10719
▁avoiding	-10720
▁consumed	-10721
▁suspects	-10722
▁advancement	-10723
▁constitution	-10724
AE	-10725
”.	-10726
dol	-10727
etime	-10728
▁MERS	-10729
▁conve	-10730
▁fairy	-10731
▁weigh	-10732
▁Newton	-10733
▁bitter	-10734
▁carrier	-10735
▁printed	-10736
▁removing	-10737
▁pregnancy	-10738
▁fundamentally	-10739
omi	-10740
▁58	-10741
▁PR	-10742
aldo	-10743
▁sed	-10744
▁tip	-10745
seung	-10746
▁tort	-10747
▁trem	-10748
aseong	-10749
inally	-10750
▁KEPCO	-10751
▁penetr	-10752
▁vacuum	-10753
▁Members	-10754
▁compound	-10755
▁gratitude	-10756
▁calculating	-10757
▁problematic	-10758
300	-10759
▁Hwa	-10760
birth	-10761
ingly	-10762
▁puts	-10763
▁shake	-10764
▁Master	-10765
▁cinema	-10766
▁mining	-10767
▁midterm	-10768
▁periodic	-10769
▁Venezuela	-10770
▁greenhouse	-10771
▁questioning	-10772
▁statistical	-10773
eli	-10774
sup	-10775
uine	-10776
▁awk	-10777
atoes	-10778
paper	-10779
▁Block	-10780
▁champ	-10781
▁pocket	-10782
▁Bundang	-10783
▁cooling	-10784
▁signals	-10785
▁dividend	-10786
▁mortgage	-10787
▁Uijeongbu	-10788
▁disposable	-10789
▁requesting	-10790
▁unreasonable	-10791
Min	-10792
ipo	-10793
▁adj	-10794
imbap	-10795
▁resh	-10796
econom	-10797
▁Index	-10798
▁rumor	-10799
▁trick	-10800
finding	-10801
▁flagship	-10802
▁specialty	-10803
▁circulation	-10804
▁Yeongdeungpo	-10805
▁alternatives	-10806
▁breakthrough	-10807
▁classification	-10808
▁Ev	-10809
▁Unf	-10810
words	-10811
▁pipe	-10812
▁till	-10813
rupted	-10814
▁shame	-10815
▁comedy	-10816
▁oppose	-10817
▁awkward	-10818
▁belated	-10819
▁escaped	-10820
▁resumed	-10821
▁recalled	-10822
▁Residents	-10823
▁discipline	-10824
▁preservation	-10825
kes	-10826
nae	-10827
▁64	-10828
ando	-10829
▁Bie	-10830
▁Kuk	-10831
▁Old	-10832
berry	-10833
▁fract	-10834
ecutive	-10835
▁Indeed	-10836
▁incred	-10837
▁trains	-10838
▁Mission	-10839
▁pouring	-10840
▁surplus	-10841
▁discounts	-10842
▁discourse	-10843
▁explosive	-10844
▁sincerely	-10845
▁viewpoint	-10846
▁Solidarity	-10847
▁Traditional	-10848
▁requirement	-10849
▁Jer	-10850
▁Nan	-10851
ocheon	-10852
▁curve	-10853
▁lucky	-10854
▁Anyang	-10855
▁bubble	-10856
▁induce	-10857
▁lasted	-10858
▁revive	-10859
▁themes	-10860
▁Enterpr	-10861
▁Renault	-10862
▁subsequ	-10863
▁audition	-10864
▁catching	-10865
▁necessarily	-10866
▁dramatically	-10867
MS	-10868
▁5-	-10869
▁99	-10870
qual	-10871
unch	-10872
▁Cast	-10873
herent	-10874
▁2007,	-10875
▁artif	-10876
▁crops	-10877
▁mural	-10878
rencies	-10879
▁Sokcho	-10880
▁neglig	-10881
curement	-10882
▁dignity	-10883
▁lodging	-10884
amination	-10885
▁exercises	-10886
lightenment	-10887
▁Kazakhstan	-10888
▁medication	-10889
▁hospitalized	-10890
▁occasionally	-10891
▁preparations	-10892
▁independently	-10893
dan	-10894
itar	-10895
ules	-10896
▁Vis	-10897
gered	-10898
▁Mary	-10899
▁Site	-10900
▁tiny	-10901
▁wand	-10902
▁menus	-10903
amation	-10904
▁Songdo	-10905
▁cooked	-10906
▁anxious	-10907
▁dispatch	-10908
▁imperial	-10909
▁innocent	-10910
▁examining	-10911
▁physicists	-10912
▁embarrassed	-10913
▁instability	-10914
▁additionally	-10915
▁qualifications	-10916
Pe	-10917
alt	-10918
ogi	-10919
sen	-10920
▁Kh	-10921
city	-10922
stop	-10923
▁15,	-10924
▁dat	-10925
oding	-10926
▁cott	-10927
▁seed	-10928
places	-10929
▁bones	-10930
▁brown	-10931
▁guards	-10932
▁scared	-10933
riptions	-10934
▁flowing	-10935
▁propose	-10936
▁downturn	-10937
▁whatever	-10938
▁Orchestra	-10939
▁chemicals	-10940
▁restriction	-10941
▁coordination	-10942
▁distributing	-10943
▁notification	-10944
▁Fer	-10945
▁rac	-10946
▁Fact	-10947
▁insc	-10948
market	-10949
▁lover	-10950
▁magic	-10951
▁scent	-10952
▁Andong	-10953
▁Battle	-10954
▁Modern	-10955
▁assume	-10956
▁senses	-10957
▁thrown	-10958
▁toilet	-10959
▁doubled	-10960
▁trained	-10961
▁Haeundae	-10962
▁warnings	-10963
▁Depending	-10964
▁behaviors	-10965
▁detection	-10966
▁apologized	-10967
▁indirectly	-10968
▁controlling	-10969
▁substantial	-10970
▁Shipbuilding	-10971
▁professionals	-10972
aeb	-10973
eing	-10974
ichi	-10975
▁tie	-10976
mates	-10977
osals	-10978
ealand	-10979
terior	-10980
▁seeks	-10981
▁toxic	-10982
verance	-10983
▁Concer	-10984
▁divide	-10985
▁embass	-10986
▁packed	-10987
ribution	-10988
▁fatigue	-10989
▁reforms	-10990
▁Startups	-10991
▁demonstrates	-10992
gon	-10993
ico	-10994
rams	-10995
▁Main	-10996
▁surf	-10997
▁ambig	-10998
▁cafes	-10999
▁recyc	-11000
▁voted	-11001
▁licens	-11002
▁tissue	-11003
▁transf	-11004
▁update	-11005
▁leakage	-11006
▁appropri	-11007
▁distrust	-11008
▁criticize	-11009
▁Generation	-11010
▁compulsory	-11011
▁realization	-11012
Me	-11013
don	-11014
ota	-11015
pur	-11016
▁Bur	-11017
elong	-11018
▁resid	-11019
driving	-11020
▁candle	-11021
▁stairs	-11022
▁Michael	-11023
▁Holdings	-11024
▁prevented	-11025
▁ingredient	-11026
▁deterioration	-11027
quis	-11028
▁Hun	-11029
bally	-11030
▁Cold	-11031
▁sung	-11032
▁ignore	-11033
▁trucks	-11034
▁Similar	-11035
▁ethical	-11036
▁genuine	-11037
▁ranging	-11038
▁solidarity	-11039
rine	-11040
song	-11041
▁CNN	-11042
Chang	-11043
▁2019.	-11044
▁Mirae	-11045
▁Story	-11046
▁femin	-11047
▁finds	-11048
▁Expect	-11049
▁argues	-11050
▁slogan	-11051
▁subord	-11052
▁surveys	-11053
▁comeback	-11054
▁parallel	-11055
▁speeding	-11056
▁believers	-11057
▁exhausted	-11058
▁fisheries	-11059
▁fostering	-11060
▁inquiries	-11061
▁invisible	-11062
▁rejection	-11063
▁spotlight	-11064
▁introduces	-11065
35	-11066
400	-11067
zes	-11068
▁Ly	-11069
owed	-11070
▁16,	-11071
matic	-11072
▁jail	-11073
▁maker	-11074
▁Gender	-11075
▁anonym	-11076
▁domain	-11077
▁drones	-11078
▁eighth	-11079
▁makers	-11080
▁slowed	-11081
chnology	-11082
▁illustr	-11083
▁infants	-11084
▁sensors	-11085
▁commerce	-11086
▁magazines	-11087
▁practiced	-11088
▁volatility	-11089
▁68	-11090
zhou	-11091
▁Bon	-11092
▁Det	-11093
▁Hoe	-11094
▁Inv	-11095
▁Nor	-11096
▁yen	-11097
itzer	-11098
▁fled	-11099
ective	-11100
season	-11101
▁blame	-11102
▁knife	-11103
sharing	-11104
▁astron	-11105
▁triang	-11106
▁podcast	-11107
▁supreme	-11108
▁ancestors	-11109
▁correctly	-11110
▁operational	-11111
▁Haw	-11112
onsan	-11113
sided	-11114
▁unav	-11115
▁thres	-11116
▁Senate	-11117
commerce	-11118
valuation	-11119
▁protagon	-11120
▁socially	-11121
▁exclusively	-11122
▁fingerprint	-11123
DI	-11124
Pro	-11125
▁umb	-11126
▁fool	-11127
eseong	-11128
▁2020.	-11129
▁Having	-11130
▁forgot	-11131
▁crashed	-11132
▁nitrogen	-11133
▁Relations	-11134
▁transplant	-11135
▁undergoing	-11136
▁meaningless	-11137
ida	-11138
▁66	-11139
rais	-11140
angel	-11141
▁reck	-11142
rovers	-11143
▁coinc	-11144
▁exped	-11145
▁pants	-11146
▁ranks	-11147
▁wider	-11148
▁Stream	-11149
▁endure	-11150
▁Ronaldo	-11151
▁entrust	-11152
▁symbols	-11153
▁missiles	-11154
▁presumed	-11155
romagnetic	-11156
▁decentral	-11157
▁indicating	-11158
▁philosophical	-11159
Talk	-11160
teok	-11161
▁11,	-11162
▁Set	-11163
South	-11164
ulent	-11165
▁barg	-11166
▁merc	-11167
▁sulf	-11168
▁beans	-11169
▁chaos	-11170
▁mound	-11171
▁taxis	-11172
▁analog	-11173
▁cherry	-11174
▁strang	-11175
▁differs	-11176
▁portrait	-11177
▁collusion	-11178
▁indicated	-11179
▁perceived	-11180
▁occupation	-11181
▁intensified	-11182
▁prospective	-11183
ON	-11184
bec	-11185
▁Sud	-11186
amine	-11187
heong	-11188
intech	-11189
▁Light	-11190
▁cakes	-11191
▁explo	-11192
▁resur	-11193
▁Junior	-11194
▁babies	-11195
▁barely	-11196
▁filter	-11197
▁quoted	-11198
▁solely	-11199
▁twenty	-11200
▁caution	-11201
▁closure	-11202
▁boundaries	-11203
▁comparable	-11204
▁ecological	-11205
▁occurrence	-11206
16	-11207
28	-11208
▁%	-11209
▁Ver	-11210
▁Wind	-11211
▁Officer	-11212
▁abolish	-11213
▁spatial	-11214
▁throwing	-11215
▁proposals	-11216
▁recruited	-11217
▁volunteers	-11218
▁Cooperative	-11219
▁accordingly	-11220
PA	-11221
Tr	-11222
dis	-11223
▁Ae	-11224
kwon	-11225
▁Pil	-11226
▁dye	-11227
▁haz	-11228
▁Alex	-11229
▁Plus	-11230
▁ampl	-11231
▁cope	-11232
▁landl	-11233
▁eldest	-11234
▁inflow	-11235
▁thesis	-11236
▁neglect	-11237
▁premise	-11238
▁tragedy	-11239
▁Interior	-11240
▁absorbed	-11241
▁honorary	-11242
▁reserved	-11243
▁ultimate	-11244
▁activists	-11245
▁declining	-11246
▁capability	-11247
▁connections	-11248
▁firefighters	-11249
cap	-11250
emet	-11251
itch	-11252
▁DSC	-11253
▁hug	-11254
▁Rich	-11255
▁Vict	-11256
▁flew	-11257
▁marg	-11258
▁rely	-11259
antine	-11260
▁ASEAN	-11261
▁Dasan	-11262
▁yield	-11263
elihood	-11264
▁filling	-11265
▁periods	-11266
▁conclude	-11267
▁suppress	-11268
vironments	-11269
▁defensive	-11270
▁excessively	-11271
IL	-11272
aste	-11273
geuk	-11274
uter	-11275
▁tap	-11276
amboo	-11277
ifice	-11278
uffle	-11279
usive	-11280
▁plum	-11281
ileged	-11282
rehens	-11283
▁bless	-11284
▁hurts	-11285
▁hanging	-11286
▁sympath	-11287
▁adjacent	-11288
▁attorney	-11289
▁elevator	-11290
okesperson	-11291
▁cigarette	-11292
▁installing	-11293
▁electronics	-11294
aki	-11295
kuk	-11296
phe	-11297
▁FA	-11298
▁ha	-11299
away	-11300
elve	-11301
spec	-11302
walk	-11303
▁cab	-11304
edian	-11305
oting	-11306
▁Choo	-11307
▁mold	-11308
hedral	-11309
▁Frank	-11310
▁fatal	-11311
▁hikes	-11312
▁lunar	-11313
▁pharm	-11314
▁relic	-11315
emetery	-11316
lements	-11317
▁cabinet	-11318
▁temples	-11319
▁wealthy	-11320
▁Shopping	-11321
▁enhanced	-11322
▁outcomes	-11323
▁broadcasts	-11324
▁philosopher	-11325
▁reconciliation	-11326
2)	-11327
’.	-11328
ICE	-11329
des	-11330
fol	-11331
str	-11332
▁(18	-11333
▁tor	-11334
asses	-11335
▁bail	-11336
▁carp	-11337
ilians	-11338
owners	-11339
Pacific	-11340
veloped	-11341
▁bronze	-11342
▁cloudy	-11343
▁notion	-11344
▁pagoda	-11345
▁topped	-11346
▁valley	-11347
chemical	-11348
▁Reserve	-11349
▁closest	-11350
▁longest	-11351
▁appealed	-11352
▁backlash	-11353
ographical	-11354
▁distorted	-11355
▁machinery	-11356
▁contradict	-11357
▁likelihood	-11358
▁intelligent	-11359
▁sovereignty	-11360
▁contributions	-11361
All	-11362
omy	-11363
pat	-11364
cost	-11365
▁25%	-11366
ocate	-11367
▁mour	-11368
▁plot	-11369
▁woke	-11370
celona	-11371
▁Roman	-11372
▁steep	-11373
▁adoles	-11374
▁liquor	-11375
▁wholes	-11376
▁servant	-11377
▁shelter	-11378
▁suspend	-11379
▁Actually	-11380
▁lifetime	-11381
▁nowadays	-11382
▁sessions	-11383
▁validity	-11384
▁excavation	-11385
17	-11386
39	-11387
moo	-11388
oupe	-11389
▁900	-11390
▁Mic	-11391
▁mol	-11392
archy	-11393
athon	-11394
chief	-11395
▁1950	-11396
▁Init	-11397
▁pupp	-11398
mmetry	-11399
▁chore	-11400
▁fence	-11401
▁plung	-11402
▁rocks	-11403
▁vague	-11404
▁Budget	-11405
▁Usually	-11406
▁desires	-11407
▁equally	-11408
▁evolved	-11409
▁guardian	-11410
▁campaigns	-11411
▁occurring	-11412
▁reception	-11413
▁witnesses	-11414
▁Expectations	-11415
▁prostitution	-11416
▁possibilities	-11417
only	-11418
▁12,	-11419
▁NIS	-11420
▁Num	-11421
▁Oil	-11422
▁tur	-11423
▁Hoon	-11424
▁Make	-11425
manned	-11426
▁empir	-11427
iculous	-11428
▁decomp	-11429
▁upload	-11430
▁Natural	-11431
▁elastic	-11432
▁islands	-11433
▁screens	-11434
▁violate	-11435
▁starring	-11436
▁proceeded	-11437
▁specified	-11438
▁compensate	-11439
▁congestion	-11440
▁efficiently	-11441
▁practically	-11442
▁67	-11443
Gang	-11444
▁Pet	-11445
arted	-11446
erial	-11447
▁(201	-11448
▁Mosc	-11449
▁Spir	-11450
rected	-11451
useong	-11452
▁drank	-11453
▁roots	-11454
▁Disney	-11455
interest	-11456
▁Hanyang	-11457
▁Nakdong	-11458
▁advisory	-11459
▁gambling	-11460
▁midnight	-11461
▁sacrific	-11462
▁literally	-11463
▁messenger	-11464
▁replacing	-11465
▁assaulting	-11466
▁conditioner	-11467
▁inheritance	-11468
▁environments	-11469
▁explanations	-11470
▁polarization	-11471
▁redevelopment	-11472
oser	-11473
▁Saem	-11474
▁cups	-11475
▁twin	-11476
▁airpl	-11477
▁Mobile	-11478
▁mature	-11479
▁oldest	-11480
▁underp	-11481
▁isolated	-11482
▁Administr	-11483
▁precisely	-11484
▁distinctive	-11485
▁distinguished	-11486
pil	-11487
▁Ta	-11488
star	-11489
▁Cat	-11490
▁Men	-11491
arded	-11492
proof	-11493
rowth	-11494
▁dere	-11495
▁knee	-11496
phones	-11497
▁Sales	-11498
▁revel	-11499
▁umbre	-11500
▁correl	-11501
▁medals	-11502
▁legally	-11503
▁manages	-11504
▁Barcelona	-11505
▁Seodaemun	-11506
▁bilateral	-11507
▁inventory	-11508
▁Pyeongchang	-11509
▁arbitration	-11510
▁justification	-11511
ni	-11512
occ	-11513
wage	-11514
▁mud	-11515
aying	-11516
▁Week	-11517
▁logo	-11518
▁webs	-11519
angeul	-11520
▁Event	-11521
▁debts	-11522
▁dense	-11523
aintiff	-11524
▁Bolton	-11525
▁fairly	-11526
▁wrapped	-11527
▁aviation	-11528
▁crossing	-11529
▁mobility	-11530
▁monopoly	-11531
▁pavilion	-11532
▁predicts	-11533
▁Ssangyong	-11534
▁strongest	-11535
▁synthetic	-11536
▁admissions	-11537
▁obligation	-11538
▁Unfortunately	-11539
2),	-11540
600	-11541
his	-11542
▁IS	-11543
▁Ice	-11544
▁SUV	-11545
esity	-11546
▁Dise	-11547
▁Mess	-11548
▁wond	-11549
▁Happy	-11550
▁flour	-11551
largest	-11552
▁cruise	-11553
▁outlet	-11554
American	-11555
▁implies	-11556
▁monopol	-11557
▁stating	-11558
▁indicator	-11559
▁publisher	-11560
▁physically	-11561
▁expenditure	-11562
▁transmitted	-11563
Then	-11564
apor	-11565
yard	-11566
▁vig	-11567
▁Expo	-11568
▁axis	-11569
▁tong	-11570
▁zomb	-11571
itivity	-11572
▁lovers	-11573
▁secrets	-11574
itzerland	-11575
▁complain	-11576
▁molecular	-11577
▁villagers	-11578
▁assignment	-11579
▁hypothesis	-11580
▁manufactured	-11581
got	-11582
hui	-11583
pow	-11584
idem	-11585
iner	-11586
▁rab	-11587
invest	-11588
▁2012.	-11589
▁2013.	-11590
▁poems	-11591
▁ramen	-11592
▁lineup	-11593
▁runner	-11594
▁Belgium	-11595
▁convert	-11596
▁facilit	-11597
▁flooded	-11598
▁pursuit	-11599
▁seekers	-11600
▁basically	-11601
▁deduction	-11602
▁nutrients	-11603
▁practicing	-11604
▁acknowledge	-11605
Con	-11606
Log	-11607
▁Wr	-11608
uber	-11609
▁30,	-11610
▁90%	-11611
▁cel	-11612
▁silk	-11613
▁Inside	-11614
▁Moscow	-11615
▁anyway	-11616
▁cotton	-11617
▁permit	-11618
▁evasion	-11619
▁spreads	-11620
▁tremend	-11621
▁Equality	-11622
▁Judicial	-11623
▁fortress	-11624
▁reversed	-11625
▁attitudes	-11626
▁preserved	-11627
▁recognizes	-11628
afe	-11629
▁95	-11630
▁sli	-11631
▁Pers	-11632
▁engr	-11633
▁gray	-11634
handed	-11635
vation	-11636
▁Cross	-11637
▁alien	-11638
▁tiger	-11639
▁rubber	-11640
▁Bitcoin	-11641
▁patents	-11642
▁shouted	-11643
▁tenants	-11644
▁vitamin	-11645
orruption	-11646
▁Property	-11647
▁considers	-11648
stitutional	-11649
▁Switzerland	-11650
edge	-11651
owon	-11652
▁Age	-11653
▁fog	-11654
▁fits	-11655
inates	-11656
▁2020,	-11657
▁offense	-11658
▁Creative	-11659
▁adoption	-11660
▁arriving	-11661
▁boarding	-11662
▁tensions	-11663
▁travelers	-11664
▁Everything	-11665
▁photography	-11666
▁Kon	-11667
▁See	-11668
▁Ten	-11669
▁Win	-11670
▁dying	-11671
▁ineff	-11672
▁lotus	-11673
▁swept	-11674
▁booths	-11675
▁guitar	-11676
▁housew	-11677
▁reborn	-11678
vernight	-11679
▁totally	-11680
committee	-11681
▁champion	-11682
▁seasonal	-11683
▁benchmark	-11684
▁estimates	-11685
▁plaintiff	-11686
▁threshold	-11687
▁disability	-11688
▁conservation	-11689
▁contributing	-11690
obb	-11691
▁61	-11692
acks	-11693
edia	-11694
laim	-11695
▁Dub	-11696
▁Top	-11697
▁bure	-11698
▁mush	-11699
▁Floor	-11700
▁dates	-11701
▁plenty	-11702
▁shrine	-11703
▁Venture	-11704
▁shifted	-11705
▁download	-11706
▁writings	-11707
▁providers	-11708
▁infectious	-11709
EA	-11710
Why	-11711
oft	-11712
baek	-11713
cult	-11714
▁Dog	-11715
▁Hen	-11716
▁tag	-11717
alent	-11718
ashes	-11719
▁Rain	-11720
▁gest	-11721
▁Saeng	-11722
▁trash	-11723
ainties	-11724
▁kicked	-11725
▁Futures	-11726
▁soaring	-11727
ilaterally	-11728
▁Gwangyang	-11729
▁mediation	-11730
▁discharged	-11731
gs	-11732
▁Lu	-11733
gwan	-11734
▁ash	-11735
itors	-11736
▁Chic	-11737
▁Uber	-11738
▁cuis	-11739
▁pets	-11740
▁Ilsan	-11741
▁hanbok	-11742
▁overhe	-11743
▁approve	-11744
▁activist	-11745
▁relieved	-11746
▁workweek	-11747
▁adjusting	-11748
▁childbirth	-11749
▁concerning	-11750
▁predicting	-11751
)'	-11752
leum	-11753
▁gal	-11754
▁Gate	-11755
▁neat	-11756
▁brush	-11757
▁portr	-11758
conduct	-11759
▁Except	-11760
▁gentle	-11761
▁refres	-11762
▁evident	-11763
▁posture	-11764
▁renewal	-11765
itational	-11766
▁infringe	-11767
▁websites	-11768
▁sacrifice	-11769
▁supplying	-11770
),"	-11771
▁Ot	-11772
isor	-11773
▁Byun	-11774
▁libr	-11775
▁Veter	-11776
▁audio	-11777
▁grasp	-11778
▁naval	-11779
▁ninth	-11780
written	-11781
▁farmer	-11782
▁repatri	-11783
▁morality	-11784
▁welcoming	-11785
800	-11786
hyo	-11787
▁62	-11788
illy	-11789
olen	-11790
▁Boy	-11791
▁mos	-11792
▁Choe	-11793
▁Unit	-11794
▁wrap	-11795
Please	-11796
atches	-11797
member	-11798
▁loses	-11799
▁metab	-11800
▁Advert	-11801
▁absorb	-11802
▁barrel	-11803
▁bribes	-11804
▁seized	-11805
▁leaking	-11806
▁striker	-11807
▁reversal	-11808
▁mechanics	-11809
▁objection	-11810
▁TO	-11811
kwan	-11812
oper	-11813
▁IMF	-11814
▁dur	-11815
being	-11816
inton	-11817
sters	-11818
▁ramp	-11819
▁Nexon	-11820
▁dilig	-11821
▁Heroes	-11822
▁refuse	-11823
▁rounds	-11824
▁united	-11825
▁preempt	-11826
▁shuttle	-11827
▁updated	-11828
▁Interest	-11829
▁treating	-11830
▁overnight	-11831
▁respected	-11832
▁retaliation	-11833
yi	-11834
▁Ba	-11835
▁Hel	-11836
chiat	-11837
suits	-11838
▁batt	-11839
iscrim	-11840
rolled	-11841
▁Chall	-11842
▁aides	-11843
▁allev	-11844
factory	-11845
roversy	-11846
▁BioLog	-11847
▁youths	-11848
mination	-11849
▁embassy	-11850
▁hacking	-11851
▁Hwaseong	-11852
▁calendar	-11853
▁criminals	-11854
▁describes	-11855
▁workplaces	-11856
▁reservations	-11857
▁unilaterally	-11858
ahn	-11859
lie	-11860
usc	-11861
▁OS	-11862
eman	-11863
foot	-11864
▁Gas	-11865
▁hem	-11866
▁hun	-11867
ambur	-11868
urned	-11869
▁Camb	-11870
▁bike	-11871
▁eleg	-11872
astics	-11873
family	-11874
▁Masan	-11875
▁eased	-11876
duction	-11877
▁Hadong	-11878
▁deeper	-11879
▁pollut	-11880
▁splend	-11881
▁catalyst	-11882
▁Democrats	-11883
▁Spokesman	-11884
▁fantastic	-11885
▁descendants	-11886
▁intersection	-11887
def	-11888
▁1.3	-11889
▁ank	-11890
▁Rome	-11891
▁pity	-11892
▁pose	-11893
semble	-11894
▁tours	-11895
▁Student	-11896
▁adverse	-11897
▁endless	-11898
▁unchang	-11899
▁cigarettes	-11900
▁accessibility	-11901
nut	-11902
cons	-11903
▁20-	-11904
achel	-11905
imacy	-11906
lined	-11907
▁tang	-11908
▁Patri	-11909
▁crash	-11910
▁disin	-11911
▁pepper	-11912
▁staged	-11913
▁sunset	-11914
▁Yeongam	-11915
▁painter	-11916
▁delicate	-11917
▁depicted	-11918
▁improves	-11919
▁surveyed	-11920
▁authentic	-11921
▁allowances	-11922
14	-11923
hind	-11924
woon	-11925
▁Kar	-11926
▁une	-11927
piece	-11928
▁2006	-11929
▁FIFA	-11930
▁Hyuk	-11931
▁Phys	-11932
▁laug	-11933
▁pond	-11934
▁ster	-11935
▁Being	-11936
▁march	-11937
▁dragon	-11938
▁metaph	-11939
avorable	-11940
▁Besides	-11941
▁abandon	-11942
▁empathy	-11943
▁smiling	-11944
▁controls	-11945
▁defender	-11946
▁dividing	-11947
▁executed	-11948
▁artifacts	-11949
▁liquidity	-11950
▁Pyeongtaek	-11951
▁cumulative	-11952
▁exercising	-11953
▁ideological	-11954
▁Pharmaceutical	-11955
exp	-11956
sim	-11957
uzz	-11958
▁LA	-11959
▁Use	-11960
edong	-11961
▁icon	-11962
▁ultr	-11963
▁2005,	-11964
▁fiber	-11965
▁giant	-11966
▁merit	-11967
▁Survey	-11968
▁Parents	-11969
▁microsc	-11970
▁nominee	-11971
▁sisters	-11972
▁sparked	-11973
▁vaccine	-11974
▁airlines	-11975
▁unmanned	-11976
▁BioLogics	-11977
▁Malaysian	-11978
▁disorders	-11979
▁engineers	-11980
▁Parliament	-11981
▁spectators	-11982
lu	-11983
rey	-11984
tier	-11985
▁130	-11986
▁14,	-11987
▁IoT	-11988
▁kne	-11989
aping	-11990
leges	-11991
▁adap	-11992
▁kiss	-11993
ielder	-11994
▁loves	-11995
▁wrink	-11996
▁Cambod	-11997
▁boring	-11998
▁hoping	-11999
▁styles	-12000
▁cheered	-12001
▁combust	-12002
▁laughed	-12003
▁profile	-12004
▁useless	-12005
▁warrants	-12006
▁injection	-12007
▁suggestion	-12008
▁regrettable	-12009
bes	-12010
pha	-12011
▁gym	-12012
uming	-12013
▁Rock	-12014
▁grain	-12015
▁naked	-12016
▁Summer	-12017
▁metals	-12018
economic	-12019
▁Emperor	-12020
▁enacted	-12021
▁exterior	-12022
▁perspect	-12023
▁shoulders	-12024
▁presidents	-12025
▁uncertainties	-12026
AP	-12027
▁Ry	-12028
▁Uk	-12029
ulty	-12030
▁Phot	-12031
▁rook	-12032
eeping	-12033
raisal	-12034
▁belly	-12035
▁lobby	-12036
▁steam	-12037
▁Hanbok	-12038
▁Season	-12039
▁lacked	-12040
▁magnet	-12041
▁shaken	-12042
▁speaks	-12043
▁teaser	-12044
heastern	-12045
▁Gangbuk	-12046
▁expands	-12047
▁revived	-12048
▁undergo	-12049
▁worrying	-12050
▁coalition	-12051
▁obtaining	-12052
▁broadcasted	-12053
py	-12054
.”.	-12055
▁AR	-12056
rium	-12057
▁(15	-12058
▁Gyo	-12059
▁lad	-12060
Seoul	-12061
▁scan	-12062
Gyeong	-12063
▁rooft	-12064
▁walks	-12065
ascular	-12066
▁combat	-12067
▁courts	-12068
▁layers	-12069
▁panels	-12070
▁devoted	-12071
▁distant	-12072
▁intends	-12073
▁minimal	-12074
▁silence	-12075
▁stopping	-12076
▁webtoons	-12077
▁discontin	-12078
▁excellence	-12079
▁laboratory	-12080
▁substitute	-12081
▁wavelength	-12082
▁reliability	-12083
▁CD	-12084
▁Sk	-12085
▁Fac	-12086
▁bot	-12087
amsan	-12088
ariat	-12089
▁rebu	-12090
▁Obama	-12091
▁boats	-12092
▁macro	-12093
▁meter	-12094
▁Biegun	-12095
▁coupon	-12096
▁insult	-12097
▁Hangeul	-12098
▁analyzes	-12099
▁duration	-12100
▁episodes	-12101
▁speakers	-12102
▁democratization	-12103
▁recommendations	-12104
▁KA	-12105
aucr	-12106
mans	-12107
▁Gog	-12108
emocr	-12109
▁hygi	-12110
▁Autom	-12111
▁Wonju	-12112
▁cloth	-12113
▁paste	-12114
▁weren	-12115
▁Garden	-12116
▁Presby	-12117
▁fighter	-12118
istically	-12119
▁designers	-12120
▁extensive	-12121
▁Experience	-12122
▁allegation	-12123
▁quarantine	-12124
▁identifying	-12125
▁Participants	-12126
1),	-12127
▁17,	-12128
▁Koh	-12129
▁Tak	-12130
anium	-12131
▁Stan	-12132
▁buck	-12133
▁foss	-12134
gments	-12135
▁polls	-12136
▁Father	-12137
▁excuse	-12138
▁porcel	-12139
▁tenant	-12140
▁happily	-12141
▁KakaoTalk	-12142
▁Nevertheless	-12143
▁humanitarian	-12144
tem	-12145
▁Ent	-12146
gical	-12147
▁Tang	-12148
League	-12149
people	-12150
▁queen	-12151
▁gospel	-12152
▁Chicago	-12153
▁ginseng	-12154
▁oneself	-12155
▁virtuous	-12156
▁malicious	-12157
▁frustrated	-12158
▁resumption	-12159
esc	-12160
fly	-12161
jak	-12162
open	-12163
▁Six	-12164
▁dub	-12165
onial	-12166
▁coin	-12167
▁soju	-12168
▁chrom	-12169
▁laser	-12170
▁maybe	-12171
▁triple	-12172
▁circuit	-12173
▁cleared	-12174
▁mystery	-12175
▁obesity	-12176
▁planted	-12177
▁involves	-12178
▁Gymnasium	-12179
▁inherited	-12180
▁obstacles	-12181
▁struggled	-12182
▁reconstruct	-12183
▁unfavorable	-12184
▁Professional	-12185
▁perspectives	-12186
▁Administrative	-12187
lay	-12188
pan	-12189
▁77	-12190
▁78	-12191
▁Chem	-12192
▁Iron	-12193
▁Sign	-12194
▁chaeb	-12195
Samsung	-12196
▁bamboo	-12197
▁boasts	-12198
▁bottles	-12199
▁camping	-12200
▁classic	-12201
▁colored	-12202
▁consume	-12203
▁decides	-12204
▁Nonghyup	-12205
▁burdened	-12206
▁worsened	-12207
▁inconvenient	-12208
37	-12209
Sh	-12210
olk	-12211
bean	-12212
zone	-12213
itary	-12214
▁Holy	-12215
▁Resp	-12216
▁cere	-12217
▁murd	-12218
▁Royal	-12219
▁Seven	-12220
▁masks	-12221
▁mater	-12222
▁spare	-12223
▁waist	-12224
forming	-12225
▁fertil	-12226
▁stroke	-12227
▁routine	-12228
▁colleges	-12229
▁exploded	-12230
▁pensions	-12231
▁forecasts	-12232
▁intervene	-12233
▁expiration	-12234
▁observations	-12235
bye	-12236
▁Ce	-12237
▁Ec	-12238
ESCO	-12239
oken	-12240
▁Joh	-12241
▁Ram	-12242
heric	-12243
ields	-12244
▁Ever	-12245
▁realm	-12246
osexual	-12247
special	-12248
▁Nether	-12249
▁caring	-12250
▁comply	-12251
▁donate	-12252
▁infant	-12253
▁shadow	-12254
ortunate	-12255
▁cuisine	-12256
▁radical	-12257
▁syndrome	-12258
▁dividends	-12259
▁enhancing	-12260
▁negotiate	-12261
▁electromagnetic	-12262
unc	-12263
coal	-12264
▁18,	-12265
▁Bab	-12266
▁OLED	-12267
▁remod	-12268
▁Living	-12269
▁locked	-12270
▁relics	-12271
▁undert	-12272
National	-12273
ologists	-12274
▁Dodgers	-12275
▁optimal	-12276
▁bureaucr	-12277
▁maintains	-12278
▁poisoning	-12279
▁Scholastic	-12280
▁refrigerator	-12281
EN	-12282
▁mm	-12283
abul	-12284
uros	-12285
▁1.8	-12286
▁Bin	-12287
▁tok	-12288
▁tum	-12289
▁aide	-12290
▁load	-12291
▁chlor	-12292
▁fined	-12293
▁Spirit	-12294
▁stolen	-12295
▁verbal	-12296
▁Sharing	-12297
▁dispers	-12298
▁moments	-12299
▁fiercely	-12300
▁streaming	-12301
▁burdensome	-12302
▁originated	-12303
▁proceeding	-12304
▁flexibility	-12305
27	-12306
zed	-12307
▁CG	-12308
avel	-12309
geum	-12310
offs	-12311
text	-12312
▁lin	-12313
child	-12314
▁Yeom	-12315
▁bean	-12316
▁desp	-12317
esters	-12318
▁cliff	-12319
▁irrit	-12320
prising	-12321
▁Shinzo	-12322
▁majors	-12323
ifferent	-12324
▁Several	-12325
▁declare	-12326
▁statues	-12327
▁weekdays	-12328
▁designate	-12329
▁witnessed	-12330
▁Statistical	-12331
ano	-12332
▁76	-12333
aval	-12334
igen	-12335
otal	-12336
otto	-12337
roph	-12338
▁1.1	-12339
leung	-12340
▁Mass	-12341
▁rays	-12342
▁soci	-12343
▁squad	-12344
▁laptop	-12345
▁emission	-12346
▁youngest	-12347
▁belatedly	-12348
▁dormitory	-12349
▁scientist	-12350
▁weakening	-12351
▁accelerate	-12352
▁evaluating	-12353
▁faithfully	-12354
▁negatively	-12355
▁Superintendent	-12356
PGA	-12357
▁Hig	-12358
▁Ord	-12359
▁Come	-12360
▁Walk	-12361
▁deem	-12362
▁hier	-12363
▁ward	-12364
omeday	-12365
▁Arena	-12366
▁Basic	-12367
▁admit	-12368
lication	-12369
▁Ability	-12370
▁kingdom	-12371
▁pastors	-12372
▁upgrade	-12373
Therefore	-12374
▁climbing	-12375
▁promises	-12376
▁summoned	-12377
▁stressing	-12378
▁Dongdaemun	-12379
▁possession	-12380
▁Controversy	-12381
▁radioactive	-12382
▁communicating	-12383
aro	-12384
ila	-12385
ira	-12386
HAAD	-12387
nity	-12388
usal	-12389
▁1.4	-12390
▁Ira	-12391
▁ink	-12392
icacy	-12393
▁anch	-12394
▁intu	-12395
▁porn	-12396
urated	-12397
▁"2019	-12398
▁Assoc	-12399
▁dereg	-12400
▁pitch	-12401
▁UNESCO	-12402
▁captiv	-12403
▁wounds	-12404
▁Morning	-12405
▁erupted	-12406
▁raining	-12407
▁exported	-12408
▁repayment	-12409
▁reorganized	-12410
▁appreciation	-12411
▁intermediate	-12412
▁congratulatory	-12413
osh	-12414
▁69	-12415
▁PD	-12416
arks	-12417
tage	-12418
wipo	-12419
▁Try	-12420
▁mad	-12421
riter	-12422
trans	-12423
▁chew	-12424
▁craz	-12425
▁meta	-12426
▁amino	-12427
▁stere	-12428
▁swift	-12429
leyball	-12430
▁Secret	-12431
▁bother	-12432
▁favors	-12433
▁Customs	-12434
▁Disease	-12435
▁exclude	-12436
▁insight	-12437
▁pricing	-12438
▁quietly	-12439
▁reunion	-12440
▁boundary	-12441
▁proceeds	-12442
▁steering	-12443
▁civilians	-12444
▁dominance	-12445
▁excavated	-12446
▁prejudice	-12447
▁reservoir	-12448
▁quantities	-12449
▁photographer	-12450
pret	-12451
utch	-12452
yore	-12453
▁cou	-12454
▁Daes	-12455
omfort	-12456
▁Large	-12457
▁Still	-12458
▁alter	-12459
▁parcel	-12460
▁breathe	-12461
▁earning	-12462
▁mankind	-12463
▁relaxed	-12464
▁reminds	-12465
▁Fortress	-12466
▁immunity	-12467
▁ambiguous	-12468
▁observers	-12469
▁qualities	-12470
▁wholesale	-12471
▁calligraphy	-12472
MP	-12473
’,	-12474
▁BC	-12475
▁Ol	-12476
phew	-12477
▁160	-12478
▁BBC	-12479
isers	-12480
minal	-12481
shine	-12482
▁imit	-12483
▁leaf	-12484
author	-12485
▁balls	-12486
▁Humans	-12487
▁bureau	-12488
▁copper	-12489
▁nephew	-12490
▁notify	-12491
▁Senator	-12492
▁adolesc	-12493
▁chamber	-12494
▁exagger	-12495
▁motorcy	-12496
▁revival	-12497
▁trusted	-12498
▁Tomorrow	-12499
▁cosmetic	-12500
▁Francisco	-12501
▁breakdown	-12502
▁penalties	-12503
▁absolutely	-12504
▁vocational	-12505
▁correlation	-12506
▁simultaneous	-12507
hem	-12508
sub	-12509
▁71	-12510
idal	-12511
▁60%	-12512
▁Eff	-12513
▁Fre	-12514
▁Hui	-12515
▁bib	-12516
▁sib	-12517
ryeon	-12518
▁terr	-12519
unning	-12520
▁drops	-12521
▁sizes	-12522
quisite	-12523
usement	-12524
▁deduct	-12525
▁doubts	-12526
▁vacant	-12527
piration	-12528
▁arguing	-12529
▁optical	-12530
▁Disaster	-12531
▁Seogwipo	-12532
▁hardware	-12533
▁inherent	-12534
▁deepening	-12535
▁followers	-12536
▁qualified	-12537
otechnology	-12538
▁Netherlands	-12539
▁cultivation	-12540
▁protagonist	-12541
▁unfortunate	-12542
▁improvements	-12543
▁revitalization	-12544
BI	-12545
aik	-12546
isk	-12547
▁Ku	-12548
▁Cos	-12549
ipple	-12550
shore	-12551
▁Hand	-12552
▁Iraq	-12553
▁List	-12554
aneous	-12555
▁gases	-12556
verages	-12557
▁Greece	-12558
▁Scient	-12559
▁aggreg	-12560
▁freeze	-12561
▁horror	-12562
▁subtit	-12563
▁rooftop	-12564
▁deciding	-12565
▁foldable	-12566
▁Communist	-12567
▁righteous	-12568
▁protesting	-12569
▁disappearance	-12570
GB	-12571
POP	-12572
▁Yo	-12573
unge	-12574
▁Mah	-12575
▁auth	-12576
▁feud	-12577
▁kidn	-12578
▁sons	-12579
listed	-12580
▁imbal	-12581
▁plain	-12582
▁arises	-12583
▁gotten	-12584
▁parade	-12585
appiness	-12586
▁Gilbert	-12587
▁fiction	-12588
▁statute	-12589
▁tactics	-12590
▁Medicine	-12591
▁Pakistan	-12592
▁engineer	-12593
▁reserves	-12594
▁Yeongdong	-12595
▁porcelain	-12596
▁triggered	-12597
▁provisions	-12598
▁quantitative	-12599
Ang	-12600
▁20,	-12601
▁Ken	-12602
▁LED	-12603
▁Sir	-12604
▁Mall	-12605
▁urge	-12606
iotics	-12607
▁Peter	-12608
▁oxide	-12609
▁wings	-12610
▁assemb	-12611
▁Alliance	-12612
▁Investig	-12613
▁Treasury	-12614
▁magnitude	-12615
▁successor	-12616
▁capitalism	-12617
▁complaining	-12618
▁Commissioner	-12619
▁consequences	-12620
38	-12621
Bl	-12622
▁5%	-12623
▁cm	-12624
uels	-12625
uten	-12626
▁Bor	-12627
▁CBS	-12628
▁ace	-12629
ailed	-12630
lower	-12631
▁Cost	-12632
▁ions	-12633
iaison	-12634
▁Diana	-12635
▁Guang	-12636
▁Louis	-12637
▁Order	-12638
▁Syria	-12639
▁orange	-12640
▁prince	-12641
▁Gallery	-12642
▁expired	-12643
▁sadness	-12644
rivileged	-12645
▁Standard	-12646
▁homeless	-12647
▁overlook	-12648
▁password	-12649
▁umbrella	-12650
▁Microsoft	-12651
▁reasoning	-12652
▁politician	-12653
▁tremendous	-12654
▁investigator	-12655
▁transferring	-12656
48	-12657
Acc	-12658
bus	-12659
rot	-12660
▁Ra	-12661
drew	-12662
ideo	-12663
▁1.6	-12664
▁21,	-12665
▁Ong	-12666
▁Pot	-12667
▁inh	-12668
▁pla	-12669
appro	-12670
eland	-12671
yoreh	-12672
▁2002	-12673
▁Soft	-12674
▁corn	-12675
ulsion	-12676
▁apple	-12677
▁datab	-12678
▁mosqu	-12679
▁Ukrain	-12680
▁divorce	-12681
▁greeted	-12682
▁meanings	-12683
▁releases	-12684
▁withdrew	-12685
▁commented	-12686
▁Commercial	-12687
▁exchanging	-12688
▁submission	-12689
▁reinforcement	-12690
BL	-12691
brid	-12692
ille	-12693
▁oct	-12694
eller	-12695
▁Cert	-12696
▁Lear	-12697
▁OECD	-12698
▁mild	-12699
▁mixt	-12700
▁tale	-12701
▁toll	-12702
▁Willi	-12703
▁minus	-12704
▁noble	-12705
inafter	-12706
▁tongue	-12707
▁referee	-12708
▁revenge	-12709
▁Attorney	-12710
▁rotation	-12711
▁attacking	-12712
▁detective	-12713
▁medicines	-12714
▁purifiers	-12715
▁prescription	-12716
1)	-12717
ums	-12718
aman	-12719
harm	-12720
▁28,	-12721
aware	-12722
▁Mang	-12723
▁Pang	-12724
▁odds	-12725
▁comic	-12726
▁crazy	-12727
▁opera	-12728
▁Colomb	-12729
▁Little	-12730
▁Poland	-12731
▁jacket	-12732
minister	-12733
▁Protest	-12734
▁fortune	-12735
▁trapped	-12736
▁matching	-12737
▁Tongyeong	-12738
▁addressed	-12739
▁affiliate	-12740
▁subsequent	-12741
▁intensifying	-12742
▁interference	-12743
TT	-12744
fe	-12745
7),	-12746
Dae	-12747
▁LC	-12748
▁orb	-12749
▁CEOs	-12750
▁tear	-12751
ittees	-12752
uminum	-12753
weight	-12754
▁2006,	-12755
▁craze	-12756
▁links	-12757
▁compat	-12758
▁worsen	-12759
▁pressed	-12760
▁summary	-12761
▁handsome	-12762
▁obstacle	-12763
▁brokerage	-12764
▁specialist	-12765
▁overlapping	-12766
▁preferences	-12767
▁commissioned	-12768
▁inflammation	-12769
Some	-12770
agic	-12771
opsy	-12772
uing	-12773
woom	-12774
rives	-12775
▁2022	-12776
▁turb	-12777
asting	-12778
▁uncle	-12779
▁melody	-12780
atorship	-12781
▁Captain	-12782
▁blowing	-12783
▁outflow	-12784
▁pleased	-12785
▁refuted	-12786
▁resting	-12787
▁veteran	-12788
▁Concerns	-12789
▁competed	-12790
▁delivers	-12791
▁literacy	-12792
▁Customers	-12793
▁relocated	-12794
▁reshuffle	-12795
▁recurrence	-12796
▁subjective	-12797
▁economically	-12798
▁disadvantages	-12799
Cho	-12800
▁YG	-12801
▁13,	-12802
▁Nae	-12803
▁VIP	-12804
▁apt	-12805
▁bes	-12806
mouth	-12807
overs	-12808
ateral	-12809
▁algae	-12810
▁shrim	-12811
▁Series	-12812
▁dreamed	-12813
▁subsidy	-12814
▁Disabled	-12815
▁Jincheon	-12816
▁mounting	-12817
▁thankful	-12818
▁wondered	-12819
▁Executive	-12820
▁dimension	-12821
▁discharge	-12822
▁requiring	-12823
▁PyeongChang	-12824
▁sponsorship	-12825
▁fluctuations	-12826
▁interactions	-12827
32	-12828
IV	-12829
eem	-12830
▁88	-12831
Star	-12832
acco	-12833
bank	-12834
ulin	-12835
▁ROK	-12836
▁Toy	-12837
joong	-12838
▁chip	-12839
▁lake	-12840
▁lips	-12841
People	-12842
▁COVID	-12843
fecture	-12844
▁Castle	-12845
▁arbitr	-12846
▁dining	-12847
▁surely	-12848
olitical	-12849
▁synthes	-12850
▁exhibits	-12851
▁cultivate	-12852
▁taekwondo	-12853
▁progressed	-12854
▁respective	-12855
▁intensively	-12856
▁demonstrations	-12857
▁hospitalization	-12858
TF	-12859
lif	-12860
▁AT	-12861
doms	-12862
omas	-12863
teen	-12864
▁Cub	-12865
▁Too	-12866
▁Note	-12867
▁Santa	-12868
▁Stone	-12869
▁stole	-12870
▁cluster	-12871
▁concess	-12872
▁luxurious	-12873
▁nutrition	-12874
istribution	-12875
▁horizontal	-12876
▁stipulates	-12877
bel	-12878
oro	-12879
tan	-12880
▁Rom	-12881
oseon	-12882
uryeo	-12883
▁Mach	-12884
▁Norm	-12885
▁Viol	-12886
▁bars	-12887
▁hege	-12888
▁verge	-12889
western	-12890
▁Legisl	-12891
geration	-12892
▁faculty	-12893
▁dominate	-12894
▁protocol	-12895
▁troubles	-12896
▁Liberation	-12897
▁enlightenment	-12898
3)	-12899
55	-12900
▁AM	-12901
onia	-12902
▁Bum	-12903
cover	-12904
igers	-12905
▁Coal	-12906
▁lamp	-12907
▁panc	-12908
ounced	-12909
▁Style	-12910
▁elder	-12911
▁manif	-12912
▁nurse	-12913
limited	-12914
▁Cinema	-12915
▁Kiwoom	-12916
▁biased	-12917
▁indeed	-12918
▁insert	-12919
▁tables	-12920
▁Display	-12921
▁clarify	-12922
▁fantasy	-12923
▁fintech	-12924
▁plunged	-12925
▁unavoid	-12926
▁merchant	-12927
▁Newspaper	-12928
▁appealing	-12929
▁consisted	-12930
▁destroying	-12931
▁underprivileged	-12932
iga	-12933
Hyun	-12934
▁31,	-12935
While	-12936
erals	-12937
lause	-12938
licit	-12939
rical	-12940
▁Kant	-12941
▁coat	-12942
▁flash	-12943
abulary	-12944
ishment	-12945
working	-12946
▁affair	-12947
▁spouse	-12948
▁emitted	-12949
▁interim	-12950
developed	-12951
▁Sciences	-12952
▁Terminal	-12953
▁collision	-12954
▁forefront	-12955
▁identical	-12956
▁opponents	-12957
▁defamation	-12958
▁accelerated	-12959
▁ratification	-12960
▁normalization	-12961
34	-12962
ref	-12963
rye	-12964
▁3.	-12965
Cons	-12966
nsic	-12967
▁Rod	-12968
▁Rose	-12969
▁deny	-12970
▁rape	-12971
acular	-12972
▁Hydro	-12973
▁chips	-12974
▁disse	-12975
▁indef	-12976
▁skept	-12977
ardless	-12978
▁George	-12979
▁Lawyer	-12980
▁Brother	-12981
▁Ulleung	-12982
▁climbed	-12983
▁fastest	-12984
▁stimulus	-12985
▁foreigner	-12986
▁inspected	-12987
▁stimulate	-12988
▁celebrated	-12989
▁deliberately	-12990
36	-12991
imi	-12992
exas	-12993
onel	-12994
▁Hom	-12995
▁Log	-12996
▁cin	-12997
redict	-12998
▁4,000	-12999
▁Check	-13000
▁conqu	-13001
▁Treaty	-13002
▁clinic	-13003
▁conjun	-13004
ountered	-13005
▁budgets	-13006
▁pottery	-13007
▁Guardian	-13008
▁imposing	-13009
▁upgraded	-13010
▁Provision	-13011
▁disciples	-13012
▁extending	-13013
▁desperately	-13014
▁commercialized	-13015
thew	-13016
▁25,	-13017
▁Far	-13018
▁Kun	-13019
irang	-13020
▁Beom	-13021
▁chap	-13022
▁memb	-13023
idated	-13024
▁1,500	-13025
▁halls	-13026
▁salad	-13027
▁tends	-13028
▁insure	-13029
▁surviv	-13030
▁tablet	-13031
▁picking	-13032
▁seaweed	-13033
▁Pavilion	-13034
▁Together	-13035
▁beverage	-13036
▁charcoal	-13037
▁mistaken	-13038
▁sanction	-13039
▁Presbyter	-13040
▁combustion	-13041
▁promotions	-13042
▁atmospheric	-13043
▁encountered	-13044
▁evaluations	-13045
▁associations	-13046
▁incorporated	-13047
eum	-13048
▁0.0	-13049
▁Fan	-13050
▁Hur	-13051
▁Yan	-13052
irmed	-13053
▁clip	-13054
ablish	-13055
direct	-13056
▁Dubai	-13057
▁coins	-13058
▁weird	-13059
forward	-13060
▁condem	-13061
▁confisc	-13062
▁perhaps	-13063
▁refrain	-13064
▁Goguryeo	-13065
▁Monetary	-13066
▁costumes	-13067
▁mainland	-13068
▁pitching	-13069
▁salaries	-13070
▁collateral	-13071
▁conscience	-13072
▁accommodate	-13073
▁spectacular	-13074
▁deregulation	-13075
▁dictatorship	-13076
Mr	-13077
Now	-13078
ele	-13079
gal	-13080
▁74	-13081
▁tv	-13082
aoke	-13083
byon	-13084
note	-13085
▁Dar	-13086
▁ger	-13087
▁Hwan	-13088
▁cous	-13089
▁grap	-13090
▁pigs	-13091
makers	-13092
nyeong	-13093
▁Armed	-13094
▁Harry	-13095
▁envoy	-13096
fielder	-13097
▁lottery	-13098
▁disagree	-13099
▁indicate	-13100
▁packages	-13101
▁acquiring	-13102
▁corrected	-13103
▁vegetable	-13104
▁workforce	-13105
▁profitable	-13106
▁unemployed	-13107
▁exceptional	-13108
Sm	-13109
Mar	-13110
▁DM	-13111
airy	-13112
pose	-13113
▁Ven	-13114
chair	-13115
issan	-13116
odhis	-13117
▁Deal	-13118
▁oral	-13119
ashing	-13120
iliary	-13121
ometer	-13122
▁Brand	-13123
▁crown	-13124
▁deriv	-13125
▁inhab	-13126
loading	-13127
▁lately	-13128
▁orient	-13129
▁timely	-13130
odhisatt	-13131
▁Content	-13132
▁measles	-13133
▁preserv	-13134
▁Gwacheon	-13135
▁applause	-13136
▁immersed	-13137
▁lawsuits	-13138
▁survived	-13139
▁veterans	-13140
▁Judiciary	-13141
▁answering	-13142
▁Originally	-13143
▁bargaining	-13144
▁disagreement	-13145
▁professionalism	-13146
chu	-13147
ias	-13148
nde	-13149
yon	-13150
▁Ni	-13151
rama	-13152
with	-13153
▁1.7	-13154
after	-13155
first	-13156
gyeom	-13157
iller	-13158
▁carc	-13159
▁bands	-13160
▁knock	-13161
▁popul	-13162
▁Taegeuk	-13163
▁borders	-13164
ictionary	-13165
▁Naturally	-13166
▁computing	-13167
▁defending	-13168
▁directing	-13169
▁thickness	-13170
▁unchanged	-13171
▁withdrawn	-13172
▁discomfort	-13173
▁vocabulary	-13174
vy	-13175
arn	-13176
isy	-13177
▁Ep	-13178
▁19,	-13179
▁sne	-13180
▁Jane	-13181
▁neur	-13182
▁rect	-13183
▁shoe	-13184
▁Hawai	-13185
▁Kyoto	-13186
▁Texas	-13187
▁mouse	-13188
▁semif	-13189
▁slope	-13190
ifiable	-13191
▁Direct	-13192
▁plates	-13193
▁rookie	-13194
▁traits	-13195
▁Speaker	-13196
▁mixture	-13197
According	-13198
▁Cambodia	-13199
▁compiled	-13200
▁engaging	-13201
▁allocated	-13202
▁amusement	-13203
▁sensation	-13204
▁Enforcement	-13205
▁nationality	-13206
PC	-13207
PM	-13208
9),	-13209
abs	-13210
mph	-13211
▁Ir	-13212
▁jew	-13213
ceans	-13214
▁2005	-13215
▁owns	-13216
▁stew	-13217
▁stup	-13218
ailing	-13219
hosted	-13220
▁baker	-13221
▁idols	-13222
▁milit	-13223
▁orbit	-13224
▁probe	-13225
▁sends	-13226
ception	-13227
▁allies	-13228
▁deterg	-13229
▁fossil	-13230
▁guided	-13231
▁intent	-13232
izations	-13233
▁Railway	-13234
▁balloon	-13235
▁sellers	-13236
▁academia	-13237
▁finances	-13238
▁stealing	-13239
▁addiction	-13240
▁empirical	-13241
▁memorable	-13242
▁reinforce	-13243
▁testified	-13244
▁accessible	-13245
▁committing	-13246
▁internally	-13247
▁perpetrator	-13248
▁confidential	-13249
▁exaggeration	-13250
▁globalization	-13251
gak	-13252
odo	-13253
oos	-13254
anas	-13255
earl	-13256
▁24,	-13257
abeth	-13258
igned	-13259
▁sour	-13260
loyees	-13261
▁Asked	-13262
▁kilog	-13263
▁lingu	-13264
▁ports	-13265
▁slept	-13266
▁allerg	-13267
▁assass	-13268
▁parked	-13269
▁provoc	-13270
▁volcan	-13271
▁Univers	-13272
▁forcing	-13273
▁renewed	-13274
▁rolling	-13275
▁segment	-13276
▁strikes	-13277
▁vicious	-13278
▁Gangdong	-13279
▁Veterans	-13280
▁faithful	-13281
▁potatoes	-13282
▁appliance	-13283
▁integrity	-13284
▁Researcher	-13285
▁automotive	-13286
▁disappears	-13287
▁healthcare	-13288
non	-13289
ois	-13290
inqu	-13291
▁188	-13292
▁Edu	-13293
▁Suh	-13294
▁Tri	-13295
▁fib	-13296
▁lag	-13297
added	-13298
avery	-13299
roads	-13300
▁Folk	-13301
▁Mult	-13302
▁rapp	-13303
attack	-13304
▁Early	-13305
▁elite	-13306
▁lined	-13307
▁15,000	-13308
▁deemed	-13309
▁dispar	-13310
▁epidem	-13311
▁Autonom	-13312
▁athlete	-13313
▁catches	-13314
▁skating	-13315
president	-13316
▁creators	-13317
▁maturity	-13318
▁oriental	-13319
▁Officials	-13320
▁creatures	-13321
▁interfere	-13322
▁invention	-13323
▁probation	-13324
▁Literature	-13325
▁applicable	-13326
▁submitting	-13327
▁obligations	-13328
▁Presbyterian	-13329
.)	-13330
tw	-13331
irs	-13332
dium	-13333
▁2.0	-13334
▁ICO	-13335
▁Lav	-13336
▁Sad	-13337
▁Fine	-13338
▁buff	-13339
▁tube	-13340
houses	-13341
ortium	-13342
▁steak	-13343
private	-13344
▁Anyone	-13345
▁nobody	-13346
▁remitt	-13347
▁subtle	-13348
ientious	-13349
▁Finland	-13350
▁chaebol	-13351
▁individ	-13352
▁Whenever	-13353
▁blossoms	-13354
▁ignoring	-13355
▁provider	-13356
▁stagnant	-13357
▁digestive	-13358
▁immersion	-13359
▁auditorium	-13360
▁performers	-13361
▁recognizing	-13362
▁infringement	-13363
▁gravitational	-13364
aga	-13365
Moon	-13366
▁Way	-13367
▁Lady	-13368
▁prox	-13369
ranked	-13370
▁bored	-13371
▁euros	-13372
▁inval	-13373
verning	-13374
▁Campus	-13375
▁Estate	-13376
▁carpool	-13377
▁placing	-13378
▁someday	-13379
ilization	-13380
▁inserted	-13381
▁evacuated	-13382
▁Regardless	-13383
▁Provisional	-13384
▁essentially	-13385
▁implications	-13386
1%	-13387
OD	-13388
nori	-13389
oust	-13390
unte	-13391
▁Dou	-13392
▁Duk	-13393
aphor	-13394
asive	-13395
inger	-13396
▁Coin	-13397
▁Taek	-13398
▁tire	-13399
▁Geoje	-13400
▁Mobis	-13401
▁cheers	-13402
▁rented	-13403
▁authors	-13404
▁carries	-13405
▁erected	-13406
▁Graduate	-13407
▁cheerful	-13408
▁Hankyoreh	-13409
▁exhibited	-13410
▁headlines	-13411
▁judgments	-13412
▁sculpture	-13413
▁contractor	-13414
▁mentioning	-13415
▁demonstrating	-13416
EU	-13417
yg	-13418
3),	-13419
agu	-13420
kyo	-13421
▁82	-13422
sell	-13423
will	-13424
▁3.5	-13425
▁Chu	-13426
▁Vir	-13427
▁ric	-13428
otype	-13429
▁Inte	-13430
▁Pink	-13431
▁View	-13432
▁arom	-13433
▁impl	-13434
▁penc	-13435
flight	-13436
utable	-13437
▁Chong	-13438
▁appet	-13439
▁trace	-13440
▁Mother	-13441
▁intake	-13442
▁pyeong	-13443
▁smiled	-13444
▁troupe	-13445
mentation	-13446
▁airplane	-13447
▁backdrop	-13448
▁breeding	-13449
▁detached	-13450
▁geometry	-13451
▁keywords	-13452
▁learners	-13453
▁perceive	-13454
▁psychiat	-13455
▁splendid	-13456
▁acknowled	-13457
▁competent	-13458
▁retailers	-13459
OT	-13460
WS	-13461
due	-13462
nat	-13463
gyun	-13464
▁30-	-13465
▁350	-13466
▁TVs	-13467
▁Tes	-13468
books	-13469
ocial	-13470
oping	-13471
oston	-13472
▁bride	-13473
▁reson	-13474
inosaur	-13475
▁Decree	-13476
▁newlyw	-13477
▁urging	-13478
▁valued	-13479
▁washed	-13480
▁abusing	-13481
▁baggage	-13482
▁exhibit	-13483
▁preview	-13484
▁Material	-13485
▁Nowadays	-13486
▁belonged	-13487
▁pressing	-13488
▁Billboard	-13489
▁Challenge	-13490
▁navigation	-13491
▁refreshing	-13492
▁summarized	-13493
▁candlelight	-13494
May	-13495
iji	-13496
▁7-	-13497
▁159	-13498
▁Gam	-13499
third	-13500
▁beds	-13501
▁forc	-13502
▁mang	-13503
▁2010.	-13504
▁Hyang	-13505
▁Radio	-13506
▁scary	-13507
▁Gojong	-13508
▁Integr	-13509
▁boiler	-13510
▁comics	-13511
▁openly	-13512
▁shrink	-13513
▁costume	-13514
▁elegant	-13515
▁gallery	-13516
▁polymer	-13517
unciation	-13518
▁Products	-13519
▁contacts	-13520
▁headache	-13521
▁illusion	-13522
▁landlord	-13523
▁tailored	-13524
▁instances	-13525
▁regulated	-13526
▁synthesis	-13527
▁disposition	-13528
▁individually	-13529
▁missionaries	-13530
▁straightforward	-13531
64	-13532
▁SW	-13533
Russ	-13534
adon	-13535
rock	-13536
▁Cam	-13537
▁Ori	-13538
▁Sul	-13539
▁Wil	-13540
▁kar	-13541
▁bias	-13542
angeum	-13543
▁Impro	-13544
▁camps	-13545
▁yours	-13546
▁noodle	-13547
▁potato	-13548
▁precip	-13549
▁refusal	-13550
▁Namyangju	-13551
▁bookstore	-13552
▁hardships	-13553
▁lightning	-13554
▁shrinking	-13555
▁propaganda	-13556
▁sensitivity	-13557
ania	-13558
orses	-13559
▁Bell	-13560
▁Duty	-13561
hetics	-13562
▁Study	-13563
▁Daniel	-13564
▁sulfur	-13565
▁Volunte	-13566
▁boiling	-13567
▁disband	-13568
▁fingers	-13569
▁loyalty	-13570
rehensive	-13571
▁inspector	-13572
▁terrorist	-13573
▁allocation	-13574
▁instructed	-13575
▁appreciated	-13576
▁chairperson	-13577
▁counterpart	-13578
▁headquarter	-13579
▁circumstance	-13580
▁commemoration	-13581
99	-13582
▁98	-13583
▁Atl	-13584
▁Get	-13585
▁yog	-13586
First	-13587
cheok	-13588
icles	-13589
▁Soul	-13590
▁cock	-13591
▁lump	-13592
▁sake	-13593
▁seal	-13594
▁seas	-13595
▁wars	-13596
▁Cerem	-13597
▁Cyber	-13598
▁fuels	-13599
▁pipes	-13600
▁Thomas	-13601
▁editor	-13602
▁priest	-13603
▁Chicken	-13604
▁Citizen	-13605
▁coaches	-13606
▁Partners	-13607
▁aluminum	-13608
▁departed	-13609
▁assumption	-13610
▁legitimate	-13611
▁pollutants	-13612
▁considerably	-13613
▁conveniently	-13614
Han	-13615
gong	-13616
yeom	-13617
▁jar	-13618
▁Kids	-13619
▁lock	-13620
▁puzz	-13621
▁sail	-13622
arantee	-13623
▁Nature	-13624
▁crafts	-13625
▁mixing	-13626
▁sphere	-13627
▁spirits	-13628
▁thereby	-13629
inational	-13630
▁activate	-13631
▁detained	-13632
▁inspired	-13633
▁luncheon	-13634
▁supplier	-13635
▁undermin	-13636
▁apparently	-13637
▁challenged	-13638
▁engagement	-13639
▁unilateral	-13640
▁accelerating	-13641
▁anticipation	-13642
▁deteriorated	-13643
Our	-13644
boy	-13645
two	-13646
▁2.2	-13647
▁Ire	-13648
▁Jam	-13649
▁odd	-13650
ucose	-13651
▁Cook	-13652
▁Tomb	-13653
▁boyc	-13654
esteem	-13655
second	-13656
▁gross	-13657
▁revol	-13658
▁stiff	-13659
▁swall	-13660
▁albums	-13661
▁evenly	-13662
▁proves	-13663
▁conclus	-13664
▁confron	-13665
▁crystal	-13666
▁rewards	-13667
▁scratch	-13668
▁travels	-13669
▁Egyptian	-13670
▁freezing	-13671
▁metaphor	-13672
▁metaphys	-13673
▁missions	-13674
▁tangible	-13675
▁beverages	-13676
▁fermented	-13677
▁committees	-13678
▁contacting	-13679
▁stipulated	-13680
▁celebrating	-13681
▁politically	-13682
-20	-13683
5),	-13684
una	-13685
▁DJ	-13686
▁vo	-13687
opia	-13688
yeop	-13689
▁unh	-13690
fried	-13691
woman	-13692
▁Tech	-13693
▁coff	-13694
izable	-13695
▁bears	-13696
▁fears	-13697
selling	-13698
▁Boston	-13699
▁entity	-13700
▁scream	-13701
▁strive	-13702
national	-13703
▁arrives	-13704
▁lightly	-13705
▁omitted	-13706
▁proving	-13707
▁circular	-13708
▁enforced	-13709
▁innocence	-13710
▁translate	-13711
▁commentary	-13712
▁criticisms	-13713
▁demolition	-13714
▁mathematic	-13715
▁negligence	-13716
▁disappointing	-13717
Man	-13718
gap	-13719
▁6-	-13720
▁TF	-13721
enth	-13722
▁Gug	-13723
otics	-13724
▁Ball	-13725
▁Inha	-13726
▁Upon	-13727
▁lane	-13728
acking	-13729
▁2004,	-13730
▁Bears	-13731
▁Liver	-13732
ocating	-13733
▁curved	-13734
▁insist	-13735
▁Ireland	-13736
▁Siheung	-13737
▁eternal	-13738
▁Overseas	-13739
▁collided	-13740
▁delaying	-13741
▁inferior	-13742
▁mentally	-13743
▁sciences	-13744
▁trainees	-13745
▁anonymous	-13746
▁designing	-13747
▁recovering	-13748
▁corresponds	-13749
▁intentional	-13750
▁procurement	-13751
▁suggestions	-13752
▁surroundings	-13753
22	-13754
zym	-13755
emia	-13756
▁27,	-13757
▁Bad	-13758
▁Sug	-13759
acter	-13760
inced	-13761
▁Coup	-13762
▁Laos	-13763
▁wing	-13764
▁Woong	-13765
▁insol	-13766
▁radon	-13767
izabeth	-13768
▁Hitler	-13769
▁Pangyo	-13770
▁calmly	-13771
▁labore	-13772
▁prizes	-13773
▁Donghae	-13774
▁moistur	-13775
▁regards	-13776
▁starter	-13777
▁Yongbyon	-13778
▁coaching	-13779
▁forcibly	-13780
▁centering	-13781
▁libraries	-13782
▁resembles	-13783
▁societies	-13784
▁centimeters	-13785
ool	-13786
▁1%	-13787
conf	-13788
▁26,	-13789
▁Liu	-13790
▁Mur	-13791
▁Wal	-13792
▁dol	-13793
tered	-13794
▁noon	-13795
▁sink	-13796
▁drain	-13797
▁Dragon	-13798
▁Subway	-13799
▁Vision	-13800
▁boiled	-13801
▁throne	-13802
igration	-13803
▁portfol	-13804
▁selects	-13805
▁Ceremony	-13806
▁lifelong	-13807
▁moderate	-13808
▁narrowed	-13809
▁refusing	-13810
▁colleague	-13811
▁interface	-13812
▁fraudulent	-13813
▁legitimacy	-13814
▁consultative	-13815
▁illustration	-13816
bar	-13817
▁Hyn	-13818
ipher	-13819
rying	-13820
▁brut	-13821
sports	-13822
▁Crime	-13823
▁THAAD	-13824
▁amate	-13825
▁exert	-13826
▁scold	-13827
▁theft	-13828
▁Behind	-13829
▁Coffee	-13830
▁Method	-13831
▁Nissan	-13832
▁altered	-13833
▁protons	-13834
▁shouting	-13835
▁Corporate	-13836
▁applicant	-13837
▁petroleum	-13838
▁socialist	-13839
▁competency	-13840
▁homosexual	-13841
▁orientation	-13842
duk	-13843
mok	-13844
▁96	-13845
▁Er	-13846
▁LNG	-13847
▁UAE	-13848
▁rup	-13849
▁ski	-13850
▁dear	-13851
abling	-13852
▁Chair	-13853
▁Messi	-13854
▁codes	-13855
▁dolls	-13856
▁40,000	-13857
▁carved	-13858
▁genius	-13859
▁joints	-13860
▁radius	-13861
▁thread	-13862
▁virtue	-13863
▁Centers	-13864
▁Typhoon	-13865
▁default	-13866
▁delinqu	-13867
▁jumping	-13868
▁suppose	-13869
▁failures	-13870
▁Employees	-13871
▁Guarantee	-13872
▁cellphone	-13873
▁incentive	-13874
▁observing	-13875
▁religions	-13876
▁accumulate	-13877
▁Championships	-13878
▁modernization	-13879
RI	-13880
30,	-13881
whe	-13882
▁(-	-13883
Dong	-13884
alog	-13885
base	-13886
raph	-13887
supp	-13888
▁140	-13889
▁23,	-13890
Palem	-13891
▁Wage	-13892
▁bios	-13893
▁tape	-13894
andong	-13895
seeing	-13896
▁2000,	-13897
▁Front	-13898
▁Hynix	-13899
▁annex	-13900
▁loose	-13901
▁Hyeong	-13902
▁Namwon	-13903
▁sodium	-13904
▁tragic	-13905
▁disrupt	-13906
▁hostile	-13907
▁hygiene	-13908
▁pillars	-13909
including	-13910
▁Measures	-13911
▁ambition	-13912
▁exporting	-13913
▁predecess	-13914
▁vibration	-13915
▁limitation	-13916
▁earthquakes	-13917
▁understands	-13918
▁calculations	-13919
▁differential	-13920
▁specifications	-13921
LO	-13922
4),	-13923
aky	-13924
mma	-13925
▁97	-13926
acon	-13927
lesh	-13928
umni	-13929
▁110	-13930
▁Opp	-13931
asket	-13932
▁Shir	-13933
▁Susp	-13934
▁anth	-13935
▁Choir	-13936
▁Trust	-13937
▁shirt	-13938
▁shrimp	-13939
ensation	-13940
▁accepts	-13941
▁leather	-13942
▁tribute	-13943
Palembang	-13944
connected	-13945
sequently	-13946
▁airports	-13947
▁amounted	-13948
▁laughing	-13949
▁performs	-13950
▁unfairly	-13951
▁affecting	-13952
performance	-13953
▁Prefecture	-13954
▁graduating	-13955
▁Prosecution	-13956
▁petrochemical	-13957
▁presentations	-13958
Fi	-13959
8),	-13960
▁AP	-13961
cuss	-13962
irds	-13963
▁112	-13964
▁24-	-13965
▁Tim	-13966
▁cam	-13967
ander	-13968
essim	-13969
hered	-13970
▁Mars	-13971
▁scal	-13972
▁vend	-13973
▁Lynde	-13974
▁Nowon	-13975
▁culpr	-13976
▁rigid	-13977
▁stays	-13978
▁towns	-13979
athetic	-13980
▁Maduro	-13981
▁respir	-13982
▁autopsy	-13983
▁drought	-13984
▁Yeongnam	-13985
▁database	-13986
▁diameter	-13987
▁flooding	-13988
▁licenses	-13989
▁revenues	-13990
▁Sookmyung	-13991
▁attaching	-13992
▁ballistic	-13993
▁occasions	-13994
▁persuasion	-13995
▁whereabout	-13996
▁discovering	-13997
▁diversified	-13998
▁satisfactory	-13999
IF	-14000
SA	-14001
ani	-14002
▁79	-14003
opes	-14004
▁29,	-14005
▁Les	-14006
▁sou	-14007
ioned	-14008
liest	-14009
three	-14010
zymes	-14011
▁Back	-14012
▁cure	-14013
▁cust	-14014
▁foul	-14015
agraph	-14016
heimer	-14017
▁2001,	-14018
▁radar	-14019
colored	-14020
▁Lastly	-14021
▁resent	-14022
entially	-14023
▁blanket	-14024
▁karaoke	-14025
▁liaison	-14026
▁imagined	-14027
▁rainfall	-14028
▁violates	-14029
ologically	-14030
▁convinced	-14031
▁extracted	-14032
▁accidentally	-14033
▁developmental	-14034
6),	-14035
cal	-14036
iac	-14037
▁4.	-14038
▁PO	-14039
▁ly	-14040
ugal	-14041
▁Fox	-14042
▁Yul	-14043
erion	-14044
▁Bush	-14045
▁Rhee	-14046
boards	-14047
common	-14048
ennials	-14049
hearted	-14050
issance	-14051
▁Beauty	-14052
▁delete	-14053
vergence	-14054
▁Dongjak	-14055
▁booking	-14056
▁aptitude	-14057
▁composer	-14058
▁fighters	-14059
▁instinct	-14060
▁phishing	-14061
▁centuries	-14062
▁spokesperson	-14063
67	-14064
HO	-14065
▁DS	-14066
ects	-14067
ghan	-14068
▁1,0	-14069
▁Eag	-14070
▁gri	-14071
anges	-14072
ipper	-14073
stick	-14074
▁bent	-14075
▁bump	-14076
▁gods	-14077
▁torn	-14078
▁vibr	-14079
acious	-14080
ancers	-14081
▁2003,	-14082
▁Pract	-14083
▁Tesla	-14084
▁dirty	-14085
▁abrupt	-14086
▁dances	-14087
▁desert	-14088
▁genome	-14089
▁surged	-14090
vascular	-14091
▁careers	-14092
▁nurture	-14093
▁sensory	-14094
▁slavery	-14095
▁spectrum	-14096
authorized	-14097
▁precedent	-14098
▁accusation	-14099
▁underlying	-14100
▁disappointment	-14101
Sec	-14102
sey	-14103
uki	-14104
▁Fu	-14105
▁LH	-14106
asis	-14107
▁Cle	-14108
▁Hor	-14109
▁fif	-14110
Jeong	-14111
loved	-14112
▁Didn	-14113
▁Expl	-14114
▁flav	-14115
▁rope	-14116
▁Woods	-14117
▁spoon	-14118
▁beside	-14119
▁commod	-14120
▁pestic	-14121
▁regain	-14122
▁tradem	-14123
▁Kumgang	-14124
▁cleaner	-14125
▁favored	-14126
▁glucose	-14127
▁skilled	-14128
▁diagnost	-14129
▁feasible	-14130
▁offshore	-14131
▁portable	-14132
▁protects	-14133
▁railways	-14134
▁smallest	-14135
▁editorial	-14136
▁attachment	-14137
▁bankruptcy	-14138
▁influences	-14139
▁optimistic	-14140
▁revelation	-14141
▁conjunction	-14142
▁whereabouts	-14143
▁multinational	-14144
ti	-14145
dig	-14146
iti	-14147
acqu	-14148
imir	-14149
▁tob	-14150
anded	-14151
claim	-14152
emale	-14153
human	-14154
▁turt	-14155
ithium	-14156
▁2009.	-14157
▁adhes	-14158
▁annoy	-14159
▁diver	-14160
▁filmm	-14161
▁Growth	-14162
▁hybrid	-14163
▁poorly	-14164
▁spoken	-14165
▁titles	-14166
▁Austria	-14167
▁museums	-14168
▁packing	-14169
▁priorit	-14170
▁pulling	-14171
▁Railroad	-14172
▁injected	-14173
▁interrog	-14174
▁promotes	-14175
▁repaired	-14176
▁treasure	-14177
▁motivated	-14178
▁recycling	-14179
▁transfers	-14180
▁objectives	-14181
▁advertisers	-14182
▁dismantling	-14183
▁Intellectual	-14184
▁circumstantial	-14185
▁inconveniences	-14186
▁comprehensively	-14187
Art	-14188
uts	-14189
Many	-14190
azed	-14191
gogi	-14192
insa	-14193
▁COE	-14194
▁ion	-14195
Gwang	-14196
tress	-14197
▁meth	-14198
▁pairs	-14199
▁reper	-14200
raising	-14201
upyeong	-14202
▁Hawaii	-14203
▁config	-14204
▁encomp	-14205
▁flowed	-14206
▁grains	-14207
▁pessim	-14208
electric	-14209
▁tobacco	-14210
▁friction	-14211
▁continent	-14212
▁initiated	-14213
▁prevalent	-14214
▁reforming	-14215
▁Enterprise	-14216
▁Evaluation	-14217
▁Individual	-14218
▁confession	-14219
▁comparative	-14220
▁speculative	-14221
▁geographical	-14222
▁stabilization	-14223
mn	-14224
kok	-14225
▁CP	-14226
fold	-14227
warm	-14228
▁Ext	-14229
bokki	-14230
▁lact	-14231
ducing	-14232
▁bonus	-14233
▁burns	-14234
▁jewel	-14235
▁relay	-14236
▁tense	-14237
ificant	-14238
▁Resort	-14239
▁linear	-14240
▁nurses	-14241
▁serial	-14242
uxiliary	-14243
▁grabbed	-14244
▁hurried	-14245
▁keynote	-14246
▁Analysis	-14247
▁companion	-14248
▁equations	-14249
▁Saemangeum	-14250
▁conceptual	-14251
▁containers	-14252
▁Gwangmyeong	-14253
▁denuclearize	-14254
▁revitalizing	-14255
Dr	-14256
-15	-14257
700	-14258
indo	-14259
rypt	-14260
▁22,	-14261
▁FTA	-14262
▁Gij	-14263
▁Gyu	-14264
anted	-14265
▁gaps	-14266
▁mile	-14267
▁rhet	-14268
reedom	-14269
retion	-14270
▁Truth	-14271
▁acute	-14272
▁param	-14273
▁piled	-14274
▁reaff	-14275
▁Making	-14276
▁Online	-14277
▁devast	-14278
▁loving	-14279
▁warmth	-14280
▁drastic	-14281
▁stabbed	-14282
roduction	-14283
▁hesitate	-14284
▁membrane	-14285
odhisattva	-14286
▁criterion	-14287
▁employers	-14288
▁generates	-14289
▁possessed	-14290
▁acceptable	-14291
▁activation	-14292
▁tightening	-14293
▁helicopters	-14294
▁interviewed	-14295
test	-14296
▁Fuk	-14297
▁Mae	-14298
▁Pap	-14299
▁jet	-14300
amous	-14301
▁Sach	-14302
▁rall	-14303
▁choir	-14304
▁eager	-14305
▁quota	-14306
▁reapp	-14307
▁dental	-14308
▁disreg	-14309
▁hazard	-14310
▁modify	-14311
▁freight	-14312
▁overlap	-14313
▁Learning	-14314
▁enabling	-14315
▁magnific	-14316
▁Consumers	-14317
▁Liverpool	-14318
▁exclusion	-14319
▁indiscrim	-14320
▁isolation	-14321
▁unpredict	-14322
▁dimensions	-14323
▁litigation	-14324
▁volleyball	-14325
▁Restoration	-14326
▁accessories	-14327
▁unexpectedly	-14328
▁intellectuals	-14329
44	-14330
75	-14331
8)	-14332
MI	-14333
RS	-14334
aba	-14335
arc	-14336
koo	-14337
▁86	-14338
From	-14339
bled	-14340
from	-14341
gree	-14342
▁ABC	-14343
▁Jul	-14344
▁Kol	-14345
▁Pur	-14346
rokes	-14347
▁gaze	-14348
rising	-14349
▁Place	-14350
▁Shall	-14351
▁steal	-14352
athemat	-14353
▁Techno	-14354
▁cattle	-14355
▁cleans	-14356
▁elders	-14357
▁hunger	-14358
▁influx	-14359
▁juniors	-14360
▁monster	-14361
▁educated	-14362
▁advancing	-14363
▁borrowing	-14364
▁generating	-14365
▁imprisoned	-14366
▁symbolizes	-14367
▁Advertising	-14368
▁conferences	-14369
▁consignment	-14370
▁dissatisfaction	-14371
21	-14372
3%	-14373
Not	-14374
▁87	-14375
Comp	-14376
adae	-14377
ilib	-14378
keun	-14379
sale	-14380
▁Sae	-14381
▁tut	-14382
▁wip	-14383
ogene	-14384
trion	-14385
▁Code	-14386
▁Comb	-14387
played	-14388
▁ankle	-14389
▁castle	-14390
▁layout	-14391
▁prayed	-14392
,000,000	-14393
▁Consult	-14394
▁Traffic	-14395
▁advisor	-14396
▁battles	-14397
▁coupons	-14398
▁involve	-14399
▁phrases	-14400
▁teaches	-14401
▁thunder	-14402
▁tightly	-14403
▁Vladimir	-14404
▁earliest	-14405
▁marginal	-14406
▁visually	-14407
▁enjoyable	-14408
▁offenders	-14409
▁organizers	-14410
▁protective	-14411
ala	-14412
esy	-14413
lace	-14414
llor	-14415
▁0.5	-14416
▁SAT	-14417
▁shy	-14418
▁twe	-14419
ridge	-14420
▁Band	-14421
▁Tree	-14422
▁tide	-14423
ushima	-14424
▁Shimb	-14425
▁embro	-14426
essment	-14427
▁Macron	-14428
▁blamed	-14429
▁module	-14430
▁motive	-14431
▁ripple	-14432
▁Hungary	-14433
▁Unified	-14434
▁compass	-14435
▁letting	-14436
▁mindset	-14437
▁pledges	-14438
▁specify	-14439
▁assuming	-14440
▁engraved	-14441
▁mattress	-14442
▁patience	-14443
▁purifier	-14444
▁regulate	-14445
▁surgical	-14446
▁auxiliary	-14447
▁portrayed	-14448
▁citizenship	-14449
▁administrator	-14450
Sun	-14451
▁du	-14452
fare	-14453
mons	-14454
▁Dol	-14455
-2019	-14456
arest	-14457
▁Matt	-14458
▁dizz	-14459
▁pole	-14460
Gangnam	-14461
▁Sexual	-14462
▁burial	-14463
▁horses	-14464
▁loaded	-14465
perature	-14466
▁Minimum	-14467
▁Shimbun	-14468
▁artwork	-14469
▁attends	-14470
▁bullpen	-14471
▁enemies	-14472
▁portray	-14473
▁comedian	-14474
▁Celltrion	-14475
▁deposited	-14476
▁fishermen	-14477
▁shipments	-14478
▁Blockchain	-14479
▁qualitative	-14480
▁subcommittee	-14481
▁investigators	-14482
.0%	-14483
aru	-14484
gia	-14485
grav	-14486
▁3.1	-14487
▁360	-14488
▁Obs	-14489
▁Rub	-14490
▁pec	-14491
▁Pain	-14492
▁ensh	-14493
▁Chile	-14494
▁Crown	-14495
▁Dutch	-14496
▁coerc	-14497
▁chains	-14498
▁priced	-14499
▁sacred	-14500
▁evangel	-14501
▁grilled	-14502
▁cartoons	-14503
▁invented	-14504
▁depressed	-14505
▁exercised	-14506
▁organisms	-14507
▁Specifically	-14508
▁accomplished	-14509
33	-14510
GA	-14511
ethe	-14512
link	-14513
ogun	-14514
oton	-14515
ouch	-14516
unds	-14517
▁4.5	-14518
▁lid	-14519
▁vel	-14520
▁Aven	-14521
▁Monk	-14522
▁rude	-14523
▁toys	-14524
charge	-14525
dering	-14526
public	-14527
▁Johns	-14528
▁Metro	-14529
▁cinem	-14530
▁enlar	-14531
▁flesh	-14532
▁paths	-14533
▁Action	-14534
▁Joseph	-14535
▁souven	-14536
▁spinal	-14537
gressive	-14538
iliation	-14539
▁Shortly	-14540
▁enzymes	-14541
▁vacancy	-14542
▁bleeding	-14543
▁graphics	-14544
▁reminded	-14545
▁striking	-14546
▁Apartment	-14547
▁encourages	-14548
▁minorities	-14549
▁manipulated	-14550
▁choreography	-14551
▁perpetrators	-14552
▁sufficiently	-14553
▁interpretations	-14554
6)	-14555
65	-14556
CS	-14557
apy	-14558
hap	-14559
main	-14560
▁(20	-14561
▁Ari	-14562
Every	-14563
ollar	-14564
▁Give	-14565
idency	-14566
▁Henry	-14567
▁Recon	-14568
▁ambul	-14569
▁downs	-14570
▁glimp	-14571
▁neuro	-14572
▁elabor	-14573
▁hambur	-14574
[...]
