. 2018607
, 909004
▁수 313152
▁있다 300799
▁' 269214
의 256723
에 248033
' 247650
" 216197
▁" 214253
이 184112
을 182503
일 170757
· 167177
은 159606
과 148256
▁있는 146720
▁등 144880
는 135829
( 134895
고 132539
▁및 132093
가 131328
도 129116
를 127532
에서 124626
▁이 124175
) 123235
로 111640
한 108287
▁1 106903
년 106306
와 101735
▁한다 100329
인 99748
으로 99161
하는 92310
▁제 90367
▁것으로 89165
▁한 86007
월 85672
하고 83659
▁본 83584
할 83292
▁대한 80530
▁2 80223
▁것이다 79947
▁3 79306
만 79186
해 73612
▁그 70984
▁통해 70126
▁위해 68802
▁5 64165
▁전 63736
지 61581
▁따라 60659
했다 60633
▁관한 58865
▁중 58232
▁4 58140
기 57794
▁위한 55607
대 55319
▁지난 54798
▁밝혔다 54648
자 54255
▁경우 52144
▁ 50935
며 49748
된 49259
시 48476
한다 48443
다 47542
▁등을 46046
까지 44670
▁더 44481
▁10 44463
에는 44315
▁할 44247
▁발명은 43936
이다 43849
▁했다 43777
▁하는 43528
나 41825
▁함께 41769
하여 41349
▁같은 41027
▁말했다 40968
▁6 40729
개 40043
적 40001
1 39465
▁것 39430
성 38976
이라고 38485
2 38071
▁국내 37805
▁후 37342
하게 37267
▁한국 36974
사 36973
▁시 36630
19 36492
수 36348
들이 35734
에서는 35673
▁코로나 35635
- 35240
▁또 35202
▁내 35154
▁특히 34650
이나 34504
▁다른 33770
하기 33531
명 33508
▁있도록 33501
▁각 33144
차 33093
▁것을 32682
▁7 32572
▁관련 32536
▁것이 32273
주 32261
서 32233
하지 32137
▁다양한 32066
▁자동차 31966
원 31795
▁때 31724
▁가장 31593
▁이번 31461
조 31079
▁또는 30766
형 30668
▁8 30504
화 30495
▁두 30457
스 30184
용 29894
하며 29665
▁대해 29567
제 29333
▁따른 29285
되는 29115
▁많은 28961
▁이후 28925
리 28862
▁것은 28803
적인 28333
▁이를 28327
▁최근 27838
▁이날 27607
부 27605
▁9 27545
▁지난해 27527
▁때문에 27133
장 27122
▁주 26945
▁등의 26882
면 26780
3 26557
세 26438
진 26381
▁서울 26261
▁지 26241
▁큰 26033
상 25840
비 25726
▁이상 25649
▁약 25583
▁정 25545
▁또한 25400
▁이어 25129
에도 25089
G 24909
▁미국 24895
▁총 24842
라 24729
▁된다 24724
▁20 24707
▁등이 24699
▁이에 24695
▁고 24235
▁A 24087
▁현재 24053
▁올해 24046
소 24044
보다 23869
회 23866
▁기 23863
어 23793
해야 23725
전 23577
▁김 23567
▁모두 23546
▁필요한 23412
▁해 23295
▁안 23256
▁가운데 23243
▁서비스 23214
라고 23094
▁따르면 23031
▁지원 22959
▁있다는 22954
적으로 22872
▁비 22811
▁없는 22763
동 22746
▁12 22692
▁대 22687
게 22664
법 22489
하면서 22455
▁일 22330
▁게 22284
▁하고 22175
▁아니라 22163
될 22154
정 22112
▁조 22054
▁11 22023
▁모든 21931
▁있어 21874
아 21804
▁없다 21700
▁하지만 21689
▁지역 21643
라는 21541
▁새로운 21522
▁원 21468
여 21258
선 21148
구 21137
▁사 21099
▁사업 21015
위 20950
에게 20902
▁부 20825
▁글로벌 20787
되어 20753
▁기술 20689
▁높은 20549
▁될 20538
▁세계 20447
됐다 20197
하면 20070
들을 20024
▁LG 19998
부터 19957
▁해당 19913
치 19909
▁가 19846
당 19704
▁유 19666
▁한편 19596
▁교육 19569
▁데 19538
▁신 19446
▁직접 19386
들의 19377
▁다 19367
▁중국 19304
▁30 19183
단 19089
▁판매 19040
▁기업 18979
호 18977
자가 18925
▁예정이다 18924
▁세 18890
▁소 18869
▁미 18814
▁위하여 18752
▁때문이다 18739
▁다음 18606
면서 18533
들은 18506
명이 18452
▁공 18439
▁있으며 18426
이라는 18363
▁재 18362
5 18293
트 18250
식 18236
미 18200
▁등에 18021
실 17983
되고 17891
▁관계자는 17866
된다 17838
▁뒤 17821
▁사용 17807
▁연 17768
신 17763
▁온라인 17759
기를 17724
▁서비스를 17683
중 17654
관 17635
성을 17616
▁구 17595
▁시장 17529
▁그는 17463
▁간 17462
보 17447
▁최대 17416
▁다만 17411
▁그러나 17393
4 17354
▁운영 17303
▁개발 17254
▁기존 17191
▁단 17166
▁강 17154
▁연구 17131
▁잘 17010
하였다 16900
우 16895
돼 16883
▁장 16826
▁반도체 16721
▁서 16708
▁AI 16634
드 16617
▁첫 16592
산 16583
▁박 16539
야 16522
▁계획이다 16413
▁다시 16362
마 16340
억 16338
들 16305
▁관리 16247
▁자 16231
▁오는 16223
천 16184
▁도 16160
▁디지털 16104
6 16053
▁하 16038
▁주요 15965
▁않은 15912
▁대상으로 15894
▁있을 15859
▁오 15846
▁않고 15750
에서도 15743
▁바 15722
재 15699
▁만큼 15674
금 15647
권 15635
▁설명했다 15589
▁결과 15539
▁문 15528
▁생산 15527
지는 15512
▁당 15496
▁차 15465
경 15460
석 15452
▁이런 15449
▁인 15437
D 15418
▁15 15411
▁우리 15395
▁상 15382
분 15337
▁더욱 15292
▁있고 15287
▁동 15264
자의 15253
▁선 15203
▁앞서 15143
▁게임 15114
▁있었다 15106
▁열 15103
▁투자 15097
▁많이 15071
▁같이 15033
▁「 14978
▁보 14977
공 14899
▁위 14895
▁있습니다 14891
▁제공한다 14889
▁경우에는 14809
▁금융 14798
오 14739
연 14705
」 14693
자는 14661
▁따라서 14637
▁말 14584
▁있다고 14569
▁그리고 14523
▁없이 14476
유 14461
기에 14443
물 14417
▁성 14368
7 14322
▁아 14294
다는 14280
영 14255
▁19 14220
▁초 14209
▁동안 14185
계 14093
▁받은 14091
▁데이터 14055
▁산업 14007
▁볼 13874
▁여러 13866
▁양 13847
▁모바일 13819
▁해외 13796
일부터 13724
하 13724
▁무 13708
하거나 13687
모 13661
했던 13637
▁일부 13627
배 13561
▁마 13542
▁된 13539
성이 13454
던 13449
▁보고 13444
▁대표 13416
요 13355
▁반 13293
방 13260
▁이용 13257
▁보인다 13238
▁어떤 13206
무 13201
▁제조 13180
8 13168
▁추가 13126
▁물론 13099
▁일본 13065
질 13058
▁당시 13022
간 12980
하다 12973
▁모 12967
파 12953
내 12948
▁18 12943
자를 12915
국 12878
▁신종 12870
▁13 12850
▁대비 12845
▁지난달 12797
되지 12771
했다고 12771
안 12763
▁전체 12742
▁크게 12734
▁경제 12726
▁대표는 12679
지만 12674
▁알 12673
▁100 12648
▁16 12608
▁노 12597
관리 12592
▁국회 12574
▁기술을 12546
S 12523
처럼 12475
▁부산 12457
지를 12454
', 12445
하여야 12372
▁차량 12354
A 12341
▁학교 12316
하도록 12310
별 12280
C 12279
이라 12275
▁이미 12265
▁않는 12253
▁역시 12235
했고 12221
장을 12201
▁시스템 12192
사업 12188
▁진행 12152
▁됐다 12136
▁구청장은 12118
▁진 12115
▁저 12092
▁스마트 12073
▁나 12059
▁배 12047
▁각각 12041
▁불 12009
문 12009
▁전문 11978
억원 11969
▁가능성이 11960
▁등으로 11931
▁실 11912
▁S 11908
▁14 11886
▁발생 11885
니 11849
현 11824
▁있게 11775
▁가능한 11768
항에 11764
▁심 11727
▁전국 11723
체 11704
▁새 11697
M 11684
기가 11679
시간 11676
▁분 11654
▁국가 11628
▁B 11625
▁통신 11607
▁이러한 11592
▁기준 11585
▁입 11540
일까지 11533
장이 11533
▁이는 11509
▁17 11501
▁일반 11498
▁피 11498
▁제공하는 11494
▁건 11492
다고 11488
▁달 11482
심 11476
민 11472
명의 11456
▁정부 11393
교 11393
명을 11367
▁개 11350
▁오후 11347
▁합니다 11328
▁경 11327
▁K 11304
▁21 11297
P 11280
9 11272
한다는 11174
▁플랫폼 11137
K 11120
▁바랍니다 11111
군 11103
스는 11074
감 11033
▁손 11031
▁안전 10973
▁전자 10966
▁들어 10956
▁제품 10942
▁황 10930
▁광 10918
급 10882
▁명 10876
▁영화 10871
m 10844
▁C 10821
▁온 10800
▁실제 10795
▁되는 10784
▁정보를 10774
▁의료 10707
란 10686
이하 10672
▁고용 10635
이라며 10622
▁감 10598
만원 10590
▁법 10571
▁전했다 10567
▁자신의 10560
점 10555
사의 10515
▁SK 10505
▁24 10504
거나 10504
▁매 10491
▁여 10486
▁강조했다 10474
▁50 10469
▁의해 10462
▁영향을 10453
리는 10453
▁동시에 10452
▁환자 10444
▁있지만 10430
T 10413
▁올 10400
▁받고 10399
되었다 10373
원이 10361
증 10356
히 10355
▁나온다 10347
▁처리 10344
강 10331
위원회 10327
▁설치 10291
학 10262
디 10233
사가 10225
▁교 10213
▁정부가 10212
기는 10203
사를 10193
▁SUV 10176
▁25 10170
크 10154
였다 10147
▁전기 10127
포 10117
▁의 10103
▁받았다 10101
기의 10101
항 10089
▁의원은 10083
종 10071
화를 10064
▁공급 10054
▁TV 10031
▁의한 10017
▁이동 10007
▁아닌 9995
▁열린 9989
지원 9984
▁각종 9976
▁최 9967
▁상기 9954
▁감염 9933
▁기반 9932
▁참여 9894
인이 9894
장은 9886
▁보다 9879
▁고객 9872
러 9866
B 9856
들과 9843
▁좋은 9841
▁개인 9838
▁리 9838
입니다 9834
원을 9819
티 9819
▁지급 9797
▁수도 9793
▁최고 9786
▁중심으로 9771
▁만 9759
▁파 9759
▁배우 9758
▁산 9739
해서 9739
▁우 9721
번 9705
▁효과가 9664
▁어느 9660
▁물 9624
▁거 9613
업 9610
▁신규 9606
타 9598
▁공동 9597
▁계속 9591
)' 9584
▁통합 9574
서를 9570
운 9567
교육 9560
▁의원이 9544
▁중인 9542
▁영상 9527
▁임 9507
▁현대 9507
병 9502
▁경영 9470
▁환경 9466
개월 9462
▁M 9454
▁남 9448
▁인터넷 9447
▁오전 9445
하기로 9433
거 9432
그 9430
코 9400
데 9387
양 9387
대로 9384
기도 9382
▁방법에 9373
▁코 9373
엔 9368
R 9355
▁받을 9346
▁선거 9330
▁인해 9314
▁외 9304
▁방송 9301
▁내년 9290
▁업무 9272
▁사회 9271
▁의원 9259
▁민주당 9244
되면서 9237
발 9229
▁적용 9222
▁줄 9222
▁채 9218
▁조사 9205
▁핵심 9196
▁정책 9194
▁이와 9181
도를 9177
10 9165
▁치료 9160
▁정보 9152
터 9150
e 9147
▁기능을 9125
과의 9116
F 9111
직 9111
▁호 9108
레 9106
▁경기 9105
조에 9103
청 9101
▁향후 9092
산업 9091
자로 9083
▁평가 9061
건 9058
토 9055
▁인한 9049
L 9021
▁금 9001
▁기간 8979
▁우선 8979
노 8979
▁매우 8952
기로 8947
▁보안 8939
▁먼저 8932
▁스마트폰 8927
▁통한 8926
▁노동 8924
반 8924
▁보호 8917
온 8917
▁스 8900
르 8897
스가 8897
▁브랜드 8893
피 8884
더 8854
▁검사 8845
▁타 8843
▁역할을 8828
▁국제 8811
▁확인 8811
했지만 8808
▁P 8801
수를 8801
▁과정에서 8792
린 8792
▁23 8782
▁생활 8764
▁블록체인 8759
성과 8752
카 8735
함으로써 8734
▁한다는 8720
▁나타났다 8712
센터 8707
▁않았다 8704
인의 8700
었다 8693
이었다 8692
▁확진 8689
▁윤 8681
태 8674
▁인공지능 8667
도가 8665
이며 8655
▁가능하다 8648
로부터 8641
▁어 8636
▁27 8633
▁클라우드 8632
▁거래 8628
▁대구 8627
▁포 8623
▁목적으로 8620
초 8620
▁발 8618
▁속 8615
▁화 8615
▁말한다 8608
원의 8589
층 8589
▁수출 8585
▁신청 8581
조제 8573
▁D 8560
▁국민 8549
▁확대 8549
력 8548
씨는 8526
▁대형 8508
▁제작 8507
▁22 8501
프 8495
▁추진 8486
합니다 8485
박 8466
▁제공 8462
▁알려졌다 8441
▁전기차 8440
▁26 8416
기업 8411
▁문화 8407
▁코로나바이러스 8403
▁때에는 8402
▁것도 8365
▁바로 8358
▁만에 8353
바 8345
저 8341
▁정치 8339
려 8339
▁가지 8338
▁BMW 8325
▁받아 8324
▁대하여 8319
▁번 8310
▁미래 8297
력을 8292
▁사람이 8280
자와 8250
▁날 8247
▁하며 8246
대를 8244
▁두고 8240
광 8236
▁공식 8232
불 8222
원은 8215
되면 8214
판 8204
▁대상 8195
▁방 8189
위를 8187
▁예 8181
▁못 8179
스를 8173
▁소속 8162
▁사업을 8160
▁28 8144
▁주행 8143
한다고 8141
▁혁신 8139
▁평균 8118
▁만들어 8111
▁개선 8098
& 8096
▁성장 8083
▁부품 8079
▁요 8075
▁시간 8067
에서의 8066
지가 8058
행 8046
기술 8045
▁비해 8043
▁여성 8036
▁사건 8025
▁에너지 8023
▁적극 8021
▁현 8013
▁문제가 8009
▁보면 8006
▁대표가 8002
▁병원 8002
▁결정 7993
하고자 7989
제를 7981
▁과 7975
지역 7931
▁29 7927
들에게 7912
▁시스템을 7903
▁2017 7901
년간 7901
▁유럽 7879
▁문제 7878
▁이용한 7869
O 7864
▁호의 7854
▁회사 7850
했다는 7846
매 7845
▁이상의 7836
준 7831
▁반면 7823
▁달리 7822
열 7821
희 7817
는데 7814
▁T 7802
명으로 7801
▁후보 7796
즈 7792
▁분석 7766
시장 7753
생 7747
▁행정 7727
통 7719
길 7712
E 7709
▁활용 7709
승 7687
▁송 7680
▁중이다 7676
▁구매 7674
물을 7674
▁활동 7668
개의 7666
서비스 7665
사는 7663
▁같다 7661
수가 7658
▁월 7633
▁편 7630
▁총선 7625
▁발명에 7618
▁시작 7614
▁출시 7609
지에 7600
철 7597
▁통 7583
▁40 7576
버 7574
사와 7563
임 7563
에선 7554
▁중요한 7546
스의 7545
▁영 7542
두 7532
이고 7501
▁프로그램 7494
▁고안은 7485
▁권 7484
▁삼성 7483
▁경쟁 7482
▁데이터를 7468
▁백 7462
▁있어서 7452
▁KT 7429
집 7424
라며 7404
▁R 7400
▁결국 7390
▁정도 7379
▁구성 7372
N 7369
정보 7366
리를 7357
년부터 7355
▁전환 7349
▁내용을 7340
▁공개 7334
▁사항을 7330
권을 7327
▁방법을 7311
▁대응 7307
AI 7306
▁여부 7303
금융 7303
▁카 7286
부가 7278
▁유지 7270
▁관 7260
▁앞으로 7259
자에 7255
I 7253
V 7246
▁전망이다 7246
투 7244
▁조례 7206
▁제어 7197
X 7187
▁있기 7178
량 7174
▁않을 7168
▁발전 7160
자들이 7158
환 7157
서는 7156
▁2018 7154
▁찾아 7143
▁집중 7138
▁관심이 7134
설 7131
상을 7130
▁관심을 7124
▁사람 7119
▁대출 7116
분기 7108
▁결과를 7107
력이 7101
s 7100
▁자체 7097
▁시행 7094
▁분야 7093
년에 7086
▁특별 7081
▁협력 7078
▁식 7073
▁난 7072
▁구축 7071
▁점 7067
▁지방 7059
▁집 7058
▁증가 7031
▁살 7022
20 7021
류 7013
▁판정을 7011
▁G 6992
▁쉽게 6991
▁청 6988
망 6988
▁정부는 6984
▁변 6971
장의 6968
각 6964
림 6953
▁보험 6945
▁용 6932
시설 6925
▁환자가 6908
출 6908
▁모델 6900
상의 6900
약 6898
▁N 6897
▁계획 6895
▁영업 6895
▁군 6894
▁하지 6893
▁더불어민주당 6892
리가 6891
입 6874
▁31 6873
▁직 6867
▁덧붙였다 6866
▁최초로 6866
), 6850
▁사용할 6844
되며 6843
▁가진 6842
▁어떻게 6841
▁문재인 6837
▁감소 6836
▁건설 6836
▁처음 6835
▁특정 6828
▁자동 6825
▁기본 6821
으며 6816
▁V 6806
▁F 6805
남 6803
했으며 6794
▁강화 6791
자에게 6791
▁방법 6788
▁콘텐츠 6780
▁하루 6779
▁이용하여 6775
들도 6764
▁학습 6759
▁뉴 6756
별로 6754
▁않는다 6739
▁IT 6734
인을 6729
▁홍 6728
▁천 6724
▁학생 6724
장과 6722
▁거쳐 6713
▁아직 6713
▁건강 6711
▁복 6706
▁기반으로 6694
▁활동을 6692
▁로봇 6690
금을 6684
▁현지 6683
▁도입 6668
근 6663
주의 6662
▁추 6657
▁민 6651
▁회 6651
외 6650
▁현장 6647
▁어려운 6646
▁외부 6646
시켜 6641
▁점을 6638
▁갖고 6631
▁해당하는 6630
절 6628
등 6622
▁중앙 6617
▁측은 6617
부의 6605
져 6600
▁학 6597
하는데 6595
변 6580
▁상황에서 6578
로는 6575
병원 6575
▁관계 6574
▁스타트업 6572
▁것이라는 6570
▁그런 6566
시키는 6566
▁걸 6563
▁로 6558
▁연결 6555
본 6543
▁가지고 6541
▁받는 6541
’ 6533
와의 6525
▁확산 6515
로서 6515
씨 6512
▁지정 6492
식을 6488
표 6485
▁기록 6484
하기도 6480
▁상품 6469
주는 6468
▁들 6466
▁조정 6466
▁공공 6465
후 6464
▁모습을 6459
워 6453
점을 6453
▁치 6443
▁허 6443
▁최종 6442
월부터 6439
▁‘ 6434
▁바탕으로 6430
▁감염증 6427
루 6406
▁등록 6387
▁사회적 6387
▁매년 6384
브 6383
▁않다 6380
세대 6380
▁이들 6375
리의 6362
▁공유 6360
역 6360
복 6358
▁나왔다 6347
▁문제를 6346
회의 6346
▁사실 6344
▁사용하는 6344
액 6341
링 6338
i 6329
▁발생한 6329
이란 6325
▁고정 6316
▁증 6304
대가 6303
부를 6303
▁정부의 6288
▁삼성전자 6272
▁비롯해 6270
▁유통 6267
▁피해 6255
▁계약 6246
문화 6240
창 6233
▁방침이다 6219
▁사실을 6213
시킬 6212
▁소비자 6210
▁번째 6205
▁설계 6205
▁갤럭시 6203
▁2019 6199
규 6195
▁지원을 6193
원에 6192
장에 6183
▁안내 6180
▁정도로 6167
▁2016 6166
화가 6165
▁대신 6164
▁수입 6164
▁공정 6155
으면 6145
▁아니다 6143
▁토 6142
▁근무 6137
▁참가 6130
▁지지 6120
▁프로그램을 6120
▁거의 6119
▁서울특별시 6118
목 6117
▁농 6114
▁자율주행 6112
▁것이라고 6111
▁서로 6108
▁시장에서 6105
막 6098
▁가족 6092
지도 6090
지의 6090
키 6090
▁상황 6089
▁아울러 6088
결 6087
▁자기 6085
▁2020 6083
▁민간 6082
▁방문 6077
▁되고 6073
▁디스플레이 6072
▁막 6063
▁신차 6058
▁규제 6057
▁그의 6057
▁못한 6055
▁엔진 6052
도록 6052
U 6048
▁되어 6044
억원을 6044
▁청와대 6040
▁태 6040
▁충전 6037
▁위해서는 6036
▁제대로 6035
▁그동안 6034
으로부터 6033
▁무선 6016
▁하나 6013
o 6010
▁즉 6010
▁효과를 6010
▁도시 6007
▁전용 6007
항의 6007
▁필요하다 5997
▁소재 5990
부에 5990
스와 5980
▁발표 5979
▁가입 5977
▁적 5976
▁작업 5971
▁계 5964
음 5963
▁만들 5962
▁경기도 5957
▁준비 5957
▁실시 5955
가는 5954
위에 5950
▁인증 5948
▁요구 5944
▁업체 5942
▁사전 5940
▁시간이 5940
▁주식 5937
▁청년 5937
색 5934
사에 5931
▁설립 5924
▁있는데 5919
기관 5911
▁낮은 5907
▁대해서는 5904
t 5902
▁담당 5902
▁포함한 5897
예 5897
▁삼 5894
▁몇 5891
지고 5889
▁체험 5885
백 5880
er 5876
▁가격 5874
스트 5871
▁선정 5869
▁아이 5864
▁국 5860
▁디자인 5855
하던 5850
▁않아 5847
리에 5847
▁대통령 5845
H 5840
▁시장은 5839
▁암 5838
▁신고 5832
▁에 5832
▁확진자가 5827
▁임금 5825
비를 5822
부는 5816
소를 5814
▁장치 5812
▁확보 5810
연구 5808
▁버 5807
▁앱 5806
▁병 5795
▁순 5792
▁하면 5791
회를 5791
▁배터리 5790
조의 5789
사로 5788
선을 5782
장치에 5781
▁전시 5776
W 5771
시에 5768
트를 5767
▁사고 5765
▁노조 5763
▁이달 5755
▁이렇게 5755
전자 5746
▁법률 5744
▁광고 5736
▁활용해 5736
▁예방 5730
▁내부 5724
▁생 5724
▁역 5722
▁등은 5705
속 5696
▁매출 5694
▁사람들이 5687
▁그룹 5683
▁종합 5679
▁모습이 5678
기와 5674
▁변경 5671
▁이동통신 5670
▁시간을 5667
채 5667
든 5662
▁없어 5661
도는 5658
▁60 5657
▁제품을 5654
▁빠르게 5650
래 5649
▁일이 5642
▁결 5641
▁수가 5636
들에 5629
▁만든 5628
▁발표했다 5627
▁관련해 5625
▁확인할 5624
▁이유로 5622
▁불법 5621
순 5619
▁여전히 5612
▁네트워크 5598
▁의견을 5589
▁필요가 5574
론 5573
▁현대차 5568
▁근로자 5567
▁표 5567
▁레 5566
▁발생하는 5564
▁위반 5563
년까지 5561
▁소형 5554
▁원하는 5552
▁좀 5533
▁행사 5524
▁기관 5514
▁은행 5513
시스템 5513
▁질 5512
▁E 5509
▁앞 5506
/ 5505
▁형성 5503
▁심의 5501
▁진단 5493
▁선택 5490
▁독일 5483
▁비롯한 5483
▁시설 5483
▁종 5482
하지만 5481
▁작은 5478
▁너무 5477
▁수밖에 5476
▁결제 5475
▁의하여 5475
료 5475
작 5472
▁주는 5470
일에 5456
하자 5456
제가 5450
▁애 5444
▁해야 5442
시는 5442
▁전송 5439
원으로 5438
드는 5432
경제 5430
▁앞두고 5429
▁상승 5416
립 5413
▁부동산 5411
▁시장에 5411
하겠다 5411
축 5403
▁조직 5401
씨가 5395
▁극 5394
업체 5394
품 5393
▁많다 5383
▁연간 5376
▁판단 5374
곡 5373
대의 5369
▁상담 5360
그룹 5358
장으로 5358
▁H 5353
▁책임 5353
▁평 5352
평 5345
▁긴급 5340
도의 5325
김 5324
▁기능 5321
▁별지 5321
암 5317
▁일정 5313
▁소비 5311
도로 5309
▁하나의 5308
▁힘을 5306
처리 5305
성에 5303
▁뿐 5301
으로는 5297
▁전지 5295
▁주로 5292
▁지도 5291
추 5290
날 5288
▁판 5287
▁설 5282
▁디 5277
▁방식으로 5274
▁하이브리드 5273
안을 5271
▁음성 5269
▁지금 5269
▁교통 5268
▁체 5268
인은 5264
▁업계 5259
▁사망 5255
▁제한 5253
▁과거 5245
▁직원 5245
▁검사를 5236
▁전날 5236
▁사례 5235
▁행 5234
화에 5228
▁사이 5221
네 5216
함을 5216
▁구조 5215
▁인사 5215
스에 5213
기간 5209
▁지적했다 5206
이자 5196
▁보수 5194
▁되었다 5192
체를 5180
되기 5176
▁여기에 5175
학년 5175
▁접속 5172
감을 5169
명은 5165
▁활용한 5164
▁기준으로 5159
▁창 5156
▁관련된 5150
장치 5150
▁전달 5148
▁수신 5141
▁하여 5129
▁마련 5128
▁수는 5127
▁광주 5124
처 5122
▁수행 5119
▁방안을 5113
▁L 5112
▁전에 5111
▁기업이 5110
TV 5109
▁최저임금 5109
전을 5106
▁주시기 5103
▁다음과 5102
▁마스크 5092
▁대부분 5086
▁이전 5086
▁GM 5085
▁스스로 5084
▁방역 5082
▁금속 5079
격 5077
하겠다는 5076
▁시장을 5071
▁지속 5070
▁2015 5065
범 5065
▁생각 5064
▁표시 5064
y 5057
? 5052
이지만 5052
p 5049
▁아래 5048
갈 5047
▁성공 5043
수는 5040
11 5039
▁않도록 5039
▁한국당 5036
▁한다고 5029
▁장기 5028
▁갖는 5022
인지 5020
▁의사 5019
▁조성 5016
릴 5016
▁여부를 5015
▁중소기업 5014
편 5012
▁마케팅 5005
개발 5003
▁200 5000
▁일자리 5000
▁알고 4995
▁할인 4993
▁중단 4990
km 4988
▁실제로 4985
▁것에 4979
% 4977
세를 4977
▁증상이 4976
율 4975
▁만나 4969
▁발명의 4967
▁PC 4961
▁키 4961
▁후보가 4961
이는 4957
▁예상된다 4955
량이 4955
▁불구하고 4951
▁경우가 4945
▁. 4944
▁감사 4940
보험 4939
▁의하면 4938
▁채용 4938
투자 4938
▁정당 4935
▁처음으로 4935
도에 4933
소가 4933
▁전력 4932
살 4922
▁이용해 4918
▁SNS 4911
▁개발한 4910
자인 4908
▁투표 4905
▁음악 4902
▁우려가 4890
갑 4889
언 4884
▁대규모 4883
▁없다는 4877
▁규정에 4874
▁통과 4874
n 4872
▁합의 4870
a 4866
▁자유한국당 4860
대상 4855
▁홍보 4853
▁주택 4850
▁프리미엄 4850
▁있던 4849
▁절 4846
▁장치에 4844
▁없었다 4843
지로 4842
▁확진자 4835
▁변화 4834
덕 4834
물의 4833
관이 4831
▁유튜브 4828
▁이용할 4828
▁열고 4825
▁우수 4824
▁시험 4818
▁망 4817
난 4811
▁보는 4805
자동차 4802
원과 4801
▁목 4799
▁규모의 4796
훈 4796
▁라 4789
▁전략 4781
물이 4781
l 4778
▁외국인 4776
▁특허 4776
▁음 4775
▁드라마 4773
뿐 4765
인데 4764
▁자연 4763
▁돌 4762
차를 4759
▁도지사는 4757
▁폐 4756
▁인식 4755
▁자신이 4754
▁대학 4753
▁오늘 4753
락 4748
▁내려 4747
▁주장했다 4747
▁연기 4743
▁장관 4741
▁측정 4739
▁축 4737
▁사실상 4733
▁항 4731
▁치료를 4730
화된 4730
▁기업의 4725
▁위원장은 4724
었던 4721
▁그대로 4720
▁지속적으로 4720
▁점에서 4719
▁부분 4715
가지 4712
울 4712
▁솔루션 4709
▁때는 4708
정이 4708
▁나섰다 4707
▁누 4707
▁네 4706
▁삼성전자는 4700
단체 4699
▁소프트웨어 4696
30 4695
▁활성화 4695
봉 4695
▁이들은 4689
향 4687
80 4685
▁전년 4685
▁입원 4684
부와 4684
뿐만 4681
▁필요 4675
리고 4675
치를 4674
▁공장 4671
정을 4671
▁맞춰 4667
체의 4667
▁인력 4664
머 4663
▁공연 4662
당이 4658
▁0 4657
▁연속 4652
▁기대 4650
▁설명이다 4650
▁친 4649
▁격리 4647
금이 4644
▁교수는 4642
▁대통령이 4641
마다 4636
▁만드는 4634
▁업무를 4634
▁빅데이터 4629
▁부담 4627
수의 4626
이를 4626
▁예산 4622
▁풀 4622
▁하기 4620
▁사람은 4616
▁과학 4613
▁처 4611
없이 4607
▁갈 4605
50 4603
▁시작했다 4598
▁인상 4597
▁중에서 4597
코로나 4597
환경 4593
▁사이에 4591
▁채널 4591
▁카드 4587
겠다는 4587
▁승 4583
▁단체 4577
▁향상 4575
▁못하고 4570
▁학부모 4562
안전 4560
▁300 4559
▁상황을 4553
담 4553
분의 4553
▁진료 4552
했을 4552
▁독 4550
▁뇌 4549
▁위험 4544
▁입력 4543
스타 4537
▁특 4535
▁노사 4531
▁바이오 4529
일을 4528
평가 4527
▁어린이 4526
▁피고 4526
▁등에서 4524
▁집단 4521
송 4521
▁반드시 4518
▁나온 4512
▁면 4510
달 4509
▁보였다 4507
▁예상 4505
▁창업 4505
▁그래서 4504
▁신경 4502
▁방지 4495
랑 4493
▁이제 4492
▁도움이 4491
▁악 4491
독 4491
▁휴 4490
플 4486
▁팔 4484
▁격 4483
법을 4483
▁1, 4482
00 4481
▁그런데 4476
▁출 4476
필 4473
▁첨단 4471
임을 4466
▁아니 4454
▁형 4450
▁초기 4449
▁지원하는 4447
▁수소 4446
정책 4446
▁높다 4444
▁제공할 4444
▁네이버 4441
▁전문가 4440
▁시장이 4426
▁운용 4425
말 4424
▁석 4419
▁상황이 4417
▁해도 4417
관을 4413
정의 4412
▁인수 4408
▁넘어 4407
▁롯데 4407
회가 4407
▁우리가 4406
▁안에 4404
자들은 4402
▁타이어 4401
▁촬영 4397
구의 4397
▁메 4391
씩 4391
▁중고차 4390
▁의심 4389
문을 4388
대에 4387
받은 4382
▁합 4379
하려는 4379
▁수요 4376
▁전면 4374
충 4373
▁주변 4367
▁추가로 4367
▁기회를 4364
▁것과 4361
▁영국 4361
▁의미 4359
운영 4359
겠다 4358
▁배출 4354
▁지원할 4352
▁2000 4347
하다는 4346
커 4345
▁몸 4343
▁오히려 4343
▁향 4339
졌다 4339
농 4333
▁위치 4331
▁밤 4330
팀 4329
▁한국의 4326
▁입장을 4325
션 4325
▁넘는 4323
▁설명 4322
▁기술이 4320
▁보유한 4318
▁상호 4318
▁회의 4317
d 4315
▁결합 4315
▁우수한 4314
▁맞 4311
▁자금 4308
학교 4307
▁예정 4306
▁인정 4306
▁해결 4303
상에 4303
싱 4302
▁등과 4299
▁사용자 4299
▁상황이다 4298
12 4297
▁정상 4297
▁수상 4296
▁컴퓨터 4296
▁전화 4295
▁시장의 4291
▁검토 4290
음을 4288
▁감염병 4286
▁적극적으로 4282
윤 4276
▁운동 4269
▁기록했다 4268
▁참 4266
진다 4264
▁있는지 4261
블 4261
▁접 4260
▁가수 4258
▁표준 4255
▁포함 4254
적이고 4253
보다는 4245
▁논의 4244
▁기획 4243
▁노동자 4243
▁과정을 4242
하다고 4241
▁스포츠 4240
▁실시간 4239
▁환 4234
▁비례대표 4230
긴 4230
▁개정 4225
퍼 4217
▁더불어 4215
▁개최 4213
▁보건 4211
▁운전 4210
너 4203
상이 4201
▁심사 4200
▁연장 4198
▁운영하는 4198
▁접촉 4195
▁취 4195
▁통하여 4195
량을 4190
▁구동 4183
▁친환경 4182
함에 4180
▁장애인 4179
▁함 4179
관은 4179
서에 4179
▁내에 4177
▁필요하다고 4177
위가 4174
▁가정 4169
▁양성 4167
년대 4167
인과 4167
드를 4166
▁U 4165
▁셈이다 4163
팅 4156
위는 4155
볼 4151
▁부탁드립니다 4146
▁뿐만 4143
탈 4140
▁패 4137
합 4137
취 4136
비가 4133
▁발표한 4130
▁제주 4129
서의 4129
▁잡 4127
치는 4127
▁수술 4126
▁회복 4126
▁보유 4124
자들의 4122
▁환자는 4121
탄 4121
▁보조 4120
▁차세대 4119
▁공개했다 4118
▁여행 4117
은행 4115
▁길 4114
▁안정 4114
▁돼 4112
mm 4108
▁예측 4108
▁사진 4107
▁확정 4100
명에 4095
친 4095
▁500 4094
손 4094
애 4089
▁저장 4085
리와 4085
제로 4085
▁도로 4082
▁어려움을 4081
▁실험 4076
▁미리 4075
검 4075
다가 4074
▁복지 4073
령 4073
습니다 4072
회에 4072
았다 4069
월에 4069
▁반응 4068
▁시민 4068
▁늘 4066
테 4065
금은 4063
▁왔다 4062
세가 4055
▁부문 4053
▁혜택을 4053
협 4053
▁조치를 4052
▁위탁 4050
리지 4050
조사 4050
▁빠른 4048
▁출력 4048
▁장치를 4045
북 4045
▁수요가 4044
▁야 4042
▁그가 4039
▁특성을 4039
가를 4036
회에서 4036
▁귀 4030
▁발견 4030
▁것으로서 4028
▁품질 4026
▁공간 4025
▁되면 4024
체가 4021
▁검색 4020
▁논란이 4020
▁아시아 4018
함 4015
▁이처럼 4009
▁갖춘 4008
h 4004
▁둔 4003
▁되 3999
착 3997
▁지역의 3993
▁I 3990
극 3988
▁나는 3987
▁스타 3985
▁조치 3985
회는 3984
▁교수 3982
▁철 3982
▁상반기 3980
▁완성차 3978
▁폭 3977
40 3973
▁출신 3971
▁화학 3969
▁중심 3963
게임 3963
점이 3958
▁분리 3954
년에는 3954
악 3954
▁출연 3953
▁수입차 3952
지지 3952
▁항공 3950
▁이번에 3948
▁채권 3948
▁내에서 3947
▁상태 3947
▁신형 3944
활동 3940
▁먹 3938
▁사람의 3938
이기 3938
60 3937
▁놓고 3937
▁마지막 3936
▁못하는 3934
▁있 3931
g 3919
아이 3919
▁벌 3915
▁특별한 3915
▁반대 3914
▁보내 3913
▁수사 3913
▁대체 3911
▁오픈 3910
▁국회에서 3909
▁청소년 3909
▁밖에 3908
▁눈 3906
▁못했다 3906
▁비용 3904
▁확장 3902
국민 3902
▁연료 3901
렸다 3897
▁자유 3894
성은 3894
▁인천 3893
15 3890
까 3883
▁탈 3882
찬 3882
▁내가 3873
협회 3871
라도 3870
▁보장 3869
▁부족 3867
▁중에 3867
압 3866
습 3865
▁제출 3864
▁지금까지 3864
▁분야에서 3863
주가 3863
만원을 3861
▁왕 3858
▁카메라 3858
으로서 3856
돌 3852
만을 3850
▁암호화폐 3848
▁작 3847
▁출마 3845
▁새롭게 3843
▁소득 3843
▁구글 3842
메 3839
성의 3838
트로 3836
대는 3835
률이 3835
▁꼭 3834
▁전혀 3834
구가 3833
▁공천 3831
▁여야 3831
▁은 3831
▁전원 3830
▁현대차는 3829
▁인기 3828
▁협의 3828
▁지원한다 3827
▁일을 3825
▁모빌리티 3823
▁충분히 3821
인들이 3820
▁기존의 3819
▁크다 3817
▁환자의 3817
레이 3813
▁북 3811
▁준 3809
▁별 3808
▁받지 3806
▁통합당 3805
화와 3805
구에 3804
▁곳 3802
▁미래통합당 3802
▁차단 3800
▁형태로 3799
▁담 3797
▁실내 3795
▁플랫폼을 3792
▁전파 3791
▁모델을 3787
▁발행 3787
▁제공하고 3787
▁투 3787
▁신호 3785
▁회전 3782
▁훨씬 3780
▁이유는 3778
▁학생들의 3778
▁우리나라 3774
▁가동 3769
는다 3768
▁사무 3765
줄 3765
▁상대적으로 3761
▁점검 3761
거래 3761
생활 3761
▁영상을 3758
▁체결 3755
▁커 3755
▁부과 3752
▁위원 3752
▁교환 3747
▁청구 3743
▁새로 3741
관의 3739
있는 3736
계획 3735
▁수용 3734
장치를 3734
▁울산 3733
▁카카오 3733
▁기판 3730
▁수립 3730
▁원고 3727
▁제도 3726
택 3725
▁나머지 3724
▁성능 3724
▁보여 3722
▁인기를 3721
▁없을 3720
대학교 3720
▁아동 3719
였던 3719
료를 3718
하겠다고 3718
당을 3716
▁성능을 3714
c 3713
지면서 3709
알 3707
▁콘텐츠를 3702
▁죽 3700
▁인도 3699
율이 3699
▁좋아 3698
▁애플 3695
가가 3691
▁정비 3687
올 3683
▁꾸준히 3682
률 3682
소의 3682
▁급 3676
▁수익 3674
▁알려 3674
의료 3674
통신 3674
▁고려 3672
▁매각 3669
▁존재 3669
구는 3667
시키고 3667
지와 3666
▁2, 3661
▁경북 3659
▁아파트 3659
▁이유 3657
▁조국 3657
al 3656
드의 3650
염 3645
▁기초 3644
숙 3644
앤 3644
일이 3643
▁임시 3637
▁최초 3637
▁대기 3635
▁평가를 3631
▁취소 3630
왔다 3626
▁O 3623
▁개별 3621
▁목표 3621
▁풍 3621
▁작동 3619
▁추천 3617
▁가능성을 3615
▁투자를 3614
▁실적 3612
▁맞아 3608
▁범위 3608
▁보이는 3608
고를 3608
▁계획을 3604
▁미디어 3603
노동 3600
왕 3600
▁교육을 3598
▁기반의 3597
간의 3597
b 3595
▁베트남 3591
▁자동으로 3591
▁개의 3589
▁표현 3589
드가 3589
+ 3587
▁완 3580
▁주민 3574
감이 3574
시킨 3574
▁잔 3572
제는 3571
되도록 3570
13 3568
쳐 3568
▁색 3567
▁나오는 3564
▁조선 3563
▁설정 3562
▁항상 3557
페이 3557
▁자리를 3555
측 3555
▁2014 3554
▁맞춤형 3554
▁활용할 3552
도와 3551
▁속에서 3550
▁수업 3549
▁맞는 3548
책 3545
트의 3545
▁희망 3544
▁대폭 3542
트는 3542
▁작성 3540
▁비정규직 3539
▁미국의 3537
율을 3537
▁밀 3529
▁침 3529
이번 3526
▁기념 3525
액을 3525
▁그러면서 3524
▁예술 3524
IT 3523
▁관하여 3523
▁마음을 3523
▁요청 3523
▁인간 3523
▁별도의 3521
판매 3520
▁다소 3519
▁X 3517
▁걸쳐 3516
▁보이고 3515
▁수준의 3515
구를 3514
▁중요 3510
▁학생들이 3510
장에서 3509
트가 3508
위원 3506
▁이해 3502
▁하였다 3497
▁기계 3495
카드 3493
▁비교 3492
▁계산 3489
회사 3488
▁실행 3487
▁경쟁력을 3486
선이 3486
시가 3486
▁당선 3485
▁관심 3483
▁얼마나 3481
이가 3481
▁발생할 3476
식이 3475
▁사용자가 3472
베 3471
▁재난 3470
▁수준 3469
▁많아 3467
▁허용 3466
▁되지 3462
▁사랑 3460
었고 3459
▁아이폰 3458
▁원격 3458
균 3458
▁국회의원 3457
▁비용을 3457
소에 3457
▁비슷한 3455
▁명의 3454
▁보상 3453
▁대중 3451
▁주력 3450
과학 3448
▁경남 3447
▁이들이 3445
▁취업 3445
총 3445
▁프로젝트 3444
▁간의 3443
▁위기 3443
구청장 3443
▁않으면 3439
▁프로 3439
▁조립 3438
▁단축 3433
▁최신 3433
▁동작 3432
▁늘었다 3431
▁서울시 3429
▁있었던 3429
▁통화 3428
▁경험 3427
▁이야기를 3427
보호 3422
▁혹은 3419
▁사용되는 3418
원에서 3418
▁변화를 3417
▁운영에 3417
▁제시 3416
: 3415
▁범위에서 3415
▁국내외 3414
▁없다고 3414
▁구성된 3413
차가 3413
▁즉시 3411
▁적극적인 3410
▁주차 3410
전이 3410
▁전해졌다 3408
▁시작한 3406
▁재정 3406
전문 3405
r 3404
▁구조를 3404
▁수집 3404
▁시청 3402
▁것이란 3401
▁집행 3400
기준 3400
주를 3400
ing 3399
▁1000 3399
▁작년 3399
▁52 3395
과는 3395
제의 3395
월까지 3392
▁가격이 3390
보는 3389
치료 3389
▁지분 3388
사인 3388
▁종료 3386
▁근 3385
▁회장은 3384
글 3384
금의 3383
▁제안 3382
∼ 3381
▁장비 3381
폭 3381
▁방지할 3379
해도 3379
▁마을 3378
법에 3378
▁도전 3375
▁계약을 3374
▁이하 3374
츠 3372
▁투입 3369
▁책 3368
어를 3368
▁범 3367
▁하락 3366
황 3366
▁성과를 3365
존 3365
▁W 3359
▁피해를 3359
에만 3358
▁강한 3357
력과 3357
▁하는데 3355
▁것입니다 3352
▁젊은 3351
사회 3348
▁문제는 3347
제에 3347
▁기아차 3345
▁외에 3344
▁유기 3343
▁디젤 3341
심을 3339
했으나 3339
빈 3338
▁최소 3334
관계 3331
홍 3331
▁강력한 3330
견 3329
권이 3329
▁전극 3323
▁진출 3323
적이 3323
▁정확한 3318
낸 3318
면에 3318
명과 3318
상으로 3317
▁조작 3316
본부 3316
▁본다 3315
삼 3314
▁겸 3311
▁70 3310
▁결과가 3310
▁시스템에 3309
▁정기 3309
▁회원 3307
%, 3306
▁사항은 3305
u 3304
▁시작으로 3304
▁우리는 3304
▁제거 3304
▁돌아 3303
▁황교안 3303
한국 3302
▁포함해 3301
▁예산의 3300
▁이들의 3299
▁마무리 3297
했는데 3297
▁동일한 3296
▁배치 3295
▁운행 3295
▁필 3295
방송 3295
▁50% 3294
▁측 3293
▁경우에 3292
▁상황에 3292
▁자산 3292
▁대통령은 3290
▁인하 3290
▁제외한 3289
▁사실이 3288
▁올라 3286
▁누적 3284
슬 3283
▁빈 3280
▁도움을 3279
포인트 3279
▁나오고 3278
▁어렵다 3277
닝 3275
▁특징이다 3274
▁것처럼 3273
▁특수 3273
▁동의 3272
▁높아 3271
▁눈길을 3271
▁가능 3268
▁소개 3266
▁강남 3265
스로 3265
▁상품을 3264
▁2008 3263
▁교체 3263
복지 3263
어야 3263
▁작품 3262
▁검찰 3259
▁해고 3259
▁기타 3258
▁장착 3258
▁트 3258
딩 3258
▁연계 3256
시의 3256
폰 3256
▁구입 3255
▁전망 3255
선의 3255
로를 3253
▁공무원 3252
▁글 3251
밀 3251
▁2012 3250
▁비즈니스 3249
폐 3248
▁연구개발 3247
▁없고 3246
패 3244
효 3244
▁비상 3242
▁티 3241
▁밝힌 3236
▁응 3236
▁이용하는 3236
▁남아 3235
▁높이 3235
▁포함하는 3235
▁공개된 3234
▁목표로 3234
▁운전자 3232
주택 3232
▁반복 3231
▁동기 3229
발전 3228
정에 3225
▁당초 3222
▁2013 3221
▁바른미래당 3220
▁의견 3220
만이 3220
증을 3218
▁개편 3215
▁기대된다 3215
냐 3214
라이 3214
보고 3214
21 3213
만의 3213
체에 3213
단을 3212
▁음식 3211
▁혐의로 3211
위원회의 3211
킹 3211
년이 3209
▁경찰 3206
▁이상이 3206
▁2010 3203
도시 3200
▁개발에 3199
▁본격 3199
▁2011 3198
▁명이 3197
▁총괄 3196
▁건물 3195
▁규모 3195
▁파업 3193
풍 3193
▁전해 3189
▁드 3188
▁앞에서 3188
▁양산 3188
▁차이가 3188
곳 3188
▁노조는 3187
▁자주 3187
▁조합 3187
▁완화 3185
골 3181
AR 3180
사들이 3180
당의 3175
▁주문 3174
석을 3173
▁사례가 3171
▁경쟁력 3167
▁규정 3167
▁바이러스 3167
▁현실 3165
▁쓰 3162
▁자가 3160
제도 3160
▁애플리케이션 3159
▁업 3158
서가 3158
▁나서 3156
▁열어 3155
클 3155
▁대책 3154
▁아주 3153
▁이름을 3152
▁검증 3149
▁대화 3149
▁발급 3147
전자는 3147
▁고객이 3146
억원으로 3144
▁나선 3143
▁베 3143
▁순간 3143
▁LED 3142
▁육성 3142
▁정의 3142
소와 3141
▁구청장이 3139
▁배달 3139
▁법인 3139
▁외에도 3138
수록 3137
90 3136
▁노래 3136
▁지연 3135
▁10% 3133
▁완전히 3132
▁구현 3128
▁보급 3127
▁대한민국 3126
계를 3126
렌 3126
▁신천지 3125
혁신 3125
▁노인 3121
▁퍼 3121
▁전통 3120
▁언론 3119
욱 3119
▁주고 3118
만대 3118
운동 3118
▁경험을 3117
▁국내에서 3117
▁무료 3117
▁말을 3116
▁효율적으로 3116
▁위치한 3111
▁자리 3111
▁적이 3111
▁열리는 3110
▁우주 3110
▁직장 3110
들로 3110
구조 3109
▁개발을 3106
일에는 3106
▁참석 3105
▁금지 3104
▁가치를 3103
술 3103
▁향상시킬 3100
> 3097
▁회장 3092
▁대전 3091
▁범죄 3091
▁쉽지 3091
▁셀 3090
법이 3089
콘 3086
▁분류 3085
▁인프라 3085
▁금리 3084
계의 3084
한다면 3084
▁속도를 3083
페 3083
▁관련한 3082
▁남성 3082
▁정하는 3081
▁모집 3079
▁편의 3079
▁이같이 3078
▁반영 3076
내는 3076
린다 3076
▁얻을 3074
▁장애 3074
▁조례는 3074
호에 3074
▁봉 3073
코리아 3073
▁단계 3072
▁핀테크 3072
리스 3071
상은 3071
케 3071
▁사는 3070
소는 3068
▁울 3067
몰 3067
에게는 3067
▁운영하고 3063
▁인재 3063
▁진행한다 3063
▁홈 3063
연구원 3062
▁법무부 3061
만으로 3060
품을 3060
했습니다 3059
▁규모가 3058
▁80 3055
▁적은 3055
▁협조 3055
▁접수 3054
록 3053
학년도 3053
▁팀 3050
▁조절 3046
옥 3045
▁발광 3044
▁혼 3044
단이 3044
▁다수의 3043
▁왜 3042
시켰다 3042
▁식품 3041
14 3040
었지만 3038
위원회는 3034
단은 3033
권의 3030
셀 3030
▁가속 3026
▁증권 3026
▁사태 3024
▁자본 3021
▁예약 3018
▁육 3017
▁보증 3014
▁이야기 3014
▁긴 3012
▁액 3012
▁자료 3012
▁커지고 3011
▁가치 3007
▁탄 3006
▁행사를 3006
▁현재까지 3006
검사 3006
▁악화 3005
랩 3004
▁하반기 2998
▁20% 2995
▁2009 2994
▁테스트 2994
▁소송 2990
▁와 2989
대책 2988
진이 2987
업계 2986
▁대기업 2985
▁복합 2985
▁사이버 2984
▁유치 2983
▁융합 2983
▁증가했다 2982
▁한번 2982
▁따 2977
▁터 2977
학과 2977
▁늘어난 2976
▁통계 2976
▁있지 2975
위의 2975
▁플레이 2972
징 2972
▁법안 2971
완 2971
▁IP 2970
방법 2970
▁이중 2969
▁기재 2968
액이 2967
▁< 2966
▁유명 2966
당은 2966
층을 2966
▁의무 2965
▁이때 2965
▁지역사회 2964
▁상태다 2963
▁내용이 2962
▁이송 2961
▁속에 2960
위로 2960
해왔다 2960
▁임상 2959
▁원내대표는 2958
▁지역구 2958
▁지구 2957
▁하나에 2956
▁건축 2955
국의 2951
근로 2949
대학 2949
▁정한 2948
▁폐쇄 2948
▁KB 2947
▁최고의 2946
▁공시했다 2944
씨의 2943
지면 2942
▁등도 2940
▁점이 2940
▁보니 2939
▁가는 2938
▁북미 2938
▁위원회의 2934
▁차량을 2930
▁가까운 2929
▁공모 2929
▁때까지 2929
▁완료 2928
▁대해서도 2927
▁리튬 2925
▁상장 2924
▁소상공인 2924
해주 2924
▁하여야 2923
MS 2922
▁임명 2922
17 2921
in 2921
받을 2919
조원 2919
▁『 2917
▁환경을 2916
지방 2916
▁부착 2915
▁정책을 2914
▁확인됐다 2909
비는 2909
▁숨 2908
단의 2907
▁메모리 2905
▁웹 2905
하면서도 2905
▁논 2903
▁수준으로 2903
~ 2902
▁접근 2902
500 2899
▁해서 2898
▁줄일 2897
▁출범 2897
▁안전한 2896
지게 2896
▁자료를 2895
▁고급 2894
▁미치는 2894
안이 2894
침 2894
▁노출 2893
선거 2892
▁비중이 2890
새 2890
▁상대로 2889
▁그렇게 2888
▁하다 2886
특 2886
▁최대한 2885
▁하나로 2884
▁감독 2883
위원회가 2883
혜 2881
▁기부 2878
▁이온 2878
▁30% 2877
족 2877
▁북한 2876
▁이내에 2876
▁하이 2875
▁정규직 2874
석이 2874
▁방법으로 2870
▁브 2869
▁진행하고 2869
▁높이고 2868
▁여름 2868
라인 2866
▁행동 2865
▁부정 2864
▁후보는 2864
▁구분 2863
▁녹 2862
▁숙 2859
▁차례 2859
▁회장이 2859
계약 2859
▁눈에 2858
▁발열 2858
▁피고인 2858
▁벤츠 2854
움 2851
▁오른 2850
▁골 2848
전에 2848
받 2846
실에서 2846
려는 2845
진을 2843
▁예를 2842
▁자녀 2842
▁클 2842
▁담긴 2841
▁위원은 2840
▁파악 2840
▁담은 2838
▁손을 2837
▁분야의 2835
더라도 2835
▁마이크로 2834
번째 2834
16 2833
개를 2833
▁협 2832
실에 2832
▁낸 2830
▁절반 2830
▁취약계층 2830
▁일부를 2829
▁공기 2827
▁웨이퍼 2827
▁크 2826
공사 2826
조정 2825
▁이뤄 2824
했 2824
했기 2824
하였고 2823
고용 2822
업무 2822
▁위해서 2820
▁사업에 2819
▁쓸 2818
▁관광 2817
▁본격적인 2817
▁고성능 2816
▁마스크를 2816
▁보완 2816
▁운영을 2816
▁조기 2816
만큼 2816
▁테 2815
거리 2815
▁충돌 2814
▁기억 2813
▁방식 2812
▁시도 2812
스터 2812
▁의원의 2811
▁자율 2808
▁상당 2807
▁지역에서 2807
▁독립 2806
▁실무 2806
▁온도 2806
▁전략을 2806
공장 2805
체계 2805
▁펀드 2803
▁국민의 2802
▁위원장이 2802
▁중증 2802
▁드론 2801
▁있으면 2798
▁조금 2798
▁선임 2797
▁바란다 2796
▁중요하다 2796
젠 2796
▁상태를 2795
▁회사는 2795
망을 2795
▁지적이 2794
▁다음달 2793
▁센터 2793
▁결혼 2792
면서도 2792
▁증가한 2791
▁가솔린 2789
▁자체가 2789
18 2787
량의 2785
▁따로 2782
장비 2780
▁소유 2779
▁예능 2779
▁많았다 2778
능 2776
▁혈 2775
▁참여한 2774
름 2774
면을 2774
▁곡 2773
▁개시한다 2771
▁염 2771
▁참여하는 2770
▁근로 2769
행정 2768
화하는 2768
회로 2768
의를 2766
표를 2766
▁완성 2762
▁점차 2762
▁사람을 2759
▁선보였다 2759
▁요즘 2759
인치 2757
▁달라 2756
▁솔루션을 2756
▁찾는 2755
톤 2755
▁VR 2754
리로 2754
▁시행령 2752
▁차종 2752
▁'2019 2751
▁시각 2751
하려면 2751
▁한층 2750
노조 2749
됐고 2749
다면 2748
▁MBC 2746
▁환자를 2746
▁대표적인 2745
일로 2745
▁올랐다 2743
▁라인 2741
▁탑재 2741
0 2740
▁직무 2740
오는 2740
▁KBS 2735
▁높였다 2734
▁대표의 2734
인으로 2734
▁가입자 2733
▁루 2733
막을 2733
▁단순 2732
▁유리 2732
지기 2732
▁부분을 2731
▁비례 2730
▁우려 2730
▁검출 2729
▁됩니다 2729
▁힘 2729
수에 2729
실을 2729
▁과정 2728
▁높일 2727
▁개설 2726
▁역량을 2726
▁지역에 2726
▁점도 2725
는지 2725
익 2725
텍 2722
▁필수 2721
▁치매 2720
률은 2720
OS 2719
▁낙 2719
▁동물 2719
70 2718
▁참여할 2718
▁오래 2717
▁개혁 2716
▁이미지 2716
▁풀이된다 2715
기기 2715
▁특징으로 2714
▁민주당이 2713
▁나갈 2712
▁알려져 2712
계가 2712
상품 2712
ar 2711
▁재생 2711
▁공사 2708
활동을 2708
▁승용차 2706
▁대통령의 2705
▁납부 2704
▁방식을 2703
▁협업 2703
되 2702
▁CJ 2700
▁내용 2700
▁작업을 2698
경영 2698
시를 2698
▁보통 2697
▁캐 2697
혈 2696
▁위에 2695
▁표면 2695
▁발굴 2694
낼 2693
▁나올 2691
▁제출하여야 2691
▁더해 2690
▁페 2690
리기 2690
▁누구나 2689
판을 2688
률을 2687
부품 2687
▁있음을 2685
센 2685
▁모니터링 2681
▁수정 2679
부문 2679
지며 2679
▁추정 2678
▁충 2678
▁책임을 2676
법인 2676
▁언급 2675
▁주제로 2674
버스 2674
해주는 2674
▁국립 2673
증권 2673
▁나노 2672
▁이행 2672
▁생성 2670
우리 2670
▁나아가 2669
▁수많은 2667
▁신용 2667
▁프랑스 2667
화할 2667
▁홍콩 2666
▁형태의 2665
▁앱을 2663
▁헤 2663
f 2659
▁했지만 2659
틀 2659
협력 2659
받는 2657
층의 2657
헌 2657
▁태양 2656
▁놓 2655
▁알아 2655
▁팬 2654
▁거듭 2653
▁폭스바겐 2652
24 2651
▁보관 2651
▁ICT 2650
▁사이의 2650
▁사장은 2650
▁점이다 2649
▁페이 2649
▁넘 2647
▁오프라인 2645
통합 2645
▁중소 2642
▁파트너 2642
▁안정적인 2640
▁캐릭터 2640
받아 2640
▁둘 2638
분을 2637
Y 2636
▁관찰 2636
터를 2636
촌 2633
▁고민 2630
데이터 2630
자금 2630
▁거주 2629
▁주장 2629
▁분산 2628
▁차별 2628
▁관심과 2627
▁달러 2626
▁매일 2626
▁입주 2626
▁높이는 2625
▁( 2624
▁시즌 2624
▁플라즈마 2624
런 2624
] 2623
▁진입 2623
▁향해 2623
▁대거 2621
▁홈페이지 2621
▁좋다 2620
됩니다 2620
▁대부분의 2618
▁만족 2618
25 2617
▁허가 2616
▁아래와 2615
▁원내대표 2615
▁변환 2613
▁하면서 2612
벌 2611
드와 2610
▁년 2609
▁물류 2604
▁옥 2603
사업을 2602
▁기능이 2601
▁성장을 2601
권에 2601
▁35 2600
▁세단 2600
▁없 2600
위원장 2600
화하고 2600
▁이상을 2599
▁휴대폰 2599
▁모여 2598
조차 2598
▁소자의 2597
▁효율 2596
▁외국 2595
▁늘고 2593
▁분석했다 2593
▁흡수 2592
▁상위 2591
▁있으나 2590
▁적용해 2588
사용 2588
▁나와 2587
사에서 2587
▁무역 2585
라면 2585
생을 2585
장애 2583
▁매매 2582
▁알려진 2582
겠다고 2581
됨에 2581
▁중국의 2580
▁해석 2580
▁시대 2579
▁생각한다 2578
쇼 2578
▁안에서 2577
on 2576
▁들어가 2576
▁앨범 2576
▁지적 2576
▁착용 2576
▁참석한 2576
▁2007 2574
▁예비 2574
▁e 2572
▁매입 2572
차의 2572
▁돈을 2571
▁효과 2570
▁서버 2569
신청 2569
▁밝혀 2568
or 2567
▁일본의 2567
치가 2567
해진 2567
▁만들었다 2565
▁소외 2565
.2 2564
▁3, 2564
▁공격 2563
▁시범 2563
질환 2561
▁있다면 2560
▁판매가 2559
▁세부 2558
장에게 2558
▁택시 2557
▁차를 2555
▁뛰어난 2554
▁절감 2554
안에 2553
▁용이하게 2550
▁피부 2550
▁내고 2546
▁단말 2545
선에 2545
▁반응을 2543
▁사상 2543
▁점점 2542
▁기업들이 2541
센터를 2541
핑 2541
▁일단 2540
▁영어 2539
▁목소리가 2536
▁취득 2536
.4% 2535
▁곧 2534
▁제기 2534
▁듯 2533
▁폐렴 2533
하였으며 2533
▁성과 2532
▁축소 2532
▁형성된 2532
건의 2532
▁전문가들은 2531
▁달성 2530
▁손실 2530
스마트 2530
▁때마다 2529
▁판매를 2529
▁시절 2528
됐다고 2528
월에는 2527
▁실현 2526
▁연구를 2526
단에 2526
가의 2525
▁재산 2523
단계 2522
▁끝 2521
▁예고 2520
▁쇼핑 2519
▁연동 2518
되자 2518
▁노력을 2517
▁등교 2517
건설 2515
기관의 2515
▁농업 2514
▁선보인 2513
▁이른바 2510
▁자가격리 2510
▁방향으로 2509
▁차원에서 2509
계획을 2508
님 2508
하되 2508
.5% 2507
▁단일 2507
▁부담을 2507
▁타고 2506
▁차지했다 2505
▁신청을 2504
만명 2504
▁비판 2503
물에 2502
서비스를 2501
스에서 2501
▁잠 2500
▁현금 2499
미터 2499
▁구체적인 2498
▁창출 2497
▁비판했다 2496
소극 2496
▁36 2495
▁슈퍼 2495
련 2495
분야 2495
▁케이블 2493
코리아는 2493
▁받아야 2491
▁체육 2491
▁효율적인 2491
수와 2491
▁단위 2490
▁주목 2490
정보를 2490
▁고용보험 2488
시장에서 2487
트에 2487
른 2486
le 2485
▁무엇보다 2485
섭 2485
▁친구 2483
▁기준을 2479
▁만약 2478
▁SW 2476
▁차지하는 2476
▁한류 2476
▁가능성도 2475
▁변화가 2475
▁정의당 2475
로봇 2474
회와 2474
위원회를 2472
▁최소화 2470
▁최선을 2468
나는 2467
대회 2467
맨 2466
소로 2466
기술을 2465
대와 2465
력의 2465
방법에 2465
▁고령 2463
▁아니냐는 2463
▁비교적 2461
▁차량의 2459
▁진행된 2458
▁수도권 2457
▁입장 2457
력은 2456
▁고려해 2454
▁중심의 2454
정부 2454
▁절연 2452
▁제가 2451
▁질병 2451
▁만한 2450
건강 2450
▁건강보험 2449
▁강조 2448
동에 2448
▁임원 2447
』 2447
▁출입 2445
▁게임을 2443
호의 2443
▁지나 2441
▁받는다 2440
▁전개 2440
케이 2440
▁달하는 2437
▁통보 2437
an 2436
▁좌 2436
▁하게 2436
▁장관은 2434
▁깊은 2433
▁이사 2433
▁직후 2433
센터에서 2432
▁상태에서 2430
▁시기 2430
▁전망된다 2430
▁과학기술 2429
▁적지 2428
▁페이스북 2427
▁멀티 2426
▁모듈 2425
▁역대 2425
▁멤버 2424
▁의결 2424
▁나라 2423
어가 2422
율은 2422
.9% 2421
▁있어야 2421
▁문을 2420
▁보유하고 2420
▁운 2420
▁이용자 2420
사고 2420
▁기술과 2419
▁인근 2419
산을 2419
해온 2419
▁길이 2418
▁불과 2418
▁총선에서 2418
▁J 2417
▁선보일 2417
▁위험이 2417
▁학부모님 2417
▁제품의 2415
▁조사를 2415
등의 2415
재를 2415
하므로 2414
▁100% 2413
행을 2413
▁배송 2412
▁수급 2412
▁효과적으로 2411
냈다 2411
▁채택 2410
▁45 2407
▁그에 2406
▁민주당은 2406
▁삼성전자가 2406
▁재무 2406
▁퇴 2406
▁원인 2405
▁전담 2403
▁즐길 2403
.5 2402
▁정치적 2402
▁다수 2401
년을 2401
▁에어 2400
▁90 2398
으나 2398
정은 2398
▁평소 2397
▁사용한 2396
없는 2396
▁발병 2395
력에 2395
▁만들고 2394
▁분야에 2394
▁오랜 2394
때 2394
엠 2394
▁적용한 2392
▁별도로 2391
▁본격적으로 2391
엘 2391
▁서비스가 2390
▁싸 2390
▁실시간으로 2389
▁교류 2388
▁승인 2388
▁겪고 2387
▁제조방법에 2385
▁건강한 2384
▁분석이다 2384
▁의미가 2383
▁콜 2383
액은 2383
▁가스 2382
▁우리의 2382
▁충족 2382
▁이어질 2381
▁조달 2380
▁불리는 2379
바이 2379
▁계기로 2378
▁준다 2378
체는 2378
▁심각한 2376
▁상세하게는 2375
▁했던 2375
화한 2374
달러 2372
▁시스템의 2371
▁낼 2370
▁적절한 2370
▁해소 2368
▁응답 2366
▁홀 2365
시험 2364
▁기회가 2363
▁브레이크 2363
억원의 2363
▁시는 2362
력으로 2362
▁있으므로 2361
가고 2361
화의 2361
▁센서 2360
▁신설 2360
▁정지 2360
실로 2360
▁데다 2359
되었고 2359
확 2359
at 2358
▁체계 2358
시민 2358
책임 2358
▁절차를 2356
진의 2356
J 2354
▁엔 2354
▁화면 2354
▁활동에 2354
▁협상 2353
동을 2353
소에서 2353
학생 2353
Q 2352
▁당내 2352
▁포함된 2352
니다 2351
.3% 2350
▁빨리 2350
▁사항 2350
▁적합한 2350
시간을 2349
▁가공 2348
업을 2348
점은 2348
돼야 2347
자들을 2347
실이 2346
.8 2345
▁산업혁명 2345
▁참여를 2345
심이 2345
ed 2344
기획 2344
제품 2344
▁모아 2341
▁방법이 2341
.2% 2340
▁실천 2340
슨 2340
함과 2336
▁올해는 2335
앱 2335
ic 2334
▁싶은 2334
▁현장에서 2334
쿠 2334
호가 2334
▁장은 2333
▁르노 2332
▁진보 2332
비용 2332
▁사전에 2331
▁회로 2330
▁품 2329
컬 2328
▁경우는 2327
▁협력을 2327
납 2327
▁메르세데스 2326
▁한정 2325
생산 2325
▁정신 2324
▁낮 2323
▁사용하여 2323
▁세포 2323
▁위촉 2322
▁버스 2321
▁맡 2318
분석 2318
일과 2318
▁실리콘 2317
전략 2317
제와 2316
▁대상이 2315
▁나타나 2313
▁보도했다 2313
▁제조업 2313
▁좋 2313
▁질병관리본부 2313
화로 2313
▁기술은 2312
▁욕 2312
▁게이트 2310
으면서 2310
혀 2310
▁기업은 2309
내고 2309
▁2006 2308
▁권고 2308
▁지속적인 2308
▁데뷔 2307
▁자사 2307
▁참석해 2307
곤 2306
.1 2304
▁가까이 2303
▁시리즈 2303
칠 2303
▁가능하게 2302
▁32 2301
아가 2301
▁기업에 2300
제어 2300
▁생명 2299
자들에게 2299
차는 2299
청은 2299
▁발달 2298
칭 2298
▁지급할 2297
식에 2297
형을 2297
▁칩 2296
▁휠 2296
GM 2295
뉴 2295
▁내수 2294
▁변동 2293
▁출시한 2293
방지 2292
▁내용의 2291
▁몰 2291
▁뜻을 2290
▁익 2290
.7% 2289
▁슬 2289
▁신호를 2289
동의 2288
보를 2288
▁그림 2287
▁시작된 2286
▁이미지를 2286
▁분석이 2285
됐던 2285
▁개방 2284
▁나선다 2284
▁인공 2284
▁33 2283
▁선출 2283
이어서 2283
▁직업 2282
▁막기 2281
▁전남 2280
프로 2280
.6% 2279
▁2005 2279
▁니 2279
관에 2279
소득 2279
▁경험이 2278
▁뒷 2278
▁소방 2277
량은 2276
이라도 2276
▁출시를 2275
.9 2274
▁이벤트 2274
▁인천광역시 2274
▁휘 2274
k 2273
중인 2271
이라면 2270
행위 2270
▁따른다 2269
▁패널 2269
닉 2269
▁지켜 2267
턴 2267
어서 2266
우는 2266
▁나설 2265
▁설치된 2265
▁대해서 2264
국이 2264
려고 2264
▁뉴욕 2263
▁사진을 2260
되었으며 2260
▁부담이 2259
▁증폭 2259
▁노력 2258
시장에 2258
적이다 2257
▁가전 2256
▁국산 2256
▁어려워 2256
허 2256
▁빌 2255
▁주관 2253
드에 2252
100 2251
▁자문 2251
▁사람들은 2250
▁부여 2249
▁받 2248
▁생각이 2248
▁효 2248
상과 2248
▁공간을 2247
▁내용은 2247
▁자신 2247
0% 2246
Z 2246
▁딸 2245
▁처음이다 2244
▁비대면 2242
▁연구원은 2242
▁생태계 2241
담당 2241
제한 2239
가에 2238
심의 2238
▁인하여 2237
▁지분율이 2237
▁삽입 2236
질을 2236
▁찬 2235
은행이 2235
▁사태가 2233
기에서 2233
세로 2233
.3 2231
▁포드 2231
▁호주 2231
▁점은 2230
신을 2229
여명이 2228
▁사건을 2227
▁알게 2227
▁전부 2227
▁동일 2226
▁엄 2226
얼 2226
▁진행할 2225
▁영입 2224
▁1,000 2223
▁참여해 2223
▁모두가 2222
▁소정의 2222
▁속도 2221
▁활성화를 2220
자산 2220
▁결정을 2219
▁백신 2219
▁후보를 2219
▁상대 2218
▁러시아 2217
▁민주노총 2217
▁진행했다 2217
.8% 2216
[ 2216
▁호텔 2216
▁400 2215
▁쓴 2215
▁부족한 2214
▁고속 2213
▁마음 2213
▁별표 2213
▁마치 2212
▁발생했다 2212
톡 2212
▁국회의 2210
▁만들기 2210
보건 2210
상담 2210
▁상당히 2209
▁38 2208
▁결과에 2208
▁방향 2208
▁모터 2207
▁민주 2207
걸 2207
en 2206
▁참석했다 2206
▁평가했다 2206
점으로 2206
▁마찬가지로 2205
▁물질 2205
치에 2205
▁겨울 2204
▁너 2204
▁꽃 2202
상황 2202
예방 2202
▁자금을 2201
▁법적 2200
▁힘들 2200
기금 2199
연합 2199
▁인구 2197
▁증가하고 2197
▁찾 2197
▁토대로 2197
▁현역 2197
IP 2196
▁구조조정 2196
▁무료로 2196
▁목소리를 2195
▁방문해 2194
시키기 2194
혁 2193
▁벗어나 2192
▁끝에 2191
▁주도 2191
수로 2191
테크 2190
센터는 2189
▁기대를 2188
▁사장 2188
▁단기 2187
'( 2186
▁별도 2186
▁상환 2186
문이 2186
맥 2184
특별 2184
▁중간 2183
식은 2183
콜 2183
펀드 2183
▁기대하고 2181
리아 2181
에너지 2181
▁견 2180
▁주목된다 2180
▁줄여 2180
▁회사의 2180
▁공공기관 2179
▁동반 2179
▁미만 2179
▁회사가 2179
녀 2179
무를 2179
▁서비스는 2178
종의 2177
▁150 2176
▁전망했다 2174
▁확진자는 2174
귀 2174
터의 2174
▁혼다 2173
르는 2173
▁IoT 2172
▁기대한다 2172
▁기아차는 2172
▁엔진을 2172
▁씨 2171
▁영양 2171
▁이내 2169
▁지원하고 2169
물로 2169
법은 2169
▁입장이다 2168
▁출석 2168
▁당장 2167
▁등장 2167
▁선언 2167
▁교사 2166
▁봄 2165
▁아우디 2165
▁상태로 2164
▁정한다 2164
▁바이 2163
▁위원장 2163
▁임대 2163
사항 2163
려면 2162
▁그간 2161
▁높 2161
안은 2161
▁MC 2159
▁관계를 2159
지자 2159
틴 2159
PC 2158
▁맛 2154
▁시스템은 2154
▁들었다 2153
등록 2153
▁경고 2152
▁발전을 2152
디지털 2152
▁낮아 2150
▁인지 2150
심사 2150
▁쉐보레 2149
▁유행 2149
관련 2149
▁정도의 2148
모델 2148
▁뜨거운 2147
▁화재 2147
세기 2147
▁관리를 2146
▁파견 2146
▁저하 2144
▁감시 2143
▁증명 2142
▁커뮤니티 2142
▁선발 2141
▁그린 2140
▁깊 2140
▁섭취 2140
▁최근에는 2140
이드 2140
▁입증 2139
법상 2139
▁SBS 2138
▁제외 2137
▁충분한 2137
물은 2137
점에 2137
▁비행 2136
▁자동차를 2136
.1% 2135
▁옮겨 2135
▁가을 2133
학적 2133
▁강제 2130
었 2130
이지 2130
학습 2129
▁능력을 2127
서와 2127
▁경제적 2126
▁사용자의 2126
형의 2126
▁높여 2125
▁메시지를 2125
공단 2125
어진 2125
▁추진하고 2124
캐 2124
▁본회의 2123
▁전망이 2123
▁얼굴 2122
▁유도 2121
▁현행 2121
의원 2121
큐 2121
▁강원도 2120
▁현대자동차 2120
▁당부했다 2119
▁생존 2119
CC 2117
▁폴 2117
힌 2117
▁장관이 2116
이트 2115
▁70% 2114
▁건립 2114
▁기기 2114
물질 2114
적으로는 2114
▁상임 2113
▁유출 2113
졌고 2112
액의 2109
▁살아 2108
▁레이 2107
▁않게 2107
▁회계 2107
▁개인정보 2105
▁문제로 2103
부로 2103
함이 2103
리며 2102
▁가지는 2101
▁냉 2101
▁덕분에 2101
▁정밀 2099
▁제품은 2099
연구소 2099
▁적용할 2098
▁정부와 2098
▁걱정 2097
▁듣고 2096
▁변동했다고 2096
이용 2096
▁최초의 2095
▁비율이 2094
▁CEO 2093
체인 2092
▁미니 2091
▁의료기관 2091
▁의미를 2091
공간 2091
일간 2091
주고 2091
▁산하 2090
항공 2090
▁나눠 2089
▁수행할 2088
이기도 2087
혼 2087
▁우한 2086
시장이 2086
▁연출 2085
▁질환 2085
▁감정 2084
▁언제 2084
▁지원에 2084
내에 2084
▁기업과 2083
▁나가 2083
▁미국에서 2083
▁이론 2083
어는 2083
읍 2083
일의 2083
▁거부 2082
▁맥 2082
▁정확하게 2082
군의 2082
∼2 2081
▁일반적으로 2081
▁침해 2081
▁들고 2080
▁이벤트를 2080
▁제공하기 2080
로의 2080
▁붙 2079
사무 2079
종합 2079
▁2004 2077
▁오염 2077
▁요구하는 2077
▁작용 2077
탑 2077
▁내비게이션 2076
▁동영상 2076
▁올렸다 2076
▁징계 2076
▁48 2075
▁실시한 2075
▁절차 2075
▁정리 2075
▁폭발 2075
▁돈 2074
▁유입 2073
직을 2073
▁건조 2072
▁면역 2072
년도 2072
▁관련하여 2071
바이오 2071
▁차지 2070
.6 2069
▁감지 2069
▁기업을 2069
▁레이저 2068
듯 2068
랜드 2068
시부터 2067
▁연령 2066
▁응용 2066
▁행위 2065
▁방안 2063
▁보이 2063
▁정말 2063
▁추적 2063
관에서 2062
시스템을 2062
▁간단한 2061
▁효율을 2060
▁입법 2059
▁소비자가 2057
있 2057
▁핵 2056
누 2056
▁시승 2055
▁탄소 2055
▁설비 2054
례 2053
.7 2052
▁높아지고 2052
▁의견이 2052
▁인물 2052
▁취임 2052
▁분할 2051
받고 2051
인에게 2050
접 2050
▁계열 2049
▁공동으로 2049
▁초등학교 2049
▁기자회견을 2048
▁수탁 2048
▁거리 2047
▁본인 2047
▁사과 2047
▁운송 2047
으 2046
▁기여 2045
▁후에 2045
춘 2045
▁머 2044
▁본교 2043
▁남은 2042
▁열었다 2042
▁저녁 2042
진흥 2042
▁끌어 2040
키로 2040
▁방법은 2039
▁오토 2037
인증 2037
층이 2037
▁혁신을 2036
▁기술로 2035
▁선도 2035
▁소통 2035
▁과연 2034
▁수강 2034
▁자동차의 2032
칸 2032
▁가져 2031
▁진동 2031
MA 2030
cm 2030
▁가능하도록 2030
▁늘어날 2030
육 2030
.4 2029
동이 2029
탁 2028
대출 2026
▁쿠페 2025
▁증거 2024
치고 2024
▁산정 2023
▁인간의 2023
기반 2023
까지는 2023
됐지만 2023
▁둘러싼 2021
▁부모 2020
▁상생 2020
▁매장 2019
▁심의를 2019
▁경쟁이 2018
▁복귀 2018
▁블랙 2018
▁사물인터넷 2018
쉬 2018
w 2017
▁GS 2017
▁게다가 2017
▁불안 2017
▁후속 2017
▁경우도 2016
▁내다봤다 2016
가량 2016
▁SM 2015
▁오디오 2015
▁생산하는 2014
핀 2014
▁엘 2013
▁확 2013
▁응급 2012
▁지출 2012
▁출근 2012
▁파워 2012
인에 2012
▁이익 2011
▁꼽힌다 2008
▁업체가 2008
좌 2008
200 2007
▁대선 2007
▁상용 2007
돈 2007
된다는 2007
성장 2007
▁세대 2005
▁주거 2005
신이 2005
종을 2005
▁라이 2004
▁사태로 2004
팔 2004
▁마련했다 2003
▁보기 2002
▁이끌어 2002
▁줄어들 2002
여개 2001
▁어린 2000
▁전까지 2000
드로 2000
자들 2000
▁수리 1999
▁이같은 1999
▁답 1998
조합 1998
▁에이 1997
최 1997
▁내지 1995
▁보존 1994
▁국내에 1993
▁냉각 1993
▁존 1993
기구 1993
▁빠 1992
▁않아도 1991
▁확대를 1991
해질 1991
▁내놓은 1990
▁매출이 1990
▁진행하는 1990
▁패스트트랙 1990
솔 1990
▁산업의 1989
▁포함한다 1989
▁생긴 1988
플랫폼 1988
▁강원 1987
▁내는 1987
▁목적 1987
▁못할 1987
▁무소속 1987
▁일상 1987
하라 1987
▁글을 1986
등을 1986
▁대표와 1985
▁믿 1985
▁통해서 1985
차량 1985
▁이루어 1984
체와 1984
▁아마존 1983
▁저감 1983
자료 1983
감독 1982
▁넓 1981
▁억제 1981
▁담겨 1980
▁패턴 1980
▁검 1979
교육을 1978
▁목적은 1977
셔 1977
▁명령 1976
▁특성 1976
▁겪는 1975
▁기술의 1975
▁보도 1975
▁패션 1974
▁포르쉐 1974
세포 1974
▁가득 1973
▁다가 1973
넷 1973
사랑 1973
시킨다 1973
▁의원과 1972
▁재개 1972
▁적응 1972
▁받게 1970
▁요소 1970
체험 1969
▁앞둔 1968
▁여파로 1968
벽 1968
일은 1968
▁조합원 1967
스러운 1967
▁말해 1966
▁발명 1966
▁부분이 1966
▁주말 1966
계약을 1966
십 1966
▁다양 1965
▁사내 1965
▁선거법 1965
결제 1965
재가 1965
▁변화에 1964
▁송신 1964
▁스티어링 1963
▁영역 1961
▁한국인 1961
▁현상이 1961
년의 1961
자도 1961
▁수수료 1960
서울 1960
▁대리 1959
▁앞에 1959
▁충북 1959
▁깨 1958
▁인권 1958
▁재료 1958
▁출발 1958
▁했 1958
구역 1957
로가 1957
안정 1957
▁수행하는 1956
▁인도네시아 1956
▁전쟁 1956
▁후보자 1956
방을 1956
▁위성 1955
▁컨 1955
▁판결 1955
움을 1955
▁끝난 1954
진과 1954
▁주주 1953
이면 1953
▁모습 1952
▁시스템이 1952
겐 1952
사들은 1952
▁고발 1951
▁제정 1951
▁미술 1950
화학 1950
! 1949
▁떠 1949
▁쓰는 1949
▁사업은 1948
▁37 1947
▁의혹 1947
▁통상 1947
리게 1947
▁대책을 1946
▁마음이 1946
▁볼보 1945
▁주가가 1945
▁화상 1945
▁힘든 1945
겠지만 1943
됐다는 1943
▁냈다 1941
영화 1941
▁실패 1940
▁의지를 1940
▁자격 1940
▁지닌 1940
▁때문 1939
▁중형 1939
빙 1938
▁말이 1937
▁반환 1937
▁사랑을 1937
▁장점이 1937
되어야 1937
▁근거 1936
▁있을지 1936
▁중도 1936
금리 1936
홈 1936
▁대표를 1935
▁역사 1935
▁주파수 1935
▁촉진 1935
▁쿠 1935
▁삶의 1934
시장의 1934
코리아가 1934
▁대로 1933
▁언 1933
▁의사를 1933
로운 1933
주에 1933
▁케이 1932
▁스크린 1930
▁의료진 1930
잡 1930
▁34 1929
▁사업의 1928
▁세계적인 1928
▁제공된다 1928
▁공시 1927
▁규 1927
▁소자 1927
주기 1927
▁빛 1926
▁발언 1925
▁진행한 1925
▁필요하다는 1925
▁향한 1925
건이 1925
안의 1925
▁방문한 1924
억원에 1924
▁고객의 1923
▁곳에 1923
티브 1923
▁뜻 1921
쓰 1921
▁모델로 1920
▁석유 1920
▁4, 1919
▁자신을 1919
▁인정하는 1917
램 1917
v 1916
▁자회사 1916
▁국정 1915
▁보험료 1915
▁쇼핑몰 1913
▁높이기 1912
▁소개했다 1912
▁유효 1912
▁조건 1912
▁급여 1911
▁대처 1911
▁측면에서 1911
▁획득 1911
▁양극 1910
▁업종 1910
▁증상 1910
식품 1910
콘텐츠 1910
환자 1910
re 1909
kg 1908
▁주의 1908
▁65 1907
▁강화를 1907
▁줄었다 1907
▁향상을 1907
▁상당한 1905
▁증상을 1904
▁개입 1903
▁닛산 1902
▁처벌 1902
되거나 1902
인들의 1902
▁커버 1901
▁많 1900
▁규정함을 1899
▁양자 1899
▁충남 1899
▁수준을 1898
▁게시 1897
▁전압 1897
국가 1896
▁관할 1895
▁올려 1895
▁종사 1895
경을 1895
았던 1895
▁쏟아 1894
▁프 1894
▁현상을 1894
▁신청서를 1893
▁의원들이 1893
▁후원 1893
▁그리 1892
▁속도가 1892
▁원래 1892
▁주가 1892
데이 1892
께 1890
은행은 1890
▁선물 1889
▁신뢰 1889
▁행복 1889
건을 1889
차에 1889
▁선보인다 1888
▁리콜 1887
▁2003 1886
▁개발하고 1885
홀 1885
▁답했다 1884
▁히 1884
▁세종 1883
▁수학 1883
▁지하 1883
▁놀 1882
▁위축 1882
▁흔들 1882
▁넓은 1881
▁고객에게 1880
▁떨어진 1880
▁못해 1880
▁측면 1880
▁길을 1879
▁비디오 1879
▁이상으로 1879
류를 1879
분이 1879
서도 1879
관과 1878
보증 1878
▁관람 1877
▁기간을 1877
개선 1876
▁선박 1875
▁취약 1875
▁4·15 1874
▁기울 1874
▁준수 1874
▁클럽 1874
et 1873
▁벽 1873
▁들어간 1872
▁잘못 1872
▁개선을 1870
▁다중 1870
▁조명 1870
▁사고가 1869
▁연말 1869
▁헌 1869
건으로 1869
사항을 1869
당과 1868
엄 1868
▁권리 1867
▁단순히 1867
▁맞게 1867
▁포인트 1867
▁갑자기 1866
▁유사한 1866
▁연합 1865
▁제약 1865
마을 1865
▁불러 1864
해를 1864
값 1863
수도 1863
텔레콤 1863
▁얻어 1862
결과 1862
나가 1862
▁AR 1861
▁라이브 1861
▁법정 1861
휴 1861
▁원고의 1860
▁토론 1860
▁편성 1860
▁구속 1859
▁가구 1858
▁꼽 1858
▁원내 1858
▁보이지 1857
▁매수 1856
정치 1856
▁극복 1855
▁사이에서 1855
▁공개한 1854
▁과제 1854
▁세계적으로 1854
▁유전자 1854
▁의원을 1854
▁이어지고 1854
겨 1854
보면 1854
역을 1854
▁협약 1853
▁힘이 1853
▁노동조합 1852
기능 1852
신호 1852
▁코리아 1851
빌 1851
▁키워 1850
▁자는 1849
▁짧은 1848
등급 1847
ro 1846
▁끊 1846
계는 1846
벤츠 1846
▁덜 1845
공급 1844
▁미국과 1843
▁출시했다 1843
식과 1843
항제 1843
▁수십 1842
▁지금은 1842
▁탑승 1842
위원회에 1842
▁느낄 1841
▁문자 1841
▁선수 1841
▁이로 1841
준다 1841
어로 1840
융합 1840
치의 1840
형이 1840
▁가로 1839
▁물품 1838
▁비용이 1838
▁싶다 1838
▁얼마 1837
▁김영 1836
▁임직원 1836
▁희 1836
화는 1836
▁스피커 1835
▁학부모님의 1834
권은 1834
▁강의 1833
▁덕 1833
▁잇따라 1833
▁떠나 1832
▁원내대표가 1832
▁지식 1832
▁측이 1832
▁합성 1832
전의 1832
▁무인 1831
▁자원 1831
▁전부터 1831
시리즈 1831
청소년 1831
▁5000 1829
▁초과 1829
▁올린 1828
▁회의를 1828
▁운영할 1827
▁55 1826
▁만난 1826
▁단독 1824
▁채널을 1824
▁자극 1823
5000 1822
▁급격히 1822
▁정식 1822
▁남편 1821
▁부서 1821
▁쌓 1821
진은 1821
와는 1820
.0 1819
▁신속하게 1819
▁푸 1819
미가 1819
▁구청장에게 1818
▁국회가 1818
▁궁금증을 1818
▁등이다 1818
▁부가 1818
▁신임 1818
▁프리 1818
수익 1817
▁장치의 1816
므로 1816
▁압박 1815
▁형태 1815
▁확보할 1815
솔루션 1815
▁영향 1814
▁플 1814
체로 1814
▁쇼 1813
초등학교 1813
▁디자인을 1812
성도 1812
엽 1812
▁노조가 1811
▁승인을 1811
람 1811
▁산화 1810
▁채무 1810
▁좌우 1809
▁출시된 1808
만한 1808
신고 1808
▁처분 1807
어의 1807
° 1806
▁경찰은 1806
▁부처 1806
시기 1806
잔 1806
전기 1806
▁안전하게 1805
당에 1805
차로 1805
▁불가능 1803
▁줄이고 1803
공정 1803
영이 1803
크를 1803
▁미칠 1802
▁일환으로 1802
▁트럭 1802
씨를 1802
점에서 1802
▁경로 1801
▁추진하는 1801
▁정확히 1800
▁안전을 1799
▁민생 1798
▁폐지 1798
▁확인하고 1798
▁접종 1797
▁블 1796
23 1795
▁훈련 1795
보수 1795
▁80% 1794
▁경우에도 1793
▁창원 1793
▁호흡기 1793
▁총선을 1792
글로벌 1792
▁가상 1791
▁수익을 1791
▁공익 1790
▁민원 1790
▁자유롭게 1790
약을 1790
1, 1789
▁40% 1789
▁휴대 1789
▁결정했다 1788
▁입국 1788
▁풍부한 1788
▁징역 1786
▁근로시간 1784
▁에너지를 1784
시와 1783
▁아침 1782
▁약속 1782
▁것인지 1781
▁그때 1781
▁여의도 1781
▁이끌 1781
▁지역을 1781
▁자세한 1780
▁공감 1779
▁병원에 1779
고객 1779
팩 1779
▁고려하여 1778
▁꺼 1778
▁때도 1778
▁선호 1778
▁쌍용차 1778
욕 1778
▁고객을 1777
▁마이 1777
▁전북 1777
▁i 1776
대에서 1776
▁조사됐다 1775
연이 1775
▁Q 1774
▁딜러 1774
▁역량 1774
▁적립 1774
▁토지 1774
됐으며 1774
음이 1774
▁무상 1773
▁반사 1773
▁일하는 1773
▁해제 1773
니까 1773
▁그만큼 1772
▁시선을 1772
▁진행된다 1771
▁카카오톡 1771
지에서 1771
허가 1771
▁비교해 1770
▁집계됐다 1770
으니 1770
▁미세먼지 1769
▁시정 1769
▁안테나 1769
흥 1769
▁복용 1768
▁위원회 1768
가격 1768
위원장이 1768
▁대회 1767
▁실적을 1767
▁칼 1767
조직 1767
쯤 1767
▁기업으로 1766
은행의 1766
▁끼 1765
▁동료 1764
대병원 1764
만원의 1764
▁공포 1763
조치 1763
▁가격을 1762
▁갖추고 1762
▁뉴스 1762
▁상상 1762
▁개시 1761
▁꾸 1761
국제 1761
▁공약 1760
▁생각을 1760
▁컨설팅 1760
빛 1760
▁블루 1759
▁삼성전자의 1759
▁강화하고 1758
▁돌파 1758
▁중국에서 1758
▁진공 1758
▁초대 1757
업에 1757
쪽 1757
해지고 1757
▁2002 1756
▁맡은 1756
▁추진할 1756
▁태양광 1756
▁요양 1755
교통 1755
▁여당 1754
▁이제는 1754
▁토요타 1754
국을 1754
소재 1754
▁결과는 1753
▁이유가 1753
▁2021 1752
▁최적의 1751
대한 1751
▁종교 1750
▁방향을 1749
▁한국당이 1749
이라면서 1749
▁사업장 1748
▁사퇴 1748
면의 1748
▁재배 1747
미래 1746
▁선정된 1745
부터는 1745
▁제일 1744
진단 1744
텔레콤은 1744
▁넘게 1743
▁노력하여야 1743
▁보여주는 1742
▁상태가 1742
▁창의 1742
▁흑 1742
▁신체 1741
▁활 1741
재단 1741
▁합병 1740
풀 1740
▁삶을 1739
▁졸업 1739
정한 1739
it 1738
▁돌봄 1738
▁실시할 1738
장애인 1738
▁파괴 1737
▁했다고 1737
가능 1737
▁네트워크를 1736
청이 1736
컨 1736
하려고 1736
▁목표를 1735
▁이름 1735
이터 1735
봐 1734
졌다는 1734
▁배제 1733
▁소집 1733
▁잡고 1732
분에 1731
세에 1731
▁본교에서는 1730
▁이탈 1730
▁시청자들의 1729
▁줄어든 1729
개월간 1729
으로써 1729
▁요금 1727
▁인기가 1727
산이 1727
트와 1727
▁카페 1726
▁태국 1726
웅 1726
▁당일 1725
▁징수 1725
기록 1725
IoT 1723
▁슈 1723
▁안정적으로 1723
▁위치를 1723
▁컴 1723
아야 1723
적극 1723
▁끌고 1722
▁방식의 1722
▁개발했다 1720
▁개학 1720
▁영향으로 1720
▁정보가 1720
하려 1720
99 1719
▁삭제 1719
칼 1719
▁일은 1718
▁자동차보험 1718
▁출마를 1718
▁43 1717
▁대만 1717
▁실업 1717
▁업계의 1717
명이다 1717
▁규모로 1716
▁원활한 1716
▁부분에 1715
개가 1715
객 1715
하더라도 1715
기고 1714
시설을 1714
시장은 1714
▁사람들의 1713
▁손상 1713
▁싱가포르 1711
▁확대할 1711
장치의 1711
▁공장을 1709
▁도출 1709
▁이유다 1709
자원 1709
▁범위를 1708
▁저항 1708
▁제고 1708
▁퇴직 1708
▁하더라도 1708
▁한화 1708
▁헤드 1708
기업의 1708
▁기침 1707
▁사유가 1707
재로 1707
▁스마트폰을 1706
▁얘기 1706
▁정보기술 1706
▁상용화 1705
▁아이돌 1705
보조 1705
▁업데이트 1704
ch 1703
▁대우 1703
▁틀 1702
▁수를 1701
▁시점 1701
▁웃음을 1701
▁위로 1701
▁입은 1701
▁지정된 1701
▁캐나다 1701
▁형사 1701
적을 1701
텐 1701
▁추출 1700
픽 1700
▁진행되는 1699
▁트럼프 1699
경북 1699
” 1698
▁정보통신 1698
▁통제 1698
▁끌었다 1697
▁배당 1697
▁얻고 1697
▁원을 1697
▁협약을 1697
학을 1697
▁단말기 1696
▁워 1696
▁쪽 1696
▁초청 1696
군은 1695
수사 1695
▁심리 1694
▁영향이 1694
▁높게 1693
▁분위기를 1693
▁일자리를 1693
▁방송을 1692
▁계좌 1691
▁된다는 1691
▁부분은 1691
▁회수 1691
대표 1690
▁탄생 1689
▁훼손 1689
틱 1689
5% 1688
▁병원에서 1688
▁신제품 1688
▁제휴 1688
감과 1688
▁39 1687
▁직원이 1687
▁현재의 1686
폴 1686
▁모습이다 1685
▁제도를 1685
▁하겠다 1685
▁확대해 1685
이에 1685
▁개봉 1684
▁복잡한 1684
▁과제로 1683
▁방전 1683
▁봤다 1682
득 1682
마저 1682
▁근로자의 1681
▁압 1681
웠다 1681
▁반발 1680
▁배정 1680
▁소규모 1680
▁유발 1680
고가 1680
시키 1680
▁사례를 1679
병원에서 1679
▁개발해 1678
▁지원이 1678
푸 1678
28 1677
▁보조금 1677
▁원천 1677
그룹은 1677
▁학부모님들의 1676
어도 1676
▁절대 1675
▁확충 1675
벨 1675
촉 1675
7% 1673
▁미래를 1673
▁이르는 1673
채널 1673
▁대여 1672
▁목적이 1672
▁상징 1672
▁재판 1672
▁신한 1671
▁이들을 1671
▁평가가 1671
청구 1671
▁가치가 1670
▁기대가 1670
▁이외에도 1670
▁체크 1670
만원으로 1670
죠 1670
▁그를 1669
▁법령 1669
▁점유율 1668
기간을 1668
원들이 1668
▁단지 1667
▁일반적인 1666
먼 1666
업이 1666
▁안내해 1665
▁패키지 1665
텔 1665
▁방식이다 1664
▁병원을 1664
▁자리에서 1664
▁공정을 1663
▁그랜저 1663
세는 1663
증이 1663
▁도내 1662
▁에스 1662
▁사업이 1661
▁어려울 1658
▁최저 1658
▁한국에서 1658
el 1657
▁수직 1656
▁아름다운 1656
▁위원회는 1656
▁출연해 1656
히는 1656
▁막을 1655
▁컨트롤 1655
상에서 1655
▁내놨다 1654
▁물을 1654
▁널리 1653
▁류 1653
▁분양 1653
▁코스닥 1653
▁담당하는 1652
▁무대 1652
▁방출 1652
▁완전 1652
▁이루어진 1652
▁혈액 1652
▁생겨 1651
▁이로써 1651
▁해양 1651
▁화웨이 1651
당한 1651
대응 1651
주시 1651
LG 1650
▁말까지 1649
▁가격은 1648
▁운전자가 1648
슈 1648
었는데 1648
▁질문에 1647
▁46 1646
▁달한다 1646
▁실시하고 1645
▁국회에 1644
▁소송을 1644
▁유사 1644
▁전동 1644
▁기원합니다 1643
▁이전에 1643
예술 1643
▁연락 1642
성으로 1642
▁내렸다 1641
▁되며 1641
▁시대에 1641
▁이번이 1641
▁중구 1641
▁확대하고 1641
▁늘려 1640
▁따뜻한 1640
▁명예 1640
▁블록 1640
▁않 1640
4% 1639
▁3000 1639
▁기존에 1639
▁대하여는 1639
▁도요타 1639
▁말고 1639
▁시간에 1639
ER 1638
▁시설을 1638
▁압축 1638
▁저렴한 1638
시장을 1638
토록 1638
▁기술에 1637
▁들어갔다 1637
▁동참 1636
▁손해 1636
▁이어지는 1636
▁빼 1635
▁그려 1634
▁적용된 1634
응 1634
회계 1634
▁늘어 1633
▁의미한다 1633
▁이유를 1633
▁전세계 1633
프로그램 1633
▁메인 1632
비와 1632
▁코로나바이러스감염증 1631
▁활동이 1631
상태 1631
화해 1631
cc 1630
▁얻 1630
▁촉구했다 1630
▁피해가 1630
킨 1630
▁이래 1629
▁입을 1629
받았다 1629
▁곳에서 1628
▁벤처 1628
▁규모는 1627
▁사용하고 1627
▁동시 1626
하였 1626
▁인증을 1625
▁창립 1625
쪽으로 1624
체육 1624
▁도서 1623
▁환경에서 1623
재의 1623
▁스포츠카 1622
▁위협 1622
▁판단했다 1622
▁빠져 1621
▁손쉽게 1621
▁밑 1620
▁작성하여 1620
웨이 1620
재산 1620
▁곳이 1619
▁위생 1619
모바일 1619
▁닫 1618
▁떨어 1618
룡 1618
방법을 1618
인력 1618
협의회 1618
▁관리하는 1617
▁괴 1617
▁사용하지 1617
▁여성이 1617
▁라디오 1616
▁지배 1616
갤럭시 1616
군이 1616
▁NH 1615
▁남자 1615
▁매력을 1615
학기 1615
리면서 1614
우가 1614
▁함으로써 1613
연을 1613
2, 1612
▁고용노동부 1612
▁세계에서 1612
▁포함하여 1612
주로 1612
화되고 1612
▁가능하며 1611
▁박근혜 1611
▁얻은 1610
▁제시했다 1610
▁펼쳐 1608
마이 1608
보안 1608
VR 1607
_ 1607
▁높고 1607
▁유지할 1607
부서 1607
▁양도 1606
하나 1606
▁기록한 1605
▁모니터 1605
▁사회복지 1605
▁않는다는 1605
▁융자 1605
▁허위 1605
▁홈페이지를 1605
서울특별시 1605
세계 1605
프를 1605
ol 1604
▁묻 1603
▁감안하면 1602
▁꿈 1602
▁이자 1602
▁포털 1602
▁이야기가 1601
▁미세 1600
째 1600
▁돌려 1599
▁유전 1599
▁나이 1598
▁선고 1598
오고 1598
26 1597
▁이어졌다 1597
플레이 1597
▁않다는 1596
ICT 1595
x 1595
▁분석을 1595
▁써 1595
▁일어나 1595
▁경선 1594
▁지휘 1594
▁진로 1594
▁탐 1594
▁특징 1594
▁각각의 1593
▁거주하는 1593
ST 1592
▁수술을 1592
▁필요로 1591
르고 1591
용으로 1590
▁m 1589
▁강하게 1589
▁격려 1589
▁부품을 1589
론을 1589
27 1588
▁195 1588
▁사람에게 1588
▁사업자 1588
▁생각하는 1588
▁의혹을 1588
▁필름 1588
방향 1588
▁교수가 1587
겠 1587
▁결핵 1586
▁쏘나타 1586
▁없도록 1586
▁크기 1586
영상 1586
형으로 1586
▁영역을 1585
▁경계 1584
▁습 1584
▁야당 1584
▁여자 1584
▁적어도 1584
▁한계가 1584
정당 1584
▁특유의 1583
▁필터 1583
▁“ 1581
▁감소했다 1581
▁기다 1581
▁종로 1581
▁최적 1581
▁회장의 1581
나라 1580
▁1990 1579
▁누구 1579
과정 1579
만여 1579
▁반응이 1578
▁사용해 1578
가로 1578
부서의 1578
▁관측 1577
▁나무 1577
▁일각에서는 1577
▁관객 1576
식의 1576
▁얘기다 1575
▁현재는 1575
펜 1575
▁개시된다 1574
▁마친 1574
▁이하의 1574
▁적정 1574
사들의 1574
기관에 1573
▁발매 1572
▁있었지만 1572
▁차기 1572
▁한국당은 1572
▁했고 1572
▁tvN 1571
▁않기 1571
▁앞으로도 1571
▁정해 1571
느냐 1571
IC 1570
▁진료를 1570
파이 1570
▁값 1569
▁소요 1569
▁여기 1569
▁이루 1568
▁전세 1568
▁임신 1567
그룹이 1566
TS 1565
▁명시 1565
▁세상을 1565
여서 1565
es 1564
▁도착 1564
▁완치 1564
▁좋아하는 1564
▁초점을 1564
▁활용하는 1564
▁자영업 1563
▁탓에 1563
▁편리하게 1563
디자인 1563
책을 1563
▁녹색 1562
▁사모펀드 1562
▁충격 1562
개로 1562
▁공통 1561
▁레벨 1561
▁르노삼성 1561
▁출산 1560
▁기술개발 1559
▁쓰고 1559
된다고 1559
▁그럼에도 1558
▁매주 1558
▁복수의 1558
▁분기 1558
나무 1558
닥 1558
사업에 1558
▁폐기 1557
건에 1557
힐 1557
▁등급 1556
▁빅 1556
▁헬스케어 1556
주간 1556
▁관측이 1555
▁긍정적인 1555
▁이의 1555
세의 1555
어나 1555
유를 1555
점과 1555
▁골프 1554
▁드러났다 1554
▁산출 1554
▁직전 1554
▁혼합 1554
먹 1554
▁맡아 1553
▁면제 1553
▁소독 1553
▁역할 1552
▁행사는 1552
되기도 1552
▁치료제 1551
▁말씀 1550
▁방송된 1550
▁분석해 1550
▁서비스에 1550
삼성 1550
위에서 1550
▁불편 1549
▁알고리즘 1549
▁위기를 1549
▁인력을 1549
▁제출한 1549
▁조회 1549
년으로 1549
보가 1549
조선 1549
차원 1549
▁기준에 1548
▁콜센터 1548
1% 1547
▁감독이 1547
계에 1547
션을 1547
▁지상 1546
▁힘입어 1546
호서식에 1546
▁떨어져 1545
▁여기서 1545
▁유해 1545
개혁 1545
리면 1545
▁논의가 1544
▁제품이 1544
▁투명 1544
경이 1544
공동 1544
의가 1544
▁가량 1543
▁덮 1543
▁빚 1543
▁확산을 1543
전압 1543
300 1542
▁차별화된 1542
논 1542
▁행위를 1541
▁화장품 1541
▁흐 1541
스토 1541
▁없지만 1540
▁인쇄 1540
▁취급 1540
시간이 1540
▁갖췄다 1539
▁바꾸 1539
▁주지 1539
관계를 1539
▁내부에 1538
▁담보 1538
▁밖의 1538
▁올바른 1538
▁협조를 1538
교육청 1538
▁수여 1537
▁지급하는 1537
▁환경에 1537
▁CCTV 1534
▁박막 1534
▁차량이 1534
▁하거나 1534
물과 1534
참 1534
GB 1533
▁깊이 1533
▁도와 1533
구청 1533
호서식의 1533
▁되도록 1532
▁점포 1532
▁지원하기 1532
2% 1531
35 1531
▁비밀 1531
▁추경 1531
is 1530
▁달려 1530
▁증가하는 1530
진료 1530
▁심장 1529
▁질문 1529
▁카메라를 1529
척 1529
▁굴 1528
▁기반을 1527
▁물리 1527
▁아들 1527
▁높았다 1526
▁분석한 1526
연대 1526
케어 1526
▁무효 1525
▁예산을 1525
▁120 1524
▁그들의 1524
▁방해 1524
▁입고 1524
가스 1524
구와 1524
기지 1524
밖에 1524
쳤다 1524
▁이태원 1523
▁지하철 1523
중앙 1523
ation 1522
▁기간이 1522
석의 1522
▁규모를 1521
▁부천 1521
▁추진한다 1521
▁투자자 1521
PS 1520
▁끌 1520
▁의뢰 1520
▁증대 1520
▁찾은 1520
밍 1520
스카 1520
크로 1520
▁업계는 1519
공무원 1519
유플러스 1519
인가 1519
▁곧바로 1518
▁모습으로 1518
▁세워 1518
▁청소 1518
컴 1518
▁구축을 1517
▁늘어나 1517
▁아티스트 1517
레스 1517
▁생산을 1516
▁얼 1516
▁중계 1516
▁환자와 1516
조사를 1516
죄 1516
▁감염된 1515
▁드립니다 1515
▁주인공 1515
할지 1515
▁빛을 1514
▁캠페인 1514
▁신도 1513
공학 1513
안과 1513
▁OLED 1512
▁실시한다 1512
▁열렸다 1511
▁이차 1511
▁통일 1511
▁선을 1510
▁인가 1510
▁저는 1510
▁지급한다 1510
프트 1510
▁5% 1509
▁곳은 1509
동안 1509
▁관계자 1508
▁엄마 1508
들어 1508
음에도 1507
▁간호 1506
받지 1506
이의 1506
▁발생되는 1505
▁땅 1504
▁있었고 1504
▁갈수록 1503
▁규정을 1503
▁콘 1503
금으로 1503
민이 1503
▁같 1502
▁급증 1502
▁드라이빙 1502
▁철도 1502
해졌다 1502
▁바꿔 1501
▁사이트 1501
▁신용카드 1501
▁연구팀은 1501
▁보인 1500
▁전문기업 1500
▁출시할 1500
능력 1500
사이 1500
▁감염이 1499
▁구체적으로 1499
▁전략적 1499
▁하되 1499
▁담겼다 1498
▁되면서 1498
▁부실 1498
▁상시 1498
예산 1498
▁지능형 1497
▁캐딜락 1497
시설의 1497
8% 1496
▁담아 1496
▁브라질 1496
▁없었던 1496
▁자연스럽게 1496
비의 1495
▁교부 1494
▁혜택 1494
탕 1494
▁감면 1493
▁대행 1493
▁철저히 1493
▁5, 1492
▁바다 1492
▁손실을 1492
부에서 1492
▁보건소 1491
▁시스템에서 1491
▁진행됐다 1491
▁프레임 1491
결정 1491
산업의 1491
▁90% 1490
▁가능해 1490
▁사용이 1490
관으로 1490
▁현대차의 1489
끼 1489
▁대해선 1488
▁발휘 1488
▁제네시스 1488
DC 1487
▁사기 1487
▁원칙 1487
▁일이다 1487
▁강남구 1486
▁않습니다 1486
하기에 1486
▁선별 1485
▁실증 1485
번호 1485
▁경쟁을 1484
▁정착 1484
▁참여했다 1484
▁넘치는 1483
▁맡고 1483
▁예방을 1483
▁종목 1483
▁좋지 1483
▁행복한 1483
규모 1483
신문 1483
씨와 1483
▁능력 1482
▁맞은 1482
▁시대를 1482
▁일정을 1482
코드 1482
표준 1482
▁대화를 1481
경찰 1481
ay 1480
▁감축 1480
▁국민이 1480
▁이수 1480
▁평가다 1480
▁현황 1480
화될 1480
▁전반에 1479
▁촉매 1478
근무 1478
▁규칙 1477
▁노후 1477
으므로 1477
▁웃 1476
▁자치 1476
층에 1476
유플러스는 1475
질이 1475
체계를 1475
▁누가 1474
▁적용했다 1474
대우 1474
▁논문 1473
▁드러나 1473
▁술 1473
▁참고 1473
전자가 1473
전화 1473
▁어려움이 1472
▁존중 1472
▁같아 1471
▁미래한국당 1471
▁바에 1471
▁비전 1471
▁생각해 1471
▁요구했다 1471
▁휴대전화 1471
투표 1471
▁47 1470
▁대법원 1469
공업 1469
위원장은 1469
▁간편하게 1468
▁연수 1468
▁합류 1468
▁관리에 1467
▁반대로 1467
▁영업이익 1467
▁원장은 1467
▁한국을 1467
▁대변 1466
▁예정인 1465
▁한국어 1465
▁섬 1464
▁이주 1464
▁자동화 1464
병원은 1464
신호를 1464
으로도 1464
st 1463
▁기술이다 1463
가족 1463
소비 1463
▁병행 1462
▁알려줘 1462
▁학생의 1462
개국 1462
인당 1462
전지 1462
지급 1462
▁2,000 1461
▁독서 1461
▁불량 1461
▁쉬 1461
▁실적이 1461
▁예비후보 1461
▁유동 1461
었다고 1461
▁75 1460
설을 1460
▁가열 1459
▁갑 1459
▁유지하고 1459
▁진행되고 1459
룩 1459
주년을 1459
▁600 1458
▁Z 1458
▁개념 1458
▁도달 1458
▁사고를 1458
▁선진 1458
▁전류 1458
▁제시한 1458
▁품목 1458
처분 1458
▁가정에 1457
▁나타나는 1457
생이 1457
시까지 1457
▁돕는 1456
점검 1456
▁단속 1455
▁이사회 1455
▁추후 1455
운용 1455
▁60% 1454
▁고통 1454
▁공급하는 1454
▁성형 1454
▁에어컨 1454
▁이익을 1454
▁주목을 1454
▁커질 1454
식으로 1454
▁건강을 1453
▁심각 1453
▁거대 1452
▁문화를 1452
▁상영 1452
▁선생님 1452
▁나타난 1451
▁내린 1451
▁영화를 1451
▁장소 1451
▁현상 1451
념 1451
▁어렵다는 1450
▁작가 1450
▁줄이는 1450
▁관계없이 1449
▁이뤄질 1449
29 1448
까지의 1448
단과 1448
▁트랙 1447
▁혼자 1447
관리를 1447
▁감소한 1446
▁대출을 1446
▁만들어진 1446
▁서류 1446
▁응원 1446
▁한국에 1446
룸 1446
산화 1446
차와 1446
▁배터리를 1445
▁선정됐다 1445
▁성공적으로 1445
▁성공했다 1445
사업의 1445
▁리더 1444
▁위기에 1444
▁인사를 1444
갔다 1444
처를 1444
6% 1443
▁발전에 1443
▁유일한 1443
▁잠시 1443
▁판매량이 1443
▁포기 1443
릭 1443
▁아니한 1442
▁일시 1442
▁희망하는 1442
▁기술력을 1441
▁전체의 1441
▁기금 1440
▁나오 1440
▁처리를 1440
▁하드웨어 1440
▁노트북 1439
▁스튜디오 1439
▁연료전지 1439
▁치열한 1439
▁플라스틱 1439
국에서 1439
전환 1439
퇴 1439
65 1436
800 1436
▁CES 1436
▁둔다 1436
었을 1436
▁금리가 1435
▁뮤지컬 1435
▁분위기가 1435
▁스마트시티 1435
륜 1435
수당 1435
위원회에서 1435
이어 1435
▁모델은 1434
▁사용을 1434
▁세정 1434
▁장면 1434
▁학생이 1434
▁확보를 1434
림을 1434
밥 1434
▁발생하지 1433
▁스트리밍 1433
▁않지만 1433
▁언어 1433
선은 1433
기업이 1432
리어 1432
억원이 1432
▁부상 1431
▁접목 1431
해지는 1431
▁44 1430
▁간편 1430
수입 1430
ti 1429
▁조건을 1429
나갈 1429
별로는 1429
아의 1429
▁들여 1428
▁씨는 1428
▁이해찬 1428
▁일정한 1428
복을 1428
부장 1428
주민 1428
22 1427
▁구비 1427
▁문제에 1427
▁사후 1427
▁적용되는 1427
구에서 1427
3% 1426
▁수평 1426
럭 1426
발생 1425
▁재발 1424
▁정도가 1424
▁제공해 1424
▁계절 1423
▁기대감을 1423
결과를 1423
부산 1423
▁자녀의 1422
▁집에서 1422
▁차지하고 1422
▁초반 1422
짜 1422
▁수면 1421
▁질병관리본부는 1421
조국 1421
탐 1421
▁대비해 1420
▁벌이고 1420
▁위법 1420
▁의존 1420
찰 1420
▁고속도로 1419
▁대응을 1419
▁성장할 1419
▁소음 1419
▁처방 1419
▁체계를 1419
관광 1419
▁강릉 1418
▁김용 1418
▁MS 1417
▁납 1417
▁단말기의 1417
▁체결했다 1417
협의 1417
▁계기가 1416
▁단순한 1415
▁대학생 1415
▁소식을 1415
▁알루미늄 1415
▁이틀 1415
▁잡아 1415
▁장비를 1415
▁필요할 1414
경쟁 1414
둔 1414
랄 1414
변경 1414
시티 1414
▁둘째 1413
▁엠 1413
▁프로그램에 1413
▁180 1412
▁부각 1412
▁예방접종 1412
▁음식을 1412
▁판매하는 1412
명에게 1412
였고 1412
▁기업들의 1411
▁도입을 1411
▁발생하고 1411
▁발의 1411
▁학생은 1411
쪽에 1411
▁2022 1410
▁지방자치단체 1410
▁찍 1410
▁플러스 1410
▁신기술 1409
▁지불 1409
▁찾을 1409
▁단위로 1408
▁방과후학교 1408
▁새벽 1408
▁나서고 1407
▁선택할 1407
▁한국과 1407
놀 1407
현재 1407
▁○○ 1406
▁않았 1406
▁없게 1406
▁읽 1406
▁투여 1406
▁검토하고 1405
▁뒤를 1405
▁소비자의 1405
▁수업을 1405
▁것이었다 1404
▁버전 1404
▁사유 1404
▁죄 1404
▁청주 1404
▁확산으로 1404
▁건의 1403
▁배상 1403
마켓 1403
짐 1403
▁매월 1402
▁심사를 1402
▁유명한 1402
▁재미 1402
▁추세 1402
고등학교 1402
▁공략 1401
▁생활을 1401
▁소비자들이 1401
▁시기에 1401
▁차량에 1401
기간이 1401
▁바뀌 1400
▁봉사 1400
▁예상되는 1400
과를 1400
▁능 1399
▁다르게 1399
▁되기 1399
▁프로그램은 1399
급여 1399
릿 1399
▁JTBC 1398
▁개인의 1398
▁싶 1398
후보 1398
▁대상은 1397
▁호출 1397
즈를 1397
▁과도한 1396
▁대변인은 1396
▁않았지만 1396
▁업계에서는 1396
▁주기 1396
▁검찰은 1395
▁김성 1393
▁눈을 1393
▁매출은 1393
▁원인이 1393
신용 1393
▁부탁 1392
▁옷 1392
▁의약품 1392
▁이종 1392
▁지분을 1392
▁근육 1391
▁샤 1391
들과의 1391
칙 1391
칩 1391
▁층 1390
▁해킹 1390
▁떨어지는 1389
검사를 1389
TC 1388
▁전공 1388
▁출자 1388
▁대외 1387
▁모으고 1387
▁설득 1387
▁수납 1387
▁하자 1387
현이 1387
▁배포 1386
▁문제점을 1385
기관이 1385
▁내장 1384
▁배선 1384
▁수렴 1384
▁수준에 1384
▁승객 1384
조를 1384
집을 1384
하였습니다 1384
▁모델이 1383
▁받기 1383
▁확보한 1383
벤처 1383
▁아예 1382
▁s 1381
▁거친 1381
▁듯한 1381
▁번호 1381
▁생기는 1381
▁쉬운 1381
▁투자가 1381
▁투쟁 1381
▁후보의 1381
정과 1381
▁스위치 1379
▁용인 1379
▁웨 1379
▁증가할 1379
▁한해 1379
▁재판부는 1378
▁줄이 1378
그룹의 1378
이었던 1378
질의 1377
통을 1377
▁브랜드의 1376
▁서비스로 1376
▁소비자들의 1376
▁포토 1376
미디어 1376
셜 1376
확인 1376
▁들어가는 1375
▁분해 1375
▁이재 1375
▁p 1374
▁부인 1374
추진 1374
▁행사가 1373
∼20 1372
▁마지막으로 1372
▁위험을 1372
▁하나인 1372
롤 1372
민의 1372
▁편집 1371
▁c 1370
▁띄 1370
▁윤리 1370
구로 1370
멘 1370
았고 1370
.0% 1369
▁서울대 1369
▁시상 1369
▁아래의 1369
▁운영한다 1369
▁자원봉사 1369
▁집계 1369
멸 1369
▁갈등 1368
▁비판이 1368
▁아이들이 1368
▁천연 1368
럼 1368
생명 1368
에서만 1368
판에 1368
2' 1367
▁노조의 1367
▁논의를 1367
▁묘 1367
ET 1366
▁실용 1366
▁짜 1366
격을 1366
되게 1366
락을 1366
SUV 1365
▁소관 1365
▁중고 1365
즈는 1365
SA 1364
▁과정에 1364
▁관내 1364
▁극대화 1364
노동자 1364
▁기여할 1363
▁도는 1363
▁원자 1363
▁있으니 1363
▁켜 1363
롱 1363
am 1362
▁민주당의 1362
▁종래의 1362
▁준비하고 1362
▁진출을 1362
▁협력해 1362
▁마주 1361
▁배출가스 1361
▁남성이 1360
▁성인 1360
▁소수 1360
▁업체들이 1360
▁오늘날 1360
▁행사에 1360
▁교섭 1359
▁독점 1359
▁소리 1359
▁온라인으로 1359
▁일치 1359
▁종류 1359
▁흘러 1359
창업 1359
▁구로 1358
▁개정안 1357
▁2001 1356
▁뒤에 1356
▁병원으로 1356
▁핀 1356
전극 1356
▁공연을 1355
▁방지하는 1355
45 1354
▁규제를 1354
▁분명 1354
▁접착 1354
▁찬성 1354
▁흥행 1354
기계 1354
론이 1354
파크 1354
▁급식 1353
▁기한 1353
▁늦 1353
▁부진 1353
▁연구가 1353
간다 1353
어져 1353
AM 1352
▁것이고 1352
▁엑 1352
▁음극 1352
▁작품을 1352
▁호남 1352
곳을 1352
니아 1351
▁금액 1350
▁선보이는 1350
국은 1350
400 1349
터에 1349
37 1348
▁모르는 1348
▁몰려 1348
▁영세 1348
▁이웃 1348
▁잠재 1348
▁컬러 1348
▁공부 1347
▁기판의 1347
▁도서관 1347
▁발생을 1347
▁음원 1347
▁인스타그램 1347
▁과세 1346
▁모았다 1346
▁종류의 1346
센터의 1346
▁고도 1345
▁정확 1345
▁트렁크 1345
▁프로젝트를 1345
하다가 1345
▁모터스포츠 1344
▁차원의 1344
우고 1344
▁PD 1343
▁못한다 1343
▁신뢰성을 1343
▁진술 1343
프레 1343
플러스 1343
PA 1342
▁대표하는 1342
▁독자 1342
▁진정 1342
▁진짜 1342
▁형광 1342
하기는 1342
▁벌어 1341
▁자전거 1341
▁합작 1340
호를 1340
▁이것은 1339
▁입찰 1339
▁중에는 1339
▁집에 1339
롭게 1339
▁구민 1338
▁기각한다 1338
▁자랑 1338
▁제품에 1338
굴 1338
▁개척 1337
▁살펴보면 1337
▁제재 1337
▁지표 1337
로우 1337
▁모드 1336
▁택 1336
▁가졌다 1335
▁즉각 1335
▁휴업 1335
▁느껴 1334
▁서비스다 1334
▁없습니다 1334
▁화제를 1334
석은 1334
▁가능성은 1333
▁배려 1333
▁연휴 1333
▁움직 1333
▁주식을 1333
▁항목 1333
싸 1333
진에 1333
하이 1333
▁정규 1332
법의 1332
위험 1332
▁이내로 1331
▁지자체 1331
▁터보 1331
▁노동자의 1330
▁아카데미 1330
▁인적 1330
판이 1330
▁관계가 1329
▁원칙으로 1329
▁전기를 1329
▁진행될 1329
명령 1329
▁멀 1328
▁없기 1328
보상 1328
▁가능할 1327
▁던 1327
▁수백 1327
▁아이디어 1327
▁한글 1327
서로 1327
▁도심 1326
▁모임 1326
▁속도로 1326
졌지만 1326
회의를 1326
▁능력이 1325
▁마련해 1325
▁뽑 1325
금과 1325
프는 1325
활 1325
▁가질 1324
▁교통사고 1324
▁소식이 1324
▁추정된다 1324
▁코팅 1324
▁흥 1324
▁실시하는 1323
▁간호사 1322
▁면적 1322
▁민족 1322
▁사건이 1322
▁수령 1322
▁흡 1322
▁n 1321
▁시작한다 1321
▁정체 1321
▁후보로 1321
▁금액을 1320
▁밟 1320
궁 1320
▁49 1319
▁이용자가 1319
뱅크 1319
전은 1319
줘 1319
▁가중 1318
▁내연기관 1318
▁무대를 1318
▁본인이 1318
▁부문에서 1318
▁신청할 1318
▁여야가 1318
▁지적이다 1318
▁휴대용 1318
년형 1318
▁밝 1317
▁베이 1317
▁LTE 1316
▁기회 1316
▁전산 1316
▁칸 1316
▁하늘 1316
「 1316
여명의 1316
지인 1316
형에 1316
▁당분간 1315
▁무슨 1315
▁이낙연 1315
▁척 1315
▁한계 1315
▁함께하는 1315
▁효율성을 1315
9% 1314
▁개막 1314
▁자살 1314
▁정보통신기술 1314
▁확인된 1314
DI 1313
▁2∼3 1313
▁나경원 1313
▁물론이고 1313
▁사실은 1313
▁여성의 1313
▁요청했다 1313
▁전후 1313
▁종사자 1313
▁집적 1313
링을 1313
셨 1313
위와 1313
폰을 1313
▁Y 1312
▁당사 1312
▁보낸 1312
▁손해배상 1312
▁플래그십 1312
하라고 1312
▁발언을 1311
▁유망 1311
▁크고 1311
▁테마 1311
쇄 1311
었습니다 1311
효과 1311
▁방침 1310
▁유니 1310
▁임기 1310
▁활성 1310
3, 1309
▁구비한 1309
▁무려 1309
▁전지를 1309
막의 1309
조건 1309
최근 1309
▁다르다 1308
▁뒷받침 1308
▁주장이 1308
▁호소 1308
▁내달 1307
▁신속한 1307
▁늘어나는 1306
▁인정할 1306
▁프로그램이 1306
SW 1305
▁과정이 1305
▁근로자가 1305
▁기업인 1305
▁보여준다 1305
▁파이 1305
▁다니 1304
▁적층 1304
주행 1304
▁커피 1303
크가 1303
▁이탈리아 1302
삭 1302
스코 1302
정비 1302
중에 1302
▁내놓 1301
▁이어가고 1301
▁체결했다고 1301
▁비중을 1300
▁생길 1300
▁앉아 1300
비로 1300
▁구성하는 1299
▁어떠한 1299
배를 1299
회의에서 1299
▁구축하고 1298
▁해결하기 1298
재는 1298
▁기록을 1297
▁늘어나고 1297
▁대부분이 1297
▁차이 1296
▁창작 1296
결을 1296
료는 1296
▁상고 1295
▁순환 1295
▁운전자의 1295
▁차이를 1295
,000 1294
▁포럼 1294
▁포항 1294
▁현장에 1294
감염 1294
신의 1294
주차 1294
ri 1293
▁그러므로 1293
▁스트 1293
▁존재하는 1293
보니 1293
부분 1293
유통 1293
폭이 1293
▁경우를 1292
▁수준이다 1292
▁추석 1292
광고 1292
▁아프리카 1291
▁열심히 1291
▁점에 1291
▁많고 1290
▁엄청난 1290
▁정권 1290
▁주입 1290
▁학교에서 1290
▁계열사 1289
▁공수처 1289
▁해결할 1289
▁드러냈다 1288
▁말하는 1288
▁있었 1288
▁작업이 1288
▁함유 1287
▁균 1286
▁대상을 1286
▁됐 1286
▁세무 1286
▁시행규칙 1286
▁연예 1286
▁나왔 1285
▁산소 1285
▁아니면 1285
▁확인했다 1285
스포츠 1285
▁상업 1284
▁위임 1284
▁이슈 1284
▁게재 1283
▁곽 1283
▁독특한 1283
▁라인업 1283
▁만성 1283
▁매달 1283
▁선언했다 1283
▁시사 1283
▁유일하게 1283
▁전수 1283
▁하오니 1283
면이 1283
▁연구는 1282
반도체 1282
양을 1282
었으며 1282
31 1281
▁노력이 1281
▁식별 1281
▁아는 1281
▁처리할 1281
▁하여금 1281
▁맺 1280
▁먼 1280
▁부담으로 1280
▁이정 1280
▁전주 1280
▁파업에 1280
▁갖는다 1279
▁브랜드를 1279
▁사태를 1279
▁심한 1279
▁이뤄진 1279
▁피해자 1279
만에 1279
섬 1279
잉 1279
▁대립 1278
▁솔 1278
▁순위 1278
▁약물 1278
▁유튜버 1278
무역 1278
▁GT 1277
▁네이버는 1277
▁포스코 1277
▁한국노총 1277
▁복잡 1276
▁축하 1276
망이 1276
▁방지하기 1275
▁연금 1275
▁뭐 1274
▁의혹이 1274
휘 1274
▁250 1273
▁수원 1273
▁제조업체 1273
▁착수 1273
제조 1273
▁기자 1272
▁다섯 1272
▁보강 1272
렉 1272
▁국방 1271
▁사람들 1271
도에서 1271
▁1980 1270
▁주소 1270
▁현장을 1270
겠습니다 1270
느 1270
ad 1269
▁물량 1269
주식 1269
ON 1268
▁결코 1268
▁듀얼 1268
▁부산광역시 1268
▁파업을 1268
▁학술 1268
내기 1268
▁검찰이 1267
▁느끼는 1267
▁먹고 1267
▁부채 1267
▁상관없이 1267
▁서비스의 1267
목을 1267
▁공개됐다 1266
▁농협 1266
▁적용한다 1266
▁징 1266
▁학교의 1266
▁거래소 1265
▁긴장 1265
▁상정 1265
▁여부에 1265
▁고위 1264
▁기관의 1264
▁내의 1264
▁흐름 1264
규제 1264
법으로 1264
차례 1264
BC 1263
▁구독 1263
▁당해 1263
▁동원 1263
▁중복 1263
▁혐의 1263
▁혐의를 1263
국에 1263
났다 1263
절을 1263
▁확보하고 1262
▁깜짝 1261
▁순수 1261
▁있어서다 1261
졌던 1261
지구 1261
편의 1261
▁만든다 1260
▁말레이시아 1260
▁사유로 1260
▁친환경차 1260
과장 1260
▁소모 1259
▁예금 1259
▁재활용 1259
이던 1259
즈가 1259
그래 1258
노동조합 1258
▁냉장고 1257
▁명을 1257
▁정해진 1257
연은 1257
졌 1257
희가 1257
▁견인 1256
▁답변 1256
▁왔 1256
택시 1256
▁비트 1255
▁상향 1255
금액 1255
앞으로도 1255
클럽 1255
ap 1254
▁거리를 1253
▁대면 1253
▁수영 1253
곳에 1253
만대를 1253
▁지적도 1252
▁특별관계자의 1252
대행 1252
았 1252
▁메신저 1251
내며 1251
▁개발하는 1250
▁대역 1250
▁떠올 1250
▁출고 1250
온라인 1250
▁내년부터 1249
▁분쟁 1249
▁사용한다 1249
▁수석 1249
▁유력 1249
▁입학 1249
▁착 1249
꽃 1249
법과 1249
조례 1249
▁섬유 1248
▁어디 1248
▁요구를 1248
▁초고 1248
국내 1248
선과 1248
▁1% 1247
▁겪 1247
▁상에 1247
▁2030 1246
▁공고 1246
▁무게 1246
▁불출마 1246
▁거대한 1245
▁경유 1245
▁남북 1245
▁본사 1245
▁판정 1245
오토 1245
▁화면을 1244
▁갖춰 1243
▁급등 1243
▁말이다 1243
▁언급했다 1242
▁유의 1242
▁초래 1242
▁판매량 1242
팬 1242
하자는 1242
▁방식이 1241
▁창당 1241
▁곳으로 1240
▁승리 1240
▁홈페이지에 1240
▁광학 1239
▁것이며 1238
▁관여 1238
▁더불어민주당이 1238
▁몸을 1238
▁실질적인 1238
▁연결된 1238
▁특성이 1238
IN 1237
SNS 1237
▁기술적 1237
▁비중은 1237
▁웨이퍼의 1237
기능을 1237
▁경찰에 1236
▁먹는 1236
▁지역은 1236
▁팬들의 1236
47 1235
▁가해 1235
▁무기 1235
▁파악하고 1235
▁진영 1234
▁굉장히 1233
▁신곡 1233
▁이후에도 1233
▁전환을 1233
▁지목 1233
윈 1233
채권 1233
▁국회를 1232
▁차가 1232
▁확인한 1232
레이션 1232
▁기준이 1231
▁마련한 1231
▁빠진 1231
▁심지어 1231
▁학생들에게 1231
설이 1231
인터넷 1231
▁열을 1230
렬 1230
수준 1230
▁기아 1229
▁부당 1229
▁세균 1229
▁장기간 1229
49 1228
▁달했다 1228
▁사실이다 1228
▁송수신 1228
▁장르 1228
있다 1228
▁수사를 1227
▁코너 1227
ID 1226
ter 1226
▁관련이 1226
▁다운로드 1226
▁안철수 1226
놓고 1226
▁갖게 1225
▁변호 1225
▁위원의 1225
신청을 1225
▁강사 1224
▁균형 1224
▁납품 1224
▁알리는 1224
▁운동을 1224
▁이상인 1224
▁증착 1224
간에 1224
몬 1224
실적 1224
여성 1224
용품 1224
CT 1223
▁매출을 1223
▁형성하는 1223
600 1222
▁광역 1222
▁스페인 1222
▁임기는 1222
▁집을 1222
경기 1222
사업자 1222
점의 1222
AT 1221
▁다운 1221
▁딥러닝 1221
▁손잡고 1221
▁식각 1221
▁갈등이 1220
▁방송되는 1220
▁수시로 1220
▁멕시코 1219
▁제동 1219
▁효과적인 1219
미를 1219
색을 1219
▁CP 1218
▁돌아가 1218
▁별로 1218
▁특성상 1218
센터에 1218
ou 1217
▁개선된 1217
▁경주 1217
▁불참 1217
▁수준이 1217
▁움직이는 1217
▁유지하는 1217
▁자율주행차 1217
▁접촉한 1217
▁케 1217
▁표면에 1217
모듈 1217
브리 1217
비에 1217
죽 1217
트리 1217
▁발생한다 1216
자리 1216
톱 1216
Pop 1215
▁EV 1215
▁괴롭힘 1215
▁나오지 1215
▁쉽고 1215
▁풀어 1215
▁하고자 1215
로로 1215
롬 1215
회로에 1215
)· 1214
▁마치고 1214
▁선행 1214
▁어머니 1214
공공 1214
▁맺고 1213
▁이뤄졌다 1213
▁인터 1213
▁현대차가 1213
디스플레이 1213
르게 1213
▁구미 1212
▁구성되어 1212
▁국가의 1212
▁부산시 1212
▁정산 1212
▁정치권 1212
되므로 1212
만명을 1212
▁램프 1211
▁업무협약을 1211
▁카카오페이 1211
▁허가를 1211
▁흐름을 1211
묘 1211
무가 1211
보장 1211
▁기대감이 1210
▁세금 1210
금속 1210
▁그것을 1209
▁그렇지 1209
▁서구 1209
▁자리에 1209
▁상하이 1208
▁서류를 1208
▁책을 1208
▁성능이 1207
▁이름이 1207
아는 1207
하지는 1207
혔다 1207
▁종이 1206
▁탄핵 1206
열을 1206
켓 1206
하였을 1206
▁아무리 1205
39 1204
▁기간에 1204
▁대량 1204
▁되었습니다 1204
▁센 1204
▁아무런 1204
렛 1204
IS 1203
▁방송된다 1203
▁애플은 1203
▁제작한 1203
▁코딩 1203
명한 1203
▁김정 1202
▁보호를 1202
▁적용하는 1202
▁철회 1202
딘 1202
랜 1202
머니 1202
사실 1202
▁건강과 1201
▁패턴을 1201
as 1200
▁"20 1200
▁가고 1200
▁공적 1200
▁아반떼 1200
▁학생들은 1200
▁호흡 1200
되지만 1200
병원에 1200
▁대한항공 1199
▁성립 1199
▁장이 1199
▁해지 1199
값을 1199
▁충격을 1198
▁경매 1197
▁경상 1197
▁메시지 1197
▁조종 1197
▁파손 1197
기한 1197
▁비난 1196
▁세웠다 1196
▁준공 1196
청의 1196
▁가족이 1195
▁데이터가 1195
▁데이터의 1195
▁연내 1195
▁이밖에 1195
▁지지를 1195
▁활용하여 1195
뜨 1194
▁노하우를 1193
▁당의 1193
▁불가 1193
▁탑재한 1193
교환 1193
더라 1193
선으로 1193
▁국토 1192
▁조사한 1192
▁학교에 1192
생활을 1192
▁기지국 1191
▁전투 1191
뇌 1191
뷰 1191
MC 1190
▁권리를 1190
▁높다는 1190
▁요건 1190
▁전화를 1190
▁주간 1190
둥 1190
영역 1190
▁강행 1189
▁구조에 1189
▁빅데이터를 1189
▁야외 1189
▁여론 1189
▁택배 1189
▁프로세 1189
구조를 1189
이상 1189
크의 1189
BS 1188
▁5,000 1188
▁LPG 1188
▁것이라 1188
▁공항 1188
▁변형 1188
▁신축 1188
유럽 1188
▁걸린 1187
▁방학 1187
▁연극 1187
▁이른다 1187
▁잘못된 1187
님이 1187
더니 1187
료가 1187
▁800 1186
▁가맹 1186
▁거래가 1186
▁뿌 1186
▁설문 1186
▁시공 1186
▁않았던 1186
▁후반 1186
공유 1186
▁'2020 1185
▁관리가 1185
▁의석 1185
▁편입 1185
▁흡연 1185
스티 1185
회장 1185
AN 1184
▁권장 1184
▁롤 1184
▁사항에 1184
▁이끄는 1184
▁지능 1184
▁했는데 1184
목이 1184
인승 1184
▁관리할 1183
▁머리 1183
보드 1183
시대 1183
지원을 1183
헤 1183
▁교과 1182
▁뜻이다 1182
▁마스터 1182
▁배경 1182
실의 1182
▁구매할 1181
▁김현 1181
▁연주 1181
▁이목을 1181
▁줄이기 1181
레인 1181
크는 1181
lo 1180
▁기관이 1180
▁끈다 1180
▁레드 1180
▁마감 1180
▁배기 1180
▁사람들에게 1180
▁선보 1180
▁소중한 1180
▁시간과 1180
▁의미다 1180
발을 1180
▁강화하는 1179
▁생물 1179
▁애니메이션 1179
▁연결하는 1179
▁인정되는 1179
▁협업을 1179
em 1178
▁국무 1178
▁바닥 1178
▁설립한 1178
▁조치가 1178
▁활약 1178
기생충 1178
▁고등학교 1177
▁근무하는 1177
▁맨 1177
▁받았다고 1177
▁사라 1177
▁이해하고 1177
▁전지의 1177
▁특화 1177
작업 1177
▁마련된 1176
▁소화 1176
▁시작해 1176
▁마련됐다 1175
▁테크 1175
(5 1174
▁고려하면 1174
▁렉서스 1174
▁크기를 1174
▁화려한 1174
금지 1174
쳤 1174
▁42 1173
▁갖추 1173
▁기증 1173
▁얻었다 1173
▁호에 1173
▁확대에 1173
▁모색 1172
▁베이징 1172
▁정책이 1172
▁품질을 1172
갔 1172
르기 1172
▁그들은 1171
▁식물 1171
▁신청한 1171
▁예상했다 1171
▁나서는 1170
▁바라 1170
▁요구가 1170
▁우려를 1170
로도 1170
위원장을 1170
했다가 1170
SI 1169
▁에어백 1169
▁이것이 1169
유가 1169
▁기상 1168
▁링 1168
▁바이러스가 1168
▁분명히 1168
▁요청할 1168
▁원심판결 1168
▁조리 1168
▁주관하는 1168
▁최적화된 1168
▁크기가 1168
▁합쳐 1168
▁해상 1168
실은 1168
▁분포 1167
▁선두 1167
▁있다며 1167
▁컸다 1167
▁튜닝 1167
벤 1167
op 1166
▁고양 1166
▁그냥 1166
▁사장이 1166
▁쌀 1166
▁직원들이 1166
▁판매에 1166
고자 1166
권과 1166
류가 1166
▁그쳤다 1165
▁쌍 1165
산물 1165
심에서 1165
▁구조의 1164
▁굳 1164
▁노력하고 1164
▁당직 1164
▁선거를 1164
지수 1164
회에서는 1164
▁CPU 1163
▁감독의 1163
▁방지를 1163
▁위원으로 1163
▁차량용 1163
▁차량은 1163
이므로 1163
▁1∼2 1162
▁메이커 1162
▁상용차 1162
▁잠정 1162
▁펜 1162
▁하부 1162
▁해주 1162
먼트 1162
종이 1161
▁데는 1160
▁만료 1160
▁상속 1160
▁소속사 1160
▁수요를 1160
▁아니라는 1160
▁제품으로 1160
류의 1160
▁고가 1159
▁접합 1159
▁홈페이지에서 1159
모를 1159
산의 1159
자치 1159
피해 1159
▁렌터카 1158
▁변속 1158
▁서비스도 1158
▁선거구 1158
▁스토 1158
▁향상시키는 1158
가입 1158
여행 1158
정부가 1158
주년 1158
▁가시 1157
▁간에 1157
▁분석된다 1157
▁불필요한 1157
▁의사가 1157
공제 1157
▁개발과 1156
▁모른다 1156
▁실감 1156
▁재직 1156
▁준비를 1156
▁가정에서 1155
▁상담을 1155
▁상당의 1155
▁악성 1155
▁전력을 1155
▁테슬라 1155
38 1154
▁꼽았다 1154
▁내년도 1154
▁동력 1154
▁참여하고 1154
▁트렌 1154
구매 1154
됐 1154
즈의 1154
▁대응할 1153
▁매도 1153
차별 1153
▁마켓 1152
▁여수 1152
▁의장은 1152
▁프로그램으로 1152
▁헬 1152
계와 1152
통화 1152
▁고온 1151
▁구조가 1151
▁벌금 1151
▁왜곡 1151
▁호와 1151
2000 1150
▁공천을 1150
▁법무 1150
▁확인하는 1150
▁퇴원 1149
센터가 1149
청에 1149
▁센서를 1148
▁소비자에게 1148
▁유형 1148
▁청와대가 1148
절차 1148
짓 1148
▁전체를 1147
▁컴퓨팅 1147
임금 1147
▁걸려 1146
▁상태에 1146
▁의해서 1146
▁짓 1146
▁특징을 1146
▁퓨 1146
봇 1146
현대 1146
▁감성 1145
▁마이크로소프트 1145
▁메뉴 1145
▁문화예술 1145
▁스타일 1145
▁안전하고 1145
▁얻는 1145
▁제안했다 1145
▁첫째 1145
들로부터 1145
샵 1145
▁가슴 1144
▁기간제 1144
▁단말기에 1144
▁뿐이다 1144
▁진정한 1144
▁팩 1144
네트워크 1144
이게 1144
자나 1144
투자증권 1144
▁노사가 1143
▁분야를 1143
▁없으며 1143
▁정책에 1143
▁환자에게 1143
▁효력 1143
청년 1143
▁고유 1142
▁공정거래 1142
▁도약 1142
▁신문 1142
▁연대 1142
▁테이블 1142
▁무너 1141
▁벤 1141
▁성공한 1141
▁않을까 1141
▁예외 1141
된다면 1141
미는 1141
업계의 1141
▁담고 1140
▁본부장은 1140
▁찾기 1140
▁최적화 1140
국장 1140
범죄 1140
영업 1140
터는 1140
회사의 1140
▁3,000 1139
▁한계를 1139
▁흘 1139
말을 1139
시킴으로써 1139
행사 1139
▁무급휴직 1138
▁시스템과 1138
단말 1138
36 1137
▁나타나고 1137
▁논란 1137
▁조금씩 1137
▁하나가 1137
것 1137
▁구간 1136
▁문의 1136
▁방영 1136
▁상실 1136
▁식으로 1136
▁아니지만 1136
▁이루어지는 1136
▁하나는 1136
▁만기 1135
▁성격 1135
▁했다는 1135
▁1999 1134
▁계속해서 1134
▁노래를 1134
▁단백질 1134
▁발송 1134
▁앞선 1134
▁환경이 1134
▁QM 1133
▁강경 1133
▁갤럭시노트 1133
▁반납 1133
▁사망한 1133
▁재고 1133
▁플랫폼으로 1133
행위를 1133
▁기본적인 1132
▁느낌 1132
▁대응하기 1132
▁수의 1132
▁차는 1132
▁크지 1132
박스 1132
전도 1132
효과를 1132
▁58 1131
▁관점에서 1131
▁그래픽 1131
▁보정 1131
▁이하로 1131
▁자금이 1131
퍼센트 1131
▁결론 1130
▁기념해 1130
▁성적 1130
▁어린이집 1130
▁업체는 1130
▁임금을 1130
▁형성하여 1130
EC 1129
▁가르 1129
▁공소외 1129
▁때보다 1129
▁빗 1129
▁임차 1129
▁제어하는 1129
▁판단을 1129
단지 1129
이사 1129
▁불교 1128
▁언급한 1128
▁준용한다 1128
▁관해 1127
▁받으 1127
▁오랫동안 1127
▁저소득 1127
내용 1127
사람 1127
▁농촌 1126
▁모델인 1126
▁연습 1126
▁유예 1126
▁지체 1126
▁치열 1126
각을 1126
양의 1126
▁불과하다 1125
▁살고 1125
▁아니라고 1125
▁아니한다 1125
▁업그레이드 1125
▁원고는 1125
▁터치 1125
만달러 1125
참여 1125
▁반등 1124
▁업무에 1124
▁재해 1124
리스트 1124
시스템에 1124
▁경비 1123
▁끌어올 1123
▁남녀 1123
▁라임 1123
▁발생해 1123
▁버튼 1123
▁진주 1123
▁화물 1123
▁박차를 1122
▁잃 1122
교실 1122
문재인 1122
킷 1122
▁두께 1121
▁앞세워 1121
▁요리 1121
▁인터뷰에서 1121
▁접촉자 1121
▁현황을 1121
▁사고로 1120
▁우리나라의 1120
▁지키 1120
▁타격을 1120
부처 1120
▁값을 1119
▁걸어 1119
▁교원 1119
▁라인업을 1119
▁혁신적인 1119
▁다이 1118
▁모르 1118
▁있거나 1118
▁처리하는 1118
▁편의성을 1118
놀이 1118
문에 1118
에스 1118
자로서 1118
▁강화할 1117
▁두산 1117
▁싶어 1117
견을 1117
▁공중 1116
▁과제는 1116
▁커졌다 1116
▁포장 1116
겼 1116
럴 1116
민주 1116
억달러 1116
터가 1116
▁성분 1115
▁숲 1115
▁아무 1115
▁연산 1115
▁조례에 1115
PE 1114
▁뛰어 1114
▁뷰티 1114
▁생계 1114
밤 1114
▁규정하고 1113
▁아내 1113
▁저지 1113
▁정부에 1113
▁DNA 1112
▁가변 1112
▁수천 1112
▁순차적으로 1112
▁유치원 1112
현장 1112
효율 1112
RI 1111
▁그래 1111
▁리스크 1111
▁십 1111
▁음악을 1111
군에 1111
비용을 1111
클라우드 1111
▁스테 1110
▁적발 1110
▁중순 1110
였지만 1110
영의 1110
의회 1110
un 1109
▁공장에서 1109
▁직무를 1109
▁쪽으로 1109
써 1109
에서부터 1109
정지 1109
타임 1109
▁도모 1108
▁여러분 1108
재난 1108
▁1998 1107
▁검진 1107
▁구축해 1107
▁들려 1107
▁부정적인 1107
▁삼성전자와 1107
▁역학조사 1107
▁연비 1107
▁쿠팡 1107
든지 1107
판의 1107
호텔 1107
SD 1106
▁가능하고 1106
▁결성 1106
▁김종 1106
▁무대에 1106
▁학부모님께 1106
본부장은 1106
▁꼽히는 1105
▁때에 1105
▁인프라를 1105
▁쥐 1105
연금 1105
팀이 1105
▁재활 1104
▁카드를 1104
▁고객은 1103
▁공인 1103
▁도입한 1103
▁돌입 1103
▁용량 1103
▁취재 1103
세법 1103
▁1970 1102
▁밀려 1102
▁좋겠다 1102
료의 1102
정신 1102
▁거론 1101
▁그들이 1101
▁많지 1101
▁세탁 1101
▁지침 1101
▁텐 1101
자문 1101
▁로봇이 1100
겼다 1100
오늘 1100
편이 1100
▁경제가 1099
▁무렵 1099
▁서비스와 1099
▁연구에 1099
▁저희 1099
▁채취 1099
▁축제 1099
모빌리티 1099
▁구역 1098
▁넣어 1098
▁콘서트 1098
▁학부모님께서는 1098
과장은 1098
▁번째로 1097
▁양사는 1097
700 1096
▁59 1096
▁맹 1096
▁원인을 1096
▁이승 1096
샤 1096
프리 1096
▁받았고 1095
▁설립된 1095
▁이어진 1095
▁이해할 1095
▁전략이다 1095
가와 1095
민주당 1095
▁움직임 1094
왔 1094
▁고스란히 1093
▁장악 1093
▁전원을 1093
막이 1093
박한 1093
연한 1093
▁기업들은 1092
▁박사 1092
▁사업으로 1092
▁수록 1092
▁이혼 1092
▁제출하여 1092
▁지원해 1092
DA 1091
▁41 1091
▁노력하겠다 1091
▁든 1091
▁보여주고 1091
방안을 1091
운전 1091
이스 1091
인재 1091
제작 1091
▁걷 1090
▁때문으로 1090
▁별다른 1090
캐피탈 1090
▁뼈 1089
▁조사에 1089
▁협의를 1089
롭 1089
소한 1089
튼 1089
▁56 1088
▁85 1088
▁검찰개혁 1088
▁것보다 1088
▁교육과정 1088
▁당국은 1088
∼4 1087
▁늘어났다 1087
▁동의를 1087
▁된다고 1087
▁아시아나항공 1087
▁유포 1087
▁제기한 1087
▁후에는 1087
사회적 1087
업체인 1087
지금 1087
하기가 1087
회사가 1087
▁나누 1086
▁봤 1086
▁아빠 1086
▁협상을 1086
▁- 1085
▁관람객 1085
▁방안도 1085
렸고 1085
름이 1085
48 1084
▁6, 1084
▁거짓 1084
▁그것은 1084
▁대사 1084
▁비율은 1084
▁비타민 1084
▁시내 1084
계획에 1084
▁'5 1083
▁교육감은 1083
▁문서 1083
▁분위기 1083
▁전염 1083
▁탐지 1083
▁하위 1083
고는 1083
내가 1083
유지 1083
▁이뤄지지 1082
▁출판 1082
▁흔 1082
▁공유하는 1081
▁나타날 1081
▁드리 1081
▁사전투표 1081
▁소셜 1081
맛 1081
▁결의 1080
▁사법 1080
▁원인으로 1080
▁직접적인 1080
하신 1080
▁개정안이 1079
▁계획이 1079
▁꿈을 1079
▁선언한 1079
▁심판 1079
▁옆 1079
니스 1079
수요 1079
일자리 1079
▁t 1078
▁길어 1078
▁없으면 1078
▁환율 1078
들이다 1078
모터 1078
올해 1078
▁그것이 1077
▁봐 1077
▁재미를 1077
」( 1077
둘 1077
▁억 1076
▁탑 1076
셋 1076
하는지 1076
하라는 1076
34 1075
▁경향이 1075
▁구성을 1075
▁궁금 1075
▁바람 1075
▁반영한 1075
▁입장이 1075
▁입체 1075
▁트래픽 1075
▁파악됐다 1075
랐 1075
▁감정을 1074
▁공무원이 1074
▁업체의 1074
▁자동차가 1074
▁학급 1074
꾼 1074
넥 1074
요양 1074
유의 1074
▁영화가 1073
▁융 1073
▁전도 1073
▁제기됐다 1073
▁회사를 1073
자동차의 1073
▁검체 1072
▁떨어졌다 1072
▁휴가 1072
AP 1071
▁방사 1071
▁씨가 1071
▁전액 1071
▁흔히 1071
인들은 1071
▁고장 1070
▁곳이다 1070
▁기후 1070
▁실험을 1070
▁열린다 1070
▁예정입니다 1070
▁요구하고 1070
▁찾았다 1070
대구 1070
집행 1070
▁분들이 1069
▁승차 1069
▁쏘렌토 1069
▁확보했다 1069
닌 1069
인식 1069
잠 1069
▁끊임없이 1068
▁요구에 1068
▁학원 1068
하니 1068
▁물이 1067
▁인상을 1067
▁할당 1067
방이 1067
조가 1067
▁내내 1066
▁논란을 1066
▁막대한 1066
▁밖으로 1066
▁정렬 1066
▁항암 1066
▁교육부 1065
▁부의 1065
▁세라믹 1065
▁소아 1065
▁수치 1065
▁신장 1065
단으로 1065
딜 1065
성능 1065
쇼핑 1065
중이다 1065
▁검찰에 1064
▁겁니다 1064
▁광고를 1064
▁논리 1064
▁맞춘 1064
▁손실이 1064
▁헌법 1064
▁납입 1063
▁숙박 1063
▁안심 1063
▁포함됐다 1063
▁하던 1063
교회 1063
52 1062
▁적합 1062
▁주행을 1062
▁책정 1062
연구원은 1062
ᆞ 1061
▁스위칭 1061
가치 1061
도서관 1061
▁어르신 1060
▁연관 1060
앞으로 1060
▁이어가 1059
▁주사 1059
▁합의를 1059
석에 1059
32 1058
ut 1058
▁가야 1058
▁본인의 1058
▁진화 1058
▁특성에 1058
기아 1058
다운 1058
었다는 1058
▁AP 1057
▁결정할 1057
▁보조금을 1057
▁주장하는 1057
▁캡 1057
끼리 1057
▁99 1056
▁디자인과 1056
▁때가 1056
▁유동성 1056
▁유승민 1056
▁의식 1056
▁첨가 1056
▁코드 1056
▁한국은 1056
고도 1056
자유 1056
파를 1056
▁과제를 1055
▁다하겠다 1055
▁변호사 1055
▁위주로 1055
▁이인영 1055
▁즐거운 1055
▁큐 1055
▁폭력 1055
능력을 1055
▁김동 1054
▁모터쇼 1054
▁물리적 1054
▁손에 1054
▁스틸 1054
▁인생 1054
▁중학교 1054
▁타이 1054
수소 1054
▁개발된 1053
▁식사 1053
▁쌍용차는 1053
▁이번에는 1053
▁지시 1053
▁지향 1053
▁최고경영자 1053
부담 1053
수술 1053
웠 1053
임에도 1053
▁강화해 1052
▁아이들의 1052
▁평화 1052
생의 1052
▁간사는 1051
▁기기를 1051
▁완벽한 1051
▁일관 1051
▁정도다 1051
▁지나치게 1051
▁확산에 1051
마트 1051
▁경증 1050
▁궤 1050
▁급격한 1050
▁사람과 1050
▁생태계를 1050
▁설치할 1050
▁소식 1050
▁행동을 1050
▁후보와 1050
감은 1050
학의 1050
▁근거로 1049
▁듀 1049
▁위원장을 1049
▁일어나는 1049
▁즐기는 1049
면에서 1049
젤 1049
▁고려한 1048
▁정도를 1048
▁중에서도 1048
▁판매한 1048
리티 1048
▁금융권 1047
▁이르면 1047
▁이후에 1047
▁700 1046
▁교육에 1046
▁나은 1046
▁역사를 1046
▁잡았다 1046
▁중개 1046
▁팬들이 1046
과정에서 1046
늘 1046
▁드는 1045
▁론칭 1045
▁방치 1045
▁수행한다 1045
▁위치에 1045
▁유료 1045
▁회사에 1045
및 1045
운송 1045
웨어 1045
▁기각 1044
▁넘어서 1044
▁맞춤 1044
▁맡았다 1044
▁붕괴 1044
▁시민단체 1044
▁신속히 1044
감시 1044
배가 1044
▁감각 1043
▁나타내는 1043
▁전시회 1043
▁제외하고는 1043
▁조각 1043
▁종래 1043
스테 1043
트라 1043
▁결정하는 1042
▁방어 1042
▁비율을 1042
▁아이디어를 1042
▁자동차부품 1042
▁자제 1042
▁프로그램이다 1042
▁한때 1042
털 1042
▁로봇을 1041
▁보여줄 1041
▁본격화 1041
▁사운드 1041
▁선택을 1041
▁의장 1041
▁주목받고 1041
인다 1041
중이 1041
행이 1041
▁그것 1040
▁김태 1040
▁모범 1040
▁방송에서는 1040
▁자동차에 1040
▁장려 1040
CEO 1039
▁득표 1039
▁아니고 1039
▁우려도 1039
▁제공하는데 1039
학회 1039
▁야간 1038
▁정무 1038
▁편의를 1038
실과 1038
▁공동주택 1037
▁보건복지 1037
▁사용자는 1037
▁폭이 1037
값이 1037
분할 1037
하에 1037
▁가격에 1036
▁간접 1036
▁담배 1036
▁물질을 1036
▁수련 1036
▁주장을 1036
▁중장기 1036
▁통증 1036
▁평생 1036
▁확대하는 1036
리카 1036
일러 1036
조원을 1036
합의 1036
us 1035
▁다녀 1035
▁리드 1035
▁발명에서는 1035
▁이산화탄소 1035
되던 1035
주와 1035
포럼 1035
▁결정한다 1034
▁미중 1034
▁일괄 1034
▁코스 1034
곳의 1034
마스크 1034
ot 1033
▁당부 1033
▁정당한 1033
지역의 1033
▁기사 1032
▁시대의 1032
▁지낸 1032
▁체납 1032
마케팅 1032
75 1031
▁다임러 1031
▁동작을 1031
▁보일 1031
▁전반적인 1031
듯이 1031
위기 1031
협동조합 1031
▁구조로 1030
▁기획재정부 1030
▁꺾 1030
▁시대가 1030
▁제어할 1030
▁주민등록 1030
시키지 1030
클래 1030
▁구현할 1029
▁약간 1029
▁우승 1029
▁조만간 1029
스크 1029
▁외교 1028
▁전방 1028
▁코스피 1028
드리 1028
▁공관 1027
▁멀리 1027
▁보행 1027
▁자리매김 1027
▁정전 1027
이었 1027
▁강도 1026
▁굿 1026
▁급락 1026
▁막아 1026
▁모델의 1026
▁밴 1026
▁부회장은 1026
▁시행하고 1026
▁씽큐 1026
▁유연 1026
▁재규어 1026
▁정작 1026
▁지역으로 1026
▁진흥 1026
▁트레이 1026
데다 1026
▁고지 1025
▁그중 1025
▁담임선생님께 1025
▁부하 1025
▁불가능한 1025
▁빌려 1025
▁산업을 1025
▁제품이다 1025
▁펼치고 1025
▁할머니 1025
▁핸드 1025
되는데 1025
▁25% 1024
▁가서 1024
▁촉구 1024
▁타임 1024
뢰 1024
지난 1024
해준다 1024
▁객 1023
▁사회의 1023
▁위촉한다 1023
▁자녀가 1023
▁장치가 1023
▁전인 1023
▁표창 1023
놓 1023
인사 1023
▁64 1022
▁강렬한 1022
▁규격 1022
▁내부의 1022
▁노광 1022
▁대상에 1022
▁신약 1022
▁신작 1022
▁한국지엠 1022
본부는 1022
▁공유하고 1021
▁싼타페 1021
▁탈당 1021
근로자 1021
례를 1021
LS 1020
▁노사는 1020
▁등록된 1020
▁월드 1020
▁장관의 1020
▁케어 1020
표가 1020
환경을 1020
▁결정한 1019
▁몰아 1019
▁환불 1019
어요 1019
▁양호한 1018
▁연구소 1018
▁재현 1018
▁태블릿 1018
▁파악할 1018
▁하는지 1018
시켰 1018
움이 1018
정으로 1018
▁경로를 1017
▁금융위 1017
▁밀집 1017
▁안전성 1017
▁유권 1017
▁희생 1017
기관과 1017
▁반영해 1016
▁보지 1016
▁비롯 1016
▁살펴 1016
▁의무를 1016
▁이르기까지 1016
감에 1016
러스 1016
▁경과 1015
▁웰 1015
▁이란 1015
▁회피 1015
됐을 1015
▁무릎 1014
▁의류 1014
▁특허를 1014
괴 1014
▁AMG 1013
▁검사가 1013
▁공개된다 1013
▁세운 1013
▁싱글 1013
▁쟁 1013
▁추구 1013
▁캠프 1013
▁프로세스 1013
등에 1013
양성 1013
자산운용 1013
항을 1013
▁권한 1012
▁떨 1012
▁불확실성이 1012
▁중지 1012
▁후면 1012
▁대통령과 1011
▁몽골 1011
▁영상이 1011
▁이용하면 1011
교사 1011
모가 1011
협회는 1011
▁기소 1010
▁늘면서 1010
보기 1010
층과 1010
▁다양하게 1009
▁신한금융 1009
▁업체인 1009
▁유리한 1009
▁집회 1009
▁후보자가 1009
업계는 1009
TF 1008
▁강조한 1008
▁생산성을 1008
▁적게 1008
▁폰 1008
▁필요성이 1008
국으로 1008
▁고혈압 1007
▁교섭단체 1007
▁마케팅을 1007
▁몫 1007
▁사랑하는 1007
▁사무를 1007
▁사용자에게 1007
▁여겨 1007
▁전격 1007
▁중진 1007
▁측의 1007
조절 1007
▁모습은 1006
▁배열 1006
▁신세계 1006
▁종로구 1006
▁프로토콜 1006
▁함은 1006
빅 1006
▁66 1005
▁당연히 1005
▁복원 1005
▁부모님 1005
▁세계적 1005
▁위에서 1005
▁자아냈다 1005
▁폴리 1005
닷컴 1005
측에 1005
▁다채로운 1004
▁명칭 1004
▁법안을 1004
▁여당이 1004
▁의장이 1004
▁장점을 1004
▁점유율을 1004
물질을 1004
▁개발이 1003
▁미치지 1003
▁아직도 1003
▁오류 1003
▁제기된다 1003
▁증진 1003
▁확보에 1003
낭 1003
음에 1003
▁들어서 1002
▁머신러닝 1002
▁산재 1002
▁웹툰 1002
▁자아 1002
▁차의 1002
▁타다 1002
반응 1002
▁가상현실 1001
▁공간이 1001
▁때부터 1001
▁보육 1001
▁빨 1001
▁산업이 1001
▁인체 1001
▁제외하고 1001
▁진단을 1001
등이 1001
봤 1001
혹 1001
▁2019' 1000
▁감성을 1000
▁도입해 1000
▁드라이브 1000
▁매출액 1000
▁자유한국당이 1000
방에 1000
스트를 1000
▁거리가 999
▁겹 999
▁돕기 999
▁새해 999
▁입장에서는 999
▁현대자동차가 999
▁확립 999
같이 999
의료원 999
▁맞이하여 998
▁모인 998
▁안정성을 998
▁중대 998
봉사 998
출을 998
▁위해서다 997
▁위해선 997
▁청취 997
▁피고의 997
곳이 997
바이러스 997
제공 997
AS 996
▁고객들이 996
▁구축할 996
▁높아진 996
▁추락 996
▁특별히 996
델 996
해진다 996
▁1997 995
▁2025 995
▁공지 995
▁당뇨병 995
▁보건복지부 995
▁용이 995
▁자동차는 995
▁적재 995
▁캠 995
▁텔레그램 995
군을 995
▁결과다 994
▁사람들을 994
▁자체를 994
▁지급을 994
▁회사채 994
션이 994
여부를 994
재정 994
줬다 994
▁그릴 993
▁높아졌다 993
▁높아질 993
▁들이 993
▁물러 993
▁초음파 993
▁포착 993
년과 993
▁김천 992
▁노원구 992
▁몇몇 992
▁사회공헌 992
▁집단감염 992
▁출하 992
렁 992
이노베이션 992
중국 992
▁57 991
▁들을 991
▁선거운동 991
▁시트 991
▁아웃 991
▁전장 991
▁중반 991
까지도 991
대회를 991
리에서 991
소송 991
양이 991
클래스 991
▁선택한 990
▁세입 990
▁알렸다 990
▁있었는데 990
▁프로모션 990
업체가 990
▁늘리는 989
▁목적을 989
▁보전 989
▁불이 989
▁옛 989
▁적용된다 989
▁제품과 989
▁주변에 989
▁취약계층을 989
▁편이다 989
힘 989
▁생기 988
▁실물 988
▁이어폰 988
▁인텔 988
그러 988
뉴스 988
명에서 988
봐야 988
음악 988
▁관광객 987
▁꼬 987
▁노동자들이 987
▁당연직 987
▁방침을 987
▁이곳 987
▁전통적인 987
▁정보화 987
▁패킷 987
공원 987
▁기본적으로 986
▁되었 986
▁때문입니다 986
▁수당 986
▁여성은 986
녹 986
원인 986
자본 986
om 985
▁계획이라고 985
▁교통안전 985
▁비슷 985
▁않으며 985
▁용역 985
▁이내의 985
▁제주도 985
파가 985
▁동네 984
▁로그 984
▁실업급여 984
▁애플이 984
▁정당이 984
렸던 984
만은 984
소자 984
▁나의 983
▁대의 983
▁했습니다 983
밸 983
훈련 983
▁고조 982
▁밥 982
▁안드로이드 982
▁통보하여야 982
당에서 982
목적 982
아동 982
이면서 982
▁개인이 981
▁비율 981
▁형성되는 981
베이 981
∼3 980
▁나타냈다 980
▁몸에 980
▁블로그 980
▁주민의 980
▁축적 980
▁경력 979
▁말한 979
▁상관 979
▁신차를 979
▁씻 979
▁의원들은 979
▁입사 979
▁전달하는 979
▁항소 979
농업 979
▁메시 978
▁방열 978
▁스포츠유틸리티차량 978
▁양의 978
낙 978
리오 978
업체의 978
▁'1 977
▁국민의당 977
▁김종인 977
▁또다시 977
▁성남 977
▁스페셜 977
▁요구할 977
▁치료가 977
▁피로 977
탄을 977
▁인테리어 976
▁조직을 976
▁트림 976
다이 976
방안 976
일본 976
지부 976
▁그러 975
▁방과 975
▁사항이 975
▁직원을 975
▁차질이 975
▁하도록 975
▁화성 975
같은 975
▁못하게 974
▁선호하는 974
▁안착 974
▁유로 974
▁차종을 974
▁추구하는 974
▁폐기물 974
▁필요성을 974
자로부터 974
▁고위험 973
▁디바이스 973
▁마련하고 973
▁불거 973
▁비교하면 973
▁인터뷰 973
▁점유 973
의사 973
자동차가 973
▁그러면 972
▁높인 972
▁대학교 972
▁보건당국은 972
▁설치하고 972
▁안동 972
▁이외에 972
▁중독 972
▁현대모비스 972
만원에 972
▁무엇인지 971
▁장시간 971
▁트위 971
▁피고가 971
▁합리적인 971
들에게는 971
전으로 971
접속 971
직원 971
캠프 971
▁나가는 970
▁나섰 970
▁물어 970
▁속속 970
▁움직임을 970
▁중동 970
▁환매 970
덴 970
시고 970
▁도포 969
▁전기차를 969
▁전시장 969
▁최고위원 969
▁투표를 969
▁한다면 969
▁혼란 969
핵 969
ir 968
▁고체 968
▁느낌을 968
▁대안 968
▁레이싱 968
▁만남 968
▁소요되는 968
▁시에 968
▁을 968
▁투자하는 968
z 967
▁결합한 967
▁고분자 967
▁관세 967
▁단행 967
▁부사장은 967
▁부정적 967
▁성범죄 967
▁일주일 967
▁지금의 967
시행 967
5, 966
▁가능성 966
▁꾸준한 966
▁미친 966
▁선사 966
▁우리은행 966
▁중요성을 966
▁흉 966
기간은 966
부동산 966
CE 965
▁가산 965
▁도중 965
▁도쿄 965
▁유선 965
▁주식회사 965
▁집권 965
▁화장 965
전문가 965
중학교 965
학급 965
히고 965
▁나눔 964
▁만날 964
▁매체 964
▁면접 964
▁방안이 964
▁위원이 964
▁이루어질 964
▁지위를 964
▁차체 964
급을 964
비스 964
선에서 964
▁개소 963
▁건너 963
▁규제가 963
▁말할 963
위원은 963
▁1995 962
▁결과로 962
▁매력 962
▁원활하게 962
▁의회 962
▁자체적으로 962
▁탑재해 962
기통 962
져야 962
▁활발한 961
감염병 961
럽 961
사에게 961
▁명확히 960
▁무역분쟁 960
▁시중은행 960
▁엔진과 960
▁합동 960
▁회의에 960
▁등장한 959
▁마찰 959
▁보편 959
▁이른 959
▁있었다고 959
았다는 959
정보통신 959
처가 959
▁가맹점 958
▁몰입 958
▁어제 958
▁예정된 958
▁제기했다 958
▁가계 957
▁낭 957
▁빨라 957
▁생산성 957
▁아우 957
▁연기를 957
사이트 957
▁보내는 956
▁소리를 956
▁안산 956
▁이성 956
▁채워 956
▁클릭 956
▁갖 955
▁그러하지 955
▁놀이 955
▁방송에서 955
▁선거에 955
▁여론조사 955
▁줌 955
됨으로써 955
▁7, 954
▁공급을 954
▁묻는 954
▁믿고 954
▁움직임이 954
▁자칫 954
▁처우 954
▁펼 954
▁해외에서 954
관리에 954
라이트 954
해왔 954
▁고유의 953
▁군사 953
▁아버지 953
▁안전성을 953
▁올라가 953
▁유재 953
▁입소 953
▁전해질 953
▁후에도 953
되었 953
면으로 953
▁고소 952
▁디스크 952
▁뮤직비디오 952
▁설치한 952
▁스토리지 952
▁올랐 952
▁유전체 952
▁인플루엔자 952
▁치료에 952
▁트랜지스터 952
매매 952
철도 952
효율을 952
", 951
▁결정에 951
▁내리 951
▁더욱이 951
▁들어갈 951
▁쏠 951
▁일종의 951
▁추가적인 951
▁판단이 951
▁페스티벌 951
따 951
시한 951
준이 951
▁공제 950
▁기능은 950
▁맞지 950
▁불편을 950
▁오르 950
▁의원들의 950
▁임상시험 950
▁주최 950
▁톱 950
▁티저 950
▁할부 950
▁확인해 950
회관 950
ent 949
▁LCD 949
▁공장이 949
▁교실 949
▁렌 949
▁모양 949
▁분석도 949
▁성별 949
▁수주 949
▁얼굴을 949
▁증시 949
▁투자한 949
▁페이스북에 949
림이 949
어지고 949
연의 949
치기 949
4, 948
▁방식은 948
▁부부 948
▁철저한 948
▁판매량은 948
정상 948
준비 948
-1 947
od 947
▁190 947
▁개발할 947
▁기지 947
▁문제점이 947
▁바꿀 947
▁바와 947
▁법칙 947
▁수수료를 947
▁이뤄지는 947
량에 947
없 947
짜리 947
▁김경 946
▁맞서 946
▁무엇 946
▁사례는 946
▁선거에서 946
▁순천 946
▁실정이다 946
검찰 946
사태 946
지원센터 946
▁근무하고 945
▁넣 945
▁보여준 945
▁비치 945
▁서민 945
▁선보이며 945
▁수동 945
▁한국당의 945
본다 945
▁갈등을 944
▁마련할 944
▁마쳤다 944
▁위촉직 944
▁의거 944
▁인식이 944
▁지난주 944
▁충분 944
만명이 944
수행 944
장치가 944
총괄 944
▁대응하는 943
▁사용된다 943
▁시기를 943
▁우유 943
▁찾아가 943
▁확대될 943
대비 943
한국당 943
il 942
▁구상 942
▁구청 942
▁목표다 942
▁역할이 942
▁연방 942
▁영역에서 942
▁전자기 942
▁학부모님들께 942
봤다 942
SS 941
▁그러한 941
▁느 941
▁랩 941
▁바람이 941
▁분석하고 941
▁사용되고 941
▁사정이 941
▁한국이 941
▁확진자와 941
서다 941
설비 941
온다 941
인도 941
투쟁 941
▁가득한 940
▁고려할 940
▁고무 940
▁김수 940
▁자원을 940
▁잡은 940
▁지난해부터 940
▁체결한 940
나노 940
▁감사의 939
▁날부터 939
▁내놓을 939
▁불러일으 939
▁수상했다 939
▁이외의 939
▁인용 939
▁인정한 939
▁차로 939
▁추천해 939
▁크기의 939
▁향상된 939
▁현대중공업 939
정책을 939
팀을 939
▁권한을 938
▁노동자들의 938
▁미국은 938
▁이어갈 938
▁자동차산업 938
▁중국은 938
분쯤 938
워크 938
자동차는 938
카드는 938
▁공을 937
▁구로구 937
▁기록하며 937
▁랜드로버 937
▁바른 937
▁받았 937
▁분사 937
▁서브 937
▁세미나 937
▁주장이다 937
기관을 937
색이 937
▁나타났 936
▁냈 936
▁동급 936
▁승진 936
▁양질의 936
▁위상 936
▁조성을 936
▁찾고 936
▁확보하기 936
▁벨 935
▁비록 935
감사 935
까지만 935
에이 935
형태 935
ver 934
▁배경으로 934
▁성희롱 934
▁소녀 934
▁않는다고 934
▁앤 934
▁원금 934
▁육성을 934
▁졸 934
연수 934
자들과 934
장한 934
▁가게 933
▁보좌 933
▁숨진 933
▁시너지 933
▁예고했다 933
▁와이어 933
▁요인 933
▁천안 933
공항 933
포트 933
▁딱 932
▁부작용 932
▁비판을 932
▁세계를 932
▁송금 932
▁원의 932
▁행사에는 932
병원을 932
▁51 931
▁민주주의 931
▁보험사 931
▁봐야 931
▁분위 931
▁산업에 931
▁액티브 931
▁엔진이 931
▁이민 931
맵 931
부지 931
화되는 931
▁검은 930
▁구는 930
▁법안이 930
▁부사 930
▁분노 930
▁빠르고 930
▁신청이 930
▁안전관리 930
▁우버 930
▁장을 930
▁판결을 930
▁폭행 930
▁플러그 930
▁핫 930
사례 930
스포 930
카카오 930
편을 930
▁곳을 929
▁금리를 929
▁노동자가 929
▁미뤄 929
▁부딪 929
▁선진국 929
▁시작됐다 929
▁알뜰폰 929
▁커플 929
▁통지 929
▁형성할 929
규칙 929
나의 929
륙 929
시간에 929
협회가 929
▁교육과 928
▁규정한 928
▁기능도 928
▁못했던 928
▁보며 928
▁이루는 928
▁잊 928
널 928
자료를 928
지사 928
회로를 928
▁대결 927
▁받으며 927
▁알고리즘을 927
▁중기 927
▁책임이 927
▁편리한 927
▁프로그램의 927
건은 927
도어 927
슈퍼 927
었기 927
▁경찰이 926
▁드라이버 926
▁민주당과 926
▁않았다는 926
▁일어난 926
▁확진자의 926
되는지 926
석과 926
▁높인다 925
▁무관 925
▁현대모비스는 925
릉 925
수지 925
스럽게 925
시스템의 925
우의 925
장치는 925
전지의 925
▁구성한다 924
▁구제 924
▁올리는 924
▁일본에서 924
▁중의 924
▁회로를 924
과도 924
촉진 924
46 923
▁각자 923
▁듣 923
▁발주 923
▁예정이며 923
▁입점 923
우며 923
▁감안 922
▁기대할 922
▁드러 922
▁말에 922
▁보여주 922
▁선보이고 922
▁손상을 922
▁스마트폰으로 922
▁스웨덴 922
▁좋을 922
▁주차장 922
기판 922
령을 922
오니 922
▁가이드 921
▁유족 921
▁이후에는 921
▁일으키는 921
▁피고는 921
공개 921
소리 921
CP 920
▁개선할 920
▁대용량 920
▁목숨을 920
▁상황은 920
▁액션 920
▁없던 920
▁증여 920
그램 920
달라 920
▁공개한다 919
▁동일하게 919
▁모델에 919
▁업무협약 919
▁연계해 919
▁절차에 919
▁기판을 918
▁빙 918
▁살펴보 918
▁의정부 918
▁통신사 918
재료 918
▁개정안을 917
▁나타난다 917
▁넘어섰다 917
▁분위기다 917
▁사이드 917
▁시달 917
▁엔진은 917
▁위원회에 917
▁이점이 917
▁접지 917
▁중소기업의 917
▁파기 917
▁화제가 917
소유 917
이익 917
하를 917
▁'3 916
▁130 916
▁구성된다 916
▁뛰 916
▁마음에 916
▁모은다 916
▁서면 916
▁외면 916
▁이마트 916
▁제조방법을 916
▁꾀 915
▁네티즌 915
▁든다 915
▁중이며 915
상태를 915
였 915
DM 914
▁15% 914
▁감사드립니다 914
▁요소를 914
▁워크 914
▁정보는 914
▁진행해 914
복합 914
아시아 914
측은 914
▁걸리는 913
▁부르는 913
▁실습 913
▁않고도 913
▁완벽하게 913
▁전달했다 913
▁주된 913
CD 912
▁더했다 912
▁일부가 912
▁캠페인을 912
." 911
▁서울시는 911
▁신뢰를 911
요금 911
하시기 911
▁간편결제 910
▁교회 910
▁나도 910
▁돈이 910
▁선전 910
▁시작할 910
▁커진 910
돌봄 910
마가 910
전시 910
커버 910
하기를 910
활동에 910
5,000 909
ra 909
▁국가가 909
▁도어 909
▁제조방법 909
미의 909
인공지능 909
▁멜 908
▁분과 908
▁상품은 908
▁소재를 908
▁제조사 908
▁하나다 908
▁화소 908
▁화합 908
첩 908
카메라 908
▁실장 907
▁올해부터 907
▁인간이 907
▁출연한 907
기업에 907
램프 907
망에 907
업종 907
월드 907
이동 907
제도를 907
▁갔 906
▁구강 906
▁삶 906
▁연체 906
▁자신들의 906
▁탑재된 906
낸다 906
조치를 906
중소기업 906
컷 906
▁360 905
▁건전한 905
▁독려 905
차종 905
▁가진다 904
▁거래를 904
▁경제의 904
▁반전 904
▁성능과 904
▁스토리 904
▁전무 904
엑스 904
6, 903
▁공무 903
▁김진 903
▁번역 903
▁비싸 903
▁시민들이 903
▁시중 903
▁엑스 903
▁자립 903
▁정치를 903
▁청약 903
▁치솟 903
SDI 902
▁국내에서는 902
▁궁 902
▁산림 902
▁엇갈 902
되었을 902
신경 902
았지만 902
하시어 902
▁OTT 901
▁다음날 901
▁사건의 901
▁성장세를 901
▁아이콘 901
▁제공함에 901
▁중국이 901
▁티켓 901
답 901
▁119 900
▁메르스 900
▁변신 900
▁온도를 900
▁출품 900
닐 900
로에 900
층은 900
33 899
▁구체 899
▁상부 899
▁석탄 899
▁스위 899
▁초등 899
▁취약한 899
▁하이브리드카 899
치로 899
하우 899
▁EU 898
▁나아 898
▁맞이 898
▁사안 898
▁시스템으로 898
▁정면 898
▁톤 898
▁하향 898
시아 898
촬영 898
▁4000 897
▁가능하다는 897
▁경기가 897
▁계층 897
▁공급이 897
▁노트 897
▁막는 897
▁방지하고 897
▁빔 897
▁사용하면 897
▁상표 897
▁세계의 897
▁어른 897
▁활동하고 897
문의 897
원들의 897
6000 896
▁68 896
▁반영된 896
▁실시하고자 896
▁업체에 896
▁원고가 896
▁지금도 896
▁크라이슬러 896
▁혜택이 896
인천광역시 896
▁거절 895
▁낳 895
▁내놓고 895
▁눈빛 895
▁신속 895
▁어울 895
▁자료에 895
▁장면이 895
▁추진을 895
▁크리에이터 895
▁가벼운 894
▁강좌 894
▁명절 894
▁음향 894
▁진행한다고 894
▁형태를 894
▁확실히 894
가정 894
건축 894
기준을 894
▁결함 893
▁명품 893
▁모두를 893
▁생체 893
▁시흥 893
▁행위가 893
▁확보해 893
콤 893
▁광화문 892
▁두드러 892
▁바꾸는 892
▁부위원장은 892
▁생각했다 892
▁설치되어 892
▁스마트폰에 892
▁아날로그 892
▁전기적 892
▁학생들을 892
씨에게 892
ec 891
▁개선에 891
▁걸릴 891
▁김민 891
반을 891
한테 891
▁개최했다 890
▁비용은 890
▁웹사이트 890
▁출연하는 890
▁해당한다 890
위인 890
▁거치 889
▁늘리고 889
▁리더십 889
▁생각하고 889
▁식당 889
▁자세히 889
▁제안한 889
▁제휴를 889
놓은 889
품이 889
하였으나 889
▁급성 888
▁밀착 888
▁신분 888
▁측에 888
▁편리 888
▁가려 887
▁가입한 887
▁가족의 887
▁강력 887
▁내외 887
▁숨졌다 887
▁영남 887
▁이은 887
▁전기자동차 887
▁창조 887
▁호응을 887
듀 887
엑 887
여야 887
영은 887
▁감안해 886
▁검사에서 886
▁계획에 886
▁공간에 886
▁기여한 886
▁메모 886
▁문제의 886
▁밝혔 886
▁이사장은 886
▁지원과 886
▁논란에 885
▁시간은 885
▁안정된 885
연맹 885
표시 885
▁NHN 884
▁담았다 884
▁분배 884
▁성사 884
▁지붕 884
▁토큰 884
줘야 884
처벌 884
▁공연이 883
▁대중교통 883
▁상의 883
▁여유 883
▁입장에서 883
▁전월 883
▁조례에서 883
▁지점 883
▁효율이 883
▁흐르는 883
식에서 883
콩 883
▁고주파 882
▁과반 882
▁소폭 882
▁시행할 882
▁요인이 882
▁타입 882
▁포스터 882
산에 882
자에게는 882
해져 882
▁극대 881
▁끝나 881
▁대체로 881
▁면허 881
▁미래의 881
▁삭감 881
▁선점 881
▁시에는 881
▁이태 881
계좌 881
담을 881
드립니다 881
장인 881
졸 881
호는 881
▁경쟁력이 880
▁공소 880
▁구의 880
▁럭셔리 880
▁번에 880
▁보험료를 880
▁정보와 880
▁추세다 880
망의 880
소방 880
었으나 880
호서식 880
▁머리를 879
▁후보자의 879
과학기술 879
재해 879
▁고압 878
▁그랜드 878
▁발생하면 878
▁사람도 878
▁제도다 878
▁회동 878
임이 878
활용 878
훈이 878
▁건강에 877
▁디자이너 877
▁모은 877
▁보냈다 877
▁시설의 877
▁연일 877
▁자랑하는 877
방식 877
인터 877
졌을 877
▁대부 876
▁우리금융 876
▁인건비 876
▁지원금 876
▁코미디 876
▁코어 876
▁현실을 876
드라마 876
았을 876
▁가능성에 875
▁돌입했다 875
▁물건을 875
▁분야는 875
▁앉 875
▁유닛 875
▁지원사업 875
▁탑재했다 875
시스 875
쏘 875
프의 875
휴가 875
ur 874
▁결론을 874
▁구직 874
▁모양새다 874
▁방지하여 874
▁생산할 874
▁세상 874
▁음성으로 874
▁전자상거래 874
▁정수 874
▁텔레비젼 874
▁풍부 874
기본 874
▁54 873
▁꽤 873
▁보고서를 873
▁비싼 873
▁영향력을 873
▁영화의 873
▁탐색 873
▁평택 873
에게도 873
킬 873
▁기능과 872
▁때의 872
▁한마 872
하오니 872
▁3% 871
▁끝내 871
▁바깥 871
▁않았고 871
병원으로 871
시키며 871
DS 870
▁개최한다 870
▁공급할 870
▁많을 870
▁받으면 870
▁요인으로 870
▁윈 870
▁육아 870
▁의학 870
고에 870
기관으로 870
본을 870
수업 870
오스 870
익을 870
1000 869
▁구조조정을 869
▁끝까지 869
▁뒤늦게 869
▁발신 869
▁보고하여야 869
▁설명할 869
▁위험한 869
▁장착된 869
캠 869
∼6 868
▁무시 868
▁보이며 868
▁시가 868
▁아니었다 868
▁알리고 868
▁올리고 868
▁터키 868
▁험 868
별지 868
신은 868
▁마세라티 867
▁비만 867
▁설치하는 867
▁에코 867
▁참여한다 867
▁체계적인 867
▁투자자들이 867
▁환자들이 867
▁활발 867
▁흥미 867
비트 867
▁간주 866
▁장식 866
▁지식을 866
량과 866
명도 866
업무를 866
▁1960 865
▁8, 865
▁도덕 865
▁등록을 865
▁떨어질 865
▁떼 865
▁발현 865
▁브랜드로 865
▁세계에 865
▁순으로 865
금리가 865
전송 865
치료를 865
▁렌즈 864
▁바라보는 864
▁상한 864
▁시민들의 864
▁커넥 864
어지는 864
팀은 864
▁구청장 863
▁대법 863
▁사망자 863
▁자동차용 863
▁총선에 863
구나 863
리얼 863
수신 863
텍은 863
해양 863
▁그녀의 862
▁소재로 862
▁아이템 862
▁우편 862
▁포함돼 862
▁학교를 862
▁행복이 862
▁확실한 862
난다 862
▁늘릴 861
▁러 861
▁임용 861
▁차등 861
▁펴 861
▁한국타이어 861
르지 861
비전 861
세요 861
현의 861
EV 860
NA 860
um 860
▁GV 860
▁과학기술정보통신부 860
▁규정이 860
▁등장했다 860
▁사로잡 860
▁선거가 860
▁손해를 860
▁오일 860
▁의지가 860
▁적어 860
▁정하여 860
▁주장한다 860
▁커지면서 860
▁푸조 860
름을 860
일보 860
졌기 860
95 859
▁긍정적 859
▁기자들과 859
▁끈 859
▁쓰이는 859
▁읍 859
이와 859
인권 859
전달 859
▁김재 858
▁누릴 858
▁댓글 858
▁등장하는 858
▁모델이다 858
▁바퀴 858
▁부재 858
▁외환 858
▁준비한 858
▁챙 858
▁추산 858
▁카카오뱅크 858
▁투입해 858
▁히트 858
▁것인 857
▁곱 857
▁달간 857
▁돋보이는 857
▁삼아 857
거리를 857
스토어 857
열이 857
▁간섭 856
▁감수 856
▁르노삼성은 856
▁매니저 856
▁보아 856
▁없애 856
▁오프 856
▁포상 856
▁호평을 856
노인 856
스틱 856
파의 856
▁53 855
▁기본급 855
▁발사 855
▁조건으로 855
▁조세 855
▁투싼 855
▁합의했다 855
라이브 855
실험 855
언을 855
▁누설 854
▁시점에 854
▁어렵게 854
▁적용을 854
▁정상화 854
▁활성화에 854
였다는 854
자기 854
▁박성 853
▁분당 853
▁신고를 853
▁예정이라고 853
▁전반 853
▁중국에 853
▁판단된다 853
▁할지 853
상황을 853
오프 853
일지 853
패스 853
▁곳곳에서 852
▁꺼내 852
▁요건을 852
▁저작권 852
▁못하면 851
▁설치해 851
▁장치는 851
▁준비하는 851
▁체험할 851
▁투자에 851
친다 851
▁구청장의 850
▁보면서 850
▁부득이한 850
▁종종 850
▁지정한 850
▁활발하게 850
뭇 850
실장 850
텀 850
프가 850
▁2% 849
▁개폐 849
▁그려졌다 849
▁딜 849
▁위탁할 849
▁주제 849
▁침체 849
▁클래 849
▁특별관계자인 849
▁회의에서 849
▁흡착 849
륨 849
섰다 849
LA 848
▁마음으로 848
▁받아들 848
▁스마트공장 848
▁애플의 848
▁옳 848
▁이해관계 848
▁조기에 848
▁타이어를 848
▁호소했다 848
께서 848
롭고 848
폭을 848
▁감사를 847
▁국민연금 847
▁서초 847
▁스타트업을 847
▁시작하는 847
▁전교 847
▁정보보호 847
▁주재 847
▁확정된 847
공장을 847
마의 847
속에 847
일반 847
형은 847
호텔에서 847
▁나누어 846
▁눈물을 846
▁않았다고 846
▁지원대상 846
▁캐스팅 846
▁확보하는 846
내에서 846
대리 846
시설에 846
∼7 845
▁그만 845
▁보충 845
▁시장에서는 845
▁언제나 845
▁이름으로 845
▁청와대는 845
▁커다란 845
▁투자해 845
공간을 845
구조에 845
몽 845
▁강연 844
▁댄스 844
▁둥 844
▁로드 844
▁살아남 844
▁위와 844
▁추측 844
▁현장의 844
▁공개할 843
▁기후변 843
▁런던 843
▁말씀을 843
▁쉽 843
▁시너지를 843
▁쏠리고 843
▁이해를 843
▁철학 843
▁타이틀곡 843
상환 843
스트는 843
작을 843
▁결정이 842
▁기조 842
▁다각 842
▁밴드 842
▁일어날 842
▁전계 842
▁취지로 842
▁컨셉 842
개인 842
공을 842
연계 842
▁관제 841
▁근거가 841
▁시행하는 841
▁알림 841
▁전반적으로 841
▁혁 841
관계가 841
받는다 841
왔던 841
os 840
▁멀티미디어 840
▁부활 840
▁시행에 840
▁정상적인 840
넬 840
등기 840
향을 840
▁보호하기 839
▁열릴 839
▁유용 839
▁이용이 839
▁존재감을 839
▁주변의 839
▁지명 839
▁쫓 839
▁처리가 839
▁캐릭터를 839
▁쿼 839
▁형성하고 839
중한 839
▁고향 838
▁균일 838
▁그나마 838
▁대표이사 838
▁물리학 838
▁폭으로 838
▁해석된다 838
저가 838
900 837
▁가면 837
▁가이드라인 837
▁대장 837
▁방사선 837
▁사용하기 837
되었던 837
사업부 837
졌으며 837
CO 836
▁CT 836
▁서식 836
▁시연 836
▁자사의 836
▁저축 836
▁추진해 836
▁크다는 836
〉 836
만으로도 836
석으로 836
시로 836
심에 836
▁사람으로 835
▁소득이 835
▁수준인 835
▁신인 835
▁인재를 835
▁장관을 835
공장에서 835
캡 835
품질 835
▁않으면서 834
▁없이도 834
▁이통 834
▁철거 834
전용 834
▁나쁜 833
▁문화가 833
▁보낼 833
▁부회장이 833
▁설치하여 833
▁열람 833
▁웃음 833
▁인쇄회로기판 833
▁작업에 833
▁제천 833
▁제치고 833
▁증가에 833
▁집중적으로 833
라면서 833
마를 833
▁개선이 832
▁구성하고 832
▁늘어나면서 832
▁상호작용 832
▁수소전기 832
▁올해도 832
▁은행이 832
▁이뤄진다 832
▁최우수 832
▁캘리포니아 832
▁틈 832
헬로 832
▁발표된 831
▁원가 831
▁출신의 831
▁프로모션을 831
경의 831
▁기대했다 830
▁뛰어나 830
▁뜨 830
▁면에서 830
▁심화 830
▁여행을 830
▁음주 830
▁이르 830
▁작성한 830
▁파일 830
▁폴더블폰 830
▁환영 830
기에는 830
사법 830
화물 830
▁거두 829
▁근로자를 829
▁동남아 829
▁등기 829
▁발진 829
▁배부 829
▁성장이 829
▁양대 829
▁절차가 829
▁퀄컴 829
리라 829
스러 829
▁DB 828
▁가입자가 828
▁결합해 828
▁절감할 828
▁조절할 828
술을 828
인한 828
향이 828
7, 827
▁고시 827
▁단자 827
▁대답 827
▁도입했다 827
▁밖 827
▁법원 827
▁불출마를 827
▁선포 827
▁수분 827
▁앙 827
▁조정할 827
▁파기하고 827
규정 827
기념 827
로서의 827
이미 827
7000 826
▁데이터센터 826
▁둔화 826
▁부대 826
▁분자 826
▁사망자가 826
▁쏠린다 826
▁운반 826
▁이식 826
▁증강현실 826
▁지속될 826
▁참가해 826
▁합격 826
감도 826
길이 826
트럭 826
▁내야 825
▁아이가 825
▁업계에 825
▁이외 825
▁줄어 825
▁코인 825
▁탄성 825
▁항공기 825
공사가 825
공사는 825
기업으로 825
랐다 825
분기에 825
충전 825
3000 824
▁겨냥한 824
▁라이프 824
▁발간 824
▁뿌리 824
▁요구한 824
▁적용하고 824
▁직원들의 824
▁특화된 824
랙 824
로드 824
설계 824
흐 824
▁67 823
▁교육부는 823
▁남긴 823
▁수익성 823
▁제공되는 823
▁컨소시엄 823
▁향상에 823
▁가정의 822
▁고백 822
▁공직 822
▁과다 822
▁기간은 822
▁단계를 822
▁인력이 822
▁전국의 822
▁증정한다 822
▁해주는 822
▁협력업체 822
고의 822
▁나중에 821
▁다음으로 821
▁사업이다 821
▁스캔 821
▁안정적 821
▁앞으로는 821
▁제외한다 821
▁테스트를 821
위성 821
이니 821
효과가 821
tion 820
▁대표적이다 820
▁매칭 820
▁아직까지 820
▁압력 820
▁연애 820
▁올림픽 820
▁장기화 820
▁최소한의 820
▁회로에 820
시에는 820
지주 820
▁84 819
▁DS 819
▁공간에서 819
▁극장 819
▁불가피한 819
▁손님 819
▁우리나라는 819
▁지도부가 819
▁최악의 819
▁칼라 819
▁탁월한 819
▁파트너십을 819
문제 819
숙한 819
엔터테인먼트 819
카드를 819
▁공직선거법 818
▁귀추가 818
▁그녀는 818
▁녹화 818
▁성공적인 818
▁오를 818
▁인성 818
▁폴더블 818
내의 818
범위 818
전자의 818
▁1996 817
▁묵 817
▁사양 817
▁생각합니다 817
▁수습 817
▁시나리오 817
▁이루고 817
▁장소에 817
▁재편 817
▁질문을 817
▁충주 817
▁침투 817
▁커뮤니케이션 817
▁학생을 817
▁해수 817
면적 817
▁구축하는 816
▁놓여 816
▁매진 816
▁안팎 816
▁유용한 816
셨다 816
▁〈 815
▁걸그룹 815
▁다녀온 815
▁샘플 815
▁선정해 815
▁송출 815
▁알파 815
▁은행의 815
▁증권사 815
▁체제 815
기관은 815
발표 815
회전 815
▁공천관리 814
▁나란히 814
▁브랜드가 814
▁신뢰성 814
▁엔진의 814
▁의도 814
▁일으킬 814
▁자세 814
▁한쪽 814
▁했을 814
했는지 814
▁결과적으로 813
▁기본으로 813
▁발표할 813
▁사무실 813
▁생겼 813
▁소설 813
▁전파를 813
▁종합적으로 813
틱스 813
피를 813
IM 812
▁괜찮 812
▁들어간다 812
▁오브 812
▁증정 812
▁짧 812
▁판매는 812
▁한인 812
관리법 812
de 811
▁강화에 811
▁대다수 811
▁데이 811
▁배가 811
▁분야로 811
▁셈 811
▁인식을 811
기업을 811
러를 811
만원이 811
3' 810
▁고용을 810
▁느끼 810
▁다를 810
▁달러를 810
▁버튼을 810
▁벌였다 810
▁셋째 810
▁워낙 810
▁잃은 810
▁자동차와 810
▁찍은 810
▁특례 810
▁피할 810
넘 810
▁같습니다 809
▁기관은 809
▁듣는 809
▁무상으로 809
▁비서 809
▁이뤄지고 809
▁주유 809
▁찾지 809
격이 809
년째 809
▁가짜 808
▁대표적 808
▁세금을 808
▁소감을 808
▁수석부 808
▁안건 808
▁원심 808
▁위원장의 808
▁정신건강 808
▁회사측은 808
OC 807
▁EBS 807
▁IPTV 807
▁사건에 807
▁약을 807
▁업체들은 807
▁정보의 807
▁주도하는 807
▁주총 807
▁처분을 807
▁최첨단 807
▁탈락 807
▁회장과 807
제약 807
직자 807
▁63 806
▁나빠 806
▁넥슨 806
▁방법이다 806
▁연말까지 806
▁정기적으로 806
▁출신인 806
호와 806
▁검역 805
▁구리 805
▁저가 805
▁축구 805
▁해마다 805
게이트 805
85 804
▁"5 804
▁돌파했다 804
▁방법과 804
▁일으킨 804
▁차에 804
▁출마한 804
했다면 804
art 803
▁공공부문 803
▁그래도 803
▁김지 803
▁노드 803
▁온도가 803
▁점수를 803
▁커지는 803
기관인 803
시스템은 803
연도 803
▁공조 802
▁구성해 802
▁사용될 802
▁생태 802
▁시속 802
▁아닐 802
▁제안을 802
▁플랫폼에 802
▁학교에서는 802
▁홀로 802
▁국세 801
▁델 801
▁발을 801
▁서명 801
▁시술 801
▁쓰지 801
▁유저 801
▁육아휴직 801
▁작용할 801
▁장착한 801
▁전사 801
▁줄어드는 801
▁지키는 801
교류 801
모드 801
오프라인 801
위원회와 801
▁OST 800
▁능동 800
▁말로 800
▁무선통신 800
▁묶 800
▁방문객 800
▁차트 800
▁형성되어 800
자금을 800
층에는 800
▁걸친 799
▁넘겨 799
▁되는데 799
▁방식에 799
▁섹 799
▁수지 799
▁원작 799
▁태양전지 799
로그 799
팅을 799
DB 798
▁나오면서 798
▁둘러 798
▁뚜렷한 798
▁모터의 798
▁있을까 798
▁주장하고 798
▁지역이 798
▁활용하고 798
▁무용 797
▁상승세를 797
▁이루어져 797
▁일으키 797
▁정책의 797
▁청문 797
▁크리스 797
▁탓 797
▁행사에서 797
황을 797
▁고객들의 796
▁금감원은 796
▁데이터베이스 796
▁동향 796
▁적절 796
▁전략이 796
▁치과 796
▁타결 796
개소 796
경기도 796
통제 796
▁KAIST 795
▁RF 795
▁경우의 795
▁기록하고 795
▁당국이 795
▁비정 795
▁시세 795
▁장에게 795
▁지역경제 795
로워 795
번방 795
액에 795
▁교육이 794
▁너무나 794
▁단식 794
▁대조 794
▁연마 794
▁우대 794
▁우울 794
▁지상파 794
▁확률이 794
눈 794
달라고 794
보며 794
어질 794
일로부터 794
▁AS 793
▁가동을 793
▁귀국 793
▁돌봄교실 793
▁맺은 793
▁용산 793
▁춤 793
▁탁 793
▁펼칠 793
▁확신 793
음의 793
쟁 793
▁LP 792
▁b 792
▁금융위기 792
▁노동시장 792
▁동생 792
▁무단 792
▁미국이 792
▁소극 792
▁아니냐 792
▁않다고 792
▁전체적으로 792
▁지진 792
▁찬반 792
물류 792
호로 792
SDS 791
▁무한 791
▁벌인 791
▁수단 791
▁시의 791
▁전문의 791
▁전제로 791
▁준중형 791
▁통행 791
스피 791
시간제 791
▁경험과 790
▁고통을 790
▁나면 790
▁드릴 790
▁서비스인 790
▁시급 790
▁이지 790
▁재차 790
▁주체 790
였으며 790
ity 789
▁군산 789
▁그럴 789
▁길게 789
▁등에게 789
▁학교는 789
▁한일 789
▁활발히 789
뱅킹 789
사유 789
수수 789
▁겨울철 788
▁공정한 788
▁안정화 788
▁않으 788
▁재판에 788
▁포괄 788
▁플랫폼인 788
매를 788
에어 788
허가를 788
▁가리 787
▁낫 787
▁두려 787
▁불리 787
▁설명을 787
▁염두에 787
▁일일 787
▁일찍 787
▁자리잡 787
▁제작된 787
▁지갑 787
뇨 787
들었다 787
았으며 787
원들은 787
케이블 787
TE 786
ow 786
▁먹을 786
▁일에 786
▁전망도 786
▁제거하는 786
▁취지 786
▁통합당이 786
▁한달 786
▁협조해 786
문학 786
신한 786
▁구축에 785
▁국채 785
▁달아 785
▁메가 785
▁무더 785
▁배분 785
▁불매운동 785
▁시스템이다 785
▁안으로 785
▁야기 785
▁연구에서는 785
▁영업이익은 785
▁이어져 785
▁전체가 785
▁추첨을 785
사건 785
수출 785
▁로봇은 784
▁머물 784
▁비대 784
▁적자 784
▁직면 784
▁최소화할 784
▁향상시키고 784
쇠 784
▁가요 783
▁겉 783
▁만족도 783
▁명령을 783
▁알리 783
▁액체 783
▁어렵고 783
▁오버 783
▁전임 783
▁참여하여 783
맹 783
획 783
▁개념을 782
▁바라는 782
▁복구 782
▁서로를 782
▁어깨 782
▁여권 782
▁여부가 782
▁용도로 782
▁인구가 782
▁적용됐다 782
▁중소벤처기업 782
답게 782
만원까지 782
지원금 782
행동 782
ul 781
▁게임이 781
▁극복을 781
▁뷰 781
▁빛이 781
▁산업용 781
▁생산하고 781
▁속한 781
순위 781
용차 781
치지 781
팝 781
하셔서 781
하시는 781
4000 780
▁QLED 780
▁d 780
▁구성에 780
▁그룹의 780
▁날씨 780
▁복사 780
▁사용료 780
▁사태에 780
▁사회에 780
▁앓고 780
▁와서 780
▁일상생활 780
▁재택근무 780
▁전염병 780
▁정하고 780
▁제도가 780
▁지니 780
기자 780
ac 779
▁110 779
▁감염을 779
▁관리하고 779
▁구별 779
▁국민들이 779
▁달라고 779
▁엔씨소프트 779
▁영역에 779
▁용량을 779
▁작품이 779
▁증가로 779
▁차원 779
▁탄탄한 779
▁판결이 779
▁형식으로 779
길을 779
리다 779
센터와 779
역학 779
▁간부 778
▁금융투자 778
▁내용에 778
▁상품이 778
▁서서히 778
▁자산을 778
▁존재한다 778
▁직류 778
▁카카오는 778
났 778
냥 778
웰 778
CA 777
▁각자의 777
▁고안 777
▁리스 777
▁리얼 777
▁본부 777
▁비공개 777
▁빛의 777
▁제로 777
▁초등학생 777
▁취하고 777
▁케이팝 777
▁협력사 777
▁휴게 777
니가 777
▁기름 776
▁다루 776
▁동영상을 776
▁시장으로 776
▁시트로엥 776
▁외래 776
▁절약 776
▁정상적으로 776
▁직원의 776
▁판단에 776
▁판단하고 776
▁해당하는지 776
▁가입할 775
▁그렇다면 775
▁기판에 775
▁내부에서 775
▁데에 775
▁말부터 775
▁맥락 775
▁살균 775
▁성향 775
▁슬로 775
▁작아 775
▁패널의 775
▁휘발유 775
가격이 775
퓨 775
▁급감 774
▁대출이 774
▁뒤집 774
▁띠 774
▁미세먼 774
▁세척 774
▁적용될 774
▁편의점 774
▁확률 774
만대로 774
세와 774
측정 774
MI 773
▁들면 773
▁물에 773
▁살려 773
▁생산에 773
핏 773
▁가정에서도 772
▁뒤로 772
▁들어와 772
▁무조건 772
▁벌어지는 772
▁세우고 772
▁한미 772
결합 772
배우 772
산업진흥 772
줬 772
▁CD 771
▁경제를 771
▁김상 771
▁도요타는 771
▁들여다 771
▁상하 771
▁입지를 771
▁전문가들이 771
▁제공한 771
▁제출해 771
▁짝 771
믹 771
방과 771
쌍 771
▁개정안은 770
▁불편한 770
▁성공을 770
▁수혜 770
▁우선적으로 770
▁위의 770
▁유아 770
▁의무가 770
▁장소를 770
▁정할 770
▁차질 770
▁효율적 770
문화를 770
▁금감원 769
▁눈이 769
▁대상이다 769
▁불만을 769
▁불확실 769
▁아래로 769
▁요청을 769
▁제기되고 769
▁지원금을 769
▁청구를 769
국과 769
기업인 769
비율 769
섰 769
▁걸렸다 768
▁당연 768
▁마이크 768
▁말씀은 768
▁부회장 768
▁붙여 768
▁소지 768
▁제시한다 768
▁집중할 768
동물 768
방의 768
회사인 768
RS 767
▁각기 767
▁강서 767
▁긴장감을 767
▁나를 767
▁독일의 767
▁모자 767
▁브라운 767
▁선배 767
▁신호의 767
▁어려움 767
▁의료기기 767
▁처한 767
대사 767
우스 767
월과 767
86 766
∼10 766
▁농성을 766
▁서울의 766
▁엔터테인먼트 766
▁영업을 766
▁웨이퍼를 766
▁자녀를 766
▁침입 766
▁특정한 766
▁폐암 766
▁하나금융 766
▁하우징 766
▁해석이 766
대금 766
ine 765
▁대부분은 765
▁대체할 765
▁멸 765
▁본사에서 765
▁세제 765
▁전체적인 765
▁태도를 765
밀한 765
았는데 765
위생 765
▁기다리고 764
▁김해 764
▁선거제 764
▁수단으로 764
▁옵션 764
▁이원 764
▁줄을 764
▁항의 764
보다도 764
섬유 764
▁걸고 763
▁녹음 763
▁며칠 763
▁외출 763
▁전원이 763
기업과 763
줄래 763
홀에서 763
▁고수 762
▁곳곳에 762
▁날이 762
▁문희상 762
▁소개하는 762
▁있느냐 762
▁전작 762
▁찰 762
▁활용될 762
있어 762
터와 762
험 762
▁도래 761
▁인터넷을 761
▁자영업자 761
▁키우는 761
▁판매할 761
▁했으나 761
▁호전 761
대학원 761
파워 761
▁강요 760
▁독감 760
▁마크 760
▁목격 760
▁신입 760
▁진단했다 760
▁최다 760
▁최장 760
전지를 760
평가를 760
해지 760
▁DLF 759
▁리튬이온 759
▁스트레 759
▁온실가스 759
▁올해의 759
▁이루어지고 759
▁인터페이스 759
▁인피니티 759
▁조언 759
▁지주 759
▁차종에 759
▁콘택 759
인들에게 759
코드를 759
피고 759
▁대책이 758
▁도매 758
▁법원이 758
▁소장 758
▁아닌가 758
▁해결을 758
렸다는 758
위반 758
직한 758
CR 757
▁ID 757
▁청원 757
▁페라리 757
▁폭발적인 757
▁하락했다 757
심과 757
앙 757
친화 757
▁TF 756
▁경비를 756
▁됐다고 756
▁본질 756
▁부당한 756
▁비가 756
▁통지하여야 756
▁합의가 756
▁확산되고 756
수한 756
▁구축했다 755
▁단계에 755
▁떨어뜨 755
▁무게를 755
▁빠져나 755
▁사이클 755
▁주어 755
▁학습을 755
▁회의는 755
무는 755
절차를 755
▁변수 754
▁병상 754
▁소셜미디어 754
▁안전사고 754
▁제시하는 754
▁지수 754
▁지혜 754
▁파리 754
▁프레 754
병원이 754
빌딩 754
수단 754
제품을 754
MO 753
▁기아자동차 753
▁미국에 753
▁부지 753
▁상기와 753
▁손학규 753
▁쓰러 753
▁양육 753
▁인류 753
▁중심이 753
▁탄력근로제 753
▁프라이 753
▁한꺼번에 753
▁내보 752
▁메디 752
▁발령 752
▁본회의를 752
▁아이를 752
▁의료진이 752
▁이기 752
▁저소득층 752
▁추정되는 752
업체들이 752
켜 752
▁86 751
▁사립 751
▁설문조사 751
▁소멸 751
▁여가 751
▁일고 751
▁자격을 751
▁장면을 751
▁현대차그룹 751
노조는 751
니티 751
듬 751
문서 751
약품 751
▁개발자 750
▁교육청 750
▁될지 750
▁반박했다 750
▁분담 750
▁불만이 750
▁염증 750
▁예상하고 750
▁조심 750
▁지지율이 750
▁출퇴근 750
소자의 750
어와 750
취를 750
커머스 750
쿼 750
▁동결 749
▁등장해 749
▁박정 749
▁열린민주당 749
▁총리는 749
HD 748
▁LS 748
▁굳이 748
▁성장하는 748
▁성질 748
▁영국의 748
▁정서 748
▁참가한 748
▁챔버 748
▁화질 748
님의 748
만으로는 748
접촉 748
하가 748
화했다 748
▁고문 747
▁대통령을 747
▁부문의 747
▁촬영을 747
▁판단할 747
레이드 747
렸 747
비정규직 747
시에서 747
행위에 747
▁가족과 746
▁노이즈 746
▁받아들여 746
▁빼앗 746
▁서산 746
▁소셜네트워크서비스 746
▁소액 746
▁얘기를 746
▁이슈가 746
▁인사청문 746
▁읽어 746
▁전국적으로 746
▁출시한다고 746
▁프랑 746
▁한도 746
강의 746
신종 746
틸 746
41 745
▁근접 745
▁금호 745
▁기업이다 745
▁넷마블 745
▁뛰어들 745
▁생산이 745
▁여지가 745
▁제공을 745
▁파티 745
▁검찰의 744
▁공표 744
▁구형 744
▁국무총리 744
▁김병 744
▁매력이 744
▁약한 744
▁인접 744
▁임단협 744
▁체류 744
▁칠 744
▁혹 744
됐기 744
자고 744
▁고도화 743
▁관절 743
▁당이 743
▁몬 743
▁상승했다 743
▁상품의 743
▁시뮬레이션 743
▁역을 743
▁옷을 743
▁지방선거 743
▁해체 743
빔 743
영화제 743
장기 743
▁기반이 742
▁방송인 742
▁불가능하다 742
▁사설 742
▁실시했다 742
과정을 742
프라 742
id 741
▁140 741
▁감독은 741
▁당한 741
▁돌아온 741
▁미생물 741
▁성장하고 741
▁신선 741
▁유인 741
▁인수한 741
▁자신감을 741
▁잠복 741
▁촉 741
▁한진칼 741
산업이 741
식에는 741
우기 741
해서는 741
▁각국 740
▁갱신 740
▁기원 740
▁달성했다 740
▁떠난 740
▁서초구 740
▁조사에서 740
▁진심으로 740
▁토양 740
▁판단한 740
▁혜 740
계열 740
나눔 740
마력 740
시면 740
▁물량을 739
▁밝은 739
▁벌어진 739
▁베타 739
▁승리를 739
▁절단 739
가스를 739
면허 739
보전 739
▁감기 738
▁권역 738
▁까 738
▁돌출 738
▁연봉 738
▁이것을 738
▁제이 738
▁지구의 738
▁찌 738
▁참고하시어 738
▁첨부 738
▁최소한 738
▁폭을 738
매체 738
순환 738
처분을 738
▁연이어 737
▁의원도 737
▁있었다는 737
▁현대차와 737
▁환급 737
전력 737
해지면서 737
▁XM 736
▁거쳐야 736
▁대응에 736
▁비전을 736
▁수소를 736
▁신중 736
▁실시한다고 736
▁인원 736
▁출시될 736
▁통신을 736
거리는 736
냐는 736
론은 736
민은 736
증진 736
현은 736
▁개통 735
▁과태료 735
▁권력 735
▁금융기관 735
▁날을 735
▁마약 735
▁셋 735
▁소매 735
▁와이파이 735
▁작곡 735
▁토크 735
▁현지에서 735
▁혈압 735
기인 735
꺼 735
냈 735
동과 735
음으로 735
저항 735
중심 735
9000 734
→ 734
▁금융회사 734
▁바람에 734
▁신라 734
▁오리지널 734
▁요구하며 734
▁이익이 734
▁저금리 734
▁정원 734
▁취약계층에 734
▁0% 733
▁경영권 733
▁공장의 733
▁궁금증이 733
▁벌이는 733
▁붙어 733
▁알려주는 733
▁업체와 733
▁중국과 733
▁파산 733
농협 733
방역 733
헬스케어 733
▁금액이 732
▁금호타이어 732
▁링크 732
▁만이다 732
▁열악한 732
▁오해 732
▁일부는 732
▁입금 732
▁저축은행 732
▁조사가 732
병을 732
왜 732
지역에서 732
▁균일하게 731
▁속에서도 731
▁아마 731
▁이용을 731
▁캔 731
▁휴직 731
개에 731
공학과 731
▁간담회를 730
▁강점 730
▁고창 730
▁남다른 730
▁놓은 730
▁방송에 730
▁벗 730
▁변화하는 730
▁복수 730
▁앱에서 730
▁요소가 730
▁유럽에서 730
▁은퇴 730
▁자발적으로 730
▁지침을 730
▁출동 730
▁크루즈 730
▁필리핀 730
▁후보에 730
속도 730
▁72 729
▁교육의 729
▁규칙으로 729
▁근로기준법 729
▁기구 729
▁미래통합당이 729
▁바이어 729
▁사회를 729
▁소개하고 729
▁시민의 729
▁시험을 729
▁응시 729
▁핸드폰 729
▁QR 728
▁고객들에게 728
▁권유 728
▁내용으로 728
▁느낌이 728
▁상무 728
▁생명을 728
▁소개한다 728
▁수행하기 728
▁업체를 728
▁이들에게 728
▁초소형 728
▁훌륭한 728
다리 728
스타트업 728
웨 728
환자가 728
▁1.5 727
▁1500 727
▁구축한 727
▁그저 727
▁남성은 727
▁내용과 727
▁되자 727
▁로봇의 727
▁불균 727
▁여름방학 727
▁역학 727
▁자택 727
▁제조하는 727
▁주장은 727
▁처리하기 727
▁추모 727
▁획기적으로 727
라의 727
빠 727
움과 727
은행과 727
음은 727
전쟁 727
im 726
▁CR 726
▁과잉 726
▁국민에게 726
▁귀가 726
▁내세 726
▁당황 726
▁반면에 726
▁법을 726
▁불을 726
▁성과가 726
▁시청률 726
▁여론이 726
▁조율 726
▁현대차그룹은 726
년대에 726
니어 726
배에 726
▁기아차의 725
▁단말기를 725
▁수행하고 725
▁쌍용 725
▁알려드립니다 725
▁영구 725
▁유무 725
▁집중하고 725
▁포드는 725
▁합산 725
녕 725
라서 725
시청 725
유니 725
지역에 725
▁1. 724
▁간사 724
▁거리두기 724
▁낮춰 724
▁부르 724
▁어린이들이 724
▁지키기 724
▁춘천 724
멜 724
분으로 724
자격 724
▁3∼4 723
▁높아지는 723
▁뚫 723
▁부품의 723
▁부합 723
▁첫날 723
리브 723
육성 723
지기도 723
큰 723
tic 722
▁경량 722
▁공동체 722
▁기금의 722
▁대상자 722
▁삭 722
▁인디 722
▁재능 722
▁최근에 722
▁학생과 722
▁160 721
▁In 721
▁공급하고 721
▁사례로 721
▁손으로 721
▁에너지가 721
▁전역 721
▁중이던 721
▁학년 721
개사 721
령이 721
병원과 721
브랜드 721
살을 721
팀의 721
▁62 720
▁강서구 720
▁게임에 720
▁교차 720
▁그게 720
▁다름 720
▁리모콘 720
▁모듈을 720
▁민감한 720
▁보험금 720
▁스트레스 720
▁업무상 720
▁연동형 720
▁연상 720
▁이었다 720
온은 720
▁77 719
▁고효율 719
▁닦 719
▁사진이 719
▁새마을 719
▁서울에서 719
▁에칭 719
▁연평균 719
▁이끌고 719
▁주목할 719
▁차지한 719
▁형식 719
경험 719
미술 719
하겠습니다 719
▁게임은 718
▁내릴 718
▁맞았다 718
▁소리가 718
▁안정을 718
▁압수수색 718
▁저렴 718
▁전면에 718
▁전신 718
▁전지는 718
▁체감 718
공화 718
스럽다 718
인프라 718
일인 718
진한 718
층으로 718
해보 718
MOU 717
▁개방형 717
▁기아자동차가 717
▁들어갔 717
▁보고서는 717
▁사용된 717
▁오르는 717
▁이동통신단말 717
▁자진 717
공정을 717
연합회 717
컴퍼니 717
하길 717
▁남겨 716
▁백화점 716
▁셰 716
▁영상은 716
▁올레드 716
▁이념 716
▁초고속 716
▁통합당은 716
▁포함되어 716
두고 716
백을 716
본부가 716
사업은 716
신호의 716
예정 716
통이 716
파트너 716
▁게임의 715
▁구체적 715
▁깃 715
▁넘어선 715
▁반대하는 715
▁뽐 715
▁선정한 715
▁수요에 715
▁영업이익이 715
▁외국인이 715
▁이진 715
▁조언했다 715
▁푸른 715
▁행보를 715
▁협상이 715
아를 715
증은 715
지능 715
집니다 715
차단 715
치게 715
▁감동을 714
▁과정은 714
▁내역 714
▁단계에서 714
▁밸 714
▁비트코인 714
▁속하는 714
▁수상한 714
▁싱 714
▁없다면 714
▁운영되고 714
▁운영하고자 714
▁제공하며 714
▁케미 714
▁호기심을 714
붙 714
신청서를 714
오를 714
터로 714
회사를 714
42 713
▁"4 713
▁6000 713
▁76 713
▁날짜 713
▁보고서 713
▁신생 713
▁연임 713
▁유급 713
▁지역별 713
▁홍준표 713
경은 713
센서 713
여명 713
의로 713
▁개성 712
▁개최하고 712
▁다루는 712
▁때문이라고 712
▁만나는 712
▁배터리의 712
▁보상을 712
▁엘리 712
▁요청한 712
▁웨어러블 712
▁재건축 712
▁주류 712
▁직원은 712
▁탄력 712
격리 712
매출 712
절한 712
했었다 712
▁61 711
▁계기판 711
▁구성하여 711
▁대대적인 711
▁소자를 711
▁암호화 711
▁요구되는 711
▁정세균 711
▁차폐 711
▁프로젝 711
교섭 711
링크 711
안내 711
이야 711
타이어 711
하시고 711
8000 710
DR 710
▁2023 710
▁값이 710
▁두루 710
▁똑같은 710
▁봉쇄 710
▁선제적으로 710
▁애플리케이션을 710
▁웅 710
▁이영 710
▁일본이 710
▁해결하는 710
▁확대와 710
희망 710
▁매장을 709
▁사망자는 709
▁안내를 709
▁양국 709
▁예방접종을 709
▁인수합병 709
▁조사하고 709
▁주파 709
▁체중 709
▁평가하는 709
면과 709
부족 709
형과 709
▁LA 708
▁들어온 708
▁많다는 708
▁미래에셋 708
▁발효 708
▁상세 708
▁승계 708
▁여부는 708
▁연결해 708
▁외부로 708
▁일일이 708
▁질을 708
▁칭찬 708
▁폭로 708
도우 708
리도 708
의무 708
▁근처 707
▁되찾 707
▁레이더 707
▁릴레이 707
▁미용 707
▁배제할 707
▁상품에 707
▁연초 707
▁올릴 707
▁전류를 707
▁지난해보다 707
▁집중되고 707
▁철강 707
▁체계적으로 707
▁펀 707
렀다 707
음과 707
찌 707
처분의 707
8, 706
▁350 706
▁4. 706
▁강동 706
▁견제 706
▁구현하는 706
▁내용이다 706
▁송파 706
▁않았을 706
▁외화 706
▁이듬해 706
▁저장된 706
▁주민들이 706
▁즐 706
▁추억 706
▁홈쇼핑 706
경남 706
덤 706
렸다고 706
엔진 706
징수 706
타운 706
타워 706
▁느낀 705
▁단계로 705
▁문학 705
▁애초 705
▁여는 705
▁이날부터 705
▁임직 705
▁전국에서 705
▁챗봇 705
▁척추 705
꼬 705
▁MariaDB 704
▁구급 704
▁무엇을 704
▁번도 704
▁보내고 704
▁수익률이 704
▁이어갔다 704
금에 704
모델을 704
블록체인 704
CM 703
▁경제에 703
▁기후변화 703
▁나가겠다 703
▁분야별 703
▁산업재해 703
▁스타트업이 703
▁안보 703
▁일도 703
▁전문성을 703
▁주의를 703
▁중저가 703
▁처음에는 703
▁청문회 703
▁팝 703
▁하니 703
심은 703
준의 703
77 702
▁보건의료 702
▁보호하는 702
▁브리핑에서 702
▁실력을 702
▁용이한 702
▁의석을 702
▁청정 702
▁플라 702
동작 702
라가 702
분리 702
어졌다 702
증명 702
▁IBM 701
▁가격으로 701
▁강의를 701
▁공동대표 701
▁내년에 701
▁대가 701
▁돕는다 701
▁선보여 701
▁썼다 701
▁알려줄래 701
▁차이는 701
▁파급 701
▁확보가 701
봄 701
수급 701
이거나 701
▁경험할 700
▁발표하고 700
▁부드러운 700
▁상무는 700
르면 700
▁in 699
▁개선하는 699
▁거세 699
▁공격적인 699
▁생겼다 699
▁소진 699
▁아니하다 699
▁여름철 699
▁전달할 699
▁집회를 699
▁판매된 699
데이터를 699
도서 699
티는 699
해줄 699
혔 699
∼5 698
▁각호의 698
▁깨달 698
▁북한의 698
▁불가피 698
▁사찰 698
▁솔로 698
▁영화는 698
▁이미지가 698
▁투자할 698
▁해명했다 698
관에게 698
샘 698
수단을 698
안으로 698
▁MongoDB 697
▁나눈 697
▁물질이 697
▁발견한 697
▁사업과 697
▁성장에 697
▁이목이 697
▁있어도 697
▁중국인 697
▁컬 697
▁플랫폼이 697
교육에 697
나이 697
마는 697
운영할 697
행사를 697
▁강화하기 696
▁강화했다 696
▁김기 696
▁김희 696
▁낮게 696
▁느껴지는 696
▁따져 696
▁물량이 696
▁발견된 696
▁상가 696
▁완공 696
▁응모 696
▁의견도 696
▁치러 696
▁콩 696
▁협조하여 696
▁확대되고 696
롯 696
보에 696
빗 696
시간은 696
쓸 696
용을 696
운동을 696
윙 696
up 695
▁2.0 695
▁근본적인 695
▁연결되는 695
▁왼쪽 695
▁이겨 695
만명의 695
외과 695
▁당뇨 694
▁당원 694
▁래 694
▁바람직 694
▁상당수 694
▁얘기가 694
▁정통 694
▁지키고 694
▁채팅 694
▁초기에 694
▁텔레비전 694
▁화면에 694
▁확인하기 694
▁회생 694
됨을 694
미국 694
▁과학적 693
▁멈추 693
▁밝혀졌다 693
▁부부가 693
▁사로잡았다 693
▁착신 693
▁촬영한 693
▁출력을 693
▁출원 693
▁행정안전 693
실장은 693
여부 693
짐에 693
▁관측도 692
▁로보 692
▁옆에 692
▁있었습니다 692
▁주의가 692
▁청춘 692
▁총리 692
노총 692
어린이 692
▁69 691
▁74 691
▁막말 691
▁미루 691
▁비롯하여 691
▁서식에 691
▁컨셉트카 691
시쯤 691
저장 691
▁ES 690
▁SKT 690
▁개원 690
▁고려대 690
▁국내에서도 690
▁놀라운 690
▁무산 690
▁받았던 690
▁브라 690
▁연계한 690
▁예산이 690
▁인사들이 690
▁중대한 690
▁질의 690
만원씩 690
서버 690
해외 690
헬 690
NS 689
▁달라진 689
▁돌아왔다 689
▁밖에도 689
▁받으면서 689
▁사물 689
▁연다 689
▁원료 689
방향으로 689
불이 689
원에게 689
환이 689
FC 688
▁답변을 688
▁리츠 688
▁무엇이 688
▁밀어 688
▁시작되는 688
▁연세대 688
▁전직 688
▁촛불 688
▁크로스 688
▁투과 688
▁하므로 688
▁혹시 688
▁환송한다 688
른다 688
작업을 688
▁고용안정 687
▁금연 687
▁논의했다 687
▁되길 687
▁보장하는 687
▁부분변경 687
▁분이 687
▁성폭력 687
▁신청하면 687
▁신탁 687
▁의혹에 687
▁전문가가 687
▁제거할 687
▁코란도 687
산은 687
▁결정된 686
▁경감 686
▁공간으로 686
▁과열 686
▁구할 686
▁균일한 686
▁근본 686
▁꼬집었다 686
▁낮추 686
▁변화는 686
▁변화와 686
▁성동 686
▁이것 686
▁적용하여 686
▁체제를 686
▁클래스 686
▁투약 686
▁황금 686
오가 686
협약 686
SE 685
▁개선하고 685
▁끊이지 685
▁넘지 685
▁도지사가 685
▁바꾼 685
▁반송 685
▁변동성이 685
▁불거진 685
▁생산된 685
▁선정했다 685
▁좁은 685
▁출시한다 685
▁행사로 685
▁향상되는 685
▁효과는 685
긴다 685
렀 685
브를 685
센트 685
스턴 685
운영에 685
위탁 685
조작 685
aaS 684
▁겪은 684
▁알코올 684
▁워크숍 684
▁원칙을 684
▁인식하고 684
▁체결하고 684
군과 684
기존 684
위치 684
하였다고 684
∼1 683
▁2020' 683
▁88 683
▁갈아 683
▁개인정보를 683
▁기자회견 683
▁세상에 683
▁신년 683
▁일정이 683
▁조현 683
▁챙겨 683
▁카메라가 683
▁팔아 683
▁플랫폼은 683
단에서 683
소프트 683
진영 683
ate 682
▁구성한 682
▁노무현 682
▁마포구 682
▁멋 682
▁방송통신 682
▁번의 682
▁송가 682
▁예상보다 682
▁자회사인 682
▁장점 682
▁지지하는 682
▁패밀리 682
교육청은 682
이온 682
젓 682
▁OS 681
▁f 681
▁공기를 681
▁광명 681
▁다문화 681
▁발전과 681
▁벼 681
▁살아가는 681
▁의정 681
▁이스라엘 681
랭 681
스쿨 681
정부의 681
폐기 681
회의는 681
▁담임 680
▁더블 680
▁부담한다 680
▁어플리케이션 680
▁연결되어 680
▁전략공천 680
▁정신을 680
▁정유 680
▁컴백 680
▁하나를 680
의학과 680
짝 680
▁78 679
▁긍정 679
▁깔 679
▁다니는 679
▁도민 679
▁매력적인 679
▁얇 679
▁접촉을 679
▁제작해 679
죄의 679
프린 679
▁1991 678
▁관계자들이 678
▁규칙은 678
▁높다고 678
▁멤버십 678
▁신흥 678
▁업체들의 678
▁이용자의 678
▁일대 678
▁체포 678
▁회장을 678
라이프 678
아트 678
웃 678
76 677
▁IC 677
▁개선한 677
▁공개하고 677
▁소정 677
▁우리에게 677
▁인원이 677
▁차종은 677
▁출생 677
▁파운드리 677
레이터 677
산업을 677
심판 677
쥐 677
▁9, 676
▁가까 676
▁경보 676
▁교육감 676
▁기반한 676
▁목포 676
▁서울대병원 676
▁시책을 676
▁외의 676
▁위원장과 676
▁인수를 676
▁판단하는 676
▁한국자동차 676
모터쇼에서 676
서류 676
수당을 676
환자는 676
▁공업 675
▁국산화 675
▁낮출 675
▁됐다는 675
▁들어오 675
▁배우들이 675
▁벌어졌다 675
▁변속기 675
▁생긴다 675
▁수성 675
▁올해로 675
○○ 675
배송 675
월말 675
이런 675
In 674
▁과거의 674
▁과장 674
▁관악 674
▁기어 674
▁노동계 674
▁되기를 674
▁두는 674
▁들어오는 674
▁말은 674
▁맞추 674
▁명확한 674
▁부작용이 674
▁산업혁 674
▁수탁자는 674
▁스탠 674
▁심재철 674
▁어렵 674
▁용접 674
▁잇 674
▁제기된 674
▁종전 674
▁최우선 674
▁콘텐츠가 674
▁타이틀 674
▁확실하게 674
립을 674
종으로 674
∼8 673
▁가져올 673
▁검색어 673
▁대구에서 673
▁오픈뱅킹 673
▁조치로 673
▁최대의 673
상품을 673
셔서 673
아직 673
으로의 673
특허 673
폐기물 673
희는 673
▁79 672
▁간단하게 672
▁고용노동 672
▁그렇 672
▁기독교 672
▁블루투스 672
▁이루어진다 672
▁즐거 672
▁최저임금을 672
▁충청 672
▁취지다 672
▁환원 672
▁1987 671
▁늘리 671
▁사망했다 671
당국 671
잘 671
▁95 670
▁곤 670
▁높아진다 670
▁리니지 670
▁미생 670
▁이용하고 670
▁주문했다 670
▁중소기업이 670
▁청도 670
▁트렌드를 670
만원에서 670
보험은 670
억원에서 670
용이 670
조로 670
지대 670
▁7000 669
▁간담회 669
▁넓혀 669
▁다음의 669
▁도구 669
▁반박 669
▁불공정 669
▁시행한 669
▁쌓아 669
▁중견 669
▁진출한 669
▁펼치는 669
▁횡 669
공장은 669
업계가 669
의약품 669
트랙 669
힌다 669
▁나누는 668
▁내세운 668
▁스크 668
▁스테이 668
▁약속했다 668
▁위주의 668
▁자신에게 668
▁조건이 668
▁통화에서 668
▁판단이다 668
▁하락한 668
굿 668
시하는 668
▁개인정보보호 667
▁개최된 667
▁밀레니얼 667
▁사회가 667
▁수출이 667
▁출시했다고 667
묵 667
창출 667
▁구매하는 666
▁빌딩 666
▁서로의 666
▁서버를 666
▁전극을 666
▁정책과 666
▁최소화하기 666
▁트로트 666
▁학교폭력 666
▁합의한 666
화하여 666
▁격차가 665
▁도움 665
▁만성질환 665
▁몸이 665
▁무력 665
▁방문하는 665
▁소환 665
▁의지 665
▁짐 665
▁집으로 665
▁판매대 665
▁표를 665
▁협의체 665
문은 665
성장을 665
▁골목 664
▁관행 664
▁노원 664
▁대상에서 664
▁맺었다 664
▁메타 664
▁민생당 664
▁발표를 664
▁색깔 664
▁아버지가 664
▁알지 664
▁업계가 664
▁적법 664
▁전압을 664
▁전자파 664
▁직속 664
▁집합 664
▁추첨 664
▁칼럼 664
▁허브 664
대책을 664
시켜야 664
장관 664
중의 664
해주고 664
▁갚 663
▁거점 663
▁노동자를 663
▁동남아시아 663
▁동아 663
▁살인 663
▁섞 663
▁성장했다 663
▁소프트웨어를 663
▁수송 663
▁야생 663
▁어렵다고 663
▁의미로 663
▁있었으나 663
▁폭염 663
▁힘들다 663
곳에서 663
교육의 663
뮤직 663
선택 663
해달라 663
UN 662
▁겨우 662
▁고전 662
▁대치 662
▁목소리도 662
▁박스 662
▁분열 662
▁비중 662
▁여신 662
▁위반한 662
▁제시하고 662
▁중점을 662
▁포함된다 662
관제 662
론의 662
원한 662
일수록 662
적이었다 662
증으로 662
추천 662
하실 662
▁거둔 661
▁그러니까 661
▁나누고 661
▁나타 661
▁녹아 661
▁모양의 661
▁무죄 661
▁문제와 661
▁발산 661
▁붉은 661
▁선택적으로 661
▁소위 661
▁손가락 661
▁수소연료전지 661
▁양이 661
▁전문가들의 661
▁정규직으로 661
▁판단해 661
▁편안한 661
려야 661
토론 661
ab 660
th 660
▁GPS 660
▁간단 660
▁구입할 660
▁금액은 660
▁대개 660
▁방역당국은 660
▁않는다면 660
▁종래에는 660
▁직접고용 660
온이 660
AV 659
ess 659
▁1994 659
▁거창 659
▁결산 659
▁곤란 659
▁국민들의 659
▁끝나면 659
▁다행히 659
▁대주주 659
▁변호사는 659
▁어디서나 659
▁오래된 659
▁위기가 659
가구 659
변환 659
ss 658
▁x 658
▁기준금리 658
▁사라진 658
▁사례도 658
▁속출 658
▁중재 658
해주시기 658
▁대국민 657
▁돕 657
▁목록 657
▁서스펜션 657
▁성장한 657
▁소비자를 657
▁실력 657
▁운영과 657
▁일자리가 657
▁잇달아 657
▁지식재산 657
▁희망을 657
기준에 657
키는 657
▁개표 656
▁기계적 656
▁대응이 656
▁대항 656
▁떠오 656
▁보컬 656
▁상처 656
▁차종의 656
▁평판 656
▁플러그인 656
퍼센 656
플라 656
하듯 656
▁고용부 655
▁공유할 655
▁광진구 655
▁넷플릭스 655
▁누군 655
▁사업자가 655
▁성분이 655
▁잇따 655
▁자국 655
▁적절히 655
▁전자담배 655
▁좋고 655
▁최고위원은 655
기아차 655
라스 655
번에 655
으로서의 655
판결 655
해가 655
▁국민을 654
▁단계적으로 654
▁들은 654
▁소프트뱅크 654
▁안정성 654
▁연쇄 654
▁일할 654
▁자를 654
▁현저히 654
▁협회 654
국회 654
기아차는 654
러리 654
병원의 654
선수 654
요구 654
지침 654
채를 654
특성을 654
현실 654
▁기술인 653
▁뜻한다 653
▁뭉 653
▁양호 653
▁얻기 653
▁여객 653
▁영위 653
▁예방할 653
▁예전 653
▁주어진 653
▁퍼져 653
▁평면 653
스톤 653
▁CO 652
▁개최한 652
▁건물을 652
▁느끼고 652
▁떡 652
▁매개 652
▁발족 652
▁수익률 652
▁식사를 652
▁일자 652
▁잔여 652
▁중성 652
▁쿠폰 652
▁타당 652
▁협박 652
▁협업해 652
▁감소시킬 651
▁감싸 651
▁기사를 651
▁디즈니 651
▁받고자 651
▁세련된 651
▁시동을 651
▁양쪽 651
▁영역의 651
▁유독 651
▁이룬 651
▁줄고 651
▁케이스 651
▁터미널 651
▁확인을 651
노트 651
지도록 651
지표 651
CES 650
▁공정에 650
▁달라질 650
▁허리 650
▁형상 650
▁활용하면 650
▁규탄 649
▁긴급재난지원금 649
▁도널드 649
▁악용 649
▁우위를 649
▁진도 649
▁화웨이는 649
대한민국 649
방식을 649
사업으로 649
인인 649
19' 648
ack 648
▁갔다 648
▁당첨 648
▁대륙 648
▁멈춰 648
▁신용등급 648
▁실질적으로 648
▁역동적인 648
▁연구진은 648
▁인출 648
▁플래 648
▁확인이 648
됐으나 648
스팅 648
시장과 648
업은 648
웠던 648
▁AWS 647
▁강세를 647
▁극심한 647
▁시일 647
▁아끼지 647
▁일명 647
▁저작 647
▁펼쳤다 647
▁한은 647
동에서 647
하였는데 647
▁나라의 646
▁돕고 646
▁드림 646
▁디스플레이를 646
▁발생이 646
▁부분의 646
▁부양 646
▁앞장서 646
▁지지율 646
▁체제로 646
▁탓이다 646
감으로 646
손실 646
실한 646
였는데 646
채무 646
하늘 646
회복 646
and 645
▁건축물 645
▁구성됐다 645
▁비용으로 645
▁성장과 645
▁유죄 645
▁이보다 645
▁읽고 645
▁있었기 645
▁전송하는 645
▁코나 645
▁향상과 645
▁호평 645
뚝 645
스럽 645
텔레콤과 645
호흡 645
ag 644
▁900 644
▁가죽 644
▁강구 644
▁상품권 644
▁신동 644
▁오른쪽 644
▁유엔 644
▁접목한 644
▁지자 644
▁처음부터 644
▁특이 644
이노 644
지난해 644
▁가축 643
▁동행 643
▁비영리 643
▁소통을 643
▁수단을 643
▁운전자에게 643
▁원격수업 643
▁유럽의 643
▁율 643
▁일선 643
▁통상임금 643
▁투자자들의 643
놈 643
비례 643
비아 643
셉 643
운행 643
TA 642
▁게이 642
▁단단 642
▁드러난 642
▁생각할 642
▁손잡 642
▁수거 642
▁스토어 642
▁열이 642
▁전제 642
▁팀이 642
국인 642
동은 642
▁DC 641
▁더불어민주당과 641
▁미스터 641
▁블룸버그 641
▁온실 641
▁장거리 641
▁차입 641
▁참가를 641
▁최선의 641
▁한시적으로 641
강을 641
국장은 641
리트 641
못 641
밭 641
지거나 641
희의 641
▁금융위는 640
▁다르 640
▁달린 640
▁받도록 640
▁붐 640
▁서면으로 640
▁수익성이 640
▁쏘울 640
▁예방에 640
▁원리를 640
▁유지하기 640
▁클래식 640
▁파라 640
난을 640
대통령 640
물질이 640
변화 640
풍이 640
IB 639
▁더불어민주당은 639
▁뚜렷 639
▁문제다 639
▁불어 639
▁수익이 639
▁수차례 639
▁오직 639
▁중심에 639
▁짚 639
▁처리에 639
▁필요에 639
▁확대한다 639
컴퓨터 639
ell 638
▁강화된 638
▁개발했다고 638
▁규정된 638
▁나서야 638
▁낮다 638
▁농민 638
▁상해 638
▁운영해 638
▁있으 638
▁재단 638
▁전하는 638
▁주소를 638
▁주장에 638
▁중요하다고 638
도체 638
시스템에서 638
의결 638
프라이 638
▁가입을 637
▁강화한 637
▁계약이 637
▁기체 637
▁김씨는 637
▁니켈 637
▁본회의에서 637
▁분비 637
▁비주얼 637
▁서킷 637
▁선택하는 637
▁숫자 637
▁일본은 637
▁좁 637
▁후보자는 637
사진 637
승인 637
연결 637
적이라는 637
책이 637
패턴 637
▁구글은 636
▁글이 636
▁내놓았다 636
▁대표이 636
▁랜 636
▁무거운 636
▁바가 636
▁설치되는 636
▁유지하면서 636
▁자유로운 636
▁재학 636
데도 636
시길 636
의학 636
주의를 636
주지 636
특례 636
펙 636
▁고용부는 635
▁급증하고 635
▁낮추는 635
▁노동자들은 635
▁드러내 635
▁밀접 635
▁보수통합 635
▁봐도 635
▁선사했다 635
▁성명을 635
▁심상정 635
▁음성인식 635
▁주도권을 635
▁햇 635
▁확정했다 635
는지를 635
재와 635
해달라고 635
▁대략 634
▁사용에 634
▁수명을 634
▁썼 634
▁염려 634
▁외부에 634
▁의결을 634
▁출연한다 634
▁표결 634
가공 634
드림 634
장도 634
조는 634
회장이 634
▁"1 633
▁IS 633
▁TSMC 633
▁[ 633
▁당시의 633
▁돼야 633
▁마련을 633
▁병원은 633
▁삼척 633
▁유니콘 633
▁일시적으로 633
▁임기가 633
▁전문가를 633
▁천재 633
▁취소한다 633
▁흐름이 633
간접 633
되었다고 633
략 633
리한 633
저는 633
타입 633
▁각광 632
▁계류 632
▁고개를 632
▁공동연구 632
▁납세 632
▁놓인 632
▁막판 632
▁물품을 632
▁상황에서도 632
▁섀 632
▁싸움 632
▁어긋 632
▁영등포 632
▁터져 632
▁플랫폼이다 632
▁0.0 631
▁기준은 631
▁김승 631
▁멜로 631
▁변경할 631
▁부추 631
▁시설이 631
▁신원 631
▁아름다 631
▁자라 631
▁직영 631
▁직장인 631
▁토요일 631
▁형태가 631
기본법 631
변을 631
진흥원 631
참가 631
44 630
SK 630
▁국가에서 630
▁그러다 630
▁상처를 630
▁원리 630
▁위법이 630
▁적격 630
라운드 630
만개 630
회사는 630
▁1989 629
▁관계에 629
▁그녀가 629
▁단체협약 629
▁명단을 629
▁부사장 629
▁신속하고 629
▁요금제 629
▁있어서는 629
▁저해 629
▁지도부 629
▁측근 629
▁패키 629
▁후방 629
▁흙 629
들께 629
원도 629
주파 629
▁XC 628
▁가정용 628
▁김포 628
▁나이가 628
▁댁내 628
▁설립을 628
▁설치를 628
▁스펙트럼 628
▁역사적 628
▁왜냐하면 628
▁점검하고 628
▁증시가 628
▁고려해야 627
▁공장은 627
▁관통 627
▁교정 627
▁당사자 627
▁디지탈 627
▁마침내 627
▁본교는 627
▁일련의 627
▁장기적으로 627
▁즐거움을 627
▁투쟁을 627
▁프린 627
▁한국문화 627
러가 627
흡 627
IA 626
▁겨 626
▁계약직 626
▁고민이 626
▁교보 626
▁당국의 626
▁데이터는 626
▁됐고 626
▁만일 626
▁앞으로의 626
▁앱스토어 626
▁장소에서 626
▁지리 626
▁체험학습 626
▁충당 626
▁표현할 626
▁호흡을 626
▁훈 626
▁휠베이 626
끔 626
넌 626
횡 626
▁가까워 625
▁그렇다고 625
▁기금운용 625
▁떨어지고 625
▁배우는 625
▁본회의에 625
▁에피소 625
▁위험에 625
▁전이 625
▁정년 625
▁펭 625
▁흡입 625
사이드 625
컵 625
▁고민을 624
▁구매한 624
▁남부 624
▁람보르기니 624
▁미래에 624
▁여섯 624
▁영광 624
▁일제히 624
▁저온 624
▁제공했다 624
▁중에서는 624
▁패키지를 624
▁흥미를 624
되었습니다 624
사업법 624
원장 624
인력을 624
▁공식적으로 623
▁균형을 623
▁끝나고 623
▁부위원장 623
▁빨간 623
▁사유를 623
▁스포 623
▁신뢰성이 623
▁양측 623
▁취지의 623
▁확진환자 623
계에서 623
비용은 623
용역 623
패를 623
해볼 623
ion 622
▁기도 622
▁네이버가 622
▁동양 622
▁듯하다 622
▁법조 622
▁부평 622
▁오고 622
▁요구된다 622
▁웨이 622
▁익숙한 622
▁중앙선거관리 622
▁참여가 622
교를 622
기업은 622
떡 622
여자 622
전국 622
정도 622
혈관 622
홍보 622
▁근로기준 621
▁긍정적으로 621
▁넷플릭 621
▁노무 621
▁민주노총은 621
▁바뀐 621
▁병원이 621
▁실태 621
▁예컨대 621
▁일각에선 621
▁작고 621
▁적고 621
▁조절하는 621
▁체질 621
▁캐시 621
▁한하여 621
고등 621
방해 621
업체에 621
엣 621
잇 621
피아 621
▁St 620
▁감소하는 620
▁건전 620
▁계획하고 620
▁매립 620
▁산업은 620
▁소중 620
▁수료 620
▁야당이 620
▁주가는 620
▁중점 620
▁탐구 620
나고 620
다른 620
리자 620
보고서 620
향후 620
▁국토교통 619
▁그에게 619
▁끝나는 619
▁말하며 619
▁설립되었다 619
▁신제품을 619
▁아들이 619
▁않거나 619
▁이력 619
▁자존 619
▁정신질환 619
▁참조 619
▁화폐 619
▁확대했다 619
동기 619
보유 619
상도 619
9, 618
▁공개해 618
▁공진 618
▁성격을 618
▁센터를 618
▁소년 618
▁실질 618
▁안내하오니 618
▁올리 618
▁의식을 618
▁인포테인먼트 618
▁전에는 618
▁정은경 618
▁클럭 618
곡을 618
사회복지 618
▁가능합니다 617
▁과감한 617
▁도입된 617
▁보도에 617
▁상승을 617
▁시행한다 617
담보 617
모터쇼 617
사한 617
어링 617
워치 617
▁개정을 616
▁극복하기 616
▁달할 616
▁데이타 616
▁무제한 616
▁억제할 616
▁전당 616
▁증빙 616
▁최고급 616
▁측정하는 616
▁행태 616
기사 616
되었는데 616
레벨 616
르며 616
속을 616
홈쇼핑 616
▁관련해서는 615
▁구글의 615
▁그와 615
▁미만의 615
▁반해 615
▁생산성이 615
▁세력 615
▁순매도 615
▁열차 615
▁외부에서 615
▁장관과 615
▁제보 615
▁조정을 615
▁지니고 615
▁코일 615
▁투자자가 615
▁편향 615
▁학교가 615
▁함양 615
▁합리적 615
▁호환 615
냉 615
여명을 615
욕을 615
행위가 615
ED 614
▁CBS 614
▁of 614
▁구민의 614
▁대두 614
▁대형마트 614
▁되었고 614
▁모두의 614
▁상대방 614
▁연도 614
▁이동하는 614
▁정례 614
▁표시장 614
▁학교생활 614
년여 614
번호를 614
우리가 614
인구 614
∼9 613
▁'4 613
▁82 613
▁가사 613
▁감찰 613
▁교수의 613
▁그럼 613
▁남원 613
▁봉준호 613
▁진단검사를 613
▁체험을 613
▁칭 613
▁평탄 613
▁확진환자가 613
검진 613
공무 613
리안 613
병이 613
티를 613
IG 612
▁1950 612
▁API 612
▁가늠 612
▁골자로 612
▁급속히 612
▁나오면 612
▁마이너스 612
▁사건은 612
▁운전석 612
▁있는지를 612
▁전환하는 612
▁차례로 612
▁총선이 612
▁콘솔 612
▁학교생활을 612
▁활동하는 612
▁후문이다 612
렸지만 612
탱 612
회장은 612
1' 611
▁가압 611
▁간염 611
▁공개돼 611
▁금융사 611
▁기법을 611
▁깨닫 611
▁나타낸다 611
▁대부분을 611
▁대표로 611
▁더한 611
▁민주화 611
▁부를 611
▁워싱턴 611
▁정도에 611
▁쾌 611
▁통증이 611
맞 611
블랙 611
숭 611
하의 611
협상 611
▁73 610
▁공백 610
▁나타내고 610
▁무증상 610
▁바라며 610
▁수사에 610
▁식약처는 610
▁예방하기 610
▁자발적 610
▁조직이 610
▁증가해 610
▁취할 610
▁투기 610
▁패널을 610
경에 610
네이버 610
년생 610
뜻 610
로나 610
받기 610
분해 610
손해 610
월의 610
이로 610
짐을 610
춤 610
▁l 609
▁고충 609
▁공정이 609
▁끝으로 609
▁남겼다 609
▁달리는 609
▁라이트 609
▁뻔 609
▁식약처 609
▁없어서 609
▁인턴 609
▁접근할 609
▁질소 609
▁파는 609
하시 609
▁MMORPG 608
▁국제표준 608
▁내정 608
▁넥 608
▁맞붙 608
▁명에 608
▁비준 608
▁빠졌다 608
▁상승한 608
▁상주 608
▁순이익 608
▁스프링 608
▁안고 608
▁자의 608
▁정도는 608
▁주연 608
▁측정할 608
▁하겠습니다 608
▁현대기아 608
떨 608
린다는 608
실적을 608
▁간단히 607
▁거기에 607
▁구비하는 607
▁국적 607
▁독보적인 607
▁모습에 607
▁미래차 607
▁발언이 607
▁생략 607
▁수당을 607
▁원인은 607
▁적용이 607
▁지원했다 607
▁취약계층의 607
만원대 607
임대 607
패드 607
활동이 607
▁기소된 606
▁방안에 606
▁신당 606
▁임의로 606
▁자료의 606
▁제로페이 606
▁주시면 606
▁혼잡 606
저축 606
천여 606
▁것들이 605
▁경고했다 605
▁국회의원이 605
▁느끼게 605
▁신선한 605
▁억제하는 605
▁운전자는 605
▁전극의 605
▁합법 605
원칙 605
= 604
▁: 604
▁공무원의 604
▁문자메시 604
▁바닷 604
▁버퍼 604
▁부서의 604
▁빵 604
▁사모 604
▁선별진료소를 604
▁쇄신 604
▁스케 604
▁아프 604
▁알려지면서 604
▁유권자 604
▁유상증 604
▁전보다 604
▁전선 604
▁정치인 604
▁직렬 604
▁태풍 604
▁하드 604
▁합리 604
▁해임 604
경비 604
구민 604
론에 604
방법은 604
스트가 604
주일 604
WHO 603
▁교수와 603
▁세분 603
▁지속가능 603
▁추천해줘 603
▁킹 603
▁픽업트럭 603
▁하겠다는 603
▁한창 603
▁혈관 603
급식 603
꾸 603
텔레콤이 603
플랜 603
55 602
▁1993 602
▁개선하여 602
▁극히 602
▁기대되는 602
▁깔끔 602
▁깨끗한 602
▁났다 602
▁목소 602
▁무척 602
▁세계보건기구 602
▁숭 602
▁아산 602
▁적자를 602
상황에 602
심의위원회 602
철이 602
▁곁 601
▁고안의 601
▁교민 601
▁날아 601
▁덜어 601
▁붙잡 601
▁성취 601
▁얽 601
▁엉 601
▁유증상 601
▁전지가 601
▁필리버스터 601
수수료 601
픈 601
OD 600
PU 600
▁기다리는 600
▁내년에는 600
▁내면 600
▁닥 600
▁문자를 600
▁미얀마 600
▁부문은 600
▁생산되는 600
▁스마트폰의 600
▁알레르기 600
▁업무가 600
▁인물이 600
▁자아낸다 600
▁출장 600
▁플립 600
▁한껏 600
▁화순 600
모터쇼에 600
배출 600
본부장 600
소통 600
친구 600
ure 599
▁건물의 599
▁꾸며 599
▁닭 599
▁더구나 599
▁사업화 599
▁엄격한 599
▁유럽연합 599
▁자문을 599
▁전체에 599
▁조화를 599
▁주도한 599
▁취득한 599
▁화이트 599
출납 599
▁건강관리 598
▁과시 598
▁사업계획 598
▁알리바바 598
▁양보 598
▁에디션 598
▁입자 598
▁잡는 598
▁제공하고자 598
▁제출할 598
▁주민들의 598
▁즐기 598
▁패소 598
됐는데 598
빅데이터 598
센터로 598
소년 598
있게 598
66 597
▁감동 597
▁도시의 597
▁베이스 597
▁시기가 597
▁시야 597
▁외주 597
▁음압병 597
▁지나면 597
▁참관 597
▁통신망 597
▁판매하고 597
▁플로 597
▁하청 597
▁현장체험학습 597
▁협의회 597
기기를 597
란을 597
박사 597
배달 597
이션 597
자와의 597
템 597
IST 596
▁났 596
▁당권 596
▁막고 596
▁바탕 596
▁복직 596
▁사흘 596
▁상용화를 596
▁생산한 596
▁선대 596
▁약정 596
▁여건 596
▁우려했다 596
▁이게 596
▁자리가 596
▁존재하지 596
▁표준화 596
▁확진된 596
공천 596
교가 596
반기 596
신탁 596
업의 596
▁근로자는 595
▁모터를 595
▁법사 595
▁사례다 595
▁시작된다 595
▁아이의 595
▁전략으로 595
▁제네바 595
▁중이라고 595
▁팩시밀리 595
▁퍼포먼스 595
▁하루에 595
▁현실적으로 595
간을 595
천만 595
▁내리는 594
▁바이러스를 594
▁복제 594
▁인정받아 594
▁일방 594
▁중앙방역대책본부는 594
거리가 594
구청장은 594
랫 594
비용이 594
업계에 594
카는 594
▁강조하는 593
▁경사 593
▁구하는 593
▁그랬 593
▁급증했다 593
▁기관에 593
▁다음에 593
▁달성할 593
▁민감 593
▁볼륨 593
▁부산의 593
▁사업주 593
▁유산 593
▁인정하고 593
▁잡을 593
▁페이스북은 593
▁현직 593
권으로 593
량으로 593
법률 593
출연 593
해야만 593
▁기울이고 592
▁불안정 592
▁순매수 592
▁예측할 592
▁외에는 592
▁의원에 592
▁이어진다 592
▁이재용 592
▁인정받았다 592
▁접수된 592
▁칠곡 592
▁확대로 592
》 592
브라 592
안에서 592
와이 592
CI 591
▁'20 591
▁KCGI 591
▁구매를 591
▁국고 591
▁그었다 591
▁리어 591
▁미세한 591
▁배울 591
▁부족으로 591
▁수준에서 591
▁스위스 591
▁증가하면서 591
▁칩을 591
▁특징이 591
간이 591
란이 591
산업은 591
우주 591
퀴 591
튜 591
▁그렇지만 590
▁날인 590
▁대를 590
▁삼성디스플레이 590
▁소니 590
▁위장 590
▁캐리어 590
▁표기 590
각이 590
벅 590
▁w 589
▁개헌 589
▁경상남도 589
▁계속되고 589
▁계정 589
▁급격하게 589
▁닛산은 589
▁분석하는 589
▁산업통상자원 589
▁소비자들에게 589
▁어쩔 589
▁전년보다 589
▁치명 589
▁통과한 589
▁편안 589
▁현상은 589
내역 589
수산 589
큼 589
▁감소하고 588
▁거라고 588
▁공학 588
▁근무한 588
▁데이터와 588
▁방정 588
▁벌써 588
▁부모가 588
▁부터 588
▁설명하고 588
▁아이들을 588
▁안팎의 588
▁와이 588
▁음료 588
▁점거 588
▁출현 588
▁통보를 588
▁폭넓은 588
들인 588
또 588
아웃 588
위원장과 588
이어야 588
지출 588
처는 588
편에 588
환자의 588
▁검토할 587
▁경찰청 587
▁계승 587
▁공개될 587
▁굽 587
▁돋보 587
▁암호 587
▁업계에서 587
▁유세 587
▁지역에서는 587
▁출시하고 587
▁친박 587
▁페라 587
만명에 587
제일 587
항에서 587
▁년간 586
▁대한민국의 586
▁마찬가지 586
▁벤처기업 586
▁상고를 586
▁설명하는 586
▁아픈 586
▁이산화탄 586
▁초과하는 586
▁초선 586
▁탈출 586
▁포인트를 586
강화 586
밴드 586
분부터 586
옹 586
져서 586
지원금을 586
현황 586
?" 585
▁98 585
▁CB 585
▁경품 585
▁국회는 585
▁꾸려 585
▁라임자산운용 585
▁매뉴얼 585
▁살펴보고 585
▁색다른 585
▁앱으로 585
▁있어서의 585
▁줄기세포 585
▁지급한 585
▁차단하는 585
▁친화 585
▁트윈 585
▁필요합니다 585
나가는 585
망과 585
브는 585
재에 585
차게 585
EM 584
▁경선을 584
▁말미 584
▁못하도록 584
▁미쓰비시 584
▁변경을 584
▁병렬 584
▁사용료를 584
▁속의 584
▁스마트홈 584
▁양을 584
▁우정 584
▁이용자는 584
▁주행거리 584
▁주행이 584
▁즐겁게 584
▁테러 584
▁포트폴리오 584
라이언 584
애플 584
없다 584
유플러스가 584
제품의 584
평균 584
함으로 584
▁1988 583
▁가족을 583
▁기록해 583
▁기존에는 583
▁내일 583
▁도입하는 583
▁부피 583
▁불과했다 583
▁수명 583
▁시한 583
▁요청이 583
▁전환이 583
▁점유율이 583
▁중요성이 583
▁콘서 583
늄 583
문과 583
역량 583
우지 583
재생 583
커넥 583
▁떠올랐다 582
▁멋진 582
▁발행한 582
▁소켓 582
▁스포티 582
▁시키 582
▁앓 582
▁외부의 582
▁원자력 582
▁월간 582
▁유대 582
▁이준 582
▁적용돼 582
▁제외하면 582
▁터널 582
▁트렌드 582
보건소 582
보존 582
블록 582
블루 582
함은 582
▁공용 581
▁광범위한 581
▁교직원 581
▁나머지는 581
▁장난 581
▁재밌 581
▁적외선 581
▁혼란을 581
경과 581
반의 581
자연 581
지연 581
ES 580
▁가처분 580
▁거뒀다 580
▁노조와 580
▁늘어났 580
▁당국 580
▁소프트 580
▁접목해 580
▁카이 580
▁특별법 580
▁팬들은 580
▁포함하고 580
▁해산 580
닛 580
렸을 580
수리 580
연에 580
중앙회 580
82 579
▁4,000 579
▁87 579
▁교직 579
▁그림을 579
▁김선 579
▁비용의 579
▁성격이 579
▁이곳에서 579
▁전일 579
▁제한하는 579
▁지급하고 579
▁질환을 579
▁투표용 579
▁합의에 579
더를 579
았습니다 579
현장에서 579
AC 578
▁간이 578
▁구성이 578
▁닿 578
▁부산지역 578
▁실종 578
▁옮 578
▁접어들 578
▁차질을 578
▁찾아볼 578
▁크레 578
▁필드 578
구의회 578
내용을 578
대상은 578
층에서 578
포털 578
pl 577
▁대지 577
▁맞물려 577
▁맡는다 577
▁수사가 577
▁스마트팩토리 577
▁안다 577
▁업로드 577
▁오리 577
▁오피스 577
▁유지했다 577
▁키우고 577
▁통합을 577
겸 577
집이 577
ee 576
▁HDC 576
▁결합된 576
▁공감을 576
▁논쟁 576
▁대구시 576
▁렉서 576
▁맞추어 576
▁사랑의 576
▁시점에서 576
▁액정 576
▁윈도우 576
▁재산을 576
▁전기차의 576
▁체불 576
▁통합당의 576
▁특징은 576
▁판매되는 576
물품 576
증과 576
증권은 576
황이 576
II 575
▁CNS 575
▁강조하고 575
▁급속 575
▁내세워 575
▁되므로 575
▁라인을 575
▁리브라 575
▁양상을 575
▁업계에선 575
▁위상을 575
▁자산운용 575
▁잡기 575
▁재선 575
▁제목의 575
▁지어 575
▁출전 575
기술의 575
기술이 575
렉스 575
명씩 575
목표 575
문화재 575
치와 575
ig 574
▁강화한다 574
▁경우와 574
▁동해 574
▁러브 574
▁멤버들이 574
▁법원의 574
▁부산시는 574
▁수반 574
▁안전과 574
▁이모 574
▁이어지면서 574
▁자랑한다 574
▁테라 574
▁해커 574
▁핵심이다 574
가상 574
가전 574
되더라도 574
침을 574
43 573
▁1·2 573
▁과거에 573
▁과도하게 573
▁교사가 573
▁국민건강보험 573
▁귀속 573
▁급성장 573
▁담당하고 573
▁동대문 573
▁등록한 573
▁뛰어넘 573
▁방문하여 573
▁베스트 573
▁분실 573
▁사이트를 573
▁생산라인 573
▁생애 573
▁선제 573
▁스타트업의 573
▁신산업 573
▁애로 573
▁원으로 573
▁일하고 573
▁증설 573
▁지도를 573
▁헌혈 573
▁환자에 573
고지 573
기용 573
년만에 573
맘 573
모터스 573
시마 573
인수 573
지식 573
취업 573
프로그램을 573
하우스 573
▁공약을 572
▁내구 572
▁대세 572
▁매장에서 572
▁모두에게 572
▁서울시가 572
▁손해보험 572
▁쇼케이 572
▁아우르는 572
▁정당의 572
▁주위 572
▁직관 572
▁짓고 572
▁초저 572
▁최종적으로 572
▁트랜지스터의 572
▁파우치 572
매가 572
슴 572
▁개장 571
▁된다면 571
▁바람을 571
▁변수가 571
▁본딩 571
▁스쿨 571
▁실망 571
▁의사의 571
▁익숙 571
▁중소형 571
▁파악해 571
▁팽창 571
명했다 571
밀하게 571
연장 571
코딩 571
확진 571
84 570
j 570
▁96 570
▁각국의 570
▁간병 570
▁관객들의 570
▁다룬 570
▁대목이다 570
▁많았고 570
▁문화의 570
▁발견했다 570
▁선형 570
▁수용할 570
▁일간 570
▁일방적으로 570
▁조항 570
▁줄줄이 570
▁찾아가는 570
▁플랫폼과 570
▁효과도 570
렴 570
스위 570
일에도 570
▁간격으로 569
▁감소로 569
▁갖췄 569
▁구성돼 569
▁기록할 569
▁만나볼 569
▁보이지만 569
▁삼고 569
▁실어 569
▁앱은 569
▁이건 569
▁이견이 569
▁제반 569
▁조속히 569
▁주춤 569
▁줄어들고 569
▁출시가 569
교의 569
로만 569
성한 569
였으나 569
운데 569
은이 569
졌습니다 569
책임자 569
처리를 569
코더 569
특별위원회 569
▁공간의 568
▁구비된 568
▁구성할 568
▁기업은행 568
▁당진 568
▁마포 568
▁뽑아 568
▁소비자는 568
▁소형차 568
▁수시 568
▁측면이 568
▁펼쳐질 568
관절 568
띠 568
로서는 568
사항이 568
서류를 568
79 567
▁공원 567
▁권익 567
▁답답 567
▁등재 567
▁딥 567
▁법제 567
▁성실히 567
▁시위 567
▁영재 567
▁잠금 567
▁조치에 567
▁주를 567
▁주시는 567
▁준비가 567
▁찍어 567
▁추진하기 567
▁현실화 567
▁휴식 567
견이 567
계층 567
꿈 567
딩을 567
명령을 567
좀 567
쾌 567
훈은 567
▁고사 566
▁공략에 566
▁기기의 566
▁누락 566
▁동구 566
▁면적이 566
▁박원순 566
▁시장과 566
▁음극선관의 566
▁인터뷰를 566
▁전자식 566
▁정신적 566
▁중국을 566
▁지나지 566
▁촉발 566
▁할리우드 566
두는 566
방에서 566
승을 566
▁3. 565
▁5·18 565
▁가속화 565
▁공사를 565
▁규명 565
▁그날 565
▁라우 565
▁목표는 565
▁박사는 565
▁사람에 565
▁신기술을 565
▁압력을 565
▁열려 565
▁예상치 565
▁일체 565
▁주무 565
▁첨부하여 565
▁초부터 565
▁타깃 565
▁확대가 565
가능한 565
닉스 565
동력 565
민간 565
상적인 565
자율주행 565
타다 565
▁《 564
▁각급 564
▁남편이 564
▁르 564
▁민사 564
▁없으므로 564
▁이끈 564
▁정경 564
▁청사 564
▁초대형 564
▁컴퓨터를 564
▁토요타는 564
▁환자들의 564
글로 564
막에 564
벽을 564
사업이 564
아파트 564
전류 564
테일 564
og 563
▁개학을 563
▁구성했다 563
▁땀 563
▁멈 563
▁문화체육관광 563
▁보류 563
▁부족해 563
▁심층 563
▁약국 563
▁역사상 563
▁오지 563
▁임의 563
▁자가격 563
▁준비했다 563
▁플랜 563
▁헤어 563
▁후배 563
새로운 563
▁가능해진다 562
▁골라 562
▁공정의 562
▁데이터에 562
▁돌연 562
▁물질의 562
▁세트 562
▁시그니처 562
▁앞당 562
▁없거나 562
▁에지 562
▁여부와 562
▁영화제 562
▁온갖 562
▁이룰 562
▁쟁의 562
▁전문적인 562
▁참여하지 562
▁출범한 562
▁활용을 562
가며 562
설명 562
스런 562
함으로서 562
훈의 562
▁경제성장 561
▁국토교통부 561
▁달에 561
▁만기가 561
▁민주평화당 561
▁복무 561
▁상품으로 561
▁씨의 561
▁압도적인 561
▁제조할 561
▁패드 561
▁활력을 561
군에서 561
노동위원회 561
비한 561
섯 561
야당 561
언스 561
업체를 561
열에 561
전담 561
주도 561
챔버 561
코인 561
패널 561
▁1,500 560
▁고위공직자범죄수사처 560
▁동력을 560
▁로켓 560
▁받았지만 560
▁배우고 560
▁상황과 560
▁악영향을 560
락이 560
자녀 560
▁기점으로 559
▁디자인은 559
▁밝히 559
▁보호할 559
▁수출을 559
▁안양 559
▁연기가 559
▁연락을 559
▁월평균 559
▁잦은 559
▁창출을 559
▁추가했다 559
▁치유 559
▁하동 559
▁호선 559
기만 559
륜구동 559
모든 559
셈 559
ist 558
▁랭 558
▁문화적 558
▁묻자 558
▁민간위탁 558
▁셀토 558
▁약속을 558
▁업체로 558
▁예산안 558
▁용산구 558
▁유성 558
▁자외선 558
▁증인 558
▁지정하는 558
▁표현한 558
▁흐름에 558
곳으로 558
궤 558
단체의 558
리나 558
분과 558
시행령 558
우와 558
음성 558
지역을 558
▁근로자에게 557
▁기피 557
▁때문이라는 557
▁밀접한 557
▁바이러스에 557
▁불투명 557
▁산학 557
▁센터의 557
▁스마트폰과 557
▁아무도 557
▁않자 557
▁언급하며 557
▁있었을 557
▁전지에 557
▁정권의 557
▁정부를 557
▁조건에 557
▁지켜야 557
▁청산 557
▁화학적 557
디가 557
이즈 557
활성 557
▁1992 556
▁ENM 556
▁USB 556
▁개선하기 556
▁그러자 556
▁나타나지 556
▁농산물 556
▁당시에는 556
▁드라마를 556
▁램 556
▁루프 556
▁미달 556
▁발표한다 556
▁방대한 556
▁배양 556
▁쉴 556
▁시행을 556
▁신경을 556
▁업무의 556
▁이해하는 556
▁주의해야 556
▁지방세 556
▁플랫폼에서 556
▁해당되는 556
드라이브 556
법안 556
보험료 556
업과 556
위원의 556
자동 556
판으로 556
▁거치지 555
▁결렬 555
▁권고했다 555
▁기업가 555
▁나오자 555
▁무대가 555
▁받아들일 555
▁범위가 555
▁상반기에 555
▁생방송 555
▁쉽다 555
▁유관 555
▁이후로 555
▁조치다 555
▁참고하시기 555
▁컷오프 555
▁파장이 555
▁페이지 555
▁필수적인 555
겔 555
겨울 555
교육과 555
끝 555
89 554
▁경사노 554
▁논의할 554
▁드물 554
▁디자인이 554
▁롱 554
▁마비 554
▁변동이 554
▁보여줬다 554
▁산업통상자원부 554
▁살해 554
▁시급한 554
▁안테나를 554
▁얻는다 554
▁연구의 554
▁원격의료 554
▁원칙에 554
▁원활히 554
▁직격탄을 554
▁태어난 554
▁테이 554
▁하에 554
나게 554
시기를 554
시스템이 554
운을 554
적이지 554
출력 554
품목 554
▁갓 553
▁고객과 553
▁끓 553
▁동부 553
▁때와 553
▁압도 553
▁연구에서 553
▁전과 553
▁제조용 553
▁주목하고 553
▁중립 553
▁카본 553
▁폭락 553
깃 553
ha 552
ip 552
▁1200 552
▁각별한 552
▁감정이 552
▁광산 552
▁낸다 552
▁부회 552
▁소비가 552
▁속도는 552
▁얇은 552
▁월화드라마 552
▁이상은 552
▁장애가 552
▁집값 552
▁판매한다 552
▁훌쩍 552
받게 552
원이다 552
▁1·4 551
▁개관 551
▁국한 551
▁그레이 551
▁그로 551
▁근로복지 551
▁기다려 551
▁마트 551
▁물었다 551
▁부산에서 551
▁불복 551
▁삼성의 551
▁알릴 551
▁역학조사를 551
▁이렇다 551
▁이명박 551
▁이용에 551
▁전자부품 551
▁즐겨 551
▁쳐 551
▁태어나 551
▁폭스바겐은 551
공연 551
동맥 551
몸 551
적일 551
튜브 551
형성 551
▁WHO 550
▁가급적 550
▁끝날 550
▁노력할 550
▁대비한 550
▁두께를 550
▁때로는 550
▁안재 550
▁자본시장 550
▁장학 550
▁재미있는 550
▁진행을 550
▁판매량을 550
▁한동안 550
▁혼다는 550
경로 550
상한 550
시트 550
싼 550
업체와 550
올림픽 550
▁관악구 549
▁그래핀 549
▁근로자들이 549
▁대회를 549
▁맞고 549
▁모의 549
▁방문했다 549
▁부착된 549
▁분석됐다 549
▁사정 549
▁소재의 549
▁수확 549
▁연구진이 549
▁완전한 549
▁요양병원 549
▁장점이다 549
▁좀처럼 549
▁포털사이트 549
▁해당한다고 549
검진을 549
빈이 549
빵 549
요청 549
▁겨냥해 548
▁경합 548
▁고의 548
▁나라가 548
▁더해져 548
▁도입할 548
▁보호하고 548
▁분야가 548
▁선택해 548
▁아이들 548
▁어린이들의 548
▁연장할 548
▁영수 548
▁운항 548
▁이경 548
▁잭 548
▁전망을 548
▁지식재산권 548
▁최강 548
▁친구들과 548
▁탭 548
▁프로세서 548
▁하도급 548
였습니다 548
▁근로자들의 547
▁나타내 547
▁모드를 547
▁문제도 547
▁불과한 547
▁사회적경제 547
▁세븐 547
▁소식에 547
▁송파구 547
▁안전에 547
▁애널리 547
▁이바지 547
▁접수한 547
▁제명 547
▁중으로 547
▁편하게 547
카페 547
호선 547
87 546
▁83 546
▁공기청정기 546
▁구성원 546
▁답을 546
▁데이트 546
▁먹거리 546
▁사진에는 546
▁서버에 546
▁서부 546
▁연구팀이 546
▁영유아 546
▁원주 546
▁진실을 546
▁진천 546
▁차종이 546
▁팀을 546
▁프로그램인 546
▁했으며 546
검색 546
대장 546
문으로 546
숍 546
연구원이 546
조와 546
▁가상화폐 545
▁공개하며 545
▁구성되는 545
▁높아지면서 545
▁다이어 545
▁모델과 545
▁모습과 545
▁무게가 545
▁배경을 545
▁비대위 545
▁오토바이 545
▁정부에서 545
▁커패시 545
▁파업이 545
▁후보자를 545
규가 545
룰 545
전압을 545
▁2.5 544
▁MOU 544
▁MySQL 544
▁공매도 544
▁냄새 544
▁물건 544
▁보게 544
▁본래 544
▁브랜드인 544
▁사실에 544
▁생중계 544
▁수업이 544
▁숫자가 544
▁의미하는 544
▁이메일 544
▁이유에 544
▁정보에 544
▁주최하고 544
▁죽은 544
▁지내 544
▁컨퍼런스 544
▁한시 544
▁해당하지 544
개사가 544
심리 544
측의 544
μ 543
▁"3 543
▁가령 543
▁강도를 543
▁개최할 543
▁딸이 543
▁시설에 543
▁원고에게 543
▁은행들이 543
▁트위터 543
▁플랫폼의 543
▁핵심은 543
▁현안 543
가들이 543
간다는 543
단계로 543
바람 543
배로 543
신과 543
전략을 543
▁12. 542
▁간다 542
▁계속될 542
▁금융당국이 542
▁늦게 542
▁다해 542
▁부문에 542
▁않기로 542
▁엘리베이터 542
▁오디션 542
▁위배 542
▁자신들이 542
▁장의 542
▁재료를 542
▁족 542
▁지장이 542
▁치아 542
▁텔레 542
▁프로그래밍 542
▁홍보를 542
전지에 542
팡 542
▁검증을 541
▁구축한다 541
▁국토부는 541
▁기획재정 541
▁당을 541
▁동아리 541
▁민관 541
▁받아들이 541
▁발라 541
▁변화의 541
▁사은 541
▁시상식 541
▁실시하여야 541
▁안의 541
▁여전 541
▁열처리 541
▁이끌었다 541
▁점심 541
▁차지할 541
▁커머스 541
▁콤 541
▁화려 541
위원이 541
융 541
장치와 541
oc 540
▁간소 540
▁관리와 540
▁몽 540
▁바디 540
▁발굴하고 540
▁벌써부터 540
▁알아야 540
▁이후의 540
▁있기를 540
▁자녀들의 540
▁제시할 540
▁줬다 540
▁직결 540
▁표방 540
공사의 540
군으로 540
기준은 540
납부 540
동으로 540
설치 540
점검을 540
컨설팅 540
ia 539
▁공산 539
▁기저 539
▁놀라 539
▁만들어야 539
▁말았다 539
▁말하면 539
▁면적을 539
▁본사를 539
▁비즈니 539
▁성질을 539
▁세로 539
▁승소 539
▁유가증권 539
▁일산 539
▁자산관리 539
▁주기적으로 539
▁지속되고 539
▁컸 539
▁코오롱 539
▁핑 539
▁해소하기 539
이었으나 539
종은 539
총선 539
폭력 539
하느냐 539
▁8000 538
▁강성 538
▁만났다 538
▁모뎀 538
▁부분이다 538
▁월급 538
▁유익한 538
▁정의당이 538
▁지역주민 538
▁지정을 538
▁진행되었다 538
▁한국경제 538
▁해외여행 538
과제 538
사고를 538
사이버 538
색의 538
소리를 538
시키도록 538
진보 538
ub 537
▁공영 537
▁노선 537
▁둘러싸고 537
▁부패 537
▁알려주 537
▁은평 537
▁의심되는 537
▁자체의 537
▁제작에 537
▁주장도 537
▁평생교육 537
▁표출 537
공인 537
마이크로 537
분간 537
사무소 537
수칙 537
자다 537
주자 537
킴 537
▁3·4 536
▁개최하는 536
▁것인데 536
▁공개적으로 536
▁공개하는 536
▁나지 536
▁드디어 536
▁드라마가 536
▁미성년 536
▁받았으며 536
▁부진한 536
▁비자 536
▁시행된 536
▁예방과 536
▁우호 536
▁원내대표의 536
▁이전의 536
▁이해가 536
▁전시장을 536
▁점검을 536
▁차관은 536
▁투자와 536
닷 536
조에서 536
PI 535
▁CNN 535
▁SF 535
▁고대 535
▁대학의 535
▁동백 535
▁매번 535
▁명확하게 535
▁바꾸고 535
▁반려동물 535
▁보람 535
▁않더라도 535
▁일반인 535
▁주택을 535
▁집약 535
▁출신으로 535
▁행위에 535
▁홍남기 535
RP 534
▁걸음 534
▁기금을 534
▁도덕적 534
▁면역력이 534
▁박진 534
▁부부의 534
▁쇠 534
▁쏟 534
▁아직은 534
▁이노베이션 534
▁인민 534
▁장외 534
▁전화번호 534
▁직원들은 534
▁폴크스바겐 534
▁흘러나 534
교육감 534
무효 534
부모 534
오피스 534
운반 534
저를 534
조사가 534
코어 534
테스트 534
히지 534
LED 533
▁가결 533
▁개혁을 533
▁관리하여야 533
▁네이 533
▁박지 533
▁배기가스 533
▁뻗 533
▁생기면 533
▁양성을 533
▁용도 533
▁음압 533
▁의사결정 533
▁일찌감치 533
▁자구 533
▁자에 533
▁주당 533
▁주신 533
▁증가를 533
▁최상위 533
▁토로했다 533
▁표현을 533
▁후손 533
년마다 533
르면서 533
소자를 533
소프트웨어 533
였다고 533
용의 533
정부는 533
집에 533
켈 533
협력을 533
▁감상 532
▁고교 532
▁교육은 532
▁근거를 532
▁김치 532
▁놀라게 532
▁대응하고 532
▁무기한 532
▁보냈 532
▁상을 532
▁시기는 532
▁식이다 532
▁실시해 532
▁원장 532
▁잔류 532
▁적당 532
▁지은 532
▁표시하는 532
배당 532
예측 532
필름 532
▁CM 531
▁IM 531
▁개선과 531
▁명칭을 531
▁보험금을 531
▁불량을 531
▁설비를 531
▁소비자들은 531
▁수명이 531
▁신천 531
▁업데이트를 531
▁입원해 531
▁점유율은 531
▁좁아 531
▁주시고 531
▁주한미군 531
▁체인 531
▁클린 531
▁포즈를 531
▁한데 531
▁회사로 531
껏 531
안심 531
입찰 531
▁개최되는 530
▁대응해 530
▁디바이 530
▁로맨 530
▁바뀌었다 530
▁부근 530
▁비교할 530
▁신앙 530
▁아래에 530
▁언제든 530
▁오너 530
▁오류가 530
▁자료가 530
▁자에게 530
▁작동하는 530
▁접할 530
▁제출했다 530
▁지정할 530
▁타인의 530
▁해명 530
▁형성한 530
사실을 530
작용 530
▁Pro 529
▁근대 529
▁기자간담회를 529
▁눈물 529
▁모르겠다 529
▁바뀌는 529
▁벌여 529
▁불어넣 529
▁사업체 529
▁소스 529
▁어드 529
▁오차 529
▁육군 529
▁육박 529
▁이어서 529
▁주시 529
▁지역과 529
▁토스 529
▁해를 529
▁해운 529
▁활용이 529
고와 529
만족 529
민원 529
봉투 529
상인 529
앉 529
우선 529
재활 529
푸드 529
헬스 529
▁그런가 528
▁노출된 528
▁다층 528
▁동호 528
▁마련하는 528
▁벤츠의 528
▁설정된 528
▁암호화폐를 528
▁유도하는 528
▁응급실 528
▁정치개혁 528
▁주방 528
▁초청해 528
▁클러스터 528
▁협의하여 528
림의 528
문에서 528
볶 528
적이며 528
혁이 528
POP 527
RO 527
▁거리에 527
▁디자인의 527
▁발탁 527
▁배우가 527
▁범행 527
▁보고서에 527
▁붓 527
▁승용 527
▁야구 527
▁영혼 527
▁인사가 527
▁일상을 527
▁증세를 527
▁충청북도 527
계약이 527
공장의 527
드린다 527
레드 527
력발전 527
취소 527
피는 527
혈관질환 527
휴직 527
LC 526
RC 526
▁4% 526
▁TK 526
▁가하고 526
▁낮고 526
▁내놓는 526
▁보내주 526
▁성명 526
▁성폭 526
▁술을 526
▁용이하고 526
▁우회 526
▁이루어졌다 526
▁인공지능이 526
▁적당한 526
▁정체성을 526
▁제품인 526
▁지부 526
▁페이스북이 526
▁폴드 526
▁행정소송 526
」, 526
계에서는 526
누리 526
만원이다 526
여대 526
조원에 526
협의체 526
환자를 526
▁HD 525
▁가능하다고 525
▁나서면서 525
▁당연한 525
▁메커니즘 525
▁보안을 525
▁서둘러 525
▁않겠다는 525
▁앞장 525
▁자신만의 525
▁조성에 525
▁컴팩트 525
▁키울 525
▁피하기 525
▁확인되지 525
비행 525
씬 525
준은 525
포스 525
▁감소할 524
▁기기에 524
▁기자회견에서 524
▁늘어난다 524
▁두산중공업 524
▁록 524
▁멘토 524
▁보다는 524
▁사전예약 524
▁설사 524
▁신청은 524
▁연기로 524
▁오프로드 524
▁이르고 524
▁제작하는 524
▁젠 524
▁조향 524
▁참가할 524
▁취지를 524
▁카리스 524
▁캠핑 524
▁쾌적한 524
노래 524
바다 524
텔레콤의 524
all 523
▁건강하고 523
▁경향 523
▁교내 523
▁그해 523
▁금융시장 523
▁긴밀한 523
▁깨끗 523
▁배우들의 523
▁살펴볼 523
▁운영하며 523
▁이득 523
▁자연스러운 523
▁장착했다 523
▁전문가로 523
▁주저 523
▁후보들이 523
거든요 523
러의 523
마일 523
면역 523
생물 523
위원으로 523
현상을 523
회의에 523
-2 522
51 522
▁71 522
▁경쟁에 522
▁골든 522
▁기둥 522
▁냉동 522
▁등장한다 522
▁로밍 522
▁사료 522
▁사측 522
▁사회에서 522
▁상당수가 522
▁생각하면 522
▁선사할 522
▁소유자 522
▁영상으로 522
▁예수 522
▁의료비 522
▁의료진의 522
▁이르렀다 522
▁진실 522
▁투자자의 522
▁폴리머 522
▁한국영화 522
년간의 522
디는 522
렌터카 522
통계 522
▁감사드리며 521
▁감염자가 521
▁건강하게 521
▁계정을 521
▁나눌 521
▁높지 521
▁더불어시민 521
▁무역전쟁 521
▁아동의 521
▁요청에 521
▁인공지능을 521
▁일으켜 521
▁조사는 521
곡이 521
기관에서 521
대체 521
분은 521
선거대책 521
요한 521
파는 521
▁IB 520
▁경기를 520
▁내로 520
▁단체에 520
▁등극 520
▁리서치 520
▁만족도를 520
▁문화재 520
▁뮤직 520
▁스파이 520
▁스피 520
▁인센티브 520
▁일정하게 520
▁정책위의 520
▁지사 520
▁지켜보 520
▁추가해 520
▁한진그룹 520
▁해운대 520
드릴 520
버튼 520
으려는 520
일째 520
퀸 520
타는 520
OR 519
ge 519
▁가전제품 519
▁검진을 519
▁계획은 519
▁고가의 519
▁고집 519
▁남구 519
▁때문이었다 519
▁메탈 519
▁미국을 519
▁발견됐다 519
▁본청 519
▁속에는 519
▁쌍용자동차가 519
▁없었고 519
▁여당의 519
▁온라인에서 519
▁운전면허 519
▁울진 519
▁의료진과 519
▁이하인 519
▁저하를 519
▁전속 519
▁전자총 519
▁취미 519
▁클리 519
▁팁 519
기술과 519
사령 519
포를 519
▁기능성 518
▁기준금리를 518
▁낮추고 518
▁누리 518
▁되는지 518
▁만화 518
▁속으로 518
▁신개념 518
▁신호가 518
▁양방향 518
▁옛날 518
▁유가 518
▁일제 518
▁적힌 518
▁정의당은 518
▁제작을 518
▁집단감염이 518
▁청와대와 518
▁추세를 518
▁컨테이너 518
▁톨게이트 518
▁확인한다 518
오지 518
운전자 518
을지 518
인원 518
장이나 518
중을 518
▁경영진 517
▁금융상품 517
▁댄 517
▁똑같이 517
▁버티 517
▁비유 517
▁수치를 517
▁안면 517
▁이윤 517
▁제고를 517
▁총력을 517
▁특집 517
▁포함되지 517
▁프로듀 517
▁확실 517
고기 517
되었으나 517
리즘 517
으로만 517
중공업 517
채가 517
TM 516
▁89 516
▁PCB 516
▁것이기 516
▁난다 516
▁다리 516
▁법규 516
▁비로소 516
▁설명한다 516
▁수립하고 516
▁시작하였다 516
▁어울리는 516
▁윗 516
▁지식과 516
▁출시되는 516
게임즈 516
돔 516
장치에서 516
치료제 516
▁3.0 515
▁검거 515
▁근절 515
▁내기 515
▁당정 515
▁리뷰 515
▁벤츠는 515
▁소지가 515
▁승격 515
▁실현할 515
▁심리적 515
▁야당의 515
▁연차 515
▁이용자들이 515
▁작품으로 515
▁주택담보대출 515
▁카메라와 515
▁피해자가 515
▁한국형 515
▁해방 515
감지 515
계로 515
운영을 515
카드가 515
하기에는 515
KT 514
▁g 514
▁등급을 514
▁땐 514
▁렉스턴 514
▁시판 514
▁영화에 514
▁원전 514
▁작가가 514
▁종사하는 514
▁종영 514
▁차별화 514
▁평안 514
▁하반기에 514
말이 514
연과 514
종에 514
tv 513
ve 513
▁개시된 513
▁건수는 513
▁되어야 513
▁떨어진다 513
▁런 513
▁발의한 513
▁부작용을 513
▁불완전판매 513
▁소속된 513
▁수목드라마 513
▁수치다 513
▁스택 513
▁실제로는 513
▁역대급 513
▁외관 513
▁춘 513
▁취업자 513
▁파악하는 513
▁파티클 513
▁폭증 513
▁하나씩 513
기기의 513
물질의 513
뱅 513
장비를 513
▁VIP 512
▁개최한다고 512
▁교섭을 512
▁권위 512
▁노조에 512
▁눈으로 512
▁눌러 512
▁당선자 512
▁몰래 512
▁미래형 512
▁바뀔 512
▁시청자들을 512
▁신청하여야 512
▁어두운 512
▁언론에 512
▁유래 512
▁주민자치 512
▁중소기업과 512
▁증진을 512
▁지급하지 512
▁트랜스 512
▁파고 512
▁합당 512
▁합창 512
▁횡령 512
▁효율성 512
거를 512
결과에 512
공단은 512
변호 512
비서 512
사항은 512
세트 512
연료 512
웹 512
PP 511
▁97 511
▁AD 511
▁고마 511
▁기록했다고 511
▁단점이 511
▁로그인 511
▁모이는 511
▁법원은 511
▁브리핑을 511
▁비춰 511
▁살펴보시고 511
▁세계가 511
▁아쉬 511
▁여력이 511
▁총무 511
▁크다고 511
론과 511
청사 511
투자자 511
펫 511
화장 511
▁결제가 510
▁구비하여 510
▁나쁘 510
▁따르는 510
▁명의로 510
▁바닥에 510
▁박용 510
▁본선 510
▁사랑과 510
▁섬세한 510
▁실태조사 510
▁안을 510
▁안전자산 510
▁예비후보는 510
▁왼 510
▁위메 510
▁자녀들이 510
▁출시하는 510
▁투어 510
▁툴 510
▁펼쳐진다 510
▁포지 510
▁프로그램과 510
▁힘들어 510
즘 510
타이 510
툴 510
▁CC 509
▁감독과 509
▁개량 509
▁고안에 509
▁고용노동부는 509
▁넘은 509
▁다양하고 509
▁미흡 509
▁밝히고 509
▁부호화 509
▁불꽃 509
▁영상의 509
▁줄인 509
▁카드사 509
렐 509
사자 509
사항에 509
살이 509
축을 509
필터 509
!" 508
EA 508
▁공급되는 508
▁국악 508
▁남지 508
▁넥센타이어 508
▁부문을 508
▁북구 508
▁세션 508
▁알기 508
▁암세포 508
▁포도 508
▁형제 508
라우 508
류에 508
으면서도 508
찮 508
채용 508
킬로미터 508
▁170 507
▁국무총리가 507
▁모호 507
▁무리 507
▁부적 507
▁성수 507
▁쇄 507
▁아닙니다 507
▁옹 507
▁있었으며 507
▁절반을 507
▁준비해 507
▁트래 507
▁표지 507
목으로 507
발광 507
주주 507
지방자치단체 507
피스 507
ont 506
▁1,0 506
▁220 506
▁고강도 506
▁김광 506
▁꼼 506
▁나라를 506
▁네이버페이 506
▁뛰어넘는 506
▁마니아 506
▁미쳤 506
▁사퇴를 506
▁수익률을 506
▁전류가 506
▁집행유예 506
▁커넥터 506
▁편이 506
▁학기 506
▁한눈에 506
기억 506
세스 506
수용 506
임상 506
있고 506
직장 506
▁공급한다 505
▁군수 505
▁꽂 505
▁꿀 505
▁띈다 505
▁맡게 505
▁성분을 505
▁시켜 505
▁아트 505
▁양산을 505
▁양식 505
▁연예인 505
▁열리고 505
▁있겠지만 505
▁제공함으로써 505
▁조용 505
▁컨텐츠 505
▁프로세스를 505
▁하천 505
▁형성함으로써 505
높 505
부진 505
뼈 505
이버 505
특히 505
하므로써 505
확산 505
▁MB 504
▁가끔 504
▁단어 504
▁두뇌 504
▁모형 504
▁발동 504
▁방탄소년단 504
▁분야에서는 504
▁비행기 504
▁세력이 504
▁시민사회 504
▁신혼 504
▁외신 504
▁잇는 504
▁자매 504
▁조직의 504
▁주역 504
▁중환자 504
▁직접적으로 504
▁차이로 504
▁처벌을 504
▁체온 504
▁촬영이 504
▁추가된 504
▁평가는 504
단체가 504
밴 504
예금 504
▁CGV 503
▁고용유지 503
▁도로를 503
▁두통 503
▁많지만 503
▁물가 503
▁미소를 503
▁반발하고 503
▁상급 503
▁선관 503
▁시간의 503
▁여기에는 503
▁의무화 503
▁이사장 503
▁줘 503
▁차지한다 503
▁최소화하는 503
▁커진다 503
▁해가 503
병은 503
빈의 503
사다 503
인지를 503
함께 503
▁4+1 502
▁결정했다고 502
▁동래 502
▁만하다 502
▁부속 502
▁사각지대에 502
▁성적을 502
▁시설물 502
▁신사업 502
▁실효 502
▁우리를 502
▁유방암 502
▁음극선 502
▁의원에게 502
▁정치가 502
▁중국산 502
▁중대형 502
▁중앙방역대책본부 502
▁페이스북을 502
▁펼친 502
▁확산이 502
▁환자로 502
감한 502
급의 502
기부 502
대기 502
버린 502
오면서 502
이제 502
조건을 502
탄소 502
▁걱정이 501
▁급증한 501
▁단체가 501
▁동선을 501
▁로맨스 501
▁맵 501
▁발표하는 501
▁비하여 501
▁센서가 501
▁스파크 501
▁영향력이 501
▁유발하는 501
▁윤종 501
▁이노 501
▁출시해 501
▁출혈 501
▁판단한다 501
▁프리랜서 501
▁핵심인 501
▁휴대단말 501
너의 501
능력이 501
메이트 501
비즈 501
시다 501
운이 501
CB 500
Hz 500
▁겪었다 500
▁관하여는 500
▁남양 500
▁넘나 500
▁넘었다 500
▁블록체인을 500
▁사업부 500
▁산학협력 500
▁센터는 500
▁싶다는 500
▁연소 500
▁열애 500
▁제한을 500
▁팰리세이드 500
▁펼친다 500
▁평가할 500
▁호기 500
기까지 500
보험에 500
증상이 500
회원 500
▁ETF 499
▁국책 499
▁그걸 499
▁다이오 499
▁르노삼성차 499
▁안건을 499
▁오라클 499
▁옴 499
▁이용해서 499
▁일본과 499
▁증가가 499
▁착수했다 499
▁쿨 499
▁클레이튼 499
▁튀 499
▁한국닛산 499
개정 499
낮 499
방문 499
속도를 499
철을 499
토리 499
호에서 499
▁2. 498
▁RPA 498
▁가세 498
▁개구 498
▁건물이 498
▁과반수의 498
▁기가 498
▁기간보다 498
▁내장된 498
▁대안을 498
▁때만 498
▁레스토랑 498
▁말아야 498
▁면모를 498
▁보드 498
▁부결 498
▁불편함을 498
▁스케줄 498
▁스페이스 498
▁영웅 498
▁원화 498
▁유쾌한 498
▁있음에도 498
▁전진 498
▁줬 498
▁증발 498
▁진행되며 498
▁키즈 498
▁파격적인 498
▁파일을 498
▁하반기부터 498
▁행보에 498
▁헬스 498
그동안 498
그라 498
긴급 498
니스트 498
메이션 498
하이닉스 498
pop 497
▁1986 497
▁NCM 497
▁높을 497
▁당대표 497
▁대리점 497
▁대표에게 497
▁미쳤다 497
▁방통 497
▁분석에 497
▁사진과 497
▁젖 497
▁제도적 497
▁충격에 497
▁콘셉트 497
▁크기는 497
▁판정이 497
▁환경의 497
공동체 497
관리시스템 497
업자 497
전지는 497
정리 497
콕 497
▁감사하겠습니다 496
▁결심 496
▁광주시 496
▁구글이 496
▁네이버의 496
▁다툼 496
▁달성하기 496
▁동영 496
▁멘 496
▁방식과 496
▁변경된 496
▁부른 496
▁부스 496
▁부위에 496
▁북한이 496
▁사옥 496
▁수요는 496
▁시청자 496
▁않겠다 496
▁알리기 496
▁완료된 496
▁유형의 496
▁인사청문회 496
▁재임 496
▁전국에 496
▁전자가 496
▁주도하고 496
▁캄보디아 496
▁콰트로 496
▁하였 496
▁활동은 496
금액을 496
단위 496
대회에서 496
발전을 496
습관 496
▁5. 495
▁감당 495
▁계좌를 495
▁매출액은 495
▁무언 495
▁스위치를 495
▁식품의약품안전처 495
▁실질적 495
▁오가는 495
▁유력한 495
▁이사는 495
▁임대료 495
▁장애를 495
▁재량 495
▁조정이 495
▁항목을 495
▁현실적인 495
▁휴대폰을 495
브로드밴 495
소매 495
어버 495
우리는 495
자리를 495
지역으로 495
63 494
▁건수가 494
▁경험한 494
▁부여하는 494
▁스핀 494
▁아니할 494
▁영등포구 494
▁이용한다 494
▁작품은 494
▁증가세를 494
▁지방의 494
▁지사는 494
▁지적을 494
▁춤을 494
▁콘덴 494
▁평범한 494
▁해소를 494
▁현대자동차는 494
▁형성방법에 494
동향 494
목에 494
베스트 494
여름 494
월을 494
팀과 494
폼 494
age 493
▁UN 493
▁공주 493
▁넣고 493
▁달러의 493
▁쓰레기 493
▁아마도 493
▁완성도를 493
▁원고와 493
▁원이 493
▁윈도 493
▁유한 493
▁인덕 493
▁일본에 493
▁재원 493
▁전문가의 493
▁제공하여 493
▁치료하는 493
▁콘셉 493
▁한가 493
돌이 493
마저도 493
워드 493
율과 493
전과 493
팟 493
하고도 493
TT 492
▁강점을 492
▁거울 492
▁과기정통부는 492
▁구분하여 492
▁귀를 492
▁떠오른 492
▁모르고 492
▁반려 492
▁사측은 492
▁솔루션은 492
▁신성장 492
▁실시된 492
▁안성 492
▁여파 492
▁예결 492
▁인물이다 492
▁제작할 492
▁제조된 492
▁지원은 492
▁직원들에게 492
▁표현하는 492
▁해치백 492
▁회사와 492
나를 492
레오 492
베르 492
여건 492
월에도 492
인트 492
판과 492
포스트 492
했다며 492
SC 491
▁'2 491
▁1∼3 491
▁마련에 491
▁명칭이 491
▁발휘할 491
▁부족하다 491
▁스카 491
▁원내대표를 491
▁원에 491
▁입증했다 491
▁재학생 491
▁전동화 491
▁전략에 491
▁전설 491
▁정성 491
▁증가와 491
▁지는 491
▁짧아 491
▁회계연도 491
담한 491
쌀 491
▁강소 490
▁강조한다 490
▁김대중 490
▁많은데 490
▁병원의 490
▁사건으로 490
▁사태와 490
▁수출입 490
▁시점을 490
▁예고한 490
▁오르고 490
▁우리나라가 490
▁이유에서다 490
▁전달하고 490
▁주호영 490
▁중에도 490
▁지난해에는 490
▁튜브 490
▁평가하고 490
▁풀이 490
▁하기로 490
▁헐 490
▁협동 490
▁확인돼 490
▁확진판정을 490
넣 490
당국에 490
설비의 490
지나 490
통일 490
홀딩 490
... 489
IV 489
VC 489
▁갑질 489
▁구현했다 489
▁기아차가 489
▁길이가 489
▁만남을 489
▁물려 489
▁불가피할 489
▁비교하여 489
▁쏘 489
▁역동 489
▁연수를 489
▁요약 489
▁조화 489
▁줄어든다 489
▁최상의 489
▁톰 489
▁함께한 489
▁활용한다 489
결과가 489
디로 489
시간으로 489
요소 489
용량 489
윤리 489
직업 489
체제를 489
추적 489
평등 489
할인 489
ect 488
▁같은데 488
▁공사가 488
▁그녀 488
▁기관과 488
▁남을 488
▁반발이 488
▁베를린 488
▁부사장이 488
▁예로 488
▁의료진은 488
▁의한다 488
▁이해하기 488
▁입원한 488
▁중고차를 488
▁창의적인 488
▁패배 488
▁프로그램도 488
▁하기도 488
▁하다가 488
▁한국타이어는 488
▁항생제 488
로스 488
무선 488
미와 488
빨리 488
선한 488
수탁 488
업체는 488
투표를 488
펠 488
▁감소를 487
▁개조 487
▁공인인증 487
▁급여를 487
▁담보로 487
▁드론을 487
▁모바일로 487
▁밀봉 487
▁빈번 487
▁숫 487
▁의사와 487
▁정책으로 487
▁주행성능 487
▁지각 487
▁챌린지 487
▁초기에는 487
▁총파업 487
▁털어놓 487
▁한국과학기술 487
석에서 487
인간 487
절연 487
KB 486
ak 486
se 486
▁경상북도 486
▁동월 486
▁성남시 486
▁소송에서 486
▁인용해 486
▁잊지 486
▁작게 486
▁점용 486
▁제한된 486
▁지속가능한 486
▁코호트 486
▁털어놨다 486
▁퍼포먼 486
▁픽셀 486
▁해촉 486
▁환경과 486
▁활동과 486
대상자 486
렇게 486
모는 486
쓴 486
에게서 486
조한 486
청과 486
청에서 486
쾌한 486
투어 486
4' 485
▁가득하시길 485
▁간격을 485
▁공간은 485
▁극한 485
▁기술도 485
▁나가고 485
▁낯선 485
▁다행 485
▁단순화 485
▁데이터베이 485
▁되기도 485
▁목적에 485
▁밖에서 485
▁부러 485
▁부총리 485
▁브랜드는 485
▁서울과 485
▁신생아 485
▁오피 485
▁임대차 485
▁전기모터 485
▁중단된 485
▁중요하게 485
▁지문 485
▁충격이 485
▁타협 485
▁퍼블릭 485
▁행안 485
계획의 485
공이 485
놔 485
드라 485
스러워 485
이든 485
ob 484
▁PB 484
▁경우에만 484
▁공매 484
▁국가에 484
▁글로 484
▁날로 484
▁농도가 484
▁불만 484
▁불이익을 484
▁시장조사업체 484
▁시티 484
▁여성을 484
▁요청하는 484
▁용량이 484
▁원고들의 484
▁원형 484
▁자부 484
▁저항을 484
▁조치는 484
▁크롬 484
▁행하는 484
▁흥미로운 484
▁희귀 484
머리 484
백신 484
씽 484
업체들은 484
St 483
▁7. 483
▁결정은 483
▁김모 483
▁노벨 483
▁민속 483
▁박람회 483
▁수소전기차 483
▁수축 483
▁쌓은 483
▁위원을 483
▁이력이 483
▁준비에 483
▁줄곧 483
▁치고 483
▁콘텐츠로 483
▁패러다임 483
꼴 483
방출 483
보자 483
성모 483
스트로 483
작은 483
침해 483
카를 483
퉁 483
한도 483
▁경신 482
▁공정에서 482
▁근본적으로 482
▁기회로 482
▁내역을 482
▁대단히 482
▁등에도 482
▁만전을 482
▁머릿 482
▁메시지가 482
▁무선전화 482
▁벌어지고 482
▁선별진료 482
▁셀프 482
▁음식점 482
▁전락 482
▁제안한다 482
▁제출을 482
▁클라우드를 482
▁한식 482
▁활동으로 482
님은 482
더의 482
멤버 482
소비자 482
실태 482
전에서 482
MP 481
▁OECD 481
▁개별적으로 481
▁거다 481
▁관객을 481
▁그룹이 481
▁극복할 481
▁기능에 481
▁김제 481
▁내걸 481
▁받아들이지 481
▁변조 481
▁부응 481
▁아세안 481
▁엔진에 481
▁엔진오일 481
▁이뤄져야 481
▁이재갑 481
▁자신과 481
▁적도 481
▁전례 481
▁지원으로 481
▁진행하며 481
▁참고하여 481
▁카카오모빌리티 481
▁환자들을 481
▁효능 481
계약에 481
멀 481
EU 480
▁ESS 480
▁개인별 480
▁경쟁에서 480
▁국방부 480
▁기록하는 480
▁기술력과 480
▁끼워 480
▁당당 480
▁대학원 480
▁되돌 480
▁두려워 480
▁뒤에는 480
▁받던 480
▁삭발 480
▁설정할 480
▁연임할 480
▁장기적인 480
▁증세가 480
▁추천하는 480
▁털 480
▁해준다 480
▁호텔에서 480
▁활동의 480
님을 480
달라는 480
잎 480
진행 480
투자가 480
!' 479
pp 479
▁AC 479
▁가져다 479
▁강화와 479
▁국민연 479
▁국외 479
▁기인 479
▁내리고 479
▁담당한다 479
▁대금 479
▁도의 479
▁만만치 479
▁말라 479
▁모험 479
▁민중 479
▁벨기에 479
▁신발 479
▁이관 479
▁이산화탄소를 479
▁일주 479
▁주었다 479
▁퇴근 479
▁패널에 479
▁포부를 479
▁표본 479
개월이 479
끈 479
더는 479
뷰티 479
사랑의 479
업소 479
카가 479
(= 478
19) 478
NO 478
▁기관을 478
▁기능으로 478
▁드러낸 478
▁마땅 478
▁모닝 478
▁방역을 478
▁부른다 478
▁비밀을 478
▁수수 478
▁시선이 478
▁예능프로그램 478
▁윤석열 478
▁음란 478
▁자유를 478
▁적었다 478
▁지그 478
▁참가하는 478
▁체력 478
▁토요 478
▁픽 478
▁향상시킨 478
구글 478
닥터 478
로이드 478
르트 478
보의 478
억달러를 478
여행을 478
유로 478
제도가 478
크루 478
클리 478
티스 478
행복 478
▁간담 477
▁갈라 477
▁구해 477
▁금융감독 477
▁노즐 477
▁라스베이거스에서 477
▁메이 477
▁몰랐 477
▁발굴해 477
▁쉼 477
▁시작했고 477
▁어셈블 477
▁울트라 477
▁제도의 477
▁질병을 477
▁출국 477
▁치명적인 477
▁카니발 477
▁카운 477
▁캘 477
▁환기 477
▁회신 477
경찰청 477
계산 477
도지사 477
모의 477
미경 477
브의 477
율의 477
DLF 476
▁202 476
▁81 476
▁검사는 476
▁계약에 476
▁공격을 476
▁구금 476
▁김정은 476
▁김준 476
▁데도 476
▁도입에 476
▁동선 476
▁디자인에 476
▁멤버들의 476
▁모래 476
▁사법개혁 476
▁잃고 476
▁정숙 476
▁지위 476
▁품질이 476
▁협의해 476
간호 476
변이 476
분류 476
수석 476
▁남한 475
▁넘기 475
▁댓글을 475
▁박재 475
▁방송이 475
▁방향에 475
▁북부 475
▁유료방송 475
▁유연한 475
▁인가를 475
▁자유한국당은 475
▁작품에 475
▁정확도를 475
▁철수 475
▁타격이 475
▁텃밭 475
▁펀드를 475
▁한국당을 475
▁화가 475
네마 475
대전 475
영향 475
증에 475
책으로 475
축제 475
폐쇄 475
하였던 475
LO 474
▁450 474
▁7% 474
▁것이므로 474
▁공정위는 474
▁배운 474
▁보았다 474
▁보호자 474
▁부친 474
▁부합하는 474
▁생성된 474
▁설명한 474
▁승강 474
▁시작한다고 474
▁시청자들에게 474
▁아크 474
▁압전 474
▁없어도 474
▁역전 474
▁제한이 474
▁중부 474
▁처리한다 474
▁청각 474
▁초에 474
▁최근의 474
▁출연을 474
▁판별 474
▁항체 474
▁해결해야 474
▁헌신 474
물인 474
씨에 474
일수 474
장소 474
조달 474
쥬 474
TP 473
▁감염자 473
▁개선해 473
▁계기를 473
▁공헌 473
▁국산차 473
▁내실 473
▁대구시는 473
▁대안으로 473
▁부분에서 473
▁수질 473
▁스트레스를 473
▁쌍용자동차 473
▁아이들은 473
▁안정성이 473
▁연구와 473
▁오신환 473
▁운영이 473
▁윌리엄 473
▁전라남도 473
▁전의 473
▁전형적인 473
▁주최하는 473
▁추억을 473
▁펼쳐졌다 473
▁환자들은 473
들고 473
정당을 473
정밀 473
증의 473
▁& 472
▁92 472
▁강북 472
▁구입한 472
▁구조다 472
▁느꼈 472
▁모으 472
▁부스를 472
▁분쟁조정 472
▁사태의 472
▁수출규제 472
▁시작을 472
▁와중에 472
▁요금을 472
▁우즈베키스탄 472
▁운동이 472
▁인플루언서 472
▁중단을 472
▁지인 472
▁최소화하고 472
▁콘퍼런스 472
▁탈퇴 472
▁호응 472
관한법률 472
둑 472
민과 472
시키면서 472
인베스트먼트 472
타를 472
한데 472
ort 471
▁IBK 471
▁규제에 471
▁꼴 471
▁남는 471
▁노예 471
▁다듬 471
▁도모할 471
▁마련해야 471
▁배틀 471
▁보장을 471
▁부설 471
▁삼각 471
▁삼성은 471
▁생산과 471
▁선택이 471
▁시책 471
▁실리콘밸 471
▁싹 471
▁쏟아졌다 471
▁예정이 471
▁이달부터 471
▁추격 471
▁폐업 471
▁학과 471
▁흰 471
리던 471
보고서를 471
비율이 471
색으로 471
앞 471
염을 471
▁"2 470
▁것임을 470
▁그야말로 470
▁뉴딜 470
▁무리한 470
▁사무총 470
▁스마트폰이 470
▁시가총액 470
▁아인슈타 470
▁역으로 470
▁이강 470
▁이더리움 470
▁자로 470
▁장성 470
▁전달한다 470
▁제출된 470
▁지킬 470
▁한진 470
▁햇빛 470
▁화장실 470
▁화제 470
▁확인하였다 470
본은 470
셀러 470
스토리 470
정보화 470
환경이 470
▁결정하고 469
▁고용노동부가 469
▁단점을 469
▁도지사에게 469
▁맞물 469
▁순위를 469
▁시리즈의 469
▁안심하고 469
▁연설 469
▁이렇듯 469
▁자궁 469
▁전폭 469
▁전화번호를 469
▁진상 469
▁집중된다 469
▁징계를 469
▁페이스 469
▁피의 469
▁하나하나 469
광주 469
내야 469
는데도 469
숙이 469
야말로 469
지던 469
탬 469
협회와 469
▁10. 468
▁EQ 468
▁가용 468
▁공무원은 468
▁구현한 468
▁극복하고 468
▁기대해 468
▁남용 468
▁띄는 468
▁발목을 468
▁밸런 468
▁세월호 468
▁안방 468
▁앞뒤 468
▁약간의 468
▁연락이 468
▁예매 468
▁인스타그램에 468
▁자세로 468
▁재가 468
▁전액을 468
▁제공한다고 468
▁좋게 468
▁판로 468
▁프랜차이즈 468
▁학교와 468
▁한방 468
▁힐링 468
긍 468
대상이 468
사관 468
줍니다 468
추가 468
탭 468
펌 468
▁개교 467
▁검사의 467
▁단독으로 467
▁대가로 467
▁대내외 467
▁독자적인 467
▁만났 467
▁사회관계망서비스 467
▁스텝 467
▁우려되는 467
▁이가 467
▁이야기는 467
▁인정했다 467
▁장례 467
▁중소벤처기업부 467
내년 467
돈을 467
렌즈 467
보지 467
사와의 467
정수 467
캐스트 467
폴리 467
휴가를 467
▁검찰총 466
▁경향을 466
▁국가를 466
▁꽉 466
▁도지 466
▁때에도 466
▁민정수석 466
▁발전소 466
▁법이 466
▁습득 466
▁운영되는 466
▁인버터 466
▁장소로 466
▁전년대비 466
▁집어 466
▁카카오의 466
▁피해자의 466
▁혁신성장 466
▁후유 466
건전 466
결정을 466
경보 466
공단이 466
상생 466
작으로 466
포르 466
홉 466
LE 465
▁1985 465
▁6,000 465
▁개가 465
▁거리두 465
▁구조적 465
▁국가와 465
▁규정하는 465
▁대피 465
▁마리 465
▁모니터링을 465
▁반도체를 465
▁부상을 465
▁산업안전보건 465
▁엔지니어 465
▁옥외 465
▁우량 465
▁유럽과 465
▁중소기업에 465
▁지원하기로 465
▁펠 465
▁한참 465
가요 465
메이커 465
설정 465
위원장으로 465
정보의 465
정책의 465
질병 465
텔레 465
품의 465
▁강력하게 464
▁거둘 464
▁급속도로 464
▁농가 464
▁대시 464
▁디젤엔 464
▁따뜻 464
▁렌털 464
▁모를 464
▁법원에 464
▁변경이 464
▁보자 464
▁생리 464
▁성공할 464
▁알츠하이머 464
▁언제든지 464
▁얼어붙 464
▁연계하여 464
▁오픈소스 464
▁온라인을 464
▁정부도 464
▁짙 464
▁차량과 464
▁청송 464
▁테슬라는 464
▁텔레비 464
▁퇴직연금 464
▁프로젝트에 464
느라 464
두가 464
시설이 464
외국인 464
종목 464
88 463
iz 463
▁240 463
▁격차를 463
▁규제로 463
▁규칙을 463
▁노래가 463
▁댐 463
▁살아가 463
▁셀트리온 463
▁스카이 463
▁시점이 463
▁시행한다고 463
▁싼 463
▁이뤘다 463
▁인상과 463
▁청와대의 463
▁투자는 463
▁트리 463
▁특혜 463
▁현장이 463
▁협상에 463
강남 463
너스 463
루를 463
면에는 463
코리아의 463
협약을 463
▁강동구 462
▁공기압 462
▁김소 462
▁다할 462
▁대기업과 462
▁마모 462
▁박지원 462
▁보살 462
▁분명한 462
▁설계를 462
▁안겼다 462
▁이세 462
▁일어났 462
▁잎 462
▁정정 462
▁지시를 462
▁차량으로 462
▁추천을 462
▁파트너십 462
▁프랑크푸르트 462
▁픽업 462
▁항만 462
▁행보 462
▁화재가 462
게도 462
관한 462
구하고 462
로써 462
샷 462
집단 462
측이 462
협정 462
97 461
▁곡으로 461
▁꼼꼼히 461
▁남성의 461
▁다하고 461
▁당선되었다 461
▁드라마의 461
▁실적에 461
▁적절하게 461
▁찬성으로 461
▁탄생한 461
▁파장 461
▁프린팅 461
▁후의 461
개와 461
금액이 461
두를 461
들에게도 461
딧 461
똥 461
모와 461
찬을 461
판은 461
형간염 461
▁건강이 460
▁과태료를 460
▁구성으로 460
▁그치지 460
▁내려가 460
▁도전하는 460
▁레인지로버 460
▁바람직한 460
▁부담하는 460
▁사업장에 460
▁상태의 460
▁서지 460
▁설치한다 460
▁애프터 460
▁얻게 460
▁의료기관을 460
▁이틀간 460
▁일조 460
▁잉 460
▁장착해 460
▁직권 460
▁참가자 460
▁통증을 460
▁파일럿 460
▁포스트 460
▁포착됐다 460
▁폭풍 460
▁학사 460
대역 460
재단은 460
주차장 460
최저임금 460
치며 460
항에도 460
94 459
if 459
▁개념이 459
▁개선될 459
▁개정된 459
▁건보 459
▁과실 459
▁규모에 459
▁논산 459
▁못했다는 459
▁별개로 459
▁아무것도 459
▁얼굴이 459
▁외식 459
▁자금조달 459
▁적극적 459
▁전하 459
▁전해진다 459
갱 459
고용노동 459
노조가 459
법원 459
사회의 459
학원 459
화당 459
IF 458
▁8. 458
▁많습니다 458
▁변호사가 458
▁부임 458
▁삶이 458
▁순차 458
▁스키 458
▁시각이 458
▁예정돼 458
▁완벽 458
▁위치하고 458
▁인명 458
▁자세를 458
▁작품이다 458
▁저렴하게 458
▁준법 458
▁증언 458
▁팔린 458
▁평가된다 458
▁평가에서 458
▁표적 458
▁향상시켜 458
가락 458
걸음 458
다만 458
단기 458
드리오니 458
뜸 458
손해보험 458
조리 458
하긴 458
▁검체를 457
▁경선에서 457
▁공개하지 457
▁공기가 457
▁깊게 457
▁대상인 457
▁똑 457
▁명목으로 457
▁상단 457
▁생활에 457
▁생활치료 457
▁신고한 457
▁재사용 457
▁주행할 457
▁철저하게 457
▁친구가 457
▁크로스오버 457
▁파란 457
▁표면을 457
▁피부에 457
▁현수 457
겠느냐 457
루가 457
만명으로 457
맥스 457
소득이 457
스키 457
조명 457
키트 457
▁과일 456
▁넘어가 456
▁늦은 456
▁변하는 456
▁상쇄 456
▁세계로 456
▁시스템도 456
▁참석하는 456
▁한국당과 456
▁확산될 456
▁효력이 456
故 456
산업에 456
이프 456
졌는데 456
▁6. 455
▁개그맨 455
▁건네 455
▁노란 455
▁다르지 455
▁대구지역 455
▁대권 455
▁대신해 455
▁마시 455
▁묘사 455
▁밀어붙 455
▁부유 455
▁세그먼트 455
▁시간도 455
▁써야 455
▁쓰기 455
▁않았기 455
▁영역이 455
▁유튜브를 455
▁음반 455
▁자격이 455
▁정책은 455
▁차선 455
▁챔피언 455
▁특성과 455
▁혁명 455
▁희망퇴직 455
등은 455
디아 455
상태가 455
신호가 455
요건 455
투자를 455
표시장 455
협회에 455
qu 454
▁가입이 454
▁근무를 454
▁내비쳤다 454
▁더한다 454
▁말도 454
▁메리츠 454
▁미래에셋대우 454
▁백신을 454
▁불발 454
▁비추어 454
▁사람들과 454
▁선거는 454
▁선도하는 454
▁손보 454
▁승무 454
▁옵 454
▁접종을 454
▁창출할 454
▁평행 454
▁향상시키기 454
▁환수 454
나와 454
더스 454
룬 454
실적이 454
어스 454
67 453
68 453
▁CS 453
▁겪을 453
▁김명 453
▁낮춘 453
▁내몰 453
▁도입이 453
▁런칭 453
▁발맞춰 453
▁발행하는 453
▁생각에 453
▁수립하여 453
▁스펙 453
▁양천구 453
▁어레이 453
▁온라인몰 453
▁운영된다 453
▁일과 453
▁전망하고 453
▁좀더 453
▁지수가 453
▁퀴즈 453
▁트랜스포메이션 453
곱 453
조립 453
티드 453
후의 453
3,000 452
ech 452
▁SD 452
▁ST 452
▁개를 452
▁결정적인 452
▁구멍 452
▁그렇다 452
▁무주 452
▁사정으로 452
▁서양 452
▁선착순 452
▁시원 452
▁언택트 452
▁우연히 452
▁재개발 452
▁전광 452
▁조성하고 452
▁줄였다 452
▁지원한 452
▁컨버 452
▁필터를 452
▁확대됐다 452
▁환경부 452
▁환자도 452
▁힌 452
가격은 452
국회의 452
그런 452
아버 452
연구소는 452
태평양 452
?' 451
▁BTS 451
▁가이드라인을 451
▁가톨릭 451
▁공룡 451
▁다이내믹 451
▁디트로이트 451
▁맞대 451
▁상징하는 451
▁세액 451
▁소비를 451
▁습관 451
▁실장은 451
▁유학생 451
▁의원들 451
▁인구의 451
▁재심 451
▁좁혀 451
▁주장한 451
▁펌 451
▁협력이 451
▁형상을 451
▁획 451
▁흑자 451
기간에 451
기보다는 451
되었다는 451
왔고 451
정당이 451
프레임 451
2,000 450
▁가능해졌다 450
▁냉장 450
▁덕에 450
▁두되 450
▁법령에 450
▁선별진료소 450
▁수소차 450
▁어워드 450
▁움직일 450
▁인정받고 450
▁입력하면 450
▁장비의 450
▁중단하고 450
▁집중하는 450
▁촉구하는 450
▁통장 450
▁파업으로 450
▁팬들을 450
▁환산 450
들보다 450
디스크 450
롯데 450
먼트를 450
모로 450
박이 450
상태에 450
상품권 450
으려 450
줌 450
합성 450
▁6% 449
▁RV 449
▁같았다 449
▁개인위생 449
▁걸러 449
▁경제성 449
▁공작 449
▁관계자가 449
▁기간으로 449
▁기쁨 449
▁들지 449
▁무리가 449
▁밝히지 449
▁부총리는 449
▁사생활 449
▁사이트에 449
▁산업과 449
▁센터장은 449
▁숨을 449
▁어머니가 449
▁에너지의 449
▁여유가 449
▁원심판결을 449
▁위대한 449
▁의무적으로 449
▁입지 449
▁잇따르고 449
▁전수조사 449
▁전지용 449
▁주파수를 449
▁찾아야 449
▁키우 449
▁통화를 449
▁틈새 449
▁프로젝트는 449
▁해외에 449
국대 449
마로 449
바로 449
보증을 449
상공 449
실장이 449
킨다 449
품으로 449
했거나 449
▁0.2 448
▁갖도록 448
▁깎아 448
▁당선된 448
▁들어선 448
▁부모의 448
▁비닐 448
▁소자에 448
▁시간당 448
▁신청했다 448
▁아나운서 448
▁악플 448
▁유지를 448
▁작가의 448
▁적다 448
▁정도였다 448
▁정류 448
▁투표에 448
▁파나 448
▁후베이성 448
구조가 448
길에 448
들여 448
많은 448
미로 448
사도 448
션은 448
았다고 448
오픈 448
지방자치법 448
파업 448
64 447
▁개발한다 447
▁극단 447
▁기여하고 447
▁기자간담회에서 447
▁나눴다 447
▁누구도 447
▁데려 447
▁데에는 447
▁도입하고 447
▁본체 447
▁비수 447
▁선정한다 447
▁시리즈를 447
▁아니하는 447
▁얹 447
▁이자를 447
▁이체 447
▁주최한 447
▁타이밍 447
▁통신장비 447
▁한국토요타 447
▁힐 447
공립 447
금액은 447
답을 447
바닥 447
언이 447
▁ATM 446
▁것인가 446
▁경계를 446
▁관계로 446
▁귀여운 446
▁극의 446
▁대기오염 446
▁대주 446
▁방문을 446
▁번호를 446
▁비상장 446
▁시작하면서 446
▁아기 446
▁에듀테크 446
▁운명 446
▁음성이 446
▁적정한 446
▁제때 446
▁지키지 446
▁지형 446
▁최고위원회의에서 446
▁키운 446
▁한컴 446
감소 446
궐 446
내지 446
최고 446
티넨탈 446
하자고 446
TO 445
▁공기청정 445
▁구조조정이 445
▁권영 445
▁금융감독원 445
▁농어촌 445
▁대유 445
▁드리오니 445
▁디자인으로 445
▁떠오르고 445
▁많기 445
▁사업도 445
▁사우 445
▁삼성이 445
▁시장에서도 445
▁유입되는 445
▁이별 445
▁중화 445
▁청소년의 445
▁칼슘 445
▁패러 445
▁포맷 445
▁확산되면서 445
기나 445
내과 445
명이며 445
바퀴 445
지휘 445
코는 445
특수 445
휴업 445
ne 444
▁Re 444
▁경제사회 444
▁공략을 444
▁과제가 444
▁구조조정에 444
▁금요일 444
▁눈치 444
▁다목적 444
▁대표도 444
▁리듬 444
▁맘 444
▁모아지고 444
▁민법 444
▁본관 444
▁선물을 444
▁선정하고 444
▁성숙 444
▁숙지 444
▁스페이 444
▁시장에게 444
▁식중독 444
▁원자핵 444
▁인원은 444
▁전문인력 444
▁착공 444
▁허락 444
▁협의회의 444
▁화면이 444
▁회복을 444
▁힙합 444
과거 444
됨 444
리그 444
속도가 444
원으로서 444
증후군 444
GHz 443
▁EUV 443
▁LFP 443
▁가라앉 443
▁감안할 443
▁거론된다 443
▁교감 443
▁기록이 443
▁반발했다 443
▁보호에 443
▁비트코 443
▁선발된 443
▁성장률 443
▁수강생 443
▁양성평등 443
▁엔지니어링 443
▁외상 443
▁의미에서 443
▁전기화학 443
▁전도성 443
▁정치의 443
▁짐작 443
▁한복 443
▁형평 443
만대의 443
문제를 443
일리 443
증폭 443
할수록 443
▁11. 442
▁8% 442
▁DJ 442
▁가스를 442
▁고등 442
▁기분 442
▁끄 442
▁넘는다 442
▁단체의 442
▁르노삼성자동차 442
▁버전을 442
▁사건과 442
▁선거운동을 442
▁실현을 442
▁연료를 442
▁외장 442
▁이석 442
▁있기에 442
▁전한다 442
▁판단되는 442
▁펄스 442
같 442
너는 442
복구 442
저우 442
중견 442
지정 442
쭉 442
퇴직 442
팀장은 442
파인 442
행위의 442
GA 441
PG 441
▁가입자는 441
▁구토 441
▁노사정 441
▁다가오는 441
▁대북 441
▁미래통합당의 441
▁사랑이 441
▁샘 441
▁실적은 441
▁여건이 441
▁유지보수 441
▁유학 441
▁이루어지도록 441
▁전기차는 441
▁전무는 441
▁조정하는 441
▁핑크 441
▁홈페이지와 441
▁활약을 441
구성 441
냐고 441
미니 441
소자에 441
오던 441
저축은행 441
학부모 441
효율이 441
▁강도가 440
▁관련해서 440
▁단말기에서 440
▁당기순이익 440
▁디렉 440
▁몰리는 440
▁발전할 440
▁순수한 440
▁슬라이드 440
▁안타깝 440
▁운동에 440
▁이벤트도 440
▁잃어버 440
교육지원청 440
딸 440
리니지 440
모임 440
업체들의 440
젝 440
파로 440
59 439
71 439
BA 439
LL 439
▁75% 439
▁경연 439
▁고전압 439
▁군소 439
▁도전성 439
▁돌봄교 439
▁만인 439
▁문제점 439
▁불순 439
▁비극 439
▁사무총장은 439
▁사업자는 439
▁서식의 439
▁세우 439
▁세일즈 439
▁싫 439
▁역사가 439
▁올라왔다 439
▁위헌 439
▁위험도 439
▁인간과 439
▁자체에 439
▁집값이 439
▁컵 439
▁타는 439
▁판교 439
▁펀드는 439
▁페이코 439
▁폭발적으로 439
▁한국어를 439
▁한반도 439
▁활용하기 439
권에서 439
깨 439
들까지 439
보관 439
부채 439
사각 439
일에서 439
플립 439
.. 438
▁MP 438
▁감추지 438
▁거칠 438
▁것들을 438
▁과거에는 438
▁기숙 438
▁네덜란드 438
▁덴 438
▁미만인 438
▁방지한다 438
▁살리기 438
▁상에서 438
▁선택하여 438
▁위성정당 438
▁이사장이 438
▁잠정합의 438
▁장애인의 438
▁저장하는 438
▁전기차용 438
▁준용 438
▁지정하여 438
▁추가경정예산 438
▁투자하고 438
▁필요시 438
모집 438
방위 438
부분에 438
윗 438
정원 438
통지 438
파일 438
화재 438
× 437
▁가입자를 437
▁건조기 437
▁경쟁사 437
▁곳의 437
▁끄는 437
▁낙관 437
▁뛰어든 437
▁목소리 437
▁박찬 437
▁사로잡는다 437
▁새누리당 437
▁선정돼 437
▁설정한 437
▁솟 437
▁시원한 437
▁신체적 437
▁아닐까 437
▁여야는 437
▁이동할 437
▁이차전지 437
▁임금이 437
▁잘라 437
▁재검토 437
▁전부를 437
▁주민이 437
▁퀴 437
▁판독 437
▁폭스바겐의 437
▁폴더 437
▁프레스 437
▁하겠다고 437
▁하려면 437
▁해안 437
▁희망하시는 437
겁 437
끄럽 437
덩 437
라마 437
레이션을 437
센터장은 437
준호 437
했음에도 437
▁동남 436
▁맛을 436
▁상황으로 436
▁생각하지 436
▁수은 436
▁스캐 436
▁슬픔 436
▁심해 436
▁오피스텔 436
▁우려하는 436
▁운수 436
▁이러 436
▁인체에 436
▁죽음을 436
▁총리가 436
▁추진한 436
▁컬렉션 436
▁패턴의 436
▁푸드 436
▁필라 436
▁한강 436
는가 436
덱 436
버스를 436
번지 436
사업본부 436
생태 436
섹 436
역에서 436
열의 436
절감 436
췄 436
화되어 436
▁SR 435
▁과학기술정보통신부는 435
▁교육부가 435
▁김원 435
▁낙찰 435
▁네오 435
▁변혁 435
▁뺀 435
▁스태프 435
▁스토리를 435
▁시작되었다 435
▁쌓여 435
▁잔존 435
▁전반을 435
▁주문과 435
▁책은 435
▁청구할 435
▁초당 435
▁출시에 435
▁필요는 435
교대 435
런트 435
심한 435
▁2500 434
▁계절에 434
▁광대역 434
▁도와주는 434
▁문턱 434
▁백업 434
▁불가피하다 434
▁스타일을 434
▁영향은 434
▁완료했다 434
▁우려된다 434
▁유류 434
▁인근에 434
▁일로 434
▁작년에 434
▁종속 434
▁증거가 434
▁촘촘 434
▁치킨 434
▁크로 434
▁평가에 434
▁포드의 434
▁항소를 434
▁행위는 434
▁홈페이 434
▁환경오염 434
▁힘으로 434
겹 434
기술은 434
대까지 434
면은 434
시간의 434
심사를 434
쑥 434
유산 434
현상이 434
회사와 434
▁가정통신 433
▁경제정책 433
▁군수는 433
▁문턱을 433
▁보도가 433
▁비하 433
▁시계 433
▁엔드 433
▁임금피크 433
▁점과 433
▁차례에 433
▁헤드램프 433
▁현실이다 433
밀리 433
분쟁 433
생명은 433
전극을 433
취득 433
▁FM 432
▁그릇 432
▁늘렸다 432
▁당선인 432
▁떠나는 432
▁비급여 432
▁산불 432
▁설치가 432
▁스티커 432
▁실려 432
▁쌍용차의 432
▁알람 432
▁양사 432
▁역량이 432
▁유일 432
▁음주운전 432
▁의사소통 432
▁자극한다 432
▁장수 432
▁재규어랜드로버 432
▁카메라로 432
▁파워트레 432
▁표했다 432
▁프론트 432
▁홀로그램 432
관계에 432
교수 432
그린 432
등한 432
석유 432
성능을 432
셔야 432
즈와 432
펀 432
화학은 432
▁거짓말 431
▁구성하되 431
▁규정은 431
▁나오기 431
▁달라진다 431
▁도전장을 431
▁등으로부터 431
▁박람 431
▁벌어질 431
▁부위 431
▁불이익 431
▁생기고 431
▁선생님께 431
▁성착취 431
▁안테나의 431
▁이동을 431
▁이유도 431
▁인정받은 431
▁입장문을 431
▁자기가 431
▁전라 431
▁전송할 431
▁정제 431
▁지난해에 431
▁최고치를 431
▁투명한 431
▁행복을 431
뚜 431
미스터 431
보조금 431
식당 431
일까 431
▁경진 430
▁국립중앙 430
▁근로계약 430
▁납부하여야 430
▁달성을 430
▁대안신당 430
▁덤 430
▁마찬가지다 430
▁미니앨범 430
▁보급형 430
▁소음을 430
▁연결을 430
▁요소로 430
▁우라늄 430
▁위험성이 430
▁저희가 430
▁전파가 430
▁정립 430
▁제작진은 430
▁콘텐츠와 430
▁포트 430
되었음을 430
리거나 430
마크 430
방전 430
사업장 430
풍을 430
▁93 429
▁감염증으로 429
▁결제를 429
▁규모다 429
▁기온이 429
▁길러 429
▁단절 429
▁대법원은 429
▁데서 429
▁돼지 429
▁모터쇼에서 429
▁무상점검 429
▁미안 429
▁발생하여 429
▁사항과 429
▁샤오 429
▁세대를 429
▁식의 429
▁싶었다 429
▁어디에 429
▁에어팟 429
▁예측하는 429
▁원장이 429
▁입당 429
▁접근이 429
▁정쟁 429
▁중징 429
▁짙은 429
▁카메라에 429
격에 429
공시 429
분께 429
전선 429
중고 429
▁갑상 428
▁관건 428
▁관측이다 428
▁근로자와 428
▁네트워킹 428
▁뜻이 428
▁발생했을 428
▁사장과 428
▁앵커 428
▁외국계 428
▁요금제를 428
▁응답자의 428
▁이루어지지 428
▁인과 428
▁특강 428
주관 428
찔 428
특구 428
환경에 428
000 427
▁CU 427
▁가리지 427
▁고심 427
▁공유재산 427
▁김연 427
▁도시계획 427
▁룰 427
▁반성 427
▁법인세 427
▁비용과 427
▁수목 427
▁스타트업에 427
▁읽는 427
▁제목 427
▁종결 427
▁판결에 427
▁항공우주 427
▁해소할 427
▁환율이 427
▁휩쓸 427
경제가 427
랩은 427
메시 427
쁜 427
시행하여야 427
입원 427
제출 427
▁94 426
▁BNK 426
▁공존 426
▁내비 426
▁내용도 426
▁달라는 426
▁당선자가 426
▁대도시 426
▁되돌아 426
▁레저 426
▁몸의 426
▁바람직하다 426
▁박탈 426
▁법안은 426
▁불안감이 426
▁사라졌다 426
▁수단이 426
▁아르바이트 426
▁약물을 426
▁역할에 426
▁의혹과 426
▁일어나고 426
▁전자의 426
▁전환에 426
▁점쳐 426
▁조금이라도 426
▁지고 426
▁지역구인 426
▁표현이 426
▁필요하지 426
▁한두 426
▁혁신이 426
▁흠 426
년은 426
라인을 426
력도 426
모니터 426
방은 426
부부 426
시즌 426
실습 426
와도 426
우를 426
우한 426
위원을 426
입을 426
적용 426
정산 426
컴퓨팅 426
특성 426
팍 426
∼19 425
▁간식 425
▁것만 425
▁게이밍 425
▁겹쳐 425
▁기억이 425
▁김도 425
▁동안의 425
▁문화에 425
▁방위 425
▁부진이 425
▁상장을 425
▁시민이 425
▁아나운 425
▁안타까운 425
▁원심의 425
▁위조 425
▁이선 425
▁일어났다 425
▁점등 425
▁친문 425
▁토종 425
가격을 425
경쟁력 425
공무원의 425
군수는 425
등급을 425
민주당이 425
선대 425
주시기 425
즈에 425
캔 425
탄이 425
호흡기 425
▁91 424
▁개선했다 424
▁과목 424
▁기사가 424
▁노동계는 424
▁노면 424
▁대기업이 424
▁대변인 424
▁마련하기 424
▁바쁜 424
▁부품이 424
▁비율로 424
▁심도 424
▁아쉽 424
▁앱에 424
▁연비를 424
▁열풍 424
▁직원들을 424
▁파워트레인 424
▁펼쳐지는 424
▁프레임을 424
과학기술원 424
버그 424
상표 424
썬 424
인천 424
중단 424
OP 423
▁0.1 423
▁겨울방학 423
▁고객들을 423
▁고분 423
▁국가적 423
▁그렇기 423
▁도급 423
▁르노삼성자동차가 423
▁맛이 423
▁불황 423
▁사면 423
▁사업시행 423
▁새겨 423
▁생산량을 423
▁선언을 423
▁소개한 423
▁소통하는 423
▁수행을 423
▁심하게 423
▁아버 423
▁엔딩 423
▁온천 423
▁은행에 423
▁작용하는 423
▁전자기기 423
▁제출하면 423
▁지났 423
▁채권을 423
▁트로 423
▁펀드의 423
감독을 423
다시 423
러닝 423
선도 423
주에서 423
he 422
▁9. 422
▁가성 422
▁기초자산 422
▁꿈과 422
▁대의원 422
▁도입으로 422
▁돌아갈 422
▁동산 422
▁뜨겁게 422
▁모금 422
▁배터리가 422
▁사업에서 422
▁사용했다 422
▁서버가 422
▁선거관리 422
▁세월 422
▁숙련 422
▁스마일 422
▁연구하는 422
▁원내대표와 422
▁원칙적으로 422
▁의원총 422
▁재규 422
▁증액 422
▁통계를 422
▁특수한 422
▁해외로 422
▁화웨이가 422
금리를 422
더라고 422
창조 422
허브 422
▁CF 421
▁가치와 421
▁관계자들은 421
▁극중 421
▁나서서 421
▁넣은 421
▁누르면 421
▁던졌다 421
▁리스크가 421
▁링컨 421
▁말하고 421
▁모아진다 421
▁변경하여 421
▁불허 421
▁색상 421
▁세상이 421
▁소수의 421
▁수준까지 421
▁승부 421
▁안락 421
▁않으므로 421
▁알려야 421
▁운행을 421
▁의약 421
▁이슈를 421
▁임무를 421
▁장르의 421
▁정치권의 421
▁정치에 421
▁채굴 421
▁총장은 421
▁커넥티드 421
▁판촉 421
▁포용 421
▁표면의 421
▁호소하는 421
▁후임 421
▁훈련을 421
레는 421
상대 421
속에서 421
시설과 421
영을 421
창의 421
페이스 421
편으로 421
해고 421
화폐 421
350 420
▁게임으로 420
▁과부 420
▁도박 420
▁뜻하는 420
▁멘토링 420
▁범위는 420
▁사실과 420
▁서울시교육청 420
▁아키텍 420
▁열쇠 420
▁이혜 420
▁자동적으로 420
▁재판을 420
▁접속해 420
▁터뜨 420
▁페달 420
▁혐오 420
민주주의 420
방사 420
심리가 420
인상 420
GS 419
▁7,000 419
▁감소가 419
▁낭비 419
▁맞을 419
▁메뉴를 419
▁박물관 419
▁부족하다는 419
▁분석과 419
▁빌린 419
▁산다 419
▁셀룰 419
▁소유한 419
▁아쉬운 419
▁유가족 419
▁이해와 419
▁인종 419
▁인터넷에 419
▁입출 419
▁재생에너지 419
▁적용하면 419
▁정합 419
▁종목은 419
▁초록 419
▁최고위원회의 419
▁추가됐다 419
▁쿠폰을 419
▁트레 419
▁평생학습 419
광역시 419
기업들이 419
냅 419
당으로 419
대형 419
밋 419
배나 419
선언 419
인공 419
첨 419
플래 419
해제 419
▁ILO 418
▁가족들이 418
▁감염에 418
▁검증된 418
▁권리가 418
▁논문을 418
▁뇌졸중 418
▁모델링 418
▁믿을 418
▁발표가 418
▁변경하는 418
▁변압 418
▁비상이 418
▁사회안전망 418
▁상품과 418
▁상품이다 418
▁수업에 418
▁숨어 418
▁실명 418
▁어려웠다 418
▁없음을 418
▁유권자들이 418
▁유발할 418
▁이천 418
▁인지도 418
▁일정에 418
▁자활 418
▁정하지 418
▁좋습니다 418
▁주장하며 418
▁집배 418
▁집안 418
▁추진에 418
디를 418
리츠 418
미스 418
보호법 418
불법 418
아와 418
회관에서 418
UV 417
▁갑작스러운 417
▁공간과 417
▁과징금 417
▁관전 417
▁내게 417
▁농성 417
▁다변 417
▁대중의 417
▁동맹 417
▁미국에서는 417
▁반려동 417
▁뱅크 417
▁벡 417
▁사각 417
▁사업장을 417
▁산업혁명의 417
▁성능에 417
▁시리즈는 417
▁신용정보 417
▁쓰나 417
▁엿볼 417
▁예방하고 417
▁일체형 417
▁입었다 417
▁장치와 417
▁쟁점 417
▁전환할 417
▁정권이 417
▁종양 417
▁종합적인 417
▁지역화폐 417
▁차분 417
▁천천히 417
▁캐릭터가 417
▁컷 417
▁학계 417
▁혁신의 417
나마 417
린이 417
박람회 417
백화점 417
범이 417
벤처기업 417
부정 417
사이클 417
성분 417
시스템과 417
옷 417
위원장의 417
유플러스의 417
충돌 417
퀘 417
했음을 417
▁곡을 416
▁기성 416
▁농지 416
▁당선인은 416
▁더욱더 416
▁릴 416
▁뮤 416
▁받거나 416
▁발생하면서 416
▁발언은 416
▁변수로 416
▁사과를 416
▁사무처 416
▁상태였다 416
▁샌프란시스코 416
▁성능은 416
▁성장해 416
▁수월 416
▁스피드 416
▁신재생에너지 416
▁신청해 416
▁실생활 416
▁아니하고 416
▁야심 416
▁업무는 416
▁열흘 416
▁유치를 416
▁일어나지 416
▁일으키고 416
▁작용했다 416
▁주변을 416
▁쪼개 416
▁창의적 416
▁채널에 416
▁포트폴리오를 416
▁피드백 416
▁허용하는 416
▁호르몬 416
▁확정됐다 416
네트웍 416
렬한 416
르의 416
마에 416
사고가 416
사업과 416
유기 416
존중 416
종사 416
칙을 416
프리카 416
화합 416
▁가정을 415
▁가창 415
▁결집 415
▁관계부처 415
▁구체적으로는 415
▁네트워크에 415
▁노동시간 415
▁대남 415
▁덕분이다 415
▁도로교통 415
▁동화 415
▁리콜을 415
▁사각지대 415
▁사과했다 415
▁사업비 415
▁안방극장을 415
▁야권 415
▁연중 415
▁일본차 415
▁입시 415
▁존재를 415
▁주도로 415
▁주체가 415
▁채널의 415
▁채용을 415
▁축적된 415
▁출간 415
▁콘텐츠의 415
▁키폰 415
▁풍성한 415
▁하단 415
▁한정된 415
▁헨리 415
▁활용되고 415
건설은 415
들에서 415
만큼은 415
썸 415
오버 415
옵 415
율에 415
지방법원 415
체크 415
켰다 415
▁가로막 414
▁경차 414
▁고품질 414
▁곳도 414
▁관료 414
▁국민적 414
▁꿈꾸는 414
▁내재 414
▁다짐 414
▁더불어민주당의 414
▁무대에서 414
▁봉투 414
▁부식 414
▁빗썸 414
▁선거대책 414
▁수집된 414
▁신용평가 414
▁신한은행 414
▁유리하다 414
▁익스플로 414
▁인류의 414
▁인지도가 414
▁일었다 414
▁정계 414
▁제조공정 414
▁중남미 414
▁카메라의 414
▁파악하기 414
▁프라이빗 414
▁필두로 414
▁한발 414
▁향토 414
▁혁신과 414
구간 414
끄러운 414
성적 414
스레 414
월말까지 414
일부터는 414
코스 414
nm 413
▁0.5 413
▁가지며 413
▁개최했다고 413
▁경영에 413
▁골자다 413
▁단수 413
▁독창 413
▁동원해 413
▁머무 413
▁명백한 413
▁모습도 413
▁몰두 413
▁무이자 413
▁받기도 413
▁받았다는 413
▁비하면 413
▁오면 413
▁이광 413
▁찾는다 413
▁코드를 413
▁탈북 413
▁태어 413
▁특약 413
는다는 413
벨트 413
보라 413
액과 413
왔습니다 413
입력 413
중에서 413
칫 413
항이 413
▁광복 412
▁구현하기 412
▁기호 412
▁대회는 412
▁문의가 412
▁범퍼 412
▁사각지 412
▁사장을 412
▁시스템인 412
▁압류 412
▁열정 412
▁위원회에서 412
▁인식하는 412
▁인하를 412
▁재벌 412
▁전기차와 412
▁주어진다 412
▁준연동형 412
▁콘크리트 412
▁태극 412
▁텐데 412
▁평가한 412
▁하려는 412
▁회원이 412
너지 412
등과 412
렵 412
로부터의 412
리버 412
실천 412
테이션 412
프로젝트 412
CS 411
ace 411
▁거침 411
▁경제적인 411
▁고열 411
▁공개를 411
▁공모전 411
▁교수를 411
▁기본계획 411
▁기업도 411
▁누군가 411
▁다녀간 411
▁마음껏 411
▁명으로 411
▁미연에 411
▁볼트 411
▁분수 411
▁선사한다 411
▁소득주도 411
▁수락 411
▁수산 411
▁원고에 411
▁의거하여 411
▁정당을 411
▁횡단 411
르크 411
민족 411
산업단지 411
설에 411
스럽고 411
았기 411
회로의 411
▁가격의 410
▁구조는 410
▁나흘 410
▁넘을 410
▁느껴진다 410
▁달해 410
▁딸의 410
▁미션 410
▁벗어난 410
▁벤틀 410
▁보복 410
▁사용자를 410
▁서울중앙지검 410
▁속도와 410
▁신의 410
▁연관된 410
▁연구원 410
▁예방하는 410
▁왔던 410
▁인간은 410
▁임무 410
▁전략과 410
▁차지하며 410
▁채널에서 410
▁채택했다 410
▁통해서도 410
▁학생들 410
▁확장을 410
▁휴대폰의 410
가장 410
강사 410
뒀 410
문화예술 410
서에서 410
운수 410
원으로부터 410
졌으나 410
주체 410
쳤고 410
평을 410
현과 410
회담 410
휠 410
▁95% 409
▁DID 409
▁결제할 409
▁관객들이 409
▁구성은 409
▁금지하는 409
▁길고 409
▁노동자는 409
▁몸과 409
▁반영할 409
▁밝히면서 409
▁보고를 409
▁보태 409
▁비리 409
▁사업장의 409
▁셔 409
▁시동 409
▁우려하고 409
▁원상 409
▁의료기관에서 409
▁의존도가 409
▁인계 409
▁정국 409
▁정보통신망 409
▁좋다고 409
▁직선 409
▁카카오가 409
▁코엑스에서 409
▁펀딩 409
▁한양 409
▁회사에서 409
▁후기 409
레스트 409
발성 409
소녀 409
시키면 409
적으로도 409
중개 409
est 408
one 408
▁괜찮은 408
▁구축과 408
▁넘어설 408
▁다크 408
▁단위의 408
▁대관 408
▁돌아가는 408
▁메르 408
▁무관하게 408
▁변상 408
▁보행자 408
▁분류되는 408
▁선택의 408
▁세미 408
▁수년간 408
▁신용보증 408
▁아우디의 408
▁아이들에게 408
▁억울 408
▁예비후보가 408
▁완성된 408
▁인원을 408
▁주관부서의 408
▁컨설팅을 408
▁파악한 408
▁행정적 408
▁형성을 408
국회가 408
년차 408
단체에 408
더가 408
믹스 408
법인을 408
비밀 408
DP 407
ib 407
▁구조와 407
▁내에서도 407
▁는 407
▁동서 407
▁마다 407
▁맞다 407
▁벤처캐피털 407
▁병역 407
▁실시하여 407
▁실현하는 407
▁심어 407
▁영구자 407
▁영상에 407
▁오로지 407
▁용기 407
▁우려의 407
▁원유 407
▁유병 407
▁의의가 407
▁이들에 407
▁있다가 407
▁자꾸 407
▁전국민주노동조합총연맹 407
▁지속해서 407
▁짓는 407
▁튜 407
▁포스 407
▁현금으로 407
▁후보에게 407
결과는 407
루프 407
빨 407
센스 407
소득세 407
지원사업 407
톨 407
통신은 407
평생 407
RA 406
▁20∼30 406
▁4∼5 406
▁KEB 406
▁과기정통부 406
▁국민들에게 406
▁그리스 406
▁근속 406
▁단원 406
▁단체를 406
▁변화로 406
▁브로 406
▁상품성을 406
▁선택에 406
▁선호도가 406
▁설비의 406
▁순식간에 406
▁아파 406
▁않아서 406
▁양주 406
▁위원회를 406
▁잡지 406
▁제조에 406
▁중간에 406
▁중앙에 406
▁투자의 406
▁팀장은 406
▁펄 406
▁페르 406
▁혜택도 406
▁확진자로 406
▁흔한 406
가에서 406
격차 406
계약의 406
그룹과 406
노무 406
모니 406
배상 406
산과 406
서야 406
손실을 406
시킨다는 406
정부와 406
제도의 406
클로 406
해줘 406
화면 406
69 405
▁KTX 405
▁감안하여 405
▁갖추어 405
▁관리한다 405
▁그라운드 405
▁늦추 405
▁다투 405
▁달러에 405
▁달콤 405
▁대상자는 405
▁붙은 405
▁사라지고 405
▁새보수당 405
▁소련 405
▁수입이 405
▁시도를 405
▁알아서 405
▁이해관계가 405
▁저임금 405
▁전년도 405
▁정치권이 405
▁제어를 405
▁종류에 405
▁좌석 405
▁주력하고 405
▁출사표를 405
▁키를 405
▁특별연장근로 405
▁팬들에게 405
▁폭넓게 405
▁하락세를 405
▁한국은행 405
공장이 405
과장이 405
년에도 405
상황이 405
서비스가 405
센서를 405
수칙을 405
실시 405
얀 405
익이 405
좋은 405
지니 405
해준 405
BI 404
IX 404
▁2·4 404
▁가입자의 404
▁가지를 404
▁가파른 404
▁결과와 404
▁경영을 404
▁공직선거 404
▁근로자에 404
▁나간 404
▁논의하고 404
▁단정 404
▁대상의 404
▁떠났다 404
▁무의 404
▁물의 404
▁방사성 404
▁배워 404
▁분명하다 404
▁블랙홀 404
▁아버지의 404
▁앞다퉈 404
▁외국어 404
▁울산시장 404
▁유흥 404
▁이번에도 404
▁임계 404
▁접속이 404
▁존속 404
▁증거를 404
▁총괄하는 404
▁컴퓨터가 404
▁표정 404
▁할아버 404
▁현대는 404
▁회로기판 404
년부터는 404
는지는 404
대책본부 404
롭다 404
병에 404
보험을 404
세이 404
온도 404
지노 404
첨단 404
하셨 404
해당 404
∼11 403
▁개인용 403
▁공단 403
▁관장 403
▁구직급여 403
▁구호 403
▁기저질환 403
▁도우 403
▁동아시아 403
▁면책 403
▁모드로 403
▁몰고 403
▁바로잡 403
▁반복적으로 403
▁봤을 403
▁부총 403
▁부풀 403
▁신상 403
▁실사 403
▁알린 403
▁애정을 403
▁앰 403
▁영역으로 403
▁움직임에 403
▁위암 403
▁이번엔 403
▁이벤트는 403
▁일체로 403
▁전력이 403
▁전원공급 403
▁전자제품 403
▁커지자 403
▁탐사 403
▁현금을 403
▁혼란이 403
개시 403
산업진흥원 403
세한 403
찜 403
찾 403
체적 403
티가 403
▁SE 402
▁간판 402
▁경제학 402
▁공청 402
▁구입하는 402
▁금강 402
▁노조원 402
▁덩 402
▁뒤인 402
▁문서를 402
▁미러 402
▁민주당에 402
▁보험료가 402
▁분석할 402
▁불안감을 402
▁살짝 402
▁삶에 402
▁시인 402
▁안겨 402
▁안전성이 402
▁압력이 402
▁오존 402
▁젤 402
▁존경 402
▁지향하는 402
▁콧 402
▁팬들과 402
고속도로 402
동차 402
러블 402
로이 402
류는 402
법인의 402
부품을 402
세라 402
쇼핑몰 402
업계에서는 402
월부터는 402
쯔 402
팜 402
ore 401
∼15 401
▁가치는 401
▁강력히 401
▁건물에 401
▁검토를 401
▁격벽 401
▁과학자들은 401
▁동성 401
▁무소속으로 401
▁번거로 401
▁봅니다 401
▁빚어 401
▁상고이유 401
▁샌드 401
▁여기는 401
▁원판결 401
▁있어서도 401
▁정신과 401
▁중요합니다 401
▁지역구를 401
▁지적한다 401
▁채로 401
▁하버 401
▁형성한다 401
▁확장할 401
▁획득한 401
강도 401
러는 401
세포가 401
재단이 401
주사 401
펑 401
하였다는 401
행위로 401
7,000 400
ISA 400
VD 400
▁iOS 400
▁계속되는 400
▁국가지정 400
▁내다 400
▁노동조합이 400
▁득 400
▁래퍼 400
▁말라리아 400
▁면담 400
▁면밀히 400
▁반가 400
▁방과후 400
▁심의하기 400
▁아니기 400
▁에버 400
▁여당인 400
▁영감을 400
▁오케스트라 400
▁올라온 400
▁육성에 400
▁의료용 400
▁이용자에게 400
▁입후보 400
▁제한할 400
▁종류가 400
▁첩 400
▁패스 400
▁행렬 400
▁행할 400
공의 400
남용 400
디언 400
라이드 400
원장은 400
전류를 400
합창 400
회사에 400
회에는 400
PD 399
ard 399
▁1.6 399
▁IFA 399
▁감광 399
▁게시판 399
▁공중보건 399
▁김대 399
▁달러로 399
▁당선인이 399
▁도전을 399
▁만들어내는 399
▁만들어지는 399
▁명단 399
▁물갈이 399
▁발생된 399
▁분말 399
▁사정을 399
▁생산해 399
▁설문조사를 399
▁소문이 399
▁솔직 399
▁시청할 399
▁신문은 399
▁실버 399
▁아무래도 399
▁양당 399
▁예치 399
▁오랜만에 399
▁완충 399
▁인간을 399
▁전기차가 399
▁조경 399
▁중단했다 399
▁행사할 399
결이 399
공기 399
노사 399
독한 399
만대에 399
명인 399
비디오 399
비즈니스 399
신뢰 399
유치 399
차전지 399
∼12 398
▁2024 398
▁개발됐다 398
▁고려하지 398
▁국토부 398
▁기동 398
▁기업에서 398
▁꼽혔다 398
▁날로부터 398
▁높기 398
▁두번째 398
▁만족감을 398
▁매각을 398
▁물과 398
▁발생시 398
▁발표하면서 398
▁밝히며 398
▁백종 398
▁베스트셀링 398
▁브리핑 398
▁산은 398
▁세대의 398
▁세출 398
▁실시합니다 398
▁앨 398
▁웃돌 398
▁윤곽 398
▁자체는 398
▁잠실 398
▁장면은 398
▁적혀 398
▁탈취 398
▁토론을 398
▁평창 398
▁피아노 398
▁한국은행이 398
▁현장체험학습을 398
기록을 398
냈고 398
되기를 398
서비스는 398
시장에서는 398
월이 398
키를 398
턱 398
-3 397
ence 397
▁교육과정을 397
▁기관으로 397
▁낮았다 397
▁넘긴 397
▁닮 397
▁마음의 397
▁민첩 397
▁박영 397
▁방향이 397
▁벗어나지 397
▁사임 397
▁생성하는 397
▁세대가 397
▁소장은 397
▁소홀 397
▁실직 397
▁아랍 397
▁아세 397
▁알려지지 397
▁없었 397
▁원소 397
▁자동변속 397
▁자발적인 397
▁재적 397
▁저비용 397
▁접어 397
▁징후 397
▁차이나 397
▁창출하는 397
▁클러스 397
▁패턴이 397
▁한국투자증권 397
넨 397
선박 397
츄 397
카이 397
▁1/ 396
▁CNBC 396
▁가기 396
▁경기침 396
▁골절 396
▁구글과 396
▁그들 396
▁기울여 396
▁남기 396
▁논의하는 396
▁늘린 396
▁단단한 396
▁무급 396
▁바둑 396
▁배임 396
▁사육 396
▁수준은 396
▁압수 396
▁어지 396
▁용의 396
▁움 396
▁의문을 396
▁이번주 396
▁전기적으로 396
▁정보공개 396
▁진출할 396
▁질환이 396
▁추천한 396
▁크기에 396
▁퇴직금 396
고령 396
박스를 396
분양 396
선암 396
송금 396
율로 396
음식 396
이체 396
자재 396
작가 396
제동 396
FM 395
OT 395
form 395
▁1981 395
▁갤 395
▁고등학생 395
▁금액의 395
▁금전 395
▁기능의 395
▁기법 395
▁노총 395
▁늘었고 395
▁덕분 395
▁동향을 395
▁마련한다 395
▁매출액이 395
▁메탄 395
▁배수 395
▁범용 395
▁부동산을 395
▁성동구 395
▁시드니 395
▁신성 395
▁쏟아지고 395
▁쓰레 395
▁자연의 395
▁정교한 395
▁정상화를 395
▁정책적 395
▁조직은 395
▁진입을 395
▁진학 395
▁참여와 395
▁표명 395
고정 395
딤 395
숲 395
지속 395
▁감속 394
▁개인적인 394
▁개편을 394
▁고객들은 394
▁깔려 394
▁놀랍 394
▁달리고 394
▁등장하고 394
▁병원과 394
▁사람들도 394
▁사서 394
▁산업에서 394
▁상부에 394
▁아내가 394
▁업무와 394
▁없지 394
▁역할은 394
▁은폐 394
▁응답이 394
▁의문 394
▁이례 394
▁재질 394
▁저마다 394
▁전기차에 394
▁전해져 394
▁절반이 394
▁청렴 394
▁총장 394
▁폭의 394
▁프리미어 394
▁한지 394
▁횟 394
▁후발 394
공사를 394
량한 394
소독 394
혈증 394
▁6·25 393
▁가지가 393
▁간행 393
▁개학이 393
▁기획예산 393
▁날씨가 393
▁다음주 393
▁던진 393
▁매출의 393
▁뮤지션 393
▁미지수다 393
▁박물 393
▁배치된 393
▁사장의 393
▁수년 393
▁수칙을 393
▁신념 393
▁실업자 393
▁쏟아져 393
▁아닌지 393
▁어쩌면 393
▁역사의 393
▁연구하고 393
▁위탁하여 393
▁인정하지 393
▁재적위원 393
▁제네시 393
▁참석할 393
▁찾아온 393
▁출입을 393
▁캐패시 393
▁포커스 393
▁플렉시블 393
▁학문 393
▁학부모회 393
▁힘쓰 393
기간의 393
브이 393
아세안 393
워서 393
자영업 393
킬로 393
테라 393
트레이 393
해서다 393
흑 393
HE 392
▁관심은 392
▁근거리 392
▁다가온 392
▁도구를 392
▁모션 392
▁무엇보다도 392
▁미소 392
▁배경에 392
▁부적절한 392
▁사업주가 392
▁샤워 392
▁스타트업과 392
▁시장점유 392
▁예고하고 392
▁운전을 392
▁원스톱 392
▁이밖에도 392
▁진출에 392
▁참석하고 392
▁초과할 392
▁충실 392
▁커져 392
▁크리스마스 392
▁포르 392
구축 392
러스트 392
스틴 392
시대의 392
자마자 392
적이라고 392
철은 392
표에 392
풋 392
합병 392
ide 391
▁GDP 391
▁과정과 391
▁구현한다 391
▁김형 391
▁다름이 391
▁단호 391
▁모양을 391
▁뭔가 391
▁미래가 391
▁미미 391
▁밀폐 391
▁방호 391
▁밸브 391
▁부도 391
▁빚을 391
▁빠질 391
▁수집한 391
▁스킨 391
▁신예 391
▁실패한 391
▁심사가 391
▁쓰인다 391
▁아르 391
▁여건을 391
▁은행과 391
▁자처 391
▁잠을 391
▁잠재적 391
▁직원에게 391
▁차가운 391
▁참고로 391
▁화제다 391
갤 391
국민의 391
놓을 391
당국은 391
리퍼 391
사채 391
시경 391
야구 391
일자 391
HS 390
ie 390
▁128 390
▁MBN 390
▁h 390
▁가볍게 390
▁것이어서 390
▁근처에 390
▁기초로 390
▁달라지는 390
▁많아서 390
▁미팅 390
▁바뀌고 390
▁반영하는 390
▁부동산에 390
▁브랜드에 390
▁사이에서는 390
▁성추행 390
▁습관을 390
▁신종코로나 390
▁영향에 390
▁위치해 390
▁윤상 390
▁으 390
▁입출력 390
▁전립 390
▁전문지 390
▁전화로 390
▁지속되는 390
▁집필 390
▁초유의 390
▁최저임금이 390
▁층을 390
▁치료할 390
▁컨버터블 390
▁콘텐츠에 390
▁콜라 390
▁템 390
▁품고 390
▁하차 390
▁학생들과 390
▁힘써 390
비서관 390
스트리 390
이도 390
중소 390
커녕 390
DAS 389
ear 389
ers 389
▁가능했다 389
▁그룹은 389
▁김혜 389
▁내놓는다 389
▁넓히고 389
▁높아져 389
▁돌아오는 389
▁돌입한 389
▁뜻으로 389
▁마침 389
▁모방 389
▁무작 389
▁발견하고 389
▁발부 389
▁베르 389
▁성장세가 389
▁연결하여 389
▁원격으로 389
▁월드컵 389
▁위협을 389
▁자동차업계 389
▁접촉이 389
▁준하는 389
▁중소기업을 389
▁찍고 389
▁참가했다 389
▁초래할 389
▁취업규칙 389
▁층간 389
▁편리하고 389
건조 389
매각 389
의의 389
지점 389
직으로 389
테크노파크 389
74 388
▁감독을 388
▁거론되고 388
▁건강검진 388
▁고민하고 388
▁광범위하게 388
▁그란 388
▁금고 388
▁대안이 388
▁대정부 388
▁대화가 388
▁모순 388
▁몰린 388
▁보니까 388
▁부분도 388
▁세포가 388
▁시간대 388
▁시장인 388
▁심각하게 388
▁인생을 388
▁저지른 388
▁전성 388
▁전화기의 388
▁제약이 388
▁주문을 388
▁참패 388
▁촬상 388
▁퍼포먼스를 388
▁피트 388
▁휴가를 388
권익 388
네요 388
반에 388
생은 388
워진 388
증진을 388
MR 387
▁간략 387
▁궁극적으로 387
▁그랑 387
▁기대하는 387
▁네이버와 387
▁느끼지 387
▁먹으면 387
▁밭 387
▁법무법인 387
▁수험 387
▁시행되는 387
▁어딘 387
▁연동해 387
▁외형 387
▁이뤄져 387
▁임기를 387
▁자료로 387
▁자율적으로 387
▁전문성 387
▁지시했다 387
▁지원하겠다 387
▁착안 387
▁착용하고 387
▁참가자들은 387
▁침묵 387
▁표정으로 387
▁할인을 387
▁해외시장 387
▁회로의 387
날을 387
느냐에 387
더에 387
말로 387
스타일 387
았으나 387
울산 387
유아 387
이었다고 387
전시회 387
정책이 387
주면 387
파와 387
6,000 386
▁감소시켜 386
▁결함이 386
▁궁극 386
▁끝이 386
▁난방 386
▁넘어서는 386
▁도망 386
▁등장할 386
▁만남이 386
▁본연의 386
▁부위를 386
▁상여 386
▁선별진료소에서 386
▁소속으로 386
▁시킬 386
▁신뢰할 386
▁신청서 386
▁아이템을 386
▁완성했다 386
▁외곽 386
▁요즘은 386
▁자생 386
▁작용을 386
▁재도 386
▁재미있게 386
▁조원태 386
▁진동을 386
▁질문에는 386
▁추진하기로 386
▁출시된다 386
▁커넥티드카 386
▁크기와 386
▁터라 386
▁통학 386
▁학교로 386
▁행정안전부 386
▁향하는 386
개는 386
다중 386
레일 386
롭지 386
맞춤 386
박물 386
뽀 386
스프 386
엇 386
월로 386
정책에 386
파이낸셜 386
▁견해 385
▁고객에게는 385
▁광진 385
▁금융당국은 385
▁까닭 385
▁넘겼다 385
▁논의에 385
▁들어올 385
▁떼어 385
▁방사능 385
▁상회 385
▁생산량 385
▁수치가 385
▁시도가 385
▁어려 385
▁얼음 385
▁우한에서 385
▁위약 385
▁인스턴 385
▁장병 385
▁정밀하게 385
▁조인 385
▁중단한 385
▁추가할 385
▁태도 385
▁피아 385
▁화상을 385
랑이 385
배의 385
사리 385
쉽 385
스테이션 385
스튜디오 385
영역을 385
오염 385
전원 385
젼 385
즈음 385
학년은 385
72 384
IPO 384
▁고려하고 384
▁공감대를 384
▁공립 384
▁공휴 384
▁국회의장 384
▁깨고 384
▁대통령에게 384
▁디앱 384
▁무사히 384
▁박상 384
▁방수 384
▁벌일 384
▁병을 384
▁상태는 384
▁수술이 384
▁순위가 384
▁슬롯 384
▁실행할 384
▁어쨌든 384
▁없이는 384
▁여타 384
▁와인 384
▁위협하는 384
▁입장에선 384
▁질화 384
▁체계가 384
▁측과 384
▁투표가 384
▁협약에 384
▁확인해야 384
▁활물질 384
군수 384
금고 384
기능이 384
다양한 384
당시 384
서에는 384
슨은 384
응급 384
주며 384
킴이 384
ff 383
tive 383
▁HP 383
▁검토하여 383
▁과도 383
▁구름 383
▁길이를 383
▁깎 383
▁대행한다 383
▁들어가면 383
▁만들어졌다 383
▁모듈에 383
▁반응은 383
▁버려 383
▁비하인드 383
▁선순환 383
▁여러분의 383
▁이동이 383
▁저속 383
▁전기에 383
▁증가함에 383
▁친근 383
▁크라우드 383
▁탱 383
▁포토레지스트 383
▁프랑스의 383
▁확인하여 383
▁활성화와 383
▁효력을 383
률도 383
부장관 383
시의회 383
왔지만 383
지원에 383
터리 383
합을 383
▁3.5 382
▁게임이다 382
▁고생 382
▁고화질 382
▁그들을 382
▁넘쳐 382
▁느낀다 382
▁닛산의 382
▁다이오드 382
▁달성한 382
▁대변인이 382
▁대처할 382
▁땅을 382
▁마이너 382
▁모집한다 382
▁목적이다 382
▁방송은 382
▁버리고 382
▁서정 382
▁옮기는 382
▁옵션을 382
▁입국한 382
▁저장할 382
▁제너럴 382
▁질적 382
▁충실히 382
▁클로 382
▁틀어 382
대변 382
우편 382
인드 382
측으로 382
판정을 382
한국당이 382
항목 382
1,000 381
rans 381
▁'4+1 381
▁겨냥 381
▁고급스러운 381
▁금융위원회 381
▁기하 381
▁내구성을 381
▁내놓지 381
▁넉넉한 381
▁넘어섰 381
▁노동계의 381
▁단기간에 381
▁당부하였다 381
▁돌아와 381
▁동승 381
▁면세 381
▁발휘한다 381
▁부장 381
▁부진을 381
▁사고에 381
▁스코 381
▁스페 381
▁시장에서의 381
▁알려준다 381
▁언젠 381
▁온전히 381
▁음악이 381
▁이온주입 381
▁일요일 381
▁읽을 381
▁정의선 381
▁조건에서 381
▁주축 381
▁증가시킬 381
▁지도부는 381
▁짧게 381
▁턱 381
▁티볼 381
▁평상 381
▁해결하고 381
▁획득했다 381
』, 381
갑을 381
궈 381
들만 381
령으로 381
림은 381
발의 381
설립 381
쑤 381
여개의 381
정책과 381
트에서 381
4,000 380
53 380
58 380
62 380
FA 380
WD 380
of 380
▁개인투자 380
▁개최되었다 380
▁경직 380
▁공장에 380
▁기술력 380
▁날렵 380
▁뉴턴 380
▁능력과 380
▁대회에 380
▁뒀다 380
▁말과 380
▁방법도 380
▁브이 380
▁새로운보수당 380
▁설립했다 380
▁약속한 380
▁업황 380
▁여야의 380
▁오류를 380
▁오염된 380
▁전기가 380
▁전략은 380
▁제출해주시기 380
▁주제를 380
▁줄어들었다 380
▁지원하며 380
▁직원과 380
▁크루 380
▁한성 380
▁향상시킨다 380
▁혁신금융 380
▁확산되는 380
개국에서 380
거야 380
균이 380
될지 380
멧 380
변조 380
보육 380
분야에 380
수화 380
안보 380
였을 380
중계 380
지원과 380
페인 380
54 379
▁거는 379
▁골드 379
▁과거와 379
▁교류를 379
▁나타낸 379
▁달릴 379
▁담배를 379
▁보호와 379
▁사측이 379
▁서울지방 379
▁세부적인 379
▁수입을 379
▁스피커를 379
▁신뢰도를 379
▁없는데 379
▁원격제어 379
▁의원들을 379
▁인지도를 379
▁입성 379
▁증상은 379
▁지구온난 379
▁지속할 379
▁추미애 379
▁통과를 379
▁화합물 379
강원도 379
기술개발 379
되었지만 379
률과 379
명까지 379
승용차 379
신당 379
얄 379
오의 379
있던 379
증상 379
처분이 379
혜택 379
▁견학 378
▁고난 378
▁김주 378
▁노동자들을 378
▁도시를 378
▁러닝 378
▁리더십을 378
▁문화와 378
▁미친다 378
▁박나래 378
▁보이면서 378
▁분류돼 378
▁사정에 378
▁샌드박스 378
▁생각된다 378
▁생필 378
▁선명한 378
▁스포티지 378
▁아니며 378
▁아파트를 378
▁엄격 378
▁역설 378
▁영상과 378
▁완료한 378
▁일용직 378
▁작업은 378
▁장벽 378
▁전해액 378
▁정재 378
▁제도는 378
▁제출해야 378
▁했기 378
▁행동이 378
▁힘쓰고 378
됐습니다 378
메모리 378
책임을 378
톤의 378
NE 377
▁FTA 377
▁거센 377
▁금방 377
▁나트륨 377
▁노조를 377
▁노하우 377
▁도난 377
▁동작구 377
▁되풀이 377
▁말리 377
▁밀도가 377
▁부동 377
▁상암 377
▁상황이었다 377
▁시작될 377
▁양적 377
▁열전 377
▁외교부 377
▁운전자를 377
▁은행권 377
▁재확인 377
▁전달되는 377
▁조항을 377
▁청주시 377
▁출시와 377
▁타입의 377
▁표현했다 377
▁한반 377
▁회사인 377
금액의 377
번을 377
소원 377
제이 377
78 376
▁1984 376
▁건축물의 376
▁공식적인 376
▁구현을 376
▁권력을 376
▁급증하는 376
▁다중이용 376
▁대성 376
▁라이선스 376
▁만들겠다 376
▁명확 376
▁박형 376
▁밝히는 376
▁배출을 376
▁비슷하다 376
▁상승에 376
▁서서 376
▁선불 376
▁소상공인의 376
▁승차감을 376
▁액세서리 376
▁어플 376
▁이미지와 376
▁이스타 376
▁자녀와 376
▁작성하고 376
▁제임스 376
▁차종으로 376
▁취한 376
▁팬데믹 376
▁해피 376
▁행사다 376
▁현황과 376
▁획정 376
▁휴식을 376
개선을 376
농도 376
니는 376
민을 376
역량을 376
잖아 376
재무 376
훼 376
흔 376
AE 375
ain 375
ight 375
∼200 375
▁SO 375
▁가지게 375
▁강다니엘 375
▁공약으로 375
▁구하기 375
▁국회의장이 375
▁기대에 375
▁데이터로 375
▁락 375
▁레인 375
▁맡는 375
▁백혈 375
▁부회장의 375
▁생각보다 375
▁설렘 375
▁신약개발 375
▁실린 375
▁아마존은 375
▁안쪽 375
▁없었다고 375
▁자료는 375
▁자치구 375
▁정몽 375
▁주기로 375
▁창구 375
너를 375
년식 375
당국의 375
대다 375
딛 375
막과 375
메이 375
븐 375
스마트폰 375
심으로 375
전기차 375
치면서 375
페이지 375
▁가져야 374
▁것이라며 374
▁경찰과 374
▁공천에서 374
▁관심도 374
▁단락 374
▁당신이 374
▁메이트 374
▁보건복지부는 374
▁본교의 374
▁부가가치 374
▁비정규직의 374
▁빈곤 374
▁빼고 374
▁서비스업 374
▁설명회를 374
▁이병 374
▁이야기다 374
▁이전에는 374
▁임대주택 374
▁정동 374
▁준대형 374
▁측에서 374
▁카테고 374
▁코믹 374
▁타워크레인 374
▁행사의 374
거래가 374
걸이 374
뜰 374
부인 374
수학 374
스탄 374
장에는 374
지다 374
▁1983 373
▁개발은 373
▁개인적으로 373
▁경찰의 373
▁계열사인 373
▁공공기관의 373
▁국내의 373
▁나고 373
▁내밀 373
▁다국적 373
▁달이 373
▁대단 373
▁뚝 373
▁마스크와 373
▁못한다는 373
▁발생하기 373
▁복지부 373
▁산업은행 373
▁상용화에 373
▁생산량이 373
▁선제적 373
▁실천할 373
▁양천 373
▁자성 373
▁제거하고 373
▁중요하다는 373
▁지난해까지 373
▁추정하고 373
▁패키지의 373
▁폐차 373
▁할인된 373
▁해왔다 373
▁회의록 373
권자 373
대출을 373
등록을 373
라를 373
법인이 373
시험을 373
적금 373
통과 373
8,000 372
92 372
▁UHD 372
▁고양이 372
▁공정으로 372
▁금액으로 372
▁노리는 372
▁다이어트 372
▁도착한 372
▁뒤따 372
▁드러나는 372
▁명단에 372
▁박영선 372
▁발표에 372
▁배경에는 372
▁보닛 372
▁사고는 372
▁소를 372
▁심리가 372
▁심사위원 372
▁아람 372
▁어렵지 372
▁언론의 372
▁에서 372
▁예배 372
▁예측이 372
▁장비가 372
▁전쟁이 372
▁지적에 372
▁택시를 372
▁토론토 372
▁편견 372
▁한마음 372
▁해석을 372
▁해줄 372
▁화질을 372
값은 372
검토 372
공학부 372
김종인 372
산화물 372
업체로 372
혁명 372
US 371
ance 371
▁넓게 371
▁덧 371
▁도지사 371
▁되지만 371
▁둘러싸 371
▁로딩 371
▁리플 371
▁묶어 371
▁생존을 371
▁신호로 371
▁어디서 371
▁여성과 371
▁예산은 371
▁왓 371
▁용어 371
▁유무를 371
▁이상한 371
▁인연을 371
▁정리해 371
▁커서 371
▁테슬라의 371
▁토지의 371
▁투자로 371
▁티몬 371
▁티볼리 371
▁팔을 371
▁펫 371
▁후진 371
껍 371
발전에 371
사회에 371
에프 371
요일 371
우면 371
위권 371
지수가 371
처에 371
항과 371
▁경력이 370
▁공소사실 370
▁마산 370
▁막상 370
▁법에 370
▁생각은 370
▁식재료 370
▁쓰일 370
▁양해각서 370
▁엑스포 370
▁역사와 370
▁연계된 370
▁운영한 370
▁원통형 370
▁인상이 370
▁임직원이 370
▁전하고 370
▁지정해 370
▁촉진하기 370
▁파트 370
▁항생 370
金 370
갑질 370
결의 370
꽁 370
동산 370
디와 370
모티브 370
사업자가 370
생존 370
앨범 370
약한 370
요원 370
켰 370
하지도 370
61 369
▁"' 369
▁간격 369
▁감염경 369
▁강조하며 369
▁검토해 369
▁동반성장 369
▁드러내는 369
▁드문 369
▁리그 369
▁바꿨다 369
▁보건당국이 369
▁성향이 369
▁시상식에서 369
▁실태를 369
▁엑스레이 369
▁오빠 369
▁위치와 369
▁은성수 369
▁이색 369
▁이현 369
▁있겠 369
▁정량 369
▁제니 369
▁조개 369
▁존재가 369
▁지역구에 369
▁파생상품 369
▁한경 369
▁허물 369
▁홍역 369
▁화물차 369
개월로 369
년보다 369
로선 369
발이 369
분야의 369
재판 369
조원이 369
지지만 369
초가 369
키아 369
하여서는 369
화되면서 369
▁ML 368
▁가르쳐 368
▁결승 368
▁결합하여 368
▁고집적 368
▁교도 368
▁내원 368
▁네가 368
▁답한 368
▁대기업의 368
▁막혀 368
▁매력으로 368
▁머물러 368
▁먼지 368
▁민경욱 368
▁발언으로 368
▁법리를 368
▁사용하게 368
▁사이트에서 368
▁상점 368
▁신기 368
▁연구위원은 368
▁옮기 368
▁자유한국당의 368
▁장례식 368
▁전통시장 368
▁제재를 368
▁주관으로 368
▁중첩 368
▁최고출력 368
▁취임하였다 368
리포 368
릭스 368
방으로 368
뱃 368
사례를 368
아카데미 368
여러 368
으니까 368
조사와 368
찰을 368
타가 368
OLED 367
~6 367
▁EX 367
▁같다는 367
▁계도 367
▁고발했다 367
▁공무원을 367
▁과정의 367
▁국무총 367
▁낙하 367
▁로열 367
▁리스크를 367
▁린 367
▁망가 367
▁무형 367
▁보건소에 367
▁비상대책 367
▁수행한 367
▁스폰 367
▁알파벳 367
▁없었다는 367
▁열광 367
▁유지하며 367
▁유지해 367
▁인접한 367
▁전쟁을 367
▁조속한 367
▁최고경영 367
▁크기로 367
▁페이스북의 367
▁현실이 367
▁흉부 367
되지는 367
리드 367
밸리 367
범위를 367
사전 367
사회를 367
세다 367
웍 367
제주 367
혐 367
ML 366
ma 366
▁320 366
▁9000 366
▁LH 366
▁가지로 366
▁감염증이 366
▁개발의 366
▁개정으로 366
▁격리해제 366
▁구상이다 366
▁금감원이 366
▁남동 366
▁다가올 366
▁두꺼 366
▁두며 366
▁로봇과 366
▁마케팅에 366
▁비판하는 366
▁사용하였다 366
▁선정됐다고 366
▁선정하는 366
▁수립하여야 366
▁수에 366
▁숫자를 366
▁엔터프라이즈 366
▁우려해 366
▁위반으로 366
▁융복합 366
▁이메 366
▁이용하지 366
▁제거하여 366
▁주시길 366
▁차관 366
▁콘텐츠는 366
▁파동 366
▁확대된 366
▁환전 366
귤 366
드리고 366
방식으로 366
브로 366
조회 366
직에 366
창을 366
하이브리드 366
▁Al 365
▁RS 365
▁갭 365
▁결정된다 365
▁경기도는 365
▁경력을 365
▁구정 365
▁구축이 365
▁국토교통부는 365
▁규칙에 365
▁김우 365
▁까다 365
▁논란은 365
▁농도 365
▁다룰 365
▁대한민국을 365
▁마스크는 365
▁미끄러 365
▁민주당을 365
▁박수를 365
▁박준 365
▁받침 365
▁방향과 365
▁부통령 365
▁사이에는 365
▁세단의 365
▁솔루션이다 365
▁시스템반도체 365
▁얻지 365
▁에릭 365
▁용도에 365
▁용인시 365
▁우울증 365
▁윌 365
▁유감 365
▁은혜 365
▁이화 365
▁인천시 365
▁읽어보시고 365
▁주목받는 365
▁증상으로 365
▁테이프 365
▁텍스트 365
▁팀의 365
▁필요해 365
▁하나도 365
▁현실에 365
▁획기적인 365
공사와 365
렸으며 365
보급 365
사유가 365
신고를 365
응답 365
체제 365
킥 365
터링 365
행한 365
활성화 365
HC 364
▁'2018 364
▁35% 364
▁고양시 364
▁기탁 364
▁김유 364
▁네트워크의 364
▁논평을 364
▁대웅 364
▁독립적으로 364
▁들어서는 364
▁를 364
▁많았던 364
▁밧데 364
▁사용해야 364
▁사이를 364
▁사적 364
▁서울에 364
▁세탁기 364
▁쉐 364
▁시위를 364
▁알아보고 364
▁앱이 364
▁역임 364
▁오르며 364
▁의료기관에 364
▁이용자를 364
▁전한 364
▁주변에서 364
▁즐겁고 364
▁증가했다고 364
▁창고 364
▁철폐 364
▁초점이 364
▁치료제로 364
▁팀은 364
▁행장은 364
▁홈플러스 364
▁화석연료 364
기상 364
능한 364
리라는 364
불을 364
인으로서 364
일부 364
지원이 364
프렌즈 364
WS 363
∼50 363
▁Co 363
▁간담회에서 363
▁검사와 363
▁것일 363
▁경희 363
▁규정함으로써 363
▁금속노조 363
▁긴장감이 363
▁녹여 363
▁대구광역시 363
▁도금 363
▁돋 363
▁레버 363
▁마련이 363
▁모토 363
▁물은 363
▁부적절 363
▁비즈니스를 363
▁비틀 363
▁사회주의 363
▁산재보험 363
▁순위에 363
▁숨겨진 363
▁없으나 363
▁여기에서 363
▁여부의 363
▁연결이 363
▁예상한다 363
▁올리며 363
▁우려로 363
▁워킹 363
▁유진 363
▁절제 363
▁정밀한 363
▁정식으로 363
▁퀀텀 363
▁표정을 363
▁휘도 363
관리하여야 363
구니 363
늬 363
매수 363
시키는데 363
언했다 363
점포 363
하시면 363
호화 363
kWh 362
·16 362
▁Ch 362
▁것과는 362
▁견고 362
▁고군분투 362
▁권선 362
▁근저 362
▁기재된 362
▁끌어올렸다 362
▁나뉘 362
▁동장은 362
▁뒤에도 362
▁든든한 362
▁만들어낸 362
▁맡겨 362
▁변경될 362
▁불완전 362
▁비례정당 362
▁서대문구 362
▁실외 362
▁싫어 362
▁아낌 362
▁어릴 362
▁엄중 362
▁없었지만 362
▁예산결산 362
▁용해 362
▁위안 362
▁의문이 362
▁이견을 362
▁있는가 362
▁작사 362
▁장비와 362
▁재원을 362
▁전류의 362
▁전문가는 362
▁정했다 362
▁중위 362
▁추천할 362
▁케이뱅크 362
▁틀을 362
▁평가해 362
▁풍성 362
▁핵심협약 362
교육이 362
국장이 362
기구를 362
기기에 362
남에 362
댄 362
명이었다 362
보살 362
뽕 362
사망 362
성형 362
셰 362
자율 362
청을 362
파트너스 362
평화 362
ata 361
▁김남 361
▁다양하다 361
▁리모델링 361
▁마무리했다 361
▁마힌드라 361
▁만나고 361
▁면세점 361
▁복귀를 361
▁볼보는 361
▁브레이크를 361
▁새보수 361
▁셔틀 361
▁시총 361
▁신청하는 361
▁아우디폭스바겐 361
▁안에는 361
▁알려줄 361
▁어우러져 361
▁없애고 361
▁엔비디아 361
▁유명하다 361
▁음식물 361
▁음식이 361
▁이만 361
▁입력되는 361
▁작용한 361
▁전념 361
▁전환했다 361
▁측정한 361
▁피복 361
▁핏 361
▁합친 361
배선 361
상승 361
시대에 361
양은 361
어머니 361
우수 361
운트 361
이한 361
EX 360
▁365 360
▁가계대출 360
▁거라는 360
▁교육복지 360
▁규모와 360
▁기술혁신 360
▁비정상 360
▁상담이 360
▁상온 360
▁생각한 360
▁선택하면 360
▁소변 360
▁스케일 360
▁양성으로 360
▁언어를 360
▁얼마든지 360
▁연골 360
▁연속으로 360
▁인천공항 360
▁접속할 360
▁정부서울청사에서 360
▁쥐고 360
▁최고위원이 360
▁펌프 360
▁현대자동차의 360
▁화면의 360
경제적 360
극을 360
노스 360
방울 360
실히 360
테르 360
ok 359
▁가능케 359
▁개정안에 359
▁국정감사 359
▁극단적인 359
▁단체는 359
▁드리고자 359
▁무대로 359
▁물체 359
▁발전이 359
▁비밀번호 359
▁비아 359
▁빛나는 359
▁상근 359
▁생기지 359
▁솔루션으로 359
▁어린이가 359
▁에러 359
▁완료되면 359
▁유연하게 359
▁인센티브를 359
▁장학금 359
▁차단할 359
▁총파업에 359
▁최대주주 359
▁추가적으로 359
▁카메라는 359
▁키오스크 359
▁프로듀서 359
▁한국에서는 359
▁해소하고 359
▁혐의가 359
▁형성되고 359
▁확진자를 359
받고자 359
어드 359
자리에 359
장려 359
전부터 359
현직 359
▁가깝 358
▁갖춰야 358
▁개인과 358
▁것만으로도 358
▁공공시설 358
▁공천이 358
▁관절염 358
▁납득 358
▁다방 358
▁단숨에 358
▁도모하고 358
▁독성 358
▁동물의 358
▁되살 358
▁드러낸다 358
▁따라야 358
▁방한 358
▁보험에 358
▁부호 358
▁분야에서도 358
▁불가피하게 358
▁브랜드와 358
▁사업장에서 358
▁샤오미 358
▁서예 358
▁세우는 358
▁소명 358
▁시작하고 358
▁실태조사를 358
▁엄마가 358
▁조사할 358
▁중력 358
▁취지에 358
▁콘서트를 358
▁판결했다 358
▁헛 358
두의 358
매틱 358
박물관 358
반이 358
뿐이다 358
성모병원 358
억여 358
치면 358
택트 358
터에서 358
하진 358
NG 357
io 357
▁105 357
▁격상 357
▁견디 357
▁결혼을 357
▁고민하는 357
▁구성과 357
▁구애 357
▁금품 357
▁내구성 357
▁노력하는 357
▁농축 357
▁다뤄 357
▁도봉구 357
▁모으는 357
▁물질로 357
▁배달앱 357
▁소유권 357
▁수와 357
▁쌓인 357
▁얼굴에 357
▁업종별 357
▁웅진 357
▁위치가 357
▁유지한 357
▁이어가는 357
▁인프라가 357
▁입문 357
▁자치법규 357
▁작동하지 357
▁저의 357
▁젊은이 357
▁질환으로 357
▁징수할 357
▁축산 357
▁털어 357
▁트렌드에 357
▁해당된다 357
거래소 357
곳은 357
디에 357
란에 357
만달러를 357
반은 357
베리 357
비교 357
소리가 357
쏘나타 357
인정 357
전력을 357
천대 357
▁8,000 356
▁v 356
▁개봉을 356
▁객관 356
▁걸로 356
▁계단 356
▁교육감이 356
▁구매가 356
▁그다지 356
▁넣는 356
▁명예훼손 356
▁보훈 356
▁분리된 356
▁불안한 356
▁상승하는 356
▁실리콘밸리 356
▁앞세운 356
▁오락 356
▁용기를 356
▁의결했다 356
▁이것에 356
▁이곳에 356
▁잡음 356
▁장내 356
▁재래 356
▁저조 356
▁전하며 356
▁정려 356
▁조성된 356
▁지침에 356
▁초월 356
▁출시하며 356
▁친구들이 356
▁투입할 356
▁파격 356
▁판매했다 356
▁피고인이 356
▁피력 356
▁하태경 356
▁학업 356
▁현대모비스가 356
▁활용되는 356
다니 356
방학을 356
산업과 356
인들 356
쩍 356
펀드를 356
RE 355
ass 355
▁4· 355
▁PHEV 355
▁감소에 355
▁국가는 355
▁국정감사에서 355
▁금호타이어는 355
▁내며 355
▁노출되는 355
▁닮은 355
▁당선자는 355
▁드러내고 355
▁땅에 355
▁로드맵 355
▁마이클 355
▁범위에 355
▁부수 355
▁불편이 355
▁산화물 355
▁선보인다고 355
▁설립하고 355
▁성장의 355
▁스포티한 355
▁싸이 355
▁인지하고 355
▁전반의 355
▁접점을 355
▁취약계층에게 355
▁토지를 355
▁투명하게 355
▁튼튼 355
▁페이지를 355
▁플래시 355
▁피고인의 355
▁필요하고 355
감정 355
기아차의 355
동구 355
산업협회 355
압을 355
요금을 355
진다는 355
출혈 355
케미칼 355
토스 355
포장 355
화질 355
확대 355
kW 354
▁가족돌봄 354
▁감염증의 354
▁계측 354
▁구혜 354
▁기술력이 354
▁기억을 354
▁대본 354
▁돌고 354
▁동북 354
▁등에서도 354
▁띤 354
▁맡았던 354
▁발생시키는 354
▁비상경제 354
▁상습 354
▁설계된 354
▁소형화 354
▁수순 354
▁스크린을 354
▁아버지는 354
▁에디 354
▁운영위원회 354
▁유일의 354
▁지배구조 354
▁차단하기 354
▁착취 354
▁창단 354
▁칩의 354
▁태권도 354
▁토요타의 354
▁통합해 354
▁판매해 354
▁확대되는 354
▁확장해 354
대표는 354
매의 354
사막 354
사이언스 354
상공회의소 354
세븐 354
였기 354
위해 354
젯 354
즐 354
툰 354
플러그 354
)', 353
EN 353
MW 353
nd 353
▁230 353
▁k 353
▁가벼 353
▁강하다 353
▁갖추게 353
▁같다고 353
▁기밀 353
▁나타낼 353
▁남자가 353
▁다큐멘터리 353
▁단연 353
▁대상자를 353
▁되게 353
▁라이프스타일 353
▁머신 353
▁메일 353
▁반도체장치의 353
▁범여 353
▁사무의 353
▁선정하여 353
▁성과급 353
▁실손보험 353
▁어떨 353
▁우수성을 353
▁의대 353
▁이용객 353
▁임시국회 353
▁중심을 353
▁추세에 353
▁취소를 353
▁하이퍼 353
▁혁신적 353
▁휠베이스 353
규정에 353
급한 353
내장 353
모씨는 353
법인은 353
역사 353
연구개발 353
연구소가 353
오면 353
전까지 353
창원 353
하러 353
혜택을 353
혹한 353
홀딩스 353
▁a 352
▁광장 352
▁그칠 352
▁뇌물 352
▁다이렉트 352
▁단어를 352
▁르노삼성의 352
▁리브 352
▁묻고 352
▁밝고 352
▁비난을 352
▁사연을 352
▁아시 352
▁악화로 352
▁유관기관 352
▁의미와 352
▁이용자들의 352
▁일한 352
▁장으로 352
▁증가세가 352
▁지금까지는 352
▁투자했다 352
▁파생결합펀드 352
교과 352
교육은 352
닛산 352
루는 352
마자 352
부분을 352
자원을 352
적의 352
플라이 352
▁MRI 351
▁간편한 351
▁갖출 351
▁개최를 351
▁뉴스를 351
▁다이얼 351
▁도요타의 351
▁마루 351
▁번복 351
▁보험사가 351
▁볼보의 351
▁부정한 351
▁불린다 351
▁삼성증권 351
▁수집하고 351
▁시설과 351
▁신고가 351
▁엄청 351
▁에프 351
▁예탁 351
▁올라갈 351
▁우수하고 351
▁운영체제 351
▁이대 351
▁이행하지 351
▁접점 351
▁초기부터 351
▁효과로 351
건물 351
구획 351
나가고 351
달러로 351
릅니다 351
림에 351
물량 351
물이다 351
선물 351
쉐 351
스퀘어 351
외선 351
인증을 351
자동화 351
자들에 351
트릭 351
환을 351
ru 350
▁OCN 350
▁겁 350
▁과언이 350
▁긴급한 350
▁노인복지 350
▁다시금 350
▁대결을 350
▁돌발 350
▁등에서는 350
▁명도 350
▁못했고 350
▁바이러스의 350
▁반도체장치 350
▁반영하여 350
▁백색 350
▁비판도 350
▁시장도 350
▁신한카드 350
▁역할도 350
▁이송됐다 350
▁이연 350
▁이후부터 350
▁자식 350
▁제공한다는 350
▁제작사 350
▁지나친 350
▁지적한 350
▁지질 350
▁착용한 350
▁청문회를 350
▁탑재됐다 350
▁톡톡히 350
▁팝업 350
▁피아트 350
▁필름을 350
▁함안 350
갓 350
공정이 350
구동 350
독립 350
막은 350
볼루션 350
옴 350
재산을 350
제거 350
펀드는 350
학교의 350
AD 349
The 349
are 349
▁1973 349
▁SA 349
▁가정에서는 349
▁간단하고 349
▁따르 349
▁떠오르는 349
▁번씩 349
▁비당권 349
▁안과 349
▁약화 349
▁여당은 349
▁이날까지 349
▁이르러 349
▁있어요 349
▁조치했다 349
▁증가했고 349
▁지배적이다 349
▁진단이 349
▁채소 349
▁충원 349
▁클럽을 349
▁판타지 349
▁프로젝트가 349
▁핸들링 349
▁회사다 349
기소 349
다니는 349
달을 349
마리 349
안정자금 349
윤이 349
조사에 349
커스 349
투스 349
ire 348
▁ETRI 348
▁가져가 348
▁납부한 348
▁내열 348
▁동양대 348
▁드럼 348
▁바이든 348
▁산업으로 348
▁손꼽 348
▁아쉬움을 348
▁접한 348
▁정형 348
▁주문이 348
▁채용한 348
▁출시로 348
▁탑재돼 348
▁톡 348
▁투자자들은 348
▁협력하여 348
갔고 348
검증 348
긋 348
두리 348
보와 348
싱을 348
억엔 348
연령 348
웹툰 348
을수록 348
자동차를 348
작업이 348
지므로 348
투자는 348
IR 347
▁1979 347
▁간소화 347
▁검토한 347
▁경산 347
▁고액 347
▁고용유지지원금 347
▁국내에선 347
▁낮다는 347
▁넓어 347
▁논란으로 347
▁농도를 347
▁당했다 347
▁말합니다 347
▁망원 347
▁모른다는 347
▁무더기로 347
▁바른미래 347
▁반도체소자의 347
▁벨로스터 347
▁벨벳 347
▁불필요 347
▁사용하던 347
▁슬림 347
▁않았으나 347
▁온몸 347
▁유무선 347
▁이득을 347
▁이름은 347
▁인정될 347
▁일으켰다 347
▁입구 347
▁장동 347
▁잦아 347
▁재난지원금 347
▁전후로 347
▁제작하고 347
▁조절이 347
▁지급된다 347
▁직면한 347
▁착한 347
▁창당을 347
▁총회 347
▁추세가 347
▁침수 347
▁특고 347
▁판단은 347
▁핸 347
▁확장하고 347
▁회복이 347
공사에 347
마와 347
문화의 347
스트림 347
액으로 347
으려면 347
제도는 347
철의 347
킥보드 347
테크는 347
현장의 347
Ch 346
MG 346
▁DLS 346
▁거부할 346
▁고갈 346
▁급변하는 346
▁대신에 346
▁물체를 346
▁미군 346
▁방안으로 346
▁사업자로 346
▁상승세가 346
▁생명보험 346
▁생활임금 346
▁소멸시효 346
▁솔직한 346
▁수율을 346
▁승부를 346
▁식량 346
▁신소재 346
▁신중한 346
▁신청에 346
▁없다며 346
▁여느 346
▁육상 346
▁이라 346
▁이베이 346
▁이창 346
▁인물로 346
▁재계 346
▁좌절 346
▁중량 346
▁지방보조금 346
▁진전 346
▁품질과 346
▁환경부는 346
경쟁력을 346
경화 346
그라운드 346
님께 346
분기부터 346
비상 346
성이나 346
셸 346
소음 346
체계가 346
흡연 346
81 345
▁270 345
▁간과 345
▁개그 345
▁경미한 345
▁내세웠다 345
▁내에서는 345
▁도로의 345
▁도울 345
▁때문인 345
▁불안정한 345
▁불평등 345
▁산소를 345
▁상인 345
▁승용차를 345
▁신차가 345
▁실린더 345
▁안전성과 345
▁양재 345
▁양해 345
▁연관성이 345
▁전문가와 345
▁정권을 345
▁종식 345
▁죄송 345
▁줘야 345
▁지었다 345
▁질서 345
▁착탈 345
▁판명 345
▁팔렸다 345
▁풋 345
▁필리버스터를 345
▁하려고 345
▁한전 345
▁항공사 345
▁헌법재판 345
▁협의가 345
▁휴대폰에 345
까요 345
더불어 345
동영상 345
드론 345
미네 345
버스터 345
부장관이 345
종과 345
주인 345
회의가 345
act 344
▁AT 344
▁DMB 344
▁가닥 344
▁구독자 344
▁기재부 344
▁다수가 344
▁로이터 344
▁로컬 344
▁뭔지 344
▁반입 344
▁발전의 344
▁사고의 344
▁사업자의 344
▁사직 344
▁성장률이 344
▁야당은 344
▁예측하고 344
▁옥개 344
▁유지한다 344
▁인격 344
▁인장 344
▁입맛 344
▁전달한 344
▁전방위 344
▁전통적 344
▁정진 344
▁제기돼 344
▁조례의 344
▁지점을 344
▁추론 344
▁포함하면 344
▁폴란드 344
▁하수 344
▁한결 344
▁한도를 344
▁회부 344
▁후보자에 344
▁휩싸 344
균형 344
방법이 344
방송을 344
부담금 344
싶 344
전파 344
정보시스템 344
주얼 344
프리미엄 344
하시길 344
훈과 344
119 343
98 343
▁125 343
▁IR 343
▁가격과 343
▁감상할 343
▁거야 343
▁거주자 343
▁결석 343
▁경남도 343
▁계획도 343
▁관객이 343
▁구멍을 343
▁근로감독 343
▁껍 343
▁대남병원 343
▁대표되는 343
▁라운 343
▁랜섬웨어 343
▁마련되어 343
▁모터에 343
▁몰딩 343
▁미만으로 343
▁미추홀구 343
▁박수 343
▁보장성 343
▁실험실 343
▁쏟아냈다 343
▁앞당겨 343
▁요인을 343
▁인사이트 343
▁인상에 343
▁일이었다 343
▁재료의 343
▁전적으로 343
▁제출하고 343
▁쪽에 343
▁찾아내 343
▁팬미팅 343
▁펀드에 343
▁하노 343
권한 343
면세 343
불가 343
전극의 343
쳤던 343
학술 343
ase 342
▁EC 342
▁IPO 342
▁경제활동 342
▁고립 342
▁고용이 342
▁고취 342
▁교인 342
▁노숙 342
▁대표적으로 342
▁도입한다 342
▁뚫고 342
▁라디에이터 342
▁배치해 342
▁배터리팩 342
▁법사위 342
▁법인을 342
▁보고서에서 342
▁분주 342
▁비대칭 342
▁서기는 342
▁소송비용은 342
▁솔더 342
▁쓴다 342
▁약세를 342
▁엣지 342
▁여럿 342
▁영토 342
▁운영의 342
▁운전자들이 342
▁인류가 342
▁인연이 342
▁일어난다 342
▁잠깐 342
▁전자빔 342
▁정우 342
▁제안하는 342
▁진료비 342
▁추정했다 342
▁출납 342
▁통과했다 342
▁패키징 342
▁휠과 342
▁흔적이 342
가입자 342
대금을 342
유출 342
자금이 342
잡을 342
지배 342
지사가 342
카드로 342
해달라는 342
▁GPU 341
▁개발로 341
▁구간을 341
▁기온 341
▁내놨 341
▁늦어 341
▁단축할 341
▁대원 341
▁대체하는 341
▁레전드 341
▁명은 341
▁번째는 341
▁분석하여 341
▁비결 341
▁사연이 341
▁사용하도록 341
▁상임위 341
▁액셀러레이터 341
▁언더 341
▁여성들이 341
▁예쁜 341
▁웃음이 341
▁일곱 341
▁저널 341
▁전승 341
▁접수를 341
▁중시하는 341
▁증가는 341
▁첨 341
▁초보 341
▁추운 341
▁취소할 341
▁코오롱생명과학 341
▁편지를 341
▁표창을 341
▁활동할 341
▁휠을 341
건설이 341
달러를 341
당권 341
대변인은 341
라이언스 341
렉서 341
메디 341
반응을 341
벡 341
사상 341
출산 341
▁CN 340
▁PK 340
▁가능하지만 340
▁개발도상 340
▁결합을 340
▁곡이다 340
▁누구보다 340
▁대학이 340
▁모터사이클 340
▁반도체소자 340
▁반복되는 340
▁반짝 340
▁방침에 340
▁방향성을 340
▁보였던 340
▁비어 340
▁사실도 340
▁살펴본 340
▁서대문 340
▁서버의 340
▁섞인 340
▁솜 340
▁수출은 340
▁수학적 340
▁애국 340
▁영상에는 340
▁옹호 340
▁월스트리트저널 340
▁위촉된 340
▁의총 340
▁일각에서 340
▁제주시 340
▁집중시켰다 340
▁첫번째 340
▁출력하는 340
▁취향에 340
▁카자흐스탄 340
▁타겟 340
▁탈모 340
▁투자유치 340
▁판매되고 340
▁포드가 340
▁푸르 340
▁프로젝트의 340
▁확대되면서 340
▁효율성이 340
▁휘발 340
구멍 340
당국과 340
러시 340
슘 340
씨도 340
엔드 340
엔터테인먼트는 340
음료 340
캠퍼스 340
▁ELS 339
▁게이트웨이 339
▁결함을 339
▁관리하기 339
▁기여하는 339
▁깜 339
▁노력과 339
▁도모하는 339
▁두께가 339
▁뒤처 339
▁먹어 339
▁모른 339
▁목욕 339
▁발전하고 339
▁배우자 339
▁변경되었다 339
▁부적합 339
▁비례연합정당 339
▁설정하고 339
▁세팅 339
▁손소독 339
▁수사권 339
▁순간을 339
▁스팀 339
▁시작하여 339
▁외국인의 339
▁일렉트로 339
▁장관에 339
▁정화 339
▁제네시스는 339
▁주름 339
▁직급 339
▁처리하고 339
▁청탁 339
▁판단에서다 339
▁플루 339
보통 339
부문의 339
부재를 339
수업을 339
영과 339
이드를 339
인성 339
점인 339
첼 339
취약계층 339
카로 339
켄 339
하겠지만 339
하루 339
항은 339
▁IMF 338
▁고객에 338
▁광주형 338
▁구멍이 338
▁기를 338
▁김형오 338
▁노동자와 338
▁당헌 338
▁마취 338
▁미스 338
▁밀도 338
▁부당이득 338
▁분양가 338
▁불규칙 338
▁불리한 338
▁사용함으로써 338
▁삼성동 338
▁삽 338
▁상생협력 338
▁어때 338
▁에어로 338
▁엔지니 338
▁연결할 338
▁염색 338
▁요금수납 338
▁의사는 338
▁인텔리전 338
▁일본을 338
▁장기화로 338
▁정차 338
▁지칭 338
▁청와 338
▁충전할 338
▁취급하는 338
▁카이엔 338
▁캐피 338
▁통합이 338
▁펄어비스 338
▁활기를 338
▁후퇴 338
겠다며 338
경제를 338
공정의 338
기금을 338
대우는 338
들이는 338
딕 338
맥을 338
번의 338
심판결 338
아지 338
안정을 338
전통 338
중지 338
집중 338
청문 338
캠퍼 338
확정 338
▁감소와 337
▁감탄 337
▁거머 337
▁게재했다 337
▁구현해 337
▁그것도 337
▁끝났 337
▁누르고 337
▁떨어진다는 337
▁맥주 337
▁명지 337
▁모양으로 337
▁배기량 337
▁베스트셀러 337
▁산부인과 337
▁상설 337
▁석유화학 337
▁소득을 337
▁송부 337
▁수위를 337
▁수증 337
▁안철수계 337
▁안테나에 337
▁운영한다고 337
▁인문 337
▁일원 337
▁제어가 337
▁제작진이 337
▁채택한 337
▁캐릭터로 337
▁커넥터를 337
▁평가도 337
▁포화 337
▁핵심적인 337
▁화상회의 337
▁효과에 337
▁훔 337
검사가 337
미스터트롯 337
조사는 337
크에 337
통장 337
품은 337
MD 336
ens 336
ign 336
▁1982 336
▁330 336
▁간절 336
▁결정적 336
▁공기업 336
▁급기야 336
▁기자가 336
▁다가가 336
▁대학에서 336
▁더는 336
▁덩어 336
▁데뷔한 336
▁도봉 336
▁똑똑 336
▁뜬 336
▁매장에 336
▁발언에 336
▁배를 336
▁섬세 336
▁센서의 336
▁수혈 336
▁시뮬레이터 336
▁에이즈 336
▁예측했다 336
▁우승을 336
▁의도가 336
▁이벤트가 336
▁전화기 336
▁제도로 336
▁주인이 336
▁지금보다 336
▁집착 336
▁참가자들이 336
▁책임지는 336
▁탄탄 336
▁파생 336
▁함에 336
가속 336
개월을 336
검출 336
기초 336
단자 336
박을 336
받으며 336
서비스의 336
인포 336
희와 336
yp 335
▁1945 335
▁가슴이 335
▁거주하고 335
▁걸었다 335
▁견고한 335
▁경영난 335
▁공유했다 335
▁관리자 335
▁국민청원 335
▁국제적 335
▁기업용 335
▁기와 335
▁기초생활 335
▁까다로운 335
▁내건 335
▁넷째 335
▁마시고 335
▁문구가 335
▁물러나 335
▁분당서울 335
▁사랑에 335
▁생명의 335
▁석탑 335
▁세상의 335
▁어렵지만 335
▁연장을 335
▁예상되고 335
▁워터 335
▁원동 335
▁윤미향 335
▁의장의 335
▁인덱 335
▁인력과 335
▁입는 335
▁재난안전 335
▁전형 335
▁창출에 335
▁청년들이 335
▁콜라보 335
▁크래 335
▁토로 335
▁통신이 335
▁형성된다 335
▁호흡곤란 335
교부 335
라기 335
먹는 335
메이크 335
산업단 335
세탁 335
않 335
야만 335
자전거 335
죄에 335
처리장치 335
치매 335
하기보다는 335
CF 334
able 334
▁가슴을 334
▁각오 334
▁걸림돌 334
▁격리된 334
▁금천 334
▁널 334
▁도모하기 334
▁드러난다 334
▁바르 334
▁발생에 334
▁보편적 334
▁부과하는 334
▁부산진 334
▁부연했다 334
▁상승할 334
▁선정할 334
▁선택적 334
▁수소충전 334
▁스루 334
▁승려 334
▁시장점유율 334
▁시장조사 334
▁아들을 334
▁어렵기 334
▁연속적으로 334
▁완성도 334
▁원할 334
▁유지될 334
▁이용하기 334
▁이철 334
▁있더라도 334
▁잠재력을 334
▁잡힌 334
▁전년동기 334
▁청와대에서 334
▁컴퓨터의 334
▁타이어는 334
▁향상되고 334
▁험지 334
▁환호 334
노동자의 334
대인 334
로코 334
룸에서 334
마력의 334
사기 334
식별 334
억원대 334
언론 334
오일 334
유공자 334
재인 334
점이다 334
지방공무원 334
쿵 334
학교가 334
흠 334
▁가입하는 333
▁계좌로 333
▁기억에 333
▁내구성이 333
▁또다른 333
▁로마 333
▁마르 333
▁목적의 333
▁뭐가 333
▁민주노총이 333
▁밀접접촉 333
▁반응하는 333
▁밝힐 333
▁배후 333
▁부부는 333
▁빅뱅 333
▁살피 333
▁시설로 333
▁시큐 333
▁액세스 333
▁영업점 333
▁일들이 333
▁잃을 333
▁전구 333
▁조형 333
▁종료된 333
▁종부 333
▁중추 333
▁증가한다 333
▁질문이 333
▁최상 333
▁최우선으로 333
▁충청남도 333
▁치열하게 333
▁특이한 333
▁협의회는 333
▁화석 333
▁화해 333
단장은 333
배터 333
시키게 333
웍스 333
이라고도 333
초를 333
타르 333
튀 333
ulti 332
▁5∼6 332
▁PDP 332
▁TC 332
▁가파르게 332
▁강제로 332
▁걸맞 332
▁검토하는 332
▁게임과 332
▁고령자 332
▁고령화 332
▁곤충 332
▁공연은 332
▁구성하며 332
▁궁금해 332
▁그런데도 332
▁기존보다 332
▁나타났다고 332
▁논의는 332
▁느꼈다 332
▁다르다는 332
▁됐던 332
▁리프트 332
▁마땅한 332
▁마스크의 332
▁면치 332
▁무색 332
▁물질은 332
▁미래통합당은 332
▁미래한국당이 332
▁반문 332
▁벽을 332
▁사회보험 332
▁상승으로 332
▁서해 332
▁선도할 332
▁설치하여야 332
▁센서와 332
▁소금 332
▁순이었다 332
▁시제품 332
▁양측은 332
▁언어로 332
▁예정으로 332
▁이언주 332
▁일상적인 332
▁자산이 332
▁조언을 332
▁출마할 332
▁충분하다 332
▁텍 332
▁판넬 332
▁혼다의 332
▁회원가입 332
○ 332
는지에 332
보도 332
붕 332
썩 332
영어 332
외교 332
판에서 332
▁12% 331
▁Th 331
▁각형 331
▁과천 331
▁관측된다 331
▁교장 331
▁귀족 331
▁노사관계 331
▁대장암 331
▁떨어지면 331
▁병이 331
▁사단법인 331
▁사우스 331
▁산소가 331
▁생생한 331
▁스쿨뱅킹 331
▁신중하게 331
▁쏟아지는 331
▁앨범을 331
▁여론조사에서 331
▁연관이 331
▁유보 331
▁유혹 331
▁이벤트에 331
▁익혀 331
▁전조 331
▁절감을 331
▁정보도 331
▁증식 331
▁취소하고 331
▁편의성 331
▁한번에 331
▁한은이 331
▁협력할 331
▁확장에 331
기술에 331
동백꽃 331
드레 331
만큼이나 331
수술을 331
시키거나 331
유치원 331
전자와 331
철수 331
표는 331
협의회는 331
▁260 330
▁BBC 330
▁가할 330
▁공예 330
▁구글플레이 330
▁나선다고 330
▁독일에서 330
▁롯데마트 330
▁모듈의 330
▁부문에서는 330
▁생활가전 330
▁서울시의 330
▁소상공인과 330
▁시골 330
▁시설은 330
▁신뢰도 330
▁씨를 330
▁어우러진 330
▁와이즈 330
▁유공 330
▁의존하는 330
▁인건 330
▁전자를 330
▁절친 330
▁조작이 330
▁주민참여 330
▁주요한 330
▁지역별로 330
▁지원도 330
▁최저임금의 330
▁테스트베 330
▁통계에 330
▁팔려 330
▁폐쇄회로 330
▁포착돼 330
▁필연 330
▁하루가 330
▁항바이러스 330
▁해양수산 330
▁활약이 330
▁효자 330
개에서 330
구조의 330
덩이 330
릿지 330
방송통신 330
번째로 330
벽에 330
분야에서 330
으론 330
지막 330
텍스 330
– 329
▁1,200 329
▁FDA 329
▁거버넌 329
▁고객사 329
▁고유한 329
▁공무원으로 329
▁굴절 329
▁기조가 329
▁까지 329
▁나뉘어 329
▁띄게 329
▁로스앤젤 329
▁바르게 329
▁반도 329
▁배급 329
▁부분적으로 329
▁불확실성 329
▁상고비용은 329
▁시사했다 329
▁실수 329
▁실현하기 329
▁아이스크 329
▁않겠다고 329
▁어디까지 329
▁어려움에 329
▁어려웠 329
▁어색 329
▁응급실을 329
▁이커머스 329
▁자이 329
▁종류와 329
▁중앙은행 329
▁지정하고 329
▁질병으로 329
▁집이 329
▁키트 329
▁티구 329
▁활용에 329
경고 329
기술로 329
깜 329
느냐는 329
뎌 329
동작을 329
드시 329
리즈 329
마루 329
불량 329
사지 329
셋을 329
소수 329
승인을 329
종사자 329
▁감소시키는 328
▁강좌를 328
▁교장이 328
▁굳건 328
▁기관에서 328
▁끼칠 328
▁내다보고 328
▁단편 328
▁당시에 328
▁데스크 328
▁명의신탁 328
▁뭘 328
▁바이러스는 328
▁백악 328
▁브랜 328
▁사용자들이 328
▁성장률을 328
▁손이 328
▁수두 328
▁스마트팜 328
▁스타벅스 328
▁심폐소생 328
▁쏘카 328
▁않겠 328
▁알고리즘이 328
▁양수 328
▁여행객 328
▁왕복 328
▁원자로 328
▁유휴 328
▁의견으로 328
▁이찬 328
▁저를 328
▁전기차로 328
▁전통적으로 328
▁조절하여 328
▁첨예 328
▁충성 328
▁취향 328
▁탈바꿈 328
▁통신망을 328
▁파인 328
▁프레임의 328
▁형태다 328
▁화웨이의 328
개국에 328
개월에 328
관왕 328
규모가 328
규정을 328
배터리 328
법칙 328
수인 328
품과 328
▁0.3 327
▁tv 327
▁곤란한 327
▁군은 327
▁극대화할 327
▁급증하면서 327
▁기분이 327
▁만족도가 327
▁많다고 327
▁맑은 327
▁무장 327
▁미치고 327
▁본사가 327
▁부본부장은 327
▁분쟁이 327
▁상황이라 327
▁섰다 327
▁성장동 327
▁씌 327
▁열정을 327
▁우아한형제 327
▁이용되는 327
▁이전보다 327
▁자동차로 327
▁장르를 327
▁제작이 327
▁조사해 327
▁줄면서 327
▁찢 327
▁코리아는 327
▁폭스바겐이 327
▁하였고 327
경제의 327
드래곤 327
작품 327
재산권 327
지수는 327
학이 327
BP 326
BT 326
CG 326
▁WSJ 326
▁가져온 326
▁공사는 326
▁과학기술정보통신부가 326
▁광양 326
▁기저질환이 326
▁남쪽 326
▁대림 326
▁대비하기 326
▁디젤엔진 326
▁라이다 326
▁르노삼성차는 326
▁명성을 326
▁모바일게임 326
▁목표가 326
▁법의 326
▁보도자료를 326
▁빚고 326
▁서울대학교 326
▁선거인 326
▁선천 326
▁순회 326
▁쉬워 326
▁시작하면 326
▁신청자가 326
▁여학생 326
▁역량과 326
▁역할과 326
▁응급의료 326
▁인터넷은행 326
▁자회사로 326
▁장윤 326
▁저질 326
▁정교 326
▁제외된다 326
▁주효 326
▁지급되는 326
▁지방자치단체가 326
▁지원받을 326
▁질이 326
▁캐패시터 326
▁콘셉트카 326
▁클라 326
▁패스트트랙에 326
▁평일 326
▁풍력 326
▁프린트 326
▁학교급식 326
공정에 326
뒤 326
목록 326
빈은 326
수집 326
쿨 326
팸 326
▁고용량 325
▁그친 325
▁기본법 325
▁끌어올릴 325
▁나라에서 325
▁나에게 325
▁낮아진 325
▁도약을 325
▁동의서를 325
▁마그네트 325
▁마스크가 325
▁마쳤 325
▁목요일 325
▁뭉쳐 325
▁바라보고 325
▁발전하는 325
▁방문할 325
▁버전으로 325
▁보입니다 325
▁상기한 325
▁선수가 325
▁설립해 325
▁수익성을 325
▁수출규 325
▁우리나라에서 325
▁의료인 325
▁이슈로 325
▁재료로 325
▁저격 325
▁전압이 325
▁절실 325
▁주인공이 325
▁지원한다고 325
▁진단과 325
▁진출이 325
▁질의응답 325
▁컨퍼런 325
▁킨 325
▁평가받고 325
▁해고를 325
▁핸들 325
▁회상 325
각각 325
관리가 325
구제 325
모습 325
법규 325
세무 325
소상공인 325
아래 325
외국 325
플레이션 325
했으면 325
-4 324
ive 324
ment 324
▁VC 324
▁갈릴 324
▁경작 324
▁공급망 324
▁구도 324
▁나뉜다 324
▁내어 324
▁너도 324
▁눈부 324
▁단계부터 324
▁두지 324
▁랜덤 324
▁리스트 324
▁마마 324
▁바짝 324
▁방탄소년단의 324
▁배경이 324
▁불편함이 324
▁생활이 324
▁선풍 324
▁설정하는 324
▁수신된 324
▁스타트업은 324
▁연구기관 324
▁완료하고 324
▁울산시 324
▁유령 324
▁유튜브에 324
▁일렉트릭 324
▁잃게 324
▁적합하다 324
▁최대주 324
▁파이낸셜 324
▁패스트 324
▁현지에 324
▁화면에서 324
경매 324
다음 324
림과 324
상공회의 324
선교 324
자로서의 324
질과 324
핑크 324
하겠 324
ex 323
▁1300 323
▁45% 323
▁911 323
▁ISO 323
▁SSG 323
▁가능하여 323
▁객관적인 323
▁공유한다 323
▁과정으로 323
▁금지하고 323
▁김재원 323
▁내비게이션을 323
▁대구경북 323
▁매각이 323
▁물고 323
▁밝혔지만 323
▁보조금의 323
▁사안이 323
▁새끼 323
▁설치했다 323
▁소각 323
▁수만 323
▁습식 323
▁안된다 323
▁예선 323
▁의식이 323
▁적용하기 323
▁전라북도 323
▁정개특위 323
▁정전기 323
▁조금만 323
▁중요하지만 323
▁출석한 323
▁태그 323
▁현장에서는 323
▁화학물질 323
▁확진됐다 323
개월의 323
광을 323
류와 323
마당 323
바람이 323
변동 323
세력 323
암호화폐 323
테이 323
환의 323
lect 322
▁1.2 322
▁가량의 322
▁간접적으로 322
▁감지하여 322
▁공부를 322
▁국민과 322
▁그리는 322
▁금융감독원이 322
▁기아는 322
▁기장 322
▁내성 322
▁만의 322
▁못하면서 322
▁배경이다 322
▁분야와 322
▁생태계가 322
▁스퍼 322
▁시민들에게 322
▁신청자 322
▁엠블럼 322
▁여파가 322
▁올라와 322
▁위태 322
▁유발한다 322
▁음악과 322
▁인터페이스를 322
▁적용되고 322
▁지식이 322
▁진행하였다 322
▁케이블을 322
▁콘덴서 322
▁타이어의 322
▁텔루 322
▁폭탄 322
▁하늘을 322
▁학부모의 322
▁한국산업 322
▁해온 322
▁현대의 322
▁회원들이 322
근이 322
난방 322
두산 322
러쉬 322
렉트 322
부르크 322
사용자 322
산소 322
실무 322
으로서는 322
이었는데 322
제안 322
지도를 322
진료를 322
학교로 322
ial 321
omp 321
▁0. 321
▁TCP 321
▁가구의 321
▁건식 321
▁구성의 321
▁권한이 321
▁기공 321
▁기록에 321
▁남기고 321
▁낮아질 321
▁높이를 321
▁눈과 321
▁단계별 321
▁도시락 321
▁돌려보 321
▁라이더 321
▁무기계약 321
▁변제 321
▁볼보자동차 321
▁부당하게 321
▁부여할 321
▁비판의 321
▁삼는 321
▁상처가 321
▁상태이다 321
▁소망 321
▁신용대출 321
▁안내하고 321
▁않던 321
▁알찬 321
▁위기의 321
▁이례적으로 321
▁이씨는 321
▁임명한다 321
▁작용하고 321
▁잘못이 321
▁전기통신 321
▁지원받은 321
▁청소년들이 321
▁판매됐다 321
▁해결에 321
▁행동에 321
리라고 321
모델로 321
뱉 321
북한 321
사옥 321
생들이 321
음극 321
저항을 321
전해 321
플루 321
호부터 321
▁112 320
▁DR 320
▁Mnet 320
▁게스트로 320
▁고급차 320
▁근무시간 320
▁기대하기 320
▁담임교 320
▁때를 320
▁맞추는 320
▁바꿔야 320
▁법제사법 320
▁벽에 320
▁변하지 320
▁부드럽게 320
▁비누 320
▁사안에 320
▁사이로 320
▁삼았다 320
▁상품권을 320
▁설정을 320
▁소독을 320
▁소성 320
▁손상이 320
▁스며 320
▁아픔을 320
▁안팎에서는 320
▁않아야 320
▁에너지는 320
▁예쁘 320
▁외환위기 320
▁유도하고 320
▁이길 320
▁장치로 320
▁정례브리핑에서 320
▁졸업한 320
▁지도부의 320
▁채운 320
▁총파업을 320
▁토끼 320
▁판결한다 320
▁팽 320
▁합류했다 320
▁향상된다 320
검은 320
되길 320
레이트 320
방지를 320
변에 320
장비의 320
적이지만 320
질서 320
태가 320
▁NASA 319
▁SS 319
▁갈음 319
▁감원 319
▁갯 319
▁검사에 319
▁결선 319
▁고정된 319
▁구가 319
▁국립보건 319
▁그보다 319
▁그중에서도 319
▁글래 319
▁노동자에게 319
▁눌 319
▁달고 319
▁대당 319
▁대비하여 319
▁리모컨 319
▁먹은 319
▁박종 319
▁받아왔다 319
▁발레 319
▁번째다 319
▁사태는 319
▁시각을 319
▁아메리카 319
▁알티 319
▁어려웠던 319
▁얻어야 319
▁옮긴 319
▁위험성을 319
▁이들과 319
▁전역에 319
▁지급하기로 319
▁축적한 319
▁출마가 319
▁취업을 319
▁캠페 319
▁퀸 319
▁트레일블레이 319
▁팀장 319
▁팩스 319
공예 319
랍 319
루스 319
반환 319
병으로 319
볕 319
비나 319
상호 319
수요가 319
시께 319
약이 319
여명에 319
역이 319
와이어 319
칼리 319
타임을 319
펀드가 319
페어 319
핀테크 319
ast 318
▁UI 318
▁각계 318
▁감지하는 318
▁갖지 318
▁같지만 318
▁경각 318
▁고기 318
▁교육비 318
▁금형 318
▁내부를 318
▁넷 318
▁마음대로 318
▁머스크 318
▁먹지 318
▁메르세데스벤츠 318
▁무엇일지 318
▁배터리는 318
▁보라 318
▁부엌 318
▁불구속 318
▁빅데이터와 318
▁뿜어 318
▁사라질 318
▁산업단지 318
▁샌 318
▁선명 318
▁설명이 318
▁송달 318
▁시내버스 318
▁시키는 318
▁안전보건 318
▁언니 318
▁엔트리 318
▁엮 318
▁웨이퍼에 318
▁음식물류 318
▁익명 318
▁잇따른 318
▁자체로 318
▁전소 318
▁전환해 318
▁접근을 318
▁정준 318
▁주도할 318
▁지급해야 318
▁지방자치단체의 318
▁지자체가 318
▁짠 318
▁추가한 318
▁토론회 318
▁통과가 318
▁트랜지스터를 318
▁펀드가 318
▁하락을 318
▁혁신에 318
▁훈훈한 318
건과 318
곳과 318
깔 318
렇 318
리더 318
목의 318
복무 318
뿔 318
샌 318
억원까지 318
연히 318
임에 318
조성 318
하게도 318
93 317
PL 317
▁Op 317
▁감염내과 317
▁걸리지 317
▁결국은 317
▁기대와 317
▁단체교섭 317
▁대목 317
▁돌파한 317
▁돌풍을 317
▁뜨겁다 317
▁마시는 317
▁막내 317
▁매출과 317
▁물류센터 317
▁발화 317
▁복수개의 317
▁서울모터쇼 317
▁섞여 317
▁수긍 317
▁수중 317
▁순서로 317
[...]
