<unk>	0
<s>	0
</s>	0
进行	-0
可以	-1
20	-2
通过	-3
汽车	-4
韩国	-5
表示	-6
企业	-7
公司	-8
:"	-9
00	-10
。"	-11
▁在	-12
为了	-13
使用	-14
委员	-15
因此	-16
技术	-17
如果	-18
没有	-19
提供	-20
相关	-21
服务	-22
开始	-23
根据	-24
韩元	-25
",	-26
市场	-27
代表	-28
但是	-29
情况	-30
▁本	-31
活动	-32
10	-33
增加	-34
管理	-35
发明	-36
正在	-37
研究	-38
地区	-39
系统	-40
信息	-41
计划	-42
可能	-43
19	-44
教育	-45
特别	-46
开发	-47
工作	-48
中心	-49
支援	-50
政府	-51
委员会	-52
议员	-53
因为	-54
方法	-55
患者	-56
时间	-57
首尔	-58
销售	-59
的人	-60
今年	-61
▁另	-62
部分	-63
虽然	-64
劳动	-65
问题	-66
作为	-67
事业	-68
电子	-69
出现	-70
投资	-71
运营	-72
智能	-73
提高	-74
▁这	-75
调查	-76
安全	-77
国内	-78
金融	-79
er	-80
由于	-81
▁另外	-82
▁据	-83
▁本发明	-84
产业	-85
一个	-86
发生	-87
选举	-88
产品	-89
认为	-90
规定	-91
数据	-92
同时	-93
减少	-94
201	-95
成为	-96
基础	-97
随着	-98
利用	-99
到了	-100
民主	-101
美国	-102
需要	-103
我们	-104
经济	-105
的情况	-106
一种	-107
获得	-108
去年	-109
on	-110
亿韩元	-111
具有	-112
结果	-113
▁但是	-114
决定	-115
举行	-116
in	-117
内容	-118
第一	-119
世界	-120
医院	-121
参加	-122
网络	-123
现代	-124
方案	-125
包括	-126
制造	-127
自己	-128
生活	-129
对象	-130
合作	-131
所以	-132
公开	-133
三星	-134
出了	-135
保险	-136
学生	-137
人的	-138
生产	-139
项目	-140
银行	-141
最近	-142
移动	-143
国家	-144
方面	-145
用于	-146
领域	-147
装置	-148
社会	-149
▁如果	-150
候选	-151
通信	-152
▁此	-153
以上	-154
申请	-155
新冠	-156
能够	-157
国会	-158
共同	-159
分析	-160
处理	-161
检查	-162
所有	-163
大学	-164
手机	-165
涉及	-166
一起	-167
扩大	-168
30	-169
an	-170
设备	-171
当天	-172
其他	-173
接受	-174
中国	-175
12	-176
要求	-177
的事	-178
肺炎	-179
民主党	-180
地方	-181
病毒	-182
","	-183
11	-184
▁因此	-185
目前	-186
负责	-187
200	-188
al	-189
设施	-190
显示	-191
电池	-192
未来	-193
▁S	-194
学校	-195
游戏	-196
人士	-197
感染	-198
之间	-199
确诊	-200
不是	-201
ar	-202
参与	-203
政策	-204
医疗	-205
候选人	-206
过程	-207
▁根据	-208
▁对	-209
工会	-210
功能	-211
议会	-212
主要	-213
治疗	-214
万韩元	-215
进行了	-216
不同	-217
他们	-218
标准	-219
确认	-220
文化	-221
中的	-222
性的	-223
15	-224
环境	-225
之前	-226
出的	-227
大的	-228
是否	-229
非常	-230
程序	-231
个月	-232
影响	-233
驾驶	-234
国民	-235
特别是	-236
消费	-237
以下	-238
全球	-239
很多	-240
支付	-241
产生	-242
解决	-243
健康	-244
实现	-245
工资	-246
业务	-247
AI	-248
新冠肺炎	-249
会议	-250
电视	-251
第二	-252
规模	-253
方式	-254
关注	-255
or	-256
已经	-257
不仅	-258
平台	-259
希望	-260
即使	-261
支持	-262
评价	-263
结构	-264
各种	-265
这种	-266
人员	-267
制作	-268
竞争	-269
应该	-270
正式	-271
设计	-272
者的	-273
000	-274
发展	-275
一样	-276
50	-277
委员长	-278
就是	-279
购买	-280
现在	-281
价格	-282
车辆	-283
电动	-284
个人	-285
部门	-286
此次	-287
连接	-288
持续	-289
en	-290
机构	-291
应用	-292
预计	-293
积极	-294
改善	-295
%。	-296
实际	-297
不能	-298
▁虽然	-299
的是	-300
机关	-301
以及	-302
交易	-303
控制	-304
团体	-305
用户	-306
制定	-307
厅长	-308
解释	-309
形成	-310
日本	-311
内的	-312
新型	-313
考虑	-314
家庭	-315
导体	-316
必要	-317
LG	-318
日表示	-319
得到	-320
多种	-321
实施	-322
协议	-323
机器	-324
运动	-325
▁他	-326
顾客	-327
的情况下	-328
防止	-329
的话	-330
变化	-331
韩国党	-332
半导体	-333
学习	-334
▁C	-335
费用	-336
保护	-337
区厅长	-338
准备	-339
首次	-340
▁为了	-341
这一	-342
▁从	-343
重要	-344
相关人士	-345
电影	-346
之后	-347
进入	-348
现代汽车	-349
推进	-350
工厂	-351
总统	-352
▁特别是	-353
综合	-354
左右	-355
釜山	-356
▁本发明涉及	-357
的新	-358
自动	-359
18	-360
存在	-361
无法	-362
现场	-363
执行	-364
们的	-365
经营	-366
稳定	-367
商品	-368
拥有	-369
的一	-370
选择	-371
超过	-372
疾病	-373
关于	-374
▁因为	-375
增长	-376
基金	-377
直接	-378
雇佣	-379
为基础	-380
一直	-381
原因	-382
并且	-383
受到	-384
最高	-385
%,	-386
导致	-387
上的	-388
科学	-389
结束	-390
而且	-391
效果	-392
应对	-393
什么	-394
政党	-395
对策	-396
这是	-397
限制	-398
会长	-399
政治	-400
集团	-401
样的	-402
关系	-403
冠状	-404
力的	-405
也是	-406
法律	-407
讨论	-408
现有	-409
公共	-410
期间	-411
期待	-412
材料	-413
25	-414
16	-415
将在	-416
发表	-417
▁这是	-418
13	-419
部长	-420
冠状病毒	-421
▁该	-422
职员	-423
自由	-424
海外	-425
安装	-426
作用	-427
三星电子	-428
it	-429
的大	-430
14	-431
预测	-432
有关	-433
下降	-434
le	-435
必须	-436
▁随着	-437
咨询	-438
为止	-439
上市	-440
确保	-441
措施	-442
行为	-443
车型	-444
100	-445
at	-446
制度	-447
计算	-448
新型冠状病毒	-449
性能	-450
17	-451
今后	-452
展开	-453
年的	-454
其中	-455
状态	-456
从而	-457
贷款	-458
▁"	-459
提交	-460
范围	-461
介绍	-462
保健	-463
公司的	-464
中小	-465
很难	-466
ou	-467
st	-468
预算	-469
全国	-470
战略	-471
▁T	-472
城市	-473
消费者	-474
议会选举	-475
过程中	-476
媒体	-477
事件	-478
强调	-479
有可能	-480
有人	-481
努力	-482
推出	-483
数字	-484
▁以	-485
资金	-486
品牌	-487
接触	-488
就会	-489
国际	-490
▁M	-491
最终	-492
21	-493
统合	-494
新的	-495
▁与	-496
再次	-497
组成	-498
最大	-499
自己的	-500
视频	-501
预防	-502
不会	-503
24	-504
▁P	-505
▁当	-506
ce	-507
▁A	-508
水平	-509
之间的	-510
来的	-511
▁韩国	-512
组织	-513
空间	-514
业界	-515
内部	-516
条件	-517
调整	-518
相比	-519
劳动者	-520
达到	-521
体验	-522
中央	-523
智能手机	-524
日在	-525
主张	-526
引起	-527
▁通过	-528
能力	-529
担任	-530
企业的	-531
合同	-532
▁由于	-533
更加	-534
只有	-535
设置	-536
节目	-537
损失	-538
增加了	-539
加入	-540
网站	-541
▁据悉	-542
确定	-543
扩散	-544
信用	-545
et	-546
是在	-547
帮助	-548
这些	-549
访问	-550
提出	-551
负责人	-552
儿童	-553
起亚	-554
建设	-555
福利	-556
条例	-557
死亡	-558
指出	-559
症状	-560
为对象	-561
交通	-562
本发明	-563
ka	-564
展示	-565
指定	-566
需求	-567
目标	-568
紧急	-569
建立	-570
事故	-571
来看	-572
专家	-573
举行的	-574
的方法	-575
过去	-576
完成	-577
行驶	-578
人工	-579
资产	-580
事项	-581
发现	-582
出现了	-583
价值	-584
,"	-585
40	-586
对于	-587
机器人	-588
效率	-589
教授	-590
行政	-591
将于	-592
意见	-593
重新	-594
▁K	-595
家长	-596
转换	-597
组合	-598
可以在	-599
女性	-600
出口	-601
本月	-602
培养	-603
居民	-604
创业	-605
)。	-606
核心	-607
动机	-608
趋势	-609
60	-610
营业	-611
为中心	-612
京畿	-613
的时	-614
设立	-615
小时	-616
有效	-617
ch	-618
观众	-619
任何	-620
oo	-621
基本	-622
上述	-623
度的	-624
专业	-625
收入	-626
明年	-627
el	-628
音乐	-629
除了	-630
am	-631
成功	-632
成立	-633
知道	-634
市民	-635
方向	-636
电话	-637
信号	-638
re	-639
▁此外	-640
演员	-641
大邱	-642
应用程序	-643
检察	-644
适用	-645
集中	-646
美元	-647
困难	-648
发动机	-649
引进	-650
市长	-651
容易	-652
化的	-653
加强	-654
被告	-655
建筑	-656
供应	-657
可能性	-658
成员	-659
投票	-660
动力	-661
公务	-662
解释说	-663
在内的	-664
利率	-665
证券	-666
23	-667
而是	-668
追加	-669
分别	-670
上升	-671
ro	-672
IT	-673
委托	-674
的高	-675
维持	-676
条第	-677
起亚汽车	-678
降低	-679
报告	-680
所需	-681
一天	-682
也会	-683
协商	-684
市场的	-685
孩子	-686
这个	-687
▁对于	-688
规定的	-689
行业	-690
事实	-691
危机	-692
首先	-693
联合	-694
22	-695
▁B	-696
宣布	-697
生物	-698
▁N	-699
模式	-700
器的	-701
长期	-702
记录	-703
住宅	-704
风险	-705
ic	-706
资料	-707
统合党	-708
革新	-709
收益	-710
每年	-711
认证	-712
第三	-713
广播	-714
采取	-715
进行的	-716
27	-717
ay	-718
UV	-719
体的	-720
创造	-721
电动汽车	-722
比例	-723
最低	-724
相关人士表示	-725
专门	-726
目的	-727
公开了	-728
ax	-729
保持	-730
负担	-731
ion	-732
是指	-733
表现	-734
一步	-735
80	-736
报道	-737
公务员	-738
继续	-739
时代	-740
以上的	-741
召开	-742
▁G	-743
获得了	-744
透露	-745
软件	-746
隔离	-747
▁也	-748
位置	-749
人工智能	-750
结合	-751
解决方案	-752
电路	-753
可能会	-754
▁但	-755
完全	-756
量的	-757
部件	-758
协会	-759
工程	-760
说明	-761
26	-762
好的	-763
实际上	-764
判断	-765
速度	-766
终端	-767
诊断	-768
使用的	-769
多个	-770
经过	-771
机会	-772
作品	-773
)、	-774
ol	-775
相关的	-776
接着	-777
考虑到	-778
的特	-779
最多	-780
看到	-781
优惠	-782
青瓦	-783
青瓦台	-784
▁本发明涉及一种	-785
本部	-786
2019	-787
理由	-788
快速	-789
阶段	-790
一次	-791
那么	-792
院内	-793
进口	-794
备受	-795
全部	-796
▁金	-797
欧洲	-798
无线	-799
28	-800
按照	-801
下午	-802
审查	-803
ing	-804
诉讼	-805
反应	-806
全体	-807
29	-808
om	-809
担心	-810
登记	-811
宣传	-812
接收	-813
无人	-814
销售额	-815
商业	-816
普通	-817
之一	-818
吸引	-819
大型	-820
改变	-821
的企业	-822
大幅	-823
ver	-824
确诊患者	-825
食品	-826
不断	-827
优秀	-828
一定	-829
也可以	-830
恢复	-831
提出了	-832
外国	-833
危险	-834
.5	-835
还有	-836
中小企业	-837
混合	-838
共享	-839
人们	-840
自治	-841
成长	-842
进一步	-843
区块	-844
收购	-845
补充	-846
这样	-847
SUV	-848
感到	-849
检测	-850
能源	-851
提供了	-852
知事	-853
距离	-854
外部	-855
来说	-856
也将	-857
签订	-858
现实	-859
日开始	-860
做出	-861
审议	-862
车的	-863
业绩	-864
也有	-865
▁我	-866
少年	-867
操作	-868
区块链	-869
构建	-870
针对	-871
轮胎	-872
▁最近	-873
记者	-874
取得	-875
责任	-876
199	-877
公布	-878
以后	-879
的同时	-880
当时	-881
就业	-882
才能	-883
的电	-884
令人	-885
采用	-886
称为	-887
迅速	-888
立场	-889
历史	-890
ot	-891
原告	-892
共同民主党	-893
"、	-894
也在	-895
航空	-896
故事	-897
的时间	-898
结算	-899
广告	-900
引发	-901
意义	-902
平均	-903
等的	-904
▁同时	-905
现象	-906
充电	-907
自然	-908
is	-909
符合	-910
70	-911
定为	-912
人数	-913
罢工	-914
相当	-915
金额	-916
立即	-917
严重	-918
In	-919
争议	-920
投入	-921
半年	-922
经验	-923
许可	-924
化学	-925
货币	-926
大部分	-927
的可能性	-928
当选	-929
艺术	-930
会上	-931
变得	-932
防疫	-933
销量	-934
il	-935
▁《	-936
所属	-937
当地	-938
残疾	-939
之外	-940
仁川	-941
大众	-942
课程	-943
网上	-944
上午	-945
体系	-946
▁今年	-947
LE	-948
发布	-949
法人	-950
理事	-951
在线	-952
京畿道	-953
手术	-954
高的	-955
alax	-956
发行	-957
alaxy	-958
文件	-959
包含	-960
▁有	-961
属于	-962
员工	-963
以来	-964
相同	-965
监督	-966
的地方	-967
▁D	-968
▁F	-969
出席	-970
IC	-971
工业	-972
最后	-973
还是	-974
正常	-975
季度	-976
相反	-977
kao	-978
法院	-979
通知	-980
质量	-981
展现	-982
▁为	-983
力量	-984
的问题	-985
推荐	-986
ra	-987
道路	-988
照片	-989
▁区厅长	-990
判决	-991
反映	-992
物质	-993
燃料	-994
在首尔	-995
两个	-996
想要	-997
小型	-998
便利	-999
发言	-1000
一般	-1001
比较	-1002
2020	-1003
下列	-1004
都是	-1005
不足	-1006
ss	-1007
购物	-1008
造成	-1009
情况下	-1010
财政	-1011
院内代表	-1012
口罩	-1013
▁李	-1014
各项	-1015
▁目前	-1016
▁E	-1017
▁H	-1018
子女	-1019
区域	-1020
如此	-1021
▁当天	-1022
劳资	-1023
保障	-1024
生命	-1025
股份	-1026
违反	-1027
文在	-1028
基于	-1029
▁此前	-1030
改革	-1031
当局	-1032
▁本发明是	-1033
技术的	-1034
发送	-1035
具备	-1036
变更	-1037
细胞	-1038
领域的	-1039
地区的	-1040
可以通过	-1041
推出了	-1042
文在寅	-1043
岗位	-1044
的事情	-1045
起来	-1046
居住	-1047
形式	-1048
2017	-1049
医生	-1050
房地	-1051
万亿韩元	-1052
是因为	-1053
精神	-1054
面的	-1055
朝鲜	-1056
移动通信	-1057
只要	-1058
开放	-1059
房地产	-1060
的影响	-1061
苹果	-1062
SK	-1063
统计	-1064
出售	-1065
BS	-1066
ub	-1067
社长	-1068
运行	-1069
▁对此	-1070
事务	-1071
▁L	-1072
启动	-1073
零部件	-1074
大韩	-1075
出演	-1076
工人	-1077
的技术	-1078
存储	-1079
资源	-1080
保守	-1081
在韩国	-1082
以下简	-1083
租赁	-1084
),	-1085
反对	-1086
促进	-1087
公推	-1088
系列	-1089
就可以	-1090
状况	-1091
信用卡	-1092
2018	-1093
▁LG	-1094
多的	-1095
期限	-1096
因素	-1097
成果	-1098
雷诺	-1099
OS	-1100
带来	-1101
性和	-1102
离子	-1103
举行了	-1104
传统	-1105
构成	-1106
了解	-1107
电脑	-1108
领导	-1109
主题	-1110
现有的	-1111
贡献	-1112
这一点	-1113
人类	-1114
的时候	-1115
NS	-1116
股票	-1117
31	-1118
处于	-1119
青年	-1120
加上	-1121
声音	-1122
简单	-1123
机的	-1124
连续	-1125
灾难	-1126
经历	-1127
体育	-1128
法案	-1129
享受	-1130
就是说	-1131
拍摄	-1132
电视剧	-1133
理解	-1134
90	-1135
▁接着	-1136
)"	-1137
位于	-1138
企划	-1139
上个月	-1140
数量	-1141
自由韩国党	-1142
主义	-1143
特别市	-1144
利润	-1145
犯罪	-1146
如何	-1147
指导	-1148
固定	-1149
影像	-1150
越来	-1151
以下简称	-1152
让人	-1153
临时	-1154
大家	-1155
停止	-1156
光州	-1157
金属	-1158
越来越	-1159
有所	-1160
基板	-1161
ig	-1162
传感	-1163
这样的	-1164
场所	-1165
有必要	-1166
收集	-1167
免费	-1168
通用	-1169
道知事	-1170
规则	-1171
1.	-1172
会员	-1173
甚至	-1174
具体	-1175
联网	-1176
时期	-1177
的内容	-1178
上涨	-1179
IP	-1180
给予	-1181
不到	-1182
月份	-1183
▁现代汽车	-1184
营销	-1185
▁此次	-1186
掌握	-1187
表面	-1188
轿车	-1189
回答	-1190
取消	-1191
证明	-1192
工艺	-1193
后的	-1194
父母	-1195
弱势	-1196
执政党	-1197
经常	-1198
强化	-1199
德国	-1200
▁首尔	-1201
图像	-1202
氧化	-1203
并在	-1204
消息	-1205
▁也就是说	-1206
延长	-1207
粉丝	-1208
▁U	-1209
实行	-1210
新闻	-1211
输入	-1212
▁本方案	-1213
特殊	-1214
LED	-1215
程度	-1216
流行	-1217
一代	-1218
特定	-1219
修改	-1220
得到了	-1221
"、"	-1222
最大的	-1223
样子	-1224
识别	-1225
知识	-1226
将其	-1227
专利	-1228
每个	-1229
万辆	-1230
并不	-1231
▁R	-1232
宝马	-1233
第四	-1234
义务	-1235
的方式	-1236
分配	-1237
年度	-1238
避免	-1239
最低工资	-1240
将从	-1241
ri	-1242
范围内	-1243
")	-1244
成本	-1245
民间	-1246
的原因	-1247
实验	-1248
竞争力	-1249
物的	-1250
非法	-1251
委员会的	-1252
振兴	-1253
服务的	-1254
只能	-1255
青少年	-1256
科学技术	-1257
广域	-1258
主导	-1259
及其	-1260
正确	-1261
首席	-1262
多名	-1263
债券	-1264
充满	-1265
竞选	-1266
空气	-1267
AR	-1268
one	-1269
将会	-1270
开发的	-1271
件的	-1272
达成	-1273
提高了	-1274
概念	-1275
整个	-1276
un	-1277
联系	-1278
丰田	-1279
警察	-1280
逐渐	-1281
的不	-1282
多数	-1283
客户	-1284
实时	-1285
ER	-1286
的汽车	-1287
目的是	-1288
▁作为	-1289
股东	-1290
表明	-1291
模型	-1292
建议	-1293
500	-1294
还将	-1295
残疾人	-1296
年开始	-1297
2000	-1298
是为了	-1299
测试	-1300
财产	-1301
工作岗位	-1302
us	-1303
相对	-1304
多岁	-1305
进军	-1306
投资者	-1307
选定	-1308
产生的	-1309
请求	-1310
IS	-1311
部长官	-1312
BC	-1313
停车	-1314
禁止	-1315
专用	-1316
流通	-1317
办公	-1318
减少了	-1319
在一起	-1320
小学	-1321
融合	-1322
保证	-1323
演出	-1324
最佳	-1325
▁去年	-1326
传染	-1327
导演	-1328
观察	-1329
推出的	-1330
贸易	-1331
》,	-1332
ad	-1333
▁其	-1334
传达	-1335
强烈	-1336
歌手	-1337
ct	-1338
代理	-1339
研究院	-1340
缴纳	-1341
举办	-1342
的前	-1343
驱动	-1344
不得	-1345
身份	-1346
频道	-1347
万韩元的	-1348
全面	-1349
允许	-1350
旨在	-1351
的学生	-1352
诊疗	-1353
亲自	-1354
年级	-1355
如下	-1356
2.	-1357
人才	-1358
身体	-1359
议长	-1360
传感器	-1361
第一次	-1362
系统的	-1363
合并	-1364
的韩国	-1365
角色	-1366
电极	-1367
谷歌	-1368
▁新	-1369
错误	-1370
的部分	-1371
2016	-1372
的效果	-1373
奔驰	-1374
ve	-1375
仪式	-1376
喜欢	-1377
▁19	-1378
院长	-1379
提前	-1380
有的	-1381
课题	-1382
▁三星电子	-1383
明确	-1384
的结果	-1385
教师	-1386
详细	-1387
旅行	-1388
批准	-1389
初期	-1390
弱势群	-1391
感觉	-1392
CE	-1393
ace	-1394
征收	-1395
适合	-1396
aver	-1397
二手	-1398
1000	-1399
搭载	-1400
亿韩元的	-1401
转移	-1402
备受关注	-1403
中断	-1404
只是	-1405
共有	-1406
呼吸	-1407
上月	-1408
大数据	-1409
ut	-1410
混合动力	-1411
ob	-1412
部的	-1413
卫生	-1414
不可	-1415
代替	-1416
出来	-1417
发电	-1418
300	-1419
被称为	-1420
所需的	-1421
独立	-1422
研究所	-1423
提出的	-1424
汽车的	-1425
交流	-1426
雇用	-1427
在美国	-1428
工作的	-1429
单位	-1430
正义	-1431
政府的	-1432
相互	-1433
创新	-1434
股价	-1435
尤其	-1436
▁首先	-1437
ed	-1438
es	-1439
试验	-1440
准确	-1441
比赛	-1442
下了	-1443
形态	-1444
受到了	-1445
ap	-1446
Galaxy	-1447
年代	-1448
等级	-1449
将通过	-1450
整体	-1451
济州	-1452
受害	-1453
人力	-1454
KT	-1455
远程	-1456
似乎	-1457
单元	-1458
优先	-1459
形象	-1460
方针	-1461
发生的	-1462
英国	-1463
职业	-1464
太阳	-1465
▁即使	-1466
为基础的	-1467
集体	-1468
基准	-1469
批评	-1470
不同的	-1471
排放	-1472
注意	-1473
环保	-1474
寻找	-1475
参加了	-1476
--	-1477
大会	-1478
发挥	-1479
活动的	-1480
比起	-1481
充分	-1482
月开始	-1483
ent	-1484
排名	-1485
人们的	-1486
今天	-1487
一年	-1488
科技	-1489
委任	-1490
前一天	-1491
例如	-1492
附近	-1493
的规定	-1494
▁本发明的	-1495
接近	-1496
对此	-1497
运输	-1498
将以	-1499
也不	-1500
野党	-1501
定期	-1502
格式	-1503
》、	-1504
▁根据本发明	-1505
陷入	-1506
革命	-1507
广域市	-1508
计划在	-1509
总理	-1510
面临	-1511
一下	-1512
比率	-1513
即将	-1514
全世界	-1515
首尔特别市	-1516
行动	-1517
制造方法	-1518
纪念	-1519
每天	-1520
的信息	-1521
传播	-1522
ow	-1523
的活动	-1524
协助	-1525
是以	-1526
舞台	-1527
未能	-1528
成为了	-1529
双龙	-1530
同意	-1531
挑战	-1532
活跃	-1533
发生了	-1534
朝野	-1535
传输	-1536
下列各项	-1537
的样子	-1538
每月	-1539
公社	-1540
数码	-1541
朋友	-1542
开展	-1543
消除	-1544
▁本发明是关于	-1545
》。	-1546
职务	-1547
或者	-1548
比重	-1549
仍然	-1550
分钟	-1551
资本	-1552
▁政府	-1553
以外	-1554
出租	-1555
施行	-1556
年龄	-1557
履行	-1558
搜索	-1559
的金	-1560
不要	-1561
幸福	-1562
NA	-1563
出身	-1564
被选	-1565
几乎	-1566
单独	-1567
TV	-1568
呼叫	-1569
注册	-1570
分类	-1571
发放	-1572
地位	-1573
SNS	-1574
患者的	-1575
li	-1576
住院	-1577
未来统合党	-1578
认可	-1579
点是	-1580
新车	-1581
生态	-1582
自行	-1583
高速	-1584
本身	-1585
在于	-1586
基础设施	-1587
产品的	-1588
然后	-1589
原则	-1590
▁相反	-1591
温度	-1592
高中	-1593
差异	-1594
很大	-1595
退休	-1596
印度	-1597
方便	-1598
处分	-1599
特性	-1600
遵守	-1601
土地	-1602
AM	-1603
补偿	-1604
开设	-1605
雷诺三星	-1606
拒绝	-1607
em	-1608
意味	-1609
公寓	-1610
自治团体	-1611
克服	-1612
不仅是	-1613
发光	-1614
占据	-1615
被确诊	-1616
歌曲	-1617
发表了	-1618
规模的	-1619
▁一	-1620
as	-1621
疫情	-1622
推迟	-1623
国会议员	-1624
的事实	-1625
申报	-1626
中有	-1627
ab	-1628
任命	-1629
嫌疑	-1630
柴油	-1631
等多种	-1632
交换	-1633
年轻	-1634
适用于	-1635
akao	-1636
高级	-1637
赔偿	-1638
园区	-1639
大量	-1640
ON	-1641
也能	-1642
2015	-1643
ube	-1644
▁W	-1645
检察机关	-1646
▁将	-1647
更换	-1648
and	-1649
下的	-1650
在国内	-1651
▁V	-1652
评估	-1653
ook	-1654
的意	-1655
年内	-1656
联盟	-1657
提供一种	-1658
日常	-1659
在内	-1660
4.	-1661
药品	-1662
工具	-1663
审判	-1664
修订	-1665
图书	-1666
分为	-1667
聚集	-1668
每周	-1669
▁他们	-1670
日下午	-1671
但在	-1672
结束后	-1673
3.	-1674
电力	-1675
矛盾	-1676
子的	-1677
到的	-1678
庆北	-1679
承担	-1680
亿美元	-1681
这种情况下	-1682
关心	-1683
乐天	-1684
解雇	-1685
双方	-1686
法务	-1687
类型	-1688
op	-1689
万名	-1690
补助	-1691
万人	-1692
满足	-1693
意味着	-1694
沟通	-1695
模块	-1696
服务器	-1697
消失	-1698
的主	-1699
输出	-1700
临床	-1701
芯片	-1702
资格	-1703
周围	-1704
You	-1705
兴趣	-1706
接种	-1707
吸引了	-1708
再加上	-1709
商用	-1710
难以	-1711
这里	-1712
我的	-1713
尖端	-1714
排除	-1715
提议	-1716
子公司	-1717
um	-1718
调节	-1719
长官	-1720
▁实际上	-1721
显示器	-1722
黄代表	-1723
支援金	-1724
认识	-1725
确诊者	-1726
ag	-1727
老人	-1728
在野党	-1729
35	-1730
比例代表	-1731
》、《	-1732
无论	-1733
0.	-1734
ck	-1735
尽管	-1736
结果显示	-1737
公里	-1738
自我	-1739
都会	-1740
感染症	-1741
引入	-1742
分离	-1743
涉及一种	-1744
的事项	-1745
这次	-1746
指数	-1747
阻止	-1748
司机	-1749
适当	-1750
日程	-1751
运用	-1752
命令	-1753
传染病	-1754
市场上	-1755
▁因	-1756
压力	-1757
解除	-1758
制造商	-1759
了一	-1760
▁金融	-1761
对话	-1762
幼儿	-1763
视为	-1764
财团	-1765
斗争	-1766
有望	-1767
弱势群体	-1768
暂时	-1769
im	-1770
物品	-1771
▁其中	-1772
接连	-1773
te	-1774
教室	-1775
呈现	-1776
一方面	-1777
神经	-1778
江南	-1779
流动	-1780
使用者	-1781
蔚山	-1782
虚拟	-1783
的所有	-1784
表决	-1785
酒店	-1786
他的	-1787
相似	-1788
验证	-1789
▁可以	-1790
就像	-1791
面积	-1792
的主要	-1793
的事例	-1794
PC	-1795
社区	-1796
推测	-1797
主管	-1798
he	-1799
公开的	-1800
观看	-1801
也没有	-1802
IN	-1803
45	-1804
▁大	-1805
突然	-1806
辅助	-1807
将成为	-1808
合理	-1809
商务	-1810
还可以	-1811
我们的	-1812
家人	-1813
气体	-1814
障碍	-1815
截至	-1816
装置的	-1817
担保	-1818
年末	-1819
举报	-1820
信息通信	-1821
角度	-1822
曹国	-1823
预备	-1824
人事	-1825
疾病管理	-1826
休假	-1827
出租车	-1828
的方案	-1829
▁不	-1830
的名	-1831
摄像	-1832
同一	-1833
测量	-1834
长的	-1835
下调	-1836
设备的	-1837
手续	-1838
的心	-1839
的患者	-1840
类似	-1841
二手车	-1842
利益	-1843
art	-1844
旋转	-1845
保安	-1846
关闭	-1847
机械	-1848
权利	-1849
ity	-1850
照顾	-1851
的产品	-1852
的服务	-1853
通讯	-1854
男性	-1855
os	-1856
参考	-1857
表达	-1858
的立场	-1859
感谢	-1860
36	-1861
明显	-1862
运营的	-1863
上调	-1864
占有	-1865
引起的	-1866
休息	-1867
好奇	-1868
AP	-1869
疫苗	-1870
江原	-1871
个人信息	-1872
攻击	-1873
比去年	-1874
id	-1875
试图	-1876
ore	-1877
能否	-1878
积累	-1879
前的	-1880
团队	-1881
捐赠	-1882
会计	-1883
电信	-1884
欢迎	-1885
▁O	-1886
上诉	-1887
变动	-1888
急剧	-1889
双龙汽车	-1890
都可以	-1891
首尔市	-1892
无人驾驶	-1893
会的	-1894
保险费	-1895
暴力	-1896
面对	-1897
DA	-1898
恶化	-1899
但由于	-1900
达到了	-1901
激烈	-1902
并没有	-1903
引起了	-1904
选区	-1905
地方自治团体	-1906
配置	-1907
未来党	-1908
顺利	-1909
视线	-1910
层的	-1911
病例	-1912
普及	-1913
的研究	-1914
的价格	-1915
亚洲	-1916
人气	-1917
警方	-1918
见面	-1919
公告	-1920
▁与此	-1921
案件	-1922
世纪	-1923
账户	-1924
告诉	-1925
有人指出	-1926
大利	-1927
ir	-1928
意识	-1929
上传	-1930
正当	-1931
大学医院	-1932
的数据	-1933
新冠病毒	-1934
引领	-1935
打开	-1936
的第	-1937
下半年	-1938
想法	-1939
损害	-1940
法第	-1941
预告	-1942
Kakao	-1943
▁由	-1944
附件	-1945
手续费	-1946
加密	-1947
▁据分析	-1948
动物	-1949
南道	-1950
book	-1951
福特	-1952
一些	-1953
天的	-1954
多人	-1955
▁美国	-1956
统一	-1957
签订了	-1958
ST	-1959
权的	-1960
有很多	-1961
▁我们	-1962
为由	-1963
电压	-1964
正在进行	-1965
癌症	-1966
韩国的	-1967
上半年	-1968
失业	-1969
就能	-1970
食物	-1971
很大的	-1972
部门的	-1973
▁p	-1974
缩短	-1975
创意	-1976
通道	-1977
津贴	-1978
日上午	-1979
事例	-1980
ID	-1981
正义党	-1982
ell	-1983
的工作	-1984
物理	-1985
扩大到	-1986
正未来党	-1987
伙伴	-1988
▁当时	-1989
越南	-1990
语音	-1991
并不是	-1992
有机	-1993
返还	-1994
邀请	-1995
同期	-1996
直到	-1997
屏幕	-1998
罚款	-1999
ICT	-2000
是一	-2001
也很	-2002
力于	-2003
▁这是因为	-2004
功率	-2005
还没有	-2006
ang	-2007
名的	-2008
开关	-2009
突破	-2010
室内	-2011
找到	-2012
授课	-2013
加速	-2014
容量	-2015
优势	-2016
申请书	-2017
内容的	-2018
抑制	-2019
产业的	-2020
本部长	-2021
学院	-2022
药物	-2023
采访	-2024
的安全	-2025
现金	-2026
▁朴	-2027
背景	-2028
附加	-2029
致力于	-2030
会议上	-2031
东西	-2032
计算机	-2033
的过程中	-2034
▁现代	-2035
展开了	-2036
而不是	-2037
维修	-2038
活性	-2039
丰富	-2040
号格式	-2041
优点	-2042
至少	-2043
认为是	-2044
反而	-2045
日至	-2046
污染	-2047
娱乐	-2048
自主	-2049
地球	-2050
人口	-2051
▁SK	-2052
卫星	-2053
组成的	-2054
电流	-2055
acebook	-2056
农业	-2057
问题的	-2058
为中心的	-2059
战争	-2060
顺序	-2061
▁民主党	-2062
文在寅总统	-2063
OP	-2064
公平	-2065
线的	-2066
ur	-2067
国土	-2068
复杂	-2069
大规模	-2070
带来的	-2071
相当于	-2072
火灾	-2073
放在	-2074
轻松	-2075
相机	-2076
文总统	-2077
▁另一方面	-2078
最小	-2079
招聘	-2080
是由	-2081
契机	-2082
超越	-2083
日产	-2084
巨大	-2085
商店	-2086
疗养	-2087
做出了	-2088
一个月	-2089
制作的	-2090
变成	-2091
海洋	-2092
电源	-2093
两人	-2094
文章	-2095
雇佣劳动	-2096
时隔	-2097
电动车	-2098
冲击	-2099
物流	-2100
▁韩	-2101
满意	-2102
失去	-2103
的小	-2104
首都	-2105
威胁	-2106
孩子们	-2107
教育厅	-2108
MO	-2109
话题	-2110
变速	-2111
专辑	-2112
补贴	-2113
告知	-2114
将与	-2115
ip	-2116
VR	-2117
37	-2118
无需	-2119
hone	-2120
ation	-2121
担忧	-2122
保健所	-2123
任期	-2124
名为	-2125
在国会	-2126
值得	-2127
律师	-2128
52	-2129
天地	-2130
差距	-2131
生的	-2132
od	-2133
▁他还	-2134
疾病管理本部	-2135
添加	-2136
国内外	-2137
▁根据第	-2138
不知道	-2139
国家的	-2140
体现	-2141
围绕	-2142
随时	-2143
ter	-2144
被判	-2145
▁它	-2146
心理	-2147
表演	-2148
选举法	-2149
家电	-2150
怀疑	-2151
分享	-2152
旅游	-2153
广泛	-2154
训练	-2155
倾向	-2156
等待	-2157
▁In	-2158
表现出	-2159
态度	-2160
协议会	-2161
也要	-2162
异常	-2163
法国	-2164
候选人的	-2165
框架	-2166
监视	-2167
配送	-2168
梦想	-2169
舆论	-2170
太阳能	-2171
接受了	-2172
MS	-2173
的核心	-2174
官方	-2175
科长	-2176
引擎	-2177
一致	-2178
免疫	-2179
沃尔	-2180
元件	-2181
消防	-2182
手段	-2183
车展	-2184
登场	-2185
CO	-2186
很多人	-2187
事态	-2188
继承	-2189
通常	-2190
皮肤	-2191
的作用	-2192
以前	-2193
唯一	-2194
很高	-2195
更多	-2196
觉得	-2197
起诉	-2198
外国人	-2199
短期	-2200
的行为	-2201
引导	-2202
48	-2203
▁t	-2204
听证	-2205
改编	-2206
安装在	-2207
时间的	-2208
38	-2209
反复	-2210
交涉	-2211
承认	-2212
许多	-2213
为主	-2214
相应	-2215
起到	-2216
▁请	-2217
▁除	-2218
▁200	-2219
65	-2220
的公	-2221
汽油	-2222
占有率	-2223
语言	-2224
事实上	-2225
公团	-2226
TE	-2227
魅力	-2228
制的	-2229
刺激	-2230
展现了	-2231
中心的	-2232
日期	-2233
事业的	-2234
播出的	-2235
国立	-2236
演唱	-2237
咖啡	-2238
画面	-2239
198	-2240
ne	-2241
驾驶员	-2242
物联网	-2243
增强	-2244
更多的	-2245
辞职	-2246
鼓励	-2247
5000	-2248
结构调整	-2249
新型冠状病毒感染症	-2250
AN	-2251
自动驾驶	-2252
他们的	-2253
室长	-2254
在家	-2255
庆南	-2256
高度	-2257
▁在这种情况下	-2258
主办	-2259
可靠	-2260
放弃	-2261
保险公司	-2262
局长	-2263
指定为	-2264
提供的	-2265
现状	-2266
监督院	-2267
来到	-2268
必要的	-2269
和平	-2270
都在	-2271
时候	-2272
秘书	-2273
乘坐	-2274
偿还	-2275
75	-2276
2014	-2277
父亲	-2278
毕业	-2279
那里	-2280
北道	-2281
涉嫌	-2282
党的	-2283
副会长	-2284
教会	-2285
处罚	-2286
利息	-2287
过的	-2288
多少	-2289
管的	-2290
缺陷	-2291
▁公司	-2292
家公司	-2293
志愿	-2294
面板	-2295
之所以	-2296
纳米	-2297
迎来	-2298
频率	-2299
失败	-2300
指示	-2301
进口车	-2302
离开	-2303
是通过	-2304
CP	-2305
上班	-2306
限度	-2307
的教育	-2308
▁道知事	-2309
▁关于	-2310
事前	-2311
小的	-2312
▁希望	-2313
劳动者的	-2314
平时	-2315
开始了	-2316
位的	-2317
全力	-2318
真正	-2319
党内	-2320
选拔	-2321
▁共同民主党	-2322
收到	-2323
功能的	-2324
应当	-2325
颜色	-2326
单纯	-2327
总部	-2328
一名	-2329
创建	-2330
2010	-2331
医学	-2332
生存	-2333
感受到	-2334
超过了	-2335
能量	-2336
的地区	-2337
并将	-2338
▁这种	-2339
正规	-2340
建筑物	-2341
的销售	-2342
2011	-2343
▁现在	-2344
根据第	-2345
为基准	-2346
的机会	-2347
绿色	-2348
▁预计	-2349
很有可能	-2350
转换为	-2351
展示了	-2352
年金	-2353
▁尽管	-2354
▁本发明的目的是	-2355
DB	-2356
收费	-2357
图书馆	-2358
循环	-2359
发言人	-2360
在中国	-2361
ine	-2362
YouT	-2363
庆典	-2364
暴露	-2365
德斯	-2366
第二次	-2367
CD	-2368
成分	-2369
播放	-2370
的李	-2371
的理由	-2372
债务	-2373
监查	-2374
6.	-2375
前往	-2376
去除	-2377
款规定	-2378
左右的	-2379
以便	-2380
回收	-2381
母亲	-2382
国政	-2383
消极	-2384
无人机	-2385
电池的	-2386
教安	-2387
生活的	-2388
39	-2389
事先	-2390
演技	-2391
透明	-2392
主任	-2393
赛车	-2394
成的	-2395
一家	-2396
黄教安	-2397
存款	-2398
整车	-2399
管制	-2400
加快	-2401
护士	-2402
本人	-2403
考试	-2404
最重要	-2405
目前为止	-2406
示威	-2407
SD	-2408
设定	-2409
民国	-2410
预约	-2411
配备	-2412
的顾客	-2413
补充说	-2414
非正式	-2415
截止	-2416
老年	-2417
社交	-2418
疑惑	-2419
参选	-2420
个体	-2421
为准	-2422
法的	-2423
讲述	-2424
宗旨	-2425
机场	-2426
信息的	-2427
领取	-2428
▁包括	-2429
器件	-2430
女儿	-2431
的故事	-2432
研究员	-2433
2012	-2434
卖场	-2435
怎么	-2436
瞬间	-2437
SM	-2438
▁例如	-2439
销售的	-2440
年前	-2441
韩国国内	-2442
下月	-2443
日的	-2444
▁而且	-2445
的生活	-2446
亚马	-2447
通报	-2448
所谓	-2449
奖金	-2450
▁本月	-2451
个别	-2452
亚马逊	-2453
二次	-2454
警告	-2455
的意见	-2456
综艺	-2457
韩流	-2458
kakao	-2459
董事	-2460
累计	-2461
2013	-2462
▁c	-2463
▁这些	-2464
St	-2465
导航	-2466
加密货币	-2467
华为	-2468
多样	-2469
动作	-2470
议会选举中	-2471
强度	-2472
银行的	-2473
3000	-2474
承诺	-2475
400	-2476
ram	-2477
更新	-2478
沃尔沃	-2479
▁像	-2480
石油	-2481
大企业	-2482
og	-2483
场面	-2484
用作	-2485
来自	-2486
准备了	-2487
说是	-2488
尽快	-2489
折叠	-2490
基因	-2491
奥迪	-2492
批判	-2493
驳回	-2494
彻底	-2495
ia	-2496
▁起亚汽车	-2497
互联网	-2498
很好	-2499
上映	-2500
营业利润	-2501
分子	-2502
区长	-2503
氛围	-2504
装备	-2505
复合	-2506
各自	-2507
公园	-2508
安排	-2509
所在	-2510
绝缘	-2511
相关法律	-2512
特征	-2513
受托	-2514
扩张	-2515
指责	-2516
选民	-2517
新天地	-2518
晶片	-2519
当天的	-2520
聊天	-2521
宇宙	-2522
路线	-2523
转让	-2524
增加到	-2525
原子	-2526
小组	-2527
健康保险	-2528
仁川广域市	-2529
整理	-2530
▁第	-2531
预定	-2532
CC	-2533
观测	-2534
领先	-2535
报告书	-2536
是不	-2537
爆发	-2538
一半	-2539
加热	-2540
清洁	-2541
适应	-2542
稳定的	-2543
庆尚	-2544
▁2	-2545
号码	-2546
理论	-2547
助于	-2548
的扩散	-2549
被告人	-2550
播出	-2551
紧张	-2552
采用了	-2553
开学	-2554
痛苦	-2555
痴呆	-2556
幼儿园	-2557
管理委员会	-2558
使用了	-2559
做出贡献	-2560
提案	-2561
遭受	-2562
实现了	-2563
▁不仅	-2564
印刷	-2565
初创	-2566
构筑	-2567
薄膜	-2568
▁与此同时	-2569
体制	-2570
大宇	-2571
alk	-2572
AT	-2573
总裁	-2574
西亚	-2575
办公室	-2576
附件第	-2577
ex	-2578
中间	-2579
区的	-2580
演讲	-2581
ech	-2582
产生了	-2583
是什么	-2584
研讨	-2585
世界上	-2586
股市	-2587
的各种	-2588
与否	-2589
YouTube	-2590
55	-2591
有限	-2592
遗憾	-2593
▁此后	-2594
2008	-2595
一项	-2596
晶体	-2597
的合作	-2598
的重要	-2599
被选为	-2600
上学	-2601
博士	-2602
破坏	-2603
的位置	-2604
修正	-2605
国务	-2606
废弃	-2607
99	-2608
ul	-2609
在第	-2610
月末	-2611
玻璃	-2612
英语	-2613
在今年	-2614
被认为是	-2615
现任	-2616
再生	-2617
射线	-2618
完成了	-2619
增大	-2620
实践	-2621
信任	-2622
劳总	-2623
效应	-2624
至今	-2625
周边	-2626
形状	-2627
我国	-2628
缩小	-2629
财务	-2630
lay	-2631
消费者的	-2632
讲师	-2633
的变化	-2634
超级	-2635
▁St	-2636
是一个	-2637
到目前为止	-2638
招募	-2639
出发	-2640
性质	-2641
款的	-2642
进步	-2643
通话	-2644
制定了	-2645
在没有	-2646
坚持	-2647
联动	-2648
时的	-2649
储蓄	-2650
有些	-2651
IM	-2652
年初	-2653
混乱	-2654
证据	-2655
34	-2656
重点	-2657
即可	-2658
司法	-2659
儿子	-2660
任务	-2661
▁m	-2662
根本	-2663
有利	-2664
部和	-2665
引发了	-2666
那样	-2667
up	-2668
友利	-2669
不可避免	-2670
学生们	-2671
of	-2672
首都圈	-2673
医疗机构	-2674
俱乐	-2675
尚未	-2676
上市的	-2677
提供了一种	-2678
主持	-2679
敦促	-2680
起了	-2681
支撑	-2682
而被	-2683
香港	-2684
运动型	-2685
世宗	-2686
合约	-2687
国产	-2688
制造业	-2689
江原道	-2690
参观	-2691
动向	-2692
年间	-2693
从今年	-2694
克斯	-2695
感情	-2696
燃料电池	-2697
出现的	-2698
差别	-2699
下来	-2700
多功能	-2701
图案	-2702
原审	-2703
气候	-2704
明星	-2705
是一种	-2706
经理	-2707
有效地	-2708
纽约	-2709
测定	-2710
日公布	-2711
多样的	-2712
等离子	-2713
2009	-2714
▁据调查	-2715
韩亚	-2716
.6	-2717
最新	-2718
作家	-2719
常任	-2720
武汉	-2721
la	-2722
出入	-2723
取得了	-2724
大韩民国	-2725
加工	-2726
算法	-2727
管辖	-2728
上了	-2729
习惯	-2730
重量	-2731
的社会	-2732
重症	-2733
废除	-2734
医药品	-2735
Naver	-2736
150	-2737
co	-2738
出身的	-2739
平方	-2740
接到	-2741
组装	-2742
选手	-2743
▁为此	-2744
ET	-2745
便携	-2746
对方	-2747
立法	-2748
英寸	-2749
获奖	-2750
快速通道	-2751
北美	-2752
用途	-2753
为什么	-2754
名单	-2755
减免	-2756
吸收	-2757
交易所	-2758
33	-2759
的经济	-2760
他还	-2761
升级	-2762
蛋白	-2763
天线	-2764
▁他说	-2765
招待	-2766
?"	-2767
ark	-2768
▁除了	-2769
另外	-2770
用的	-2771
▁s	-2772
州市	-2773
者和	-2774
KA	-2775
将被	-2776
49	-2777
人权	-2778
支出	-2779
此前	-2780
有助于	-2781
公职	-2782
模拟	-2783
爱情	-2784
纤维	-2785
集会	-2786
47	-2787
公正	-2788
▁郑	-2789
变为	-2790
日起	-2791
开始的	-2792
冷却	-2793
传送	-2794
自身	-2795
我们将	-2796
议席	-2797
感的	-2798
生成	-2799
制药	-2800
的使用	-2801
.8	-2802
焦点	-2803
摆脱	-2804
赞助	-2805
研究开发	-2806
▁业界	-2807
补助金	-2808
▁之后	-2809
并通过	-2810
▁还	-2811
回归	-2812
是从	-2813
密码	-2814
打击	-2815
ong	-2816
均匀	-2817
爱的	-2818
发表的	-2819
放电	-2820
预算范围内	-2821
支持率	-2822
项目的	-2823
下去	-2824
控股	-2825
较低	-2826
的声音	-2827
派遣	-2828
提问	-2829
阶层	-2830
过度	-2831
▁三星	-2832
协同	-2833
听取	-2834
性地	-2835
梅赛	-2836
ote	-2837
治疗剂	-2838
了对	-2839
维护	-2840
▁在此	-2841
梅赛德斯	-2842
容器	-2843
折扣	-2844
完美	-2845
振兴院	-2846
技术开发	-2847
SW	-2848
我认为	-2849
钟路	-2850
▁KT	-2851
学期	-2852
日宣布	-2853
中型	-2854
扩展	-2855
注射	-2856
大利亚	-2857
澳大利亚	-2858
.9	-2859
激活	-2860
拥有的	-2861
的消息	-2862
因此可以	-2863
民生	-2864
▁10	-2865
巨大的	-2866
的第一	-2867
校长	-2868
日常生活	-2869
关键	-2870
46	-2871
发病	-2872
局限	-2873
查询	-2874
培训	-2875
护理	-2876
监控	-2877
▁釜山	-2878
餐厅	-2879
便携式	-2880
流入	-2881
指标	-2882
的半导体	-2883
罗斯	-2884
通用汽车	-2885
阴极	-2886
次产业	-2887
的代表	-2888
的状态	-2889
强制	-2890
吸引了人们的	-2891
PG	-2892
发出	-2893
医疗院	-2894
▁X	-2895
联合会	-2896
插入	-2897
以此	-2898
党派	-2899
等地	-2900
必要时	-2901
水平的	-2902
舞蹈	-2903
迎接	-2904
OT	-2905
舒适	-2906
介绍了	-2907
浦项	-2908
灾害	-2909
量子	-2910
交给	-2911
最好	-2912
听到	-2913
工会成员	-2914
.7	-2915
度过	-2916
绝对	-2917
品质	-2918
尺寸	-2919
并于	-2920
职场	-2921
分散	-2922
要想	-2923
饰演	-2924
▁5	-2925
季节	-2926
老师	-2927
幅度	-2928
延迟	-2929
零件	-2930
从去年	-2931
也被	-2932
发射	-2933
EX	-2934
化妆	-2935
经费	-2936
条款	-2937
应用于	-2938
▁教育	-2939
MC	-2940
▁4	-2941
争论	-2942
▁被	-2943
不参加	-2944
届国会	-2945
▁考虑到	-2946
无关	-2947
重复	-2948
ure	-2949
电解	-2950
▁当然	-2951
ew	-2952
势头	-2953
将对	-2954
病房	-2955
论坛	-2956
消毒	-2957
过去的	-2958
进入了	-2959
与其他	-2960
短信	-2961
▁3	-2962
仔细	-2963
政权	-2964
的热	-2965
为主题	-2966
第一个	-2967
缓解	-2968
公路	-2969
主体	-2970
研究组	-2971
讲座	-2972
ec	-2973
赋予	-2974
长时间	-2975
ES	-2976
卡车	-2977
从业	-2978
毫米	-2979
的国家	-2980
的结构	-2981
激光	-2982
重大	-2983
▁再加上	-2984
集成	-2985
告诉我	-2986
补充道	-2987
金融公司	-2988
上下	-2989
妈妈	-2990
俱乐部	-2991
的政策	-2992
弹性	-2993
接受治疗	-2994
干事	-2995
疑似	-2996
虚假	-2997
导致的	-2998
▁就	-2999
氢气	-3000
▁国内	-3001
移动通信终端	-3002
势力	-3003
,000	-3004
工作时间	-3005
两种	-3006
替代	-3007
过滤	-3008
门户	-3009
开始就	-3010
车辆的	-3011
情报	-3012
32	-3013
数学	-3014
为期	-3015
二氧化	-3016
和韩国	-3017
减轻	-3018
次产业革命	-3019
▁全	-3020
50%	-3021
一定要	-3022
计划通过	-3023
▁I	-3024
应在	-3025
技术和	-3026
增进	-3027
色的	-3028
飞机	-3029
收益率	-3030
的发展	-3031
真实	-3032
丈夫	-3033
学术	-3034
用户的	-3035
▁自	-3036
大选	-3037
萎缩	-3038
生产的	-3039
没能	-3040
认知	-3041
发现了	-3042
施行令	-3043
流行病	-3044
电气	-3045
相信	-3046
周年	-3047
本田	-3048
记者招待	-3049
储存	-3050
入境	-3051
思考	-3052
者们	-3053
还要	-3054
▁J	-3055
依据	-3056
相结合	-3057
风险企业	-3058
雇佣劳动部	-3059
游客	-3060
结婚	-3061
要素	-3062
较高的	-3063
通过在	-3064
不安	-3065
天气	-3066
奖励	-3067
法务部长官	-3068
,19	-3069
old	-3070
法令	-3071
相同的	-3072
天内	-3073
10%	-3074
20%	-3075
患有	-3076
学生的	-3077
温暖	-3078
,5	-3079
▁b	-3080
均衡	-3081
日在首尔	-3082
增长率	-3083
高性能	-3084
发热	-3085
合物	-3086
星期	-3087
本校	-3088
比前	-3089
从事	-3090
早期	-3091
案例	-3092
保留	-3093
含有	-3094
听证会	-3095
美术	-3096
接触者	-3097
节目中	-3098
还会	-3099
▁尤其	-3100
加盟	-3101
,《	-3102
版本	-3103
美丽	-3104
阵营	-3105
一样的	-3106
以下的	-3107
安保	-3108
消耗	-3109
阴性	-3110
和方法	-3111
确认了	-3112
停滞	-3113
创下了	-3114
ue	-3115
人物	-3116
新增	-3117
大多数	-3118
的调查	-3119
确诊病例	-3120
公开了一种	-3121
予以	-3122
病床	-3123
的电影	-3124
配件	-3125
ers	-3126
也不会	-3127
萨斯	-3128
的目标	-3129
形成的	-3130
故障	-3131
施工	-3132
的设计	-3133
发达	-3134
但如果	-3135
修订案	-3136
金钟	-3137
的标准	-3138
之际	-3139
纷纷	-3140
保存	-3141
周期	-3142
打造	-3143
变化的	-3144
创业企业	-3145
地下	-3146
对决	-3147
成了	-3148
昌原	-3149
追求	-3150
益于	-3151
胜利	-3152
设有	-3153
个小时	-3154
平方米	-3155
订单	-3156
的系统	-3157
合作伙伴	-3158
PS	-3159
ib	-3160
代码	-3161
公交	-3162
尝试	-3163
监察	-3164
▁中国	-3165
服装	-3166
标志	-3167
植物	-3168
智能工厂	-3169
道歉	-3170
的事业	-3171
最大限度	-3172
保管	-3173
注入	-3174
东区	-3175
付款	-3176
照明	-3177
正确的	-3178
饮食	-3179
附表	-3180
指南	-3181
最初	-3182
流感	-3183
点的	-3184
职工	-3185
CEO	-3186
com	-3187
地说	-3188
然而	-3189
血管	-3190
▁f	-3191
区分	-3192
成绩	-3193
线下	-3194
30%	-3195
.4	-3196
眼睛	-3197
记忆	-3198
提取	-3199
毫无	-3200
编码	-3201
修正案	-3202
停车场	-3203
受欢迎	-3204
▁两	-3205
秘密	-3206
稳定性	-3207
想象	-3208
愉快	-3209
的有	-3210
GM	-3211
制动	-3212
垃圾	-3213
晶圆	-3214
跑车	-3215
门户网站	-3216
对策委员会	-3217
信赖	-3218
密切	-3219
前总统	-3220
可以根据	-3221
io	-3222
乘客	-3223
填写	-3224
里的	-3225
端子	-3226
起到了	-3227
佛兰	-3228
当然	-3229
血液	-3230
医院的	-3231
并进行	-3232
会馆	-3233
大赛	-3234
年来	-3235
不便	-3236
各个	-3237
数的	-3238
克萨斯	-3239
发掘	-3240
合适	-3241
持有	-3242
飞行	-3243
可在	-3244
转移到	-3245
.3	-3246
家族	-3247
的外	-3248
BM	-3249
当事	-3250
数据的	-3251
达成协议	-3252
不得不	-3253
提及	-3254
得益于	-3255
实力	-3256
那个	-3257
POP	-3258
不良	-3259
所述	-3260
条规定	-3261
ep	-3262
夫妇	-3263
KBS	-3264
新一代	-3265
的基础	-3266
的项目	-3267
转向	-3268
万美元	-3269
的危险	-3270
系统中	-3271
人和	-3272
噪音	-3273
好像	-3274
所得	-3275
灵活	-3276
are	-3277
理事长	-3278
的投资	-3279
雪佛兰	-3280
积分	-3281
的要求	-3282
单一	-3283
必需	-3284
月的	-3285
MBC	-3286
妻子	-3287
斯拉	-3288
诉外	-3289
赠送	-3290
国防	-3291
面貌	-3292
▁利用	-3293
的世界	-3294
混合动力车	-3295
召回	-3296
记载	-3297
心脏	-3298
振动	-3299
精密	-3300
评论	-3301
搭载了	-3302
1%	-3303
的后	-3304
天然	-3305
邮件	-3306
寿命	-3307
索纳	-3308
问卷	-3309
使用费	-3310
..	-3311
是将	-3312
代表性的	-3313
oT	-3314
晚上	-3315
俄罗斯	-3316
条例第	-3317
TA	-3318
下达	-3319
新设	-3320
感兴趣	-3321
供餐	-3322
周末	-3323
地址	-3324
援助	-3325
VER	-3326
创作	-3327
自动化	-3328
公共机关	-3329
全体会议	-3330
会有	-3331
分布	-3332
劳务	-3333
一位	-3334
惩戒	-3335
对策本部	-3336
依次	-3337
为了让	-3338
ive	-3339
强调说	-3340
实习	-3341
的车辆	-3342
低于	-3343
方向盘	-3344
流行病学	-3345
器和	-3346
违法	-3347
all	-3348
正面	-3349
完善	-3350
的中	-3351
的移动	-3352
真相	-3353
DC	-3354
签署	-3355
▁演员	-3356
日之前	-3357
的政治	-3358
Facebook	-3359
TS	-3360
纪录	-3361
创立	-3362
是不是	-3363
索纳塔	-3364
安全性	-3365
年后	-3366
收取	-3367
实施的	-3368
的形式	-3369
提升	-3370
KB	-3371
企业和	-3372
在去年	-3373
▁前	-3374
连接到	-3375
▁高	-3376
两次	-3377
阳性	-3378
排除在	-3379
的关注	-3380
85	-3381
人都	-3382
真的	-3383
款规定的	-3384
规制	-3385
工商业	-3386
无党派	-3387
等相关	-3388
▁本方案涉及	-3389
选出	-3390
能力的	-3391
九老	-3392
最大限度地	-3393
AS	-3394
lo	-3395
为目的	-3396
领导层	-3397
剧场	-3398
板的	-3399
民族	-3400
定义	-3401
情绪	-3402
疼痛	-3403
线上	-3404
船舶	-3405
各国	-3406
组长	-3407
iP	-3408
回到	-3409
地的	-3410
更正	-3411
论文	-3412
最小化	-3413
抓住	-3414
被确诊为	-3415
响应	-3416
纠纷	-3417
金的	-3418
直播	-3419
苦恼	-3420
党代表	-3421
EV	-3422
岁的	-3423
有趣	-3424
用品	-3425
政府和	-3426
LS	-3427
种类	-3428
NC	-3429
突出	-3430
赞成	-3431
名称	-3432
就任	-3433
的光	-3434
研修	-3435
摄像头	-3436
二氧化碳	-3437
电缆	-3438
留在	-3439
▁然而	-3440
制裁	-3441
局面	-3442
总长	-3443
的措施	-3444
反驳	-3445
杂志	-3446
云计算	-3447
截止到	-3448
非常重要	-3449
探索	-3450
新韩	-3451
间的	-3452
带来了	-3453
iv	-3454
营养	-3455
班主任	-3456
iz	-3457
减小	-3458
大门	-3459
议员的	-3460
研讨会	-3461
多多	-3462
受害者	-3463
保时	-3464
▁继	-3465
损坏	-3466
读书	-3467
事件的	-3468
前代表	-3469
出版	-3470
某的	-3471
lus	-3472
形成了	-3473
此之外	-3474
等方面	-3475
pp	-3476
按钮	-3477
呈现出	-3478
分析认为	-3479
并向	-3480
缺乏	-3481
"2019	-3482
入住	-3483
网站上	-3484
大小	-3485
年为止	-3486
的人工	-3487
月在	-3488
良好	-3489
600	-3490
的功能	-3491
通过与	-3492
深度	-3493
作业	-3494
在此次	-3495
的一位	-3496
金融监督院	-3497
宗教	-3498
切断	-3499
拘留	-3500
的增加	-3501
ork	-3502
一周	-3503
电动机	-3504
区民	-3505
性别	-3506
女子	-3507
超市	-3508
阵容	-3509
段时间	-3510
另一个	-3511
信托	-3512
出生	-3513
著名	-3514
oup	-3515
保时捷	-3516
一部分	-3517
',	-3518
忠清	-3519
郡守	-3520
及其制造方法	-3521
出道	-3522
台湾	-3523
装饰	-3524
使其	-3525
无限	-3526
健康的	-3527
介入	-3528
认定	-3529
电视台	-3530
▁如	-3531
即使在	-3532
AC	-3533
导电	-3534
剧增	-3535
熟悉	-3536
私募	-3537
下个月	-3538
成立了	-3539
颁奖	-3540
分析说	-3541
参与的	-3542
名字	-3543
塑料	-3544
就要	-3545
公司和	-3546
结构的	-3547
信息通讯	-3548
▁自由韩国党	-3549
冲突	-3550
妨碍	-3551
100%	-3552
社会福利	-3553
订购	-3554
特斯拉	-3555
决议	-3556
到来	-3557
的两	-3558
hin	-3559
便利性	-3560
学会	-3561
每次	-3562
西区	-3563
览会	-3564
建造	-3565
粉丝们	-3566
另行	-3567
吸引了人们的视线	-3568
印象	-3569
脱离	-3570
集体感染	-3571
一边	-3572
等各种	-3573
忧虑	-3574
包装	-3575
结论	-3576
一直在	-3577
的网络	-3578
的水	-3579
经纪	-3580
象征	-3581
副作用	-3582
也不能	-3583
预备候选人	-3584
人公	-3585
以内	-3586
座椅	-3587
正如	-3588
OR	-3589
下载	-3590
示范	-3591
劳资双方	-3592
哲秀	-3593
家的	-3594
受理	-3595
大田	-3596
打印	-3597
和运营	-3598
ak	-3599
到达	-3600
施加	-3601
时代的	-3602
进行调查	-3603
流行病学调查	-3604
东南	-3605
在全国	-3606
所属的	-3607
确保了	-3608
2007	-3609
大奖	-3610
亮相	-3611
伤害	-3612
有线	-3613
都没有	-3614
▁本发明涉及一种用于	-3615
入驻	-3616
看起来	-3617
严格	-3618
燃油	-3619
ard	-3620
准备的	-3621
和管理	-3622
独特	-3623
的原	-3624
都有	-3625
居住在	-3626
的过程	-3627
恩斯	-3628
经销	-3629
的需求	-3630
剩余	-3631
合成	-3632
名誉	-3633
营造	-3634
IoT	-3635
▁所以	-3636
的公司	-3637
工作人员	-3638
感性	-3639
开发了	-3640
显示屏	-3641
满意度	-3642
EC	-3643
2%	-3644
下属	-3645
多家	-3646
政界	-3647
颗粒	-3648
同样的	-3649
还在	-3650
肌肉	-3651
并表示	-3652
▁韩国党	-3653
副委员长	-3654
下跌	-3655
它们	-3656
地图	-3657
指挥	-3658
ort	-3659
条规定的	-3660
人在	-3661
看出	-3662
app	-3663
空调	-3664
的特性	-3665
泄露	-3666
级别	-3667
64	-3668
油管	-3669
ate	-3670
专家们	-3671
地进行	-3672
电影节	-3673
曝光	-3674
小商	-3675
oc	-3676
事情	-3677
句话	-3678
表情	-3679
肯定	-3680
的家庭	-3681
雷克萨斯	-3682
的人气	-3683
了在	-3684
出资	-3685
安心	-3686
尽全力	-3687
正在推进	-3688
生态系统	-3689
依赖	-3690
简化	-3691
蚀刻	-3692
新冠疫情	-3693
谈会	-3694
▁本校	-3695
率从	-3696
线圈	-3697
副社长	-3698
广场	-3699
个体户	-3700
看着	-3701
追踪	-3702
很容易	-3703
的意义	-3704
聘用	-3705
行使	-3706
的水平	-3707
议员们	-3708
▁雷诺三星	-3709
造船	-3710
配合	-3711
变速器	-3712
地铁	-3713
撤销	-3714
观光	-3715
igh	-3716
大幅增加	-3717
77	-3718
像素	-3719
改为	-3720
气氛	-3721
体验学习	-3722
槿惠	-3723
率的	-3724
痴呆症	-3725
ance	-3726
ac	-3727
二极	-3728
反射	-3729
拉克	-3730
隐藏	-3731
微生物	-3732
风格	-3733
今年的	-3734
68	-3735
税金	-3736
给了	-3737
覆盖	-3738
典礼	-3739
研发	-3740
▁结果	-3741
预算案	-3742
orea	-3743
使得	-3744
款第	-3745
安哲秀	-3746
OLED	-3747
支援事业	-3748
风险投资	-3749
先进	-3750
日益	-3751
约为	-3752
传递	-3753
守护	-3754
▁使用	-3755
开发出了	-3756
一事	-3757
宪法	-3758
某在	-3759
并提供	-3760
材料的	-3761
,3	-3762
三个	-3763
视觉	-3764
众多	-3765
其余	-3766
更大	-3767
加油	-3768
店铺	-3769
简便	-3770
的业务	-3771
例子	-3772
笔记	-3773
的环境	-3774
▁首尔市	-3775
的对	-3776
1~	-3777
当初	-3778
心的	-3779
The	-3780
个月的	-3781
新产品	-3782
教育课程	-3783
附近的	-3784
部门负责人	-3785
se	-3786
万个	-3787
延期	-3788
结核	-3789
▁199	-3790
》(	-3791
优秀的	-3792
外汇	-3793
无效	-3794
融资	-3795
活动中	-3796
普遍	-3797
和金	-3798
高端	-3799
EN	-3800
公示	-3801
出台	-3802
较高	-3803
阅读	-3804
地区社会	-3805
不需要	-3806
吸烟	-3807
站在	-3808
商用化	-3809
获得的	-3810
服用	-3811
季度的	-3812
将进行	-3813
北朝鲜	-3814
▁有人指出	-3815
全南	-3816
泰国	-3817
诞生	-3818
质的	-3819
ility	-3820
地带	-3821
实务	-3822
比斯	-3823
设施的	-3824
问题是	-3825
买卖	-3826
渠道	-3827
约定	-3828
不仅可以	-3829
为了防止	-3830
送往	-3831
是对	-3832
oun	-3833
结束了	-3834
解释为	-3835
条例旨在	-3836
汽车公司	-3837
关节	-3838
法律第	-3839
ha	-3840
细菌	-3841
事业者	-3842
工会的	-3843
被判定为	-3844
筹集	-3845
同步	-3846
权力	-3847
班级	-3848
生素	-3849
未来韩国党	-3850
▁本方案涉及一种	-3851
Al	-3852
漫画	-3853
现行	-3854
废弃物	-3855
面对面	-3856
")。	-3857
也表示	-3858
的空间	-3859
最高委员	-3860
95	-3861
出院	-3862
感知	-3863
治愈	-3864
严重的	-3865
的战略	-3866
CJ	-3867
平衡	-3868
团结	-3869
劳动界	-3870
化妆品	-3871
1,	-3872
DR	-3873
原本	-3874
权限	-3875
强调了	-3876
李在	-3877
浓度	-3878
企划财政	-3879
正在增加	-3880
供给	-3881
协调	-3882
少数	-3883
摄影	-3884
▁有人	-3885
摩比斯	-3886
主动	-3887
排气	-3888
监护	-3889
伦理	-3890
汝矣	-3891
育儿	-3892
黑色	-3893
galaxy	-3894
67	-3895
农协	-3896
途径	-3897
外的	-3898
瑞草	-3899
重建	-3900
干燥	-3901
汝矣岛	-3902
自行车	-3903
音响	-3904
ile	-3905
前议员	-3906
优化	-3907
冬季	-3908
独自	-3909
真空	-3910
在全球	-3911
的生产	-3912
的电子	-3913
原审判决	-3914
地面	-3915
会出现	-3916
公交车	-3917
终端机	-3918
证券公司	-3919
中区	-3920
同样	-3921
尼亚	-3922
百分	-3923
采取了	-3924
低收入	-3925
提交给	-3926
来提高	-3927
好评	-3928
日到	-3929
编制	-3930
2005	-3931
44	-3932
信访	-3933
民主劳总	-3934
培育	-3935
挖掘	-3936
的可	-3937
迷你	-3938
那些	-3939
都能	-3940
修理	-3941
初中	-3942
机关的	-3943
信息技术	-3944
问卷调查	-3945
同比	-3946
在不	-3947
建立了	-3948
查看	-3949
家长们	-3950
总经理	-3951
购物中心	-3952
th	-3953
的自	-3954
为目标	-3955
重工业	-3956
和新	-3957
车展上	-3958
净化	-3959
加坡	-3960
获取	-3961
诊所	-3962
简单的	-3963
金融科技	-3964
定制	-3965
富川	-3966
ank	-3967
部分的	-3968
明细	-3969
留下	-3970
安装了	-3971
人民	-3972
分裂	-3973
尊重	-3974
随之	-3975
激烈的	-3976
家属	-3977
留言	-3978
US	-3979
劝告	-3980
ast	-3981
国民的	-3982
的作品	-3983
行长	-3984
都要	-3985
不可能	-3986
江南区	-3987
刹车	-3988
电阻	-3989
血压	-3990
规格	-3991
总联盟	-3992
尔夫	-3993
斯达	-3994
安全的	-3995
业务的	-3996
个月内	-3997
记者招待会	-3998
RO	-3999
公约	-4000
耳机	-4001
被指定为	-4002
DI	-4003
债权	-4004
偶像	-4005
军队	-4006
就有	-4007
更具体	-4008
也有可能	-4009
为契机	-4010
国土交通	-4011
的时期	-4012
选举中	-4013
入学	-4014
率为	-4015
百货	-4016
动的	-4017
多次	-4018
锦湖	-4019
感染者	-4020
经销商	-4021
最重要的是	-4022
不满	-4023
改进	-4024
慢性	-4025
LO	-4026
名义	-4027
查明	-4028
车道	-4029
等问题	-4030
▁除此之外	-4031
▁要	-4032
道德	-4033
不正当	-4034
的全	-4035
间接	-4036
限于	-4037
▁据说	-4038
朴槿惠	-4039
雇用保险	-4040
届议会选举	-4041
亏损	-4042
▁截至	-4043
正规职	-4044
展望	-4045
男子	-4046
▁中央	-4047
演唱会	-4048
的相关	-4049
2006	-4050
的市场	-4051
第二天	-4052
naver	-4053
人群	-4054
▁8	-4055
信徒	-4056
尽量	-4057
的最大	-4058
的期待	-4059
78	-4060
UN	-4061
和高	-4062
着手	-4063
纠正	-4064
ome	-4065
商品券	-4066
金融机构	-4067
低价	-4068
做好	-4069
意志	-4070
窗口	-4071
比去年同期	-4072
依然	-4073
▁今后	-4074
临床试验	-4075
韩国公司	-4076
互相	-4077
抗议	-4078
汽车产业	-4079
的运营	-4080
ge	-4081
人体	-4082
变形	-4083
连带	-4084
遗产	-4085
铁路	-4086
名患者	-4087
当选人	-4088
检察官	-4089
压缩	-4090
裁判	-4091
等主要	-4092
▁不仅是	-4093
二次电池	-4094
选举管理委员会	-4095
动摇	-4096
中表示	-4097
表明了	-4098
iPhone	-4099
在此	-4100
CES	-4101
▁市长	-4102
中东	-4103
微软	-4104
警报	-4105
▁最终	-4106
PA	-4107
不利	-4108
冰箱	-4109
分之一	-4110
fe	-4111
删除	-4112
得以	-4113
GS	-4114
给我	-4115
艺人	-4116
负面	-4117
汽车零部件	-4118
总是	-4119
次数	-4120
可靠性	-4121
呼吸道	-4122
型号	-4123
守则	-4124
车身	-4125
陈述	-4126
本公司	-4127
适当的	-4128
▁委员会	-4129
受伤	-4130
加盟店	-4131
日通过	-4132
依照	-4133
待遇	-4134
路径	-4135
当天上午	-4136
做的	-4137
的趋势	-4138
工伤	-4139
Net	-4140
徒刑	-4141
森林	-4142
▁日本	-4143
可以使用	-4144
管理系统	-4145
想到	-4146
糖尿	-4147
必要性	-4148
、2	-4149
不管	-4150
密度	-4151
造成的	-4152
深刻	-4153
膜的	-4154
芦原	-4155
阿尔	-4156
的特征	-4157
总额	-4158
数值	-4159
调处	-4160
通信公司	-4161
基站	-4162
封装	-4163
元件的	-4164
特性的	-4165
支援对象	-4166
高速公路	-4167
obility	-4168
no	-4169
他人	-4170
干部	-4171
总会	-4172
方面的	-4173
通过此次	-4174
请愿	-4175
黄金	-4176
龙仁	-4177
方面表示	-4178
PD	-4179
ie	-4180
捷豹	-4181
的基本	-4182
2021	-4183
为例	-4184
在与	-4185
涡轮	-4186
的法律	-4187
的游戏	-4188
▁事实上	-4189
分期	-4190
大邱市	-4191
流动性	-4192
后来	-4193
在该	-4194
数十	-4195
检方	-4196
对韩国	-4197
等原因	-4198
糖尿病	-4199
▁用	-4200
音源	-4201
信号的	-4202
的全球	-4203
凭借	-4204
弯曲	-4205
代表李	-4206
对策委员长	-4207
预期	-4208
更大的	-4209
58	-4210
员的	-4211
4000	-4212
投资证券	-4213
味道	-4214
垄断	-4215
根据本发明	-4216
年在	-4217
损伤	-4218
梨泰	-4219
由此	-4220
梨泰院	-4221
的商品	-4222
劳动委员会	-4223
▁7	-4224
催化	-4225
基地	-4226
不确定	-4227
的视频	-4228
反映了	-4229
本方案	-4230
共鸣	-4231
打破	-4232
2004	-4233
初创企业	-4234
文化艺术	-4235
嘱咐	-4236
求职	-4237
江陵	-4238
运动型多功能	-4239
eb	-4240
化和	-4241
设计的	-4242
69	-4243
较多	-4244
参与了	-4245
预防接种	-4246
ele	-4247
出席了	-4248
的大型	-4249
会在	-4250
年里	-4251
日和	-4252
顾客的	-4253
第一季度	-4254
刑事	-4255
莱斯	-4256
达成了	-4257
困境	-4258
意向	-4259
演奏	-4260
筛选	-4261
困难的	-4262
日为止	-4263
新冠肺炎的	-4264
容易地	-4265
灾难支援金	-4266
▁疾病管理本部	-4267
回忆	-4268
扬声	-4269
朗普	-4270
退出	-4271
59	-4272
ry	-4273
税务	-4274
协议体	-4275
检察厅	-4276
以往	-4277
一点	-4278
观众们	-4279
表现出了	-4280
,4	-4281
战斗	-4282
收视	-4283
摄像机	-4284
医疗人员	-4285
DM	-4286
▁即	-4287
脸书	-4288
代表性	-4289
国务总理	-4290
过了	-4291
特点	-4292
70%	-4293
教育监	-4294
.1	-4295
议案	-4296
遵循	-4297
号患者	-4298
的未来	-4299
的现象	-4300
二极管	-4301
可以将	-4302
呼叫中心	-4303
中学	-4304
扩充	-4305
可以向	-4306
还计划	-4307
加重	-4308
纷争	-4309
高龄	-4310
合作公司	-4311
加拿	-4312
巴西	-4313
延续	-4314
科学家	-4315
一次性	-4316
委员的	-4317
锂离子	-4318
等离子体	-4319
期徒刑	-4320
的开发	-4321
产量	-4322
垂直	-4323
大气	-4324
的事件	-4325
评价为	-4326
去世	-4327
LF	-4328
位居	-4329
寄生	-4330
流量	-4331
ice	-4332
以外的	-4333
大学教授	-4334
42	-4335
最早	-4336
1.5	-4337
强烈的	-4338
管理人员	-4339
79	-4340
前后	-4341
回避	-4342
就越	-4343
有着	-4344
脆弱	-4345
黑客	-4346
济州岛	-4347
追加更正	-4348
呼吁	-4349
咳嗽	-4350
大厦	-4351
点击	-4352
而言	-4353
家企业	-4354
支援中心	-4355
开业	-4356
的人物	-4357
的一部分	-4358
对其	-4359
签约	-4360
都不	-4361
将推出	-4362
的对象	-4363
.0	-4364
为单位	-4365
的一环	-4366
的人员	-4367
访问了	-4368
连接器	-4369
夏季	-4370
外交	-4371
比特	-4372
创业公司	-4373
私人	-4374
第五	-4375
关心和	-4376
地方法	-4377
▁你	-4378
侧面	-4379
去了	-4380
放大	-4381
公调处	-4382
执行官	-4383
特朗普	-4384
存储器	-4385
因新冠肺炎	-4386
部位	-4387
两天	-4388
豪华	-4389
63	-4390
NH	-4391
时尚	-4392
法施行令	-4393
实用	-4394
活力	-4395
说的	-4396
通商	-4397
下降了	-4398
为了提高	-4399
私募基金	-4400
av	-4401
日报	-4402
的非	-4403
事务所	-4404
电路板	-4405
的股份	-4406
地方法院	-4407
平等	-4408
汇率	-4409
综艺节目	-4410
公益	-4411
拍卖	-4412
捐款	-4413
支配	-4414
交通事故	-4415
中介	-4416
哲学	-4417
电磁	-4418
竞争力的	-4419
整顿	-4420
有害	-4421
概率	-4422
召开的	-4423
现在的	-4424
分辨	-4425
奖学	-4426
并且可以	-4427
所有的	-4428
教育的	-4429
良好的	-4430
”。	-4431
▁双龙汽车	-4432
低迷	-4433
快递	-4434
内需	-4435
可见	-4436
热烈	-4437
要在	-4438
ind	-4439
笔记本	-4440
不振	-4441
放宽	-4442
线路	-4443
▁本发明的目的是提供一种	-4444
脂肪	-4445
显示装置	-4446
中秋	-4447
侵害	-4448
所长	-4449
经营者	-4450
沉积	-4451
福祉	-4452
釜山市	-4453
集团的	-4454
首席执行官	-4455
法官	-4456
骚扰	-4457
▁主要	-4458
出现在	-4459
的决定	-4460
书面	-4461
处方	-4462
120	-4463
▁警方	-4464
时间内	-4465
从业人员	-4466
oin	-4467
国民之	-4468
歧视	-4469
之日起	-4470
并将其	-4471
等进行	-4472
ud	-4473
博物	-4474
居家	-4475
衣服	-4476
与韩国	-4477
、3	-4478
两位	-4479
优异	-4480
条的	-4481
自信	-4482
时表示	-4483
▁曾	-4484
喜爱	-4485
携手	-4486
等共	-4487
▁一般	-4488
剩下的	-4489
疾病的	-4490
管理的	-4491
tube	-4492
代表理事	-4493
路虎	-4494
轻易	-4495
尼西亚	-4496
智能城市	-4497
文在寅政府	-4498
.2	-4499
地点	-4500
文字	-4501
顾问	-4502
的国内	-4503
还表示	-4504
▁京畿道	-4505
不少	-4506
仅为	-4507
到期	-4508
陆续	-4509
ant	-4510
关税	-4511
处以	-4512
急救	-4513
联邦	-4514
博物馆	-4515
智慧	-4516
▁丰田	-4517
博览会	-4518
好奇心	-4519
印度尼西亚	-4520
合格	-4521
好转	-4522
是最	-4523
ear	-4524
汽车制造商	-4525
不如	-4526
散热	-4527
运转	-4528
凌晨	-4529
搜查	-4530
SBS	-4531
发生变化	-4532
法定	-4533
浦区	-4534
热情	-4535
节约	-4536
的照片	-4537
被选定为	-4538
斗山	-4539
来了	-4540
树脂	-4541
的多	-4542
面前	-4543
制定的	-4544
将提供	-4545
蛋白质	-4546
不用	-4547
匹配	-4548
开幕	-4549
频繁	-4550
net	-4551
新技术	-4552
市价	-4553
逻辑	-4554
订阅	-4555
非正式员工	-4556
分歧	-4557
边缘	-4558
晶体管	-4559
日举行的	-4560
越来越大	-4561
宠物	-4562
微型	-4563
探测	-4564
法规	-4565
诈骗	-4566
走向	-4567
连任	-4568
岁以上	-4569
数据库	-4570
的劳动	-4571
内置	-4572
本案	-4573
法拉	-4574
出来的	-4575
的方向	-4576
▁向	-4577
同事	-4578
倍以上	-4579
备受瞩	-4580
检查结果	-4581
阴极射线	-4582
厚度	-4583
纳税	-4584
ev	-4585
平板	-4586
观点	-4587
iphone	-4588
,2	-4589
3%	-4590
放学	-4591
▁没有	-4592
副总理	-4593
的美国	-4594
康复	-4595
强行	-4596
引进了	-4597
几乎没有	-4598
紧急对策委员会	-4599
▁各	-4600
和李	-4601
如果在	-4602
对象的	-4603
证明了	-4604
GB	-4605
分数	-4606
服务中心	-4607
HO	-4608
班牙	-4609
召开了	-4610
的意志	-4611
西班牙	-4612
选择了	-4613
医药品安全	-4614
氧气	-4615
180	-4616
分类为	-4617
包含了	-4618
有期徒刑	-4619
密封	-4620
工学	-4621
我想	-4622
更高	-4623
▁之前	-4624
有意义	-4625
的速度	-4626
低廉	-4627
变数	-4628
美容	-4629
当事人	-4630
的关系	-4631
系统和	-4632
运营商	-4633
产业园区	-4634
防疫当局	-4635
CR	-4636
IF	-4637
ix	-4638
团长	-4639
大脑	-4640
分析称	-4641
生产线	-4642
通过了	-4643
一直以来	-4644
可以进行	-4645
工商业者	-4646
目前正在	-4647
66	-4648
分割	-4649
料理	-4650
景气	-4651
▁工会	-4652
实验室	-4653
汽车市场	-4654
华丽	-4655
团的	-4656
激增	-4657
规划	-4658
的新车	-4659
正式员工	-4660
一切	-4661
冠军	-4662
听课	-4663
大楼	-4664
文学	-4665
男女	-4666
界限	-4667
自杀	-4668
释放	-4669
▁TV	-4670
和其他	-4671
将达到	-4672
调查结果	-4673
Sp	-4674
▁AI	-4675
在日本	-4676
代表黄教安	-4677
▁1	-4678
与其	-4679
交付	-4680
党员	-4681
愤怒	-4682
总公司	-4683
调查中	-4684
▁9	-4685
携带	-4686
模特	-4687
竣工	-4688
长度	-4689
音频	-4690
end	-4691
▁第一	-4692
计划将	-4693
一体	-4694
压倒	-4695
厘米	-4696
数百	-4697
的三	-4698
高尔夫	-4699
全罗	-4700
巩固	-4701
登录	-4702
的韩	-4703
以下称	-4704
如果不	-4705
公平交易	-4706
应用软件	-4707
假设	-4708
光学	-4709
提到	-4710
面试	-4711
800	-4712
报道说	-4713
计划以	-4714
质量的	-4715
集中在	-4716
DS	-4717
扫描	-4718
易于	-4719
的销量	-4720
研究生	-4721
迪拉克	-4722
原理	-4723
湖南	-4724
的工资	-4725
2003	-4726
▁青瓦台	-4727
审议委员会	-4728
新党	-4729
衍生	-4730
销售了	-4731
的人工智能	-4732
决心	-4733
抛售	-4734
效力	-4735
确实	-4736
谈判	-4737
▁这样	-4738
会上表示	-4739
不受	-4740
洗手	-4741
遇到	-4742
制造的	-4743
在网上	-4744
投资的	-4745
商标	-4746
大使	-4747
持股	-4748
物价	-4749
性骚扰	-4750
▁上个月	-4751
自我隔离	-4752
LA	-4753
汇款	-4754
陶瓷	-4755
与去年	-4756
可以用	-4757
大法院	-4758
特点是	-4759
停业	-4760
经济的	-4761
▁2019	-4762
运动型多功能车	-4763
▁尹	-4764
出面	-4765
碰撞	-4766
终身	-4767
东南亚	-4768
发行的	-4769
主席	-4770
滞纳	-4771
课后	-4772
费的	-4773
重组	-4774
○○	-4775
出行	-4776
开设了	-4777
新加坡	-4778
的人们	-4779
▁像这样	-4780
无薪	-4781
洞的	-4782
清楚	-4783
学校的	-4784
积极参与	-4785
vN	-4786
肥胖	-4787
▁就像	-4788
代表的	-4789
的用户	-4790
什么样的	-4791
57	-4792
之中	-4793
想的	-4794
条之	-4795
海瓒	-4796
指定的	-4797
能够在	-4798
认为有必要	-4799
EM	-4800
区间	-4801
量产	-4802
年以后	-4803
行政安全	-4804
工人的	-4805
驾驶者	-4806
更具体地	-4807
城南	-4808
整合	-4809
▁保健	-4810
使用该	-4811
的设备	-4812
新型冠状病毒肺炎	-4813
旗舰	-4814
暴跌	-4815
粒子	-4816
音乐剧	-4817
休闲	-4818
惊讶	-4819
扣押	-4820
疲劳	-4821
及第	-4822
今后将	-4823
促销	-4824
地上	-4825
忠北	-4826
韩美	-4827
RI	-4828
遥控	-4829
oft	-4830
▁最后	-4831
共同体	-4832
可能是	-4833
不再	-4834
传真	-4835
加拿大	-4836
有效的	-4837
金融投资	-4838
上看	-4839
▁宝马	-4840
插座	-4841
ill	-4842
ist	-4843
设立的	-4844
能够通过	-4845
▁第二	-4846
▁部分	-4847
的计划	-4848
本发明中	-4849
燃油效率	-4850
▁Z	-4851
和第	-4852
而在	-4853
负债	-4854
也有人	-4855
成立的	-4856
凯迪拉克	-4857
特别委员会	-4858
常务	-4859
步伐	-4860
从未	-4861
彼此	-4862
议事	-4863
面向	-4864
41	-4865
▁仅	-4866
免税	-4867
外观	-4868
构造	-4869
生长	-4870
的优点	-4871
警察厅	-4872
这是因为	-4873
感动	-4874
潜在	-4875
热潮	-4876
力和	-4877
的主张	-4878
▁d	-4879
好好	-4880
感应	-4881
排行	-4882
了很多	-4883
NAVER	-4884
是为	-4885
睡眠	-4886
保险金	-4887
日晚	-4888
ain	-4889
应根据	-4890
教育部	-4891
配备了	-4892
层面	-4893
新生	-4894
从明年	-4895
关系的	-4896
推进的	-4897
大大	-4898
忠南	-4899
诸如	-4900
ack	-4901
处理的	-4902
不知	-4903
中立	-4904
中国的	-4905
的演员	-4906
太阳能电池	-4907
43	-4908
一带	-4909
爆炸	-4910
礼物	-4911
龙山	-4912
所得税	-4913
转换成	-4914
食品医药品安全	-4915
,7	-4916
▁安	-4917
否定	-4918
并为	-4919
节省	-4920
参加的	-4921
基金的	-4922
地区居民	-4923
无线通信	-4924
基督	-4925
清州	-4926
知名	-4927
税收	-4928
终于	-4929
的场面	-4930
储蓄银行	-4931
气候变化	-4932
倾斜	-4933
开通	-4934
强的	-4935
温室	-4936
费等	-4937
250	-4938
相关人士解释说	-4939
87	-4940
急诊	-4941
更好	-4942
上形成	-4943
怎样的	-4944
再生能源	-4945
EL	-4946
型的	-4947
燃烧	-4948
组件	-4949
防弹	-4950
评价说	-4951
健康管理	-4952
▁崔	-4953
编辑	-4954
▁原告	-4955
剩下	-4956
批量	-4957
展示会	-4958
方法的	-4959
的名字	-4960
实的	-4961
过敏	-4962
附属	-4963
器件的	-4964
网络服务	-4965
选举运动	-4966
cc	-4967
不已	-4968
产权	-4969
山市	-4970
并非	-4971
抗癌	-4972
摄取	-4973
发展的	-4974
了与	-4975
元素	-4976
总管	-4977
身上	-4978
的条件	-4979
专门企业	-4980
由区厅长	-4981
市场占有率	-4982
▁是	-4983
乐趣	-4984
前途	-4985
崩溃	-4986
得出	-4987
零售	-4988
回答说	-4989
tech	-4990
如果没有	-4991
开拓	-4992
act	-4993
增至	-4994
夏天	-4995
附页	-4996
寄生虫	-4997
的想法	-4998
议员金	-4999
休职	-5000
内燃	-5001
日内	-5002
标记	-5003
翻译	-5004
道内	-5005
▁参加	-5006
支付的	-5007
的评价	-5008
,1	-5009
军事	-5010
库存	-5011
有时	-5012
的态度	-5013
中坚	-5014
国的	-5015
声明	-5016
科学技术信息通讯	-5017
5%	-5018
兄弟	-5019
天堂	-5020
相遇	-5021
ital	-5022
▁在韩国	-5023
友利银行	-5024
mm	-5025
他说	-5026
将把	-5027
较大	-5028
oss	-5029
但随着	-5030
秘书官	-5031
学生父母	-5032
文化遗产	-5033
中小风险企业	-5034
职位	-5035
ics	-5036
在世界	-5037
在海外	-5038
特例	-5039
美中	-5040
下面	-5041
复制	-5042
对外	-5043
尾气	-5044
物体	-5045
所谓的	-5046
CN	-5047
传闻	-5048
刊登	-5049
及时	-5050
高层	-5051
提交了	-5052
数字化	-5053
大众汽车	-5054
电子商务	-5055
摩托	-5056
节点	-5057
里斯	-5058
阿拉	-5059
韩进	-5060
具备了	-5061
多岁的	-5062
工作制	-5063
年轻人	-5064
议员在	-5065
行驶距离	-5066
双重	-5067
得知	-5068
气囊	-5069
破产	-5070
说法	-5071
遗传	-5072
任意	-5073
共和	-5074
栅极	-5075
可持续	-5076
1500	-5077
北京	-5078
暴涨	-5079
粘合	-5080
艰难	-5081
获胜	-5082
之前的	-5083
排行榜	-5084
2002	-5085
中旬	-5086
农村	-5087
处的	-5088
春节	-5089
因此在	-5090
2022	-5091
work	-5092
日播出的	-5093
第四次产业革命	-5094
年底	-5095
恶意	-5096
方式的	-5097
ight	-5098
▁未来统合党	-5099
上周	-5100
并以	-5101
见的	-5102
表达了	-5103
▁Pro	-5104
的劳动者	-5105
▁最	-5106
便宜	-5107
很快	-5108
品牌的	-5109
是否有	-5110
▁那	-5111
喜剧	-5112
成人	-5113
者中	-5114
马上	-5115
收益性	-5116
最高委员会	-5117
可以在预算范围内	-5118
CM	-5119
将向	-5120
足够	-5121
重视	-5122
传达了	-5123
政策的	-5124
高于	-5125
▁这次	-5126
通过将	-5127
看作	-5128
静坐	-5129
以下内容	-5130
恐怖	-5131
愿意	-5132
浪漫	-5133
练习	-5134
明年的	-5135
的学校	-5136
职员们	-5137
云端	-5138
age	-5139
汽车保险	-5140
为对象进行	-5141
GV	-5142
▁Q	-5143
学家	-5144
欧盟	-5145
移植	-5146
及运营	-5147
航空公司	-5148
估计	-5149
后续	-5150
器官	-5151
上所述	-5152
人们对	-5153
减少到	-5154
时间和	-5155
红色	-5156
个国家	-5157
感染的	-5158
制造企业	-5159
88	-5160
CT	-5161
▁6	-5162
中也	-5163
无偿	-5164
液体	-5165
韩语	-5166
仪表	-5167
合法	-5168
引线	-5169
快乐	-5170
社团	-5171
荧光	-5172
工业革命	-5173
Ch	-5174
▁市	-5175
外线	-5176
开启	-5177
法制	-5178
等人	-5179
聘请	-5180
的支援	-5181
"(	-5182
Sh	-5183
卓越	-5184
主办的	-5185
住宿	-5186
支架	-5187
主人公	-5188
设置了	-5189
▁不仅如此	-5190
,6	-5191
假期	-5192
广津	-5193
的反	-5194
监测	-5195
不好	-5196
入口	-5197
切换	-5198
命运	-5199
▁一位	-5200
扬声器	-5201
较大的	-5202
56	-5203
免除	-5204
外卖	-5205
授予	-5206
包括在	-5207
的个人	-5208
噪声	-5209
改善了	-5210
留下了	-5211
民主主义	-5212
带着	-5213
执政	-5214
实施了	-5215
游戏的	-5216
申请人	-5217
董事长	-5218
▁Pay	-5219
SO	-5220
校园	-5221
电线	-5222
预售	-5223
活性化	-5224
目标是	-5225
业务协议	-5226
安全管理	-5227
金融委员会	-5228
者等	-5229
电解质	-5230
老年人	-5231
行业的	-5232
mart	-5233
51	-5234
oud	-5235
和服务	-5236
劳动组合	-5237
ee	-5238
▁每	-5239
几个	-5240
打算	-5241
学年度	-5242
工厂的	-5243
款的规定	-5244
第二季度	-5245
哪里	-5246
扣除	-5247
丰富的	-5248
正常化	-5249
电容器	-5250
▁文总统	-5251
大韩航空	-5252
知识产权	-5253
墨西	-5254
钢铁	-5255
意大利	-5256
中使用的	-5257
代表表示	-5258
一同	-5259
日举行	-5260
的支持	-5261
检察改革	-5262
加剧	-5263
地震	-5264
爸爸	-5265
生育	-5266
发布会	-5267
墨西哥	-5268
数据中心	-5269
动态	-5270
区内	-5271
相生	-5272
辐射	-5273
增长了	-5274
国会议长	-5275
的消费者	-5276
柴油发动机	-5277
一旦	-5278
中毒	-5279
决策	-5280
拖欠	-5281
登上	-5282
的车	-5283
IST	-5284
▁乐天	-5285
折叠式	-5286
是韩国	-5287
的价值	-5288
IV	-5289
泄漏	-5290
顶级	-5291
ime	-5292
发布了	-5293
可以以	-5294
卫星政党	-5295
信息通信技术	-5296
SA	-5297
传开	-5298
洛渊	-5299
硬件	-5300
给人	-5301
萧条	-5302
80%	-5303
的特点是	-5304
ox	-5305
qu	-5306
家里	-5307
更为	-5308
送货	-5309
额外	-5310
LTE	-5311
连接的	-5312
广播通信	-5313
弹劾	-5314
所占	-5315
▁正如	-5316
美国的	-5317
芦原区	-5318
佛教	-5319
房子	-5320
提起	-5321
菜单	-5322
处理器	-5323
强大的	-5324
的判断	-5325
任何一项	-5326
更快	-5327
首位	-5328
▁20	-5329
当天在	-5330
第一位	-5331
设计师	-5332
主力	-5333
牛奶	-5334
约有	-5335
采购	-5336
突破了	-5337
雇佣部	-5338
之处	-5339
坐在	-5340
巴士	-5341
热门	-5342
▁这就是	-5343
▁公司方面	-5344
关联	-5345
征税	-5346
有过	-5347
松坡	-5348
高丽	-5349
ood	-5350
变得更加	-5351
庆尚南道	-5352
疗养医院	-5353
成年	-5354
▁只要	-5355
支援的	-5356
讲述了	-5357
agram	-5358
不久	-5359
诱导	-5360
马来	-5361
▁只有	-5362
事业部	-5363
占据了	-5364
重要的	-5365
人生	-5366
器械	-5367
票房	-5368
特别的	-5369
说明会	-5370
PI	-5371
上海	-5372
个性	-5373
保守党	-5374
静坐示威	-5375
剧本	-5376
品种	-5377
声波	-5378
进展	-5379
TF	-5380
区别	-5381
放缓	-5382
是与	-5383
任何人	-5384
特有的	-5385
体积	-5386
才是	-5387
秩序	-5388
签名	-5389
细节	-5390
调解	-5391
催化剂	-5392
到今年	-5393
更好的	-5394
可以看出	-5395
TC	-5396
前面	-5397
盆唐	-5398
▁世界	-5399
戴口罩	-5400
扩大了	-5401
机构的	-5402
的时代	-5403
6000	-5404
丽水	-5405
分解	-5406
原料	-5407
界的	-5408
orm	-5409
▁汽车	-5410
的歌曲	-5411
的电池	-5412
loud	-5413
标签	-5414
腐败	-5415
自律	-5416
进化	-5417
马达	-5418
▁苹果	-5419
原材料	-5420
的特殊	-5421
7000	-5422
会对	-5423
少的	-5424
撤回	-5425
消化	-5426
TBC	-5427
法拉利	-5428
防弹少年	-5429
62	-5430
84	-5431
到底	-5432
听说	-5433
掩膜	-5434
过半	-5435
号格式的	-5436
▁赵	-5437
乐队	-5438
内外	-5439
套餐	-5440
方的	-5441
缺点	-5442
成长为	-5443
等症状	-5444
笔记本电脑	-5445
▁首尔特别市	-5446
农场	-5447
奶奶	-5448
引人	-5449
在使用	-5450
正在准备	-5451
▁Korea	-5452
89	-5453
准确地	-5454
大学生	-5455
十字	-5456
备箱	-5457
对比	-5458
新药	-5459
面包	-5460
庆尚北道	-5461
ok	-5462
厨房	-5463
受损	-5464
装载	-5465
119	-5466
优惠券	-5467
并根据	-5468
74	-5469
展览	-5470
抵制	-5471
描绘	-5472
自愿	-5473
英雄	-5474
you	-5475
▁被告	-5476
感染病	-5477
法务部	-5478
降低了	-5479
因此需要	-5480
万台	-5481
不当	-5482
利害	-5483
教职员	-5484
是根据	-5485
环境的	-5486
余额	-5487
实质	-5488
罗卿	-5489
从本月	-5490
供应商	-5491
受托人	-5492
商品的	-5493
在釜山	-5494
日本的	-5495
标准的	-5496
54	-5497
sh	-5498
书的	-5499
转包	-5500
▁这个	-5501
内燃机	-5502
当天下午	-5503
▁金融监督院	-5504
无人驾驶汽车	-5505
调查结果显示	-5506
保育	-5507
暗示	-5508
▁过去	-5509
设立了	-5510
这也是	-5511
长期化	-5512
电波	-5513
货车	-5514
成员们	-5515
方法和	-5516
72	-5517
两年	-5518
聚会	-5519
oom	-5520
信息化	-5521
合作的	-5522
政治圈	-5523
的医疗	-5524
认定为	-5525
体重	-5526
套装	-5527
蓝图	-5528
加入了	-5529
研究生院	-5530
▁尽管如此	-5531
My	-5532
紧凑	-5533
▁11	-5534
在欧洲	-5535
福利部	-5536
罗卿瑗	-5537
企划财政部	-5538
房间	-5539
水原	-5540
组建	-5541
于今年	-5542
将持续	-5543
WS	-5544
侵犯	-5545
土壤	-5546
停留在	-5547
局限性	-5548
引起了人们的	-5549
76	-5550
政务	-5551
极端	-5552
收视率	-5553
国外	-5554
离婚	-5555
座谈会	-5556
李洛渊	-5557
可以提高	-5558
中期	-5559
将为	-5560
开端	-5561
投保	-5562
紧密	-5563
现代汽车集团	-5564
An	-5565
事后	-5566
同年	-5567
询问	-5568
化合物	-5569
岭南	-5570
感和	-5571
移交	-5572
仅限于	-5573
的事故	-5574
等其他	-5575
发达国家	-5576
条的规定	-5577
新冠肺炎确诊患者	-5578
、4	-5579
会见	-5580
共识	-5581
成熟	-5582
的朴	-5583
网民	-5584
蓝色	-5585
谴责	-5586
高达	-5587
性暴力	-5588
汽车企业	-5589
以为	-5590
分红	-5591
协定	-5592
否认	-5593
的健康	-5594
集中于	-5595
排名第一	-5596
RE	-5597
触摸	-5598
ash	-5599
est	-5600
便利店	-5601
天然气	-5602
的力量	-5603
的装置	-5604
讨论了	-5605
stagram	-5606
并对	-5607
清洗	-5608
开发者	-5609
韩元的	-5610
ello	-5611
信用卡公司	-5612
▁她	-5613
中最	-5614
冠岳	-5615
接口	-5616
,10	-5617
▁Sp	-5618
提供给	-5619
让我们	-5620
研究结果	-5621
马来西亚	-5622
恶劣	-5623
电讯	-5624
白色	-5625
耐久	-5626
网络的	-5627
弱势群体的	-5628
全北	-5629
构件	-5630
九老区	-5631
进行检查	-5632
停产	-5633
显著	-5634
首播	-5635
商用车	-5636
并运营	-5637
最多的	-5638
▁在此次	-5639
动员	-5640
寻求	-5641
征集	-5642
著作	-5643
说服	-5644
鉴定	-5645
ble	-5646
控股公司	-5647
夜间	-5648
排列	-5649
敏感	-5650
具体的	-5651
奖学金	-5652
,9	-5653
IB	-5654
if	-5655
各地	-5656
商城	-5657
对手	-5658
700	-5659
分期付款	-5660
金融危机	-5661
运营委员会	-5662
变身	-5663
实证	-5664
惯例	-5665
的东西	-5666
的中国	-5667
的制度	-5668
为对象的	-5669
北韩	-5670
太大	-5671
异议	-5672
究竟	-5673
和技术	-5674
的重要性	-5675
移动通信公司	-5676
削减	-5677
思想	-5678
出演的	-5679
是利用	-5680
的存在	-5681
现任议员	-5682
百货商店	-5683
▁到目前为止	-5684
不动	-5685
清晰	-5686
等新	-5687
赤字	-5688
▁他接着	-5689
虚拟现实	-5690
进行协商	-5691
在这种情况下	-5692
国税	-5693
客观	-5694
揭发	-5695
斯卡	-5696
高价	-5697
高等	-5698
。""	-5699
必须在	-5700
最近在	-5701
签署了	-5702
转变为	-5703
光明	-5704
放射	-5705
杀人	-5706
毫不	-5707
未来的	-5708
的大小	-5709
颁奖典礼	-5710
半岛	-5711
参赛	-5712
常规	-5713
干净	-5714
流程	-5715
的眼	-5716
ron	-5717
分别为	-5718
金钟仁	-5719
uper	-5720
▁Net	-5721
一人	-5722
本次	-5723
答案	-5724
一段时间	-5725
次工业革命	-5726
健全	-5727
斯坦	-5728
的上	-5729
膨胀	-5730
eal	-5731
开发和	-5732
表示了	-5733
因此很难	-5734
73	-5735
Gr	-5736
宣言	-5737
密集	-5738
对抗	-5739
生计	-5740
误差	-5741
▁上述	-5742
原因是	-5743
总罢工	-5744
的智能	-5745
,199	-5746
北区	-5747
微笑	-5748
原则上	-5749
斯达克	-5750
的多种	-5751
事由	-5752
新年	-5753
确立	-5754
镜头	-5755
90%	-5756
弟弟	-5757
斯特	-5758
的手	-5759
绝食	-5760
落选	-5761
很好地	-5762
▁Naver	-5763
村庄	-5764
将获得	-5765
市民党	-5766
氧化物	-5767
▁黄代表	-5768
检疫	-5769
目录	-5770
上传了	-5771
性能和	-5772
的角度	-5773
轮驱动	-5774
第三季度	-5775
▁这意味着	-5776
刘承	-5777
App	-5778
最多可	-5779
的责任	-5780
日子	-5781
轨道	-5782
并且在	-5783
呼声	-5784
度和	-5785
批发	-5786
可以对	-5787
申请了	-5788
封闭	-5789
死角	-5790
金正	-5791
彩色	-5792
描述	-5793
核电	-5794
棒球	-5795
石墨	-5796
40%	-5797
护人员	-5798
的感觉	-5799
没有任何	-5800
首尔大学	-5801
eg	-5802
少女	-5803
本金	-5804
步行	-5805
画质	-5806
的成果	-5807
的竞争	-5808
安全气囊	-5809
教育活动	-5810
国土交通部	-5811
三大	-5812
故意	-5813
院的	-5814
生产率	-5815
gram	-5816
ower	-5817
产生影响	-5818
历史最高	-5819
新冠肺炎疫情	-5820
▁更	-5821
业主	-5822
洗衣	-5823
深入	-5824
表彰	-5825
质疑	-5826
即使是	-5827
曹长官	-5828
的一个	-5829
陷入了	-5830
▁研究组	-5831
成为话题	-5832
批量生产	-5833
而产生的	-5834
▁洪	-5835
告发	-5836
将由	-5837
当中	-5838
饮料	-5839
麦克	-5840
照片中	-5841
的形象	-5842
的比重	-5843
机器人的	-5844
进行分析	-5845
HD	-5846
外科	-5847
意思	-5848
泡菜	-5849
▁计划	-5850
以防止	-5851
是否会	-5852
的特别	-5853
可以防止	-5854
被评价为	-5855
86	-5856
MA	-5857
列车	-5858
感受	-5859
模仿	-5860
ial	-5861
的其他	-5862
设置在	-5863
ream	-5864
▁委员长	-5865
通过使用	-5866
农民	-5867
大厅	-5868
应急	-5869
民政	-5870
秋天	-5871
认真	-5872
去年的	-5873
股东大会	-5874
作曲	-5875
前提	-5876
奠定	-5877
安全网	-5878
产业通商	-5879
下一	-5880
出于	-5881
特尔	-5882
谋求	-5883
▁这里	-5884
他表示	-5885
公司内部	-5886
判定	-5887
战胜	-5888
▁无论	-5889
比特币	-5890
治疗的	-5891
的发言	-5892
电视购物	-5893
件数	-5894
戏剧	-5895
永登	-5896
海报	-5897
ung	-5898
增加的	-5899
很好的	-5900
有力的	-5901
真正的	-5902
管理和	-5903
经历了	-5904
诊断为	-5905
体验活动	-5906
美中贸易	-5907
Fi	-5908
GA	-5909
▁道	-5910
主页	-5911
公斤	-5912
房价	-5913
平台的	-5914
ment	-5915
与此	-5916
依靠	-5917
公认	-5918
展厅	-5919
▁18	-5920
制度的	-5921
在这里	-5922
的文章	-5923
备受期待	-5924
市民团体	-5925
乐园	-5926
但从	-5927
应向	-5928
恐惧	-5929
托管	-5930
ide	-5931
也应该	-5932
光州市	-5933
预计将	-5934
▁该公司	-5935
资产运营	-5936
当作	-5937
房屋	-5938
打折	-5939
ick	-5940
小规模	-5941
死亡的	-5942
的角色	-5943
被推迟	-5944
十分	-5945
水产	-5946
的音乐	-5947
并与	-5948
新任	-5949
李仁	-5950
为了在	-5951
为提高	-5952
可通过	-5953
综合征	-5954
产业银行	-5955
旁边	-5956
是有	-5957
油价	-5958
迫切	-5959
▁KB	-5960
如果有	-5961
本条例	-5962
要求的	-5963
部作品	-5964
金融当局	-5965
选举对策委员长	-5966
伪造	-5967
宽带	-5968
投标	-5969
来源	-5970
色彩	-5971
ink	-5972
下一代	-5973
基板的	-5974
川区	-5975
捕捉	-5976
月初	-5977
电容	-5978
证实	-5979
第一款	-5980
医护人员	-5981
'。	-5982
龟尾	-5983
低利率	-5984
的费用	-5985
认识到	-5986
协同效应	-5987
可以获得	-5988
相关事项	-5989
KO	-5990
▁按	-5991
创下	-5992
另一	-5993
试乘	-5994
谅解	-5995
防御	-5996
高温	-5997
的概念	-5998
附页第	-5999
交涉团体	-6000
产业通商资源	-6001
冻结	-6002
稍微	-6003
葡萄	-6004
采集	-6005
出口限制	-6006
为首	-6007
感冒	-6008
阻碍	-6009
历史上	-6010
急诊室	-6011
报道称	-6012
最大化	-6013
损害赔偿	-6014
资产管理	-6015
民主党候选人	-6016
供需	-6017
别人	-6018
筹措	-6019
KAO	-6020
信息和	-6021
标准化	-6022
韩国人	-6023
交通安全	-6024
口腔	-6025
售出	-6026
拉斯	-6027
连锁	-6028
rot	-6029
商业化	-6030
目前的	-6031
可以减少	-6032
接受检查	-6033
基调	-6034
我会	-6035
溶液	-6036
种植	-6037
调制	-6038
决定是否	-6039
诊断检查	-6040
ction	-6041
交叉	-6042
例外	-6043
婴儿	-6044
搞活	-6045
海上	-6046
的内	-6047
构建了	-6048
该公司	-6049
▁本发明提供了一种	-6050
53	-6051
PE	-6052
动画	-6053
过失	-6054
还能	-6055
遭到	-6056
之一的	-6057
克斯坦	-6058
的儿童	-6059
pt	-6060
变量	-6061
,20	-6062
RPG	-6063
分辨率	-6064
社会的	-6065
投资者的	-6066
有所不同	-6067
▁h	-6068
优质	-6069
实体	-6070
审计	-6071
扮演	-6072
男人	-6073
自发	-6074
的方针	-6075
的资料	-6076
▁金融委员会	-6077
痊愈	-6078
足球	-6079
一个人	-6080
环境中	-6081
而努力	-6082
过滤器	-6083
项规定	-6084
空气净化	-6085
4%	-6086
PU	-6087
再现	-6088
影响力	-6089
的能力	-6090
的资金	-6091
大幅减少	-6092
越来越高	-6093
▁姜	-6094
哪个	-6095
实地	-6096
移民	-6097
诱发	-6098
做出的	-6099
后备箱	-6100
很高的	-6101
收购了	-6102
方便地	-6103
销售量	-6104
CCTV	-6105
养老	-6106
推动	-6107
权益	-6108
的女	-6109
者在	-6110
决定在	-6111
文化信息	-6112
紧急灾难支援金	-6113
RA	-6114
、1	-6115
与前	-6116
他在	-6117
募集	-6118
很少	-6119
空白	-6120
精确	-6121
▁企业	-6122
合理的	-6123
可以说是	-6124
巴黎	-6125
操纵	-6126
理念	-6127
控制装置	-6128
61	-6129
欲望	-6130
花费	-6131
行的	-6132
以来的	-6133
免税店	-6134
监护人	-6135
正式开始	-6136
锂离子电池	-6137
82	-6138
上次	-6139
拍照	-6140
活用	-6141
克莱斯	-6142
单纯的	-6143
可以与	-6144
钟路区	-6145
增强现实	-6146
金融服务	-6147
们在	-6148
体内	-6149
干扰	-6150
恋爱	-6151
牺牲	-6152
▁到	-6153
、5	-6154
剧情	-6155
南北	-6156
哥哥	-6157
曾经	-6158
缓慢	-6159
退党	-6160
项的	-6161
变成了	-6162
设备和	-6163
Wi	-6164
助理	-6165
放置	-6166
破裂	-6167
ero	-6168
可以从	-6169
设计和	-6170
丢失	-6171
天安	-6172
屏蔽	-6173
带有	-6174
私立	-6175
背面	-6176
露出	-6177
的高度	-6178
看到的	-6179
可以利用	-6180
移动电话	-6181
防疫对策本部	-6182
ug	-6183
于是	-6184
仍在	-6185
南部	-6186
发烧	-6187
大约	-6188
个百分	-6189
金融圈	-6190
克莱斯勒	-6191
▁Note	-6192
智能手机的	-6193
现场体验学习	-6194
2~	-6195
不让	-6196
也从	-6197
会面	-6198
布置	-6199
SDI	-6200
所有人	-6201
积极的	-6202
提供服务	-6203
的立场是	-6204
全新	-6205
回应	-6206
屋顶	-6207
演歌	-6208
疑问	-6209
立体	-6210
终止	-6211
不错	-6212
专务	-6213
召集	-6214
帝国	-6215
群体	-6216
遗属	-6217
▁全国	-6218
的程度	-6219
稳定地	-6220
▁如果说	-6221
▁特别是在	-6222
之路	-6223
报纸	-6224
曾在	-6225
本质	-6226
▁还有	-6227
也很难	-6228
生活在	-6229
被送往	-6230
ning	-6231
平面	-6232
药店	-6233
随机	-6234
APP	-6235
的新闻	-6236
短期内	-6237
聚合物	-6238
设置的	-6239
两国	-6240
全额	-6241
外出	-6242
安慰	-6243
必然	-6244
牙科	-6245
的无	-6246
ass	-6247
▁驳回	-6248
引人注	-6249
现场的	-6250
希望大家	-6251
▁w	-6252
分开	-6253
教学	-6254
潜力	-6255
穿着	-6256
fli	-6257
应立即	-6258
居家隔离	-6259
慎重	-6260
货物	-6261
退还	-6262
以内的	-6263
议员和	-6264
电话号码	-6265
壳体	-6266
刘承旼	-6267
上升趋势	-6268
▁Thin	-6269
,8	-6270
医务	-6271
大举	-6272
期望	-6273
▁Ch	-6274
作用的	-6275
大会上	-6276
持续增加	-6277
arket	-6278
团员	-6279
姿势	-6280
救济	-6281
▁歌手	-6282
性犯罪	-6283
有关的	-6284
请参考	-6285
中小企业的	-6286
TO	-6287
合唱	-6288
对应	-6289
DLF	-6290
rem	-6291
▁En	-6292
份额	-6293
前景	-6294
承包	-6295
支部	-6296
重叠	-6297
BMW	-6298
于本月	-6299
喜欢的	-6300
美国和	-6301
密码货币	-6302
这种情况	-6303
权威	-6304
树立	-6305
而已	-6306
蒙古	-6307
量身	-6308
▁Sh	-6309
的意思	-6310
虽然是	-6311
全租	-6312
板上	-6313
装有	-6314
负压	-6315
AD	-6316
法庭	-6317
除外	-6318
tvN	-6319
基督教	-6320
竭尽全力	-6321
加利	-6322
去过	-6323
监管	-6324
腺癌	-6325
▁位于	-6326
但是在	-6327
或其他	-6328
摩托车	-6329
申请的	-6330
科学技术信息通讯部	-6331
报酬	-6332
暑假	-6333
铁道	-6334
为开端	-6335
发光二极管	-6336
▁公开了一种	-6337
承受	-6338
改造	-6339
最长	-6340
气象	-6341
的超	-6342
▁正在	-6343
制成的	-6344
服务和	-6345
服务等	-6346
的第二	-6347
小说	-6348
特委	-6349
证人	-6350
金库	-6351
是非常	-6352
国民银行	-6353
被排除在	-6354
▁该条例旨在	-6355
原来	-6356
场的	-6357
性格	-6358
武器	-6359
炎症	-6360
负载	-6361
这么	-6362
2.5	-6363
ont	-6364
将继续	-6365
维生素	-6366
8000	-6367
为了应对	-6368
ution	-6369
产学	-6370
博客	-6371
恶性	-6372
接地	-6373
蔓延	-6374
▁国会	-6375
▁尤其是	-6376
温室气体	-6377
销售额为	-6378
▁三	-6379
附着	-6380
的魅力	-6381
英特尔	-6382
CH	-6383
日对	-6384
某种	-6385
2.0	-6386
也不是	-6387
大股东	-6388
将根据	-6389
内存	-6390
日向	-6391
晋州	-6392
高压	-6393
rid	-6394
审议会	-6395
将作为	-6396
艺术家	-6397
▁据统计	-6398
增长势头	-6399
▁最重要的是	-6400
危害	-6401
怀孕	-6402
新建	-6403
欣赏	-6404
缓冲	-6405
言论	-6406
造型	-6407
首款	-6408
和企业	-6409
备受瞩目	-6410
中继	-6411
卢武	-6412
门槛	-6413
流媒体	-6414
生活中	-6415
的人力	-6416
的反应	-6417
车型的	-6418
将进一步	-6419
丧失	-6420
内科	-6421
水面	-6422
送到	-6423
计划的	-6424
韩国文化	-6425
反弹	-6426
校正	-6427
Han	-6428
卢武铉	-6429
汽车和	-6430
行为的	-6431
错误的	-6432
2001	-6433
积极协助	-6434
71	-6435
▁g	-6436
抢占	-6437
畅销	-6438
策略	-6439
跨国	-6440
Mar	-6441
下降到	-6442
兆韩元	-6443
最后一	-6444
介电	-6445
潮流	-6446
接触的	-6447
负责人表示	-6448
回家	-6449
市的	-6450
技能	-6451
新款	-6452
非洲	-6453
▁那么	-6454
中央会	-6455
任命为	-6456
的特点	-6457
还需要	-6458
保健当局	-6459
道路公社	-6460
仅在	-6461
切割	-6462
夫妻	-6463
约翰	-6464
让我	-6465
KOS	-6466
LCD	-6467
ber	-6468
提高到	-6469
状态的	-6470
的方法和	-6471
今年上半年	-6472
一度	-6473
不明	-6474
专注	-6475
划分	-6476
当前	-6477
得票	-6478
波动	-6479
游说	-6480
▁感谢	-6481
和美国	-6482
完整	-6483
液晶	-6484
电器	-6485
间隔	-6486
队员	-6487
韩华	-6488
60%	-6489
OTT	-6490
会导致	-6491
普通人	-6492
的首尔	-6493
程度上	-6494
整车企业	-6495
负面影响	-6496
含量	-6497
周五	-6498
通行	-6499
钱包	-6500
per	-6501
▁in	-6502
上升了	-6503
免疫力	-6504
基本法	-6505
的人才	-6506
的历史	-6507
的氛围	-6508
的管理	-6509
类型的	-6510
经营权	-6511
而陷入	-6512
身份证	-6513
可以直接	-6514
研究人员	-6515
经纪公司	-6516
天后	-6517
子和	-6518
封锁	-6519
MOU	-6520
的大部分	-6521
进军海外	-6522
韩国银行	-6523
facebook	-6524
吸入	-6525
安东	-6526
强硬	-6527
插头	-6528
格局	-6529
致命	-6530
馆长	-6531
ign	-6532
可以看到	-6533
增加到了	-6534
目的在于	-6535
釜山广域市	-6536
3~	-6537
IR	-6538
OO	-6539
不过	-6540
微尘	-6541
户外	-6542
次官	-6543
贵的	-6544
▁提供	-6545
在过去	-6546
教育和	-6547
有一个	-6548
比任何	-6549
的领域	-6550
▁pay	-6551
ll	-6552
▁换	-6553
一审	-6554
应将	-6555
链接	-6556
▁只是	-6557
环境下	-6558
违反了	-6559
两家公司	-6560
观众们的	-6561
IA	-6562
▁n	-6563
日元	-6564
个人的	-6565
在学校	-6566
医疗器械	-6567
书中	-6568
制铁	-6569
复苏	-6570
本周	-6571
水的	-6572
等与	-6573
筛查	-6574
败诉	-6575
CPU	-6576
▁新韩	-6577
为标准	-6578
参与者	-6579
将参加	-6580
能力和	-6581
▁大部分	-6582
发动机的	-6583
深度学习	-6584
上课	-6585
清算	-6586
的最	-6587
管道	-6588
制定并	-6589
并提高	-6590
的人中	-6591
完全没有	-6592
所需事项	-6593
ision	-6594
▁k	-6595
分之	-6596
增多	-6597
安静	-6598
忽视	-6599
手表	-6600
此后	-6601
海岸	-6602
街头	-6603
高出	-6604
▁全球	-6605
工程师	-6606
▁为了让	-6607
▁如果在	-6608
▁我认为	-6609
国民之党	-6610
黄教安代表	-6611
交替	-6612
悬案	-6613
昨天	-6614
有了	-6615
欧元	-6616
真是	-6617
所有权	-6618
环境部	-6619
的数量	-6620
印刷电路板	-6621
代价	-6622
作者	-6623
圆形	-6624
极限	-6625
水分	-6626
游泳	-6627
钥匙	-6628
专业性	-6629
因此对	-6630
委员中	-6631
魅力的	-6632
2030	-6633
▁问题是	-6634
个百分点	-6635
议会选举的	-6636
MB	-6637
乘车	-6638
成就	-6639
滥用	-6640
热量	-6641
落后	-6642
远远	-6643
选项	-6644
KAI	-6645
上安装	-6646
上涨了	-6647
大学的	-6648
的金额	-6649
观众的	-6650
越来越多	-6651
现代摩比斯	-6652
符合下列各项	-6653
▁东	-6654
口号	-6655
固体	-6656
ames	-6657
锦湖轮胎	-6658
▁在本发明中	-6659
也对	-6660
实物	-6661
有点	-6662
演示	-6663
阳光	-6664
中使用	-6665
年龄段	-6666
朋友们	-6667
国政监查	-6668
必要事项	-6669
非正式职工	-6670
亿韩元规模的	-6671
+1	-6672
新鲜	-6673
更改	-6674
▁由此	-6675
不得已	-6676
代理店	-6677
加利福	-6678
形态的	-6679
看作是	-6680
通过网络	-6681
加利福尼亚	-6682
KC	-6683
并从	-6684
键盘	-6685
被视为	-6686
也出现了	-6687
是否属于	-6688
电动机的	-6689
进行合作	-6690
olution	-6691
不太	-6692
只需	-6693
心情	-6694
mar	-6695
国家党	-6696
ence	-6697
不参加竞选	-6698
常任委员会	-6699
▁可	-6700
兰托	-6701
后面	-6702
抽签	-6703
提示	-6704
渗透	-6705
ust	-6706
在一个	-6707
期限内	-6708
的家长	-6709
▁专家们	-6710
直接雇佣	-6711
▁Tech	-6712
DP	-6713
后期	-6714
摩擦	-6715
未满	-6716
解散	-6717
进程	-6718
性疾病	-6719
的大邱	-6720
▁这是为了	-6721
公诉	-6722
运作	-6723
青春	-6724
不使用	-6725
但现在	-6726
保护法	-6727
性能的	-6728
总工会	-6729
效率的	-6730
委员长金	-6731
防弹少年团	-6732
食品医药品安全处	-6733
亮度	-6734
和对	-6735
有多	-6736
餐饮	-6737
于去年	-6738
发电机	-6739
变更为	-6740
索兰托	-6741
JTBC	-6742
公司债券	-6743
重点放在	-6744
改装	-6745
救助	-6746
极大	-6747
果断	-6748
竞赛	-6749
请在	-6750
返回	-6751
制作了	-6752
提交的	-6753
被公开	-6754
flix	-6755
以下各项	-6756
劳动组合总联盟	-6757
共存	-6758
布线	-6759
强势	-6760
队的	-6761
工资的	-6762
联合国	-6763
lock	-6764
公司方面	-6765
远程授课	-6766
半导体器件	-6767
youtube	-6768
之类	-6769
帖子	-6770
抗体	-6771
高兴	-6772
公布了	-6773
地方税	-6774
的人事	-6775
的数字	-6776
进行讨论	-6777
非面对面	-6778
8%	-6779
体温	-6780
何时	-6781
力士	-6782
多元	-6783
多彩	-6784
民事	-6785
类别	-6786
DNA	-6787
her	-6788
国土部	-6789
生态界	-6790
系统等	-6791
不确定性	-6792
obile	-6793
先生	-6794
决赛	-6795
始兴	-6796
手动	-6797
收录	-6798
是谁	-6799
标致	-6800
演艺	-6801
焊接	-6802
静电	-6803
力量的	-6804
智能型	-6805
教育支援	-6806
区块链技术	-6807
牧师	-6808
▁想要	-6809
为应对	-6810
会发生	-6811
出色的	-6812
状态下	-6813
的一半	-6814
的嫌疑	-6815
的电力	-6816
控制方法	-6817
委员会的审议	-6818
ys	-6819
▁经	-6820
想起	-6821
意外	-6822
也需要	-6823
内部的	-6824
更高的	-6825
的经验	-6826
正在开发	-6827
现代汽车的	-6828
Instagram	-6829
▁~	-6830
据点	-6831
尽可能	-6832
并计划	-6833
的瞬间	-6834
lass	-6835
尾气排放	-6836
金融市场	-6837
▁现代汽车集团	-6838
在了	-6839
的歌	-6840
财源	-6841
转账	-6842
更名为	-6843
可以实现	-6844
金融集团	-6845
▁文在寅总统	-6846
MW	-6847
▁。	-6848
为此	-6849
化为	-6850
市内	-6851
带头	-6852
引用	-6853
率先	-6854
盈利	-6855
举办的	-6856
以提高	-6857
分公司	-6858
劳恩斯	-6859
在进行	-6860
概念车	-6861
记者会	-6862
机器学习	-6863
FC	-6864
yn	-6865
太平	-6866
带动	-6867
开了	-6868
神秘	-6869
素材	-6870
▁电影	-6871
灾难安全	-6872
的候选人	-6873
做了	-6874
孕妇	-6875
李相	-6876
下来的	-6877
多媒体	-6878
较多的	-6879
GI	-6880
▁和	-6881
书籍	-6882
排出	-6883
沿着	-6884
风波	-6885
也随之	-6886
和社会	-6887
存在的	-6888
提到了	-6889
的背景	-6890
趣味	-6891
130	-6892
350	-6893
的综合	-6894
的讨论	-6895
等所有	-6896
死角地带	-6897
oupang	-6898
奇怪	-6899
推算	-6900
模糊	-6901
自豪	-6902
赠品	-6903
辅佐	-6904
▁大邱	-6905
▁福特	-6906
而导致	-6907
▁根据条例第	-6908
ff	-6909
令第	-6910
前进	-6911
教练	-6912
ory	-6913
因涉嫌	-6914
确定了	-6915
"2020	-6916
新冠肺炎患者	-6917
SQ	-6918
中被	-6919
伊朗	-6920
列入	-6921
塞尔	-6922
烹饪	-6923
补习	-6924
正在积极	-6925
▁2020	-6926
聚集在一起	-6927
▁总	-6928
体上	-6929
党权	-6930
晋升	-6931
锁定	-6932
ise	-6933
会成为	-6934
投票率	-6935
更容易	-6936
解释道	-6937
预告了	-6938
在全世界	-6939
GT	-6940
戴姆	-6941
教科	-6942
欺诈	-6943
阻断	-6944
阿里	-6945
yst	-6946
中长期	-6947
价格的	-6948
年以上	-6949
可以确认	-6950
2,	-6951
价为	-6952
定位	-6953
春天	-6954
正极	-6955
线性	-6956
逮捕	-6957
铜雀	-6958
▁NH	-6959
▁也有	-6960
地表示	-6961
江西区	-6962
的发生	-6963
的平台	-6964
名确诊患者	-6965
不在	-6966
与众	-6967
年款	-6968
der	-6969
lip	-6970
戴姆勒	-6971
所有者	-6972
的比例	-6973
地区经济	-6974
▁两家公司	-6975
史上	-6976
天空	-6977
官员	-6978
收回	-6979
大门区	-6980
放学后	-6981
瑞草区	-6982
的国民	-6983
选议员	-6984
利害关系	-6985
上帝	-6986
用地	-6987
礼拜	-6988
但没有	-6989
数量的	-6990
的人生	-6991
的名义	-6992
▁本条例	-6993
精神健康	-6994
小工商业者	-6995
这一点来看	-6996
冬天	-6997
在职	-6998
拿着	-6999
自立	-7000
转型	-7001
过于	-7002
金某	-7003
及管理	-7004
最高的	-7005
有什么	-7006
的选择	-7007
atch	-7008
施行规则	-7009
汽车业界	-7010
社交媒体	-7011
前任	-7012
思维	-7013
模范	-7014
肿瘤	-7015
预先	-7016
arm	-7017
专注于	-7018
学生和	-7019
干细胞	-7020
添加了	-7021
的结果显示	-7022
北部	-7023
应答	-7024
采纳	-7025
▁这与	-7026
不容易	-7027
的危机	-7028
等多个	-7029
市场营销	-7030
感到非常	-7031
全体会议上	-7032
始终	-7033
姐姐	-7034
录像	-7035
案件的	-7036
的高级	-7037
▁他表示	-7038
容纳	-7039
廉价	-7040
弥补	-7041
抵抗	-7042
推广	-7043
格栅	-7044
栽培	-7045
真心	-7046
蓝牙	-7047
迁移	-7048
持有的	-7049
正在讨论	-7050
联合政党	-7051
不可避免地	-7052
氢燃料电池	-7053
MV	-7054
东京	-7055
的地	-7056
▁然后	-7057
分左右	-7058
批评说	-7059
收到了	-7060
暴露在	-7061
裁判部	-7062
比前一年	-7063
KAKAO	-7064
和起亚汽车	-7065
不顾	-7066
友好	-7067
头发	-7068
存折	-7069
'。"	-7070
▁st	-7071
▁通常	-7072
举办了	-7073
原告的	-7074
调查的	-7075
出现问题	-7076
主演	-7077
据悉	-7078
特色	-7079
过多	-7080
页面	-7081
开发出	-7082
志愿者	-7083
的制作	-7084
2025	-7085
▁Com	-7086
现代起亚汽车	-7087
协力	-7088
费和	-7089
LPG	-7090
▁进入	-7091
上班族	-7092
介绍说	-7093
具有高	-7094
多样化	-7095
如果是	-7096
所在的	-7097
批判道	-7098
李仁荣	-7099
柴油车	-7100
的女性	-7101
电子邮件	-7102
被分类为	-7103
上有	-7104
也以	-7105
会谈	-7106
取决	-7107
增压	-7108
掀起	-7109
的好	-7110
▁所有	-7111
人员的	-7112
第三次	-7113
医疗机关	-7114
得到认可	-7115
追加更正预算	-7116
周六	-7117
数千	-7118
标识	-7119
▁上月	-7120
传统的	-7121
当时的	-7122
损失的	-7123
这就是	-7124
未来资产	-7125
第四季度	-7126
OE	-7127
抵押	-7128
负极	-7129
雷达	-7130
.5%	-7131
▁此时	-7132
取决于	-7133
女性的	-7134
登记的	-7135
ound	-7136
Un	-7137
制成	-7138
小心	-7139
AMG	-7140
个月后	-7141
市中心	-7142
金议员	-7143
▁Y	-7144
忠州	-7145
较少	-7146
▁12	-7147
上升到	-7148
理事会	-7149
管理者	-7150
信用等级	-7151
股份公司	-7152
韩国电影	-7153
科学技术院	-7154
行政安全部	-7155
SI	-7156
sp	-7157
”,	-7158
分科	-7159
增添	-7160
宽度	-7161
接合	-7162
秘诀	-7163
评选	-7164
打电话	-7165
有利于	-7166
有所增加	-7167
死亡人数	-7168
营业场所	-7169
万亿韩元的	-7170
罗院内代表	-7171
新人	-7172
橡胶	-7173
限额	-7174
颁发	-7175
下达了	-7176
优异的	-7177
和日本	-7178
失去了	-7179
最好的	-7180
的心情	-7181
联动型	-7182
还包括	-7183
▁Lab	-7184
委员长的	-7185
▁受	-7186
已故	-7187
洞长	-7188
当选者	-7189
是关于	-7190
民主化	-7191
海力士	-7192
该方法	-7193
此次活动	-7194
下周	-7195
佩戴	-7196
修炼	-7197
泡沫	-7198
称赞	-7199
创造了	-7200
和经济	-7201
Tech	-7202
部门的负责人	-7203
"5	-7204
便于	-7205
潜伏	-7206
电机	-7207
租金	-7208
胜负	-7209
试驾	-7210
▁他在	-7211
▁甚至	-7212
单独的	-7213
名职员	-7214
自然而	-7215
舞台上	-7216
网络漫画	-7217
上面	-7218
也曾	-7219
人为	-7220
储备	-7221
写的	-7222
多辆	-7223
强大	-7224
明天	-7225
永久	-7226
道的	-7227
顺天	-7228
ens	-7229
子女的	-7230
紧张感	-7231
购买了	-7232
▁在国内	-7233
出纳	-7234
平泽	-7235
教徒	-7236
理想	-7237
而闻	-7238
首例	-7239
马力	-7240
1~2	-7241
▁谷歌	-7242
危机的	-7243
可以让	-7244
来进行	-7245
结束的	-7246
迎来了	-7247
RS	-7248
会被	-7249
直流	-7250
随意	-7251
政治家	-7252
下降趋势	-7253
第四次工业革命	-7254
剧中	-7255
家用	-7256
机制	-7257
WHO	-7258
ith	-7259
▁比起	-7260
原来的	-7261
和销售	-7262
民生党	-7263
潜力的	-7264
即使没有	-7265
聚在一起	-7266
国债	-7267
她的	-7268
推翻	-7269
攻占	-7270
洗涤	-7271
也非常	-7272
很重要	-7273
扩散到	-7274
MP	-7275
两大	-7276
含义	-7277
样本	-7278
轻微	-7279
优点是	-7280
大量的	-7281
委托给	-7282
控制器	-7283
泰轮胎	-7284
麦克风	-7285
DRAM	-7286
教育项目	-7287
▁Kakao	-7288
年将	-7289
戴着	-7290
的总	-7291
给观众	-7292
道路上	-7293
安全事故	-7294
的大规模	-7295
▁本发明提供一种	-7296
ik	-7297
▁孙	-7298
单词	-7299
量化	-7300
防卫	-7301
lue	-7302
终端的	-7303
科斯达克	-7304
引起了人们的关注	-7305
7%	-7306
东盟	-7307
住在	-7308
回国	-7309
牵制	-7310
追究	-7311
▁当初	-7312
山医院	-7313
的支持率	-7314
▁ThinQ	-7315
任何人都可以	-7316
98	-7317
VC	-7318
ly	-7319
分担	-7320
无罪	-7321
日以	-7322
眼泪	-7323
编入	-7324
起点	-7325
酒精	-7326
的表情	-7327
韩亚航空	-7328
▁在当天的	-7329
▁雷诺三星汽车	-7330
分店	-7331
姿态	-7332
年为	-7333
投影	-7334
本来	-7335
构想	-7336
配偶	-7337
Gen	-7338
不属于	-7339
也无法	-7340
决定将	-7341
基础的	-7342
相应的	-7343
福祉部	-7344
国民年金	-7345
短时间内	-7346
语音识别	-7347
周三	-7348
邻居	-7349
金前	-7350
及方法	-7351
合同的	-7352
并要求	-7353
开始到	-7354
管理层	-7355
国内企业	-7356
的新一代	-7357
日常生活中	-7358
4•	-7359
PP	-7360
曲线	-7361
最快	-7362
检验	-7363
热的	-7364
策划	-7365
nov	-7366
独有的	-7367
宣传活动	-7368
En	-7369
▁比	-7370
先导	-7371
平息	-7372
很有	-7373
攻势	-7374
数为	-7375
本国	-7376
波长	-7377
硅谷	-7378
融入	-7379
辛苦	-7380
飞跃	-7381
ERS	-7382
Fin	-7383
主持人	-7384
公布的	-7385
内容是	-7386
症患者	-7387
管理法	-7388
预计会	-7389
年级学生	-7390
手机游戏	-7391
顾客提供	-7392
内心	-7393
找出	-7394
铁龙	-7395
和使用	-7396
的共同	-7397
表面上	-7398
雪铁龙	-7399
革新的	-7400
增加趋势	-7401
控制系统	-7402
自然而然	-7403
▁张	-7404
对立	-7405
录制	-7406
忘记	-7407
则可以	-7408
加强了	-7409
申请者	-7410
程度的	-7411
费用的	-7412
这种方式	-7413
Ex	-7414
IG	-7415
LC	-7416
买入	-7417
固有	-7418
工序	-7419
机型	-7420
tra	-7421
设施等	-7422
超声波	-7423
忠清北道	-7424
被诊断为	-7425
备忘	-7426
奖项	-7427
牙齿	-7428
▁这一	-7429
副市长	-7430
备忘录	-7431
的比率	-7432
第一名	-7433
处理装置	-7434
项规定的	-7435
科学技术信息通信	-7436
伦敦	-7437
体力	-7438
健身	-7439
全身	-7440
幸运	-7441
座位	-7442
扭矩	-7443
理所	-7444
行星	-7445
评为	-7446
身边	-7447
量为	-7448
高管	-7449
360	-7450
▁学校	-7451
反映在	-7452
通过对	-7453
不必要的	-7454
(5	-7455
年和	-7456
式的	-7457
拉蒂	-7458
收盘	-7459
本书	-7460
高阳	-7461
努力的	-7462
喜爱的	-7463
条件的	-7464
核电站	-7465
将于明年	-7466
会晤	-7467
妥当	-7468
案的	-7469
组的	-7470
鲜明	-7471
捷恩斯	-7472
温暖的	-7473
讨论会	-7474
说明了	-7475
发生事故	-7476
市场规模	-7477
相当大的	-7478
不想	-7479
但这	-7480
分泌	-7481
剂的	-7482
定的	-7483
展位	-7484
意图	-7485
祝贺	-7486
级的	-7487
赠与	-7488
上表示	-7489
人认为	-7490
公诉外	-7491
冠岳区	-7492
参加者	-7493
月为止	-7494
感染途径	-7495
曹候选人	-7496
6%	-7497
QM	-7498
值的	-7499
填充	-7500
急性	-7501
梁山	-7502
照射	-7503
瑞典	-7504
▁16	-7505
世界的	-7506
价值的	-7507
可根据	-7508
提交到	-7509
而受到	-7510
传感器的	-7511
▁把	-7512
出色	-7513
应由	-7514
文喜	-7515
未知	-7516
欺凌	-7517
统治	-7518
随后	-7519
▁其他	-7520
▁研究	-7521
基础上	-7522
组织的	-7523
议政府	-7524
电子设备	-7525
▁正未来党	-7526
不可避免的	-7527
2》	-7528
土耳	-7529
学科	-7530
拆除	-7531
拯救	-7532
推特	-7533
爱心	-7534
中小型	-7535
和平党	-7536
土耳其	-7537
奥斯卡	-7538
▁正义党	-7539
在上个月	-7540
工业园区	-7541
显示面板	-7542
重要的是	-7543
顺利进行	-7544
也许	-7545
初始	-7546
和大	-7547
祈祷	-7548
不稳定	-7549
为防止	-7550
企业中	-7551
拍摄的	-7552
劳动市场	-7553
加班	-7554
寒冷	-7555
投诉	-7556
放入	-7557
散布	-7558
模具	-7559
转变	-7560
韩日	-7561
高效	-7562
ium	-7563
▁不是	-7564
▁专家	-7565
会产生	-7566
空间的	-7567
系教授	-7568
资金的	-7569
可以享受	-7570
未来汽车	-7571
赛车运动	-7572
▁至	-7573
乐观	-7574
修复	-7575
创始	-7576
年薪	-7577
开工	-7578
本地	-7579
氢能	-7580
浪费	-7581
瑞士	-7582
电荷	-7583
跟踪	-7584
▁今天	-7585
会议室	-7586
成功的	-7587
来实现	-7588
检查中	-7589
▁统合党	-7590
为了预防	-7591
所规定的	-7592
担保贷款	-7593
▁Fold	-7594
▁Talk	-7595
器等	-7596
未经	-7597
滞留	-7598
轻型	-7599
与美国	-7600
委员由	-7601
尽最大	-7602
日召开	-7603
公共部门	-7604
孩子们的	-7605
的必要性	-7606
产业振兴院	-7607
所需的事项	-7608
公平交易委员会	-7609
NO	-7610
tr	-7611
农渔	-7612
减弱	-7613
函数	-7614
富平	-7615
步骤	-7616
管委	-7617
葬礼	-7618
ata	-7619
ire	-7620
会长的	-7621
持股率从	-7622
损害保险	-7623
ph	-7624
前例	-7625
回顾	-7626
大师	-7627
充满了	-7628
就不会	-7629
比其他	-7630
病患者	-7631
银行和	-7632
商业模式	-7633
ystem	-7634
吸附	-7635
害怕	-7636
金钱	-7637
齐心	-7638
OST	-7639
太大的	-7640
9000	-7641
事务总长	-7642
全球市场	-7643
就业岗位	-7644
研究中心	-7645
议员表示	-7646
仓库	-7647
树木	-7648
海水	-7649
滤波	-7650
片的	-7651
西部	-7652
账号	-7653
Car	-7654
▁拥有	-7655
为纪念	-7656
可以说	-7657
安全保健	-7658
持续下去	-7659
世代	-7660
供货	-7661
信贷	-7662
占用	-7663
嘉宾	-7664
天数	-7665
审核	-7666
产业界	-7667
在大邱	-7668
通知书	-7669
麻浦区	-7670
artn	-7671
可以提供	-7672
理所当然	-7673
▁Plus	-7674
分发	-7675
协约	-7676
妥协	-7677
报复	-7678
率和	-7679
病情	-7680
警惕	-7681
越野	-7682
韩文	-7683
复杂的	-7684
文喜相	-7685
经验的	-7686
计划书	-7687
医务人员	-7688
确诊者的	-7689
进行管理	-7690
CB	-7691
也因	-7692
信念	-7693
失误	-7694
平安	-7695
情感	-7696
旗下	-7697
索尼	-7698
罕见	-7699
公司在	-7700
广津区	-7701
氢燃料	-7702
的演技	-7703
科科长	-7704
量身定	-7705
一个月内	-7706
接连不断	-7707
代谢	-7708
漂亮	-7709
熟练	-7710
选任	-7711
农产品	-7712
在一定	-7713
照相机	-7714
耐久性	-7715
让他们	-7716
进行比较	-7717
违法行为	-7718
CI	-7719
SS	-7720
先发	-7721
合金	-7722
据说	-7723
爱好	-7724
肺癌	-7725
车和	-7726
140	-7727
仁川市	-7728
地区内	-7729
扩散的	-7730
活动等	-7731
物质的	-7732
▁前一天	-7733
▁在这里	-7734
建筑物的	-7735
制品	-7736
吐露	-7737
啤酒	-7738
复职	-7739
指纹	-7740
邮政	-7741
金贤	-7742
ail	-7743
会议的	-7744
显示出	-7745
月中旬	-7746
的中心	-7747
出货	-7748
哪些	-7749
圣母	-7750
堆积	-7751
最先	-7752
每人	-7753
疗法	-7754
相邻	-7755
腔体	-7756
至第	-7757
集群	-7758
首个	-7759
句话说	-7760
导致了	-7761
展示场	-7762
引发的	-7763
的优惠	-7764
退休金	-7765
▁沃尔沃	-7766
无薪休假	-7767
没有什么	-7768
非正规职	-7769
从明年开始	-7770
雷诺三星汽车	-7771
出差	-7772
占领	-7773
将该	-7774
山茶	-7775
病原	-7776
笑声	-7777
莱坞	-7778
贝尔	-7779
踏板	-7780
高涨	-7781
关键词	-7782
各地区	-7783
紧凑型	-7784
公职选举法	-7785
看来	-7786
而不	-7787
南医院	-7788
将展开	-7789
就应该	-7790
期间的	-7791
第二个	-7792
费用由	-7793
高血压	-7794
▁通过此次	-7795
广播通信委员会	-7796
偶然	-7797
加深	-7798
回购	-7799
婚礼	-7800
年到	-7801
金泰	-7802
Pro	-7803
唯一的	-7804
在现场	-7805
补习班	-7806
.5%。	-7807
劳动标准	-7808
重症患者	-7809
和谐	-7810
城郡	-7811
奥运	-7812
录音	-7813
清道	-7814
舒服	-7815
行情	-7816
▁of	-7817
创业者	-7818
感染了	-7819
美丽的	-7820
医疗团队	-7821
并进行了	-7822
公推管理委员会	-7823
一条	-7824
三种	-7825
二审	-7826
入侵	-7827
其后	-7828
压迫	-7829
反省	-7830
所知	-7831
民心	-7832
税额	-7833
▁相关	-7834
▁英国	-7835
无前例	-7836
死亡者	-7837
评价道	-7838
还提供	-7839
有关人士	-7840
的原因是	-7841
的目的是	-7842
全州	-7843
就诊	-7844
攻略	-7845
时报	-7846
轴距	-7847
金成	-7848
在接受	-7849
改变了	-7850
解决了	-7851
ongo	-7852
▁梅赛德斯	-7853
所属公务员	-7854
"4	-7855
▁中	-7856
亲朴	-7857
穿戴	-7858
美食	-7859
般的	-7860
负荷	-7861
降至	-7862
25%	-7863
uto	-7864
云服务	-7865
即使不	-7866
太平洋	-7867
对象是	-7868
市政府	-7869
持续的	-7870
运营着	-7871
Tele	-7872
院内代表李仁荣	-7873
▁刘	-7874
优雅	-7875
传唤	-7876
午餐	-7877
反响	-7878
喷射	-7879
图片	-7880
增资	-7881
食用	-7882
可能的	-7883
款车型	-7884
物理学	-7885
轿车的	-7886
史无前例	-7887
万韩元左右	-7888
化石	-7889
化门	-7890
新兴	-7891
痕迹	-7892
的路	-7893
营利	-7894
裁员	-7895
超高	-7896
车内	-7897
饮酒	-7898
默契	-7899
900	-7900
关注的	-7901
决定的	-7902
国税厅	-7903
用于在	-7904
视频中	-7905
从而提高	-7906
可以轻松	-7907
负责人的	-7908
▁本条例旨在	-7909
被确诊为新冠肺炎	-7910
小区	-7911
故乡	-7912
新村	-7913
气的	-7914
的各	-7915
集合	-7916
SQL	-7917
为主要	-7918
代理人	-7919
会增加	-7920
销量为	-7921
IPTV	-7922
做的事情	-7923
参与其中	-7924
▁kakao	-7925
du	-7926
出库	-7927
原创	-7928
场景	-7929
层和	-7930
朴元	-7931
样品	-7932
▁17	-7933
到明年	-7934
就不能	-7935
▁教育监	-7936
下列各项事项	-7937
公立	-7938
周的	-7939
四个	-7940
对待	-7941
对该	-7942
惋惜	-7943
探讨	-7944
无视	-7945
期的	-7946
淘汰	-7947
节日	-7948
2~3	-7949
Pay	-7950
主导的	-7951
今年将	-7952
充电器	-7953
意识到	-7954
所说的	-7955
1200	-7956
为了确保	-7957
但是因为	-7958
将于今年	-7959
角度来看	-7960
两家	-7961
只在	-7962
恩平	-7963
春川	-7964
科目	-7965
耳朵	-7966
att	-7967
净利润	-7968
和安全	-7969
2500	-7970
支援项目	-7971
的第一个	-7972
社会贡献	-7973
发起	-7974
大陆	-7975
界面	-7976
眼镜	-7977
移送	-7978
认同	-7979
成长的	-7980
的运动	-7981
议员李	-7982
4•15	-7983
uber	-7984
制药公司	-7985
的销售额	-7986
Netflix	-7987
FT	-7988
▁申	-7989
书记	-7990
厨师	-7991
复活	-7992
头痛	-7993
宣告	-7994
性等	-7995
执照	-7996
犹豫	-7997
限制的	-7998
学生们的	-7999
得到改善	-8000
▁如上所述	-8001
做出了贡献	-8002
达成了协议	-8003
特别相关人士	-8004
一无	-8005
可变	-8006
巨额	-8007
成像	-8008
柏林	-8009
网页	-8010
160	-8011
ite	-8012
分析了	-8013
在本月	-8014
职员的	-8015
▁教育部	-8016
尽最大努力	-8017
▁Hello	-8018
▁根据本发明的	-8019
aS	-8020
作物	-8021
报名	-8022
拆卸	-8023
方程	-8024
气温	-8025
110	-8026
▁撤销	-8027
企业家	-8028
的事前	-8029
行驶时	-8030
金额的	-8031
制造工艺	-8032
劳动时间	-8033
基本计划	-8034
将于下月	-8035
庆北地区	-8036
齐心协力	-8037
代表李海瓒	-8038
二十	-8039
农户	-8040
排在	-8041
ult	-8042
在医院	-8043
数据分析	-8044
法务部长官曹国	-8045
原定	-8046
后再	-8047
电算	-8048
短路	-8049
ool	-8050
人类的	-8051
抗生素	-8052
卫生组织	-8053
涡轮增压	-8054
疑似患者	-8055
下届	-8056
分组	-8057
周岁	-8058
在校	-8059
振荡	-8060
省略	-8061
警卫	-8062
190	-8063
加入者	-8064
和政府	-8065
怎么样	-8066
找到了	-8067
被隔离	-8068
保守统合	-8069
游戏公司	-8070
聊天工具	-8071
AL	-8072
何种	-8073
吃饭	-8074
媒介	-8075
收藏	-8076
磁场	-8077
证书	-8078
ost	-8079
▁第三	-8080
前长官	-8081
相似的	-8082
选定了	-8083
进行确认	-8084
三星电子的	-8085
外国劳动者	-8086
▁本发明公开了一种	-8087
-1	-8088
ey	-8089
履历	-8090
黑暗	-8091
中没有	-8092
年以来	-8093
文化的	-8094
令人期待	-8095
但实际上	-8096
0%	-8097
主打	-8098
原封	-8099
尼尔	-8100
日与	-8101
朴正	-8102
与现有	-8103
保证金	-8104
发布的	-8105
和中国	-8106
因为是	-8107
应按照	-8108
构成的	-8109
活动和	-8110
设施和	-8111
地方自治	-8112
运营公司	-8113
韩国经济	-8114
▁Galaxy	-8115
▁宋	-8116
值班	-8117
变压	-8118
延世	-8119
很久	-8120
成型	-8121
日后	-8122
杀菌	-8123
目光	-8124
ann	-8125
ans	-8126
不仅仅	-8127
不仅在	-8128
为前提	-8129
办公楼	-8130
和第二	-8131
或部分	-8132
明确的	-8133
毕业生	-8134
电子的	-8135
过半数	-8136
阶段的	-8137
评价认为	-8138
上级	-8139
清扫	-8140
玛莎	-8141
笑容	-8142
解码	-8143
这部	-8144
Air	-8145
▁区长	-8146
体现了	-8147
基金会	-8148
所必需	-8149
曾担任	-8150
有限的	-8151
松坡区	-8152
正在与	-8153
的选举	-8154
较低的	-8155
▁但是在	-8156
也在增加	-8157
有人担心	-8158
社会距离	-8159
因新型冠状病毒	-8160
原始	-8161
岁月	-8162
平坦	-8163
意愿	-8164
成品	-8165
ors	-8166
以确保	-8167
其具有	-8168
多用途	-8169
将利用	-8170
的大众	-8171
预告片	-8172
4.15	-8173
TADA	-8174
able	-8175
MORPG	-8176
双向	-8177
和前	-8178
室的	-8179
散发	-8180
特区	-8181
选票	-8182
鹤圭	-8183
充电站	-8184
KAIST	-8185
83	-8186
下部	-8187
为人	-8188
代案	-8189
去的	-8190
国王	-8191
所示	-8192
符号	-8193
造假	-8194
道民	-8195
都很	-8196
都被	-8197
队长	-8198
Com	-8199
LIN	-8200
lex	-8201
光化门	-8202
无症状	-8203
来防止	-8204
等海外	-8205
项目中	-8206
汽车销售	-8207
确认是否	-8208
Ar	-8209
一一	-8210
之内	-8211
充足	-8212
剥削	-8213
堤川	-8214
宿舍	-8215
抗诉	-8216
读取	-8217
饭店	-8218
在网络	-8219
家庭的	-8220
最适合	-8221
的地位	-8222
而采取	-8223
olog	-8224
平板电脑	-8225
项的规定	-8226
▁中小企业	-8227
94	-8228
me	-8229
▁区	-8230
先后	-8231
日就	-8232
灯的	-8233
的家	-8234
英才	-8235
交易的	-8236
失业者	-8237
掌握了	-8238
的提问	-8239
起来的	-8240
Hz	-8241
力学	-8242
可用	-8243
帐篷	-8244
悬架	-8245
标本	-8246
灵魂	-8247
1%。	-8248
SDS	-8249
先发制	-8250
就无法	-8251
展开的	-8252
差别化	-8253
的性能	-8254
的日本	-8255
简单地	-8256
制造成本	-8257
)》	-8258
On	-8259
、6	-8260
按键	-8261
有益	-8262
瞄准	-8263
被问	-8264
视角	-8265
金大	-8266
只有在	-8267
排放量	-8268
play	-8269
地方政府	-8270
就会出现	-8271
▁现代摩比斯	-8272
▁年	-8273
仅凭	-8274
以在	-8275
低温	-8276
图形	-8277
学费	-8278
那种	-8279
门票	-8280
的现实	-8281
▁李代表	-8282
法制司法	-8283
novation	-8284
▁林	-8285
但因	-8286
侧的	-8287
刷新	-8288
受益	-8289
寺庙	-8290
干脆	-8291
看看	-8292
空中	-8293
马克	-8294
1、2	-8295
▁直到	-8296
充分的	-8297
单方面	-8298
的上诉	-8299
贷款的	-8300
原封不动	-8301
生产效率	-8302
这一事实	-8303
EB	-8304
ky	-8305
ld	-8306
东亚	-8307
回来	-8308
并说	-8309
文本	-8310
还原	-8311
今后的	-8312
信息保护	-8313
公共机构	-8314
一职	-8315
对准	-8316
沉重	-8317
端口	-8318
零食	-8319
IME	-8320
▁CJ	-8321
创始人	-8322
变动性	-8323
江东区	-8324
的主题	-8325
MERS	-8326
oint	-8327
▁权	-8328
某些	-8329
清除	-8330
磁铁	-8331
雾霾	-8332
▁这时	-8333
任期为	-8334
会不会	-8335
城南市	-8336
的广告	-8337
的文化	-8338
被解雇	-8339
玛莎拉蒂	-8340
▁区厅长在	-8341
阴极射线管	-8342
院内代表罗卿瑗	-8343
97	-8344
将扩大	-8345
扩展到	-8346
是指在	-8347
的契机	-8348
表面的	-8349
全罗南道	-8350
正在扩大	-8351
兰特	-8352
升高	-8353
反转	-8354
因子	-8355
职责	-8356
收到的	-8357
的海外	-8358
确诊人数	-8359
oy	-8360
两党	-8361
主流	-8362
人中	-8363
光的	-8364
关怀	-8365
大战	-8366
播音	-8367
歌谣	-8368
解调	-8369
通风	-8370
con	-8371
并开始	-8372
的电源	-8373
1990	-8374
▁得益于	-8375
发动机和	-8376
同时进行	-8377
正在考虑	-8378
az	-8379
是用	-8380
老龄	-8381
视野	-8382
逆转	-8383
,11	-8384
▁特别	-8385
企业等	-8386
1999	-8387
form	-8388
road	-8389
▁釜山市	-8390
强有力的	-8391
武汉肺炎	-8392
远程医疗	-8393
为对象进行的	-8394
RF	-8395
业的	-8396
感想	-8397
混凝	-8398
gle	-8399
但最终	-8400
婴幼儿	-8401
安全地	-8402
的一家	-8403
▁在美国	-8404
中东呼吸	-8405
促销活动	-8406
日在国会	-8407
标准利率	-8408
移动设备	-8409
▁若	-8410
减肥	-8411
前来	-8412
周四	-8413
租车	-8414
首歌	-8415
交换机	-8416
和相关	-8417
将更加	-8418
条件下	-8419
的车型	-8420
移动的	-8421
被认为	-8422
造成了	-8423
免费提供	-8424
大规模的	-8425
一角	-8426
三次	-8427
亲切	-8428
厚的	-8429
庆州	-8430
的郑	-8431
ach	-8432
our	-8433
发生在	-8434
电极的	-8435
的意向	-8436
的批准	-8437
治疗中心	-8438
环保汽车	-8439
▁换句话说	-8440
PM	-8441
▁文	-8442
中途	-8443
信道	-8444
千禧	-8445
节奏	-8446
落实	-8447
之后的	-8448
将积极	-8449
的分析	-8450
保健医疗	-8451
同期相比	-8452
原封不动地	-8453
半导体器件的	-8454
ov	-8455
两名	-8456
乌兹	-8457
仲裁	-8458
加害	-8459
圣诞	-8460
纳入	-8461
过分	-8462
ade	-8463
▁基于	-8464
大小的	-8465
电磁波	-8466
参加竞选	-8467
解除隔离	-8468
韩国政府	-8469
indow	-8470
▁区厅长为了	-8471
ps	-8472
办理	-8473
周内	-8474
多重	-8475
并发	-8476
手册	-8477
揭露	-8478
港口	-8479
儿童的	-8480
国产化	-8481
投入到	-8482
辆汽车	-8483
韩国语	-8484
核心技术	-8485
的代表性	-8486
通用大宇	-8487
采访时表示	-8488
Tr	-8489
创党	-8490
收看	-8491
肝炎	-8492
虐待	-8493
追悼	-8494
防护	-8495
于上月	-8496
加强对	-8497
单元的	-8498
层面的	-8499
检查和	-8500
看不到	-8501
诉讼中	-8502
重要性	-8503
Play	-8504
公开招募	-8505
基本工资	-8506
自动驾驶汽车	-8507
BI	-8508
人与	-8509
民众	-8510
网的	-8511
途胜	-8512
门诊	-8513
0.0	-8514
ada	-8515
乌兹别	-8516
投入了	-8517
计划从	-8518
阿拉伯	-8519
▁New	-8520
共同开发	-8521
经济社会	-8522
而引起的	-8523
Super	-8524
HA	-8525
万次	-8526
审理	-8527
指向	-8528
车主	-8529
在所有	-8530
打印机	-8531
的身份	-8532
积累的	-8533
.5%,	-8534
将于本月	-8535
汽车行业	-8536
韩国演歌	-8537
为对象进行了	-8538
届议会选举中	-8539
主教	-8540
传出	-8541
南美	-8542
古典	-8543
商谈	-8544
宣判	-8545
急速	-8546
收纳	-8547
白天	-8548
ier	-8549
检测出	-8550
法人的	-8551
的上市	-8552
的平均	-8553
等全球	-8554
装置和	-8555
协同组合	-8556
最重要的	-8557
有所减少	-8558
竞争对手	-8559
不够	-8560
买得	-8561
加大	-8562
多层	-8563
急需	-8564
歪曲	-8565
生动	-8566
缅甸	-8567
麻烦	-8568
iss	-8569
了一个	-8570
副总裁	-8571
处分的	-8572
年首次	-8573
第三方	-8574
认证的	-8575
受到关注	-8576
金委员长	-8577
产业通商资源部	-8578
EA	-8579
云台	-8580
停留	-8581
基尼	-8582
尚属	-8583
年至	-8584
永远	-8585
胜诉	-8586
蔬菜	-8587
转播	-8588
迹象	-8589
医疗费	-8590
发现的	-8591
点左右	-8592
经营的	-8593
负担金	-8594
信用保证	-8595
在家办公	-8596
在韩国国内	-8597
出动	-8598
出血	-8599
尹锡	-8600
最少	-8601
深的	-8602
足以	-8603
运算	-8604
▁奔驰	-8605
名以上	-8606
宗旨是	-8607
希望的	-8608
研究的	-8609
进行支援	-8610
先行	-8611
号房	-8612
各位	-8613
律宾	-8614
情侣	-8615
搬迁	-8616
累积	-8617
较小	-8618
阅览	-8619
3%。	-8620
下列各	-8621
功能和	-8622
区域的	-8623
是没有	-8624
点开始	-8625
的批评	-8626
菲律宾	-8627
驻韩美	-8628
与现有的	-8629
晶体管的	-8630
▁一般来说	-8631
折叠式手机	-8632
偏好	-8633
太多	-8634
投机	-8635
滑动	-8636
独家	-8637
脉冲	-8638
见到	-8639
说话	-8640
路由	-8641
酷暑	-8642
New	-8643
▁经过	-8644
中进行	-8645
易买得	-8646
来到了	-8647
紫外线	-8648
被用作	-8649
引起争议	-8650
网上购物	-8651
资产运用	-8652
驻韩美军	-8653
96	-8654
CS	-8655
但对	-8656
号线	-8657
失望	-8658
过来	-8659
问候	-8660
2%。	-8661
政党的	-8662
混凝土	-8663
非公开	-8664
面临着	-8665
合作企业	-8666
在当天的	-8667
日开始到	-8668
电子产品	-8669
XM	-8670
▁某	-8671
优步	-8672
医师	-8673
合计	-8674
坚固	-8675
它的	-8676
将有	-8677
日前	-8678
杉矶	-8679
李东	-8680
15%	-8681
为主的	-8682
好莱坞	-8683
情况的	-8684
播音员	-8685
洛杉矶	-8686
住院治疗	-8687
信息系统	-8688
其中包括	-8689
扣押搜查	-8690
中心负责人	-8691
可再生能源	-8692
地方检察厅	-8693
社交网络服务	-8694
▁小	-8695
不了	-8696
其实	-8697
多么	-8698
定员	-8699
招标	-8700
残留	-8701
ONE	-8702
eep	-8703
基本上	-8704
孙鹤圭	-8705
孩子的	-8706
工人们	-8707
▁被称为	-8708
是指根据	-8709
生活方式	-8710
虽然没有	-8711
从去年开始	-8712
从一	-8713
协作	-8714
发育	-8715
君爵	-8716
影片	-8717
按摩	-8718
柔性	-8719
街道	-8720
准确的	-8721
尤其是	-8722
在自己的	-8723
学校生活	-8724
也可以通过	-8725
技术的发展	-8726
II	-8727
养育	-8728
前方	-8729
和解	-8730
月至	-8731
有功	-8732
矫正	-8733
西方	-8734
AWS	-8735
Nex	-8736
上下班	-8737
与中国	-8738
取消了	-8739
更详细	-8740
得到了认可	-8741
▁Network	-8742
偶尔	-8743
兼职	-8744
夫人	-8745
首脑	-8746
mer	-8747
▁本田	-8748
▁网络	-8749
感性的	-8750
最近的	-8751
的担忧	-8752
为了减少	-8753
住院患者	-8754
生命科学	-8755
了以	-8756
净水	-8757
年第	-8758
录用	-8759
教员	-8760
pop	-8761
und	-8762
上进行	-8763
固有的	-8764
特别法	-8765
的舞台	-8766
即将到来	-8767
尚属首次	-8768
▁提供了一种	-8769
体检	-8770
兰多	-8771
年均	-8772
有偿	-8773
超出	-8774
路口	-8775
震惊	-8776
20~	-8777
▁需要	-8778
下属的	-8779
不存在	-8780
和教育	-8781
和网络	-8782
展现出	-8783
工作室	-8784
获奖者	-8785
为了解决	-8786
到处	-8787
平民	-8788
流失	-8789
谈论	-8790
预示	-8791
不符合	-8792
党权派	-8793
创造出	-8794
同一天	-8795
完成度	-8796
已经在	-8797
改特委	-8798
的事务	-8799
的场所	-8800
的损失	-8801
ross	-8802
女子组合	-8803
尖端技术	-8804
被认定为	-8805
与众不同的	-8806
ongoDB	-8807
周一	-8808
悲伤	-8809
bit	-8810
一年的	-8811
传开后	-8812
电影院	-8813
经纪人	-8814
著作权	-8815
评价称	-8816
调查处	-8817
公开招聘	-8818
被解释为	-8819
多种多样的	-8820
Wh	-8821
信仰	-8822
新罗	-8823
浏览	-8824
玩家	-8825
,12	-8826
▁具有	-8827
只剩下	-8828
在其他	-8829
大容量	-8830
资产的	-8831
三分之一	-8832
去年年末	-8833
进一步提高	-8834
便捷	-8835
利亚	-8836
天前	-8837
连日	-8838
ICE	-8839
▁参与	-8840
共和党	-8841
刚开始	-8842
可以使	-8843
海云台	-8844
传统市场	-8845
市场调查	-8846
引人注目	-8847
所有人都	-8848
最大程度	-8849
综合医院	-8850
教育支援厅	-8851
marble	-8852
BO	-8853
PB	-8854
▁能	-8855
人性	-8856
汉阳	-8857
玩具	-8858
群山	-8859
过热	-8860
退款	-8861
ISA	-8862
▁光州	-8863
再利用	-8864
将增加	-8865
想不到	-8866
课题是	-8867
值得关注	-8868
子公司的	-8869
详细内容	-8870
XX	-8871
不多	-8872
临近	-8873
内饰	-8874
台风	-8875
粉末	-8876
耶稣	-8877
郁症	-8878
部队	-8879
金东	-8880
▁朝野	-8881
企业主	-8882
在汽车	-8883
投票所	-8884
明显的	-8885
购买者	-8886
因此没有	-8887
圣母医院	-8888
文化体育	-8889
的状态下	-8890
釜山地区	-8891
韩亚银行	-8892
从而提高了	-8893
乌兹别克斯坦	-8894
3,	-8895
▁正	-8896
外包	-8897
我是	-8898
方形	-8899
人以上	-8900
包含在	-8901
工会议	-8902
年左右	-8903
得到的	-8904
想要的	-8905
正在对	-8906
移动到	-8907
向区厅长	-8908
团体协议	-8909
股价指数	-8910
可能会出现	-8911
低的	-8912
办法	-8913
延伸	-8914
截然	-8915
职权	-8916
访客	-8917
面部	-8918
下降的	-8919
团体等	-8920
方法及	-8921
洗衣机	-8922
的现场	-8923
购买的	-8924
rive	-8925
▁雇佣部	-8926
中坚企业	-8927
产业领域	-8928
亿韩元和	-8929
相关企业	-8930
号确诊患者	-8931
MMORPG	-8932
新型冠状病毒的	-8933
保全	-8934
公有	-8935
每当	-8936
珍岛	-8937
ler	-8938
oul	-8939
▁我想	-8940
▁有关	-8941
对被告	-8942
开放型	-8943
法人税	-8944
very	-8945
协会会长	-8946
显示器的	-8947
本公司的	-8948
相关机构	-8949
共同市民党	-8950
混合动力汽车	-8951
阴极射线管的	-8952
一线	-8953
动脉	-8954
反馈	-8955
商人	-8956
国乐	-8957
早晨	-8958
月和	-8959
游乐	-8960
隐瞒	-8961
ock	-8962
个地区	-8963
临时工	-8964
局局长	-8965
强化了	-8966
总会上	-8967
个国家的	-8968
至今为止	-8969
世均	-8970
唱歌	-8971
奉俊	-8972
客人	-8973
强迫	-8974
木浦	-8975
流逝	-8976
涂层	-8977
演绎	-8978
煤炭	-8979
ase	-8980
▁针对	-8981
▁韩亚	-8982
一定的	-8983
修改案	-8984
和支援	-8985
排名第	-8986
新设了	-8987
的不便	-8988
的话题	-8989
委员组成	-8990
推荐一下	-8991
非法行为	-8992
▁他解释说	-8993
谅解备忘录	-8994
但却	-8995
倍的	-8996
喜好	-8997
已有	-8998
流传	-8999
直径	-9000
磨损	-9001
身穿	-9002
车载	-9003
国防部	-9004
整体上	-9005
是国内	-9006
的判决	-9007
第二季	-9008
进出口	-9009
选举的	-9010
选择的	-9011
退休年龄	-9012
▁为了防止	-9013
劳动标准法	-9014
三维	-9015
医药	-9016
和以	-9017
和非	-9018
商圈	-9019
在哲	-9020
尼迪	-9021
旅客	-9022
时钟	-9023
迄今	-9024
lob	-9025
uri	-9026
▁智能	-9027
上市后	-9028
业界的	-9029
中获得	-9030
为了使	-9031
主导权	-9032
城东区	-9033
实施例	-9034
最后的	-9035
期限为	-9036
第三代	-9037
1997	-9038
集成电路	-9039
Grand	-9040
比例代表制	-9041
自动变速器	-9042
▁本发明涉及在	-9043
▁吴	-9044
取代	-9045
号的	-9046
患上	-9047
格兰	-9048
违背	-9049
阻挡	-9050
▁一个	-9051
中包含	-9052
制作组	-9053
增添了	-9054
放射线	-9055
的人数	-9056
董事会	-9057
orld	-9058
价格上涨	-9059
商工会议	-9060
操作系统	-9061
方面解释说	-9062
igital	-9063
或在	-9064
拘捕	-9065
额的	-9066
合适的	-9067
国内的	-9068
将举行	-9069
QLED	-9070
有限公司	-9071
▁防疫当局	-9072
▁本发明涉及用于	-9073
Tw	-9074
判处	-9075
某说	-9076
自救	-9077
议政	-9078
里程	-9079
保险的	-9080
健康和	-9081
发生后	-9082
所以在	-9083
是可以	-9084
设备中	-9085
超高速	-9086
遥控器	-9087
急剧增加	-9088
感受到了	-9089
成为现实	-9090
投资组合	-9091
课后学校	-9092
Smart	-9093
中小风险企业部	-9094
UR	-9095
不分	-9096
住房	-9097
公众	-9098
加斯	-9099
善良	-9100
政局	-9101
课税	-9102
越是	-9103
▁负责	-9104
并使用	-9105
的人士	-9106
的出现	-9107
的孩子	-9108
而且在	-9109
警察署	-9110
采取措施	-9111
下滑	-9112
单曲	-9113
复原	-9114
水果	-9115
独居	-9116
看似	-9117
紧随	-9118
蒸汽	-9119
队伍	-9120
amp	-9121
▁An	-9122
▁大众	-9123
同意书	-9124
启动了	-9125
的一种	-9126
的连接	-9127
看到了	-9128
,198	-9129
一起进行	-9130
有线电视	-9131
血管疾病	-9132
oogle	-9133
产生了影响	-9134
民主党议员	-9135
9%	-9136
兼容	-9137
婚姻	-9138
实态	-9139
带薪	-9140
无数	-9141
法则	-9142
种子	-9143
EBS	-9144
POS	-9145
▁本次	-9146
▁活动	-9147
及其他	-9148
各领域	-9149
的对策	-9150
1980	-9151
是否可以	-9152
民主党的	-9153
相结合的	-9154
解决问题	-9155
AV	-9156
ux	-9157
名牌	-9158
妇女	-9159
小幅	-9160
强国	-9161
细致	-9162
色列	-9163
轮毂	-9164
▁每年	-9165
和移动	-9166
和被告	-9167
多文化	-9168
完成的	-9169
居住地	-9170
的报道	-9171
第一天	-9172
oupe	-9173
也可以在	-9174
候选人在	-9175
民主党和	-9176
TM	-9177
ae	-9178
东部	-9179
偏见	-9180
入场	-9181
分会	-9182
南区	-9183
在大	-9184
如今	-9185
更有	-9186
氮化	-9187
浮出	-9188
犹太	-9189
狭窄	-9190
4%。	-9191
▁30	-9192
中首次	-9193
人死亡	-9194
伊兰特	-9195
其能够	-9196
在明年	-9197
的节目	-9198
还决定	-9199
▁Mot	-9200
出现症状	-9201
多少有些	-9202
研究机构	-9203
管理条例	-9204
indows	-9205
92	-9206
上台	-9207
学位	-9208
学历	-9209
标示	-9210
精力	-9211
警戒	-9212
转为	-9213
还与	-9214
还为	-9215
▁国家	-9216
▁要想	-9217
基板上	-9218
担任了	-9219
期待感	-9220
▁执政党	-9221
▁据推测	-9222
很长时间	-9223
持续进行	-9224
世界上首次	-9225
争夺	-9226
在对	-9227
微波	-9228
规律	-9229
GPS	-9230
HEV	-9231
▁法院	-9232
和经验	-9233
第五代	-9234
计划与	-9235
领导人	-9236
▁金议员	-9237
志愿服务	-9238
新闻发布	-9239
热门话题	-9240
舆论调查	-9241
是不可避免的	-9242
前夕	-9243
愿望	-9244
每日	-9245
水中	-9246
漏洞	-9247
电梯	-9248
的风	-9249
纳德	-9250
肾脏	-9251
诚实	-9252
▁按照	-9253
▁用户	-9254
的图像	-9255
等企业	-9256
结合了	-9257
1998	-9258
Lime	-9259
国际标准	-9260
海外旅行	-9261
HE	-9262
SF	-9263
价比	-9264
但与	-9265
功耗	-9266
场合	-9267
期货	-9268
电子烟	-9269
的一切	-9270
的交易	-9271
的扩大	-9272
的程序	-9273
新保守党	-9274
行驶性能	-9275
被任命为	-9276
辅助系统	-9277
首尔大学医院	-9278
Telegram	-9279
公募	-9280
对称	-9281
往返	-9282
朴成	-9283
直属	-9284
缺席	-9285
道峰	-9286
屏幕上	-9287
日以后	-9288
的后续	-9289
而无法	-9290
蔚山市	-9291
选定的	-9292
速度的	-9293
因此具有	-9294
忠清南道	-9295
韩国通用	-9296
▁提供一种	-9297
引发了争议	-9298
不觉	-9299
专科	-9300
件事	-9301
兰克	-9302
其在	-9303
出去	-9304
大多	-9305
头部	-9306
度假	-9307
竞技	-9308
金泉	-9309
陌生	-9310
上传到	-9311
中断了	-9312
协议案	-9313
发电站	-9314
的一般	-9315
解释称	-9316
本身就是	-9317
民主劳动组合总联盟	-9318
NE	-9319
一款	-9320
中以	-9321
供电	-9322
凭证	-9323
创伤	-9324
底部	-9325
才会	-9326
系数	-9327
繁荣	-9328
腐蚀	-9329
袭击	-9330
香烟	-9331
公里的	-9332
支持者	-9333
时可以	-9334
认证书	-9335
采访时	-9336
预想的	-9337
也增加了	-9338
小商工人	-9339
紧急情况	-9340
金融商品	-9341
商工会议所	-9342
三家	-9343
写道	-9344
学者	-9345
收支	-9346
文明	-9347
李明	-9348
法理	-9349
绩效	-9350
编程	-9351
荷兰	-9352
3.0	-9353
aaS	-9354
副议长	-9355
医院和	-9356
在同一	-9357
幸福的	-9358
推进了	-9359
提议的	-9360
时间里	-9361
独特的	-9362
近距离	-9363
龙山区	-9364
健康检查	-9365
联系起来	-9366
虚拟货币	-9367
委员会委员长	-9368
之家	-9369
光刻	-9370
小额	-9371
并行	-9372
收发	-9373
派系	-9374
破损	-9375
胸部	-9376
被害	-9377
记住	-9378
音译	-9379
ect	-9380
丁世均	-9381
但最近	-9382
小型车	-9383
接收器	-9384
环境和	-9385
line	-9386
▁如果是	-9387
可以解释为	-9388
▁在此过程中	-9389
▁雇佣劳动部	-9390
MongoDB	-9391
灾难安全对策本部	-9392
Hy	-9393
bo	-9394
右侧	-9395
在这	-9396
抚养	-9397
过渡	-9398
ton	-9399
▁大韩	-9400
▁奥迪	-9401
▁申请	-9402
专利厅	-9403
为了将	-9404
代表金	-9405
倾向于	-9406
模式的	-9407
计划于	-9408
轿跑车	-9409
iaDB	-9410
在过去的	-9411
正在迅速	-9412
最大规模的	-9413
▁有分析认为	-9414
Mobility	-9415
一对	-9416
之风	-9417
南原	-9418
沈相	-9419
火车	-9420
独角	-9421
真诚	-9422
解放	-9423
1%,	-9424
▁13	-9425
▁看到	-9426
为背景	-9427
周围的	-9428
将分别	-9429
形成在	-9430
的努力	-9431
的土地	-9432
突出的	-9433
结核病	-9434
产业发展	-9435
初创公司	-9436
本发明的	-9437
经济萧条	-9438
韩国企业	-9439
▁韩国银行	-9440
可能是因为	-9441
空气净化器	-9442
尤其涉及一种	-9443
亚于	-9444
只会	-9445
定律	-9446
巡回	-9447
江西	-9448
薄弱	-9449
邮局	-9450
One	-9451
一无二	-9452
和时间	-9453
在德国	-9454
新世界	-9455
沈在哲	-9456
的品牌	-9457
程序的	-9458
自己是	-9459
被评为	-9460
阳川区	-9461
一直保持	-9462
媒体报道	-9463
市价总额	-9464
独一无二	-9465
的情况是	-9466
迄今为止	-9467
之情	-9468
会社	-9469
侨民	-9470
冒险	-9471
化等	-9472
将来	-9473
株式	-9474
登陆	-9475
跟着	-9476
高频	-9477
感觉到	-9478
成年人	-9479
找不到	-9480
活力的	-9481
的信号	-9482
的增长	-9483
主管部门	-9484
当天表示	-9485
残疾人的	-9486
永登浦区	-9487
浦项制铁	-9488
物流中心	-9489
用户提供	-9490
上部	-9491
和在	-9492
时效	-9493
疲惫	-9494
遗漏	-9495
题材	-9496
1.6	-9497
动画片	-9498
及相关	-9499
国会的	-9500
就没有	-9501
疗养院	-9502
石墨烯	-9503
过程的	-9504
仍然存在	-9505
年以上的	-9506
强烈反对	-9507
上述内容的	-9508
为在	-9509
再审	-9510
历代	-9511
托斯	-9512
替换	-9513
身心	-9514
两个月	-9515
位置的	-9516
司机的	-9517
将正式	-9518
收费站	-9519
知道了	-9520
医疗服务	-9521
观测认为	-9522
这个问题	-9523
逐渐增加	-9524
韩国党的	-9525
GO	-9526
上一	-9527
乐团	-9528
人是	-9529
光源	-9530
典型	-9531
巴巴	-9532
施压	-9533
直线	-9534
眼球	-9535
附上	-9536
)",	-9537
ini	-9538
ree	-9539
▁至此	-9540
不应该	-9541
中选择	-9542
发挥了	-9543
和接收	-9544
小时制	-9545
的儿子	-9546
资本市场	-9547
▁Bank	-9548
XC	-9549
低下	-9550
助威	-9551
单价	-9552
告示	-9553
处长	-9554
宝贵	-9555
暂停	-9556
李某	-9557
辅导	-9558
IBM	-9559
▁14	-9560
不景气	-9561
也开始	-9562
合同工	-9563
所在地	-9564
曾表示	-9565
等方式	-9566
该系统	-9567
这不是	-9568
大南医院	-9569
调查对象	-9570
进行投资	-9571
通信设备	-9572
BL	-9573
▁柳	-9574
兰博	-9575
用水	-9576
API	-9577
养老金	-9578
利用率	-9579
医学科	-9580
奉俊昊	-9581
有没有	-9582
未知数	-9583
的风险	-9584
的驾驶	-9585
等领域	-9586
运动的	-9587
2023	-9588
▁Con	-9589
PO	-9590
▁白	-9591
亲和	-9592
众所	-9593
安卓	-9594
室外	-9595
既然	-9596
是个	-9597
有不	-9598
结尾	-9599
近期	-9600
信息等	-9601
和各种	-9602
奠定了	-9603
如果将	-9604
登上了	-9605
阶层的	-9606
为了保护	-9607
劳动合同	-9608
Se	-9609
亲信	-9610
兵役	-9611
其它	-9612
搞笑	-9613
沙特	-9614
米的	-9615
金在	-9616
雕刻	-9617
黄色	-9618
VIP	-9619
劳动部	-9620
应用到	-9621
搜索词	-9622
的经营	-9623
的说法	-9624
要进行	-9625
遇到了	-9626
企业银行	-9627
延世大学	-9628
株式会社	-9629
正在展开	-9630
的时间里	-9631
三星电子和	-9632
by	-9633
上也	-9634
作战	-9635
吻合	-9636
周知	-9637
席位	-9638
应以	-9639
很小	-9640
昂贵	-9641
的低	-9642
相连	-9643
粗话	-9644
耦合	-9645
脱口	-9646
万像素	-9647
创新的	-9648
和利用	-9649
效率和	-9650
的公共	-9651
ibra	-9652
因此不能	-9653
的学生们	-9654
行政机关	-9655
81	-9656
BA	-9657
专属	-9658
东方	-9659
喜悦	-9660
地形	-9661
实效	-9662
幕后	-9663
接入	-9664
断路	-9665
朴智	-9666
校内	-9667
磁性	-9668
缓期	-9669
考察	-9670
陆军	-9671
降息	-9672
食谱	-9673
VID	-9674
▁庆北	-9675
得票率	-9676
时期的	-9677
的因素	-9678
的成功	-9679
的权利	-9680
知名度	-9681
确定为	-9682
▁大邱市	-9683
个人卫生	-9684
在京畿道	-9685
希望通过	-9686
电容器的	-9687
的期待感	-9688
进口汽车	-9689
▁通用汽车	-9690
万韩元以上	-9691
以此为基础	-9692
而陷入困境	-9693
,。	-9694
兴奋	-9695
子里	-9696
收缩	-9697
显得	-9698
武装	-9699
瑕疵	-9700
直营	-9701
结晶	-9702
高通	-9703
关节炎	-9704
到来的	-9705
地使用	-9706
并发症	-9707
的特定	-9708
等部分	-9709
身体的	-9710
可以同时	-9711
金融控股	-9712
的特征在于	-9713
中央防疫对策本部	-9714
KI	-9715
Li	-9716
中等	-9717
准杓	-9718
威尔	-9719
时速	-9720
显着	-9721
灰尘	-9722
的该	-9723
膝盖	-9724
越过	-9725
man	-9726
▁一些	-9727
▁期待	-9728
从而使	-9729
变速箱	-9730
在当地	-9731
将减少	-9732
有症状	-9733
由包括	-9734
而且还	-9735
行驶的	-9736
粉丝们的	-9737
中东呼吸综合征	-9738
业内	-9739
休业	-9740
出不	-9741
唐津	-9742
报勋	-9743
时装	-9744
有用	-9745
的爱	-9746
看不	-9747
笔者	-9748
行性	-9749
调谐	-9750
赛季	-9751
赛道	-9752
限量	-9753
饱和	-9754
▁日产	-9755
▁韩华	-9756
以前的	-9757
半年的	-9758
奥运会	-9759
委任职	-9760
的协议	-9761
的眼神	-9762
诊疗费	-9763
说明道	-9764
▁他还说	-9765
▁消费者	-9766
人才培养	-9767
仔细观察	-9768
并不容易	-9769
是否存在	-9770
世界最大的	-9771
▁Games	-9772
运动型多用途	-9773
LP	-9774
保罗	-9775
十二	-9776
和顺	-9777
女士	-9778
干涉	-9779
月到	-9780
熟知	-9781
珍贵	-9782
用车	-9783
经典	-9784
老化	-9785
ARS	-9786
Con	-9787
enc	-9788
上限制	-9789
手术后	-9790
服务业	-9791
每小时	-9792
的食物	-9793
▁Car	-9794
的目标是	-9795
现代重工业	-9796
▁水	-9797
介质	-9798
大肠	-9799
安山	-9800
建成	-9801
盛顿	-9802
看法	-9803
第六	-9804
规范	-9805
量和	-9806
附带	-9807
▁医院	-9808
▁德国	-9809
加速器	-9810
城市的	-9811
消失了	-9812
现在是	-9813
组成了	-9814
▁同时还	-9815
事业本部	-9816
众所周知	-9817
移动出行	-9818
届国会议员	-9819
进一步扩大	-9820
NK	-9821
慢慢	-9822
有一	-9823
殖民	-9824
注重	-9825
脊椎	-9826
这项	-9827
都将	-9828
IPO	-9829
eng	-9830
中包括	-9831
价证券	-9832
华盛顿	-9833
因此要	-9834
团体的	-9835
将推进	-9836
拉斯维	-9837
支援了	-9838
由韩国	-9839
的争议	-9840
的手机	-9841
的认识	-9842
自治区	-9843
过度的	-9844
选择性	-9845
通信网	-9846
需要的	-9847
的大数据	-9848
相关部门	-9849
而导致的	-9850
▁在此期间	-9851
小时工作制	-9852
▁Store	-9853
NM	-9854
▁多	-9855
刘在	-9856
太空	-9857
字符	-9858
孤独	-9859
情景	-9860
深夜	-9861
等对	-9862
能在	-9863
药剂	-9864
重返	-9865
仪表盘	-9866
利用了	-9867
在当天	-9868
将介绍	-9869
当地人	-9870
独角兽	-9871
研究中	-9872
积极地	-9873
等活动	-9874
为了克服	-9875
从而可以	-9876
大型超市	-9877
战略公推	-9878
,2018	-9879
▁河	-9880
之地	-9881
交谈	-9882
可视	-9883
折磨	-9884
炸鸡	-9885
疏忽	-9886
看点	-9887
窗户	-9888
靠近	-9889
食材	-9890
名学生	-9891
在家里	-9892
恶化的	-9893
死亡率	-9894
的案例	-9895
诞生的	-9896
运行的	-9897
防止了	-9898
兰博基尼	-9899
急剧减少	-9900
没有得到	-9901
▁检察机关	-9902
▁区厅长可以	-9903
互助	-9904
变暖	-9905
子上	-9906
就连	-9907
弹簧	-9908
推移	-9909
梗塞	-9910
盖乐	-9911
金海	-9912
PCB	-9913
下一个	-9914
休息日	-9915
准确度	-9916
是如何	-9917
经验和	-9918
▁在首尔	-9919
对此表示	-9920
浮出水面	-9921
拉斯维加斯	-9922
以使	-9923
公章	-9924
前辈	-9925
原判	-9926
招商	-9927
旋律	-9928
景观	-9929
某个	-9930
菩萨	-9931
选为	-9932
遭遇	-9933
隧道	-9934
170	-9935
▁Pl	-9936
▁不管	-9937
内容和	-9938
家人的	-9939
年级的	-9940
形式的	-9941
活跃的	-9942
脱口秀	-9943
被感染	-9944
临时国会	-9945
开发公司	-9946
有潜力的	-9947
从今年开始	-9948
发生了变化	-9949
起亚汽车的	-9950
SE	-9951
▁光	-9952
心里	-9953
招牌	-9954
拿到	-9955
球场	-9956
站式	-9957
血糖	-9958
说道	-9959
重力	-9960
仅通过	-9961
和发展	-9962
多样性	-9963
开发院	-9964
的内部	-9965
的电极	-9966
的职员	-9967
盖乐世	-9968
离开了	-9969
预测说	-9970
尽量减少	-9971
岁以上的	-9972
进行处理	-9973
今年下半年	-9974
VD	-9975
一片	-9976
乘务	-9977
居昌	-9978
强力	-9979
整形	-9980
杆菌	-9981
漫游	-9982
火箭	-9983
爆笑	-9984
路上	-9985
酒后	-9986
问道	-9987
▁15	-9988
个项目	-9989
体系的	-9990
技术等	-9991
根本上	-9992
点击率	-9993
甲选区	-9994
的忧虑	-9995
为了扩大	-9996
使用许可	-9997
市民社会	-9998
最大股东	-9999
5~	-10000
Be	-10001
GE	-10002
卖空	-10003
否决	-10004
教材	-10005
行李	-10006
课外	-10007
透镜	-10008
阳极	-10009
除名	-10010
咖啡厅	-10011
增长的	-10012
如果想	-10013
并获得	-10014
沈相奵	-10015
的处理	-10016
给予了	-10017
颗粒物	-10018
驾驶座	-10019
丰富多彩	-10020
的电视剧	-10021
雇佣保险	-10022
▁本发明提供	-10023
▁想	-10024
不大	-10025
保修	-10026
寒假	-10027
差池	-10028
手指	-10029
柔和	-10030
满了	-10031
秋季	-10032
预想	-10033
240	-10034
3%,	-10035
▁26	-10036
仪式上	-10037
优秀奖	-10038
关注和	-10039
和治疗	-10040
性价比	-10041
政权的	-10042
虽然在	-10043
议员等	-10044
针对性	-10045
OECD	-10046
▁这样的	-10047
正在努力	-10048
迫切需要	-10049
半导体制造	-10050
民主和平党	-10051
国会议长文喜相	-10052
做得	-10053
变革	-10054
周二	-10055
回生	-10056
处置	-10057
女人	-10058
异物	-10059
朝着	-10060
礼仪	-10061
禁烟	-10062
贫困	-10063
进而	-10064
也能够	-10065
到现在	-10066
在整个	-10067
定制型	-10068
平台上	-10069
感到很	-10070
本人的	-10071
第二代	-10072
Star	-10073
soft	-10074
▁也有人	-10075
▁现有的	-10076
中获得了	-10077
学校教育	-10078
实质性的	-10079
数据传输	-10080
正在运营	-10081
首次亮相	-10082
lobal	-10083
-2	-10084
单个	-10085
变大	-10086
可疑	-10087
售后	-10088
夜店	-10089
实名	-10090
开心	-10091
既是	-10092
李钟	-10093
沙漠	-10094
美联	-10095
能让	-10096
达菲	-10097
▁Gr	-10098
发送到	-10099
天主教	-10100
患者在	-10101
接到了	-10102
的最后	-10103
被发现	-10104
面积为	-10105
专业企业	-10106
法修订案	-10107
认为有必要时	-10108
华城	-10109
填补	-10110
理工	-10111
突发	-10112
2%,	-10113
IFA	-10114
Tra	-10115
▁委员	-10116
主体的	-10117
发出了	-10118
当选为	-10119
拒绝了	-10120
支援等	-10121
正在以	-10122
的治疗	-10123
确认书	-10124
见面的	-10125
新型冠状病毒感染	-10126
万件	-10127
两倍	-10128
住了	-10129
左侧	-10130
有力	-10131
毒品	-10132
细腻	-10133
8%。	-10134
lab	-10135
▁21	-10136
世宗市	-10137
单纯地	-10138
新生儿	-10139
检查的	-10140
气体的	-10141
警察局	-10142
四轮驱动	-10143
家人一起	-10144
投资信托	-10145
无线电话	-10146
经济政策	-10147
维持支援金	-10148
随着时间的	-10149
三菱	-10150
主机	-10151
也与	-10152
信心	-10153
军人	-10154
台词	-10155
合资	-10156
增设	-10157
家具	-10158
心灵	-10159
攻防	-10160
法和	-10161
这与	-10162
华丽的	-10163
无限期	-10164
消毒剂	-10165
生产量	-10166
管理等	-10167
飞行员	-10168
itch	-10169
受害者的	-10170
合作关系	-10171
展开竞争	-10172
必要措施	-10173
提供支援	-10174
终身教育	-10175
半导体芯片	-10176
最大程度地	-10177
经济社会劳动委员会	-10178
KR	-10179
助长	-10180
失踪	-10181
局势	-10182
派对	-10183
湖北	-10184
那时	-10185
高喊	-10186
1.0	-10187
7%。	-10188
ETF	-10189
▁运营	-10190
为人知	-10191
其中的	-10192
嫌疑人	-10193
捐赠了	-10194
潜伏期	-10195
的疑惑	-10196
的金融	-10197
目的地	-10198
积累了	-10199
纪录片	-10200
计划到	-10201
预测的	-10202
事前投票	-10203
意想不到	-10204
指导方针	-10205
明确表示	-10206
防疫对策	-10207
在议会选举	-10208
电动汽车的	-10209
文化体育观光	-10210
综合股价指数	-10211
▁上	-10212
余地	-10213
募捐	-10214
包容	-10215
显像	-10216
月租	-10217
歌词	-10218
烘干	-10219
熟人	-10220
燃气	-10221
越高	-10222
镇压	-10223
▁综合	-10224
体育馆	-10225
公职者	-10226
名议员	-10227
存在感	-10228
效果的	-10229
演出的	-10230
电影的	-10231
红外线	-10232
劳资关系	-10233
大幅提高	-10234
差别化的	-10235
相关信息	-10236
开放民主党	-10237
规定的事项	-10238
生活治疗中心	-10239
▁车	-10240
传授	-10241
余波	-10242
同行	-10243
多月	-10244
确信	-10245
起的	-10246
面谈	-10247
,18	-10248
▁GS	-10249
加油站	-10250
另一种	-10251
固定在	-10252
新车的	-10253
电池组	-10254
让观众	-10255
30%。	-10256
ical	-10257
保守阵营	-10258
正在研究	-10259
▁他接着说	-10260
人事听证会	-10261
比例代表候选人	-10262
SC	-10263
外壳	-10264
常识	-10265
并未	-10266
恩惠	-10267
抛光	-10268
擅自	-10269
相差	-10270
进了	-10271
DAQ	-10272
▁具体	-10273
不足的	-10274
事业化	-10275
各部门	-10276
强度的	-10277
文化院	-10278
日进行	-10279
洪准杓	-10280
的检查	-10281
首先要	-10282
民政首席	-10283
相关条例	-10284
经济活动	-10285
高等法院	-10286
▁与此相关	-10287
也备受关注	-10288
Cl	-10289
pl	-10290
公民	-10291
劳工	-10292
大致	-10293
戴上	-10294
早上	-10295
板和	-10296
油耗	-10297
消灭	-10298
说唱	-10299
连休	-10300
都市	-10301
▁全罗	-10302
中秋节	-10303
合作社	-10304
孙代表	-10305
影响的	-10306
性剥削	-10307
患者和	-10308
支付了	-10309
无论是	-10310
月以后	-10311
比较好	-10312
癌细胞	-10313
等内容	-10314
综合症	-10315
能成为	-10316
补偿金	-10317
该项目	-10318
适用了	-10319
1600	-10320
可以得到	-10321
可靠性的	-10322
呼吸困难	-10323
▁业界认为	-10324
▁其特点是	-10325
社会安全网	-10326
ME	-10327
▁徐	-10328
产物	-10329
官网	-10330
惊慌	-10331
排斥	-10332
晶硅	-10333
ESS	-10334
传达给	-10335
和分析	-10336
建立的	-10337
的贷款	-10338
资格证	-10339
没有出现	-10340
海洋水产	-10341
阿里巴巴	-10342
特朗普总统	-10343
FM	-10344
下班	-10345
事物	-10346
双屏	-10347
姆斯	-10348
年以	-10349
看待	-10350
▁游戏	-10351
委员们	-10352
放射性	-10353
材料和	-10354
的记录	-10355
诊疗所	-10356
▁大法院	-10357
产学合作	-10358
会计年度	-10359
照顾教室	-10360
经济危机	-10361
继续进行	-10362
riend	-10363
大数据分析	-10364
与去年同期相比	-10365
5.	-10366
亚特	-10367
亲文	-10368
尽情	-10369
已被	-10370
得多	-10371
总成	-10372
换成	-10373
熊津	-10374
用纸	-10375
脸部	-10376
误解	-10377
鼻子	-10378
Big	-10379
▁Un	-10380
▁人们	-10381
丹尼尔	-10382
在最近	-10383
导航仪	-10384
将实施	-10385
手机的	-10386
拘捕令	-10387
排在第	-10388
的应对	-10389
的意愿	-10390
经历的	-10391
▁如果将	-10392
销售公司	-10393
相关公务员	-10394
保持社会距离	-10395
移动应用程序	-10396
93	-10397
一场	-10398
一部	-10399
司令	-10400
岩石	-10401
明知	-10402
是继	-10403
结局	-10404
一下子	-10405
可用于	-10406
市民的	-10407
引进的	-10408
是具有	-10409
的人的	-10410
▁告诉我	-10411
压倒性的	-10412
日在美国	-10413
正在接受	-10414
▁talk	-10415
因此有必要	-10416
MariaDB	-10417
科学技术信息通信部	-10418
▁e	-10419
伪装	-10420
体质	-10421
党政	-10422
寻常	-10423
总监	-10424
月底	-10425
气压	-10426
溶解	-10427
的长	-10428
祭祀	-10429
粮食	-10430
背后	-10431
自助	-10432
视力	-10433
高敞	-10434
FDA	-10435
▁不能	-10436
但为了	-10437
停滞不	-10438
在发生	-10439
在工作	-10440
实现的	-10441
家长的	-10442
小时内	-10443
或团体	-10444
的议员	-10445
结果的	-10446
而是在	-10447
印象深刻	-10448
的主人公	-10449
第二学期	-10450
因此备受关注	-10451
最低工资上调	-10452
法制司法委员会	-10453
你的	-10454
序列	-10455
心动	-10456
贬低	-10457
部署	-10458
▁24	-10459
协议的	-10460
卫生间	-10461
均匀地	-10462
病原体	-10463
的日子	-10464
确定性	-10465
高中生	-10466
▁该产品	-10467
产业技术	-10468
并且具有	-10469
形成方法	-10470
政治改革	-10471
消费者对	-10472
倾听	-10473
华尔	-10474
在一	-10475
本土	-10476
死者	-10477
民俗	-10478
牵引	-10479
睡觉	-10480
观念	-10481
轮廓	-10482
间隙	-10483
顺畅	-10484
▁认为	-10485
人数为	-10486
和欧洲	-10487
少年的	-10488
得不到	-10489
支付给	-10490
来改善	-10491
粘合剂	-10492
缴纳的	-10493
该事件	-10494
该地区	-10495
转化为	-10496
可以选择	-10497
并且通过	-10498
相关人员	-10499
社会经济	-10500
筛查诊所	-10501
偏差	-10502
减排	-10503
同盟	-10504
多年	-10505
完毕	-10506
拿出	-10507
提醒	-10508
画报	-10509
瘫痪	-10510
等为	-10511
美的	-10512
航天	-10513
ISO	-10514
car	-10515
erv	-10516
ode	-10517
公告称	-10518
典型的	-10519
加入的	-10520
支部长	-10521
每个人	-10522
等因素	-10523
观测说	-10524
设置为	-10525
防止在	-10526
1300	-10527
1995	-10528
ator	-10529
积极利用	-10530
筛选诊所	-10531
保健福利部	-10532
营业利润为	-10533
ND	-10534
TK	-10535
三年	-10536
克制	-10537
农林	-10538
堆叠	-10539
好了	-10540
忍受	-10541
或不	-10542
的书	-10543
签发	-10544
英菲	-10545
资费	-10546
越大	-10547
辩论	-10548
途中	-10549
any	-10550
他人的	-10551
发生时	-10552
庞大的	-10553
时候都	-10554
生命的	-10555
的不安	-10556
聚集了	-10557
该技术	-10558
选举制	-10559
正在调查	-10560
审查委员会	-10561
公开的照片中	-10562
被判定为阴性	-10563
▁非	-10564
克森	-10565
和后	-10566
敞篷	-10567
苏联	-10568
露营	-10569
面上	-10570
儿童和	-10571
劳动制	-10572
和生活	-10573
所具有	-10574
投资了	-10575
本身就	-10576
职场内	-10577
节目的	-10578
还通过	-10579
icro	-10580
一致认为	-10581
而进行的	-10582
降低成本	-10583
aster	-10584
▁System	-10585
追加更正预算案	-10586
4~	-10587
不变	-10588
东洋	-10589
今晚	-10590
借助	-10591
圆满	-10592
在各	-10593
场外	-10594
相位	-10595
罗马	-10596
聚焦	-10597
荫罩	-10598
资方	-10599
交给了	-10600
信赖度	-10601
所以要	-10602
散热器	-10603
病毒的	-10604
的文件	-10605
运营了	-10606
驾驶席	-10607
....	-10608
▁从今年	-10609
他还表示	-10610
基金运用	-10611
已经开始	-10612
曹前长官	-10613
英菲尼迪	-10614
个人信息保护	-10615
文在寅政府的	-10616
Qu	-10617
做到	-10618
可爱	-10619
在籍	-10620
头的	-10621
尖锐	-10622
尸体	-10623
技巧	-10624
期满	-10625
罗曼	-10626
钢琴	-10627
预付	-10628
高考	-10629
▁两人	-10630
▁每个	-10631
区域内	-10632
原子能	-10633
和汽车	-10634
在家庭	-10635
将用于	-10636
生产性	-10637
的名称	-10638
的诉讼	-10639
▁SBS	-10640
▁经确认	-10641
不断增加	-10642
任何地方	-10643
化学反应	-10644
粉丝见面	-10645
自然而然地	-10646
比去年同期增加了	-10647
ru	-10648
作词	-10649
关门	-10650
划清	-10651
大米	-10652
应为	-10653
总共	-10654
明示	-10655
说过	-10656
通货	-10657
gen	-10658
上使用	-10659
主管的	-10660
制定和	-10661
的大韩	-10662
的帮助	-10663
的心理	-10664
美术馆	-10665
▁One	-10666
什么时候	-10667
发展成为	-10668
在青瓦台	-10669
如果出现	-10670
托管教室	-10671
检察总长	-10672
议会议员	-10673
进行研究	-10674
首尔特别市芦原区	-10675
"。	-10676
偏转	-10677
冷冻	-10678
增值	-10679
山的	-10680
平稳	-10681
柔软	-10682
硬币	-10683
逆变	-10684
音箱	-10685
也很多	-10686
做准备	-10687
出演了	-10688
工作者	-10689
放弃了	-10690
时间段	-10691
状况下	-10692
的气氛	-10693
等信息	-10694
规定了	-10695
铜雀区	-10696
Trot	-10697
▁据韩国	-10698
▁虽然是	-10699
司法改革	-10700
组合成员	-10701
作出	-10702
干练	-10703
水和	-10704
里面	-10705
上涨率	-10706
出不穷	-10707
后立即	-10708
照片墙	-10709
的最高	-10710
的正式	-10711
绝缘膜	-10712
层出不穷	-10713
年销售额	-10714
,2017	-10715
▁fold	-10716
机关负责人	-10717
医院接受治疗	-10718
机关的负责人	-10719
MD	-10720
MG	-10721
唱片	-10722
在其	-10723
对面	-10724
指令	-10725
海运	-10726
涌入	-10727
胡同	-10728
项第	-10729
365	-10730
Web	-10731
为确保	-10732
停止了	-10733
原定于	-10734
反映到	-10735
学习的	-10736
富川市	-10737
朴元淳	-10738
毕业于	-10739
的电压	-10740
转换器	-10741
50%。	-10742
亿美元的	-10743
有机发光	-10744
租赁住宅	-10745
这是一个	-10746
apital	-10747
artners	-10748
Op	-10749
不像	-10750
公式	-10751
博主	-10752
坠落	-10753
既得	-10754
智英	-10755
特辑	-10756
行人	-10757
震动	-10758
air	-10759
▁22	-10760
▁银行	-10761
企业在	-10762
导演的	-10763
接触到	-10764
社会性	-10765
系列的	-10766
选定为	-10767
LIME	-10768
全罗北道	-10769
处理方法	-10770
工厂生产	-10771
没有其他	-10772
的事实被	-10773
进行交易	-10774
全部或部分	-10775
双龙汽车的	-10776
af	-10777
乃至	-10778
传教	-10779
喷嘴	-10780
大胆	-10781
时刻	-10782
电式	-10783
职能	-10784
脚石	-10785
跆拳	-10786
销路	-10787
ake	-10788
中心和	-10789
健全性	-10790
安装的	-10791
容量的	-10792
教科书	-10793
昌原市	-10794
的道路	-10795
第一届	-10796
第二位	-10797
类似于	-10798
非常高	-10799
专业知识	-10800
交通工具	-10801
小委员会	-10802
有价证券	-10803
的机器人	-10804
相关内容	-10805
调制解调	-10806
进行沟通	-10807
最高水平的	-10808
犯罪调查处	-10809
▁根据法律第	-10810
产业安全保健	-10811
CA	-10812
to	-10813
会以	-10814
国库	-10815
国籍	-10816
在新	-10817
总务	-10818
日志	-10819
渔业	-10820
着的	-10821
税制	-10822
等也	-10823
议题	-10824
ATM	-10825
CBS	-10826
ona	-10827
分钟内	-10828
劳资政	-10829
医疗界	-10830
和提高	-10831
完美的	-10832
将公开	-10833
必须要	-10834
惊人的	-10835
是由于	-10836
而遭受	-10837
▁Med	-10838
▁公开了	-10839
Youtube	-10840
但他	-10841
偏向	-10842
共振	-10843
收受	-10844
用语	-10845
精度	-10846
美洲	-10847
金刚	-10848
为迎接	-10849
事业费	-10850
其结果	-10851
月份的	-10852
湖北省	-10853
的实际	-10854
而是以	-10855
需求的	-10856
龙仁市	-10857
可以要求	-10858
无线电波	-10859
服务器的	-10860
领导能力	-10861
▁在此之前	-10862
具代表性的	-10863
原审判决中	-10864
民主总工会	-10865
统合党候选人	-10866
Mr	-10867
cm	-10868
人选	-10869
受惠	-10870
和不	-10871
字幕	-10872
带领	-10873
次于	-10874
远的	-10875
齿轮	-10876
eta	-10877
row	-10878
两人的	-10879
压倒性	-10880
只能在	-10881
和投资	-10882
的咨询	-10883
非营利	-10884
▁很多人	-10885
▁裁判部	-10886
为了加强	-10887
的影响力	-10888
相关技术	-10889
▁金融当局	-10890
们对	-10891
何况	-10892
动感	-10893
地理	-10894
文档	-10895
某和	-10896
液化	-10897
漆谷	-10898
端的	-10899
者或	-10900
道具	-10901
难度	-10902
频带	-10903
风扇	-10904
▁Al	-10905
▁京畿	-10906
主持的	-10907
危险的	-10908
小型化	-10909
已成为	-10910
晶片的	-10911
罗曼史	-10912
这些人	-10913
副总理兼	-10914
商业银行	-10915
所属公司	-10916
的高性能	-10917
相互作用	-10918
股份率从	-10919
还补充说	-10920
Libra	-10921
▁note	-10922
和人工智能	-10923
聊天机器人	-10924
两侧	-10925
出国	-10926
办事	-10927
加以	-10928
堵塞	-10929
就在	-10930
征兆	-10931
手中	-10932
旅费	-10933
杀害	-10934
牢固	-10935
献血	-10936
缩减	-10937
蔚珍	-10938
4%,	-10939
▁25	-10940
▁IT	-10941
为起点	-10942
使用量	-10943
提高对	-10944
比赛中	-10945
的城市	-10946
的市民	-10947
附加值	-10948
预测值	-10949
10%。	-10950
上市公司	-10951
多岁女性	-10952
尤其涉及	-10953
紧随其后	-10954
otalk	-10955
▁韩国国内	-10956
地方公务员	-10957
91	-10958
LL	-10959
卷入	-10960
只对	-10961
扶持	-10962
榜首	-10963
衡量	-10964
麻醉	-10965
▁并且	-10966
事业法	-10967
合唱团	-10968
和地区	-10969
因此将	-10970
型肝炎	-10971
消费税	-10972
确认的	-10973
类似的	-10974
动力总成	-10975
这意味着	-10976
中小企业和	-10977
韩国党议员	-10978
在首尔汝矣岛	-10979
后半	-10980
尊敬	-10981
州的	-10982
执导	-10983
杠杆	-10984
海啸	-10985
破格	-10986
转子	-10987
辆车	-10988
限定	-10989
饲养	-10990
let	-10991
不允许	-10992
以色列	-10993
升级为	-10994
放大器	-10995
无条件	-10996
▁这也是	-10997
仁川机场	-10998
地方选举	-10999
提出申请	-11000
ition	-11001
▁2017	-11002
技术为基础	-11003
的方式进行	-11004
-3	-11005
MI	-11006
UI	-11007
会给	-11008
光线	-11009
卡通	-11010
固醇	-11011
宽敞	-11012
干预	-11013
放映	-11014
滑板	-11015
表格	-11016
金英	-11017
长途	-11018
阻挠	-11019
USB	-11020
▁但在	-11021
▁在第	-11022
不亚于	-11023
产品和	-11024
仅次于	-11025
国会法	-11026
存储在	-11027
教育院	-11028
滤波器	-11029
请大家	-11030
▁the	-11031
专门机构	-11032
今年年初	-11033
共同参与	-11034
做出了上述	-11035
国际电影节	-11036
很大的帮助	-11037
健康保险公团	-11038
为一	-11039
卡尔	-11040
反诉	-11041
女王	-11042
挽救	-11043
改良	-11044
档案	-11045
点燃	-11046
热爱	-11047
畜产	-11048
硕士	-11049
管弦	-11050
▁27	-11051
中出现	-11052
区政府	-11053
华尔街	-11054
小学生	-11055
汽车展	-11056
碳纤维	-11057
等国内	-11058
轻松地	-11059
也有很多	-11060
共享服务	-11061
导航系统	-11062
没有必要	-11063
电路板的	-11064
疑似症状	-11065
系统中的	-11066
呼吸道症状	-11067
创造工作岗位	-11068
oh	-11069
▁沈	-11070
天才	-11071
实况	-11072
常见	-11073
延寿	-11074
救援	-11075
时会	-11076
次的	-11077
现役	-11078
甜蜜	-11079
电场	-11080
眼神	-11081
等于	-11082
车等	-11083
野生	-11084
食药	-11085
ION	-11086
Inf	-11087
Med	-11088
主打歌	-11089
也通过	-11090
并利用	-11091
开展了	-11092
必需品	-11093
的女儿	-11094
的最佳	-11095
的范围	-11096
评价中	-11097
重量级	-11098
中型轿车	-11099
丰田汽车	-11100
会议记录	-11101
化石燃料	-11102
月份开始	-11103
竞争公司	-11104
迷你专辑	-11105
▁区厅长应	-11106
半导体元件的	-11107
共同民主党议员	-11108
加密货币交易所	-11109
最大限度地减少	-11110
CU	-11111
sc	-11112
两极	-11113
全方	-11114
剥夺	-11115
售罄	-11116
斯科	-11117
没收	-11118
衰退	-11119
赌博	-11120
走了	-11121
边界	-11122
闪存	-11123
防水	-11124
下面的	-11125
分配给	-11126
将如下	-11127
小时的	-11128
政府将	-11129
日内瓦	-11130
日凌晨	-11131
电视的	-11132
的医生	-11133
appy	-11134
nect	-11135
其目的是	-11136
资金筹措	-11137
还准备了	-11138
重要作用	-11139
km	-11140
▁旧	-11141
。。	-11142
上限	-11143
余力	-11144
农乐	-11145
声称	-11146
子宫	-11147
所说	-11148
放松	-11149
欺骗	-11150
比亚	-11151
汉江	-11152
瑞山	-11153
稀有	-11154
罢免	-11155
诸多	-11156
辞去	-11157
镇川	-11158
▁以前	-11159
假新闻	-11160
和文化	-11161
大使馆	-11162
并积极	-11163
者提供	-11164
负责任	-11165
cell	-11166
▁即使是	-11167
使用者的	-11168
感受到的	-11169
持续增长	-11170
收购合并	-11171
贷款利率	-11172
计划在今年	-11173
▁爱	-11174
不禁	-11175
伯格	-11176
凉爽	-11177
地板	-11178
埔寨	-11179
室等	-11180
广阔	-11181
我在	-11182
的他	-11183
的老	-11184
7%,	-11185
▁国民	-11186
▁经济	-11187
洞居民	-11188
登记为	-11189
的设施	-11190
的课题	-11191
等需要	-11192
管理及	-11193
记录了	-11194
非接触	-11195
20%。	-11196
▁如果你	-11197
ology	-11198
工会总联盟	-11199
的智能手机	-11200
金融公司的	-11201
kaotalk	-11202
lu	-11203
一词	-11204
仿佛	-11205
减速	-11206
初选	-11207
存入	-11208
学员	-11209
按下	-11210
民官	-11211
河东	-11212
记得	-11213
配电	-11214
BTS	-11215
GDP	-11216
Inv	-11217
工作时	-11218
得出的	-11219
必不可	-11220
日发布	-11221
柬埔寨	-11222
的含义	-11223
能够以	-11224
ante	-11225
▁当天的	-11226
专业人才	-11227
因此有人	-11228
费用负担	-11229
这是为了	-11230
KOSDAQ	-11231
不佳	-11232
久的	-11233
公文	-11234
奔跑	-11235
巴克	-11236
开馆	-11237
快的	-11238
月与	-11239
月火	-11240
杂质	-11241
磁体	-11242
空缺	-11243
话剧	-11244
账簿	-11245
车轮	-11246
这也	-11247
郡的	-11248
阵列	-11249
220	-11250
ame	-11251
▁证券	-11252
代表在	-11253
但未能	-11254
将出演	-11255
愉快的	-11256
插电式	-11257
的组织	-11258
的负担	-11259
从根本上	-11260
帝国主义	-11261
服务提供	-11262
Inter	-11263
民主化运动	-11264
目前还没有	-11265
第一季度的	-11266
新冠肺炎确诊者	-11267
人均	-11268
伙食	-11269
其次	-11270
写了	-11271
功劳	-11272
差额	-11273
担当	-11274
焊盘	-11275
特惠	-11276
登载	-11277
躲避	-11278
▁获得	-11279
为原则	-11280
从业者	-11281
市场中	-11282
是一款	-11283
而无需	-11284
韩国和	-11285
udio	-11286
▁The	-11287
共同研究	-11288
可以成为	-11289
工资协商	-11290
支援政策	-11291
无法正常	-11292
民间委托	-11293
疾病患者	-11294
▁Star	-11295
半导体装置	-11296
的一位相关人士表示	-11297
▁v	-11298
冷静	-11299
分的	-11300
变性	-11301
曾是	-11302
的气	-11303
的美	-11304
装修	-11305
越多	-11306
近代	-11307
金浦	-11308
阶级	-11309
NHN	-11310
▁在这	-11311
上没有	-11312
为预防	-11313
产品中	-11314
净抛售	-11315
可爱的	-11316
圣达菲	-11317
多元化	-11318
尹锡悦	-11319
改善的	-11320
无线电	-11321
活动时	-11322
的居民	-11323
被起诉	-11324
辅佐官	-11325
▁本规则	-11326
。","	-11327
政改特委	-11328
青少年的	-11329
▁Play	-11330
Da	-11331
两周	-11332
仪器	-11333
叮嘱	-11334
待机	-11335
托儿	-11336
挑选	-11337
新政	-11338
日将	-11339
法等	-11340
用手	-11341
肠道	-11342
认购	-11343
AND	-11344
ric	-11345
▁以此	-11346
乙选区	-11347
大邱和	-11348
对象中	-11349
武汉市	-11350
的在线	-11351
相吻合	-11352
管理官	-11353
适用的	-11354
Cell	-11355
ossa	-11356
事业部门	-11357
信用信息	-11358
公共设施	-11359
劳动福利	-11360
将在本月	-11361
日公布了	-11362
特征在于	-11363
表示感谢	-11364
附加价值	-11365
Av	-11366
VO	-11367
kg	-11368
公用	-11369
厅的	-11370
夸张	-11371
并由	-11372
开票	-11373
引资	-11374
德里	-11375
放心	-11376
日从	-11377
深化	-11378
生日	-11379
用了	-11380
盲目	-11381
输送	-11382
题为	-11383
额为	-11384
风景	-11385
cle	-11386
uni	-11387
▁围绕	-11388
之类的	-11389
对自己	-11390
岁月号	-11391
法兰克	-11392
游戏中	-11393
环保车	-11394
的父亲	-11395
的质量	-11396
股份的	-11397
高分子	-11398
▁从去年	-11399
下调利率	-11400
令人担忧	-11401
任何人都	-11402
全体国民	-11403
可能性的	-11404
计划今后	-11405
BB	-11406
不正	-11407
个市	-11408
任职	-11409
借口	-11410
制约	-11411
室和	-11412
家居	-11413
将是	-11414
局部	-11415
嵌入	-11416
有罪	-11417
材质	-11418
束缚	-11419
章程	-11420
简易	-11421
给你	-11422
脱发	-11423
,30	-11424
4.0	-11425
中低价	-11426
之外的	-11427
变压器	-11428
唐纳德	-11429
在政府	-11430
效率性	-11431
时间为	-11432
的印象	-11433
等大型	-11434
被取消	-11435
规定为	-11436
超越了	-11437
上诉理由	-11438
之一就是	-11439
伙伴关系	-11440
党领导层	-11441
制造公司	-11442
可以自由	-11443
应对方案	-11444
执政党的	-11445
的范围内	-11446
▁当天上午	-11447
最低工资的	-11448
的不确定性	-11449
国务总理李洛渊	-11450
HU	-11451
NT	-11452
东莱	-11453
取款	-11454
壁垒	-11455
姓名	-11456
宋歌	-11457
开口	-11458
郑义	-11459
dro	-11460
ord	-11461
▁Ar	-11462
▁已经	-11463
中形成	-11464
公告栏	-11465
的业绩	-11466
的季节	-11467
确诊的	-11468
结构和	-11469
而进行	-11470
自去年	-11471
高中的	-11472
举行的第	-11473
健康状况	-11474
化学物质	-11475
焦点放在	-11476
的关注度	-11477
研究委员	-11478
低收入阶层	-11479
图像传感器	-11480
法施行令第	-11481
分行	-11482
削发	-11483
剧照	-11484
可怕	-11485
年被	-11486
怎样	-11487
扩建	-11488
水木	-11489
略有	-11490
约会	-11491
缓和	-11492
股权	-11493
▁电子	-11494
会受到	-11495
低成本	-11496
国大学	-11497
度过了	-11498
生活费	-11499
电视机	-11500
的国际	-11501
第一大	-11502
纳税人	-11503
被判处	-11504
解释了	-11505
辖区内	-11506
领域中	-11507
▁可以说	-11508
交通公社	-11509
制作公司	-11510
因此预计	-11511
增长趋势	-11512
复合材料	-11513
时产生的	-11514
进行咨询	-11515
梨泰院俱乐部	-11516
运动型多用途汽车	-11517
'、	-11518
Th	-11519
WD	-11520
亚太	-11521
供求	-11522
历任	-11523
天花	-11524
情节	-11525
星星	-11526
来临	-11527
煤气	-11528
环节	-11529
百姓	-11530
细微	-11531
这对	-11532
金秀	-11533
雇主	-11534
风力	-11535
8%,	-11536
▁我国	-11537
制造出	-11538
和支持	-11539
宣布了	-11540
小商工	-11541
期间内	-11542
的电脑	-11543
网络和	-11544
议员说	-11545
基准利率	-11546
教授表示	-11547
的安全性	-11548
雇佣稳定	-11549
首次公开	-11550
世界卫生组织	-11551
现代汽车公司	-11552
▁现代汽车公司	-11553
交织	-11554
做法	-11555
回复	-11556
尔斯	-11557
强者	-11558
很低	-11559
青松	-11560
▁23	-11561
▁国际	-11562
主义者	-11563
也可能	-11564
事业场	-11565
发电厂	-11566
后进行	-11567
市场和	-11568
推迟了	-11569
日透露	-11570
星期五	-11571
最初的	-11572
的医院	-11573
的政党	-11574
经济性	-11575
预测称	-11576
▁即使在	-11577
▁因为是	-11578
为了改善	-11579
全面调查	-11580
因此决定	-11581
定期国会	-11582
恢复正常	-11583
法兰克福	-11584
▁Prem	-11585
▁民主劳总	-11586
信息通信网	-11587
下方	-11588
主人	-11589
代币	-11590
传说	-11591
充实	-11592
免受	-11593
听众	-11594
墙壁	-11595
复发	-11596
微细	-11597
课堂	-11598
险地	-11599
▁28	-11600
▁应该	-11601
▁明年	-11602
代表说	-11603
制作人	-11604
可获得	-11605
工作组	-11606
接收机	-11607
的疾病	-11608
的证据	-11609
的限制	-11610
在市场上	-11611
蔚山市长	-11612
进行评价	-11613
下半年开始	-11614
大部分都是	-11615
设备和方法	-11616
Windows	-11617
移动通信终端机	-11618
▁Solution	-11619
和与	-11620
庆祝	-11621
底盘	-11622
弱点	-11623
桥梁	-11624
横幅	-11625
激发	-11626
烛光	-11627
的首	-11628
石头	-11629
精细	-11630
紧迫	-11631
美爱	-11632
肺部	-11633
讲课	-11634
雪莉	-11635
▁Ex	-11636
不相同	-11637
倍左右	-11638
债权人	-11639
势力的	-11640
将按照	-11641
相机的	-11642
记者们	-11643
赵会长	-11644
适当地	-11645
1400	-11646
▁ENM	-11647
也是因为	-11648
全球经济	-11649
塞尔托斯	-11650
大幅下降	-11651
学生家长	-11652
显示装置的	-11653
快速通道法案	-11654
最高委员会议	-11655
▁只	-11656
不论	-11657
不起	-11658
向上	-11659
和水	-11660
在外	-11661
恋人	-11662
抱歉	-11663
早就	-11664
看了	-11665
突起	-11666
计量	-11667
3.5	-11668
umb	-11669
▁也许	-11670
▁诉讼	-11671
加快了	-11672
可以不	-11673
岁女性	-11674
帕里斯	-11675
新产业	-11676
是美国	-11677
留下的	-11678
的主体	-11679
的人口	-11680
的性质	-11681
的股价	-11682
的高速	-11683
著名的	-11684
金额为	-11685
lect	-11686
从上个月	-11687
大企业的	-11688
委员长和	-11689
改善方案	-11690
生活质量	-11691
西大门区	-11692
韩泰轮胎	-11693
高丽大学	-11694
制定并实施	-11695
委员会审议	-11696
激烈的竞争	-11697
万韩元以下的	-11698
▁Mobility	-11699
ai	-11700
伯特	-11701
体裁	-11702
分成	-11703
始于	-11704
小儿	-11705
涂覆	-11706
渴望	-11707
看护	-11708
细分	-11709
▁华为	-11710
了韩国	-11711
发展和	-11712
发送了	-11713
向国民	-11714
排气量	-11715
推荐的	-11716
最新的	-11717
的一名	-11718
项格式	-11719
预示着	-11720
▁更何况	-11721
中规定的	-11722
以无党派	-11723
共同住宅	-11724
在前一天	-11725
游戏产业	-11726
特别延长	-11727
移动路线	-11728
简便结算	-11729
能够提高	-11730
视频会议	-11731
▁马	-11732
乐器	-11733
仅靠	-11734
使命	-11735
例行	-11736
叫做	-11737
后辈	-11738
收容	-11739
收获	-11740
网吧	-11741
行列	-11742
要领	-11743
让步	-11744
谨慎	-11745
路面	-11746
违规	-11747
郑东	-11748
静止	-11749
万多名	-11750
不仅对	-11751
不仅要	-11752
农渔村	-11753
变化和	-11754
指出了	-11755
控制的	-11756
虽然有	-11757
行政官	-11758
30%,	-11759
ings	-11760
很难找到	-11761
委员长表示	-11762
的解决方案	-11763
Google	-11764
▁2019"	-11765
缩短工作时间	-11766
宣布不参加竞选	-11767
亲近	-11768
写有	-11769
十五	-11770
将不	-11771
恒定	-11772
源于	-11773
线索	-11774
除去	-11775
elv	-11776
▁国立	-11777
不合格	-11778
人民币	-11779
出纳员	-11780
制作成	-11781
加热器	-11782
在购买	-11783
垃圾袋	-11784
家长会	-11785
提到的	-11786
演员们	-11787
的一面	-11788
的概率	-11789
的母亲	-11790
的演出	-11791
选管委	-11792
随时随	-11793
马力的	-11794
中国政府	-11795
也是如此	-11796
优先顺序	-11797
公务员的	-11798
在野党的	-11799
有效运营	-11800
独居老人	-11801
重新开始	-11802
ature	-11803
半导体元件	-11804
的电动汽车	-11805
进行了调查	-11806
智能手机应用程序	-11807
▁Innovation	-11808
:。	-11809
EE	-11810
Sc	-11811
写着	-11812
切除	-11813
压电	-11814
台账	-11815
年假	-11816
水准	-11817
激动	-11818
良性	-11819
讨厌	-11820
该车	-11821
调动	-11822
遗址	-11823
"),	-11824
ISS	-11825
gon	-11826
企业也	-11827
功能性	-11828
托儿所	-11829
李在镕	-11830
的一天	-11831
舒适的	-11832
跆拳道	-11833
遭到了	-11834
限度的	-11835
▁CNS	-11836
▁Gen	-11837
▁大多数	-11838
世界经济	-11839
最高法院	-11840
神经细胞	-11841
解决方法	-11842
轻症患者	-11843
这些问题	-11844
选择性地	-11845
所占的比重	-11846
未来统合党候选人	-11847
Me	-11848
QR	-11849
▁(	-11850
人座	-11851
令营	-11852
以免	-11853
发酵	-11854
在以	-11855
家中	-11856
工商	-11857
往往	-11858
歌剧	-11859
温泉	-11860
生病	-11861
答复	-11862
联手	-11863
访者	-11864
阻力	-11865
飙升	-11866
NEX	-11867
▁保险	-11868
但这是	-11869
回到了	-11870
描绘了	-11871
日正式	-11872
的政府	-11873
装置中	-11874
这句话	-11875
"4+1	-11876
▁部分人	-11877
但并没有	-11878
体育设施	-11879
咨询服务	-11880
在一起的	-11881
委托运营	-11882
进口车的	-11883
trion	-11884
▁2008	-11885
会议上表示	-11886
机构投资者	-11887
最低工资委员会	-11888
——	-11889
上门	-11890
国营	-11891
孔的	-11892
算是	-11893
试点	-11894
读者	-11895
配线	-11896
10~	-11897
9%。	-11898
世界级	-11899
价格为	-11900
并不多	-11901
引入了	-11902
氧化膜	-11903
的民族	-11904
的申请	-11905
继去年	-11906
选出的	-11907
▁如果有	-11908
中央银行	-11909
公共住宅	-11910
可以实时	-11911
有所下降	-11912
的区块链	-11913
即将到来的	-11914
新天地信徒	-11915
研究院院长	-11916
而备受关注	-11917
新冠肺炎的扩散	-11918
四大	-11919
夹具	-11920
将要	-11921
并用	-11922
开院	-11923
得很	-11924
杀死	-11925
比利	-11926
比喻	-11927
溶剂	-11928
练歌	-11929
绿豆	-11930
钟元	-11931
▁据此	-11932
不明确	-11933
及支援	-11934
周年的	-11935
是基于	-11936
极大的	-11937
议席数	-11938
调查和	-11939
驾驶的	-11940
业界首次	-11941
为了帮助	-11942
再次发生	-11943
大邱教会	-11944
所拥有的	-11945
个人投资者	-11946
汽油发动机	-11947
系统半导体	-11948
解决方案的	-11949
、8	-11950
不服	-11951
倍感	-11952
兑换	-11953
全权	-11954
剥离	-11955
吃的	-11956
同月	-11957
和朴	-11958
回帖	-11959
实例	-11960
山林	-11961
抵消	-11962
救护	-11963
朱豪	-11964
殴打	-11965
直观	-11966
腹泻	-11967
蒸发	-11968
RPA	-11969
▁GT	-11970
中心等	-11971
在各种	-11972
室室长	-11973
形状的	-11974
暴力的	-11975
来控制	-11976
消除了	-11977
清州市	-11978
的感情	-11979
计算的	-11980
谈会上	-11981
▁Man	-11982
继续保持	-11983
▁如果没有	-11984
亿韩元左右	-11985
先发制人的	-11986
提交给班主任	-11987
新冠肺炎确诊病例	-11988
Co	-11989
▁所	-11990
万张	-11991
下台	-11992
争先	-11993
但我	-11994
养殖	-11995
农地	-11996
出厂	-11997
分娩	-11998
别的	-11999
毒性	-12000
灵敏	-12001
玛丽	-12002
皮革	-12003
误会	-12004
金山	-12005
ath	-12006
一半的	-12007
不完全	-12008
医学院	-12009
可进行	-12010
年之前	-12011
抓住了	-12012
政策和	-12013
有机电	-12014
永登浦	-12015
法律界	-12016
电解液	-12017
的青年	-12018
端子的	-12019
等服务	-12020
而发生	-12021
而死亡	-12022
.6%。	-12023
1970	-12024
任何一个	-12025
保健福利	-12026
可以委托	-12027
女子大学	-12028
学校暴力	-12029
当天开始	-12030
捷豹路虎	-12031
有效管理	-12032
特殊雇佣	-12033
神经网络	-12034
福利设施	-12035
综合管理	-12036
▁2010	-12037
▁OLED	-12038
▁人工智能	-12039
▁有分析称	-12040
自由韩国党代表黄教安	-12041
!"	-12042
Ad	-12043
SR	-12044
三十	-12045
两性	-12046
克力	-12047
列表	-12048
告吹	-12049
大海	-12050
平行	-12051
应力	-12052
扭曲	-12053
把它	-12054
条及	-12055
电台	-12056
短暂	-12057
科纳	-12058
童子	-12059
让他	-12060
财富	-12061
起火	-12062
身材	-12063
进制	-12064
集市	-12065
马拉	-12066
ILO	-12067
afe	-12068
iew	-12069
itz	-12070
▁Sc	-12071
▁组合	-12072
上存在	-12073
发病率	-12074
来说是	-12075
模块的	-12076
电路的	-12077
自然的	-12078
道峰区	-12079
.4%。	-12080
他补充道	-12081
代案新党	-12082
令人惊讶	-12083
另一方面	-12084
提供多种	-12085
自由职业	-12086
长时间的	-12087
亿韩元以上	-12088
新闻发布会	-12089
▁本发明涉及一种在	-12090
▁黄	-12091
三陟	-12092
东海	-12093
人造	-12094
伤口	-12095
务必	-12096
它是	-12097
将比	-12098
小米	-12099
少量	-12100
怀着	-12101
捕获	-12102
根除	-12103
狮跑	-12104
等以	-12105
试剂	-12106
轿跑	-12107
EST	-12108
elt	-12109
一起去	-12110
反驳称	-12111
和三星	-12112
将展示	-12113
执行的	-12114
母公司	-12115
温度的	-12116
的呼声	-12117
统计厅	-12118
.7%。	-12119
▁本研究	-12120
周年纪念	-12121
增长动力	-12122
首尔中央	-12123
从一开始就	-12124
有可能成为	-12125
▁几	-12126
中部	-12127
利的	-12128
并被	-12129
所未	-12130
拜托	-12131
整备	-12132
治安	-12133
素质	-12134
纸质	-12135
艾滋	-12136
选秀	-12137
那天	-12138
30~	-12139
。",	-12140
也将在	-12141
会根据	-12142
决定对	-12143
可以更	-12144
定义为	-12145
就很难	-12146
操作的	-12147
的革新	-12148
让人联	-12149
资源的	-12150
Good	-12151
KCGI	-12152
reen	-12153
ress	-12154
区厅长应	-12155
就可以在	-12156
并提出了	-12157
支付津贴	-12158
网络安全	-12159
角度出发	-12160
集团会长	-12161
及特别相关人士	-12162
业界相关人士表示	-12163
MM	-12164
de	-12165
tn	-12166
争取	-12167
分手	-12168
分部	-12169
忙碌	-12170
快捷	-12171
恰当	-12172
接力	-12173
正是	-12174
流向	-12175
点在	-12176
线和	-12177
行车	-12178
野营	-12179
金相	-12180
高潮	-12181
▁EV	-12182
争先恐	-12183
决定向	-12184
创意性	-12185
只不过	-12186
存在于	-12187
希望能	-12188
并给予	-12189
执政圈	-12190
方法等	-12191
柯兰多	-12192
由于在	-12193
也进行了	-12194
今后也将	-12195
变得困难	-12196
开发事业	-12197
时使用的	-12198
有偿增资	-12199
▁在过去的	-12200
便携式终端	-12201
备受瞩目的	-12202
锂二次电池	-12203
在国会举行的	-12204
1、	-12205
▁许	-12206
一看	-12207
中风	-12208
偏离	-12209
像是	-12210
公演	-12211
十足	-12212
发性	-12213
吃一	-12214
影院	-12215
找回	-12216
报警	-12217
液态	-12218
渎职	-12219
球队	-12220
荒唐	-12221
被提	-12222
转达	-12223
金基	-12224
钓鱼	-12225
ian	-12226
▁在该	-12227
一年内	-12228
也很大	-12229
刺激了	-12230
发出的	-12231
年后的	-12232
所以我	-12233
攻防战	-12234
电力的	-12235
的形态	-12236
的规模	-12237
精神病	-12238
经济学	-12239
过敏性	-12240
oney	-12241
争论焦点	-12242
全体职员	-12243
奔驰韩国	-12244
实施计划	-12245
技术人员	-12246
相关机关	-12247
驾驶者的	-12248
共同民主党候选人	-12249
占总	-12250
定居	-12251
寻呼	-12252
幻想	-12253
庭院	-12254
建模	-12255
显微	-12256
权和	-12257
来水	-12258
此外	-12259
财界	-12260
麻痹	-12261
.8%	-12262
450	-12263
6%。	-12264
box	-12265
mon	-12266
▁29	-12267
乳腺癌	-12268
交易量	-12269
单一化	-12270
将举办	-12271
展览会	-12272
来决定	-12273
的电流	-12274
竞选中	-12275
.3%。	-12276
vest	-12277
▁如果想	-12278
争先恐后	-12279
建设现场	-12280
能够实现	-12281
▁2016	-12282
▁2018	-12283
▁本发明提供了	-12284
法务部长官候选人	-12285
▁反	-12286
、7	-12287
一方	-12288
下车	-12289
于此	-12290
共生	-12291
助手	-12292
匿名	-12293
审中	-12294
或有	-12295
教保	-12296
普锐	-12297
气球	-12298
沉默	-12299
流出	-12300
祝愿	-12301
索引	-12302
罗拉	-12303
问答	-12304
食堂	-12305
int	-12306
与国内	-12307
优化的	-12308
判断为	-12309
去医院	-12310
大体上	-12311
实行了	-12312
工资及	-12313
开放式	-12314
普锐斯	-12315
朱豪英	-12316
的准备	-12317
系统地	-12318
经营界	-12319
通过的	-12320
韩半岛	-12321
.2%。	-12322
信用评价	-12323
发挥作用	-12324
将从本月	-12325
招商引资	-12326
李副会长	-12327
稳定资金	-12328
这一问题	-12329
远程控制	-12330
▁他还表示	-12331
应用程序的	-12332
ervice	-12333
DJ	-12334
上演	-12335
下次	-12336
书店	-12337
人等	-12338
以太	-12339
佛像	-12340
停课	-12341
光电	-12342
共济	-12343
对因	-12344
巨头	-12345
彭博	-12346
惩罚	-12347
最为	-12348
李前	-12349
注销	-12350
灭火	-12351
笑星	-12352
精彩	-12353
统筹	-12354
节能	-12355
逐步	-12356
集装	-12357
Lab	-12358
▁一直	-12359
乘务员	-12360
以及在	-12361
传真机	-12362
创作者	-12363
可以为	-12364
夏令营	-12365
居民的	-12366
电子枪	-12367
这两个	-12368
NASA	-12369
▁MBC	-12370
志愿活动	-12371
有可能会	-12372
本部长郑	-12373
相关业务	-12374
▁为了提高	-12375
新冠肺炎扩散	-12376
无党派候选人	-12377
举行记者招待会	-12378
Si	-12379
乡村	-12380
互联	-12381
供奉	-12382
勉强	-12383
场地	-12384
灯泡	-12385
电网	-12386
赢得	-12387
阴影	-12388
摄影棚	-12389
最尖端	-12390
生成的	-12391
等措施	-12392
网站和	-12393
而感到	-12394
评价院	-12395
以下事项	-12396
企业提供	-12397
当天通过	-12398
最高水平	-12399
通过各种	-12400
大选候选人	-12401
的学生父母	-12402
第一款规定	-12403
Go	-12404
也比	-12405
但以	-12406
呕吐	-12407
备份	-12408
德鲁	-12409
所管	-12410
授权	-12411
流体	-12412
爱国	-12413
留学	-12414
签证	-12415
贪污	-12416
高危	-12417
.9%	-12418
▁用于	-12419
个议席	-12420
同一个	-12421
并得到	-12422
注册的	-12423
理由的	-12424
的国会	-12425
网络中	-12426
销量的	-12427
中国市场	-12428
公调处法	-12429
其他地区	-12430
医疗保健	-12431
多多参与	-12432
家庭剧场	-12433
治疗方法	-12434
海外市场	-12435
网上开学	-12436
衍生结合	-12437
确诊患者的	-12438
股东大会上	-12439
在预算范围内	-12440
网上购物中心	-12441
中央选举管理委员会	-12442
占地	-12443
吸尘	-12444
奈飞	-12445
子等	-12446
年零	-12447
开的	-12448
手套	-12449
收款	-12450
李泰	-12451
污水	-12452
海军	-12453
版权	-12454
特约	-12455
石塔	-12456
美军	-12457
聚合	-12458
自家	-12459
贴上	-12460
还说	-12461
这时	-12462
在这个	-12463
在选举	-12464
工资和	-12465
教育等	-12466
李海瓒	-12467
每年都	-12468
理由是	-12469
罢工的	-12470
说的话	-12471
10%,	-12472
为了不让	-12473
如上所述	-12474
对象之外	-12475
巨大贡献	-12476
范围内的	-12477
运营计划	-12478
中任何一项	-12479
▁Inter	-12480
▁现代起亚汽车	-12481
▁Facebook	-12482
IX	-12483
wa	-12484
▁的	-12485
固态	-12486
复印	-12487
大势	-12488
导师	-12489
巴马	-12490
次长	-12491
碳酸	-12492
粗糙	-12493
联接	-12494
融化	-12495
跟随	-12496
9%,	-12497
▁同样	-12498
▁调查	-12499
中大型	-12500
今天的	-12501
发行了	-12502
可穿戴	-12503
并提出	-12504
新事业	-12505
而产生	-12506
观察到	-12507
集装箱	-12508
Talk	-12509
▁截止到	-12510
为了培养	-12511
为了支援	-12512
位居第一	-12513
共同代表	-12514
劳动监督	-12515
受到限制	-12516
学术杂志	-12517
日本汽车	-12518
第一学期	-12519
等在内的	-12520
让观众们	-12521
随时随地	-12522
laytn	-12523
合作公司的	-12524
弹性工作制	-12525
斗山重工业	-12526
专职	-12527
付费	-12528
是向	-12529
水库	-12530
班长	-12531
金永	-12532
中提取	-12533
出售的	-12534
或委任	-12535
数据和	-12536
来解决	-12537
的现有	-12538
的行动	-12539
老龄化	-12540
▁Res	-12541
日发表了	-12542
被确诊的	-12543
跨国企业	-12544
还推出了	-12545
销售业绩	-12546
自主开发的	-12547
isplay	-12548
3、	-12549
Mi	-12550
SP	-12551
mo	-12552
▁原	-12553
与该	-12554
僵硬	-12555
否则	-12556
太极	-12557
奴隶	-12558
抱着	-12559
日记	-12560
明朗	-12561
是很	-12562
炸弹	-12563
终生	-12564
老板	-12565
3~4	-12566
ING	-12567
era	-12568
opp	-12569
一站式	-12570
不方便	-12571
办事处	-12572
协商后	-12573
发展中	-12574
在家中	-12575
外交部	-12576
大城市	-12577
实行的	-12578
政府对	-12579
方向的	-12580
生产和	-12581
的持续	-12582
的物质	-12583
的那样	-12584
科大学	-12585
额外的	-12586
▁特斯拉	-12587
居民登记	-12588
开始进行	-12589
开放银行	-12590
特别注意	-12591
营销活动	-12592
行政诉讼	-12593
▁但是随着	-12594
工会委员长	-12595
感染性疾病	-12596
的应用程序	-12597
的立场来看	-12598
▁Sport	-12599
▁他还补充说	-12600
Invossa	-12601
▁南	-12602
万吨	-12603
主角	-12604
传导	-12605
参数	-12606
天使	-12607
奖品	-12608
娜莱	-12609
学界	-12610
客服	-12611
平凡	-12612
波及	-12613
电能	-12614
胳膊	-12615
远离	-12616
长远	-12617
ert	-12618
ins	-12619
max	-12620
▁NA	-12621
主张说	-12622
假期间	-12623
做什么	-12624
接下来	-12625
智能化	-12626
月平均	-12627
李代表	-12628
的压力	-12629
的意图	-12630
的空气	-12631
的高端	-12632
部分人	-12633
.9%,	-12634
1800	-12635
▁BMW	-12636
友利金融	-12637
必要时可	-12638
签订合同	-12639
造船海洋	-12640
ealth	-12641
NG	-12642
da	-12643
万元	-12644
上位	-12645
传奇	-12646
全员	-12647
公害	-12648
切实	-12649
单人	-12650
图表	-12651
大于	-12652
威廉	-12653
布鲁	-12654
收尾	-12655
是因	-12656
村民	-12657
横向	-12658
深层	-12659
的双	-12660
缓存	-12661
耗尽	-12662
aut	-12663
eur	-12664
▁很多	-12665
不超过	-12666
副部长	-12667
局限于	-12668
来减少	-12669
的影像	-12670
的股票	-12671
而闻名	-12672
ange	-12673
专门负责	-12674
国内市场	-12675
扩大到了	-12676
接种疫苗	-12677
最后一次	-12678
的子公司	-12679
的新产品	-12680
离子注入	-12681
秘书室长	-12682
签约仪式	-12683
财政支援	-12684
预防守则	-12685
发送和接收	-12686
酒店举行的	-12687
的可能性很高	-12688
AY	-12689
CF	-12690
UP	-12691
一张	-12692
基底	-12693
堂堂	-12694
把手	-12695
等在	-12696
老鼠	-12697
跳舞	-12698
-19	-12699
IVE	-12700
ale	-12701
▁有些	-12702
不适合	-12703
关闭了	-12704
医生的	-12705
变身为	-12706
并制定	-12707
并防止	-12708
或通过	-12709
锋相对	-12710
Blue	-12711
▁因为在	-12712
▁根据该	-12713
为了实现	-12714
总联合会	-12715
每年都会	-12716
流通企业	-12717
而准备的	-12718
育儿休职	-12719
能够进行	-12720
这将成为	-12721
首尔医院	-12722
混合动力车的	-12723
可在预算范围内	-12724
不住	-12725
中午	-12726
亲密	-12727
供水	-12728
倾注	-12729
坚定	-12730
微妙	-12731
植入	-12732
河流	-12733
法司	-12734
生意	-12735
硬化	-12736
等多	-12737
Mod	-12738
东大门	-12739
个地方	-12740
在北美	-12741
大流行	-12742
是拥有	-12743
有义务	-12744
的人类	-12745
的指责	-12746
的通信	-12747
经历过	-12748
维持在	-12749
被拘留	-12750
选民们	-12751
金正恩	-12752
雇佣率	-12753
usic	-12754
但考虑到	-12755
前青瓦台	-12756
提出异议	-12757
正在通过	-12758
行政处分	-12759
货币政策	-12760
ience	-12761
▁2000	-12762
以及使用该	-12763
比去年增加了	-12764
1。	-12765
EO	-12766
pe	-12767
中美	-12768
他是	-12769
停职	-12770
品尝	-12771
字段	-12772
布局	-12773
心肌	-12774
掩盖	-12775
是自	-12776
李承	-12777
板桥	-12778
芬兰	-12779
题目	-12780
首任	-12781
不包括	-12782
不愿意	-12783
如果因	-12784
安全带	-12785
打造成	-12786
是针对	-12787
的优秀	-12788
的目的	-12789
确定的	-12790
被问到	-12791
.4%,	-12792
不仅仅是	-12793
基本收入	-12794
室内空间	-12795
平方米的	-12796
年末为止	-12797
Cloud	-12798
▁2009	-12799
▁本发明在	-12800
半导体封装	-12801
从这一点来看	-12802
4·	-12803
RC	-12804
不被	-12805
中对	-12806
大声	-12807
家畜	-12808
我也	-12809
承租	-12810
抵达	-12811
换血	-12812
明智	-12813
月以	-12814
深受	-12815
的下	-12816
骨折	-12817
▁市场	-12818
别人的	-12819
反驳道	-12820
因为它	-12821
在哪里	-12822
安全和	-12823
将投入	-12824
居住的	-12825
整体的	-12826
电影中	-12827
的这种	-12828
研究和	-12829
结束时	-12830
者进行	-12831
证明书	-12832
这样做	-12833
为主题的	-12834
劳动基准	-12835
及其方法	-12836
国民请愿	-12837
我们学校	-12838
日开始在	-12839
服务企业	-12840
癌症患者	-12841
量身定做	-12842
MySQL	-12843
之间的关系	-12844
完全不同的	-12845
当天的活动	-12846
调制解调器	-12847
金融消费者	-12848
联动型比例代表制	-12849
LT	-12850
一件	-12851
人行	-12852
则由	-12853
变换	-12854
弥邹	-12855
归属	-12856
很强	-12857
敏捷	-12858
文物	-12859
检索	-12860
水道	-12861
皇帝	-12862
自尊	-12863
闭路	-12864
骨骼	-12865
NCM	-12866
不舒服	-12867
个性化	-12868
事业等	-12869
交易日	-12870
从外部	-12871
到医院	-12872
在经济	-12873
开幕式	-12874
恢复了	-12875
显微镜	-12876
灵活性	-12877
热处理	-12878
的成员	-12879
的自由	-12880
菲亚特	-12881
诺贝尔	-12882
部件的	-12883
▁国土部	-12884
▁被告人	-12885
▁请参考	-12886
千禧一代	-12887
房地产税	-12888
而是通过	-12889
▁驳回原告	-12890
文在寅政权	-12891
生态系统的	-12892
行驶过程中	-12893
riends	-12894
ED	-12895
互动	-12896
侮辱	-12897
千里	-12898
在前	-12899
家们	-12900
属性	-12901
德尔	-12902
摸索	-12903
晨焕	-12904
月球	-12905
李尚	-12906
线程	-12907
肩膀	-12908
速率	-12909
酒吧	-12910
▁ch	-12911
▁了解	-12912
与以往	-12913
与全球	-12914
亿日元	-12915
会减少	-12916
因此有	-12917
愉快地	-12918
支援团	-12919
政府在	-12920
时使用	-12921
浏览器	-12922
用户在	-12923
电动化	-12924
详细的	-12925
费用和	-12926
需要对	-12927
.9%。	-12928
50%,	-12929
业界认为	-12930
医疗保险	-12931
大受欢迎	-12932
完全不同	-12933
开始正式	-12934
新韩银行	-12935
无线耳机	-12936
进行对话	-12937
连接起来	-12938
二手车交易	-12939
的主要原因	-12940
"1	-12941
be	-12942
三人	-12943
上以	-12944
勇气	-12945
好处	-12946
学业	-12947
线条	-12948
聪明	-12949
赚钱	-12950
转动	-12951
进来	-12952
鸡蛋	-12953
▁所谓	-12954
▁购买	-12955
从上月	-12956
但预计	-12957
出生的	-12958
分析和	-12959
刘在石	-12960
实力的	-12961
就开始	-12962
正当的	-12963
理解和	-12964
的生物	-12965
输出的	-12966
还具有	-12967
pany	-12968
今年以来	-12969
因为没有	-12970
多个国家	-12971
居民自治	-12972
日公开了	-12973
每年都在	-12974
造成的损失	-12975
今年第一季度	-12976
政府和执政党	-12977
▁本发明的目的是提供	-12978
LB	-12979
We	-12980
也为	-12981
包裹	-12982
告白	-12983
士兵	-12984
奇迹	-12985
尤为	-12986
并使	-12987
应聘	-12988
惠善	-12989
报废	-12990
推向	-12991
果川	-12992
离职	-12993
移居	-12994
耐药	-12995
致死	-12996
货款	-12997
预选	-12998
骤减	-12999
一定会	-13000
体验到	-13001
债务人	-13002
关注度	-13003
原子核	-13004
忧郁症	-13005
执行部	-13006
教授组	-13007
有不慎	-13008
李明博	-13009
的建筑	-13010
竞争中	-13011
角色的	-13012
ltra	-13013
位于首尔	-13014
原告承担	-13015
学校供餐	-13016
稍有不慎	-13017
进行申请	-13018
房地产市场	-13019
住宅担保贷款	-13020
自由韩国党议员	-13021
NU	-13022
一生	-13023
世勋	-13024
二维	-13025
代行	-13026
全息	-13027
决算	-13028
增益	-13029
强劲	-13030
戒烟	-13031
李秀	-13032
歌唱	-13033
点到	-13034
说了	-13035
避开	-13036
交易额	-13037
减少的	-13038
和家庭	-13039
恳谈会	-13040
有一天	-13041
来提供	-13042
百分之	-13043
的客户	-13044
目前还	-13045
福利馆	-13046
而面临	-13047
自然地	-13048
降低到	-13049
首席副	-13050
产业现场	-13051
国际机场	-13052
多岁男性	-13053
引发争议	-13054
技术领域	-13055
持续不断	-13056
无薪休职	-13057
精神分裂	-13058
紧急状态	-13059
转移登记	-13060
需要进行	-13061
首席副会长	-13062
半导体装置的	-13063
Pl	-13064
yo	-13065
一贯	-13066
哈萨	-13067
标榜	-13068
桂阳	-13069
此时	-13070
玩笑	-13071
生效	-13072
的同	-13073
终结	-13074
角落	-13075
贿赂	-13076
逆向	-13077
难道	-13078
饱受	-13079
不合理	-13080
也有所	-13081
依赖于	-13082
保险杠	-13083
吴晨焕	-13084
和未来	-13085
图案的	-13086
在校生	-13087
将支援	-13088
弥邹忽	-13089
是一部	-13090
正常的	-13091
第二年	-13092
设定为	-13093
ater	-13094
拖欠工资	-13095
没有太大	-13096
销售额的	-13097
韩国劳总	-13098
高度评价	-13099
▁Home	-13100
▁为了解决	-13101
▁他补充说	-13102
型工作岗位	-13103
▁Techn	-13104
▁国土交通部	-13105
HS	-13106
之下	-13107
仅仅	-13108
你们	-13109
则是	-13110
区厅	-13111
参展	-13112
围棋	-13113
平静	-13114
德华	-13115
报价	-13116
监狱	-13117
确切	-13118
结业	-13119
脱北	-13120
贵族	-13121
车队	-13122
马斯	-13123
鼓舞	-13124
112	-13125
Red	-13126
ima	-13127
▁两个	-13128
万公里	-13129
什么都	-13130
区议会	-13131
可提供	-13132
多晶硅	-13133
小时候	-13134
岁以下	-13135
性问题	-13136
打开了	-13137
投资和	-13138
月火剧	-13139
访问过	-13140
部部长	-13141
1996	-13142
ware	-13143
▁Air	-13144
▁保时捷	-13145
不得超过	-13146
产业灾害	-13147
农协银行	-13148
得到确认	-13149
朝鲜时代	-13150
而闻名的	-13151
自然灾害	-13152
败诉部分	-13153
预计将会	-13154
的中小企业	-13155
的情况较多	-13156
比任何时候都	-13157
选举法修正案	-13158
Netmarble	-13159
2、	-13160
Am	-13161
FA	-13162
会和	-13163
兼任	-13164
内在	-13165
几十	-13166
几年	-13167
套件	-13168
当年	-13169
渐渐	-13170
角形	-13171
评分	-13172
路的	-13173
邮递	-13174
删除了	-13175
劳动力	-13176
和首尔	-13177
商品性	-13178
度假村	-13179
据推测	-13180
最佳的	-13181
本研究	-13182
的前提	-13183
的能量	-13184
的面貌	-13185
那就是	-13186
领取者	-13187
首歌曲	-13188
Line	-13189
orce	-13190
一事表示	-13191
上获得了	-13192
不知不觉	-13193
其特点是	-13194
引进人才	-13195
有意义的	-13196
的民主党	-13197
积极应对	-13198
进行治疗	-13199
elvet	-13200
也可以使用	-13201
可能发生的	-13202
▁NAVER	-13203
的可能性很大	-13204
LD	-13205
主妇	-13206
功效	-13207
对我	-13208
或因	-13209
掀背	-13210
春季	-13211
正正	-13212
物种	-13213
矿物	-13214
说要	-13215
课长	-13216
迈克	-13217
逃避	-13218
销毁	-13219
.4%	-13220
270	-13221
▁新型	-13222
产品群	-13223
但通过	-13224
反而会	-13225
另外的	-13226
对相关	-13227
将超过	-13228
干事由	-13229
扩大对	-13230
的实验	-13231
艾滋病	-13232
英寸的	-13233
说的是	-13234
超大型	-13235
达不到	-13236
迎来第	-13237
韩国型	-13238
Show	-13239
live	-13240
令人遗憾	-13241
医院院长	-13242
可以设立	-13243
商用化的	-13244
好不容易	-13245
如果使用	-13246
平台企业	-13247
数字转换	-13248
正在成为	-13249
议员总会	-13250
输出功率	-13251
earch	-13252
▁Flip	-13253
是不可能的	-13254
▁Cloud	-13255
▁这就是为什么	-13256
TR	-13257
乳房	-13258
了约	-13259
写作	-13260
几次	-13261
大力	-13262
奖的	-13263
幽灵	-13264
湿度	-13265
的崔	-13266
等各	-13267
蕴含	-13268
迫在	-13269
遗症	-13270
黑人	-13271
HDC	-13272
、10	-13273
名员工	-13274
在今后	-13275
开发并	-13276
所学校	-13277
方针是	-13278
是能够	-13279
比现有	-13280
深深的	-13281
相对应	-13282
负担的	-13283
万辆汽车	-13284
减少趋势	-13285
定期存款	-13286
日举行了	-13287
相互合作	-13288
经济状况	-13289
这一点也	-13290
进行审查	-13291
道路交通	-13292
争先恐后地	-13293
应用程序中	-13294
把重点放在	-13295
薄膜晶体管	-13296
房地产投资信托	-13297
Mo	-13298
任用	-13299
升降	-13300
吉普	-13301
后方	-13302
国情	-13303
塔吊	-13304
宇航	-13305
带宽	-13306
接待	-13307
末端	-13308
民营	-13309
票据	-13310
进修	-13311
1.2	-13312
han	-13313
不仅会	-13314
不仅能	-13315
事务官	-13316
分钟的	-13317
参观者	-13318
向韩国	-13319
在上述	-13320
在实际	-13321
应该是	-13322
承认了	-13323
抗癌剂	-13324
是否是	-13325
最近因	-13326
次以上	-13327
电子在	-13328
的子女	-13329
的电话	-13330
轮胎的	-13331
.1%,	-13332
.1%。	-13333
1960	-13334
令人好奇	-13335
具有通过	-13336
投资公司	-13337
新国家党	-13338
计划进行	-13339
退休年金	-13340
成为了话题	-13341
ef	-13342
▁/	-13343
全境	-13344
国策	-13345
教导	-13346
标明	-13347
残酷	-13348
油门	-13349
烟草	-13350
约占	-13351
腹部	-13352
赵某	-13353
较弱	-13354
隔壁	-13355
呈阳性	-13356
地区和	-13357
多年的	-13358
年成立	-13359
的一年	-13360
的外观	-13361
许可的	-13362
设施及	-13363
赋予了	-13364
较小的	-13365
1994	-13366
以及其他	-13367
堂堂正正	-13368
家长们的	-13369
广播节目	-13370
用于制造	-13371
针锋相对	-13372
▁2011	-13373
引起了争议	-13374
所需的时间	-13375
万部	-13376
中未	-13377
乔治	-13378
人对	-13379
优越	-13380
名中	-13381
地皮	-13382
坚决	-13383
埃及	-13384
小于	-13385
尴尬	-13386
展台	-13387
巡航	-13388
惨败	-13389
搭配	-13390
收据	-13391
更具	-13392
牙山	-13393
的安	-13394
的张	-13395
的海	-13396
碎片	-13397
礼堂	-13398
脱落	-13399
驾照	-13400
DID	-13401
一季度	-13402
个班级	-13403
为特征	-13404
以实现	-13405
区内的	-13406
名左右	-13407
因斯坦	-13408
将运营	-13409
市民们	-13410
成立于	-13411
暗示了	-13412
现政府	-13413
的回答	-13414
的朋友	-13415
确认为	-13416
被揭发	-13417
该装置	-13418
调查权	-13419
.6%,	-13420
▁如果不	-13421
不断出现	-13422
世界各国	-13423
日为基准	-13424
生活保障	-13425
的销售量	-13426
▁此次活动	-13427
在新冠肺炎	-13428
汽车市场的	-13429
▁企划财政部	-13430
雇佣劳动部长官	-13431
公职者犯罪调查处	-13432
uz	-13433
▁海	-13434
一来	-13435
互选	-13436
亲戚	-13437
以高	-13438
几天	-13439
凯美	-13440
千瓦	-13441
味的	-13442
国有	-13443
守法	-13444
实感	-13445
年由	-13446
庆熙	-13447
形势	-13448
恐龙	-13449
抱怨	-13450
沙盒	-13451
眉睫	-13452
而使	-13453
蚊子	-13454
蚕室	-13455
裁决	-13456
车门	-13457
隐私	-13458
--"	-13459
ADA	-13460
nex	-13461
凯美瑞	-13462
和数据	-13463
咨询和	-13464
回来了	-13465
应该在	-13466
损失率	-13467
敏感的	-13468
无限制	-13469
权力的	-13470
求职者	-13471
症状的	-13472
的指示	-13473
.8%。	-13474
▁and	-13475
业界透露	-13476
处理设备	-13477
娱乐公司	-13478
小工商业	-13479
是否符合	-13480
毕业典礼	-13481
迫在眉睫	-13482
▁2015	-13483
任命或委任	-13484
保险公司的	-13485
出租车司机	-13486
加利福尼亚州	-13487
Coupang	-13488
▁本发明是关于在	-13489
主治	-13490
伴侣	-13491
低速	-13492
公营	-13493
共计	-13494
受阻	-13495
和我	-13496
惊喜	-13497
拓宽	-13498
拨号	-13499
服役	-13500
精巧	-13501
而成	-13502
设在	-13503
por	-13504
▁中心	-13505
▁值得	-13506
▁庆南	-13507
产业用	-13508
出口量	-13509
听课费	-13510
圣诞节	-13511
就已经	-13512
并提交	-13513
开始在	-13514
恢复到	-13515
是一家	-13516
的专业	-13517
的大脑	-13518
的此次	-13519
的爱情	-13520
的解释	-13521
管理局	-13522
请家长	-13523
请求权	-13524
运动场	-13525
音乐会	-13526
高强度	-13527
下列各号	-13528
使用时间	-13529
公职人员	-13530
物理学家	-13531
移动终端	-13532
维持雇佣	-13533
而设立的	-13534
进步阵营	-13535
集中精力	-13536
,2019	-13537
呈上升趋势	-13538
enture	-13539
▁本发明旨在	-13540
(=	-13541
pr	-13542
▁罗	-13543
之星	-13544
制备	-13545
厌恶	-13546
原油	-13547
归类	-13548
或与	-13549
或被	-13550
手工	-13551
甲状	-13552
的口	-13553
的白	-13554
花开	-13555
资讯	-13556
预订	-13557
IMF	-13558
OSS	-13559
ano	-13560
bps	-13561
ild	-13562
▁Qu	-13563
为了给	-13564
他们在	-13565
作品的	-13566
出入口	-13567
出演者	-13568
压力的	-13569
吃一惊	-13570
地球上	-13571
审判决	-13572
有效性	-13573
款各项	-13574
汽车等	-13575
的局面	-13576
等国家	-13577
自来水	-13578
记录在	-13579
逆变器	-13580
集中的	-13581
会长表示	-13582
信息娱乐	-13583
大吃一惊	-13584
密切关注	-13585
急剧下降	-13586
正在逐渐	-13587
纠纷调解	-13588
阻挠议事	-13589
enter	-13590
市长朴元淳	-13591
并不意味着	-13592
创下了历史最高	-13593
EU	-13594
▁长	-13595
上任	-13596
划定	-13597
如有	-13598
忠实	-13599
教堂	-13600
淫秽	-13601
焦虑	-13602
生气	-13603
电量	-13604
真理	-13605
芭蕾	-13606
谎言	-13607
铰链	-13608
音量	-13609
105	-13610
▁下面	-13611
不公正	-13612
动物的	-13613
历史的	-13614
并决定	-13615
应通过	-13616
延长到	-13617
彻底的	-13618
患者中	-13619
指导和	-13620
的温度	-13621
规模为	-13622
家电产品	-13623
政策室长	-13624
民生法案	-13625
特殊情况	-13626
的竞争力	-13627
相关规定	-13628
该事件的	-13629
隔离治疗	-13630
Drive	-13631
▁大众汽车	-13632
委员会委员	-13633
研究所所长	-13634
非常重要的	-13635
EQ	-13636
Le	-13637
▁近	-13638
一日	-13639
业余	-13640
伴随	-13641
侵入	-13642
内阁	-13643
放任	-13644
检体	-13645
硬盘	-13646
窥镜	-13647
童话	-13648
缘分	-13649
胃癌	-13650
航线	-13651
被指	-13652
装配	-13653
贴在	-13654
'、'	-13655
·18	-13656
▁大田	-13657
为了向	-13658
之一是	-13659
和现代	-13660
在国际	-13661
天线的	-13662
实效性	-13663
物体的	-13664
现行的	-13665
用口罩	-13666
第一代	-13667
营业店	-13668
落后于	-13669
该患者	-13670
轻量化	-13671
选举区	-13672
▁据预测	-13673
为了能够	-13674
地方财政	-13675
治疗药物	-13676
活性物质	-13677
虚假事实	-13678
非常感谢	-13679
ragon	-13680
▁锦湖轮胎	-13681
地方自治法	-13682
即将到来之际	-13683
清道大南医院	-13684
RP	-13685
RV	-13686
TT	-13687
VI	-13688
▁无	-13689
东北	-13690
剧团	-13691
合议	-13692
商家	-13693
坚实	-13694
支柱	-13695
机动	-13696
机密	-13697
殿堂	-13698
环形	-13699
粘附	-13700
螺旋	-13701
车站	-13702
闲置	-13703
降到	-13704
MRI	-13705
bot	-13706
low	-13707
▁平时	-13708
▁检方	-13709
作曲家	-13710
关系网	-13711
合法的	-13712
和环境	-13713
售价为	-13714
展现的	-13715
应努力	-13716
得出了	-13717
手术的	-13718
日报道	-13719
有机会	-13720
玩游戏	-13721
的主力	-13722
的症状	-13723
表决权	-13724
该产品	-13725
轿车和	-13726
mile	-13727
▁据报道	-13728
▁虽然在	-13729
另行规定	-13730
城市规划	-13731
最多可以	-13732
直接打击	-13733
领先地位	-13734
Block	-13735
ication	-13736
4,	-13737
▁,	-13738
不应	-13739
和各	-13740
售价	-13741
因果	-13742
学年	-13743
席卷	-13744
放下	-13745
敬老	-13746
机智	-13747
每秒	-13748
派出	-13749
火花	-13750
的受	-13751
监事	-13752
相册	-13753
神话	-13754
缝隙	-13755
至于	-13756
EUV	-13757
SMC	-13758
TOP	-13759
ies	-13760
ish	-13761
oli	-13762
▁该车	-13763
不久后	-13764
为促进	-13765
事业中	-13766
其他人	-13767
向国会	-13768
国民对	-13769
在光州	-13770
应制定	-13771
故事的	-13772
星巴克	-13773
显示了	-13774
条及第	-13775
水产品	-13776
的形状	-13777
耐克森	-13778
▁在中国	-13779
▁该项目	-13780
具有提高	-13781
创造新的	-13782
合作体系	-13783
存在问题	-13784
广为人知	-13785
提出要求	-13786
无线充电	-13787
此次事件	-13788
移动服务	-13789
表面上的	-13790
金融支援	-13791
韩国社会	-13792
黄代表的	-13793
▁友利银行	-13794
智能手机上	-13795
证券研究员	-13796
▁本方案涉及一种用于	-13797
▁朱	-13798
上端	-13799
亲身	-13800
充当	-13801
力度	-13802
即时	-13803
咸安	-13804
导线	-13805
将此	-13806
意料	-13807
招呼	-13808
日被	-13809
演说	-13810
热点	-13811
码头	-13812
种族	-13813
胚胎	-13814
讽刺	-13815
链路	-13816
错过	-13817
防灾	-13818
.3%	-13819
0.5	-13820
5%。	-13821
▁Ed	-13822
▁sh	-13823
▁其次	-13824
一起的	-13825
上发表	-13826
为实现	-13827
医生和	-13828
变动到	-13829
各地的	-13830
命名为	-13831
对国内	-13832
投资于	-13833
方程式	-13834
父母的	-13835
的顺序	-13836
评论家	-13837
LINE	-13838
ster	-13839
▁亚马逊	-13840
▁尽管有	-13841
中产生的	-13842
中出现了	-13843
也会增加	-13844
企业价值	-13845
入学考试	-13846
劳动者和	-13847
发光器件	-13848
同比增长	-13849
应对措施	-13850
所以不能	-13851
捕捉到了	-13852
月推出的	-13853
等进行了	-13854
韩国汽车	-13855
,2016	-13856
等相关法律	-13857
首席发言人	-13858
美中贸易纷争	-13859
▁Mobile	-13860
▁食品医药品安全处	-13861
ma	-13862
书院	-13863
交货	-13864
可将	-13865
外貌	-13866
尽早	-13867
开采	-13868
揭示	-13869
样式	-13870
气相	-13871
活着	-13872
特律	-13873
直升	-13874
退回	-13875
野外	-13876
金元	-13877
▁代表	-13878
▁法国	-13879
人工费	-13880
债券的	-13881
像现在	-13882
决定了	-13883
在自己	-13884
始兴市	-13885
应考虑	-13886
我们会	-13887
月推出	-13888
正在向	-13889
的不同	-13890
的不满	-13891
的折扣	-13892
的最终	-13893
的热情	-13894
秋美爱	-13895
ject	-13896
中央政府	-13897
大部分都	-13898
市场上的	-13899
当事人的	-13900
投票用纸	-13901
支配结构	-13902
教育机构	-13903
特别是在	-13904
▁Vision	-13905
▁Partners	-13906
五十	-13907
入职	-13908
分支	-13909
前列	-13910
印尼	-13911
变异	-13912
年糕	-13913
悬挂	-13914
揭开	-13915
晚餐	-13916
的重	-13917
等来	-13918
还对	-13919
违宪	-13920
迪士	-13921
,15	-13922
128	-13923
不同于	-13924
为了不	-13925
主义的	-13926
供应的	-13927
分析师	-13928
总统的	-13929
我所知	-13930
技术院	-13931
日发表	-13932
源代码	-13933
爱好者	-13934
的状况	-13935
的预测	-13936
研修院	-13937
药物的	-13938
警告说	-13939
计划向	-13940
rain	-13941
利率下调	-13942
劳动条件	-13943
官方网站	-13944
影响力的	-13945
方式进行	-13946
电视节目	-13947
需求增加	-13948
▁我们学校	-13949
价格竞争力	-13950
必不可少的	-13951
第一在野党	-13952
进一步加强	-13953
在议会选举中	-13954
Fintech	-13955
▁业界相关人士表示	-13956
DO	-13957
▁i	-13958
不绝	-13959
兄妹	-13960
击败	-13961
半径	-13962
叙事	-13963
外语	-13964
新曲	-13965
有名	-13966
水质	-13967
穿过	-13968
纯粹	-13969
解体	-13970
软银	-13971
过着	-13972
麻疹	-13973
6%,	-13974
▁Tr	-13975
▁个人	-13976
中可以	-13977
为宗旨	-13978
事务局	-13979
依赖度	-13980
并强调	-13981
成功地	-13982
款及第	-13983
水木剧	-13984
江陵市	-13985
输入的	-13986
迪士尼	-13987
金大中	-13988
食药处	-13989
分析结果	-13990
带薪休假	-13991
执政党和	-13992
支付对象	-13993
社会问题	-13994
育儿休假	-13995
还提出了	-13996
▁2020"	-13997
以无党派身份	-13998
利用人工智能	-13999
"3	-14000
Ac	-14001
▁成	-14002
一段	-14003
严厉	-14004
优良	-14005
会场	-14006
佛祖	-14007
免责	-14008
同级	-14009
名是	-14010
对新	-14011
梨花	-14012
波兰	-14013
进去	-14014
▁Li	-14015
▁党内	-14016
事业和	-14017
以应对	-14018
保持着	-14019
动力的	-14020
各样的	-14021
听取了	-14022
实用性	-14023
开始前	-14024
独立的	-14025
申请时	-14026
的材料	-14027
竞争的	-14028
蓄电池	-14029
衿川区	-14030
讨论的	-14031
赞助商	-14032
.7%,	-14033
Coin	-14034
▁市政府	-14035
二手车的	-14036
从而导致	-14037
提起诉讼	-14038
比现有的	-14039
民间企业	-14040
的危险性	-14041
角色扮演	-14042
这段时间	-14043
食物中毒	-14044
▁Tele	-14045
二次电池的	-14046
万韩元左右的	-14047
▁Motors	-14048
-4	-14049
AB	-14050
▁未	-14051
▁欲	-14052
▁说	-14053
不理	-14054
公州	-14055
决断	-14056
列为	-14057
参谋	-14058
句子	-14059
吃了	-14060
宏观	-14061
就职	-14062
战场	-14063
掌声	-14064
木材	-14065
画廊	-14066
目睹	-14067
老旧	-14068
金光	-14069
与普通	-14070
分播出	-14071
对政府	-14072
小企业	-14073
平台和	-14074
捕捉到	-14075
旧金山	-14076
检查后	-14077
的组合	-14078
等提供	-14079
等级的	-14080
美元的	-14081
许可证	-14082
试制品	-14083
高阳市	-14084
▁就这样	-14085
实际情况	-14086
提出意见	-14087
正在持续	-14088
相关资料	-14089
重新启动	-14090
《2019	-14091
万韩元以下	-14092
为中心进行	-14093
产业的发展	-14094
保健福祉部	-14095
可以容易地	-14096
的制造方法	-14097
还是未知数	-14098
手机应用程序	-14099
未来资产大宇	-14100
PR	-14101
Ph	-14102
下雨	-14103
不予	-14104
和郑	-14105
复仇	-14106
奉献	-14107
客运	-14108
帷幕	-14109
忠诚	-14110
显现	-14111
普利	-14112
李正	-14113
模样	-14114
欢笑	-14115
爷爷	-14116
.6%	-14117
anc	-14118
▁GM	-14119
▁济州	-14120
不接受	-14121
伟大的	-14122
体育会	-14123
出来了	-14124
前所未	-14125
和苹果	-14126
培养成	-14127
妻子的	-14128
教育费	-14129
有很大	-14130
的一次	-14131
程序等	-14132
维持了	-14133
质量和	-14134
频道的	-14135
食物的	-14136
高品质	-14137
1988	-14138
2024	-14139
事业领域	-14140
共同成长	-14141
得出结论	-14142
有可能被	-14143
正当理由	-14144
的公务员	-14145
进行一次	-14146
氢燃料电动汽车	-14147
UM	-14148
▁西	-14149
三天	-14150
分片	-14151
包围	-14152
双赢	-14153
孤立	-14154
对峙	-14155
帮我	-14156
接线	-14157
新作	-14158
时机	-14159
水泥	-14160
火力	-14161
火山	-14162
炫耀	-14163
缠绕	-14164
航班	-14165
贴纸	-14166
辩护	-14167
韩人	-14168
▁产业	-14169
与观众	-14170
出售给	-14171
危险性	-14172
和电子	-14173
就需要	-14174
常见的	-14175
手术室	-14176
收录了	-14177
收益的	-14178
稳定化	-14179
第一项	-14180
给大家	-14181
要求对	-14182
说明书	-14183
运营者	-14184
预计到	-14185
.3%,	-14186
40%。	-14187
▁他指出	-14188
抵制运动	-14189
网络游戏	-14190
能够防止	-14191
▁今年年初	-14192
国务总理丁世均	-14193
UT	-14194
▁让	-14195
万股	-14196
传承	-14197
全民	-14198
公主	-14199
准则	-14200
加分	-14201
吸气	-14202
员们	-14203
在本	-14204
夜晚	-14205
姐妹	-14206
平昌	-14207
情形	-14208
梦幻	-14209
正直	-14210
编号	-14211
而对	-14212
评委	-14213
财物	-14214
还向	-14215
金俊	-14216
All	-14217
DLS	-14218
the	-14219
yle	-14220
▁后来	-14221
不好的	-14222
休息室	-14223
伴随着	-14224
但也有	-14225
和学校	-14226
团体或	-14227
汽车用	-14228
的统计	-14229
聊天室	-14230
责任的	-14231
领先于	-14232
也得到了	-14233
先后顺序	-14234
大邱地区	-14235
宣布参加	-14236
汉阳大学	-14237
环境改善	-14238
电动马达	-14239
的外国人	-14240
相关法案	-14241
防疫工作	-14242
黑客攻击	-14243
ctive	-14244
▁虽然没有	-14245
委员会会议	-14246
Klaytn	-14247
电动汽车电池	-14248
▁Velvet	-14249
个人信息保护法	-14250
因新型冠状病毒感染症	-14251
5,	-14252
全党	-14253
共产	-14254
听觉	-14255
国军	-14256
无力	-14257
民意	-14258
灯和	-14259
等有	-14260
超人	-14261
边的	-14262
郁闷	-14263
red	-14264
ura	-14265
▁VR	-14266
从中国	-14267
优质的	-14268
其次是	-14269
内窥镜	-14270
卓越的	-14271
合同时	-14272
嘱咐道	-14273
学术界	-14274
将加强	-14275
并接受	-14276
必然会	-14277
成分的	-14278
推测为	-14279
的建设	-14280
范围的	-14281
认可的	-14282
速度和	-14283
配备有	-14284
附着在	-14285
零件的	-14286
less	-14287
▁Ass	-14288
停滞不前	-14289
收入主导	-14290
没有问题	-14291
由于没有	-14292
的消息后	-14293
良性循环	-14294
过程中的	-14295
适用对象	-14296
销售额和	-14297
长的时间	-14298
预计将在	-14299
健康保险费	-14300
在国内首次	-14301
太阳能发电	-14302
根据法律第	-14303
▁中央防疫对策本部	-14304
,'	-14305
AA	-14306
两者	-14307
产妇	-14308
以赴	-14309
会展	-14310
入门	-14311
凸显	-14312
出示	-14313
实惠	-14314
寄存	-14315
寿城	-14316
就读	-14317
恐慌	-14318
提名	-14319
林肯	-14320
源泉	-14321
独占	-14322
献身	-14323
第七	-14324
等而	-14325
等被	-14326
罪的	-14327
血症	-14328
衬底	-14329
车牌	-14330
长达	-14331
PEF	-14332
▁能够	-14333
不仅有	-14334
主张的	-14335
义务化	-14336
先进的	-14337
光刻胶	-14338
内容为	-14339
发送的	-14340
和改善	-14341
广泛的	-14342
引领了	-14343
归类为	-14344
总部的	-14345
意义的	-14346
方案的	-14347
方法是	-14348
有功者	-14349
比利时	-14350
留学生	-14351
目前在	-14352
私生活	-14353
简化了	-14354
1100	-14355
不能成为	-14356
业内人士	-14357
主要国家	-14358
人力资源	-14359
全力以赴	-14360
全面罢工	-14361
各不相同	-14362
对其进行	-14363
是正确的	-14364
议员们的	-14365
还补充道	-14366
KOSPI	-14367
▁一直以来	-14368
宣布不参加	-14369
金融市场的	-14370
新闻发布会上表示	-14371
UX	-14372
ty	-14373
伎俩	-14374
入选	-14375
共达	-14376
寺址	-14377
检讨	-14378
生死	-14379
跌至	-14380
钻石	-14381
高烧	-14382
黑匣	-14383
,17	-14384
2、3	-14385
ACK	-14386
CGV	-14387
ave	-14388
了自己	-14389
出货量	-14390
分配到	-14391
参赛者	-14392
发展为	-14393
可吸入	-14394
均匀的	-14395
大学和	-14396
完美地	-14397
并推进	-14398
我觉得	-14399
方向上	-14400
梦想和	-14401
那样的	-14402
部门和	-14403
隐藏的	-14404
.2%,	-14405
over	-14406
世界第一	-14407
但是随着	-14408
危险因素	-14409
能告诉我	-14410
还进行了	-14411
进行活动	-14412
通信网络	-14413
▁根据上述	-14414
是理所当然	-14415
委员的任期为	-14416
综合房地产税	-14417
而采取的措施	-14418
被判定为阳性	-14419
新冠病毒感染症	-14420
▁科学技术信息通讯部	-14421
TW	-14422
▁l	-14423
匈牙	-14424
同性	-14425
国道	-14426
宅地	-14427
心肺	-14428
手法	-14429
挽回	-14430
架构	-14431
某等	-14432
欢呼	-14433
神奇	-14434
紧固	-14435
茂朱	-14436
解说	-14437
走路	-14438
金明	-14439
雅尊	-14440
230	-14441
SKT	-14442
▁听说	-14443
▁在本	-14444
▁接受	-14445
个席位	-14446
事业团	-14447
产业中	-14448
人物的	-14449
全方位	-14450
利用该	-14451
失业率	-14452
导电性	-14453
岁男性	-14454
年推出	-14455
拥有者	-14456
文化和	-14457
有望在	-14458
的合同	-14459
要注意	-14460
车型中	-14461
返还给	-14462
金融业	-14463
问题上	-14464
1987	-14465
cess	-14466
ecur	-14467
iver	-14468
▁在没有	-14469
▁这是在	-14470
共销售了	-14471
在国内外	-14472
就业规则	-14473
工伤保险	-14474
所以很难	-14475
投资者们	-14476
曹国事态	-14477
洪前代表	-14478
环境保护	-14479
经济增长	-14480
经营困难	-14481
迅速应对	-14482
▁为了预防	-14483
DU	-14484
gy	-14485
人或	-14486
以与	-14487
原作	-14488
圣地	-14489
墓地	-14490
尹美	-14491
应与	-14492
总体	-14493
悉尼	-14494
打工	-14495
旋风	-14496
日间	-14497
时在	-14498
果实	-14499
瑞德	-14500
而非	-14501
评审	-14502
转折	-14503
...	-14504
ams	-14505
▁欧洲	-14506
不能再	-14507
不适用	-14508
保守派	-14509
关联性	-14510
向美国	-14511
巧克力	-14512
底特律	-14513
技术是	-14514
日期间	-14515
满足感	-14516
的传统	-14517
的宗旨	-14518
的电磁	-14519
的表面	-14520
的预算	-14521
等功能	-14522
计划对	-14523
该案件	-14524
东大门区	-14525
为了消除	-14526
尚未确定	-14527
感兴趣的	-14528
报道资料	-14529
控制单元	-14530
有望成为	-14531
生产工厂	-14532
的基础上	-14533
表明立场	-14534
还有很多	-14535
attro	-14536
在此过程中	-14537
放学后学校	-14538
政策委员会	-14539
曹候选人的	-14540
用智能手机	-14541
领域的专家	-14542
的相关人士表示	-14543
▁公司方面解释说	-14544
DT	-14545
PL	-14546
▁x	-14547
为使	-14548
向前	-14549
器材	-14550
岛屿	-14551
店的	-14552
探针	-14553
探险	-14554
机等	-14555
杨州	-14556
毒素	-14557
飞船	-14558
ELS	-14559
olt	-14560
▁同期	-14561
▁科技	-14562
▁迎接	-14563
为解决	-14564
主办方	-14565
主要是	-14566
丽大学	-14567
人力的	-14568
会通过	-14569
保留了	-14570
即使有	-14571
名工人	-14572
在现有	-14573
恩平区	-14574
是一项	-14575
是主要	-14576
机器的	-14577
来增加	-14578
电话的	-14579
符合第	-14580
詹姆斯	-14581
都无法	-14582
Mnet	-14583
▁tvN	-14584
不利因素	-14585
便利设施	-14586
公诉事实	-14587
就可以了	-14588
就能看到	-14589
年上半年	-14590
并非如此	-14591
期待通过	-14592
科学家们	-14593
感染新冠肺炎	-14594
Ed	-14595
uk	-14596
交纳	-14597
亿元	-14598
全校	-14599
各级	-14600
外伤	-14601
大概	-14602
布斯	-14603
常设	-14604
排队	-14605
掩饰	-14606
望远	-14607
术语	-14608
物资	-14609
的男	-14610
考生	-14611
论山	-14612
起初	-14613
逃跑	-14614
难题	-14615
101	-14616
ove	-14617
ual	-14618
▁仁川	-14619
▁蔚山	-14620
一对一	-14621
主导了	-14622
人士的	-14623
制作并	-14624
前市长	-14625
在印度	-14626
大家都	-14627
将努力	-14628
并支援	-14629
情报院	-14630
持续了	-14631
收集的	-14632
某表示	-14633
登场的	-14634
的小型	-14635
监视器	-14636
绊脚石	-14637
记录的	-14638
项目等	-14639
高度化	-14640
Home	-14641
两性平等	-14642
固定装置	-14643
年推出的	-14644
普遍认为	-14645
第一阶段	-14646
金属工会	-14647
以下简称为	-14648
例确诊患者	-14649
充满活力的	-14650
哈萨克斯坦	-14651
▁罗院内代表	-14652
国民之党代表	-14653
'"	-14654
▁具	-14655
一只	-14656
不必	-14657
人格	-14658
化物	-14659
卖家	-14660
哮喘	-14661
外形	-14662
多达	-14663
无机	-14664
日为	-14665
滑雪	-14666
电装	-14667
糟糕	-14668
纽带	-14669
追更	-14670
香气	-14671
.7%	-14672
▁该市	-14673
不会有	-14674
个领域	-14675
也变得	-14676
但还是	-14677
使用时	-14678
反应的	-14679
在越南	-14680
存在着	-14681
它们的	-14682
将面临	-14683
提起了	-14684
支持的	-14685
支援和	-14686
攻击性	-14687
法律上	-14688
消失的	-14689
现实中	-14690
的感性	-14691
研究了	-14692
聚集在	-14693
通报给	-14694
note	-14695
了自己的	-14696
做出决定	-14697
前一天的	-14698
反复出现	-14699
多种多样	-14700
委员长由	-14701
安全资产	-14702
最小化的	-14703
有所帮助	-14704
民事诉讼	-14705
油管博主	-14706
而做出的	-14707
而发生的	-14708
非法派遣	-14709
▁如果使用	-14710
具有优异的	-14711
▁Market	-14712
下端	-14713
严肃	-14714
享有	-14715
原州	-14716
又是	-14717
困扰	-14718
在即	-14719
开车	-14720
拖延	-14721
挂钩	-14722
楼有	-14723
海默	-14724
涂抹	-14725
点和	-14726
盖章	-14727
脸上	-14728
谈话	-14729
酒类	-14730
顶盒	-14731
预报	-14732
风暴	-14733
高空	-14734
▁决定	-14735
上显示	-14736
匈牙利	-14737
发放的	-14738
可享受	-14739
将适用	-14740
收入的	-14741
新城市	-14742
是我们	-14743
朴智元	-14744
的供应	-14745
的许可	-14746
研究会	-14747
研究者	-14748
第一步	-14749
能量的	-14750
需要时	-14751
以区块链	-14752
取得成果	-14753
在此期间	-14754
实态调查	-14755
引线框架	-14756
恶意利用	-14757
戴着口罩	-14758
数字货币	-14759
检测结果	-14760
油管频道	-14761
知识财产	-14762
表达了对	-14763
进行现场	-14764
财团理事长	-14765
全球金融危机	-14766
新冠肺炎事件	-14767
日本出口限制	-14768
比前一年增加了	-14769
▁自由韩国党代表黄教安	-14770
亲属	-14771
仍有	-14772
会期	-14773
估算	-14774
入伍	-14775
博拉	-14776
和韩	-14777
圣经	-14778
定子	-14779
家伙	-14780
浓缩	-14781
滚动	-14782
筹备	-14783
蜂窝	-14784
行走	-14785
.2%	-14786
125	-14787
ANG	-14788
IBK	-14789
▁朝鲜	-14790
但根据	-14791
入境者	-14792
分之二	-14793
医院等	-14794
和学生	-14795
因此与	-14796
在相关	-14797
型基金	-14798
将得到	-14799
就会被	-14800
希望在	-14801
当选的	-14802
征收的	-14803
持续到	-14804
是使用	-14805
是唯一	-14806
的公约	-14807
的支付	-14808
的身体	-14809
费用等	-14810
▁他强调	-14811
▁光州市	-14812
▁雪佛兰	-14813
什么事情	-14814
召开会议	-14815
外汇危机	-14816
居民参与	-14817
希望参加	-14818
摄像机的	-14819
新推出的	-14820
社长表示	-14821
华尔街日报	-14822
史无前例的	-14823
国政监查中	-14824
在首尔中区	-14825
▁阿	-14826
一辆	-14827
仅用	-14828
全年	-14829
反向	-14830
定额	-14831
尔蒙	-14832
往年	-14833
慰安	-14834
抒情	-14835
换算	-14836
某于	-14837
登山	-14838
谐振	-14839
财阀	-14840
金龙	-14841
麻浦	-14842
默认	-14843
▁以上	-14844
人以下	-14845
增值税	-14846
将再次	-14847
将开始	-14848
并可以	-14849
没有被	-14850
用轮胎	-14851
的釜山	-14852
直接向	-14853
第二款	-14854
等公司	-14855
而不会	-14856
认知度	-14857
诞生了	-14858
项目和	-14859
驱动器	-14860
▁Cha	-14861
▁KBS	-14862
▁从本月	-14863
个月以上	-14864
企业进行	-14865
制定对策	-14866
市场份额	-14867
日发表的	-14868
民间团体	-14869
的另一个	-14870
石油化学	-14871
▁2005	-14872
▁李院内代表	-14873
HP	-14874
修行	-14875
分量	-14876
在上	-14877
坚守	-14878
多台	-14879
执着	-14880
搬运	-14881
智恩	-14882
机和	-14883
李俊	-14884
标注	-14885
矩阵	-14886
祖先	-14887
税率	-14888
耐热	-14889
起重	-14890
面纱	-14891
GHz	-14892
一天内	-14893
一直对	-14894
不断地	-14895
为保护	-14896
为支援	-14897
代表和	-14898
优惠的	-14899
保持在	-14900
利率的	-14901
发表会	-14902
各自的	-14903
呈阴性	-14904
城北区	-14905
大家的	-14906
市议会	-14907
开启了	-14908
形成为	-14909
或使用	-14910
文件的	-14911
日星期	-14912
的成绩	-14913
精确地	-14914
聚集到	-14915
20%,	-14916
ward	-14917
上升到了	-14918
临时会议	-14919
产业振兴	-14920
仔细阅读	-14921
会员公司	-14922
保险合同	-14923
支援计划	-14924
无线网络	-14925
生物技术	-14926
这一部分	-14927
需要注意	-14928
,2009	-14929
一起进行的	-14930
分科委员会	-14931
可能会成为	-14932
呈下降趋势	-14933
奉俊昊导演	-14934
相当一部分	-14935
Digital	-14936
随着时间的推移	-14937
乡土	-14938
优待	-14939
但也	-14940
十四	-14941
和中	-14942
多件	-14943
字母	-14944
应从	-14945
恩京	-14946
招生	-14947
显然	-14948
暴增	-14949
此举	-14950
游行	-14951
牛顿	-14952
租借	-14953
稳固	-14954
网红	-14955
英文	-14956
议院	-14957
轻症	-14958
金炳	-14959
330	-14960
ogi	-14961
▁Me	-14962
▁开发	-14963
一直以	-14964
产业和	-14965
亿欧元	-14966
介绍的	-14967
克里斯	-14968
国情院	-14969
法司委	-14970
的学习	-14971
等技术	-14972
而成的	-14973
请填写	-14974
.8%,	-14975
3500	-14976
万韩元和	-14977
信用贷款	-14978
副总经理	-14979
十字路口	-14980
安全检查	-14981
很受欢迎	-14982
日进行的	-14983
最大扭矩	-14984
的新天地	-14985
的新概念	-14986
相对来说	-14987
能够成为	-14988
通过电话	-14989
,2008	-14990
▁2006	-14991
▁通过这些	-14992
orning	-14993
+"	-14994
2"	-14995
HC	-14996
PK	-14997
倒闭	-14998
喝酒	-14999
复兴	-15000
宰贤	-15001
底座	-15002
彼得	-15003
征用	-15004
排水	-15005
昆虫	-15006
明亮	-15007
更是	-15008
楼的	-15009
正门	-15010
江北	-15011
沉浸	-15012
流畅	-15013
淋巴	-15014
清廉	-15015
照看	-15016
着说	-15017
网关	-15018
背叛	-15019
跃升	-15020
重启	-15021
顶峰	-15022
320	-15023
75%	-15024
不清楚	-15025
世界杯	-15026
也正在	-15027
了解到	-15028
以减少	-15029
全部被	-15030
却没有	-15031
工艺的	-15032
的出口	-15033
的大量	-15034
继承了	-15035
销售商	-15036
障碍物	-15037
Tada	-15038
atic	-15039
不正之风	-15040
个以上的	-15041
也很重要	-15042
国内生产	-15043
安全性的	-15044
帮助他们	-15045
是有限的	-15046
进行审议	-15047
▁尤其是在	-15048
▁当天下午	-15049
排名第一的	-15050
粉丝见面会	-15051
在全国范围内	-15052
在首尔特别市	-15053
新型冠状病毒事件	-15054
国民之党代表安哲秀	-15055
iw	-15056
丁海	-15057
劣化	-15058
圆柱	-15059
娜拉	-15060
学问	-15061
尔德	-15062
悲剧	-15063
感叹	-15064
来往	-15065
构图	-15066
死于	-15067
盗窃	-15068
羡慕	-15069
茉莉	-15070
都以	-15071
顶部	-15072
,13	-15073
Mer	-15074
▁建设	-15075
事故的	-15076
会长在	-15077
公平委	-15078
共和国	-15079
太极旗	-15080
工程的	-15081
开关的	-15082
掀起了	-15083
摆脱了	-15084
改编案	-15085
断路器	-15086
昂贵的	-15087
是今年	-15088
月左右	-15089
有帮助	-15090
的原则	-15091
红十字	-15092
芯片的	-15093
记录簿	-15094
资料的	-15095
1991	-15096
Toss	-15097
▁提供了	-15098
位置信息	-15099
安全驾驶	-15100
有很多人	-15101
活动期间	-15102
环境污染	-15103
的发动机	-15104
福利中心	-15105
请家长们	-15106
进行销售	-15107
闭路电视	-15108
,2015	-15109
在短时间内	-15110
弹性劳动制	-15111
梨泰院夜店	-15112
沙特阿拉伯	-15113
舆论调查中	-15114
国会议员会馆	-15115
记者招待会上	-15116
金钟仁紧急对策委员会	-15117
下游	-15118
党务	-15119
后被	-15120
嘻哈	-15121
大赏	-15122
妇产	-15123
客车	-15124
射击	-15125
就被	-15126
山面	-15127
年纪	-15128
徽章	-15129
心痛	-15130
我要	-15131
旗帜	-15132
是第	-15133
标题	-15134
秀珍	-15135
起着	-15136
轴承	-15137
载流	-15138
运送	-15139
领袖	-15140
马山	-15141
pay	-15142
▁Cl	-15143
▁成为	-15144
专家的	-15145
中饰演	-15146
为依据	-15147
以违反	-15148
只要在	-15149
回来的	-15150
如果说	-15151
开始后	-15152
投票中	-15153
服务中	-15154
的人在	-15155
裁判所	-15156
设备等	-15157
设计了	-15158
lack	-15159
▁但如果	-15160
▁在这种	-15161
偶像组合	-15162
受到影响	-15163
地区内的	-15164
委员长在	-15165
定期会议	-15166
政治斗争	-15167
法务法人	-15168
赔偿责任	-15169
银行行长	-15170
unior	-15171
也可以进行	-15172
已经完成了	-15173
印刷电路板的	-15174
在首尔钟路区	-15175
日本帝国主义	-15176
Ne	-15177
互换	-15178
倍增	-15179
分化	-15180
到第	-15181
南方	-15182
印章	-15183
后在	-15184
地域	-15185
天文	-15186
定时	-15187
宥利	-15188
拉伸	-15189
文中	-15190
是我	-15191
李载	-15192
栖息	-15193
激励	-15194
激素	-15195
照料	-15196
甲烷	-15197
皮卡	-15198
着陆	-15199
联赛	-15200
聚变	-15201
腾讯	-15202
荣誉	-15203
补选	-15204
软骨	-15205
Pop	-15206
avi	-15207
ple	-15208
▁分析	-15209
业绩的	-15210
事业所	-15211
人员和	-15212
保持了	-15213
全面的	-15214
划时代	-15215
反驳说	-15216
应用了	-15217
慰安妇	-15218
日结束	-15219
比现在	-15220
空气中	-15221
触摸屏	-15222
还不到	-15223
透明性	-15224
Note	-15225
▁App	-15226
公司表示	-15227
发生火灾	-15228
慢性疾病	-15229
最终决定	-15230
核心协议	-15231
汽车相关	-15232
汽车销量	-15233
社会价值	-15234
COVID	-15235
▁保健当局	-15236
伦理委员会	-15237
检察机关改革	-15238
新天地大邱教会	-15239
OK	-15240
一流	-15241
不堪	-15242
为何	-15243
事宜	-15244
可向	-15245
向外	-15246
已与	-15247
是其	-15248
李英	-15249
洗碗	-15250
烟雾	-15251
礼山	-15252
罪行	-15253
而至	-15254
致辞	-15255
转弯	-15256
违约	-15257
锅炉	-15258
阐明	-15259
集的	-15260
Mac	-15261
own	-15262
▁每当	-15263
为扩大	-15264
吸尘器	-15265
和个人	-15266
和保护	-15267
和关闭	-15268
壳体的	-15269
家医院	-15270
将担任	-15271
将进入	-15272
年前的	-15273
引擎盖	-15274
指的是	-15275
每一个	-15276
比以前	-15277
炎热的	-15278
的专利	-15279
该条例	-15280
适合于	-15281
Auto	-15282
NAND	-15283
brid	-15284
care	-15285
制度改善	-15286
可以立即	-15287
售后服务	-15288
急剧上升	-15289
是世界上	-15290
的大企业	-15291
还公开了	-15292
长期疗养	-15293
▁庆尚南道	-15294
中可以看出	-15295
二手车市场	-15296
正式开始了	-15297
还可以通过	-15298
▁本发明公开了	-15299
有关负责人表示	-15300
在此次议会选举中	-15301
光谱	-15302
其为	-15303
利川	-15304
动荡	-15305
变焦	-15306
同等	-15307
品的	-15308
字节	-15309
对与	-15310
就达	-15311
成交	-15312
战的	-15313
扎根	-15314
捆绑	-15315
损耗	-15316
摄入	-15317
支票	-15318
斯汀	-15319
洞察	-15320
疟疾	-15321
的尹	-15322
磷酸	-15323
等候	-15324
胜达	-15325
臭氧	-15326
门的	-15327
防治	-15328
雨伞	-15329
雨水	-15330
静脉	-15331
irl	-15332
丁海寅	-15333
以便在	-15334
入住者	-15335
共享了	-15336
占全体	-15337
国民党	-15338
将无法	-15339
年再次	-15340
应当在	-15341
感染源	-15342
支出的	-15343
施加到	-15344
等世界	-15345
美联储	-15346
营业者	-15347
阿尔茨	-15348
非正规	-15349
▁LED	-15350
▁You	-15351
▁在这个	-15352
一半以上	-15353
中出现的	-15354
利率下降	-15355
品牌形象	-15356
均衡发展	-15357
平均每天	-15358
开始出现	-15359
成为可能	-15360
所以没有	-15361
汽车运输	-15362
社团法人	-15363
美国总统	-15364
让人好奇	-15365
通过多种	-15366
Happy	-15367
works	-15368
▁Cell	-15369
多文化家庭	-15370
必要时可以	-15371
的角度来看	-15372
首次公开了	-15373
高级公职者犯罪调查处	-15374
书法	-15375
交接	-15376
亨利	-15377
发售	-15378
和有	-15379
唤醒	-15380
坚硬	-15381
征求	-15382
忽略	-15383
抗争	-15384
掉了	-15385
是无	-15386
水上	-15387
汉堡	-15388
炎热	-15389
烦恼	-15390
物产	-15391
示例	-15392
股息	-15393
胎儿	-15394
讲堂	-15395
馆的	-15396
高档	-15397
,16	-15398
114	-15399
Aut	-15400
KAL	-15401
son	-15402
▁同一	-15403
不进行	-15404
依照第	-15405
创造的	-15406
在特定	-15407
培养出	-15408
审判论	-15409
将首次	-15410
很明显	-15411
战略的	-15412
改编为	-15413
教会的	-15414
教师的	-15415
时开始	-15416
是去年	-15417
有趣的	-15418
本月初	-15419
满足了	-15420
的对比	-15421
相联系	-15422
移交给	-15423
等业务	-15424
等嫌疑	-15425
都不能	-15426
青年们	-15427
非常好	-15428
GIST	-15429
大气污染	-15430
存储引擎	-15431
提供帮助	-15432
明年开始	-15433
明确规定	-15434
有所提高	-15435
生产企业	-15436
这个原因	-15437
这种现象	-15438
金融交易	-15439
20~30	-15440
uture	-15441
外国投资者	-15442
当天在国会	-15443
阿尔茨海默	-15444
▁naver	-15445
劳动福利公团	-15446
明年议会选举	-15447
主管部门负责人	-15448
包含上述内容的	-15449
vestment	-15450
1"	-15451
、"	-15452
上司	-15453
器具	-15454
左派	-15455
托盘	-15456
楠基	-15457
辣椒	-15458
这款	-15459
追击	-15460
金容	-15461
iOS	-15462
▁Se	-15463
▁未来	-15464
▁电池	-15465
▁管理	-15466
、20	-15467
一般的	-15468
也具有	-15469
低工资	-15470
体制的	-15471
和健康	-15472
咨询师	-15473
客户端	-15474
带动了	-15475
打破了	-15476
排放的	-15477
最早的	-15478
检测到	-15479
的象征	-15480
职员和	-15481
视频的	-15482
订阅者	-15483
评价的	-15484
赔偿金	-15485
足够的	-15486
阻止了	-15487
首播的	-15488
PHEV	-15489
icon	-15490
▁机器人	-15491
也获得了	-15492
事故处理	-15493
泛执政圈	-15494
设施管理	-15495
评价结果	-15496
质量管理	-15497
选举制度	-15498
隔离措施	-15499
韩进集团	-15500
▁韩泰轮胎	-15501
京畿道知事	-15502
在内的所有	-15503
经济增长率	-15504
颁奖典礼上	-15505
在世界上首次	-15506
比例联合政党	-15507
▁本发明的课题是	-15508
不上	-15509
不符	-15510
交往	-15511
初次	-15512
又有	-15513
古代	-15514
善意	-15515
学堂	-15516
并购	-15517
总数	-15518
断开	-15519
榜单	-15520
烧毁	-15521
眼前	-15522
短的	-15523
磁盘	-15524
简洁	-15525
血浆	-15526
衰竭	-15527
诠释	-15528
重的	-15529
金智	-15530
隔膜	-15531
面膜	-15532
预料	-15533
Sol	-15534
ene	-15535
ole	-15536
out	-15537
▁如此	-15538
▁顾客	-15539
储存在	-15540
包括了	-15541
和演员	-15542
国家和	-15543
在正式	-15544
子女们	-15545
展示的	-15546
并努力	-15547
并正在	-15548
打招呼	-15549
是中国	-15550
朴议员	-15551
的新生	-15552
矛盾的	-15553
第三位	-15554
等影响	-15555
荷尔蒙	-15556
见到的	-15557
连日来	-15558
郑义宣	-15559
银行等	-15560
▁该条例	-15561
优先考虑	-15562
保险商品	-15563
咨询公司	-15564
就业支援	-15565
履行职务	-15566
工作场所	-15567
租赁合同	-15568
纽约时报	-15569
肺炎症状	-15570
转移到了	-15571
韩国电力	-15572
tuber	-15573
▁其宗旨是	-15574
之间的距离	-15575
在本发明中	-15576
大邱广域市	-15577
规模最大的	-15578
▁Enter	-15579
令人印象深刻	-15580
朴槿惠前总统	-15581
此次议会选举	-15582
拉斯维加斯举行的	-15583
等离子体显示面板	-15584
,“	-15585
6,	-15586
丹麦	-15587
主播	-15588
公休	-15589
原状	-15590
名分	-15591
捐助	-15592
月向	-15593
杂音	-15594
标赛	-15595
校区	-15596
核酸	-15597
生理	-15598
私有	-15599
翰林	-15600
要员	-15601
辨别	-15602
重于	-15603
韩医	-15604
DMB	-15605
EXO	-15606
▁面对	-15607
仪表板	-15608
决定从	-15609
参观了	-15610
受害人	-15611
和信息	-15612
媒体的	-15613
就业者	-15614
很强的	-15615
新材料	-15616
日为准	-15617
是世界	-15618
最近以	-15619
活动费	-15620
的倾向	-15621
的整体	-15622
试运行	-15623
那么在	-15624
锦标赛	-15625
领导力	-15626
1700	-15627
▁Day	-15628
▁该发明	-15629
中美贸易	-15630
听证会上	-15631
大国家党	-15632
峨山医院	-15633
应该通过	-15634
快速增长	-15635
联邦储备	-15636
规则规定	-15637
通信技术	-15638
道教育厅	-15639
铁道工会	-15640
预计今后	-15641
发生的事情	-15642
的研究结果	-15643
而成为话题	-15644
新冠肺炎感染	-15645
中所	-15646
乳酸	-15647
以不	-15648
倒塌	-15649
四季	-15650
增殖	-15651
尺度	-15652
工地	-15653
年多	-15654
治理	-15655
画家	-15656
西兰	-15657
购置	-15658
跌幅	-15659
郑俊	-15660
长和	-15661
▁公共	-15662
▁采用	-15663
▁随后	-15664
也为了	-15665
制造了	-15666
可以由	-15667
将集中	-15668
平均值	-15669
平等的	-15670
有关联	-15671
检查了	-15672
洪楠基	-15673
状况室	-15674
犹太人	-15675
生物学	-15676
的反对	-15677
的姿态	-15678
的审议	-15679
的独立	-15680
的颜色	-15681
等情况	-15682
而且对	-15683
虽然对	-15684
责任官	-15685
起诉了	-15686
▁Ins	-15687
▁江原道	-15688
事务局长	-15689
保持距离	-15690
名以内的	-15691
意义重大	-15692
截至目前	-15693
执行计划	-15694
正义记忆	-15695
非常严重	-15696
预计今年	-15697
高质量的	-15698
POSCO	-15699
▁2007	-15700
之间的矛盾	-15701
其目的在于	-15702
无党派人士	-15703
地方自治团体的	-15704
▁该条例旨在根据	-15705
代工	-15706
保密	-15707
土豆	-15708
届时	-15709
当期	-15710
恒达	-15711
拥抱	-15712
机票	-15713
河泰	-15714
灿烂	-15715
独创	-15716
跳板	-15717
额度	-15718
650	-15719
KTX	-15720
Win	-15721
▁to	-15722
万人的	-15723
不会对	-15724
了出来	-15725
会带来	-15726
传送到	-15727
光明市	-15728
再开发	-15729
发挥着	-15730
和政策	-15731
咨询等	-15732
多年来	-15733
妇产科	-15734
实体店	-15735
工艺中	-15736
桑德斯	-15737
的巨大	-15738
的死亡	-15739
的法案	-15740
的活跃	-15741
的精神	-15742
进行过	-15743
违法的	-15744
通信的	-15745
防护服	-15746
取得成功	-15747
服务质量	-15748
被告人的	-15749
被告承担	-15750
要求事项	-15751
酒后驾驶	-15752
釜山工厂	-15753
产生的影响	-15754
万亿韩元规模的	-15755
kakaotalk	-15756
3"	-15757
▁元	-15758
东江	-15759
产后	-15760
刑罚	-15761
初级	-15762
可信	-15763
咽喉	-15764
尔顿	-15765
山区	-15766
推举	-15767
搁置	-15768
民法	-15769
炼油	-15770
独裁	-15771
猛烈	-15772
疯狂	-15773
要对	-15774
足足	-15775
车顶	-15776
郑梦	-15777
野心	-15778
,24	-15779
Cor	-15780
亲朴派	-15781
但对于	-15782
修改了	-15783
其职务	-15784
原因的	-15785
发放了	-15786
在我们	-15787
在英国	-15788
学习和	-15789
实质性	-15790
将全部	-15791
将制定	-15792
张专辑	-15793
当然职	-15794
推迟到	-15795
机构和	-15796
机顶盒	-15797
比之前	-15798
比普通	-15799
百货店	-15800
的关心	-15801
的外部	-15802
的最新	-15803
等作为	-15804
级轿车	-15805
脑中风	-15806
被怀疑	-15807
被确认	-15808
选择权	-15809
通过以	-15810
70%。	-15811
▁for	-15812
他们认为	-15813
信息公开	-15814
候选物质	-15815
偏转线圈	-15816
国立中央	-15817
大量生产	-15818
客服中心	-15819
宣传大使	-15820
指纹识别	-15821
替代方案	-15822
正在扩散	-15823
现代产业	-15824
积极支援	-15825
而被起诉	-15826
韩国市场	-15827
quare	-15828
▁经纪公司	-15829
区厅长可以	-15830
▁区厅长根据	-15831
首尔市教育厅	-15832
▁本发明涉及一种使用	-15833
BP	-15834
SH	-15835
上是	-15836
偏爱	-15837
名和	-15838
山火	-15839
巴斯	-15840
投放	-15841
掺杂	-15842
明白	-15843
暂定	-15844
流浪	-15845
甚远	-15846
立足	-15847
而出	-15848
蜘蛛	-15849
裁量	-15850
西韦	-15851
追溯	-15852
高额	-15853
Pod	-15854
▁原本	-15855
▁如今	-15856
不安感	-15857
与日本	-15858
专业的	-15859
两天的	-15860
二进制	-15861
做好了	-15862
变得更	-15863
在位于	-15864
声音的	-15865
教育法	-15866
有兴趣	-15867
的特色	-15868
的行驶	-15869
知道的	-15870
认同感	-15871
设施中	-15872
路由器	-15873
还强调	-15874
port	-15875
为了通过	-15876
但是如果	-15877
如果不是	-15878
实行每周	-15879
家庭成员	-15880
意见分歧	-15881
支援方案	-15882
早期发现	-15883
月举行的	-15884
比前一天	-15885
特别会计	-15886
瑞德西韦	-15887
经营者总	-15888
资料显示	-15889
防止由于	-15890
droid	-15891
地方警察厅	-15892
系统和方法	-15893
雇佣维持支援金	-15894
BT	-15895
Ga	-15896
但其	-15897
偷偷	-15898
各处	-15899
合算	-15900
和安	-15901
善英	-15902
弱者	-15903
抱负	-15904
揽胜	-15905
支厅	-15906
数次	-15907
无形	-15908
日因	-15909
正宇	-15910
福音	-15911
转速	-15912
送达	-15913
.1%	-15914
KOR	-15915
Rob	-15916
Ste	-15917
ana	-15918
ios	-15919
▁on	-15920
▁从各	-15921
▁受托	-15922
▁浦项	-15923
包括该	-15924
协议书	-15925
只要有	-15926
后面的	-15927
和处理	-15928
和釜山	-15929
在那里	-15930
坚实的	-15931
并支持	-15932
开设的	-15933
必须向	-15934
支持层	-15935
的差异	-15936
等地区	-15937
解除了	-15938
这个词	-15939
这本书	-15940
陌生的	-15941
1900	-15942
Mate	-15943
▁Cor	-15944
中包含了	-15945
价格下降	-15946
各个领域	-15947
同时使用	-15948
拍摄现场	-15949
日推出了	-15950
根据情况	-15951
流行音乐	-15952
电子通信	-15953
社会对话	-15954
积极进行	-15955
第一位的	-15956
美国政府	-15957
而努力的	-15958
进入国会	-15959
中心举行的	-15960
奠定了基础	-15961
的现代汽车	-15962
进行了检查	-15963
委员长在内的	-15964
智能手机市场	-15965
涉及一种用于	-15966
▁Capital	-15967
▁公平交易委员会	-15968
Ah	-15969
们也	-15970
削弱	-15971
复用	-15972
外围	-15973
带状	-15974
报销	-15975
掉落	-15976
是被	-15977
柳时	-15978
歉意	-15979
的赵	-15980
石的	-15981
祝福	-15982
等将	-15983
索里	-15984
资助	-15985
量刑	-15986
防范	-15987
饲料	-15988
met	-15989
▁On	-15990
▁发生	-15991
债权团	-15992
和生产	-15993
基本的	-15994
对所有	-15995
彭博社	-15996
微波炉	-15997
晋升为	-15998
水原市	-15999
济州市	-16000
游乐场	-16001
的冲击	-16002
继承人	-16003
装置及	-16004
邀请了	-16005
问题和	-16006
限制在	-16007
▁但据悉	-16008
一个月的	-16009
不断扩大	-16010
事业计划	-16011
产业协会	-16012
免费使用	-16013
可以作为	-16014
可以理解	-16015
心肌梗塞	-16016
日本经济	-16017
欧洲市场	-16018
的地方是	-16019
的所有权	-16020
积极支持	-16021
移动通讯	-16022
立场来看	-16023
网络社区	-16024
而制定的	-16025
说唱歌手	-16026
负压病房	-16027
除此之外	-16028
需求调查	-16029
预防教育	-16030
,2010	-16031
劳动基准法	-16032
检察机关的	-16033
海洋水产部	-16034
电动汽车和	-16035
社会关系网	-16036
经验为基础	-16037
进一步增加	-16038
环境劳动委员会	-16039
▁卢	-16040
乙烯	-16041
五个	-16042
伽倻	-16043
千名	-16044
均馆	-16045
坐着	-16046
字体	-16047
导弹	-16048
开来	-16049
愿景	-16050
摩根	-16051
浮动	-16052
温馨	-16053
用来	-16054
盒饭	-16055
立案	-16056
红灯	-16057
行程	-16058
见过	-16059
说出	-16060
走上	-16061
Met	-16062
enn	-16063
中型车	-16064
也就是	-16065
也很高	-16066
几个月	-16067
分别以	-16068
大众化	-16069
完成后	-16070
对其他	-16071
将开发	-16072
将立即	-16073
延寿区	-16074
流下了	-16075
特定的	-16076
目标的	-16077
立场是	-16078
第三个	-16079
考虑了	-16080
聚集的	-16081
药剂师	-16082
锂电池	-16083
1993	-16084
价上限制	-16085
公开表示	-16086
室内装饰	-16087
振兴公团	-16088
据我所知	-16089
整形外科	-16090
智能家居	-16091
稳定性和	-16092
美国市场	-16093
而开发的	-16094
饮食习惯	-16095
数字化转型	-16096
深刻的印象	-16097
环境研究院	-16098
范围扩大到	-16099
产生负面影响	-16100
7~	-16101
OL	-16102
一大	-16103
不幸	-16104
专卖	-16105
充值	-16106
光阳	-16107
再选	-16108
凹槽	-16109
区政	-16110
卡的	-16111
后代	-16112
实在	-16113
差价	-16114
常数	-16115
强奸	-16116
每隔	-16117
火星	-16118
申东	-16119
礼品	-16120
立刻	-16121
脑炎	-16122
脖子	-16123
苛刻	-16124
让其	-16125
路透	-16126
辱骂	-16127
过剩	-16128
道理	-16129
金京	-16130
PCR	-16131
交通费	-16132
人生的	-16133
会见了	-16134
但是从	-16135
供应网	-16136
依次为	-16137
关系到	-16138
净水器	-16139
合并为	-16140
建造的	-16141
开发及	-16142
指出的	-16143
控制和	-16144
最高值	-16145
未来型	-16146
演出场	-16147
熟悉的	-16148
画面的	-16149
的工厂	-16150
能够将	-16151
营业所	-16152
课程的	-16153
1989	-16154
KIST	-16155
TSMC	-16156
tele	-16157
上半年的	-16158
不会发生	-16159
中心主任	-16160
无法进行	-16161
月上市的	-16162
还出现了	-16163
进行分类	-16164
,2011	-16165
ivoli	-16166
进行了讨论	-16167
opping	-16168
发展做出贡献	-16169
根据本发明的	-16170
中小企业中央会	-16171
院内代表沈在哲	-16172
DD	-16173
EP	-16174
GC	-16175
NI	-16176
三成	-16177
不适	-16178
从小	-16179
代言	-16180
公顷	-16181
初步	-16182
取向	-16183
吉他	-16184
型和	-16185
大乱	-16186
头上	-16187
家务	-16188
层间	-16189
年华	-16190
微弱	-16191
搭建	-16192
收听	-16193
时限	-16194
杜绝	-16195
枯竭	-16196
的姜	-16197
秀彬	-16198
等时	-16199
路边	-16200
透射	-16201
金承	-16202
黑洞	-16203
104	-16204
为了与	-16205
为培养	-16206
以去年	-16207
企业将	-16208
传播的	-16209
体验馆	-16210
保护膜	-16211
分布式	-16212
和内容	-16213
埃博拉	-16214
就必须	-16215
居首位	-16216
工作了	-16217
很高兴	-16218
意见的	-16219
烘干机	-16220
空间和	-16221
等都是	-16222
老人的	-16223
芭蕾舞	-16224
荧光灯	-16225
过去了	-16226
过多的	-16227
阿尔法	-16228
马拉松	-16229
▁NHN	-16230
▁环境部	-16231
为了纪念	-16232
主治医生	-16233
值得期待	-16234
前副社长	-16235
千万韩元	-16236
如果不能	-16237
成长动力	-16238
是否违反	-16239
网上商城	-16240
讲述的是	-16241
▁Cont	-16242
可能会发生	-16243
外卖的民族	-16244
明年上半年	-16245
第二季度的	-16246
亿韩元以上的	-16247
合作伙伴关系	-16248
研究结果表明	-16249
coupang	-16250
▁共同民主党议员	-16251
▁在当天的节目中	-16252
Gi	-16253
一夜	-16254
几何	-16255
劳斯	-16256
在中	-16257
废气	-16258
心跳	-16259
惊悚	-16260
斯顿	-16261
李光	-16262
白血	-16263
脉络	-16264
血清	-16265
解读	-16266
这将	-16267
迪斯	-16268
键合	-16269
闵庚	-16270
109	-16271
Ins	-16272
RAM	-16273
lov	-16274
ody	-16275
▁学生	-16276
乘车感	-16277
也只能	-16278
人才的	-16279
以此次	-16280
克服了	-16281
创建的	-16282
员工的	-16283
在地区	-16284
委员和	-16285
将案件	-16286
将追加	-16287
将重新	-16288
并扩大	-16289
本身的	-16290
的不良	-16291
的心态	-16292
的案件	-16293
的歌词	-16294
科学院	-16295
等产品	-16296
面包车	-16297
不利影响	-16298
书面形式	-16299
从现有的	-16300
候选人和	-16301
全球变暖	-16302
公有财产	-16303
大幅上涨	-16304
很久以前	-16305
携手合作	-16306
施工现场	-16307
日公布的	-16308
智能农场	-16309
注意事项	-16310
结算服务	-16311
要求进行	-16312
计划今年	-16313
计划利用	-16314
进行说明	-16315
Model	-16316
▁2012	-16317
人权委员会	-16318
低廉的价格	-16319
区块链平台	-16320
脑血管疾病	-16321
进口车市场	-16322
量身定做的	-16323
参加议会选举	-16324
成为热门话题	-16325
日发布公告称	-16326
GX	-16327
严惩	-16328
伤亡	-16329
借款	-16330
光顾	-16331
党籍	-16332
分多	-16333
加算	-16334
商议	-16335
垫片	-16336
外面	-16337
奥林	-16338
宽松	-16339
尼斯	-16340
总线	-16341
折射	-16342
摄氏	-16343
本厅	-16344
灵堂	-16345
等非	-16346
船员	-16347
通孔	-16348
饰品	-16349
256	-16350
5%,	-16351
iel	-16352
ina	-16353
pha	-16354
ull	-16355
▁人类	-16356
▁技术	-16357
不一致	-16358
中委任	-16359
中就有	-16360
劳动法	-16361
地面波	-16362
尹美香	-16363
巩固了	-16364
并敦促	-16365
抗病毒	-16366
是否为	-16367
概念的	-16368
正确地	-16369
的妻子	-16370
的步伐	-16371
管理员	-16372
英格兰	-16373
通讯员	-16374
问题等	-16375
ando	-16376
▁可以在	-16377
值得信赖	-16378
多岁人群	-16379
投资心理	-16380
新型冠状	-16381
现在开始	-16382
电动滑板	-16383
立法预告	-16384
竞争车型	-16385
韩流明星	-16386
,2014	-16387
Power	-16388
密切接触者	-16389
等多个领域	-16390
装置和方法	-16391
▁Coupe	-16392
▁本规则旨在	-16393
收入主导增长	-16394
新冠肺炎病毒	-16395
电动汽车充电	-16396
▁Service	-16397
:“	-16398
HR	-16399
一山	-16400
伊斯	-16401
光复	-16402
市值	-16403
抛弃	-16404
新颖	-16405
权者	-16406
热衷	-16407
置之	-16408
起步	-16409
转正	-16410
问世	-16411
间距	-16412
领头	-16413
ERP	-16414
▁CN	-16415
▁Up	-16416
▁确认	-16417
中加入	-16418
中国人	-16419
企划团	-16420
但可以	-16421
反映出	-16422
名护士	-16423
大换血	-16424
寒冷的	-16425
并具有	-16426
教授的	-16427
数据包	-16428
方式和	-16429
派出所	-16430
爆发性	-16431
现象的	-16432
的义务	-16433
的优势	-16434
的收入	-16435
的歌手	-16436
相对于	-16437
等组成	-16438
遇到的	-16439
1992	-16440
人事调动	-16441
传感器和	-16442
区块链的	-16443
医院方面	-16444
安全教育	-16445
实际上是	-16446
工作环境	-16447
我们认为	-16448
所有人的	-16449
按键电话	-16450
活动现场	-16451
海外股票	-16452
爆发性的	-16453
稳定性的	-16454
这种趋势	-16455
部分变更	-16456
2019"	-16457
itter	-16458
▁Labs	-16459
▁bank	-16460
共同开发的	-16461
所需的费用	-16462
ithumb	-16463
▁World	-16464
▁有评价认为	-16465
在一定程度上	-16466
给我推荐一下	-16467
ecurity	-16468
▁Health	-16469
移动通信终端的	-16470
Hi	-16471
ah	-16472
go	-16473
ye	-16474
yt	-16475
▁同	-16476
▁给	-16477
人文	-16478
内侧	-16479
刑警	-16480
勃勃	-16481
和小	-16482
圆筒	-16483
定量	-16484
崛起	-16485
希腊	-16486
急于	-16487
恶魔	-16488
援引	-16489
散射	-16490
更低	-16491
有无	-16492
根廷	-16493
概括	-16494
沟槽	-16495
清单	-16496
玩耍	-16497
男孩	-16498
疏远	-16499
私营	-16500
签字	-16501
精心	-16502
肉类	-16503
跨越	-16504
轮车	-16505
陈情	-16506
,50	-16507
▁NC	-16508
▁进行	-16509
一系列	-16510
万多人	-16511
云游戏	-16512
交换了	-16513
人家庭	-16514
以今年	-16515
公司将	-16516
制动器	-16517
和国家	-16518
和扩大	-16519
固定的	-16520
图像的	-16521
在移动	-16522
基因组	-16523
年代初	-16524
应该以	-16525
无接触	-16526
月通过	-16527
期限制	-16528
的经历	-16529
的观众	-16530
的错误	-16531
等尖端	-16532
该医院	-16533
面板的	-16534
40%,	-16535
60%。	-16536
back	-16537
star	-16538
不能接受	-16539
个小时的	-16540
主题演讲	-16541
之间进行	-16542
也会出现	-16543
控制电路	-16544
由委员长	-16545
的方法及	-16546
研究小组	-16547
研究机关	-16548
自愿退休	-16549
院长表示	-16550
▁委员会的	-16551
可以有效地	-16552
▁Power	-16553
▁行政安全部	-16554
具有代表性的	-16555
基础设施建设	-16556
▁疾病管理本部表示	-16557
EF	-16558
VM	-16559
gr	-16560
中标	-16561
争吵	-16562
先天	-16563
动了	-16564
勒索	-16565
台阶	-16566
向着	-16567
固然	-16568
增幅	-16569
峰会	-16570
拿走	-16571
握手	-16572
摆出	-16573
教训	-16574
李京	-16575
海边	-16576
真人	-16577
编排	-16578
诗人	-16579
购入	-16580
阴谋	-16581
限时	-16582
骨文	-16583
▁反而	-16584
▁地区	-16585
▁支持	-16586
与之前	-16587
中央党	-16588
优雅的	-16589
公司等	-16590
农作物	-16591
发送给	-16592
可使用	-16593
后遗症	-16594
将起到	-16595
手机上	-16596
批准了	-16597
方式是	-16598
无关的	-16599
普及型	-16600
更好地	-16601
电视和	-16602
男性的	-16603
的公推	-16604
自由地	-16605
自适应	-16606
被提及	-16607
转折点	-16608
轻型车	-16609
预计在	-16610
Zero	-16611
▁与去年	-16612
▁其结果	-16613
传染病的	-16614
免费检查	-16615
出身人士	-16616
初选议员	-16617
年代中期	-16618
建立一个	-16619
必须得到	-16620
接连发生	-16621
日被确诊	-16622
朴前总统	-16623
没有参加	-16624
疫苗接种	-16625
的新技术	-16626
研究成果	-16627
计算机的	-16628
逐渐减少	-16629
Micro	-16630
ogiyo	-16631
▁2013	-16632
▁2014	-16633
▁大韩航空	-16634
▁韩国通用	-16635
有可能出现	-16636
Avante	-16637
▁仁川广域市	-16638
在首尔江南区	-16639
有机发光二极管	-16640
▁Networks	-16641
IZ	-16642
▁“	-16643
主唱	-16644
会因	-16645
出乎	-16646
在有	-16647
妹妹	-16648
孝子	-16649
官的	-16650
市和	-16651
带到	-16652
当今	-16653
忙于	-16654
探访	-16655
散步	-16656
每种	-16657
盈余	-16658
秀智	-16659
粪便	-16660
自称	-16661
较量	-16662
金堤	-16663
首要	-16664
ica	-16665
▁ST	-16666
▁双方	-16667
个性的	-16668
中发生	-16669
会自动	-16670
但今年	-16671
像这样	-16672
全息图	-16673
和宝马	-16674
和视频	-16675
将如何	-16676
快速地	-16677
本月末	-16678
比率为	-16679
消防署	-16680
的全部	-16681
的原理	-16682
的味道	-16683
的阶段	-16684
童子军	-16685
而备受	-16686
路透社	-16687
餐饮业	-16688
ETRI	-16689
OTRA	-16690
TECH	-16691
▁我们的	-16692
一直处于	-16693
内科教授	-16694
去年为止	-16695
可以确保	-16696
和民主党	-16697
大部分是	-16698
本方案中	-16699
汽车配件	-16700
生产基地	-16701
的时间内	-16702
美国国内	-16703
通过抽签	-16704
销售价格	-16705
▁plus	-16706
咨询委员会	-16707
因新冠疫情	-16708
将重点放在	-16709
很大的作用	-16710
的情况很多	-16711
耐克森轮胎	-16712
调查权调整	-16713
KS	-16714
nm	-16715
▁而	-16716
之夜	-16717
光灯	-16718
千万	-16719
如实	-16720
学的	-16721
导向	-16722
带的	-16723
年与	-16724
怪物	-16725
拥护	-16726
旅程	-16727
暴雨	-16728
港湾	-16729
煽动	-16730
特许	-16731
玫瑰	-16732
的文	-16733
瞩目	-16734
精英	-16735
约束	-16736
绘画	-16737
膀胱	-16738
西欧	-16739
谢谢	-16740
那一	-16741
阶梯	-16742
Bit	-16743
Kor	-16744
RNA	-16745
oad	-16746
▁大型	-16747
业务上	-16748
亮起了	-16749
人中有	-16750
以至于	-16751
以韩国	-16752
但因为	-16753
保险丝	-16754
具有在	-16755
创立了	-16756
力量和	-16757
和子女	-16758
咨询团	-16759
就这样	-16760
应事先	-16761
恋爱的	-16762
日上映	-16763
明确地	-16764
有责任	-16765
法律和	-16766
环保型	-16767
甲骨文	-16768
的人性	-16769
花开时	-16770
营养素	-16771
该活动	-16772
还将在	-16773
高度的	-16774
高效率	-16775
Open	-16776
▁Nex	-16777
▁为了在	-16778
▁如果您	-16779
▁无论是	-16780
他解释说	-16781
健康状态	-16782
出现异常	-16783
发生冲突	-16784
只不过是	-16785
基板上的	-16786
如果发生	-16787
技术革新	-16788
政务首席	-16789
教育内容	-16790
教育福利	-16791
空间信息	-16792
职业棒球	-16793
以人工智能	-16794
本部长表示	-16795
的教育活动	-16796
Android	-16797
文化体育观光部	-16798
ML	-16799
Sw	-16800
作威	-16801
元老	-16802
吉利	-16803
启示	-16804
哪种	-16805
困惑	-16806
封面	-16807
推理	-16808
比如	-16809
江东	-16810
病的	-16811
的山	-16812
缓助	-16813
聚餐	-16814
辆的	-16815
银河	-16816
ANK	-16817
▁同年	-16818
▁大宇	-16819
上升的	-16820
不同意	-16821
与过去	-16822
争议的	-16823
事实的	-16824
会引发	-16825
住宅的	-16826
儿子的	-16827
可以像	-16828
和反对	-16829
和活动	-16830
在包括	-16831
在国家	-16832
多方面	-16833
天以上	-16834
并实施	-16835
并实现	-16836
成员国	-16837
批评了	-16838
挑战赛	-16839
搭载的	-16840
显像管	-16841
注意力	-16842
洛东江	-16843
的人群	-16844
的开始	-16845
直升机	-16846
等一起	-16847
组组长	-16848
艺人的	-16849
议员也	-16850
这件事	-16851
部位的	-16852
非常大	-16853
上出现了	-16854
中国国内	-16855
也减少了	-16856
令人惋惜	-16857
令人震惊	-16858
以下称为	-16859
使用方法	-16860
劳动环境	-16861
发光元件	-16862
工会会员	-16863
年轻一代	-16864
文化中心	-16865
月为基准	-16866
研讨会上	-16867
陷入困境	-16868
ether	-16869
▁分析认为	-16870
废弃物处理	-16871
生活必需品	-16872
通信公司的	-16873
损害保险公司	-16874
金融控股公司	-16875
▁本发明涉及一种具有	-16876
之急	-16877
也可	-16878
人被	-16879
伴有	-16880
作福	-16881
南洞	-16882
可达	-16883
后轮	-16884
外延	-16885
将军	-16886
层压	-16887
强占	-16888
拜登	-16889
新歌	-16890
施暴	-16891
晓星	-16892
有意	-16893
李成	-16894
极其	-16895
某从	-16896
栏目	-16897
洗钱	-16898
猪肉	-16899
电费	-16900
的单	-16901
耀眼	-16902
肝脏	-16903
胶卷	-16904
蝴蝶	-16905
见解	-16906
计时	-16907
适配	-16908
颈癌	-16909
▁IB	-16910
▁移动	-16911
个阶段	-16912
为改善	-16913
前会长	-16914
向政府	-16915
和公共	-16916
在任何	-16917
在制定	-16918
工会和	-16919
工程系	-16920
成立后	-16921
晶圆的	-16922
更重要	-16923
的全国	-16924
的现代	-16925
的画面	-16926
的视线	-16927
目的的	-16928
计算出	-16929
财政部	-16930
较少的	-16931
这首歌	-16932
限量版	-16933
黑匣子	-16934
▁但由于	-16935
也起到了	-16936
也达到了	-16937
产生共鸣	-16938
人事调整	-16939
但是对于	-16940
全党大会	-16941
合作协议	-16942
大幅扩大	-16943
正在实施	-16944
研究团队	-16945
私立学校	-16946
能源效率	-16947
记者见面	-16948
详细信息	-16949
进行表决	-16950
防疫措施	-16951
委任职委员	-16952
的大韩民国	-16953
的弱势群体	-16954
纯电动汽车	-16955
给观众带来了	-16956
CL	-16957
三位	-16958
人寿	-16959
副本	-16960
名副	-16961
和低	-16962
和可	-16963
哪怕	-16964
因其	-16965
如同	-16966
审批	-16967
富士	-16968
小姐	-16969
年期	-16970
感激	-16971
收拾	-16972
最具	-16973
此类	-16974
申办	-16975
相继	-16976
统长	-16977
肉眼	-16978
苦衷	-16979
车种	-16980
轴的	-16981
陆地	-16982
魔法	-16983
1.8	-16984
▁Hy	-16985
▁SE	-16986
▁一旦	-16987
▁新任	-16988
▁许多	-16989
个以上	-16990
中存在	-16991
们一起	-16992
保障性	-16993
出口到	-16994
利益的	-16995
和控制	-16996
因此被	-16997
所大学	-16998
添加到	-16999
电压的	-17000
的制造	-17001
的工人	-17002
的成长	-17003
级别的	-17004
缺点是	-17005
闵庚旭	-17006
80%。	-17007
▁与其他	-17008
仍在继续	-17009
企划预算	-17010
修炼活动	-17011
克服危机	-17012
对被告人	-17013
工作效率	-17014
并公开了	-17015
给予协助	-17016
视频通话	-17017
迅速增加	-17018
这部电影	-17019
进行投票	-17020
▁Care	-17021
山茶花开时	-17022
提交申请书	-17023
的业务协议	-17024
第四季度的	-17025
▁三星电子在	-17026
副会长李在镕	-17027
LH	-17028
▁看	-17029
一世	-17030
中和	-17031
也没	-17032
伦多	-17033
凝胶	-17034
即便	-17035
周日	-17036
在我	-17037
师傅	-17038
应试	-17039
弟子	-17040
拨打	-17041
无聊	-17042
灵感	-17043
留念	-17044
突变	-17045
素媛	-17046
紧缩	-17047
蜂拥	-17048
锻炼	-17049
隐形	-17050
雅阁	-17051
首长	-17052
,14	-17053
GPU	-17054
▁共同	-17055
▁女性	-17056
▁曾经	-17057
中国产	-17058
和咨询	-17059
审判中	-17060
将使用	-17061
将全面	-17062
张病床	-17063
担任过	-17064
掀背车	-17065
接触过	-17066
教育及	-17067
既得权	-17068
是作为	-17069
服务是	-17070
李议员	-17071
用户数	-17072
电流的	-17073
被破坏	-17074
车辆和	-17075
驾驶证	-17076
Work	-17077
▁之所以	-17078
▁但随着	-17079
▁在野党	-17080
为了阻止	-17081
信息服务	-17082
合作方案	-17083
总统选举	-17084
提供各种	-17085
正在关注	-17086
灾难管理	-17087
的内容是	-17088
社交距离	-17089
紧急对策	-17090
▁为了实现	-17091
不完全销售	-17092
以外的其他	-17093
候选人登记	-17094
第一的位置	-17095
精神分裂症	-17096
给予关心和	-17097
通话中表示	-17098
▁Ultra	-17099
及其控制方法	-17100
ational	-17101
非常对策委员长	-17102
za	-17103
▁闵	-17104
亲眼	-17105
加哥	-17106
去找	-17107
同胞	-17108
在高	-17109
尔特	-17110
尔的	-17111
尼古	-17112
层次	-17113
市政	-17114
提琴	-17115
改组	-17116
昼夜	-17117
服药	-17118
沟道	-17119
清凉	-17120
激战	-17121
状的	-17122
理性	-17123
相撞	-17124
避难	-17125
配对	-17126
里有	-17127
鉴于	-17128
难关	-17129
韩服	-17130
ger	-17131
pro	-17132
▁加上	-17133
▁投资	-17134
供应给	-17135
全体的	-17136
加害者	-17137
安排了	-17138
富平区	-17139
将构建	-17140
将负责	-17141
居民们	-17142
工会在	-17143
改进的	-17144
日出席	-17145
来制造	-17146
爱情的	-17147
特色的	-17148
电池和	-17149
的女人	-17150
的高龄	-17151
研究室	-17152
组合物	-17153
细胞的	-17154
芝加哥	-17155
达城郡	-17156
需求者	-17157
需要在	-17158
马恒达	-17159
band	-17160
▁第一次	-17161
三分之二	-17162
世界大战	-17163
产品开发	-17164
优秀企业	-17165
作威作福	-17166
保护电路	-17167
在线授课	-17168
家庭贷款	-17169
将扩大到	-17170
心肺复苏	-17171
生活家电	-17172
航空宇宙	-17173
认为这是	-17174
Dream	-17175
▁区厅长为	-17176
▁金委员长	-17177
信用卡结算	-17178
提高最低工资	-17179
的半导体器件	-17180
角色扮演游戏	-17181
首尔特别市冠岳区	-17182
GR	-17183
OF	-17184
仅占	-17185
付出	-17186
入党	-17187
史蒂	-17188
多孔	-17189
实损	-17190
尹钟	-17191
征服	-17192
很长	-17193
排序	-17194
推断	-17195
擅长	-17196
景点	-17197
极度	-17198
校服	-17199
每股	-17200
用性	-17201
礼遇	-17202
超额	-17203
道而	-17204
Bio	-17205
eed	-17206
ley	-17207
▁问题	-17208
中占据	-17209
也只有	-17210
以促进	-17211
会降低	-17212
医院内	-17213
及教育	-17214
可利用	-17215
和国内	-17216
对国民	-17217
将设立	-17218
并改善	-17219
总统令	-17220
意见称	-17221
或进行	-17222
所以对	-17223
报告了	-17224
接收的	-17225
日出现	-17226
望远镜	-17227
梦想的	-17228
用手机	-17229
电视上	-17230
白钟元	-17231
的人权	-17232
的具体	-17233
的普通	-17234
签订的	-17235
级以上	-17236
组件的	-17237
行驶中	-17238
见到了	-17239
访问者	-17240
费用为	-17241
赞助金	-17242
音乐的	-17243
5·18	-17244
Thin	-17245
auty	-17246
为了避免	-17247
从而实现	-17248
便利性和	-17249
做好准备	-17250
划清界限	-17251
四分之一	-17252
安全装置	-17253
实际费用	-17254
就会成为	-17255
帕里斯帝	-17256
并计划在	-17257
得到解决	-17258
接连出现	-17259
提供支持	-17260
攻击性的	-17261
比预想的	-17262
没有理由	-17263
现场直播	-17264
生产能力	-17265
生活体育	-17266
经常发生	-17267
获奖作品	-17268
让人期待	-17269
还增加了	-17270
通信系统	-17271
那里得到	-17272
▁2004	-17273
残疾人福利	-17274
液晶显示器	-17275
研究员表示	-17276
结合在一起	-17277
融合在一起	-17278
希望大家多多	-17279
万韩元以下的罚款	-17280
▁Research	-17281
FI	-17282
PN	-17283
▁'	-17284
三国	-17285
下定	-17286
交互	-17287
以待	-17288
借此	-17289
分许	-17290
卵巢	-17291
尼赛	-17292
心和	-17293
拉力	-17294
楼梯	-17295
激化	-17296
烧伤	-17297
的年	-17298
直购	-17299
眼科	-17300
等是	-17301
腿部	-17302
舞弊	-17303
萝卜	-17304
逃税	-17305
难民	-17306
1.3	-17307
5.5	-17308
oor	-17309
rad	-17310
▁受到	-17311
▁检查	-17312
▁民主	-17313
▁笔者	-17314
个月里	-17315
也不少	-17316
产业化	-17317
从韩国	-17318
使用率	-17319
倾向的	-17320
协会的	-17321
后决定	-17322
年龄层	-17323
并以此	-17324
并管理	-17325
想象力	-17326
战胜了	-17327
投影仪	-17328
新学期	-17329
更快地	-17330
有用的	-17331
未达到	-17332
核聚变	-17333
比以往	-17334
比赛的	-17335
没有人	-17336
灵敏度	-17337
然后在	-17338
的人和	-17339
的动作	-17340
的对话	-17341
的小商	-17342
的食品	-17343
第一的	-17344
等社会	-17345
缩短了	-17346
罕见的	-17347
被认可	-17348
部分由	-17349
防止因	-17350
首次在	-17351
▁据观测	-17352
▁该系统	-17353
为了维持	-17354
为了进行	-17355
债券市场	-17356
健康护理	-17357
内容包括	-17358
副区厅长	-17359
口腔检查	-17360
名以上的	-17361
地区货币	-17362
并发表了	-17363
接收到的	-17364
智慧城市	-17365
的环境中	-17366
社会主义	-17367
紧密合作	-17368
置之不理	-17369
适用范围	-17370
配送服务	-17371
▁全罗南道	-17372
▁韩国政府	-17373
数字性犯罪	-17374
▁接着补充道	-17375
首尔高等法院	-17376
▁本发明涉及了	-17377
▁本发明涉及使用	-17378
6~	-17379
光纤	-17380
原型	-17381
厢房	-17382
回升	-17383
处境	-17384
对在	-17385
将使	-17386
撰写	-17387
断然	-17388
本馆	-17389
机油	-17390
条形	-17391
根基	-17392
正统	-17393
此事	-17394
民谣	-17395
氨基	-17396
海玲	-17397
涂布	-17398
短缺	-17399
第十	-17400
繁殖	-17401
被盗	-17402
赵源	-17403
郑在	-17404
领土	-17405
频段	-17406
CNN	-17407
Cha	-17408
put	-17409
ush	-17410
▁以往	-17411
▁制作	-17412
▁雷诺	-17413
主页上	-17414
全国民	-17415
具惠善	-17416
发展到	-17417
对我们	-17418
平均为	-17419
捐赠的	-17420
排座椅	-17421
最高级	-17422
月之前	-17423
朴正熙	-17424
模型的	-17425
比今年	-17426
汽车时	-17427
维持着	-17428
聘请了	-17429
计划和	-17430
许多人	-17431
调查时	-17432
赠与税	-17433
还是个	-17434
部分和	-17435
高风险	-17436
Miss	-17437
Soul	-17438
rypt	-17439
▁接下来	-17440
▁新世界	-17441
▁朴议员	-17442
▁条例第	-17443
位居第二	-17444
供应合同	-17445
区厅长可	-17446
同时提供	-17447
就业人数	-17448
广播公司	-17449
政府政策	-17450
日进行了	-17451
智能机器	-17452
有效利用	-17453
正在加快	-17454
筹集资金	-17455
管理体系	-17456
股价下跌	-17457
设备投资	-17458
遇到困难	-17459
iwoom	-17460
verse	-17461
在美国市场	-17462
洞居民中心	-17463
的持股率从	-17464
解决问题的	-17465
超人回来了	-17466
量子计算机	-17467
金融委员长	-17468
Mobile	-17469
万韩元的价格	-17470
新冠肺炎检查	-17471
ignature	-17472
不及	-17473
专员	-17474
以对	-17475
但它	-17476
停电	-17477
入所	-17478
双手	-17479
微小	-17480
挂着	-17481
最坏	-17482
朴赞	-17483
索赔	-17484
胞胎	-17485
诺基	-17486
难免	-17487
面孔	-17488
2.4	-17489
750	-17490
ABS	-17491
Sky	-17492
▁Ph	-17493
不均衡	-17494
专利权	-17495
为阴性	-17496
会计师	-17497
全新的	-17498
出台了	-17499
出版社	-17500
前面的	-17501
可行性	-17502
宋歌人	-17503
实习生	-17504
干燥机	-17505
并采取	-17506
广播的	-17507
庆南道	-17508
应该从	-17509
意见书	-17510
月上市	-17511
河泰庆	-17512
测量的	-17513
热衷于	-17514
现状和	-17515
的参与	-17516
的自然	-17517
的营业	-17518
突破口	-17519
管理人	-17520
至少要	-17521
被选定	-17522
被驳回	-17523
连锁店	-17524
遭受了	-17525
▁照片中	-17526
国际合作	-17527
定期检查	-17528
感染扩散	-17529
政府机关	-17530
正规专辑	-17531
汽车租赁	-17532
现行法律	-17533
的孩子们	-17534
终身学习	-17535
经济合作	-17536
自治法规	-17537
课外辅导	-17538
进行介绍	-17539
长期以来	-17540
非常关注	-17541
,2000	-17542
▁众所周知	-17543
日常生活的	-17544
日开始进行	-17545
在日常生活中	-17546
市场调查企业	-17547
表达了自己的	-17548
▁Global	-17549
社会关系网服务	-17550
DF	-17551
上岩	-17552
体外	-17553
军奋	-17554
口气	-17555
境外	-17556
届的	-17557
巨济	-17558
已知	-17559
旅馆	-17560
智力	-17561
根源	-17562
狮子	-17563
王国	-17564
窒息	-17565
诉苦	-17566
迂回	-17567
里克	-17568
铃声	-17569
领养	-17570
颈部	-17571
260	-17572
95%	-17573
log	-17574
▁PE	-17575
▁不要	-17576
▁看着	-17577
▁郡守	-17578
也必须	-17579
价值和	-17580
保护和	-17581
具体化	-17582
分阶段	-17583
反应堆	-17584
学校和	-17585
尺寸的	-17586
应遵守	-17587
往返于	-17588
接触孔	-17589
普利司	-17590
没有对	-17591
的种类	-17592
而使用	-17593
而提高	-17594
诉讼的	-17595
银行圈	-17596
▁他认为	-17597
▁半导体	-17598
▁报告书	-17599
也参加了	-17600
任意一项	-17601
初期阶段	-17602
可能会有	-17603
在半导体	-17604
将致力于	-17605
情报通信	-17606
技术能力	-17607
排行榜上	-17608
无论如何	-17609
正式上市	-17610
缓期执行	-17611
eltos	-17612
▁2003	-17613
▁业界预测	-17614
宪法裁判所	-17615
政务委员会	-17616
新再生能源	-17617
有可能发生	-17618
燃料电池的	-17619
越来越多的	-17620
金融科技企业	-17621
感染新型冠状病毒	-17622
1)	-17623
5、	-17624
Or	-17625
万至	-17626
先例	-17627
几种	-17628
博世	-17629
商会	-17630
地狱	-17631
地表	-17632
开门	-17633
时事	-17634
旺季	-17635
某是	-17636
比这	-17637
淀粉	-17638
潜水	-17639
电平	-17640
皇家	-17641
纯度	-17642
绝望	-17643
网膜	-17644
而又	-17645
著称	-17646
视镜	-17647
调配	-17648
边框	-17649
金镇	-17650
间谍	-17651
默默	-17652
AST	-17653
Mot	-17654
ara	-17655
jin	-17656
lim	-17657
mun	-17658
rew	-17659
▁记者	-17660
中含有	-17661
也存在	-17662
事务处	-17663
判决的	-17664
医疗法	-17665
原有的	-17666
双职工	-17667
在公共	-17668
孙会长	-17669
孤军奋	-17670
对象为	-17671
并不能	-17672
并作为	-17673
必须的	-17674
承租人	-17675
技术上	-17676
据调查	-17677
政治的	-17678
有多少	-17679
特殊的	-17680
的协商	-17681
的表现	-17682
目前有	-17683
空间里	-17684
第二大	-17685
等工作	-17686
等方法	-17687
等网络	-17688
经济和	-17689
而没有	-17690
规模和	-17691
运动员	-17692
通过向	-17693
量增加	-17694
▁他主张	-17695
世宗大厦	-17696
充分利用	-17697
另行制定	-17698
大幅改善	-17699
安前议员	-17700
当选人的	-17701
很难进行	-17702
普利司通	-17703
有人提出	-17704
治疗效果	-17705
精神疾病	-17706
量子力学	-17707
金候选人	-17708
▁Auto	-17709
▁Life	-17710
▁这是一种	-17711
也越来越高	-17712
副委员长由	-17713
可以看作是	-17714
技术研究院	-17715
降低制造成本	-17716
YouTuber	-17717
Ka	-17718
VE	-17719
万户	-17720
之为	-17721
刚刚	-17722
同学	-17723
坦率	-17724
大桥	-17725
异步	-17726
悬崖	-17727
投身	-17728
拜访	-17729
撞击	-17730
早餐	-17731
暴风	-17732
束草	-17733
波特	-17734
洪水	-17735
涌向	-17736
硫酸	-17737
罪犯	-17738
至关	-17739
触发	-17740
马丁	-17741
AIL	-17742
不履行	-17743
乘用车	-17744
以提供	-17745
企业间	-17746
及服务	-17747
和谷歌	-17748
完全不	-17749
将启动	-17750
就越大	-17751
应包括	-17752
是无法	-17753
是用于	-17754
来判断	-17755
殖民地	-17756
比平时	-17757
电信和	-17758
的丈夫	-17759
科学馆	-17760
给人以	-17761
葡萄酒	-17762
计划时	-17763
起重机	-17764
连接至	-17765
ents	-17766
也发生了	-17767
也受到了	-17768
买卖合同	-17769
便利性的	-17770
判断标准	-17771
因此无法	-17772
基础疾病	-17773
多万韩元	-17774
实况调查	-17775
希望家长	-17776
成立仪式	-17777
截至今年	-17778
投资基金	-17779
死亡事故	-17780
爱因斯坦	-17781
现在已经	-17782
相关专家	-17783
职员们的	-17784
自己想要	-17785
蔚山工厂	-17786
表示担忧	-17787
银行账户	-17788
首尔江南	-17789
NEXON	-17790
▁有评价称	-17791
满意度调查	-17792
高层公务员	-17793
资产运营公司	-17794
现代汽车和起亚汽车	-17795
KE	-17796
、《	-17797
专栏	-17798
乙支	-17799
也向	-17800
免提	-17801
加载	-17802
北极	-17803
南非	-17804
受贿	-17805
号街	-17806
合影	-17807
坦白	-17808
城东	-17809
填埋	-17810
多项	-17811
夸大	-17812
并能	-17813
幸存	-17814
建党	-17815
微米	-17816
总值	-17817
染料	-17818
海底	-17819
的头	-17820
看的	-17821
着眼	-17822
磷光	-17823
脚步	-17824
花纹	-17825
议决	-17826
进出	-17827
追赶	-17828
邮报	-17829
长久	-17830
雅科	-17831
Rem	-17832
▁听到	-17833
▁实际	-17834
▁数据	-17835
▁节目	-17836
个选区	-17837
也决定	-17838
会下降	-17839
公休日	-17840
分别是	-17841
原计划	-17842
因此从	-17843
在全体	-17844
在执行	-17845
学生在	-17846
就任后	-17847
工作中	-17848
年度的	-17849
接近性	-17850
是否与	-17851
显示在	-17852
有名的	-17853
柳时敏	-17854
物品的	-17855
的差距	-17856
瞩目的	-17857
至少有	-17858
被提出	-17859
被用于	-17860
迈克尔	-17861
销售和	-17862
阿根廷	-17863
限制了	-17864
隶属于	-17865
ocar	-17866
▁SKT	-17867
▁仁川市	-17868
▁使用者	-17869
▁另一位	-17870
▁虽然有	-17871
▁这是自	-17872
共享经济	-17873
其他国家	-17874
农林畜产	-17875
减少到了	-17876
劳动政策	-17877
委任委员	-17878
安全问题	-17879
将在今年	-17880
居住环境	-17881
患者进行	-17882
损失保险	-17883
新药开发	-17884
此次协议	-17885
现代起亚	-17886
非常活跃	-17887
高危人群	-17888
,2012	-17889
也越来越大	-17890
其特征在于	-17891
劳动市场的	-17892
可能会导致	-17893
解决的问题	-17894
为主要内容的	-17895
文在寅总统的	-17896
是非常重要的	-17897
特别负责人的	-17898
企划财政部长官	-17899
DE	-17900
De	-17901
WM	-17902
mp	-17903
ng	-17904
▁再	-17905
一堂	-17906
三方	-17907
与在	-17908
之争	-17909
傲慢	-17910
写字	-17911
千辆	-17912
吊唁	-17913
同感	-17914
堂山	-17915
填满	-17916
安定	-17917
宾利	-17918
对照	-17919
就不	-17920
平滑	-17921
引力	-17922
推定	-17923
插曲	-17924
搭档	-17925
改款	-17926
文艺	-17927
暴行	-17928
毁损	-17929
沸腾	-17930
灭绝	-17931
焚烧	-17932
物等	-17933
网石	-17934
赚取	-17935
飞沫	-17936
1.4	-17937
FTA	-17938
ich	-17939
与汽车	-17940
严格的	-17941
中唯一	-17942
假处分	-17943
公寓的	-17944
决定性	-17945
副院长	-17946
发展成	-17947
听到了	-17948
和关心	-17949
回答称	-17950
增长到	-17951
奥林匹	-17952
家人和	-17953
年韩国	-17954
延长了	-17955
或者在	-17956
振兴法	-17957
收集了	-17958
放置在	-17959
是否在	-17960
是我的	-17961
有时会	-17962
来确定	-17963
清楚地	-17964
生产了	-17965
的固定	-17966
的委员	-17967
的帖子	-17968
的投票	-17969
的能源	-17970
的金属	-17971
确诊为	-17972
碳纳米	-17973
算法的	-17974
虚拟化	-17975
设计为	-17976
调查了	-17977
负增长	-17978
负责官	-17979
跃升为	-17980
都是在	-17981
露出了	-17982
驳回了	-17983
70%,	-17984
▁Aut	-17985
▁公务员	-17986
▁公开的	-17987
▁在日本	-17988
▁金代表	-17989
中的一个	-17990
人以上的	-17991
可以快速	-17992
各种活动	-17993
委员会和	-17994
年前开始	-17995
幸运的是	-17996
是什么呢	-17997
汽车品牌	-17998
生活工资	-17999
相机模块	-18000
社会服务	-18001
积极影响	-18002
蜂拥而至	-18003
视频服务	-18004
资金支援	-18005
这种方法	-18006
量的增加	-18007
长远来看	-18008
集体发病	-18009
代表沈相奵	-18010
可以感受到	-18011
张迷你专辑	-18012
打开和关闭	-18013
日在自己的	-18014
消费者提供	-18015
议员总会上	-18016
零部件企业	-18017
▁根据本方案	-18018
▁这被解释为	-18019
代表性的例子	-18020
风险投资企业	-18021
相关负责人表示	-18022
被判处有期徒刑	-18023
选举对策委员会	-18024
2。	-18025
As	-18026
IO	-18027
PT	-18028
YO	-18029
▁r	-18030
一份	-18031
东柱	-18032
亏了	-18033
但不	-18034
分在	-18035
可隆	-18036
吃播	-18037
安养	-18038
封顶	-18039
将给	-18040
就算	-18041
工龄	-18042
慰问	-18043
抗菌	-18044
拥挤	-18045
搅拌	-18046
民怨	-18047
的脸	-18048
监禁	-18049
研磨	-18050
粘贴	-18051
肥料	-18052
范畴	-18053
蒸气	-18054
资深	-18055
轮流	-18056
轻度	-18057
还没	-18058
这点	-18059
邻近	-18060
长寿	-18061
阴城	-18062
降落	-18063
韩方	-18064
高音	-18065
108	-18066
CAR	-18067
ond	-18068
▁Ad	-18069
▁假设	-18070
▁每天	-18071
▁要求	-18072
▁起亚	-18073
一周内	-18074
事态的	-18075
价值观	-18076
体育场	-18077
初期的	-18078
包含着	-18079
千韩元	-18080
可实现	-18081
吸引力	-18082
和国民	-18083
国产车	-18084
小时后	-18085
已超过	-18086
形成有	-18087
想起了	-18088
捷尼赛	-18089
描述了	-18090
李在明	-18091
电化学	-18092
的一项	-18093
的动向	-18094
的官方	-18095
的建议	-18096
的新的	-18097
的电气	-18098
的行政	-18099
的请求	-18100
称之为	-18101
等有关	-18102
等韩国	-18103
美食店	-18104
ADAS	-18105
▁Fin	-18106
▁据了解	-18107
一种用于	-18108
内容制作	-18109
劳资民政	-18110
可以自动	-18111
号患者的	-18112
大众交通	-18113
奠定基础	-18114
将持续到	-18115
年下半年	-18116
年初开始	-18117
年增加了	-18118
必须通过	-18119
感到惊讶	-18120
所必需的	-18121
接下来的	-18122
智能手表	-18123
电池充电	-18124
相当多的	-18125
表示反对	-18126
资本主义	-18127
迅速扩散	-18128
进行调整	-18129
irect	-18130
可持续发展	-18131
数据为基础	-18132
比任何人都	-18133
万韩元的罚款	-18134
电子通信研究院	-18135
IQ	-18136
my	-18137
不清	-18138
出勤	-18139
制剂	-18140
参照	-18141
受苦	-18142
后座	-18143
应按	-18144
急忙	-18145
慈善	-18146
成套	-18147
或以	-18148
戛纳	-18149
映宣	-18150
桌子	-18151
深思	-18152
热带	-18153
环绕	-18154
离别	-18155
胶囊	-18156
解开	-18157
诽谤	-18158
谣言	-18159
跑步	-18160
转嫁	-18161
4+1	-18162
550	-18163
DEX	-18164
IDC	-18165
ena	-18166
oll	-18167
▁不久	-18168
▁就是	-18169
、12	-18170
不平等	-18171
与海外	-18172
作品中	-18173
和普通	-18174
接收到	-18175
教师们	-18176
期间制	-18177
本会议	-18178
演员李	-18179
的会员	-18180
的痛苦	-18181
等人的	-18182
网站或	-18183
超小型	-18184
转让给	-18185
量减少	-18186
Deep	-18187
isco	-18188
▁该患者	-18189
也不知道	-18190
优秀人才	-18191
但我认为	-18192
加重处罚	-18193
博士学位	-18194
取得胜利	-18195
和大数据	-18196
团体交涉	-18197
外国人的	-18198
多家企业	-18199
感到不安	-18200
有很大的	-18201
的核心是	-18202
神经系统	-18203
药物治疗	-18204
衍生商品	-18205
计划推出	-18206
通过改善	-18207
金融机关	-18208
风险管理	-18209
Class	-18210
上诉费用由	-18211
也随之增加	-18212
将焦点放在	-18213
是三星电子	-18214
茉莉太平洋	-18215
业界相关人士	-18216
国会全体会议	-18217
正义记忆连带	-18218
韩国综合股价指数	-18219
食品医药品安全厅	-18220
:1	-18221
▁月	-18222
之日	-18223
交响	-18224
众筹	-18225
停薪	-18226
分校	-18227
右派	-18228
徘徊	-18229
推行	-18230
旌闾	-18231
日均	-18232
月被	-18233
朴柱	-18234
枢纽	-18235
汉城	-18236
沉淀	-18237
温差	-18238
漂浮	-18239
漏极	-18240
特价	-18241
玉米	-18242
离合	-18243
租户	-18244
纸张	-18245
航运	-18246
英里	-18247
裂痕	-18248
角膜	-18249
费率	-18250
贺词	-18251
跑道	-18252
金土	-18253
钢板	-18254
防火	-18255
霸权	-18256
韩食	-18257
领悟	-18258
▁数字	-18259
▁海外	-18260
▁消防	-18261
事件中	-18262
但目前	-18263
分多址	-18264
分配的	-18265
区域中	-18266
发生过	-18267
名成员	-18268
售出了	-18269
在政治	-18270
在每个	-18271
意义上	-18272
提供商	-18273
救护车	-18274
流行的	-18275
的构成	-18276
竞争者	-18277
结算院	-18278
至今仍	-18279
解雇了	-18280
费用中	-18281
资本金	-18282
青年的	-18283
事业者的	-18284
低收入层	-18285
密切接触	-18286
工作制的	-18287
座谈会上	-18288
建设公司	-18289
恢复原状	-18290
支援对策	-18291
是否具有	-18292
最优秀奖	-18293
生活习惯	-18294
的帮助下	-18295
的手续费	-18296
社交网络	-18297
社会责任	-18298
积极开展	-18299
积极推进	-18300
纪念仪式	-18301
职场内的	-18302
航空航天	-18303
视频信号	-18304
▁新冠肺炎	-18305
▁虽然政府	-18306
▁通过使用	-18307
之间的合作	-18308
之间的竞争	-18309
等弱势群体	-18310
被排除在外	-18311
进行了说明	-18312
的设备和方法	-18313
进军海外市场	-18314
保健环境研究院	-18315
前法务部长官曹国	-18316
比去年同期减少了	-18317
FO	-18318
hy	-18319
▁您	-18320
一级	-18321
不停	-18322
丑闻	-18323
会等	-18324
但有	-18325
借贷	-18326
内定	-18327
冰雪	-18328
判例	-18329
制冷	-18330
和下	-18331
客房	-18332
家和	-18333
密钥	-18334
察觉	-18335
尊严	-18336
属实	-18337
描写	-18338
放送	-18339
教务	-18340
日刊	-18341
染色	-18342
格外	-18343
皮书	-18344
祖国	-18345
站稳	-18346
转入	-18347
铭记	-18348
饼干	-18349
高三	-18350
鱿鱼	-18351
1.7	-18352
2.2	-18353
4.5	-18354
ven	-18355
▁31	-18356
▁up	-18357
▁收到	-18358
▁议长	-18359
不少人	-18360
与实际	-18361
两天内	-18362
为一体	-18363
为借口	-18364
为加强	-18365
会变得	-18366
体现出	-18367
公开后	-18368
分析的	-18369
同级别	-18370
和培养	-18371
咖啡店	-18372
圣保罗	-18373
安装有	-18374
差不多	-18375
日本人	-18376
来计算	-18377
的公正	-18378
直接或	-18379
确诊了	-18380
而且是	-18381
雅科仕	-18382
esis	-18383
olle	-18384
▁为了使	-18385
▁从这个	-18386
▁金融圈	-18387
上升幅度	-18388
不如说是	-18389
世界上最	-18390
俱乐部的	-18391
因此应该	-18392
在首尔市	-18393
支付服务	-18394
死亡病例	-18395
比例政党	-18396
毫不犹豫	-18397
汽车生产	-18398
没有接受	-18399
没有进行	-18400
的人来说	-18401
符合下列	-18402
绝对不能	-18403
"4+1"	-18404
的研究开发	-18405
温室气体排放	-18406
新冠肺炎的影响	-18407
Celltrion	-18408
Br	-18409
Re	-18410
▁听	-18411
临界	-18412
内有	-18413
升格	-18414
历届	-18415
只用	-18416
名声	-18417
周刊	-18418
国难	-18419
基坛	-18420
展出	-18421
平壤	-18422
我将	-18423
抽奖	-18424
最强	-18425
检警	-18426
涌现	-18427
炯旿	-18428
私家	-18429
税法	-18430
脚跟	-18431
荣获	-18432
访韩	-18433
超低	-18434
车手	-18435
金善	-18436
,40	-18437
113	-18438
911	-18439
aro	-18440
▁基金	-18441
、30	-18442
不足以	-18443
为核心	-18444
代议员	-18445
企业或	-18446
会提高	-18447
体验了	-18448
再次被	-18449
制度和	-18450
危险度	-18451
只允许	-18452
只要是	-18453
叮嘱道	-18454
向原告	-18455
和实际	-18456
和检查	-18457
在这种	-18458
将采取	-18459
年通过	-18460
并立即	-18461
延长至	-18462
战略是	-18463
收购的	-18464
文议长	-18465
时需要	-18466
暴露于	-18467
月以来	-18468
朴娜莱	-18469
来确保	-18470
沟通的	-18471
治疗费	-18472
瑞草洞	-18473
的电阻	-18474
的真实	-18475
能够使	-18476
请务必	-18477
趋势的	-18478
运营和	-18479
风格的	-18480
高龄者	-18481
1950	-18482
▁如果因	-18483
▁李议员	-18484
一审判决	-18485
为代表的	-18486
了解一下	-18487
产业结构	-18488
从而防止	-18489
体育活动	-18490
可以申请	-18491
可以随时	-18492
名候选人	-18493
大企业和	-18494
大型轿车	-18495
姜丹尼尔	-18496
学生提供	-18497
年开始到	-18498
征集活动	-18499
有机电致	-18500
未成年人	-18501
正在等待	-18502
特殊原因	-18503
的时间和	-18504
示范事业	-18505
累计销量	-18506
结束后的	-18507
给我推荐	-18508
负压病床	-18509
进行宣传	-18510
阶段性地	-18511
颁奖仪式	-18512
预算决算	-18513
食品药品	-18514
高附加值	-18515
board	-18516
▁Soft	-18517
也很有可能	-18518
从本月开始	-18519
各种各样的	-18520
和正未来党	-18521
很大程度上	-18522
没有太大的	-18523
的股份率从	-18524
让人联想到	-18525
转让所得税	-18526
做出了上述表示	-18527
Youtuber	-18528
盆唐首尔大学医院	-18529
法务部长官候选人曹国	-18530
2《	-18531
▁科	-18532
二世	-18533
住所	-18534
克的	-18535
农工	-18536
加湿	-18537
区和	-18538
升温	-18539
名列	-18540
回报	-18541
存续	-18542
宝座	-18543
富裕	-18544
彦周	-18545
改正	-18546
时被	-18547
晕倒	-18548
最晚	-18549
源的	-18550
点火	-18551
知恩	-18552
联络	-18553
要么	-18554
调度	-18555
载体	-18556
郡民	-18557
重修	-18558
金宇	-18559
Gra	-18560
MAT	-18561
MWC	-18562
下调至	-18563
不喜欢	-18564
不是以	-18565
中规定	-18566
了一项	-18567
以全国	-18568
以及对	-18569
以太坊	-18570
公管委	-18571
和外部	-18572
在确认	-18573
地球的	-18574
将决定	-18575
年轻的	-18576
年进入	-18577
建造了	-18578
报道了	-18579
明大学	-18580
构件的	-18581
构建的	-18582
法律的	-18583
的宣传	-18584
第一批	-18585
能看到	-18586
脸书上	-18587
隐藏着	-18588
集会的	-18589
飞机的	-18590
KISA	-18591
life	-18592
▁据美国	-18593
▁接着他	-18594
专利申请	-18595
专门医院	-18596
业务协约	-18597
东山医院	-18598
中国企业	-18599
信息处理	-18600
刑事诉讼	-18601
发生故障	-18602
国政调查	-18603
城市再生	-18604
失业工资	-18605
就会产生	-18606
年轻人的	-18607
感到遗憾	-18608
控制中心	-18609
活跃起来	-18610
的方针是	-18611
自由贸易	-18612
集团总裁	-18613
面对面的	-18614
革新中心	-18615
Apple	-18616
prise	-18617
出现了很多	-18618
压倒性胜利	-18619
发展中国家	-18620
同比增加了	-18621
▁有观测认为	-18622
进行结构调整	-18623
▁撤销原审判决	-18624
产业安全保健法	-18625
首尔特别市广津区	-18626
)'	-18627
OH	-18628
SL	-18629
▁人	-18630
主权	-18631
书和	-18632
但仍	-18633
友情	-18634
同类	-18635
器中	-18636
在将	-18637
布拉	-18638
常驻	-18639
年因	-18640
成洙	-18641
损益	-18642
断定	-18643
时薪	-18644
李世	-18645
火热	-18646
留有	-18647
破碎	-18648
立方	-18649
绘制	-18650
翻盖	-18651
要把	-18652
赵成	-18653
身高	-18654
,23	-18655
KEB	-18656
▁My	-18657
▁剧中	-18658
▁现有	-18659
一开始	-18660
万辆的	-18661
上升率	-18662
上调到	-18663
但作为	-18664
再就业	-18665
冷却水	-18666
去年在	-18667
和应对	-18668
在通过	-18669
对美国	-18670
年来的	-18671
并减少	-18672
怎么办	-18673
措施的	-18674
旗下的	-18675
时间等	-18676
最优秀	-18677
期限的	-18678
条件等	-18679
某涉嫌	-18680
电极和	-18681
的一侧	-18682
的主持	-18683
的发行	-18684
简便地	-18685
而引起	-18686
致命的	-18687
芯片组	-18688
Cont	-18689
一起生活	-18690
不足之处	-18691
从而减少	-18692
党候选人	-18693
出租车的	-18694
劳动关系	-18695
可以用于	-18696
在现有的	-18697
安全性和	-18698
届国会上	-18699
文化会馆	-18700
最近随着	-18701
有关部门	-18702
试图通过	-18703
逐渐扩大	-18704
部长官朴	-18705
首次出现	-18706
▁可以通过	-18707
▁能告诉我	-18708
▁高丽大学	-18709
半导体晶片	-18710
委员中互选	-18711
的核心技术	-18712
进行了分析	-18713
中的任何一项	-18714
亿韩元左右的	-18715
▁Venture	-18716
1/	-18717
AF	-18718
He	-18719
RT	-18720
▁j	-18721
▁连	-18722
三重	-18723
上方	-18724
与第	-18725
仁荷	-18726
他对	-18727
会使	-18728
俊宇	-18729
十八	-18730
单身	-18731
向下	-18732
她们	-18733
屋盖	-18734
开闭	-18735
影岛	-18736
态势	-18737
手柄	-18738
摔跤	-18739
斯塔	-18740
无疑	-18741
榜样	-18742
泛滥	-18743
润滑	-18744
目击	-18745
细心	-18746
致癌	-18747
花园	-18748
走廊	-18749
逃生	-18750
金勇	-18751
长安	-18752
阻抗	-18753
露宿	-18754
顺应	-18755
▁传统	-18756
▁委托	-18757
与发展	-18758
专卖店	-18759
也出现	-18760
其内容	-18761
副总统	-18762
去世后	-18763
嘉年华	-18764
在制造	-18765
实验中	-18766
客户的	-18767
并宣布	-18768
德鲁纳	-18769
忠州市	-18770
技术力	-18771
提升了	-18772
支付额	-18773
是需要	-18774
瑞山市	-18775
的住宅	-18776
的减少	-18777
的手段	-18778
的机构	-18779
的设立	-18780
的设置	-18781
的财产	-18782
真的很	-18783
等现有	-18784
而增加	-18785
被问及	-18786
观众席	-18787
视网膜	-18788
设备上	-18789
设施时	-18790
载流子	-18791
还要求	-18792
'","	-18793
Soft	-18794
▁com	-18795
▁协议会	-18796
▁在今年	-18797
上升势头	-18798
中发生的	-18799
事业部长	-18800
二极管的	-18801
以及用于	-18802
会见记者	-18803
健康增进	-18804
劳动者们	-18805
区保健所	-18806
因果关系	-18807
学校运营	-18808
宇宙飞船	-18809
已经过了	-18810
日本企业	-18811
有人预测	-18812
正在使用	-18813
电子部件	-18814
稳定基金	-18815
组织改编	-18816
能够获得	-18817
能感受到	-18818
脆弱阶层	-18819
虚拟资产	-18820
被确定为	-18821
让人倍感	-18822
这样的话	-18823
,2006	-18824
▁他强调说	-18825
传染病预防	-18826
发生事故时	-18827
召开记者会	-18828
国会正常化	-18829
存在局限性	-18830
审查评价院	-18831
技术研究所	-18832
根据附件第	-18833
物价上涨率	-18834
顾客为对象	-18835
新型冠状肺炎	-18836
社会贡献活动	-18837
共同选举对策委员长	-18838
新型冠状病毒的扩散	-18839
▁Investment	-18840
KF	-18841
ja	-18842
▁已	-18843
两款	-18844
为其	-18845
乡校	-18846
兴致	-18847
其林	-18848
养成	-18849
军方	-18850
单亲	-18851
卖出	-18852
卖方	-18853
原稿	-18854
取证	-18855
名人	-18856
哥伦	-18857
大笑	-18858
报表	-18859
摇滚	-18860
死了	-18861
死后	-18862
民植	-18863
源地	-18864
熔融	-18865
用餐	-18866
的四	-18867
神圣	-18868
窑址	-18869
良才	-18870
衰减	-18871
阀门	-18872
随处	-18873
高清	-18874
HIV	-18875
Ver	-18876
▁CH	-18877
▁生产	-18878
▁车辆	-18879
下进行	-18880
与外部	-18881
乳酸菌	-18882
以及与	-18883
决定不	-18884
博士房	-18885
司令部	-18886
因为有	-18887
在公司	-18888
容量为	-18889
工作和	-18890
延续了	-18891
或变更	-18892
报告给	-18893
持否定	-18894
收费制	-18895
新增了	-18896
日访问	-18897
来执行	-18898
爆发的	-18899
现实的	-18900
理解的	-18901
界人士	-18902
的利率	-18903
的父母	-18904
的秘密	-18905
耐药性	-18906
证实了	-18907
4500	-18908
4·15	-18909
elon	-18910
rime	-18911
tron	-18912
▁pro	-18913
参加活动	-18914
只能通过	-18915
可以推测	-18916
告诉大家	-18917
奥林匹克	-18918
将其视为	-18919
工资差距	-18920
并且由于	-18921
更多的人	-18922
服务平台	-18923
浪漫喜剧	-18924
男子组合	-18925
调查机关	-18926
豪华轿车	-18927
还可以在	-18928
预算结算	-18929
首脑会谈	-18930
Cross	-18931
▁雷克萨斯	-18932
处理委员会	-18933
多人参加了	-18934
心血管疾病	-18935
推进委员会	-18936
智能手机和	-18937
下调标准利率	-18938
衍生结合基金	-18939
▁调查结果显示	-18940
召开记者招待会	-18941
▁Technology	-18942
Pe	-18943
▁下	-18944
一眼	-18945
上游	-18946
业者	-18947
乎其	-18948
也好	-18949
价的	-18950
冠王	-18951
基石	-18952
处处	-18953
失措	-18954
夺走	-18955
对冲	-18956
废物	-18957
开辟	-18958
曲目	-18959
案中	-18960
每升	-18961
气缸	-18962
沿岸	-18963
环球	-18964
皱纹	-18965
矿山	-18966
空隙	-18967
纵向	-18968
脑海	-18969
贴近	-18970
走到	-18971
轻量	-18972
长大	-18973
领事	-18974
280	-18975
INE	-18976
Lin	-18977
上台后	-18978
也不同	-18979
人与人	-18980
但我们	-18981
例患者	-18982
保护的	-18983
准确性	-18984
刊登在	-18985
合议庭	-18986
在销售	-18987
多伦多	-18988
妥当性	-18989
对整个	-18990
就越高	-18991
工程中	-18992
差异化	-18993
应采取	-18994
想象的	-18995
执行令	-18996
技术与	-18997
排名中	-18998
方向和	-18999
检查等	-19000
正当性	-19001
电子束	-19002
电脑上	-19003
的命令	-19004
的导演	-19005
的收益	-19006
的高中	-19007
而苦恼	-19008
而难以	-19009
表现了	-19010
调整为	-19011
财产的	-19012
迪斯尼	-19013
领导的	-19014
COEX	-19015
anol	-19016
oken	-19017
▁Rob	-19018
事业模式	-19019
交流合作	-19020
因不得已	-19021
已经结束	-19022
应用商店	-19023
必须进行	-19024
患者人数	-19025
技术发展	-19026
文化财团	-19027
更为详细	-19028
正式进入	-19029
特殊形态	-19030
的情况时	-19031
相关政策	-19032
终端机的	-19033
综合计划	-19034
详细事项	-19035
还采用了	-19036
革新成长	-19037
驱动装置	-19038
中的一部分	-19039
流下了眼泪	-19040
liance	-19041
▁Elect	-19042
等离子显示面板	-19043
BN	-19044
Di	-19045
PF	-19046
▁好	-19047
一侧	-19048
串联	-19049
主楼	-19050
体和	-19051
修饰	-19052
借用	-19053
僧侣	-19054
冥想	-19055
冷落	-19056
减产	-19057
出马	-19058
分明	-19059
切身	-19060
周后	-19061
备用	-19062
帅气	-19063
废水	-19064
心中	-19065
所能	-19066
抓获	-19067
李康	-19068
李柱	-19069
源极	-19070
熟虑	-19071
现况	-19072
等到	-19073
答辩	-19074
纲领	-19075
线束	-19076
编写	-19077
花了	-19078
草莓	-19079
荷娜	-19080
走出	-19081
通往	-19082
道教	-19083
邮寄	-19084
重审	-19085
镜片	-19086
间断	-19087
骑手	-19088
龙头	-19089
115	-19090
210	-19091
ner	-19092
▁担任	-19093
▁有时	-19094
个月前	-19095
中南美	-19096
为首的	-19097
乎其微	-19098
会更加	-19099
内进行	-19100
减轻了	-19101
分离的	-19102
划分为	-19103
及利用	-19104
后再次	-19105
吐露了	-19106
咸素媛	-19107
均匀性	-19108
开玩笑	-19109
斗争的	-19110
时为准	-19111
晋州市	-19112
构筑了	-19113
检察院	-19114
汽车税	-19115
珍贵的	-19116
的主管	-19117
的提案	-19118
相匹配	-19119
竞选的	-19120
米其林	-19121
背道而	-19122
获得者	-19123
规模达	-19124
过电流	-19125
配置的	-19126
项及第	-19127
aker	-19128
为了提供	-19129
令人满意	-19130
可以考虑	-19131
就超过了	-19132
形成具有	-19133
微乎其微	-19134
恶性循环	-19135
捷尼赛思	-19136
数据进行	-19137
正式启动	-19138
管理服务	-19139
给人一种	-19140
背道而驰	-19141
还获得了	-19142
Payco	-19143
▁其中包括	-19144
第三季度的	-19145
金属氧化物	-19146
中央劳动委员会	-19147
日在首尔汝矣岛	-19148
Grandeur	-19149
-5	-19150
El	-19151
Fe	-19152
KD	-19153
上层	-19154
上被	-19155
不高	-19156
会话	-19157
十一	-19158
半月	-19159
博览	-19160
国境	-19161
国语	-19162
图标	-19163
完工	-19164
官僚	-19165
应征	-19166
录取	-19167
恶评	-19168
我和	-19169
我校	-19170
扭转	-19171
普拉	-19172
智囊	-19173
最短	-19174
木洞	-19175
未婚	-19176
正好	-19177
波音	-19178
深远	-19179
白头	-19180
监理	-19181
简报	-19182
箱子	-19183
诱惑	-19184
迎合	-19185
近况	-19186
退伍	-19187
雕塑	-19188
▁IP	-19189
▁凭借	-19190
▁微软	-19191
为减少	-19192
为条件	-19193
也分别	-19194
交通部	-19195
人进行	-19196
介绍称	-19197
会持续	-19198
入口处	-19199
其原因	-19200
历代级	-19201
可靠地	-19202
吴世勋	-19203
咖啡馆	-19204
在上市	-19205
在多种	-19206
在推出	-19207
将发表	-19208
已经被	-19209
总面积	-19210
或没有	-19211
损失额	-19212
据分析	-19213
提及了	-19214
最近对	-19215
有利的	-19216
核心是	-19217
的新作	-19218
租赁费	-19219
租赁车	-19220
类固醇	-19221
结合的	-19222
而来的	-19223
跑车的	-19224
郑东泳	-19225
项目是	-19226
预算中	-19227
osco	-19228
▁据推算	-19229
为了成为	-19230
充满幸福	-19231
免疫细胞	-19232
几乎所有	-19233
劳斯莱斯	-19234
向全世界	-19235
和执政党	-19236
在短期内	-19237
就业机会	-19238
就会增加	-19239
并获得了	-19240
建设事业	-19241
支付结算	-19242
日报道说	-19243
月末为止	-19244
服务活动	-19245
消费心理	-19246
考虑到了	-19247
表示不满	-19248
财务结构	-19249
通过增加	-19250
通过手机	-19251
铁道公社	-19252
▁这样一来	-19253
交织在一起	-19254
发言人表示	-19255
方便地使用	-19256
自由职业者	-19257
进出口银行	-19258
uction	-19259
判处有期徒刑	-19260
前总统朴槿惠	-19261
GF	-19262
GU	-19263
▁杨	-19264
上与	-19265
下令	-19266
业等	-19267
丢弃	-19268
买进	-19269
从第	-19270
但被	-19271
借记	-19272
偏移	-19273
党名	-19274
印有	-19275
受体	-19276
尽到	-19277
搬家	-19278
无意	-19279
月光	-19280
松岛	-19281
油类	-19282
海镇	-19283
爱意	-19284
特产	-19285
特长	-19286
球菌	-19287
直喷	-19288
破例	-19289
系的	-19290
紫菜	-19291
绿地	-19292
胶带	-19293
莱特	-19294
萨博	-19295
计票	-19296
金南	-19297
BBC	-19298
SPC	-19299
▁re	-19300
▁以下	-19301
▁加入	-19302
▁当地	-19303
▁通用	-19304
▁金某	-19305
》,《	-19306
两位数	-19307
为增进	-19308
也很好	-19309
也纷纷	-19310
也计划	-19311
从美国	-19312
协商会	-19313
在未来	-19314
场所的	-19315
委任为	-19316
将展现	-19317
已完成	-19318
年以下	-19319
很可能	-19320
成员的	-19321
推翻了	-19322
更喜欢	-19323
正在为	-19324
汽车在	-19325
添加剂	-19326
渗透到	-19327
由于对	-19328
电缆的	-19329
的表演	-19330
的过去	-19331
的迹象	-19332
等合作	-19333
网民们	-19334
而出现	-19335
调查官	-19336
身体和	-19337
远距离	-19338
Real	-19339
专业性的	-19340
介绍一下	-19341
住宅公社	-19342
作为主要	-19343
共同努力	-19344
出乎意料	-19345
国家安全	-19346
将会增加	-19347
就会自动	-19348
技术企业	-19349
无法确认	-19350
日本政府	-19351
早期诊断	-19352
最低水平	-19353
演员们的	-19354
的销量为	-19355
综合金融	-19356
资金贷款	-19357
这一措施	-19358
这是非常	-19359
重症监护	-19360
驾驶性能	-19361
,2020	-19362
代表孙鹤圭	-19363
参加申请书	-19364
可以使用的	-19365
在国内市场	-19366
在韩国市场	-19367
常任委员长	-19368
流媒体服务	-19369
鲜明的对比	-19370
artner	-19371
▁在本方案中	-19372
全南大学医院	-19373
可吸入颗粒物	-19374
速自动变速器	-19375
风险投资公司	-19376
▁最具代表性的	-19377
所有权转移登记	-19378
中央灾难安全对策本部	-19379
一台	-19380
供暖	-19381
免职	-19382
凝聚	-19383
剧烈	-19384
劳组	-19385
受灾	-19386
同龄	-19387
在原	-19388
垠希	-19389
始华	-19390
密阳	-19391
建校	-19392
开创	-19393
当场	-19394
抽象	-19395
明洞	-19396
最受	-19397
月亮	-19398
松树	-19399
比上	-19400
缴费	-19401
翅膀	-19402
自达	-19403
裂纹	-19404
诚意	-19405
路易	-19406
路灯	-19407
重心	-19408
金尚	-19409
金敏	-19410
金森	-19411
间盘	-19412
99%	-19413
PDP	-19414
PRO	-19415
▁儿童	-19416
▁到了	-19417
▁金前	-19418
也认为	-19419
共售出	-19420
准备金	-19421
加强与	-19422
厚度的	-19423
季节性	-19424
安排在	-19425
并确保	-19426
应该对	-19427
总部长	-19428
搭载在	-19429
最近与	-19430
[...]
