<unk>	0
<s>	0
</s>	0
▁이	-0
▁있	-1
으로	-2
▁수	-3
에서	-4
▁대	-5
▁사	-6
▁기	-7
▁지	-8
▁전	-9
했다	-10
▁1	-11
하는	-12
▁것	-13
▁한	-14
▁제	-15
▁있다	-16
▁시	-17
▁가	-18
▁등	-19
▁2	-20
이다	-21
▁'	-22
▁위	-23
▁자	-24
▁정	-25
하고	-26
▁보	-27
▁그	-28
▁관	-29
▁공	-30
▁경	-31
▁중	-32
▁인	-33
▁주	-34
▁"	-35
▁다	-36
▁상	-37
▁발	-38
▁부	-39
▁아	-40
▁의	-41
▁모	-42
한다	-43
▁구	-44
▁하	-45
▁고	-46
▁소	-47
▁개	-48
▁일	-49
▁신	-50
▁방	-51
▁국	-52
▁유	-53
▁통	-54
하여	-55
▁조	-56
▁있는	-57
▁나	-58
▁연	-59
00	-60
▁비	-61
▁서	-62
▁내	-63
▁3	-64
▁따	-65
▁최	-66
▁확	-67
▁선	-68
▁해	-69
▁및	-70
▁현	-71
▁미	-72
▁않	-73
▁본	-74
▁스	-75
▁실	-76
니다	-77
▁예	-78
▁여	-79
▁오	-80
▁한다	-81
▁장	-82
▁마	-83
▁때	-84
▁없	-85
▁차	-86
▁생	-87
▁안	-88
이라	-89
▁진	-90
▁도	-91
▁분	-92
▁만	-93
▁노	-94
들이	-95
에는	-96
▁5	-97
▁영	-98
▁특	-99
▁어	-100
▁감	-101
▁동	-102
▁결	-103
적으로	-104
▁교	-105
▁지난	-106
▁원	-107
▁우	-108
▁강	-109
면서	-110
▁바	-111
▁세	-112
지만	-113
까지	-114
었다	-115
▁적	-116
▁말	-117
▁것으로	-118
▁성	-119
▁반	-120
▁또	-121
▁20	-122
된다	-123
▁4	-124
▁설	-125
▁받	-126
부터	-127
에게	-128
▁무	-129
하기	-130
▁출	-131
▁계	-132
▁추	-133
적인	-134
▁대한	-135
▁문	-136
▁학	-137
▁경우	-138
하게	-139
▁더	-140
▁후	-141
▁불	-142
▁단	-143
▁배	-144
▁운	-145
▁회	-146
되는	-147
▁거	-148
▁위해	-149
▁것이다	-150
▁재	-151
▁판	-152
▁한국	-153
▁따라	-154
▁당	-155
▁매	-156
▁코	-157
비스	-158
▁통해	-159
▁과	-160
▁활	-161
▁사용	-162
▁필	-163
도록	-164
▁포	-165
▁같	-166
▁증	-167
다는	-168
▁밝	-169
▁높	-170
▁알	-171
▁금	-172
▁입	-173
▁환	-174
▁많	-175
▁프	-176
동차	-177
▁각	-178
▁직	-179
▁참	-180
▁올	-181
장은	-182
들의	-183
▁업	-184
▁김	-185
▁6	-186
▁투	-187
자가	-188
됐다	-189
▁데	-190
▁건	-191
▁가능	-192
▁지원	-193
▁발명	-194
▁제공	-195
▁관한	-196
▁요	-197
자는	-198
에서는	-199
▁파	-200
▁기술	-201
▁변	-202
▁검	-203
혔다	-204
▁필요	-205
▁작	-206
▁산	-207
▁게	-208
▁서비스	-209
▁물	-210
▁할	-211
▁위한	-212
▁밝혔다	-213
였다	-214
▁열	-215
▁행	-216
▁이용	-217
▁함	-218
▁사업	-219
▁임	-220
▁규	-221
▁디	-222
▁점	-223
하다	-224
▁역	-225
▁S	-226
로나	-227
▁때문	-228
▁민	-229
▁달	-230
위원	-231
▁관련	-232
▁두	-233
▁대표	-234
들은	-235
▁기업	-236
▁A	-237
▁201	-238
▁간	-239
▁10	-240
▁앞	-241
▁총	-242
▁국내	-243
▁7	-244
▁평	-245
▁피	-246
▁지역	-247
으며	-248
▁협	-249
▁저	-250
▁시장	-251
▁양	-252
이라고	-253
▁법	-254
스템	-255
성을	-256
▁외	-257
하지	-258
▁새	-259
▁청	-260
▁하는	-261
▁근	-262
▁초	-263
▁사람	-264
▁집	-265
▁자동차	-266
▁처	-267
▁코로나	-268
▁심	-269
▁했다	-270
▁화	-271
에도	-272
▁서울	-273
▁되	-274
▁등을	-275
이터	-276
▁8	-277
았다	-278
▁이상	-279
▁개발	-280
▁들	-281
자의	-282
▁발명은	-283
▁목	-284
기를	-285
▁의원	-286
▁효	-287
▁함께	-288
▁발생	-289
19	-290
▁운영	-291
▁체	-292
▁대해	-293
▁아니	-294
▁이어	-295
하며	-296
▁프로	-297
▁진행	-298
▁종	-299
▁것이	-300
▁접	-301
▁합	-302
▁같은	-303
▁19	-304
▁형	-305
▁호	-306
하면	-307
성이	-308
▁정부	-309
▁말했다	-310
▁온	-311
▁명	-312
습니다	-313
▁취	-314
▁9	-315
레이	-316
▁플	-317
▁치	-318
사를	-319
▁이번	-320
▁남	-321
장이	-322
▁카	-323
라인	-324
▁삼	-325
▁판매	-326
▁표	-327
▁못	-328
▁연구	-329
보다	-330
▁크	-331
▁맞	-332
▁손	-333
병원	-334
▁교육	-335
000	-336
▁박	-337
▁충	-338
이나	-339
▁채	-340
▁다양	-341
마트	-342
▁관계	-343
▁미국	-344
▁에	-345
▁우리	-346
▁향	-347
▁약	-348
장을	-349
기업	-350
▁시스템	-351
정을	-352
▁음	-353
▁있어	-354
▁L	-355
▁문제	-356
졌다	-357
▁광	-358
력을	-359
▁특히	-360
회의	-361
지를	-362
▁드	-363
지는	-364
▁현대	-365
리를	-366
▁대상	-367
▁줄	-368
▁리	-369
▁이후	-370
▁결과	-371
▁다른	-372
▁있도록	-373
▁상황	-374
▁정보	-375
거나	-376
▁시작	-377
▁다양한	-378
▁방법	-379
▁완	-380
들을	-381
기에	-382
▁계획	-383
▁것을	-384
센터	-385
▁늘	-386
▁담	-387
▁위원	-388
▁타	-389
▁세계	-390
▁최근	-391
▁C	-392
▁가장	-393
▁속	-394
자를	-395
▁따른	-396
되고	-397
▁현재	-398
▁지난해	-399
▁적용	-400
▁또는	-401
해야	-402
▁확인	-403
▁활용	-404
▁복	-405
▁생산	-406
▁스마트	-407
▁예정	-408
▁다음	-409
스트	-410
대로	-411
다고	-412
▁해당	-413
▁감염	-414
리는	-415
사가	-416
주당	-417
▁설명	-418
하면서	-419
▁참여	-420
▁올해	-421
라고	-422
그램	-423
▁중국	-424
▁메	-425
▁전문	-426
시간	-427
라는	-428
▁그러	-429
은행	-430
▁많은	-431
억원	-432
되어	-433
▁편	-434
▁K	-435
▁금융	-436
▁산업	-437
▁후보	-438
▁이를	-439
▁이날	-440
▁것은	-441
▁데이터	-442
▁삼성	-443
▁제품	-444
▁갖	-445
▁포함	-446
▁절	-447
▁모두	-448
상을	-449
▁브	-450
▁된다	-451
▁돌	-452
서는	-453
사업	-454
▁글	-455
러스	-456
▁들어	-457
사는	-458
로운	-459
▁투자	-460
▁질	-461
▁측	-462
페이	-463
▁I	-464
화를	-465
▁확진	-466
▁증가	-467
기관	-468
▁커	-469
▁노동	-470
▁만들	-471
리고	-472
▁때문에	-473
지고	-474
▁준	-475
▁패	-476
▁12	-477
▁창	-478
위원회	-479
하여야	-480
▁좋	-481
▁등의	-482
▁전기	-483
치를	-484
▁논	-485
▁로	-486
▁뒤	-487
관리	-488
▁공개	-489
기술	-490
이라는	-491
▁큰	-492
▁200	-493
▁분석	-494
▁시간	-495
▁제조	-496
▁넘	-497
▁안전	-498
▁관리	-499
▁하나	-500
▁또한	-501
기가	-502
▁독	-503
라이	-504
▁트	-505
이고	-506
르면	-507
▁출시	-508
▁확대	-509
▁네	-510
▁이에	-511
▁구성	-512
20	-513
▁등이	-514
▁용	-515
▁나타	-516
▁아이	-517
▁급	-518
▁사회	-519
▁11	-520
▁고객	-521
▁사이	-522
▁살	-523
▁식	-524
▁학생	-525
▁자신	-526
▁사실	-527
▁토	-528
기도	-529
▁차량	-530
운데	-531
▁기준	-532
▁효과	-533
에서도	-534
도를	-535
▁평가	-536
랫폼	-537
▁필요한	-538
▁순	-539
만원	-540
▁알려	-541
▁찾	-542
▁가운데	-543
명이	-544
▁기대	-545
▁경제	-546
▁없는	-547
▁승	-548
▁기존	-549
▁콘	-550
▁하고	-551
▁기반	-552
▁학교	-553
▁클	-554
▁소비	-555
▁번	-556
▁추가	-557
▁따르면	-558
▁있다는	-559
▁활동	-560
▁없다	-561
▁프로그램	-562
▁애	-563
▁M	-564
▁항	-565
▁걸	-566
▁권	-567
▁30	-568
▁고용	-569
시키	-570
▁않는	-571
▁국회	-572
로벌	-573
▁별	-574
시장	-575
▁생각	-576
▁B	-577
▁게임	-578
▁최대	-579
학교	-580
▁기능	-581
▁하지만	-582
▁분야	-583
▁새로운	-584
▁아니라	-585
▁폭	-586
▁직접	-587
▁T	-588
▁모든	-589
랜드	-590
▁근로	-591
▁잘	-592
▁미래	-593
▁설치	-594
는데	-595
했다고	-596
▁플랫폼	-597
▁될	-598
도체	-599
▁발표	-600
전자	-601
▁선거	-602
▁관심	-603
▁온라인	-604
리가	-605
▁의료	-606
▁추진	-607
▁신청	-608
▁내용	-609
바이	-610
▁누	-611
들에게	-612
▁국민	-613
▁방송	-614
하였다	-615
▁경쟁	-616
▁엔	-617
원이	-618
▁업무	-619
정보	-620
▁모델	-621
▁실시	-622
▁글로벌	-623
처럼	-624
▁일본	-625
▁높은	-626
▁결정	-627
이는	-628
▁개선	-629
▁정도	-630
▁모습	-631
▁시행	-632
통신	-633
▁지급	-634
금을	-635
교육	-636
통령	-637
▁한편	-638
▁LG	-639
▁구청	-640
▁블	-641
▁언	-642
▁치료	-643
▁휴	-644
▁태	-645
▁15	-646
▁이유	-647
▁전망	-648
▁G	-649
▁개인	-650
지원	-651
▁상태	-652
▁첫	-653
하겠	-654
▁힘	-655
▁일부	-656
▁구조	-657
▁이동	-658
▁범	-659
왔다	-660
▁환경	-661
▁반도체	-662
▁어려	-663
▁예정이다	-664
▁P	-665
▁마련	-666
산업	-667
▁대통령	-668
자동차	-669
▁빠	-670
▁기록	-671
▁있을	-672
▁이미	-673
▁전체	-674
력이	-675
자인	-676
이어	-677
▁때문이다	-678
사의	-679
▁건강	-680
▁부산	-681
▁위하여	-682
지털	-683
▁낮	-684
인다	-685
▁있으며	-686
▁요구	-687
▁최고	-688
▁보고	-689
▁영향	-690
보험	-691
▁국가	-692
스크	-693
▁허	-694
▁통합	-695
도가	-696
부는	-697
▁눈	-698
▁중심	-699
▁농	-700
혁신	-701
▁등에	-702
▁수준	-703
기는	-704
▁강화	-705
▁면	-706
▁극	-707
▁볼	-708
▁관계자는	-709
▁홍	-710
▁전자	-711
▁폐	-712
▁정책	-713
▁그러나	-714
식을	-715
▁업체	-716
▁인터	-717
▁확보	-718
▁중요	-719
▁서비스를	-720
▁해외	-721
▁규모	-722
했던	-723
▁민주당	-724
▁그는	-725
▁날	-726
▁공급	-727
시에	-728
▁형성	-729
▁친	-730
▁다만	-731
▁판단	-732
▁기간	-733
인이	-734
▁성장	-735
▁환자	-736
케이	-737
대표	-738
위를	-739
▁책	-740
▁구축	-741
회를	-742
장치	-743
▁있었다	-744
▁병원	-745
▁유지	-746
▁스타	-747
▁막	-748
으로써	-749
서를	-750
▁않고	-751
▁송	-752
▁다시	-753
▁일반	-754
▁더욱	-755
▁지속	-756
▁AI	-757
원을	-758
0%	-759
연구	-760
안을	-761
상이	-762
제로	-763
명을	-764
바일	-765
▁버	-766
▁디지털	-767
텐츠	-768
▁계획이다	-769
들과	-770
▁응	-771
의를	-772
▁오는	-773
▁정치	-774
▁주요	-775
▁곳	-776
▁조사	-777
▁부분	-778
▁과정	-779
▁적극	-780
▁테	-781
원은	-782
▁제작	-783
▁대상으로	-784
▁강조	-785
하도록	-786
▁벌	-787
▁처리	-788
▁않은	-789
으면	-790
으나	-791
▁상품	-792
▁여부	-793
▁여러	-794
▁만큼	-795
▁특별	-796
▁대비	-797
▁설명했다	-798
부모	-799
업체	-800
제를	-801
▁영화	-802
므로	-803
▁지적	-804
▁사항	-805
▁제공한다	-806
▁가격	-807
입니다	-808
▁장치	-809
▁받아	-810
기로	-811
▁통신	-812
▁감소	-813
▁처음	-814
▁규정	-815
▁전국	-816
▁이런	-817
▁없이	-818
불어	-819
▁향상	-820
▁선보	-821
▁베	-822
▁있고	-823
▁예상	-824
리아	-825
▁공동	-826
▁D	-827
되지	-828
났다	-829
▁현대차	-830
했고	-831
▁앞서	-832
▁많이	-833
▁도입	-834
▁100	-835
▁같이	-836
이트	-837
료를	-838
▁느	-839
▁발전	-840
▁더불어	-841
▁「	-842
▁나온	-843
▁인정	-844
▁방문	-845
▁방식	-846
장의	-847
기의	-848
▁18	-849
▁브랜드	-850
▁황	-851
▁사건	-852
▁모바일	-853
▁있습니다	-854
▁격	-855
▁경우에는	-856
지가	-857
어나	-858
▁보험	-859
▁탄	-860
▁따라서	-861
자로	-862
▁있다고	-863
▁확산	-864
▁동안	-865
▁캐	-866
▁얻	-867
대를	-868
음을	-869
▁총선	-870
▁핵	-871
되었다	-872
▁그리고	-873
▁스마트폰	-874
▁E	-875
▁학부모	-876
▁가입	-877
▁자유	-878
▁백	-879
▁제출	-880
드는	-881
▁물론	-882
한국	-883
스를	-884
▁당시	-885
▁대응	-886
시아	-887
업을	-888
▁13	-889
원의	-890
워크	-891
▁선택	-892
그룹	-893
가는	-894
▁효율	-895
▁전략	-896
▁선정	-897
방법	-898
▁보호	-899
▁받은	-900
▁노조	-901
▁우려	-902
수가	-903
▁지금	-904
당이	-905
▁혁신	-906
▁의미	-907
▁피해	-908
일부터	-909
진다	-910
명의	-911
해서	-912
,000	-913
개월	-914
▁16	-915
하거나	-916
도로	-917
▁끝	-918
▁바이	-919
개발	-920
서비스	-921
▁생활	-922
계를	-923
▁회사	-924
점을	-925
▁비롯	-926
라도	-927
▁각각	-928
▁신종	-929
▁내년	-930
▁된	-931
인을	-932
▁자체	-933
자들이	-934
▁안정	-935
합니다	-936
▁25	-937
한다고	-938
라우	-939
▁수행	-940
▁고려	-941
렸다	-942
너지	-943
▁긴	-944
▁연결	-945
▁자동	-946
▁배우	-947
▁월	-948
▁컨	-949
▁콘텐츠	-950
환경	-951
▁거래	-952
수를	-953
▁어떤	-954
▁방지	-955
▁엔진	-956
▁축	-957
▁14	-958
시설	-959
▁암	-960
▁주장	-961
▁보인다	-962
▁철	-963
▁존	-964
▁길	-965
▁사례	-966
▁문화	-967
▁이루	-968
부분	-969
▁주행	-970
▁중소	-971
부가	-972
▁키	-973
▁경영	-974
▁준비	-975
▁업계	-976
스는	-977
인의	-978
▁매출	-979
▁됐다	-980
',	-981
주는	-982
노동	-983
시스템	-984
▁쉽	-985
▁뉴	-986
▁솔	-987
지역	-988
▁윤	-989
▁제공하는	-990
는다	-991
▁영상	-992
▁인공	-993
▁만들어	-994
▁참석	-995
▁조례	-996
▁잡	-997
이며	-998
▁17	-999
▁지난달	-1000
▁얼	-1001
▁예방	-1002
▁대구	-1003
▁크게	-1004
▁집중	-1005
단체	-1006
동을	-1007
▁기술을	-1008
▁변화	-1009
트를	-1010
▁역할	-1011
UV	-1012
▁부담	-1013
감을	-1014
▁대표는	-1015
▁북	-1016
▁최초	-1017
▁전기차	-1018
▁쓰	-1019
민주당	-1020
소를	-1021
▁등으로	-1022
▁나오	-1023
▁협력	-1024
▁구청장은	-1025
▁비용	-1026
▁야	-1027
▁악	-1028
약을	-1029
로부터	-1030
▁수도	-1031
▁갈	-1032
▁떨	-1033
밖에	-1034
▁밀	-1035
▁공정	-1036
이었다	-1037
▁혼	-1038
▁장관	-1039
▁계속	-1040
▁이러	-1041
▁앱	-1042
▁역시	-1043
었던	-1044
지능	-1045
▁되는	-1046
항에	-1047
▁보여	-1048
▁핵심	-1049
▁가능성이	-1050
선을	-1051
프트	-1052
▁의견	-1053
▁있게	-1054
수는	-1055
▁예산	-1056
지에	-1057
세대	-1058
하기로	-1059
▁인터넷	-1060
바이러스	-1061
플레이	-1062
▁개최	-1063
자와	-1064
량을	-1065
▁육	-1066
▁레	-1067
한다는	-1068
기간	-1069
자에게	-1070
했지만	-1071
하였	-1072
▁열린	-1073
▁여성	-1074
▁그런	-1075
▁이러한	-1076
드를	-1077
▁사고	-1078
율이	-1079
▁참가	-1080
일까지	-1081
▁피고	-1082
▁전환	-1083
▁이해	-1084
체인	-1085
▁현장	-1086
▁보건	-1087
▁이는	-1088
▁가능한	-1089
▁홈	-1090
물을	-1091
▁수요	-1092
▁기본	-1093
루션	-1094
▁지방	-1095
▁SK	-1096
▁압	-1097
수의	-1098
▁구매	-1099
▁지정	-1100
▁성공	-1101
하고자	-1102
▁위험	-1103
▁이뤄	-1104
사회	-1105
▁21	-1106
▁공간	-1107
▁군	-1108
차를	-1109
▁수출	-1110
▁기관	-1111
▁찾아	-1112
▁병	-1113
안은	-1114
웨이	-1115
▁경험	-1116
씨는	-1117
▁수입	-1118
리에	-1119
▁떨어	-1120
▁행사	-1121
▁전문가	-1122
▁오후	-1123
▁가족	-1124
▁잠	-1125
▁아닌	-1126
랍니다	-1127
▁탑	-1128
▁시설	-1129
스터	-1130
▁합니다	-1131
▁검사	-1132
▁부품	-1133
▁희	-1134
▁공공	-1135
▁24	-1136
되면서	-1137
움을	-1138
성과	-1139
치는	-1140
▁디자인	-1141
트워크	-1142
이라며	-1143
▁바랍니다	-1144
▁해결	-1145
▁품	-1146
금융	-1147
▁블록	-1148
▁N	-1149
▁받았다	-1150
▁즉	-1151
비를	-1152
주의	-1153
▁천	-1154
하려	-1155
▁상승	-1156
라우드	-1157
세를	-1158
▁받고	-1159
▁로봇	-1160
▁과학	-1161
▁맡	-1162
▁제어	-1163
▁상기	-1164
▁정보를	-1165
▁소속	-1166
▁보유	-1167
▁위치	-1168
▁애플	-1169
▁차지	-1170
카오	-1171
▁몰	-1172
▁아래	-1173
이하	-1174
▁국제	-1175
▁원내	-1176
▁높아	-1177
▁R	-1178
시킬	-1179
▁설립	-1180
▁뿐	-1181
▁사태	-1182
▁성능	-1183
데이터	-1184
▁자신의	-1185
▁목표	-1186
▁자율	-1187
▁전했다	-1188
▁대부분	-1189
▁내부	-1190
시기	-1191
▁먼	-1192
권을	-1193
정이	-1194
▁실제	-1195
자들의	-1196
사와	-1197
특별	-1198
▁우선	-1199
▁변경	-1200
▁의해	-1201
▁경기	-1202
10	-1203
▁인공지능	-1204
▁형태	-1205
▁공유	-1206
▁있지만	-1207
임을	-1208
▁50	-1209
▁동시에	-1210
▁운전	-1211
지의	-1212
▁영업	-1213
▁나온다	-1214
▁영향을	-1215
▁정부가	-1216
▁이야	-1217
▁중앙	-1218
함으로써	-1219
▁비교	-1220
▁컴	-1221
도의	-1222
▁강조했다	-1223
겠다	-1224
▁앞으로	-1225
▁V	-1226
▁머	-1227
대가	-1228
▁사전	-1229
▁유럽	-1230
▁사망	-1231
▁노력	-1232
▁행정	-1233
본부	-1234
▁최소	-1235
▁필요하다	-1236
▁우수	-1237
▁각종	-1238
시는	-1239
▁페이	-1240
▁라	-1241
▁어느	-1242
지로	-1243
안전	-1244
▁기아	-1245
▁은행	-1246
에선	-1247
▁가정	-1248
▁코로나바이러스	-1249
▁스타트	-1250
▁대하여	-1251
▁SUV	-1252
디어	-1253
▁납	-1254
▁개정	-1255
▁의원은	-1256
르게	-1257
조에	-1258
▁외국	-1259
▁하이	-1260
▁보다	-1261
▁의한	-1262
주행	-1263
▁TV	-1264
▁청와	-1265
스가	-1266
▁더불어민주당	-1267
▁근무	-1268
계획	-1269
라마	-1270
회사	-1271
▁안내	-1272
▁본격	-1273
▁놓	-1274
▁착	-1275
▁어린	-1276
▁특징	-1277
▁대출	-1278
▁효과가	-1279
▁주민	-1280
동안	-1281
▁수익	-1282
▁검찰	-1283
포츠	-1284
▁원고	-1285
대에	-1286
▁좋은	-1287
▁귀	-1288
▁않았다	-1289
제가	-1290
)'	-1291
▁중심으로	-1292
인은	-1293
▁신규	-1294
▁터	-1295
냈다	-1296
▁이루어	-1297
▁시민	-1298
▁주목	-1299
▁촉	-1300
디오	-1301
▁등록	-1302
▁있어서	-1303
▁전달	-1304
▁제시	-1305
▁침	-1306
르는	-1307
▁제기	-1308
▁의원이	-1309
▁카카오	-1310
장과	-1311
문화	-1312
▁배터	-1313
▁중인	-1314
▁보안	-1315
▁소재	-1316
▁끌	-1317
▁활성	-1318
전히	-1319
텔레	-1320
갤럭	-1321
▁장애	-1322
▁떠	-1323
스플레이	-1324
웨어	-1325
회가	-1326
▁상당	-1327
▁직원	-1328
부를	-1329
복지	-1330
▁받을	-1331
없이	-1332
▁정확	-1333
▁대학	-1334
▁너	-1335
▁요청	-1336
갤럭시	-1337
▁싶	-1338
가를	-1339
▁마스크	-1340
▁오전	-1341
▁학부모님	-1342
▁솔루션	-1343
▁하여	-1344
▁클라우드	-1345
▁출연	-1346
▁먹	-1347
년간	-1348
▁공식	-1349
이버	-1350
▁인해	-1351
점이	-1352
되었	-1353
▁O	-1354
스로	-1355
되면	-1356
스타	-1357
▁반응	-1358
▁199	-1359
▁삼성전	-1360
▁가능하다	-1361
▁휴대	-1362
메라	-1363
▁제외	-1364
량이	-1365
er	-1366
▁외부	-1367
▁풀	-1368
용차	-1369
▁23	-1370
▁방법에	-1371
▁벤	-1372
소년	-1373
▁인한	-1374
▁진단	-1375
▁담당	-1376
▁이와	-1377
과의	-1378
조사	-1379
자에	-1380
▁반영	-1381
▁기능을	-1382
▁접촉	-1383
▁펼	-1384
임금	-1385
장에	-1386
상의	-1387
▁탈	-1388
관계	-1389
▁시청	-1390
▁아직	-1391
브리	-1392
▁향후	-1393
렇게	-1394
▁대형	-1395
▁지지	-1396
▁네트워크	-1397
▁스타트업	-1398
▁도시	-1399
▁넘어	-1400
MW	-1401
생활	-1402
시켜	-1403
▁27	-1404
경제	-1405
▁가지	-1406
▁먼저	-1407
한국당	-1408
▁드러	-1409
▁경찰	-1410
▁논의	-1411
함을	-1412
▁방침	-1413
적이	-1414
▁통한	-1415
▁이전	-1416
▁늘어	-1417
학년	-1418
50	-1419
▁F	-1420
증을	-1421
▁나타났다	-1422
▁즐	-1423
▁사랑	-1424
▁전해	-1425
투자	-1426
▁취약	-1427
▁22	-1428
▁바로	-1429
▁퇴	-1430
▁매우	-1431
▁비판	-1432
통합	-1433
마다	-1434
개의	-1435
▁에너지	-1436
스의	-1437
▁파악	-1438
▁26	-1439
펀드	-1440
로는	-1441
▁반면	-1442
시키는	-1443
하다는	-1444
▁한다는	-1445
▁계약	-1446
▁프리	-1447
서의	-1448
▁전시	-1449
▁체결	-1450
▁역할을	-1451
▁과정에서	-1452
성에	-1453
▁한국당	-1454
▁중소기업	-1455
▁있었	-1456
▁조직	-1457
▁어렵	-1458
▁작업	-1459
on	-1460
▁울	-1461
조제	-1462
▁블록체인	-1463
문을	-1464
회는	-1465
▁마이	-1466
코리아	-1467
▁사진	-1468
▁체험	-1469
위에	-1470
▁부족	-1471
▁능	-1472
▁때에는	-1473
규직	-1474
▁목적으로	-1475
▁소개	-1476
▁존재	-1477
▁액	-1478
▁원내대표	-1479
▁논란	-1480
화된	-1481
▁뛰	-1482
이가	-1483
에서의	-1484
▁난	-1485
▁만에	-1486
더라도	-1487
▁빅	-1488
고를	-1489
▁몸	-1490
▁알려졌다	-1491
▁않아	-1492
▁말한다	-1493
나라	-1494
▁돌아	-1495
립니다	-1496
in	-1497
이션	-1498
▁학습	-1499
규모	-1500
반기	-1501
하겠다	-1502
▁제한	-1503
리티	-1504
▁것도	-1505
▁르	-1506
▁석	-1507
▁사람이	-1508
AI	-1509
▁BMW	-1510
▁완성	-1511
▁사무	-1512
▁골	-1513
▁하며	-1514
▁평균	-1515
▁검토	-1516
▁둘	-1517
재인	-1518
▁일자	-1519
▁그래	-1520
분기	-1521
▁않을	-1522
원에	-1523
▁징	-1524
과를	-1525
▁28	-1526
▁투표	-1527
▁사업을	-1528
부의	-1529
▁0	-1530
▁겪	-1531
품을	-1532
전을	-1533
대의	-1534
장에서	-1535
▁질병	-1536
▁단말	-1537
▁인사	-1538
▁방향	-1539
명으로	-1540
▁두고	-1541
▁팬	-1542
로를	-1543
▁알고	-1544
▁임금	-1545
▁비해	-1546
▁일정	-1547
▁자연	-1548
했다는	-1549
들도	-1550
▁최저	-1551
▁수소	-1552
▁불가	-1553
▁시스템을	-1554
▁풍	-1555
▁자리	-1556
▁단체	-1557
▁하루	-1558
▁무선	-1559
▁움	-1560
▁엄	-1561
▁결합	-1562
쇼핑	-1563
▁보면	-1564
▁대표가	-1565
▁민주	-1566
▁교통	-1567
▁답	-1568
▁번째	-1569
▁지도	-1570
▁이름	-1571
라며	-1572
▁신호	-1573
▁문제가	-1574
▁않았	-1575
▁탑재	-1576
가가	-1577
▁채널	-1578
촬영	-1579
▁호의	-1580
▁29	-1581
▁감염증	-1582
▁이상의	-1583
실을	-1584
▁그룹	-1585
▁비례	-1586
.5	-1587
▁꾸	-1588
▁이용한	-1589
▁조정	-1590
▁합의	-1591
리지	-1592
▁KT	-1593
▁충전	-1594
▁H	-1595
BS	-1596
▁범위	-1597
▁2017	-1598
특별시	-1599
▁부문	-1600
조합	-1601
▁건설	-1602
▁카메라	-1603
▁달리	-1604
자들은	-1605
▁같다	-1606
동산	-1607
정책	-1608
▁장기	-1609
대상	-1610
업계	-1611
▁갤럭시	-1612
▁인간	-1613
▁결국	-1614
원으로	-1615
▁중이다	-1616
▁공무	-1617
▁팔	-1618
▁1,	-1619
▁덧	-1620
▁자녀	-1621
년부터	-1622
▁구현	-1623
▁회의	-1624
달러	-1625
▁삼성전자	-1626
사에	-1627
▁인천	-1628
▁인식	-1629
▁디스플레이	-1630
인지	-1631
▁발견	-1632
▁고안은	-1633
▁네이버	-1634
▁청와대	-1635
▁발명에	-1636
▁르노	-1637
▁녹	-1638
율을	-1639
▁뜻	-1640
▁움직	-1641
퓨터	-1642
▁중요한	-1643
▁않는다	-1644
▁단계	-1645
▁거쳐	-1646
▁보조	-1647
이드	-1648
▁모터	-1649
▁국회의	-1650
되며	-1651
도는	-1652
▁폴	-1653
▁공연	-1654
▁이내	-1655
▁와	-1656
▁대신	-1657
▁정당	-1658
년에	-1659
▁과거	-1660
▁홈페이	-1661
의료	-1662
▁어린이	-1663
▁특정	-1664
움이	-1665
▁혜	-1666
▁40	-1667
이기	-1668
▁등장	-1669
▁데이터를	-1670
30	-1671
TV	-1672
▁자율주행	-1673
▁첨	-1674
▁마음	-1675
▁주식	-1676
▁상대	-1677
NS	-1678
▁중단	-1679
▁충분	-1680
거래	-1681
구를	-1682
▁당선	-1683
▁희망	-1684
▁책임	-1685
▁케이	-1686
▁덧붙	-1687
▁해당하는	-1688
▁설계	-1689
운영	-1690
▁하락	-1691
테크	-1692
▁음악	-1693
▁사회적	-1694
▁내용을	-1695
▁배출	-1696
▁줄어	-1697
섰다	-1698
리의	-1699
▁사항을	-1700
▁현지	-1701
▁내놓	-1702
▁작성	-1703
했으며	-1704
케팅	-1705
▁조치	-1706
▁협의	-1707
▁2019	-1708
▁진출	-1709
대책	-1710
▁정의	-1711
▁관심이	-1712
시킨	-1713
▁조성	-1714
계층	-1715
지면서	-1716
▁방법을	-1717
▁감독	-1718
▁표현	-1719
질을	-1720
튜브	-1721
▁종합	-1722
안이	-1723
무를	-1724
▁출마	-1725
떻게	-1726
▁2018	-1727
▁신뢰	-1728
▁기판	-1729
▁민간	-1730
▁차종	-1731
프로	-1732
롭게	-1733
▁추천	-1734
▁전망이다	-1735
▁봉	-1736
▁쌍	-1737
▁경기도	-1738
성은	-1739
▁신고	-1740
▁스포츠	-1741
화가	-1742
▁결과를	-1743
장으로	-1744
▁관심을	-1745
▁프로젝	-1746
▁쉽게	-1747
▁라이	-1748
▁정상	-1749
▁지분	-1750
▁있기	-1751
▁소비자	-1752
▁개시	-1753
▁견	-1754
부에	-1755
▁영역	-1756
▁서로	-1757
▁접속	-1758
▁없어	-1759
별로	-1760
▁주변	-1761
▁바탕	-1762
활동	-1763
체를	-1764
▁인수	-1765
▁어떻게	-1766
세가	-1767
▁독일	-1768
선거	-1769
▁판정을	-1770
▁만든	-1771
ED	-1772
▁감사	-1773
하던	-1774
▁드라마	-1775
▁최종	-1776
▁하지	-1777
정의	-1778
지지	-1779
▁규제	-1780
▁방역	-1781
▁나서	-1782
씨가	-1783
▁통과	-1784
▁센	-1785
나는	-1786
▁31	-1787
▁퍼	-1788
▁광주	-1789
▁정부는	-1790
▁환자가	-1791
▁몇	-1792
하자	-1793
▁사용할	-1794
▁긴급	-1795
),	-1796
▁이들	-1797
▁티	-1798
▁융	-1799
회에	-1800
▁덧붙였다	-1801
카드	-1802
▁2020	-1803
▁문재인	-1804
월부터	-1805
다가	-1806
▁최초로	-1807
▁고정	-1808
이를	-1809
▁전송	-1810
▁가진	-1811
기준	-1812
▁목소	-1813
▁상담	-1814
▁꼽	-1815
▁무엇	-1816
▁흐	-1817
적을	-1818
▁받는	-1819
트로	-1820
▁기반으로	-1821
▁이용하여	-1822
▁확정	-1823
▁촬영	-1824
등학교	-1825
▁측정	-1826
▁활동을	-1827
▁혜택	-1828
물이	-1829
▁혐	-1830
▁하이브리	-1831
▁레이	-1832
▁신차	-1833
▁점을	-1834
▁IT	-1835
▁갖고	-1836
면에	-1837
증권	-1838
▁자기	-1839
▁기아차	-1840
과학	-1841
드립니다	-1842
▁도지	-1843
요타	-1844
▁청년	-1845
▁공천	-1846
건을	-1847
▁제안	-1848
와의	-1849
▁음성	-1850
▁상황에서	-1851
▁장착	-1852
▁표시	-1853
제는	-1854
화에	-1855
소가	-1856
▁올라	-1857
▁이하	-1858
▁동일	-1859
▁전년	-1860
지도	-1861
▁대책	-1862
▁소송	-1863
▁예측	-1864
▁어려운	-1865
▁가지고	-1866
▁되어	-1867
▁관련해	-1868
▁기획	-1869
하는데	-1870
수록	-1871
당국	-1872
▁기자	-1873
▁전화	-1874
회에서	-1875
▁택	-1876
▁위반	-1877
하기도	-1878
▁문제를	-1879
▁은	-1880
▁소프트	-1881
▁숨	-1882
르고	-1883
▁측은	-1884
회로	-1885
▁자금	-1886
크로	-1887
▁가까	-1888
▁이동통신	-1889
▁캠	-1890
▁것이라는	-1891
내는	-1892
▁냉	-1893
▁좀	-1894
리즈	-1895
▁수술	-1896
▁쿠	-1897
▁겨	-1898
▁흡	-1899
▁실시간	-1900
▁입장	-1901
가격	-1902
대한	-1903
로서	-1904
▁구글	-1905
▁않다	-1906
▁깊	-1907
▁작품	-1908
▁현실	-1909
▁페	-1910
률이	-1911
▁신용	-1912
▁부동산	-1913
▁광고	-1914
기와	-1915
▁모습을	-1916
▁소형	-1917
으로부터	-1918
▁넓	-1919
▁단순	-1920
▁라인	-1921
물의	-1922
하지만	-1923
▁바탕으로	-1924
▁‘	-1925
도에	-1926
상공	-1927
▁지원을	-1928
두고	-1929
▁있는데	-1930
▁매년	-1931
▁웨이	-1932
▁컴퓨터	-1933
구의	-1934
▁출신	-1935
▁협조	-1936
▁발생한	-1937
이익	-1938
▁수상	-1939
▁나왔다	-1940
▁배터리	-1941
▁너무	-1942
비용	-1943
위가	-1944
▁오늘	-1945
이란	-1946
겠다는	-1947
▁자유한국당	-1948
▁방침이다	-1949
▁사용하는	-1950
▁둔	-1951
▁정부의	-1952
조의	-1953
울러	-1954
▁특허	-1955
으로는	-1956
위는	-1957
호화	-1958
▁마케팅	-1959
▁사실을	-1960
▁빅데이터	-1961
▁혈	-1962
▁인증	-1963
▁비중	-1964
구가	-1965
보호	-1966
▁뛰어	-1967
▁설정	-1968
▁이달	-1969
▁색	-1970
감이	-1971
계가	-1972
▁유통	-1973
▁비롯해	-1974
▁바이러스	-1975
▁불법	-1976
▁심의	-1977
▁하이브리드	-1978
조정	-1979
▁법률	-1980
원에서	-1981
플러스	-1982
제품	-1983
▁아니다	-1984
했을	-1985
▁보이	-1986
▁집단	-1987
처리	-1988
▁자산	-1989
▁아울러	-1990
▁의사	-1991
▁이벤	-1992
▁중고	-1993
가지	-1994
구청	-1995
▁주택	-1996
진을	-1997
▁것이라고	-1998
▁보장	-1999
BC	-2000
▁돈	-2001
▁정도로	-2002
▁타이어	-2003
▁서울특별시	-2004
인트	-2005
니터	-2006
▁결제	-2007
▁페이스	-2008
자산	-2009
▁분위	-2010
▁망	-2011
▁취약계층	-2012
15	-2013
▁되고	-2014
▁그동안	-2015
행을	-2016
격을	-2017
▁놀	-2018
소득	-2019
정부	-2020
상에	-2021
광역	-2022
▁부탁	-2023
미래	-2024
▁시장에서	-2025
▁멀	-2026
▁제거	-2027
▁못한	-2028
▁2016	-2029
보고	-2030
▁보수	-2031
▁만나	-2032
▁그의	-2033
▁시간이	-2034
▁거의	-2035
▁나선	-2036
▁에어	-2037
▁인도	-2038
▁프로그램을	-2039
평가	-2040
▁위탁	-2041
▁효과를	-2042
들에	-2043
식이	-2044
80	-2045
▁균	-2046
▁격리	-2047
▁수신	-2048
지막	-2049
질환	-2050
▁홍보	-2051
▁대체	-2052
억원을	-2053
일을	-2054
▁여야	-2055
▁궁	-2056
▁운동	-2057
▁전용	-2058
▁위해서는	-2059
.2	-2060
스와	-2061
▁구체	-2062
프라	-2063
▁헤	-2064
▁U	-2065
명은	-2066
▁저장	-2067
▁확진자가	-2068
항의	-2069
사로	-2070
▁포함한	-2071
▁제대로	-2072
▁대해서는	-2073
▁유튜브	-2074
인데	-2075
계약	-2076
▁사람들이	-2077
▁전지	-2078
▁근로자	-2079
케이션	-2080
ar	-2081
▁최적	-2082
▁시장은	-2083
▁우리나라	-2084
▁의혹	-2085
▁기여	-2086
받은	-2087
▁조합	-2088
장치에	-2089
▁팀	-2090
▁얼마	-2091
▁최저임금	-2092
▁수립	-2093
▁지나	-2094
▁하면	-2095
일에	-2096
▁낮은	-2097
▁센터	-2098
▁소유	-2099
▁흥	-2100
분의	-2101
린다	-2102
▁입원	-2103
▁202	-2104
▁투입	-2105
당을	-2106
당의	-2107
▁잔	-2108
▁시험	-2109
▁실험	-2110
11	-2111
▁이렇게	-2112
▁돼	-2113
류를	-2114
액을	-2115
▁활용해	-2116
구하고	-2117
방법에	-2118
60	-2119
▁뇌	-2120
▁삶	-2121
▁변동	-2122
▁모습이	-2123
▁여전히	-2124
이자	-2125
▁셀	-2126
▁60	-2127
▁카드	-2128
▁연계	-2129
파트	-2130
▁PC	-2131
▁채용	-2132
▁의견을	-2133
감염	-2134
▁자료	-2135
▁신속	-2136
보는	-2137
단을	-2138
▁마지막	-2139
▁필요가	-2140
▁등은	-2141
▁원격	-2142
▁항공	-2143
▁이유로	-2144
▁확인할	-2145
▁점검	-2146
▁모니터	-2147
▁스스로	-2148
▁시간을	-2149
▁프리미	-2150
▁발표했다	-2151
▁페이스북	-2152
▁언급	-2153
▁수밖에	-2154
▁없었다	-2155
노총	-2156
▁편의	-2157
▁회복	-2158
▁붙	-2159
년까지	-2160
▁파업	-2161
▁빠르게	-2162
▁연기	-2163
▁제품을	-2164
▁영국	-2165
▁노사	-2166
▁정신	-2167
▁시장에	-2168
▁인상	-2169
▁살펴	-2170
▁추정	-2171
▁목적	-2172
ti	-2173
▁주도	-2174
▁연료	-2175
머니	-2176
면을	-2177
or	-2178
▁전통	-2179
▁친환경	-2180
▁잇	-2181
함에	-2182
▁일이	-2183
▁수가	-2184
▁해야	-2185
▁의하여	-2186
스에	-2187
체가	-2188
삼성	-2189
▁되었다	-2190
관이	-2191
▁죽	-2192
멤버	-2193
텔레콤	-2194
▁작은	-2195
▁전날	-2196
사고	-2197
.3	-2198
광역시	-2199
▁발생하는	-2200
▁빛	-2201
▁원하는	-2202
▁좌	-2203
▁도로	-2204
▁청소년	-2205
▁주는	-2206
서도	-2207
원과	-2208
체의	-2209
▁염	-2210
▁웃	-2211
즈니	-2212
▁의심	-2213
▁슬	-2214
게임	-2215
▁억	-2216
▁내려	-2217
▁별지	-2218
▁입력	-2219
▁웨이퍼	-2220
▁실제로	-2221
▁선언	-2222
아가	-2223
▁여기에	-2224
항공	-2225
▁소득	-2226
▁기초	-2227
▁할인	-2228
▁앞두고	-2229
CT	-2230
교통	-2231
식에	-2232
▁비롯한	-2233
▁제도	-2234
됩니다	-2235
쳤다	-2236
▁미래통합	-2237
근로	-2238
치고	-2239
국민	-2240
▁누구	-2241
▁연간	-2242
빌리티	-2243
▁보내	-2244
갔다	-2245
거리	-2246
▁일으	-2247
▁차단	-2248
운동	-2249
▁제주	-2250
▁하나의	-2251
▁오픈	-2252
▁초기	-2253
▁힘을	-2254
▁금속	-2255
▁전력	-2256
▁가치	-2257
▁무료	-2258
▁분리	-2259
스바	-2260
차가	-2261
베이	-2262
▁흔	-2263
▁좋아	-2264
당은	-2265
었고	-2266
▁소프트웨어	-2267
사항	-2268
진이	-2269
▁사유	-2270
관은	-2271
보건	-2272
코로나	-2273
학생	-2274
▁거주	-2275
▁슈	-2276
▁바른	-2277
인으로	-2278
▁태양	-2279
▁많다	-2280
법을	-2281
▁용이	-2282
▁창업	-2283
▁확장	-2284
▁주로	-2285
▁아시아	-2286
부와	-2287
▁최소화	-2288
al	-2289
▁대중	-2290
주택	-2291
▁했	-2292
▁서버	-2293
▁전파	-2294
▁활성화	-2295
▁연속	-2296
▁갑	-2297
▁달라	-2298
▁품질	-2299
▁방식으로	-2300
만큼	-2301
▁비슷	-2302
▁이끌	-2303
.1	-2304
▁얘	-2305
신청	-2306
▁고민	-2307
▁위촉	-2308
▁지적했다	-2309
▁구입	-2310
정에	-2311
롯데	-2312
▁덕	-2313
▁관련된	-2314
▁노래	-2315
▁양성	-2316
되기	-2317
▁부정	-2318
▁인력	-2319
▁공시	-2320
전지	-2321
관을	-2322
▁방안을	-2323
하겠다는	-2324
▁완료	-2325
▁검사를	-2326
▁예비	-2327
▁이같	-2328
▁활용한	-2329
an	-2330
▁외국인	-2331
무리	-2332
▁GM	-2333
▁도전	-2334
스바겐	-2335
▁수는	-2336
▁조절	-2337
▁주시기	-2338
▁상호	-2339
리스	-2340
▁신경	-2341
▁깨	-2342
▁접근	-2343
▁여부를	-2344
구조	-2345
▁표준	-2346
있는	-2347
이지만	-2348
▁늘어나	-2349
▁기준으로	-2350
km	-2351
▁해석	-2352
▁2015	-2353
▁콜	-2354
▁취소	-2355
▁강력	-2356
▁법무	-2357
▁전에	-2358
▁기업이	-2359
▁다음과	-2360
금이	-2361
▁만족	-2362
▁장비	-2363
▁검색	-2364
겼다	-2365
모터	-2366
▁그것	-2367
▁일자리	-2368
▁암호화	-2369
준다	-2370
▁교수	-2371
명에	-2372
▁시장을	-2373
의로	-2374
▁발행	-2375
▁작용	-2376
▁X	-2377
먼트	-2378
▁프로젝트	-2379
인터	-2380
▁셈	-2381
▁익	-2382
▁동작	-2383
▁한다고	-2384
▁가져	-2385
▁전반	-2386
위로	-2387
.6	-2388
▁멤버	-2389
▁행복	-2390
▁웹	-2391
▁감염병	-2392
스러	-2393
▁갖는	-2394
▁후보가	-2395
▁이용해	-2396
▁비정	-2397
▁서울시	-2398
▁것에	-2399
▁않도록	-2400
자치	-2401
▁빨	-2402
심을	-2403
보다는	-2404
▁처음으로	-2405
▁구비	-2406
▁불과	-2407
▁차별	-2408
▁측면	-2409
▁경우가	-2410
성능	-2411
방송	-2412
▁예상된다	-2413
▁판결	-2414
▁프리미엄	-2415
구에	-2416
하시	-2417
▁.	-2418
▁꾸준	-2419
.4	-2420
▁연장	-2421
하다고	-2422
▁의하면	-2423
▁달성	-2424
▁조금	-2425
▁운용	-2426
▁불구하고	-2427
▁바람	-2428
진흥	-2429
▁아동	-2430
▁보는	-2431
케어	-2432
▁획	-2433
▁발명의	-2434
▁발언	-2435
▁대규모	-2436
서에	-2437
▁열고	-2438
▁확진자	-2439
▁왜	-2440
▁비상	-2441
▁노동자	-2442
▁찬	-2443
▁반대	-2444
드시	-2445
▁손해	-2446
분을	-2447
액이	-2448
▁SNS	-2449
▁진료	-2450
▁유명	-2451
▁그렇	-2452
▁부모	-2453
▁이용할	-2454
▁미세	-2455
▁플라	-2456
▁위원장은	-2457
상으로	-2458
▁우려가	-2459
▁장치에	-2460
▁있던	-2461
▁지속적으로	-2462
릭터	-2463
▁주문	-2464
▁규정에	-2465
▁본교	-2466
고용	-2467
▁나섰다	-2468
소에	-2469
으면서	-2470
▁규모의	-2471
호를	-2472
느냐	-2473
▁'20	-2474
랐다	-2475
민국	-2476
▁기념	-2477
ST	-2478
사에서	-2479
12	-2480
인과	-2481
지와	-2482
▁주장했다	-2483
▁부과	-2484
▁화학	-2485
▁벗	-2486
▁곡	-2487
▁받았	-2488
▁개발한	-2489
▁쏘	-2490
▁상용	-2491
▁없다는	-2492
▁조건	-2493
서울	-2494
▁메시	-2495
▁자신이	-2496
▁달러	-2497
▁만드는	-2498
▁못하고	-2499
.8	-2500
▁낙	-2501
발전	-2502
▁밤	-2503
권이	-2504
▁가수	-2505
▁때는	-2506
산화	-2507
전문	-2508
▁스트	-2509
▁그런데	-2510
▁사실상	-2511
.7	-2512
연합	-2513
어를	-2514
▁수집	-2515
으므로	-2516
▁점에서	-2517
▁혹	-2518
▁그대로	-2519
▁업무를	-2520
▁관측	-2521
▁증상이	-2522
▁것과	-2523
협회	-2524
▁듯	-2525
▁롯데	-2526
▁이사	-2527
년대	-2528
▁공장	-2529
▁사람은	-2530
▁캐릭터	-2531
▁대통령이	-2532
▁나라	-2533
시키고	-2534
으로서	-2535
▁치료를	-2536
▁이들은	-2537
스럽	-2538
▁주차	-2539
만을	-2540
성의	-2541
▁도지사는	-2542
▁강남	-2543
▁삼성전자는	-2544
장에게	-2545
▁아우	-2546
en	-2547
▁빈	-2548
▁복지	-2549
▁알아	-2550
▁바이오	-2551
치료	-2552
.9	-2553
▁옮	-2554
▁지켜	-2555
▁설명이다	-2556
시켰	-2557
뿐만	-2558
▁생태	-2559
안에	-2560
▁탐	-2561
▁스위	-2562
▁음식	-2563
▁정기	-2564
▁소상공	-2565
▁보도	-2566
▁재난	-2567
▁점유	-2568
▁숙	-2569
단의	-2570
▁언론	-2571
▁창출	-2572
▁분류	-2573
▁전극	-2574
▁핀	-2575
리케이션	-2576
장애	-2577
주가	-2578
▁아마	-2579
티브	-2580
금의	-2581
봤다	-2582
▁상황을	-2583
관의	-2584
▁의무	-2585
판매	-2586
▁시작했다	-2587
▁맞춰	-2588
▁중에서	-2589
▁기업의	-2590
▁보였다	-2591
▁수업	-2592
▁배치	-2593
만으로	-2594
협의	-2595
▁실적	-2596
▁심사	-2597
▁출력	-2598
▁특수	-2599
▁반드시	-2600
아이	-2601
▁통보	-2602
▁하기	-2603
금은	-2604
▁밖	-2605
만의	-2606
위의	-2607
학과	-2608
▁300	-2609
▁교수는	-2610
학습	-2611
▁수용	-2612
▁쏟	-2613
▁198	-2614
지방	-2615
상품	-2616
▁이른	-2617
▁이제	-2618
부품	-2619
▁상황이	-2620
▁과학기술	-2621
▁등에서	-2622
오니	-2623
해주	-2624
▁높다	-2625
▁유치	-2626
▁해도	-2627
▁시장이	-2628
▁듣	-2629
▁그래서	-2630
▁맞춤	-2631
경영	-2632
▁안에	-2633
▁사이에	-2634
▁제공할	-2635
적이고	-2636
권의	-2637
부문	-2638
▁주관	-2639
▁나머	-2640
히려	-2641
▁규칙	-2642
가고	-2643
단이	-2644
▁매각	-2645
▁재판	-2646
▁운전자	-2647
▁인프라	-2648
▁극복	-2649
▁벌어	-2650
▁수입차	-2651
▁울산	-2652
▁돕	-2653
운용	-2654
▁도움이	-2655
▁지원하는	-2656
하이	-2657
40	-2658
▁작동	-2659
▁적합	-2660
▁편리	-2661
▁우리가	-2662
▁불편	-2663
▁맺	-2664
▁원칙	-2665
선이	-2666
▁뒷	-2667
비가	-2668
▁많아	-2669
▁스토	-2670
일이	-2671
▁젊	-2672
▁성과	-2673
▁첨단	-2674
▁2000	-2675
▁쇼핑	-2676
오는	-2677
성장	-2678
▁대기업	-2679
▁파트	-2680
▁곧	-2681
▁구분	-2682
▁중고차	-2683
하려는	-2684
산을	-2685
▁지원할	-2686
▁유기	-2687
▁추가로	-2688
▁비례대표	-2689
노조	-2690
▁프랑	-2691
▁한국의	-2692
세포	-2693
▁감안	-2694
▁암호화폐	-2695
▁Q	-2696
는지	-2697
▁기술이	-2698
▁갈등	-2699
▁기회를	-2700
▁넘는	-2701
▁디젤	-2702
▁여행	-2703
▁간편	-2704
▁빌	-2705
량의	-2706
대학교	-2707
▁상황이다	-2708
▁적절	-2709
▁과정을	-2710
▁소통	-2711
▁증권	-2712
감독	-2713
▁노출	-2714
간의	-2715
▁통화	-2716
▁장애인	-2717
성도	-2718
▁취업	-2719
▁고속	-2720
▁북한	-2721
드의	-2722
▁사용자	-2723
▁오히려	-2724
▁간단	-2725
▁전면	-2726
▁입장을	-2727
▁읽	-2728
▁근거	-2729
▁끌어	-2730
▁회원	-2731
▁식품	-2732
▁배경	-2733
▁여기	-2734
▁기록했다	-2735
▁공기	-2736
▁시장의	-2737
▁끊	-2738
▁등과	-2739
▁인재	-2740
▁뜨	-2741
력과	-2742
▁예고	-2743
▁현대자동차	-2744
▁이외	-2745
▁인하	-2746
▁싱	-2747
공무	-2748
호서	-2749
▁마이크로	-2750
▁적극적으로	-2751
.0	-2752
▁개별	-2753
건강	-2754
▁우수한	-2755
▁실현	-2756
▁심각	-2757
▁이익	-2758
▁전원	-2759
시가	-2760
율은	-2761
▁메모	-2762
▁여름	-2763
▁벤츠	-2764
위원회의	-2765
▁W	-2766
기기	-2767
▁헌	-2768
식의	-2769
▁임상	-2770
세계	-2771
단은	-2772
리와	-2773
▁수사	-2774
▁셈이다	-2775
유플러스	-2776
▁갖추	-2777
▁러	-2778
▁호흡	-2779
우는	-2780
▁푸	-2781
▁왔다	-2782
▁운영하는	-2783
18	-2784
mm	-2785
▁관객	-2786
▁무역	-2787
▁조작	-2788
▁보유한	-2789
▁나타나	-2790
량은	-2791
안정	-2792
▁기계	-2793
▁이것	-2794
▁자세	-2795
▁본회의	-2796
인터넷	-2797
▁궁금	-2798
▁발굴	-2799
분에	-2800
▁왕	-2801
▁질환	-2802
▁질병관리	-2803
받고	-2804
트남	-2805
▁있는지	-2806
▁넣	-2807
대학	-2808
▁구동	-2809
▁부탁드립니다	-2810
▁다이	-2811
상황	-2812
▁뿐만	-2813
▁임시	-2814
▁필요하다고	-2815
▁발표한	-2816
▁테스트	-2817
▁믿	-2818
상은	-2819
▁유리	-2820
목을	-2821
▁나는	-2822
▁접수	-2823
▁청구	-2824
▁비즈니	-2825
▁대기	-2826
▁의결	-2827
▁동의	-2828
▁2,	-2829
스토	-2830
어야	-2831
▁교환	-2832
▁실행	-2833
해진	-2834
▁통하여	-2835
▁부여	-2836
▁시각	-2837
물질	-2838
▁차례	-2839
▁회전	-2840
▁지금까지	-2841
리며	-2842
▁주력	-2843
▁보급	-2844
▁차세대	-2845
기아	-2846
▁싸	-2847
▁미리	-2848
▁그가	-2849
▁대한민국	-2850
▁바른미래	-2851
였던	-2852
월에	-2853
유의	-2854
▁논란이	-2855
▁금지	-2856
기능	-2857
▁건물	-2858
점에서	-2859
▁수요가	-2860
▁꿈	-2861
▁씨	-2862
앨범	-2863
▁내에	-2864
▁해소	-2865
▁살아	-2866
▁패널	-2867
▁것으로서	-2868
▁위해서	-2869
▁물질	-2870
▁갖춘	-2871
▁찍	-2872
다면	-2873
운드	-2874
▁완성차	-2875
▁강원	-2876
법인	-2877
▁잃	-2878
대출	-2879
5%	-2880
▁환자는	-2881
협력	-2882
▁패턴	-2883
▁공개했다	-2884
길을	-2885
▁물리	-2886
▁쌓	-2887
가스	-2888
▁빠른	-2889
▁J	-2890
국의	-2891
▁납부	-2892
▁급증	-2893
▁새로	-2894
▁유사	-2895
▁조치를	-2896
▁혜택을	-2897
▁칼	-2898
석을	-2899
▁사람의	-2900
▁500	-2901
▁상반기	-2902
률을	-2903
소는	-2904
▁휠	-2905
▁생성	-2906
▁맥	-2907
▁워	-2908
상태	-2909
▁이번에	-2910
▁어려움을	-2911
▁되면	-2912
▁모듈	-2913
대는	-2914
▁계산	-2915
▁관광	-2916
▁파트너	-2917
거운	-2918
닛산	-2919
▁건축	-2920
▁폭스바겐	-2921
▁장치를	-2922
▁특성을	-2923
개를	-2924
어링	-2925
번째	-2926
▁메르	-2927
▁어디	-2928
▁응답	-2929
▁관하여	-2930
▁명의	-2931
▁참고	-2932
▁이처럼	-2933
▁특별한	-2934
500	-2935
▁아파트	-2936
도시	-2937
만이	-2938
▁절반	-2939
▁프레	-2940
도와	-2941
▁신형	-2942
▁수수	-2943
▁르노삼성	-2944
▁IP	-2945
액은	-2946
▁삭	-2947
선의	-2948
년에는	-2949
▁끼	-2950
▁회로	-2951
▁휘	-2952
▁언제	-2953
리기	-2954
▁코스	-2955
소에서	-2956
▁비대	-2957
oT	-2958
▁맛	-2959
▁경북	-2960
▁가동	-2961
▁체계	-2962
적이다	-2963
영업	-2964
70	-2965
실이	-2966
트가	-2967
▁기억	-2968
▁기재	-2969
▁종사	-2970
었지만	-2971
▁패키	-2972
▁지역의	-2973
르기	-2974
전기	-2975
개혁	-2976
▁재정	-2977
모델	-2978
▁내가	-2979
▁시리즈	-2980
차는	-2981
프라인	-2982
▁못하는	-2983
▁분야에서	-2984
론을	-2985
▁지역구	-2986
▁육성	-2987
▁그러면서	-2988
▁렌	-2989
중앙	-2990
▁남아	-2991
트는	-2992
▁낸	-2993
▁밖에	-2994
▁반복	-2995
▁일을	-2996
▁받지	-2997
▁채권	-2998
▁정비	-2999
▁허용	-3000
리즘	-3001
만원을	-3002
금리	-3003
스코	-3004
▁교체	-3005
▁국회에서	-3006
▁비정규직	-3007
▁제공하고	-3008
▁경남	-3009
▁훨	-3010
에만	-3011
▁놓고	-3012
▁얼굴	-3013
직원	-3014
▁꼭	-3015
▁젊은	-3016
▁못했다	-3017
과는	-3018
▁현대차는	-3019
▁국토	-3020
▁베트남	-3021
▁값	-3022
▁지키	-3023
▁계열	-3024
▁상대적으로	-3025
▁훨씬	-3026
▁긍	-3027
▁인기	-3028
▁하반기	-3029
▁뮤	-3030
분이	-3031
▁질문	-3032
▁모델을	-3033
심의	-3034
영상	-3035
▁묻	-3036
웠다	-3037
▁직장	-3038
년을	-3039
▁운행	-3040
▁중에	-3041
에게는	-3042
▁예술	-3043
▁플랫폼을	-3044
▁펼쳐	-3045
▁충분히	-3046
▁환자의	-3047
▁지원한다	-3048
▁졸	-3049
시험	-3050
호의	-3051
▁펀드	-3052
▁사라	-3053
▁필수	-3054
▁유일	-3055
니티	-3056
▁이야기	-3057
▁겸	-3058
표를	-3059
▁모빌리티	-3060
IT	-3061
▁꾸준히	-3062
▁고급	-3063
▁마을	-3064
▁산업혁	-3065
▁홈페이지	-3066
▁느끼	-3067
▁해고	-3068
▁불가능	-3069
▁CE	-3070
▁집행	-3071
▁단축	-3072
▁내에서	-3073
▁미래통합당	-3074
▁전혀	-3075
▁애플리케이션	-3076
▁종류	-3077
▁진입	-3078
려는	-3079
▁나머지	-3080
인들이	-3081
▁크다	-3082
지면	-3083
▁동기	-3084
▁늘었다	-3085
▁학생들의	-3086
▁종료	-3087
▁국민의	-3088
▁정규직	-3089
▁둘러	-3090
▁형태로	-3091
▁흐름	-3092
▁통합당	-3093
으니	-3094
▁모양	-3095
▁배달	-3096
▁휴대폰	-3097
▁새롭게	-3098
드가	-3099
▁콘텐츠를	-3100
▁인기를	-3101
형을	-3102
▁밝혀	-3103
▁투자를	-3104
재산	-3105
▁기존의	-3106
▁거리	-3107
터를	-3108
▁잘못	-3109
뱅크	-3110
▁억제	-3111
▁순간	-3112
훈련	-3113
▁가상	-3114
▁행동	-3115
▁독립	-3116
▁국회의원	-3117
생님	-3118
화와	-3119
▁거부	-3120
▁성능을	-3121
▁이유는	-3122
후보	-3123
▁쏟아	-3124
▁오른	-3125
▁조선	-3126
▁총괄	-3127
시민	-3128
▁리튬	-3129
▁교육을	-3130
계의	-3131
리콘	-3132
▁보상	-3133
▁아무	-3134
약품	-3135
▁모집	-3136
▁작년	-3137
▁드라이	-3138
시의	-3139
▁가능성을	-3140
▁개편	-3141
▁위기	-3142
▁화면	-3143
▁간호	-3144
▁원활	-3145
▁출범	-3146
사인	-3147
직을	-3148
▁개인정보	-3149
구는	-3150
▁없을	-3151
▁마무리	-3152
소의	-3153
∼2	-3154
▁범죄	-3155
▁영상을	-3156
장치를	-3157
타이어	-3158
법이	-3159
과정	-3160
트의	-3161
하겠다고	-3162
▁아이폰	-3163
▁통계	-3164
▁늦	-3165
▁국내외	-3166
▁기다	-3167
▁반발	-3168
▁일상	-3169
급여	-3170
▁상세	-3171
▁금리	-3172
▁긍정	-3173
▁공격	-3174
▁개의	-3175
인공	-3176
기판	-3177
▁조국	-3178
기관의	-3179
▁자리를	-3180
▁미디어	-3181
▁활용할	-3182
견을	-3183
▁맞아	-3184
리카	-3185
서가	-3186
▁실내	-3187
로드	-3188
▁일어나	-3189
▁공모	-3190
▁평가를	-3191
사용	-3192
천지	-3193
▁가득	-3194
▁업종	-3195
▁집계	-3196
it	-3197
▁대폭	-3198
체에	-3199
▁대변	-3200
제의	-3201
▁됐	-3202
▁엑	-3203
▁맞는	-3204
▁당부	-3205
le	-3206
▁걸쳐	-3207
▁자본	-3208
▁쌍용차	-3209
하우	-3210
▁기반의	-3211
▁검증	-3212
▁초과	-3213
▁폐쇄	-3214
구청장	-3215
▁가속	-3216
▁개념	-3217
드로	-3218
분야	-3219
▁얼마나	-3220
▁짧	-3221
▁양산	-3222
▁계획을	-3223
등록	-3224
▁트랜	-3225
▁개혁	-3226
벤처	-3227
어도	-3228
▁임대	-3229
받을	-3230
작용	-3231
▁법인	-3232
환자	-3233
공장	-3234
▁연동	-3235
▁보이고	-3236
▁보이는	-3237
▁속에서	-3238
▁연구개발	-3239
▁친구	-3240
▁쉬	-3241
션을	-3242
▁내비	-3243
▁딸	-3244
▁융합	-3245
되도록	-3246
▁사용자가	-3247
▁별도의	-3248
▁2008	-3249
▁마음을	-3250
▁비용을	-3251
▁않으면	-3252
▁홀	-3253
명과	-3254
▁유도	-3255
받아	-3256
점으로	-3257
▁학생들이	-3258
▁시도	-3259
▁텔레	-3260
▁복잡	-3261
▁늘어난	-3262
교안	-3263
해도	-3264
▁2014	-3265
st	-3266
▁여론	-3267
▁급격	-3268
▁이로	-3269
▁노인	-3270
▁다소	-3271
▁모니터링	-3272
13	-3273
트랙	-3274
▁시작한	-3275
▁악화	-3276
▁자동으로	-3277
▁힘들	-3278
▁2011	-3279
▁응급	-3280
▁조립	-3281
▁지식	-3282
▁하였다	-3283
시를	-3284
정한	-3285
트에	-3286
▁나오는	-3287
장비	-3288
▁부착	-3289
▁섬	-3290
▁슈퍼	-3291
▁비슷한	-3292
▁이들이	-3293
주를	-3294
▁이상이	-3295
▁칩	-3296
받는	-3297
위원장	-3298
▁되지	-3299
▁부회	-3300
▁절감	-3301
▁가격이	-3302
▁줄어들	-3303
정당	-3304
▁항상	-3305
▁맞춤형	-3306
▁활발	-3307
▁고용노동	-3308
공사	-3309
▁돌파	-3310
▁최신	-3311
%,	-3312
히는	-3313
대병원	-3314
▁엘	-3315
▁구조를	-3316
▁프로세	-3317
전이	-3318
▁착용	-3319
이번	-3320
▁말씀	-3321
▁성과를	-3322
▁루	-3323
▁옥	-3324
년이	-3325
▁스피	-3326
▁충돌	-3327
화학	-3328
▁방안	-3329
at	-3330
▁감지	-3331
▁전해졌다	-3332
▁2010	-3333
▁주고	-3334
▁사용되는	-3335
가의	-3336
▁강한	-3337
스러운	-3338
▁공무원	-3339
▁적극적인	-3340
▁지하	-3341
사들이	-3342
▁발생할	-3343
▁회장은	-3344
기구	-3345
▁임명	-3346
▁완화	-3347
▁미국의	-3348
공업	-3349
진은	-3350
치가	-3351
했으나	-3352
▁방지할	-3353
▁특성	-3354
▁없다고	-3355
의가	-3356
▁피해를	-3357
▁경쟁력을	-3358
전화	-3359
▁신한	-3360
▁운영에	-3361
▁정보통신	-3362
시켰다	-3363
보수	-3364
▁헬	-3365
▁t	-3366
▁발광	-3367
▁이온	-3368
▁수준의	-3369
호에	-3370
▁간의	-3371
▁국립	-3372
▁인근	-3373
▁누적	-3374
▁대화	-3375
▁정리	-3376
▁변호	-3377
월까지	-3378
▁민주노총	-3379
▁이야기를	-3380
▁이송	-3381
▁쪽	-3382
▁것이란	-3383
▁있었던	-3384
▁2009	-3385
▁것입니다	-3386
생을	-3387
▁분명	-3388
▁약속	-3389
▁재미	-3390
▁겨울	-3391
▁즉시	-3392
▁걱	-3393
위원회는	-3394
▁이들의	-3395
단에	-3396
층을	-3397
▁검출	-3398
스에서	-3399
▁문제는	-3400
▁없고	-3401
▁자원	-3402
소프트	-3403
류가	-3404
▁본다	-3405
▁52	-3406
가능	-3407
전에	-3408
▁계약을	-3409
▁아니냐	-3410
▁베이	-3411
점에	-3412
▁협업	-3413
▁변화를	-3414
▁하는데	-3415
▁시스템에	-3416
▁국정	-3417
▁멀티	-3418
▁취득	-3419
▁복합	-3420
▁폭발	-3421
재를	-3422
테나	-3423
ing	-3424
▁제외한	-3425
▁지구	-3426
▁혹은	-3427
제에	-3428
진료	-3429
▁도움을	-3430
▁세포	-3431
▁포함해	-3432
사무	-3433
▁흘	-3434
▁시작으로	-3435
결과	-3436
만대	-3437
법에	-3438
▁표면	-3439
▁기자회	-3440
소로	-3441
실에서	-3442
▁특징이다	-3443
▁당연	-3444
포인트	-3445
▁구성된	-3446
▁바꾸	-3447
방향	-3448
▁경우에	-3449
▁법무부	-3450
▁정확한	-3451
▁1000	-3452
IP	-3453
자금	-3454
▁낮아	-3455
▁일어	-3456
▁히	-3457
▁승용차	-3458
▁실업	-3459
▁인지	-3460
▁범위에서	-3461
검사	-3462
다른	-3463
▁명이	-3464
▁밝힌	-3465
▁한번	-3466
면서도	-3467
▁목표로	-3468
▁유전	-3469
겠다고	-3470
이지	-3471
▁보니	-3472
연구원	-3473
▁나오고	-3474
▁경쟁력	-3475
시고	-3476
▁면역	-3477
▁2013	-3478
▁요금	-3479
▁확실	-3480
▁우리는	-3481
▁비즈니스	-3482
90	-3483
니아	-3484
제도	-3485
▁노조는	-3486
건설	-3487
▁얘기	-3488
21	-3489
▁포함하는	-3490
▁괴	-3491
▁개발에	-3492
정보통신	-3493
▁예능	-3494
▁오래	-3495
▁눈길을	-3496
▁관람	-3497
▁바뀌	-3498
한다면	-3499
▁나누	-3500
▁외에	-3501
서관	-3502
▁70	-3503
▁높이	-3504
▁결과가	-3505
▁상품을	-3506
▁사이버	-3507
▁혐의로	-3508
▁2012	-3509
했는데	-3510
▁것처럼	-3511
내고	-3512
▁마찬	-3513
▁자가	-3514
▁50%	-3515
▁예산의	-3516
▁대통령은	-3517
▁상황에	-3518
▁지연	-3519
▁습	-3520
▁LED	-3521
▁공개된	-3522
▁사실이	-3523
공간	-3524
▁앞에서	-3525
억원으로	-3526
OS	-3527
▁사항은	-3528
▁어렵다	-3529
▁기대된다	-3530
등급	-3531
치지	-3532
됐다고	-3533
▁아주	-3534
단계	-3535
▁선별	-3536
▁영업이익	-3537
▁강력한	-3538
파이	-3539
▁더해	-3540
▁자주	-3541
▁발열	-3542
▁경험을	-3543
많은	-3544
AR	-3545
▁당초	-3546
증이	-3547
▁위치한	-3548
역을	-3549
지자	-3550
▁기타	-3551
MS	-3552
보를	-3553
체험	-3554
▁황교안	-3555
석이	-3556
테인	-3557
▁열어	-3558
들로	-3559
▁국무	-3560
▁바른미래당	-3561
보면	-3562
▁말을	-3563
▁완전히	-3564
▁의료기관	-3565
▁넷	-3566
업무	-3567
▁아우디	-3568
▁고위	-3569
▁상장	-3570
▁시대	-3571
▁그녀	-3572
▁아마존	-3573
리오	-3574
▁스크	-3575
중에	-3576
▁우주	-3577
▁사례가	-3578
▁이름을	-3579
▁에너	-3580
.5%	-3581
▁채택	-3582
▁이용하는	-3583
▁동일한	-3584
17	-3585
▁요즘	-3586
예술	-3587
▁남성	-3588
종의	-3589
▁풀이	-3590
▁제네	-3591
레이크	-3592
▁10%	-3593
▁잇따	-3594
▁브라	-3595
▁니	-3596
▁닛산	-3597
▁역사	-3598
신을	-3599
LED	-3600
▁모아	-3601
▁불안	-3602
▁에이	-3603
▁입주	-3604
소와	-3605
▁결혼	-3606
▁촉구	-3607
▁이같이	-3608
re	-3609
▁케이블	-3610
▁개설	-3611
▁절차	-3612
▁기부	-3613
▁신설	-3614
▁커뮤	-3615
▁발급	-3616
▁법안	-3617
▁국내에서	-3618
다운	-3619
주고	-3620
페인	-3621
전자는	-3622
▁구청장이	-3623
▁핸	-3624
▁관련한	-3625
위원회가	-3626
▁쉽지	-3627
▁선도	-3628
▁선호	-3629
▁정하는	-3630
▁80	-3631
영화	-3632
종을	-3633
▁다가	-3634
▁이행	-3635
▁차이가	-3636
▁개방	-3637
▁고객이	-3638
▁불가피	-3639
▁알고리즘	-3640
▁쏠	-3641
▁유동	-3642
▁시범	-3643
학년도	-3644
▁철저	-3645
조사를	-3646
▁규모가	-3647
▁속도를	-3648
▁운영하고	-3649
16	-3650
미터	-3651
▁고령	-3652
▁신천지	-3653
▁열리는	-3654
▁다르	-3655
▁파워	-3656
▁가치를	-3657
력의	-3658
▁사는	-3659
▁그려	-3660
판결	-3661
▁대법	-3662
▁재생	-3663
▁게시	-3664
미디어	-3665
▁종래	-3666
▁개발을	-3667
▁효율적으로	-3668
▁흑	-3669
어서	-3670
▁대전	-3671
했습니다	-3672
판을	-3673
▁적이	-3674
▁권고	-3675
았던	-3676
▁KB	-3677
자들에게	-3678
ic	-3679
망을	-3680
▁향상시킬	-3681
▁폐렴	-3682
어진	-3683
▁나가	-3684
▁주파	-3685
▁실리콘	-3686
SD	-3687
▁회장	-3688
▁섭	-3689
담당	-3690
▁저렴	-3691
▁도요타	-3692
▁유입	-3693
▁30%	-3694
▁다음달	-3695
규칙	-3696
공정	-3697
려면	-3698
▁증가했다	-3699
∼3	-3700
▁기울	-3701
▁다수의	-3702
▁소상공인	-3703
25	-3704
▁이탈	-3705
▁보완	-3706
▁있지	-3707
일에는	-3708
하므로	-3709
▁현재까지	-3710
▁이슈	-3711
▁토요타	-3712
▁조례는	-3713
비는	-3714
▁적은	-3715
▁출석	-3716
사업을	-3717
▁들어가	-3718
▁안테나	-3719
데스	-3720
▁홍콩	-3721
▁부사	-3722
▁화장	-3723
▁자가격	-3724
재가	-3725
식으로	-3726
▁공시했다	-3727
차량	-3728
▁타이	-3729
▁해서	-3730
에너지	-3731
▁스티	-3732
▁재산	-3733
▁커지고	-3734
▁회장이	-3735
▁위원회의	-3736
▁보증	-3737
▁센서	-3738
▁<	-3739
리로	-3740
▁얻을	-3741
▁전개	-3742
은행이	-3743
프로그램	-3744
▁행사를	-3745
14	-3746
점은	-3747
▁원심	-3748
▁속에	-3749
활동을	-3750
▁하나에	-3751
국이	-3752
▁지역사회	-3753
▁진행한다	-3754
▁등도	-3755
▁세부	-3756
차의	-3757
해왔다	-3758
램프	-3759
리어	-3760
층의	-3761
▁돌봄	-3762
▁앨범	-3763
▁아버	-3764
▁외에도	-3765
▁최고의	-3766
▁빚	-3767
▁이중	-3768
▁현황	-3769
▁20%	-3770
▁이내에	-3771
▁수준으로	-3772
▁탓	-3773
막을	-3774
재난	-3775
청은	-3776
▁가는	-3777
▁유발	-3778
▁수탁	-3779
▁정한	-3780
▁현금	-3781
▁거듭	-3782
▁이때	-3783
본부는	-3784
스마트	-3785
▁플레이	-3786
기술을	-3787
▁위원은	-3788
우고	-3789
화할	-3790
CD	-3791
당한	-3792
률은	-3793
▁예약	-3794
▁하다	-3795
▁실천	-3796
사이	-3797
▁시절	-3798
▁유권	-3799
범죄	-3800
▁교섭	-3801
▁상태다	-3802
▁딜	-3803
▁보관	-3804
▁실질	-3805
▁핀테크	-3806
▁빼	-3807
▁치매	-3808
▁정책을	-3809
지게	-3810
▁북미	-3811
▁위협	-3812
▁내용이	-3813
스럽게	-3814
▁대해서도	-3815
SA	-3816
▁상대로	-3817
▁패스트	-3818
자들을	-3819
▁피고인	-3820
음이	-3821
책임	-3822
▁물류	-3823
▁가까운	-3824
▁지역에서	-3825
자원	-3826
▁충격	-3827
▁때까지	-3828
▁실무	-3829
▁꺼	-3830
문이	-3831
하되	-3832
학을	-3833
▁일부를	-3834
▁차량을	-3835
생산	-3836
▁점이	-3837
▁확인됐다	-3838
▁실패	-3839
▁많았다	-3840
선에	-3841
지며	-3842
▁무엇보다	-3843
▁전압	-3844
▁증가한	-3845
▁샤	-3846
란다	-3847
려고	-3848
▁세단	-3849
수로	-3850
하면서도	-3851
진의	-3852
▁출입	-3853
▁원내대표는	-3854
▁정밀	-3855
▁안전한	-3856
라면	-3857
▁예를	-3858
▁증거	-3859
▁투명	-3860
▁환경을	-3861
▁왔	-3862
▁소요	-3863
제어	-3864
▁되었	-3865
▁변환	-3866
▁역대	-3867
▁자회사	-3868
전략	-3869
결제	-3870
op	-3871
▁돌입	-3872
▁자극	-3873
▁후보는	-3874
버스	-3875
했기	-3876
tion	-3877
액의	-3878
행정	-3879
향을	-3880
▁생명	-3881
▁회사는	-3882
▁주주	-3883
▁하여야	-3884
▁참여하는	-3885
PG	-3886
보증	-3887
▁벤처	-3888
▁제휴	-3889
▁폐기	-3890
▁자료를	-3891
씨의	-3892
조차	-3893
▁볼보	-3894
▁최대한	-3895
소비	-3896
▁모여	-3897
▁선보인	-3898
실에	-3899
▁36	-3900
▁느낌	-3901
▁미니	-3902
▁있으면	-3903
▁마스크를	-3904
연을	-3905
▁지적이	-3906
▁진행하고	-3907
▁치열	-3908
▁소방	-3909
▁일각	-3910
▁졸업	-3911
▁미치는	-3912
제한	-3913
▁단일	-3914
▁담긴	-3915
게이션	-3916
▁분야의	-3917
▁나와	-3918
▁명확	-3919
▁음극	-3920
▁하나로	-3921
센터를	-3922
▁의원의	-3923
설팅	-3924
▁맞이	-3925
하려면	-3926
시티	-3927
▁원자	-3928
▁본격적인	-3929
▁아름	-3930
▁높이고	-3931
정은	-3932
관에서	-3933
▁그림	-3934
▁내세	-3935
건의	-3936
인치	-3937
▁따로	-3938
▁197	-3939
▁이벤트	-3940
요일	-3941
▁한류	-3942
건이	-3943
기고	-3944
▁VR	-3945
▁등교	-3946
▁인물	-3947
▁협약	-3948
▁그렇게	-3949
자치단체	-3950
▁『	-3951
▁전략을	-3952
▁손을	-3953
▁이미지	-3954
▁팩	-3955
▁포르	-3956
▁MBC	-3957
▁시행령	-3958
▁비중이	-3959
▁사업에	-3960
▁자체가	-3961
솔린	-3962
조원	-3963
▁방사	-3964
▁무게	-3965
▁직무	-3966
체계	-3967
▁개시한다	-3968
▁줄일	-3969
▁메모리	-3970
이용	-3971
투표	-3972
▁뉴욕	-3973
▁선임	-3974
▁소외	-3975
지기	-3976
▁고성능	-3977
하였고	-3978
▁역량을	-3979
▁드론	-3980
▁참여할	-3981
▁방과	-3982
▁KBS	-3983
▁부분을	-3984
▁사람을	-3985
▁움직임	-3986
▁상임	-3987
▁이재	-3988
▁조기	-3989
▁환자를	-3990
▁고용보험	-3991
▁객	-3992
로그	-3993
▁여파	-3994
함이	-3995
호가	-3996
▁공감	-3997
▁관찰	-3998
▁오랜	-3999
▁커넥	-4000
▁획득	-4001
▁브레이크	-4002
▁솔루션을	-4003
▁수강	-4004
▁주최	-4005
▁온도	-4006
▁점도	-4007
▁호소	-4008
▁운영을	-4009
▁쓸	-4010
니까	-4011
시스	-4012
▁중증	-4013
▁상태를	-4014
즈마	-4015
▁가전	-4016
▁경고	-4017
▁자랑	-4018
▁가솔린	-4019
▁담은	-4020
▁가능해	-4021
▁틀	-4022
▁수많은	-4023
▁위원장이	-4024
간다	-4025
▁됩니다	-4026
▁중요하다	-4027
▁점차	-4028
화하는	-4029
▁건강보험	-4030
▁방법으로	-4031
▁내다	-4032
▁책임을	-4033
DB	-4034
▁불러	-4035
▁블랙	-4036
세데스	-4037
▁사이의	-4038
▁리더	-4039
▁한정	-4040
권에	-4041
▁선보였다	-4042
▁호텔	-4043
▁참여한	-4044
트롤	-4045
현실	-4046
▁데뷔	-4047
▁찾는	-4048
▁토론	-4049
▁누구나	-4050
▁비밀	-4051
▁한층	-4052
로봇	-4053
▁우한	-4054
하게는	-4055
▁했지만	-4056
력은	-4057
소송	-4058
체는	-4059
▁동물	-4060
▁장면	-4061
▁'2019	-4062
▁오염	-4063
▁전쟁	-4064
력에	-4065
없는	-4066
되자	-4067
자기	-4068
▁직후	-4069
화로	-4070
▁나노	-4071
시장에서	-4072
신이	-4073
으로도	-4074
▁제출하여야	-4075
▁가입자	-4076
▁방식을	-4077
수에	-4078
▁트렌	-4079
주로	-4080
질이	-4081
▁인쇄	-4082
난다	-4083
▁국산	-4084
됐고	-4085
어로	-4086
▁보통	-4087
▁공사	-4088
▁선사	-4089
학적	-4090
▁느껴	-4091
▁지배	-4092
▁바란다	-4093
낸다	-4094
▁눈에	-4095
▁완벽	-4096
▁프랑스	-4097
▁명령	-4098
▁멈	-4099
기에서	-4100
예방	-4101
▁나올	-4102
▁구조조정	-4103
▁쇼	-4104
▁추세	-4105
비의	-4106
협약	-4107
▁높일	-4108
▁피부	-4109
▁주제로	-4110
▁나갈	-4111
▁소셜	-4112
▁유행	-4113
▁소자의	-4114
일로	-4115
▁일시	-4116
▁풀이된다	-4117
▁공략	-4118
▁기후	-4119
▁대리	-4120
드에	-4121
주시	-4122
▁취임	-4123
▁이상을	-4124
▁작업을	-4125
테인먼트	-4126
▁CJ	-4127
▁위성	-4128
▁높였다	-4129
▁대통령의	-4130
▁메르세데스	-4131
▁대표의	-4132
▁민주당이	-4133
▁있음을	-4134
▁수석	-4135
▁지역에	-4136
▁e	-4137
▁판매가	-4138
▁수정	-4139
이라도	-4140
▁대표적인	-4141
▁기원	-4142
▁접목	-4143
▁좋다	-4144
시키기	-4145
▁ICT	-4146
24	-4147
▁앱을	-4148
▁올랐다	-4149
▁인터뷰	-4150
▁렉	-4151
▁오토	-4152
▁재료	-4153
▁높이는	-4154
▁하면서	-4155
▁내비게이션	-4156
시킨다	-4157
▁나아가	-4158
▁점이다	-4159
▁출발	-4160
▁오프라인	-4161
팀은	-4162
▁테이	-4163
시간을	-4164
▁중국의	-4165
▁발달	-4166
▁자치	-4167
▁지능	-4168
▁만들었다	-4169
▁극대	-4170
▁미만	-4171
▁시즌	-4172
▁자아	-4173
▁택시	-4174
인에게	-4175
▁아이디어	-4176
▁풍부	-4177
▁회계	-4178
▁매입	-4179
화하고	-4180
▁허가	-4181
▁사물	-4182
▁상위	-4183
▁연말	-4184
동이	-4185
러닝	-4186
질의	-4187
측은	-4188
안의	-4189
▁바라	-4190
▁점점	-4191
▁통상	-4192
▁제조업	-4193
▁수급	-4194
형의	-4195
힌다	-4196
▁자사	-4197
▁미세먼	-4198
▁아래와	-4199
우리	-4200
▁입증	-4201
▁저하	-4202
해주는	-4203
소속	-4204
수수	-4205
▁건조	-4206
▁향해	-4207
력으로	-4208
▁3,	-4209
▁재무	-4210
▁창의	-4211
점검	-4212
화한	-4213
▁남편	-4214
▁다수	-4215
▁반응을	-4216
지스터	-4217
▁형태의	-4218
CE	-4219
▁35	-4220
▁중간	-4221
▁일본의	-4222
et	-4223
사이트	-4224
▁게이트	-4225
구역	-4226
▁촉진	-4227
스포츠	-4228
어가	-4229
인증	-4230
▁권한	-4231
▁자격	-4232
▁년	-4233
▁늘고	-4234
▁발휘	-4235
▁평소	-4236
▁관심과	-4237
▁특징으로	-4238
▁욕	-4239
공개	-4240
▁퇴직	-4241
▁참석한	-4242
하였으며	-4243
▁연출	-4244
▁패스트트랙	-4245
▁플라즈마	-4246
중한	-4247
▁대거	-4248
▁탄소	-4249
▁대부분의	-4250
▁축소	-4251
▁링	-4252
상담	-4253
▁매매	-4254
▁흡수	-4255
▁알려진	-4256
▁뛰어난	-4257
▁좁	-4258
▁돈을	-4259
▁사로	-4260
▁종로	-4261
▁혼다	-4262
▁알려져	-4263
▁학부모님께	-4264
.2%	-4265
▁직업	-4266
▁있으나	-4267
코리아는	-4268
▁목소리가	-4269
▁위에	-4270
자동차가	-4271
▁선발	-4272
됨에	-4273
▁생긴	-4274
소극	-4275
▁안정적인	-4276
시행	-4277
▁도모	-4278
▁매일	-4279
▁봐	-4280
▁분산	-4281
▁사상	-4282
▁연락	-4283
▁제약	-4284
▁동반	-4285
▁싶은	-4286
▁원인	-4287
▁생각한다	-4288
200	-4289
▁시기	-4290
▁완전	-4291
▁사장은	-4292
▁손실	-4293
이어서	-4294
▁기능이	-4295
▁받는다	-4296
▁메이	-4297
▁적지	-4298
나타	-4299
▁지자	-4300
▁적용해	-4301
▁용이하게	-4302
▁듀	-4303
봉사	-4304
▁유연	-4305
▁수수료	-4306
▁안에서	-4307
▁분석했다	-4308
▁아니냐는	-4309
▁연령	-4310
물에	-4311
월에는	-4312
적으로는	-4313
▁기업들이	-4314
▁타고	-4315
▁성장을	-4316
드와	-4317
▁전남	-4318
대에서	-4319
정보를	-4320
▁벗어나	-4321
▁있다면	-4322
체육	-4323
▁단위	-4324
▁만약	-4325
사랑	-4326
▁차원에서	-4327
▁사로잡	-4328
▁가능성도	-4329
▁농업	-4330
▁일단	-4331
▁합리	-4332
변경	-4333
크를	-4334
ro	-4335
보조	-4336
.4%	-4337
▁부담을	-4338
회와	-4339
억달러	-4340
▁때마다	-4341
▁자가격리	-4342
▁차지하는	-4343
▁본격적으로	-4344
ch	-4345
▁쓴	-4346
방법을	-4347
▁넥	-4348
책을	-4349
▁전문가들은	-4350
▁삽	-4351
▁고려해	-4352
▁연구를	-4353
▁질병관리본부	-4354
레인	-4355
▁(	-4356
▁4·	-4357
▁어려워	-4358
아야	-4359
▁대해서	-4360
▁숫	-4361
의원	-4362
▁거론	-4363
▁사과	-4364
▁신청을	-4365
▁비판했다	-4366
▁요양	-4367
▁하게	-4368
지에서	-4369
▁판매를	-4370
▁던	-4371
▁다중	-4372
▁저항	-4373
▁수도권	-4374
▁앉	-4375
▁내고	-4376
▁당내	-4377
위원회를	-4378
PC	-4379
▁차를	-4380
▁플래	-4381
▁노력을	-4382
▁스피커	-4383
▁전망된다	-4384
▁입국	-4385
받았다	-4386
▁정의당	-4387
▁2007	-4388
▁블루	-4389
겠지만	-4390
계획을	-4391
▁덜	-4392
경찰	-4393
▁비트	-4394
▁주의	-4395
만명	-4396
▁감정	-4397
▁비행	-4398
널리	-4399
민의	-4400
▁계좌	-4401
▁탄생	-4402
NA	-4403
근무	-4404
확실	-4405
▁민생	-4406
▁클럽	-4407
▁기술과	-4408
▁쉐	-4409
▁선출	-4410
▁중심의	-4411
▁최선을	-4412
휴직	-4413
▁33	-4414
▁달하는	-4415
서비스를	-4416
놨다	-4417
진과	-4418
바이오	-4419
▁컬	-4420
기한	-4421
▁NH	-4422
레스	-4423
▁제가	-4424
▁100%	-4425
전극	-4426
▁45	-4427
▁지출	-4428
국은	-4429
이에	-4430
▁금감	-4431
▁건강한	-4432
마을	-4433
▁체육	-4434
▁이용자	-4435
▁제품의	-4436
▁민주당은	-4437
보레	-4438
드라마	-4439
가족	-4440
체로	-4441
▁밝히	-4442
▁방향으로	-4443
▁벽	-4444
전압	-4445
▁역학	-4446
▁차지했다	-4447
▁다운	-4448
▁생존	-4449
▁기준을	-4450
곳에	-4451
▁산화	-4452
▁위험이	-4453
▁총선에서	-4454
예산	-4455
조건	-4456
▁현역	-4457
▁변화가	-4458
▁든	-4459
대와	-4460
연이	-4461
▁형성된	-4462
▁공공기관	-4463
센터에서	-4464
▁끝나	-4465
▁영입	-4466
▁의존	-4467
▁임원	-4468
▁영어	-4469
▁종목	-4470
스티	-4471
.3%	-4472
▁교류	-4473
▁그에	-4474
되었고	-4475
▁받아야	-4476
▁구체적인	-4477
▁효율적인	-4478
▁곤	-4479
▁양자	-4480
▁적절한	-4481
▁긴장	-4482
▁문자	-4483
▁배제	-4484
▁선고	-4485
▁꽃	-4486
▁선진	-4487
가지로	-4488
▁진행된	-4489
TE	-4490
▁여당	-4491
▁절연	-4492
▁방법이	-4493
▁선보일	-4494
수사	-4495
▁기회가	-4496
▁러시아	-4497
▁낼	-4498
레이션	-4499
▁게임을	-4500
▁분야에	-4501
▁조사를	-4502
▁포함된	-4503
▁봄	-4504
해를	-4505
▁벨	-4506
▁90	-4507
▁가스	-4508
▁만한	-4509
▁복귀	-4510
위원장은	-4511
동에	-4512
▁증폭	-4513
음에도	-4514
▁불리는	-4515
▁보건복지	-4516
해온	-4517
▁가을	-4518
▁깊은	-4519
▁SW	-4520
▁빠져	-4521
▁옮겨	-4522
▁준다	-4523
▁정치적	-4524
▁승인	-4525
췄다	-4526
▁급여	-4527
▁우리의	-4528
▁이른바	-4529
▁장관은	-4530
▁기각	-4531
▁명예	-4532
곳에서	-4533
동의	-4534
하나	-4535
▁잠재	-4536
▁따뜻	-4537
▁받아들	-4538
대회	-4539
부장	-4540
▁가공	-4541
수와	-4542
▁즐길	-4543
▁레이저	-4544
▁만들고	-4545
만에	-4546
▁공소	-4547
▁이태	-4548
▁증명	-4549
제와	-4550
즈를	-4551
▁가맹	-4552
▁겪고	-4553
▁충족	-4554
이라면	-4555
▁심각한	-4556
▁화재	-4557
▁무소속	-4558
등의	-4559
▁고도	-4560
▁배송	-4561
실로	-4562
플루	-4563
▁문을	-4564
▁제조방법에	-4565
▁CP	-4566
▁개봉	-4567
종합	-4568
▁프레임	-4569
스틱	-4570
일간	-4571
▁비교적	-4572
▁사용하여	-4573
MO	-4574
.9%	-4575
▁시는	-4576
▁시스템의	-4577
▁했던	-4578
억원의	-4579
▁사전에	-4580
▁있어야	-4581
▁자영업	-4582
▁데다	-4583
▁조달	-4584
▁서비스가	-4585
▁효과적으로	-4586
MA	-4587
관련	-4588
▁출시한	-4589
.8%	-4590
▁협상	-4591
▁분석이다	-4592
▁상태에서	-4593
일의	-4594
▁전담	-4595
▁지상	-4596
▁산업혁명	-4597
관에	-4598
돼야	-4599
번호	-4600
심이	-4601
▁별도로	-4602
▁실시간으로	-4603
▁뽑	-4604
▁유출	-4605
시장의	-4606
고객	-4607
함과	-4608
▁걱정	-4609
▁장은	-4610
데이트	-4611
▁화웨이	-4612
▁써	-4613
▁과도	-4614
▁발병	-4615
스케어	-4616
분석	-4617
그룹은	-4618
당국은	-4619
공단	-4620
심사	-4621
▁올해는	-4622
▁삼성전자가	-4623
국제	-4624
까지는	-4625
▁신호를	-4626
▁불확실	-4627
▁2005	-4628
전의	-4629
치의	-4630
▁길이	-4631
▁분쟁	-4632
▁내용의	-4633
▁차량의	-4634
▁적합한	-4635
▁쟁	-4636
연금	-4637
▁유니	-4638
▁주거	-4639
▁상세하게는	-4640
▁산하	-4641
▁준수	-4642
▁사용한	-4643
출마	-4644
▁스테	-4645
▁활동에	-4646
▁보도했다	-4647
▁상고	-4648
재단	-4649
▁기업에	-4650
▁담임	-4651
▁리콜	-4652
▁징수	-4653
▁처벌	-4654
계는	-4655
▁나설	-4656
▁일환	-4657
▁입법	-4658
▁계기로	-4659
▁주인공	-4660
▁백신	-4661
산화탄	-4662
▁시작된	-4663
○○	-4664
일과	-4665
▁대상이	-4666
▁지분율이	-4667
처분	-4668
향이	-4669
▁진보	-4670
▁경우는	-4671
▁이어질	-4672
▁협력을	-4673
공급	-4674
스포	-4675
▁나선다	-4676
자리	-4677
▁가로	-4678
▁대처	-4679
▁설문	-4680
▁재활	-4681
▁초대	-4682
ed	-4683
기획	-4684
▁목소리를	-4685
▁커뮤니티	-4686
▁고발	-4687
▁김종	-4688
▁위축	-4689
▁따른다	-4690
▁적용한	-4691
▁있으므로	-4692
허가	-4693
화의	-4694
▁높여	-4695
▁정말	-4696
시장에	-4697
단말	-4698
식품	-4699
.6%	-4700
.7%	-4701
▁기술은	-4702
개로	-4703
▁여의	-4704
▁노동조합	-4705
TS	-4706
▁내용은	-4707
.1%	-4708
▁상생	-4709
▁지급할	-4710
▁이미지를	-4711
▁인천광역시	-4712
▁별표	-4713
▁가까이	-4714
터의	-4715
▁당사	-4716
▁버스	-4717
▁안팎	-4718
▁생각이	-4719
▁분양	-4720
시리즈	-4721
▁스크린	-4722
▁가능하게	-4723
el	-4724
▁변속	-4725
▁알게	-4726
여명이	-4727
▁보유하고	-4728
▁현장에서	-4729
민주	-4730
▁공직	-4731
▁본인	-4732
▁정지	-4733
▁연구원은	-4734
른다	-4735
자료	-4736
▁150	-4737
▁경로	-4738
▁196	-4739
▁기업은	-4740
▁뿌	-4741
▁빨리	-4742
▁포드	-4743
▁진행할	-4744
세기	-4745
▁감시	-4746
▁호주	-4747
▁흥미	-4748
▁절차를	-4749
▁사람들은	-4750
▁지속적인	-4751
▁끈	-4752
중인	-4753
100	-4754
▁단독	-4755
▁주말	-4756
▁참석해	-4757
▁2006	-4758
DC	-4759
▁고통	-4760
▁참여를	-4761
▁균일	-4762
▁막기	-4763
센터는	-4764
▁참석했다	-4765
'(	-4766
페이스	-4767
▁간담	-4768
▁경험이	-4769
▁분석이	-4770
▁의미가	-4771
es	-4772
▁공약	-4773
▁화상	-4774
▁과학기술정보통신	-4775
▁땅	-4776
▁출시를	-4777
▁컨설팅	-4778
▁옆	-4779
▁32	-4780
▁가이드	-4781
▁무료로	-4782
▁부담이	-4783
▁설치된	-4784
▁석유	-4785
방을	-4786
▁38	-4787
▁끝에	-4788
▁초고	-4789
▁400	-4790
▁증가하고	-4791
▁상태로	-4792
▁당부했다	-4793
▁굳	-4794
됐던	-4795
식과	-4796
▁뜻을	-4797
▁소정의	-4798
행위	-4799
▁MC	-4800
▁구속	-4801
▁다녀	-4802
▁들여	-4803
▁점은	-4804
▁어머니	-4805
무는	-4806
치에	-4807
▁신체	-4808
▁토대로	-4809
법은	-4810
▁세종	-4811
플랫폼	-4812
▁결정을	-4813
았고	-4814
▁상관	-4815
▁처음이다	-4816
차에	-4817
모터쇼	-4818
하라	-4819
▁절대	-4820
▁투쟁	-4821
▁사진을	-4822
▁관할	-4823
▁말해	-4824
▁속도	-4825
▁진행했다	-4826
▁1,000	-4827
방지	-4828
▁인구	-4829
▁구로	-4830
▁평가했다	-4831
기금	-4832
마저	-4833
▁사모	-4834
▁모두가	-4835
▁부족한	-4836
▁후보를	-4837
되었으며	-4838
▁입장이다	-4839
가에	-4840
▁줄여	-4841
모비스	-4842
▁만들기	-4843
GM	-4844
▁까	-4845
러그	-4846
▁냉각	-4847
▁시상	-4848
▁공간을	-4849
▁회사가	-4850
▁업데이트	-4851
▁케	-4852
파크	-4853
효과	-4854
▁경상	-4855
▁노트	-4856
▁자문	-4857
▁테슬	-4858
▁섭취	-4859
▁쿠페	-4860
▁합병	-4861
▁사태가	-4862
▁기대하고	-4863
수익	-4864
▁답변	-4865
▁모으	-4866
▁의뢰	-4867
주민	-4868
▁클래	-4869
▁서비스는	-4870
기반	-4871
콘텐츠	-4872
▁SBS	-4873
▁부작용	-4874
▁상당히	-4875
▁생태계	-4876
▁줄어든	-4877
부로	-4878
은행은	-4879
벤츠	-4880
▁훈련	-4881
▁참여해	-4882
PS	-4883
▁초청	-4884
▁경제적	-4885
▁위원장	-4886
▁주목된다	-4887
▁특별관계	-4888
포르	-4889
▁내수	-4890
▁사퇴	-4891
▁회사의	-4892
세로	-4893
▁법적	-4894
▁인하여	-4895
▁일으키	-4896
상과	-4897
▁엔진을	-4898
차례	-4899
트리	-4900
▁맞추	-4901
▁자금을	-4902
▁전부	-4903
▁커버	-4904
▁후원	-4905
▁기대를	-4906
개국	-4907
▁공통	-4908
▁그럼	-4909
▁선박	-4910
▁선생님	-4911
▁전망했다	-4912
▁최근에는	-4913
가로	-4914
▁상환	-4915
▁마찬가지로	-4916
보안	-4917
▁마치	-4918
▁사장	-4919
디지털	-4920
물로	-4921
식은	-4922
▁37	-4923
▁보험료	-4924
▁기아차는	-4925
▁확진자는	-4926
▁심리	-4927
▁비대면	-4928
술을	-4929
훼손	-4930
▁그간	-4931
▁그린	-4932
▁삽입	-4933
▁지침	-4934
연구소	-4935
▁관계를	-4936
▁포르쉐	-4937
▁추진하고	-4938
▁변동했다고	-4939
▁전동	-4940
▁70%	-4941
ac	-4942
경쟁	-4943
▁발생했다	-4944
폭력	-4945
▁중형	-4946
▁흔들	-4947
▁들었다	-4948
▁현대모비스	-4949
레이드	-4950
▁별도	-4951
센트	-4952
▁밑	-4953
▁침해	-4954
▁비율이	-4955
▁단기	-4956
▁당장	-4957
▁역량	-4958
교육청	-4959
지원금	-4960
▁덕분에	-4961
▁방문해	-4962
▁기대한다	-4963
이었	-4964
▁떨어진	-4965
▁강제	-4966
이사	-4967
시장이	-4968
▁사건을	-4969
▁이끌어	-4970
▁코리아	-4971
겠습니다	-4972
▁가슴	-4973
▁그리	-4974
▁수십	-4975
▁지원하고	-4976
건에	-4977
▁나왔	-4978
▁탑승	-4979
▁뜨거운	-4980
▁발전을	-4981
드러	-4982
▁무상	-4983
▁결과에	-4984
▁불출마	-4985
▁자동차를	-4986
▁묘	-4987
마이	-4988
형이	-4989
CC	-4990
RI	-4991
시스템을	-4992
▁시스템은	-4993
서와	-4994
차로	-4995
▁포털	-4996
업에	-4997
재정	-4998
▁개학	-4999
▁기지	-5000
▁연합	-5001
사항을	-5002
▁영양	-5003
되어야	-5004
메이션	-5005
▁계절	-5006
▁교사	-5007
▁나눠	-5008
성으로	-5009
▁강원도	-5010
▁전망이	-5011
▁i	-5012
▁34	-5013
▁48	-5014
▁상징	-5015
▁관리를	-5016
▁장관이	-5017
▁정한다	-5018
▁미국에서	-5019
년도	-5020
소재	-5021
▁연예	-5022
▁키워	-5023
▁합류	-5024
▁포인트	-5025
▁일반적으로	-5026
DA	-5027
감한	-5028
유지	-5029
융합	-5030
▁추적	-5031
이기도	-5032
▁제품은	-5033
▁최초의	-5034
경을	-5035
졌고	-5036
▁이틀	-5037
단으로	-5038
▁적용할	-5039
▁반환	-5040
▁쉐보레	-5041
▁정도의	-5042
▁관련하여	-5043
명한	-5044
▁내장	-5045
▁징계	-5046
▁헤드	-5047
▁문제로	-5048
▁들고	-5049
▁부처	-5050
▁전북	-5051
▁IoT	-5052
나가	-5053
▁압박	-5054
내에	-5055
▁과연	-5056
▁저녁	-5057
▁정부와	-5058
이즈	-5059
▁독자	-5060
▁활성화를	-5061
▁옷	-5062
▁듣고	-5063
▁정확하게	-5064
물은	-5065
법상	-5066
어는	-5067
▁띄	-5068
▁렉서	-5069
▁굴	-5070
▁짓	-5071
▁후속	-5072
▁간단한	-5073
▁건립	-5074
방역	-5075
▁물품	-5076
▁임직원	-5077
▁요구하는	-5078
시로	-5079
▁출근	-5080
▁노하우	-5081
▁수행할	-5082
▁2004	-5083
▁챙	-5084
공무원	-5085
네시아	-5086
▁기업을	-5087
▁의미를	-5088
▁지원에	-5089
인력	-5090
▁SM	-5091
▁CEO	-5092
▁이산화탄	-5093
▁제외하고	-5094
▁동참	-5095
▁부진	-5096
장치의	-5097
▁대우	-5098
▁올렸다	-5099
과학기술	-5100
▁제공하기	-5101
▁법령	-5102
▁소비자가	-5103
각을	-5104
줬다	-5105
▁폴더	-5106
기록	-5107
당과	-5108
이면	-5109
▁초등학교	-5110
▁담보	-5111
▁가지는	-5112
▁능력을	-5113
▁메시지를	-5114
효율	-5115
▁시승	-5116
▁심의를	-5117
▁쏘나타	-5118
▁사용자의	-5119
▁자동차의	-5120
▁픽	-5121
▁기업과	-5122
cm	-5123
업이	-5124
위기	-5125
▁AR	-5126
▁경선	-5127
▁기기	-5128
▁콘서	-5129
▁지방자치단체	-5130
군의	-5131
▁늘어날	-5132
▁예방접	-5133
▁바닥	-5134
▁기술로	-5135
▁끌어올	-5136
▁낮추	-5137
▁기술의	-5138
▁의견이	-5139
년의	-5140
표준	-5141
▁수리	-5142
▁한국인	-5143
였고	-5144
▁기금	-5145
▁실시한	-5146
뱅킹	-5147
수신	-5148
▁다니	-5149
▁스티어링	-5150
ol	-5151
▁컸	-5152
▁뮤지	-5153
▁보기	-5154
▁응용	-5155
▁최우	-5156
아시아	-5157
▁경우도	-5158
▁있을지	-5159
▁이벤트를	-5160
▁창원	-5161
▁조합원	-5162
▁기자회견을	-5163
▁저감	-5164
▁선거법	-5165
▁척	-5166
▁등급	-5167
▁않게	-5168
로의	-5169
채널	-5170
됐지만	-5171
▁이르	-5172
▁평생	-5173
▁둘러싼	-5174
▁디바이	-5175
▁공동으로	-5176
▁돋	-5177
가입	-5178
▁생산하는	-5179
직한	-5180
▁파견	-5181
▁행위	-5182
▁통해서	-5183
▁두께	-5184
▁연관	-5185
공동	-5186
등을	-5187
▁남은	-5188
▁세대	-5189
▁이론	-5190
▁적응	-5191
▁뚜	-5192
감은	-5193
인에	-5194
▁CC	-5195
▁진동	-5196
▁의원과	-5197
▁사태로	-5198
▁GS	-5199
▁오디오	-5200
▁내다봤다	-5201
피스	-5202
▁엄청	-5203
▁종교	-5204
▁패션	-5205
▁하드	-5206
▁최고위원	-5207
유가	-5208
자도	-5209
▁분할	-5210
▁현행	-5211
생명	-5212
▁못할	-5213
▁손상	-5214
▁혁신을	-5215
위원장이	-5216
▁도와	-5217
▁해제	-5218
됐다는	-5219
조선	-5220
▁조회	-5221
▁후에	-5222
▁인간의	-5223
▁현상이	-5224
네트워크	-5225
▁꼬	-5226
고가	-5227
▁성격	-5228
▁해양	-5229
▁텔레비	-5230
▁이같은	-5231
▁높아지고	-5232
터테인먼트	-5233
▁말이	-5234
▁보존	-5235
▁충분한	-5236
클래	-5237
결정	-5238
교실	-5239
바로	-5240
▁담겨	-5241
▁아침	-5242
교육을	-5243
▁펀	-5244
▁내지	-5245
▁부당	-5246
이던	-5247
자들	-5248
▁보인	-5249
된다는	-5250
▁동영상	-5251
▁업체가	-5252
▁주가가	-5253
▁똑	-5254
▁매장	-5255
▁머물	-5256
평균	-5257
▁대선	-5258
▁재개	-5259
시부터	-5260
▁확대를	-5261
▁마련했다	-5262
주기	-5263
▁효율을	-5264
▁수행하는	-5265
주에	-5266
▁대로	-5267
▁방법은	-5268
▁놀라	-5269
▁단백	-5270
▁않아도	-5271
처를	-5272
▁오르	-5273
내용	-5274
층이	-5275
▁산정	-5276
▁앞에	-5277
▁제정	-5278
▁내놓은	-5279
▁목적은	-5280
가량	-5281
다이	-5282
▁길을	-5283
재로	-5284
▁필름	-5285
검사를	-5286
▁가능하도록	-5287
▁국방	-5288
▁쌍용	-5289
▁카페	-5290
머스	-5291
▁가구	-5292
▁버튼	-5293
▁충남	-5294
사들은	-5295
▁경쟁이	-5296
근혜	-5297
관광	-5298
▁겪는	-5299
▁내는	-5300
셔서	-5301
해질	-5302
▁지닌	-5303
▁게다가	-5304
▁분위기	-5305
▁자신을	-5306
▁인도네시아	-5307
키로	-5308
▁급속	-5309
▁선수	-5310
▁추구	-5311
▁속도가	-5312
▁모색	-5313
▁전수	-5314
▁강화를	-5315
▁답했다	-5316
국가	-5317
프레	-5318
▁인권	-5319
▁신제품	-5320
▁태양광	-5321
호텔	-5322
▁시급	-5323
▁산업의	-5324
▁선보인다	-5325
▁시스템이	-5326
일은	-5327
▁돌려	-5328
▁운송	-5329
▁사물인터넷	-5330
▁국내에	-5331
철수	-5332
▁유용	-5333
▁매출이	-5334
▁파이	-5335
▁여파로	-5336
▁열었다	-5337
▁개발하고	-5338
DI	-5339
상에서	-5340
▁꼽힌다	-5341
코리아가	-5342
▁사이에서	-5343
셉트	-5344
체와	-5345
항을	-5346
▁고양	-5347
▁송신	-5348
▁장르	-5349
스카	-5350
▁글을	-5351
▁주기	-5352
인들의	-5353
경북	-5354
▁공포	-5355
▁떠오	-5356
▁불거	-5357
부서의	-5358
▁전까지	-5359
쉽게	-5360
조를	-5361
▁본부	-5362
중공업	-5363
▁포함한다	-5364
지니	-5365
▁사업의	-5366
▁측면에서	-5367
▁방문한	-5368
▁시점	-5369
▁쓰는	-5370
▁혼란	-5371
▁윈	-5372
▁냈다	-5373
▁사내	-5374
▁대표를	-5375
▁의지를	-5376
▁컨트롤	-5377
든지	-5378
▁이어지고	-5379
▁설비	-5380
▁인정하는	-5381
▁필요하다는	-5382
관과	-5383
져야	-5384
▁대책을	-5385
▁증상을	-5386
노동조합	-5387
▁맞게	-5388
▁법정	-5389
▁앞둔	-5390
▁요소	-5391
리게	-5392
여개	-5393
퍼런	-5394
▁발의	-5395
▁사업은	-5396
▁의사를	-5397
▁향상을	-5398
▁후보자	-5399
▁옵	-5400
그래	-5401
인가	-5402
▁소독	-5403
▁부분이	-5404
▁주파수	-5405
▁2003	-5406
▁유력	-5407
▁중도	-5408
▁높이기	-5409
▁사고가	-5410
▁사랑을	-5411
전거	-5412
▁동남	-5413
▁받게	-5414
▁봉사	-5415
▁변화에	-5416
▁쇼핑몰	-5417
▁진행한	-5418
▁매수	-5419
▁모르	-5420
▁대표와	-5421
초등학교	-5422
▁진행하는	-5423
▁도착	-5424
▁부가	-5425
▁실태	-5426
란히	-5427
팀이	-5428
▁비율	-5429
▁엄마	-5430
억원에	-5431
▁예비후보	-5432
▁증상	-5433
▁수준을	-5434
위원회에	-5435
댓글	-5436
▁양극	-5437
이한	-5438
▁곳에	-5439
kg	-5440
권은	-5441
토록	-5442
▁아프	-5443
▁전염	-5444
▁조명	-5445
되거나	-5446
▁세계적으로	-5447
▁권리	-5448
▁금액	-5449
▁수학	-5450
튜디오	-5451
▁개선을	-5452
▁인스타	-5453
▁현상을	-5454
as	-5455
인식	-5456
▁명칭	-5457
▁통제	-5458
▁포기	-5459
▁힘든	-5460
▁출시했다	-5461
▁미술	-5462
▁취급	-5463
계약을	-5464
▁셋	-5465
▁튜	-5466
요한	-5467
▁고객의	-5468
▁비디오	-5469
▁4,	-5470
▁끝난	-5471
▁느낄	-5472
▁데이	-5473
▁만남	-5474
▁고객에게	-5475
기지	-5476
목이	-5477
▁포토	-5478
대우	-5479
회계	-5480
▁아내	-5481
감염증	-5482
▁들어간	-5483
▁4·15	-5484
▁소개했다	-5485
로가	-5486
▁소자	-5487
▁향한	-5488
▁기간을	-5489
∼4	-5490
▁기소	-5491
▁수치	-5492
▁정확히	-5493
▁의원을	-5494
▁삶의	-5495
▁충북	-5496
▁회의를	-5497
부담	-5498
▁개입	-5499
▁재규	-5500
▁짧은	-5501
건으로	-5502
▁마음이	-5503
자산운용	-5504
개선	-5505
▁정체	-5506
▁상당한	-5507
프를	-5508
▁브리	-5509
▁유효	-5510
▁갑자기	-5511
▁장점이	-5512
▁줄었다	-5513
▁뷰	-5514
정치	-5515
▁육아	-5516
▁이차	-5517
▁편성	-5518
▁흘러	-5519
▁급격히	-5520
들어	-5521
▁65	-5522
▁손잡	-5523
▁필터	-5524
▁힘이	-5525
▁의료진	-5526
벤처기업	-5527
▁의원들이	-5528
바른	-5529
▁선물	-5530
▁싶다	-5531
▁합성	-5532
▁허위	-5533
면으로	-5534
▁기술개발	-5535
화는	-5536
▁근본	-5537
▁대행	-5538
▁스포	-5539
▁원래	-5540
▁운영할	-5541
99	-5542
분간	-5543
▁명시	-5544
▁부서	-5545
간에	-5546
류의	-5547
▁박막	-5548
▁유사한	-5549
▁저소득	-5550
▁한국지	-5551
범위	-5552
수석	-5553
▁금호	-5554
▁만난	-5555
▁바꿔	-5556
나무	-5557
수처	-5558
▁처분	-5559
▁비용이	-5560
▁신속하게	-5561
▁탁	-5562
공학	-5563
주파	-5564
▁만성	-5565
▁미칠	-5566
리면서	-5567
▁모델로	-5568
와는	-5569
▁tv	-5570
▁동료	-5571
▁싱가	-5572
▁인가	-5573
▁지표	-5574
산업의	-5575
청소년	-5576
수도	-5577
▁강의	-5578
▁자유롭게	-5579
▁게재	-5580
▁딜러	-5581
▁원고의	-5582
▁채널을	-5583
▁근로시간	-5584
▁신청서를	-5585
▁확인하고	-5586
▁걷	-5587
데이	-5588
▁넓은	-5589
▁올린	-5590
▁주가	-5591
장애인	-5592
▁미국과	-5593
▁세계적인	-5594
▁자는	-5595
▁자발	-5596
형으로	-5597
▁사이트	-5598
▁장치의	-5599
▁호흡기	-5600
▁결정했다	-5601
ig	-5602
▁엠	-5603
단지	-5604
명령	-5605
▁올려	-5606
▁5000	-5607
영이	-5608
▁겨냥	-5609
▁시중	-5610
▁트래	-5611
5000	-5612
▁것인지	-5613
▁라이브	-5614
▁미세먼지	-5615
▁그때	-5616
▁무급	-5617
▁이상으로	-5618
▁런	-5619
마켓	-5620
▁감면	-5621
▁프로모	-5622
▁공개한	-5623
▁실시할	-5624
▁55	-5625
▁서초	-5626
▁측이	-5627
▁노조가	-5628
▁지금은	-5629
▁궁금증을	-5630
▁제공된다	-5631
MC	-5632
▁과제	-5633
▁못해	-5634
투자증권	-5635
▁기업으로	-5636
시와	-5637
신고	-5638
▁적립	-5639
생활을	-5640
▁고려하여	-5641
▁선별진료	-5642
▁안전하게	-5643
▁조사됐다	-5644
▁중국에서	-5645
보가	-5646
▁메인	-5647
▁적정	-5648
▁지역을	-5649
국을	-5650
세의	-5651
▁유의	-5652
정으로	-5653
대문	-5654
씨를	-5655
그룹이	-5656
▁리스크	-5657
▁방과후	-5658
▁보이지	-5659
▁규정함을	-5660
▁털	-5661
들께	-5662
럼프	-5663
▁김영	-5664
글로벌	-5665
▁시선을	-5666
미가	-5667
▁조언	-5668
▁좌우	-5669
▁무인	-5670
▁심장	-5671
▁증대	-5672
▁트랜지스터	-5673
니지	-5674
렀다	-5675
지급	-5676
▁공고	-5677
▁신임	-5678
▁차이	-5679
졌다는	-5680
▁미래에	-5681
▁추진할	-5682
기본	-5683
어의	-5684
▁건전	-5685
▁부천	-5686
▁여자	-5687
레이터	-5688
▁경찰은	-5689
▁국회가	-5690
랜저	-5691
이너	-5692
항제	-5693
▁댓글	-5694
▁정착	-5695
▁선정된	-5696
▁총선을	-5697
리면	-5698
▁토지	-5699
▁안전을	-5700
▁플러그	-5701
▁인스타그램	-5702
▁민원	-5703
▁일은	-5704
▁접종	-5705
▁축적	-5706
듯이	-5707
재해	-5708
카데	-5709
▁안심	-5710
▁얻어	-5711
노트	-5712
스턴	-5713
▁정해	-5714
▁징역	-5715
▁밴	-5716
밀리	-5717
박스	-5718
▁대량	-5719
▁떠올	-5720
▁때도	-5721
▁트럭	-5722
▁승인을	-5723
▁인플루	-5724
▁강화하고	-5725
▁추진하는	-5726
·4	-5727
▁죄	-5728
300	-5729
▁반사	-5730
▁등이다	-5731
▁학부모님의	-5732
나다	-5733
▁같아	-5734
▁대회	-5735
▁버전	-5736
▁방향을	-5737
▁줄이고	-5738
▁풍부한	-5739
한국당이	-5740
▁일환으로	-5741
▁격려	-5742
▁비난	-5743
▁제일	-5744
▁수익을	-5745
▁딥	-5746
▁샌	-5747
계에	-5748
재의	-5749
▁포착	-5750
▁비교해	-5751
▁대안	-5752
▁잡고	-5753
▁국무총	-5754
▁모터쇼	-5755
▁개발했다	-5756
당에	-5757
▁복용	-5758
▁채무	-5759
▁폐지	-5760
▁잇따라	-5761
▁확보할	-5762
여행	-5763
▁다루	-5764
▁재배	-5765
▁한진	-5766
면의	-5767
사실	-5768
▁보조금	-5769
만한	-5770
산이	-5771
조직	-5772
해지고	-5773
▁80%	-5774
▁위원회	-5775
자동차는	-5776
▁뉴스	-5777
▁착수	-5778
솔루션	-5779
▁자세한	-5780
PA	-5781
▁삭제	-5782
▁순수	-5783
됐으며	-5784
▁2021	-5785
▁구청장에게	-5786
루미	-5787
▁대만	-5788
▁단순히	-5789
유를	-5790
▁핸드	-5791
시장은	-5792
▁전부터	-5793
23	-5794
▁공익	-5795
▁정식	-5796
▁청문	-5797
▁현상	-5798
기관에	-5799
▁가격을	-5800
▁실적을	-5801
▁2002	-5802
▁경우에도	-5803
▁한국당이	-5804
ou	-5805
▁목표를	-5806
▁유전자	-5807
▁보여주는	-5808
▁노력하여야	-5809
▁방해	-5810
▁결과는	-5811
▁목적이	-5812
▁테슬라	-5813
▁원내대표가	-5814
SS	-5815
진단	-5816
▁주시	-5817
▁갖추고	-5818
▁아이돌	-5819
직자	-5820
해달	-5821
▁일하는	-5822
▁출시된	-5823
▁용인	-5824
▁추경	-5825
명이다	-5826
▁사유가	-5827
▁하더라도	-5828
세에	-5829
▁그만큼	-5830
▁정보가	-5831
▁본교에서는	-5832
▁단속	-5833
▁소집	-5834
▁필리	-5835
▁사람들의	-5836
치게	-5837
▁세워	-5838
▁통지	-5839
▁삶을	-5840
▁위로	-5841
▁혼자	-5842
▁인기가	-5843
▁했다고	-5844
▁에너지를	-5845
디아	-5846
▁떠나	-5847
하려고	-5848
▁여의도	-5849
7%	-5850
장기	-5851
조치	-5852
▁넘게	-5853
기업의	-5854
이라면서	-5855
▁담아	-5856
▁위생	-5857
은행의	-5858
협약을	-5859
▁개발해	-5860
▁사업장	-5861
▁상용화	-5862
▁모은	-5863
▁프린	-5864
만원의	-5865
텔레콤은	-5866
ation	-5867
▁카카오톡	-5868
▁시청자들의	-5869
주차	-5870
▁상업	-5871
▁흥행	-5872
▁상태가	-5873
▁출마를	-5874
▁모습이다	-5875
청구	-5876
▁AP	-5877
만달러	-5878
▁생각을	-5879
▁한국에서	-5880
디스플레이	-5881
▁IB	-5882
▁제고	-5883
▁퇴원	-5884
▁화려	-5885
▁이유다	-5886
▁층	-5887
▁입은	-5888
▁진공	-5889
▁혈액	-5890
▁업계의	-5891
▁영향이	-5892
모를	-5893
적극	-5894
패시	-5895
▁이로써	-5896
1,	-5897
신호	-5898
▁39	-5899
▁상상	-5900
카데미	-5901
▁병원에	-5902
▁디자인을	-5903
IoT	-5904
▁냉장	-5905
▁활약	-5906
▁확대해	-5907
LS	-5908
리한	-5909
▁과제로	-5910
같은	-5911
규제	-5912
▁라임	-5913
체계를	-5914
▁국토교통	-5915
이노	-5916
▁사각	-5917
▁원을	-5918
▁폴리	-5919
▁일자리를	-5920
드리	-5921
▁천연	-5922
▁직원이	-5923
▁최적의	-5924
감과	-5925
▁단지	-5926
▁비전	-5927
▁앞세	-5928
▁적발	-5929
▁확충	-5930
▁공장을	-5931
▁부분에	-5932
▁위치를	-5933
개가	-5934
배상	-5935
산물	-5936
▁내구	-5937
▁맡은	-5938
▁안타	-5939
마스크	-5940
▁40%	-5941
▁웃음을	-5942
▁지원이	-5943
▁되며	-5944
▁파기	-5945
▁방식의	-5946
▁소규모	-5947
▁어려울	-5948
▁트럼프	-5949
▁영향으로	-5950
▁스마트폰을	-5951
친다	-5952
트럭	-5953
확인	-5954
▁끌고	-5955
▁기술에	-5956
▁안정적으로	-5957
..	-5958
평을	-5959
▁융자	-5960
부터는	-5961
▁규모로	-5962
▁복잡한	-5963
▁이유가	-5964
▁패키지	-5965
구로	-5966
플릭	-5967
▁도달	-5968
▁수를	-5969
▁시정	-5970
▁그랜저	-5971
▁이제는	-5972
▁싱가포르	-5973
운전	-5974
▁미생	-5975
시설을	-5976
▁원활한	-5977
건축	-5978
신용	-5979
화해	-5980
▁PD	-5981
개월간	-5982
▁자동차보험	-5983
전환	-5984
청이	-5985
칙을	-5986
▁강릉	-5987
▁내렸다	-5988
▁반려	-5989
▁배당	-5990
▁차가	-5991
▁출연해	-5992
▁류	-5993
▁돋보	-5994
▁하늘	-5995
▁훼손	-5996
▁기대가	-5997
▁손쉽게	-5998
▁제도를	-5999
▁정보기술	-6000
▁램프	-6001
▁시사	-6002
베이션	-6003
해지는	-6004
▁네트워크를	-6005
시킴	-6006
▁가르	-6007
▁노원	-6008
▁무대	-6009
배를	-6010
▁도서	-6011
▁생겨	-6012
▁운전자가	-6013
▁배정	-6014
▁봤다	-6015
▁널리	-6016
었는데	-6017
▁범위를	-6018
▁지정된	-6019
▁이외에도	-6020
▁집계됐다	-6021
▁학부모님들의	-6022
TT	-6023
연맹	-6024
트와	-6025
▁그를	-6026
▁당일	-6027
▁태국	-6028
▁파괴	-6029
▁테이블	-6030
45	-6031
am	-6032
▁말고	-6033
▁촉구했다	-6034
▁업그	-6035
▁항목	-6036
▁교육과	-6037
▁진행되는	-6038
님이	-6039
▁43	-6040
▁코스닥	-6041
▁현재의	-6042
▁대하여는	-6043
▁아름다운	-6044
▁위원회는	-6045
터카	-6046
▁기침	-6047
▁높게	-6048
▁회수	-6049
▁내놨다	-6050
▁진행된다	-6051
비와	-6052
희가	-6053
▁압도	-6054
▁얻고	-6055
▁이주	-6056
티스트	-6057
▁평가가	-6058
▁확대할	-6059
병원에서	-6060
▁병원에서	-6061
▁기원합니다	-6062
EV	-6063
군은	-6064
▁대여	-6065
▁지시	-6066
별로는	-6067
▁단말기	-6068
▁박근혜	-6069
▁소송을	-6070
▁협약을	-6071
▁확대하고	-6072
▁압축	-6073
▁한화	-6074
▁말까지	-6075
▁부분은	-6076
▁삼성전자의	-6077
ID	-6078
결을	-6079
터에	-6080
폐기	-6081
▁도출	-6082
▁기존에	-6083
▁안내해	-6084
▁감안하면	-6085
그룹의	-6086
▁저렴한	-6087
▁의미한다	-6088
MG	-6089
도우	-6090
▁수납	-6091
▁분위기를	-6092
▁일반적인	-6093
27	-6094
4%	-6095
▁도내	-6096
▁물을	-6097
▁시대에	-6098
▁전세계	-6099
▁겹	-6100
▁무관	-6101
하시어	-6102
서로	-6103
캐피	-6104
▁김성	-6105
▁따뜻한	-6106
▁방송을	-6107
▁시설을	-6108
▁사용하고	-6109
연의	-6110
▁오늘날	-6111
▁담당하는	-6112
▁판단했다	-6113
브라	-6114
▁시가	-6115
▁중구	-6116
원들이	-6117
▁달한다	-6118
▁짐	-6119
반응	-6120
▁논문	-6121
▁동원	-6122
▁방전	-6123
▁여성이	-6124
▁이르는	-6125
서울특별시	-6126
학기	-6127
▁발매	-6128
▁부적	-6129
▁이들을	-6130
▁하겠다	-6131
▁세계에서	-6132
▁고용노동부	-6133
cc	-6134
▁훌	-6135
었을	-6136
판에	-6137
▁초반	-6138
▁가격은	-6139
▁고객을	-6140
▁기록한	-6141
▁인증을	-6142
▁피해가	-6143
만원으로	-6144
▁실시하고	-6145
론이	-6146
즈는	-6147
▁탄력	-6148
▁형사	-6149
▁가치가	-6150
▁병원을	-6151
▁스트리	-6152
▁원심판결	-6153
▁한국지엠	-6154
끄는	-6155
생이	-6156
▁과반	-6157
▁끌었다	-6158
▁부인	-6159
▁수직	-6160
▁사업이	-6161
▁들어갔다	-6162
28	-6163
▁뚜렷	-6164
▁전후	-6165
▁직전	-6166
▁이유를	-6167
▁이하의	-6168
▁방식이다	-6169
▁않는다는	-6170
▁초래	-6171
▁부품을	-6172
▁점유율	-6173
▁함으로써	-6174
로버	-6175
요양	-6176
이온	-6177
주주	-6178
폰을	-6179
▁곳은	-6180
▁추출	-6181
대응	-6182
로스	-6183
우스	-6184
일러	-6185
▁46	-6186
▁남자	-6187
▁방출	-6188
▁일치	-6189
▁증정	-6190
▁체크	-6191
군이	-6192
기간을	-6193
▁치료제	-6194
하더라도	-6195
▁3000	-6196
결합	-6197
신문	-6198
▁마주	-6199
▁거주하는	-6200
▁이어졌다	-6201
LG	-6202
주간	-6203
주일	-6204
▁얻은	-6205
사업에	-6206
▁논의가	-6207
▁사례를	-6208
▁활동이	-6209
락을	-6210
▁원천	-6211
▁위임	-6212
▁형광	-6213
반도체	-6214
▁국회에	-6215
▁된다는	-6216
▁이번이	-6217
▁코로나바이러스감염증	-6218
IC	-6219
연료	-6220
지난	-6221
진에	-6222
▁에스	-6223
▁이자	-6224
▁테크	-6225
▁195	-6226
▁라디오	-6227
▁미래를	-6228
▁깔	-6229
▁짜	-6230
설을	-6231
▁경계	-6232
▁메뉴	-6233
▁실용	-6234
세는	-6235
출력	-6236
▁대다	-6237
▁도심	-6238
▁세미	-6239
▁시간에	-6240
▁얘기다	-6241
▁폴더블	-6242
▁이루어진	-6243
▁“	-6244
양을	-6245
어져	-6246
▁지휘	-6247
▁합작	-6248
▁곳에서	-6249
▁근로자의	-6250
▁사용하지	-6251
재는	-6252
▁수렴	-6253
모바일	-6254
▁자리에서	-6255
슬러	-6256
여서	-6257
지수	-6258
▁동시	-6259
▁마친	-6260
▁매력	-6261
▁선제	-6262
▁즉각	-6263
호서식에	-6264
ER	-6265
▁p	-6266
▁캐나다	-6267
▁환경에	-6268
▁개시된다	-6269
▁사회복지	-6270
▁환경에서	-6271
▁앓	-6272
▁캘	-6273
▁캡	-6274
지사	-6275
화될	-6276
▁괴롭	-6277
▁내연	-6278
▁높고	-6279
▁분기	-6280
▁양도	-6281
▁안철수	-6282
▁깜	-6283
▁뭐	-6284
▁공부	-6285
▁근육	-6286
▁탓에	-6287
▁의혹을	-6288
▁이야기가	-6289
▁멜	-6290
만여	-6291
▁나무	-6292
▁수백	-6293
▁촉매	-6294
▁힘입	-6295
▁반응이	-6296
▁필요로	-6297
▁가능하며	-6298
▁작성하여	-6299
▁갖춰	-6300
▁기회	-6301
▁입을	-6302
▁함유	-6303
디자인	-6304
▁않다는	-6305
▁현재는	-6306
26	-6307
▁닫	-6308
협의회	-6309
▁각각의	-6310
▁사업자	-6311
▁없지만	-6312
▁일각에서는	-6313
▁밟	-6314
▁칠	-6315
▁연휴	-6316
▁유지할	-6317
증상	-6318
▁양호	-6319
라이언	-6320
▁회장의	-6321
▁관리하는	-6322
▁덮	-6323
신의	-6324
▁전도	-6325
▁초등	-6326
쪽으로	-6327
▁수술을	-6328
▁이전에	-6329
▁음원	-6330
▁저축	-6331
▁특유의	-6332
▁앞으로도	-6333
점과	-6334
▁늘려	-6335
▁갖췄다	-6336
▁규모는	-6337
▁포스코	-6338
▁활용하는	-6339
▁와이	-6340
▁잠정	-6341
▁분석해	-6342
▁한계가	-6343
▁있었지만	-6344
▁제시했다	-6345
▁빗	-6346
포먼	-6347
ICT	-6348
▁곳이	-6349
▁인력을	-6350
부처	-6351
▁막을	-6352
▁유해	-6353
▁차기	-6354
▁창립	-6355
▁관계자	-6356
▁1990	-6357
▁한국당은	-6358
▁횡	-6359
우가	-6360
▁공인	-6361
▁면제	-6362
▁산출	-6363
▁없애	-6364
▁이래	-6365
▁커피	-6366
▁기준에	-6367
▁추천해	-6368
수업	-6369
▁구독	-6370
▁녹색	-6371
▁당뇨	-6372
▁완치	-6373
된다고	-6374
용으로	-6375
▁적용된	-6376
▁질문에	-6377
▁사람에게	-6378
▁좋아하는	-6379
▁춘	-6380
곳을	-6381
▁규모를	-6382
▁그럼에도	-6383
▁헬스케어	-6384
딜락	-6385
부서	-6386
자유	-6387
∼20	-6388
▁순차	-6389
▁인텔	-6390
▁브리핑	-6391
em	-6392
오고	-6393
▁5%	-6394
▁충청	-6395
▁없도록	-6396
▁사모펀드	-6397
ri	-6398
능력	-6399
▁전세	-6400
이었던	-6401
▁업계는	-6402
▁최소한	-6403
▁CCTV	-6404
▁드러났다	-6405
▁스포츠카	-6406
▁홈페이지를	-6407
TF	-6408
남도	-6409
사들의	-6410
▁그들의	-6411
▁콜센터	-6412
호서식의	-6413
▁증가하는	-6414
청문	-6415
▁공수처	-6416
8%	-6417
VR	-6418
수행	-6419
▁화물	-6420
▁기반을	-6421
▁방송된	-6422
▁복수의	-6423
▁하거나	-6424
▁감소했다	-6425
회의를	-6426
▁가졌다	-6427
▁감독이	-6428
▁적어도	-6429
▁생각하는	-6430
▁텐	-6431
소한	-6432
▁달려	-6433
▁두산	-6434
▁이의	-6435
▁분석을	-6436
▁출시할	-6437
1%	-6438
▁몽	-6439
▁밸	-6440
보드	-6441
퓨팅	-6442
▁진로	-6443
▁기후변	-6444
안과	-6445
▁가량	-6446
시장을	-6447
지어	-6448
▁통일	-6449
시설의	-6450
▁Y	-6451
방이	-6452
▁야당	-6453
▁진정	-6454
부에서	-6455
▁tvN	-6456
▁공정을	-6457
▁여기서	-6458
▁예방을	-6459
▁지급하는	-6460
▁한국노총	-6461
소자	-6462
▁쓰고	-6463
▁않기	-6464
▁화장품	-6465
저가	-6466
600	-6467
▁맡아	-6468
▁사법	-6469
▁수여	-6470
▁출산	-6471
▁편안	-6472
▁매력을	-6473
▁열렸다	-6474
▁자전거	-6475
회의에서	-6476
9%	-6477
메이	-6478
▁과태	-6479
되기도	-6480
▁확산을	-6481
▁모습으로	-6482
om	-6483
구나	-6484
민이	-6485
시간이	-6486
▁세상을	-6487
▁지하철	-6488
▁이어지는	-6489
제조	-6490
중소	-6491
▁임신	-6492
▁보건소	-6493
▁자원봉사	-6494
▁포함하여	-6495
▁상시	-6496
선생님	-6497
▁영역을	-6498
▁위기를	-6499
▁적용했다	-6500
▁편리하게	-6501
▁철도	-6502
▁커질	-6503
▁강하게	-6504
▁집단감염	-6505
리포	-6506
▁곧바로	-6507
▁교수가	-6508
▁제품이	-6509
국에	-6510
▁깊이	-6511
▁나이	-6512
▁주지	-6513
선으로	-6514
▁대화를	-6515
▁환자와	-6516
▁차별화된	-6517
29	-6518
트라	-6519
▁밖의	-6520
▁워크	-6521
▁준용	-6522
▁크기	-6523
▁혼합	-6524
▁분석한	-6525
▁초점을	-6526
▁OLED	-6527
▁받아들이	-6528
▁봤	-6529
대행	-6530
층에	-6531
▁갈수록	-6532
▁행위를	-6533
▁노무	-6534
▁트위	-6535
금으로	-6536
당국이	-6537
▁관측이	-6538
▁떨어져	-6539
▁사용해	-6540
▁행사는	-6541
의약품	-6542
▁추진한다	-6543
구와	-6544
차원	-6545
▁듀얼	-6546
▁사기	-6547
▁응원	-6548
모빌리티	-6549
▁실시한다	-6550
▁m	-6551
▁옛	-6552
름이	-6553
물과	-6554
할지	-6555
▁골프	-6556
▁공중	-6557
▁매주	-6558
▁배기	-6559
전자가	-6560
▁전략적	-6561
▁타이틀	-6562
생충	-6563
▁중계	-6564
화되고	-6565
▁넷플릭	-6566
▁진료를	-6567
▁캐딜락	-6568
▁평가다	-6569
▁금융감독	-6570
▁긍정적인	-6571
▁플라스틱	-6572
씨와	-6573
▁감축	-6574
▁김태	-6575
▁생기	-6576
▁주간	-6577
▁기간이	-6578
▁알루미	-6579
▁원장은	-6580
▁아티스트	-6581
▁판매량이	-6582
스팅	-6583
▁관여	-6584
▁캠페	-6585
년으로	-6586
스토어	-6587
2,	-6588
탄을	-6589
▁무기	-6590
▁성남	-6591
▁실증	-6592
▁트렁	-6593
하오니	-6594
▁프라이	-6595
▁전문기업	-6596
▁제네시스	-6597
▁데이터베이	-6598
석의	-6599
▁수면	-6600
관으로	-6601
▁이태원	-6602
레드	-6603
▁불량	-6604
▁높았다	-6605
▁사고를	-6606
랜드로버	-6607
▁공급하는	-6608
▁드라이빙	-6609
▁서비스에	-6610
▁지급한다	-6611
▁입고	-6612
▁이익을	-6613
▁협조를	-6614
▁미래한국당	-6615
▁결핵	-6616
▁아쉬	-6617
▁저는	-6618
▁중기	-6619
▁했고	-6620
하기에	-6621
▁투자자	-6622
GB	-6623
미를	-6624
폭이	-6625
▁맡고	-6626
▁불필	-6627
▁120	-6628
▁내부에	-6629
▁들어서	-6630
▁제공해	-6631
▁발생되는	-6632
▁구체적으로	-6633
▁교부	-6634
▁독특	-6635
▁선을	-6636
▁이수	-6637
틸리티	-6638
▁90%	-6639
▁생산을	-6640
▁에어컨	-6641
▁정치권	-6642
▁행복한	-6643
▁힘입어	-6644
같이	-6645
공유	-6646
순환	-6647
클럽	-6648
▁강서	-6649
▁저작	-6650
▁중대	-6651
▁생각해	-6652
받지	-6653
연대	-6654
인당	-6655
▁능력	-6656
▁독서	-6657
▁바에	-6658
▁부실	-6659
▁잠시	-6660
▁전류	-6661
▁이해찬	-6662
▁장비를	-6663
▁한국에	-6664
2%	-6665
충전	-6666
▁드리	-6667
▁파손	-6668
▁하되	-6669
위에서	-6670
▁되도록	-6671
▁학생의	-6672
▁지원하기	-6673
▁카메라를	-6674
사례	-6675
프리	-6676
▁포트	-6677
▁진행됐다	-6678
▁희망하는	-6679
▁자연스럽게	-6680
▁거치	-6681
▁무시	-6682
▁밀접	-6683
▁좋지	-6684
▁알려줘	-6685
▁대한항공	-6686
▁만들어진	-6687
▁연구팀은	-6688
▁아들	-6689
▁재택	-6690
▁진영	-6691
▁나타난	-6692
▁반대로	-6693
▁시대를	-6694
▁아니한	-6695
▁위기에	-6696
▁휴대전화	-6697
▁Z	-6698
▁롤	-6699
이상	-6700
통상	-6701
▁가열	-6702
▁도덕	-6703
▁국민이	-6704
▁올바른	-6705
▁드립니다	-6706
▁참여했다	-6707
너스	-6708
▁스케	-6709
▁취지	-6710
▁60%	-6711
▁강남구	-6712
▁캠페인	-6713
본부장은	-6714
▁성공했다	-6715
▁현대차의	-6716
코드	-6717
ter	-6718
▁거짓	-6719
▁노후	-6720
▁돕는	-6721
▁반박	-6722
▁분당	-6723
▁제출한	-6724
▁2,000	-6725
북도	-6726
참여	-6727
▁청소	-6728
▁대법원	-6729
▁손실을	-6730
▁일정을	-6731
▁진행되고	-6732
▁싼	-6733
준비	-6734
합의	-6735
▁구간	-6736
▁내린	-6737
▁관리에	-6738
▁대출을	-6739
▁대해선	-6740
▁되면서	-6741
▁영화를	-6742
▁일이다	-6743
심히	-6744
▁레벨	-6745
▁로그	-6746
▁신문	-6747
▁감염이	-6748
▁술	-6749
▁쥐	-6750
▁75	-6751
▁신도	-6752
▁어떠	-6753
▁연수	-6754
▁600	-6755
▁감염된	-6756
▁담겼다	-6757
▁전반에	-6758
HO	-6759
de	-6760
기정	-6761
외선	-6762
었다고	-6763
해졌다	-6764
▁뮤지컬	-6765
▁차량이	-6766
백을	-6767
▁거대	-6768
▁마감	-6769
▁없었던	-6770
▁철저히	-6771
▁한국을	-6772
▁기술이다	-6773
▁업계에서는	-6774
더라	-6775
▁세균	-6776
명에게	-6777
▁도입을	-6778
▁예정인	-6779
▁요구했다	-6780
▁순매	-6781
▁유료	-6782
▁인건	-6783
▁경쟁을	-6784
▁구축을	-6785
▁퍼포먼	-6786
▁한국어	-6787
▁발생하고	-6788
▁웨	-6789
▁브라질	-6790
재료	-6791
▁일제	-6792
관계를	-6793
까지의	-6794
교회	-6795
번에	-6796
▁앞장	-6797
▁존중	-6798
▁드러나	-6799
▁예산을	-6800
▁재규어	-6801
용품	-6802
▁맞은	-6803
▁저지	-6804
▁점포	-6805
▁창당	-6806
▁처리를	-6807
▁적용되는	-6808
이의	-6809
▁외교	-6810
▁재발	-6811
▁지향	-6812
▁추첨	-6813
▁라이프	-6814
▁사용이	-6815
▁발생하지	-6816
▁선정됐다	-6817
반떼	-6818
처는	-6819
현대	-6820
▁부상	-6821
억원이	-6822
▁간편하게	-6823
▁소비자의	-6824
ay	-6825
lo	-6826
디션	-6827
수입	-6828
▁5,	-6829
▁찾은	-6830
관리를	-6831
▁감소한	-6832
▁다르게	-6833
▁발전에	-6834
▁인사를	-6835
▁배터리를	-6836
▁신용카드	-6837
▁어려움이	-6838
값이	-6839
변속	-6840
부산	-6841
▁주어	-6842
▁선택할	-6843
▁프로그램은	-6844
리트	-6845
전쟁	-6846
▁44	-6847
▁47	-6848
▁매월	-6849
결과를	-6850
사에게	-6851
▁제시한	-6852
▁학생은	-6853
▁기대감을	-6854
22	-6855
검찰	-6856
셀러	-6857
십을	-6858
▁둔다	-6859
▁운영한다	-6860
▁누가	-6861
▁되기	-6862
▁문제에	-6863
▁플래그	-6864
▁성공적으로	-6865
경이	-6866
받침	-6867
▁빛을	-6868
신호를	-6869
▁유명한	-6870
▁주목을	-6871
▁집에서	-6872
▁나타나는	-6873
▁어렵다는	-6874
유플러스는	-6875
35	-6876
▁소화	-6877
▁연대	-6878
▁작가	-6879
▁투여	-6880
▁품목	-6881
▁보여주	-6882
▁스튜디오	-6883
▁연료전지	-6884
3%	-6885
더니	-6886
리도	-6887
시코	-6888
▁끊임	-6889
▁애니	-6890
▁처방	-6891
사업의	-6892
▁문제점을	-6893
린이	-6894
▁김용	-6895
▁병행	-6896
▁서류	-6897
들과의	-6898
하시기	-6899
▁과도한	-6900
▁규정을	-6901
▁관계없이	-6902
단과	-6903
▁납품	-6904
▁지니	-6905
▁추후	-6906
▁출자	-6907
▁전체의	-6908
▁낭	-6909
튜버	-6910
▁고유	-6911
▁문의	-6912
▁쉬운	-6913
▁없게	-6914
▁입사	-6915
▁하자	-6916
▁구조조	-6917
▁단순한	-6918
▁문화를	-6919
▁의약품	-6920
▁것이었다	-6921
▁시스템에서	-6922
ve	-6923
현재	-6924
▁신분	-6925
▁잡아	-6926
▁전공	-6927
▁거리두	-6928
▁이뤄질	-6929
▁있었고	-6930
▁확보를	-6931
사법	-6932
석은	-6933
국에서	-6934
▁대응을	-6935
▁실적이	-6936
▁이사회	-6937
▁않습니다	-6938
is	-6939
▁무효	-6940
▁사측	-6941
▁살펴보	-6942
▁유일한	-6943
▁업체들이	-6944
▁예상되는	-6945
∼5	-6946
▁멘	-6947
줄래	-6948
▁상영	-6949
주년을	-6950
▁가정에	-6951
▁일정한	-6952
▁유지하고	-6953
▁바다	-6954
▁보행	-6955
▁논의를	-6956
▁매출은	-6957
▁생활을	-6958
37	-6959
▁겁	-6960
▁묶	-6961
다니	-6962
되게	-6963
▁건의	-6964
▁소관	-6965
▁승객	-6966
▁식약	-6967
▁월드	-6968
▁익숙	-6969
▁차량에	-6970
▁고속도로	-6971
▁단말기의	-6972
가치	-6973
▁성형	-6974
▁온실	-6975
▁계기가	-6976
▁넘치는	-6977
▁스마트시티	-6978
대비	-6979
조국	-6980
▁배상	-6981
▁소모	-6982
▁어울	-6983
▁예외	-6984
▁위법	-6985
기업이	-6986
▁공연을	-6987
▁소식을	-6988
▁치열한	-6989
▁행사가	-6990
▁행사에	-6991
하겠습니다	-6992
▁켜	-6993
공공	-6994
선은	-6995
▁산재	-6996
▁재해	-6997
▁대학생	-6998
▁한국과	-6999
▁득	-7000
▁잊	-7001
목적	-7002
수요	-7003
시대	-7004
아의	-7005
▁세탁	-7006
▁트랙	-7007
병원은	-7008
▁자동화	-7009
고등학교	-7010
▁하드웨어	-7011
2'	-7012
▁팽	-7013
수당	-7014
재생	-7015
지주	-7016
현이	-7017
800	-7018
▁받기	-7019
▁분포	-7020
▁안방	-7021
▁제로	-7022
▁찾을	-7023
▁CES	-7024
▁정도가	-7025
▁줄이는	-7026
▁검토하고	-7027
▁배출가스	-7028
▁휩	-7029
▁장소	-7030
에서만	-7031
▁건강을	-7032
▁알루미늄	-7033
▁확산으로	-7034
▁챔	-7035
낙연	-7036
렬한	-7037
림픽	-7038
발생	-7039
▁내외	-7040
▁무너	-7041
▁신기술	-7042
▁쾌	-7043
다시	-7044
위험	-7045
▁뒤를	-7046
▁부각	-7047
▁생물	-7048
▁씨는	-7049
▁역동	-7050
▁포상	-7051
▁단위로	-7052
▁판매하는	-7053
▁방과후학교	-7054
보장	-7055
▁리드	-7056
▁지체	-7057
기간이	-7058
라운드	-7059
▁기술력을	-7060
IS	-7061
화당	-7062
▁MS	-7063
▁배선	-7064
▁조종	-7065
시까지	-7066
▁180	-7067
▁대비해	-7068
▁대상은	-7069
▁못한다	-7070
▁자녀의	-7071
▁차원의	-7072
▁학생이	-7073
6%	-7074
스탄	-7075
심한	-7076
영역	-7077
▁소음	-7078
▁영세	-7079
▁이종	-7080
▁사용을	-7081
▁트렁크	-7082
▁들어가는	-7083
▁업그레이드	-7084
il	-7085
토리	-7086
▁JT	-7087
▁고분	-7088
▁눈을	-7089
▁신약	-7090
▁알리	-7091
라이브	-7092
멕시코	-7093
▁검찰은	-7094
▁작품을	-7095
▁필요할	-7096
▁스트리밍	-7097
▁차지하고	-7098
위원회에서	-7099
▁소비자들의	-7100
▁s	-7101
▁지불	-7102
▁해상	-7103
▁헌법	-7104
▁조건을	-7105
EC	-7106
▁퓨	-7107
집을	-7108
▁가시	-7109
▁과세	-7110
▁방탄	-7111
▁청주	-7112
▁파생	-7113
▁주식을	-7114
▁프로토	-7115
▁브랜드의	-7116
▁프로그램에	-7117
용량	-7118
▁도는	-7119
▁부득	-7120
▁해킹	-7121
였지만	-7122
▁개인의	-7123
▁나서고	-7124
▁노조의	-7125
방역대책	-7126
▁가능성은	-7127
▁선보이는	-7128
▁않았지만	-7129
▁체결했다	-7130
65	-7131
TC	-7132
▁호출	-7133
▁금리가	-7134
▁노트북	-7135
▁르노삼	-7136
▁교과	-7137
▁윤리	-7138
▁인용	-7139
▁인적	-7140
▁생기는	-7141
▁않지만	-7142
▁이내로	-7143
▁지능형	-7144
▁2022	-7145
▁프로젝트를	-7146
림을	-7147
복을	-7148
차와	-7149
▁관내	-7150
▁깨끗	-7151
▁분해	-7152
경영자	-7153
노동자	-7154
▁음식을	-7155
▁지자체	-7156
▁체계를	-7157
▁확보한	-7158
▁분위기가	-7159
▁꼼	-7160
.0%	-7161
구에서	-7162
▁하나인	-7163
▁물론이고	-7164
기계	-7165
스테	-7166
▁설득	-7167
▁모르는	-7168
▁아래의	-7169
경원	-7170
추진	-7171
▁둘째	-7172
▁수평	-7173
번호를	-7174
▁규제를	-7175
▁질병관리본부는	-7176
▁굉	-7177
▁간접	-7178
▁극대화	-7179
▁모델이	-7180
▁모으고	-7181
▁엄청난	-7182
년형	-7183
호흡	-7184
▁머신	-7185
▁의거	-7186
▁찬성	-7187
▁페라	-7188
▁벌이고	-7189
▁신뢰성을	-7190
▁없습니다	-7191
오프	-7192
▁관해	-7193
▁스페	-7194
▁접착	-7195
▁호남	-7196
▁비판이	-7197
▁플러스	-7198
▁근로기준	-7199
▁소비자들이	-7200
공항	-7201
스피	-7202
▁로드	-7203
▁배포	-7204
▁번호	-7205
▁언어	-7206
게이트	-7207
▁c	-7208
▁웅	-7209
정과	-7210
SUV	-7211
▁가질	-7212
▁한해	-7213
리스트	-7214
▁종래의	-7215
▁진출을	-7216
말로	-7217
통을	-7218
히고	-7219
▁거친	-7220
▁구상	-7221
▁대외	-7222
▁시내	-7223
▁우승	-7224
▁자살	-7225
▁전산	-7226
▁기판의	-7227
▁있으니	-7228
▁투자가	-7229
▁기각한다	-7230
▁중앙방역대책	-7231
▁댄	-7232
▁델	-7233
나갈	-7234
커버	-7235
▁뮤직	-7236
▁배려	-7237
▁사후	-7238
▁개정안	-7239
▁과정에	-7240
▁성장할	-7241
▁수업을	-7242
▁음극선	-7243
▁2001	-7244
▁서비스로	-7245
▁유망	-7246
▁진술	-7247
▁테마	-7248
▁시기에	-7249
▁원인이	-7250
▁기업들의	-7251
▁대표하는	-7252
▁준비하고	-7253
분쟁	-7254
전도	-7255
▁○○	-7256
▁듯한	-7257
▁아예	-7258
▁추석	-7259
▁터치	-7260
▁마련해	-7261
▁심사를	-7262
▁아이들이	-7263
▁독점	-7264
▁아르	-7265
해양	-7266
▁면적	-7267
▁소리	-7268
▁수준에	-7269
▁해결할	-7270
회로기판	-7271
LF	-7272
SW	-7273
400	-7274
IST	-7275
▁기조	-7276
▁민족	-7277
비용은	-7278
▁주장이	-7279
▁지분을	-7280
료는	-7281
▁기한	-7282
▁수소전기	-7283
창업	-7284
형에	-7285
화점	-7286
동조합	-7287
하기는	-7288
▁모았다	-7289
▁연구는	-7290
▁낳	-7291
▁용산	-7292
▁호응	-7293
▁LTE	-7294
▁아니면	-7295
▁어디서	-7296
▁방지하는	-7297
▁실시하는	-7298
▁원칙으로	-7299
▁이용자가	-7300
▁추정된다	-7301
▁효율성을	-7302
OP	-7303
▁-	-7304
▁산소	-7305
▁새벽	-7306
▁전방	-7307
▁주입	-7308
▁관람객	-7309
▁후보의	-7310
▁세무	-7311
▁수령	-7312
▁승차	-7313
▁의식	-7314
▁털어	-7315
제품을	-7316
▁내연기관	-7317
▁떨어지는	-7318
▁썼	-7319
타임	-7320
▁그릴	-7321
▁로맨	-7322
하다가	-7323
▁능력이	-7324
▁제품에	-7325
▁아카데미	-7326
추가	-7327
▁부총	-7328
▁소수	-7329
면에서	-7330
회사가	-7331
▁모델은	-7332
▁마지막으로	-7333
▁흉	-7334
▁뒤에	-7335
▁성인	-7336
▁신청할	-7337
▁트래픽	-7338
▁민주당의	-7339
▁함께하는	-7340
간담	-7341
판이	-7342
▁진짜	-7343
▁연구가	-7344
▁종류의	-7345
48	-7346
▁묵	-7347
달아	-7348
▁결코	-7349
▁굉장	-7350
▁터보	-7351
진흥원	-7352
▁것이고	-7353
▁이낙연	-7354
▁살펴보면	-7355
▁재판부는	-7356
3,	-7357
신저	-7358
프는	-7359
▁적층	-7360
▁한은	-7361
너지를	-7362
환자가	-7363
▁가능할	-7364
▁말레이	-7365
▁여부에	-7366
▁예방접종	-7367
▁가이드라인	-7368
▁한국타이어	-7369
▁곽	-7370
블록	-7371
쪽에	-7372
▁감각	-7373
▁기록을	-7374
▁사건이	-7375
▁이것은	-7376
▁정해진	-7377
올해	-7378
▁그중	-7379
▁기저	-7380
▁남녀	-7381
▁없기	-7382
센터의	-7383
▁발생을	-7384
▁어떠한	-7385
▁위험을	-7386
▁후보로	-7387
▁시작한다	-7388
31	-7389
▁궤	-7390
▁쿼	-7391
돌봄	-7392
로우	-7393
보니	-7394
▁세정	-7395
▁표창	-7396
▁2∼3	-7397
▁유튜버	-7398
▁JTBC	-7399
▁n	-7400
포구	-7401
▁누군	-7402
▁물러	-7403
▁제재	-7404
▁과정이	-7405
▁기여할	-7406
▁현장을	-7407
▁대변인은	-7408
▁손해배상	-7409
▁특별관계자의	-7410
실히	-7411
▁가계	-7412
▁구직	-7413
▁사각지	-7414
유틸리티	-7415
▁구성하는	-7416
▁칭	-7417
▁칸	-7418
▁틈	-7419
금속	-7420
전은	-7421
정신	-7422
지인	-7423
▁급식	-7424
▁유승	-7425
▁뒷받침	-7426
▁소식이	-7427
▁선언했다	-7428
▁운전자의	-7429
▁몰려	-7430
▁포럼	-7431
▁화합	-7432
▁간호사	-7433
▁구비한	-7434
▁전지를	-7435
▁교통사고	-7436
▁확보하고	-7437
▁온라인으로	-7438
감사	-7439
생의	-7440
▁가중	-7441
▁빠진	-7442
▁전주	-7443
▁편집	-7444
졌지만	-7445
▁경우를	-7446
▁남성이	-7447
▁무대를	-7448
▁서울대	-7449
▁지역은	-7450
▁진행될	-7451
보상	-7452
봐야	-7453
▁모임	-7454
▁임기	-7455
▁확인된	-7456
었습니다	-7457
▁아시아나	-7458
▁체결했다고	-7459
ON	-7460
접촉	-7461
▁대립	-7462
▁모드	-7463
▁보편	-7464
▁신선	-7465
▁컬러	-7466
▁포항	-7467
위원은	-7468
▁거리를	-7469
▁본인이	-7470
▁피해자	-7471
▁구축하고	-7472
▁병원으로	-7473
▁씻	-7474
▁상에	-7475
▁이인	-7476
▁도서관	-7477
AM	-7478
▁랜	-7479
▁멋	-7480
견이	-7481
금과	-7482
막의	-7483
▁개척	-7484
▁나섰	-7485
▁정권	-7486
▁정규	-7487
▁코팅	-7488
▁당분간	-7489
▁대부분이	-7490
ec	-7491
▁구민	-7492
▁시나	-7493
▁자제	-7494
▁파일	-7495
▁거래소	-7496
▁인정할	-7497
▁처리할	-7498
▁프로그램이	-7499
AP	-7500
닷컴	-7501
인천	-7502
자본	-7503
▁비서	-7504
▁엑스	-7505
▁패러	-7506
만대를	-7507
명했다	-7508
▁종사자	-7509
▁보여준다	-7510
▁제조업체	-7511
택시	-7512
화폐	-7513
▁남북	-7514
▁관계가	-7515
▁멕시코	-7516
▁스위치	-7517
▁파업에	-7518
▁확인한	-7519
▁아프리카	-7520
▁지적이다	-7521
▁해결하기	-7522
유통	-7523
▁개막	-7524
▁넘겨	-7525
▁시뮬	-7526
▁타입	-7527
▁한계	-7528
▁이탈리아	-7529
▁밥	-7530
국회	-7531
비로	-7532
첨단	-7533
▁1%	-7534
▁부하	-7535
▁순환	-7536
▁신입	-7537
▁전역	-7538
▁집에	-7539
▁검찰이	-7540
▁비중을	-7541
▁증가할	-7542
▁하오니	-7543
▁섞	-7544
연도	-7545
우주	-7546
▁송파	-7547
▁학술	-7548
▁괴롭힘	-7549
▁발언을	-7550
▁여성의	-7551
▁여야가	-7552
▁혐의를	-7553
▁모터스포츠	-7554
말을	-7555
크가	-7556
품질	-7557
▁49	-7558
▁생길	-7559
▁이정	-7560
▁줄이	-7561
▁책을	-7562
▁독특한	-7563
▁서비스다	-7564
▁플래그십	-7565
님의	-7566
방학	-7567
▁식별	-7568
하라고	-7569
▁기업인	-7570
▁사태를	-7571
▁부문에서	-7572
▁정보통신기술	-7573
▁춤	-7574
전력	-7575
평등	-7576
▁내의	-7577
▁리모	-7578
▁무려	-7579
▁점에	-7580
▁채취	-7581
▁항소	-7582
여명의	-7583
▁가족이	-7584
▁느끼는	-7585
▁심지어	-7586
▁차이를	-7587
▁괜	-7588
격이	-7589
법의	-7590
어난	-7591
▁무슨	-7592
▁제목	-7593
▁주소	-7594
▁첨부	-7595
었으며	-7596
▁중에는	-7597
▁파업을	-7598
▁화면을	-7599
무역	-7600
졌던	-7601
▁스카	-7602
▁집적	-7603
▁창작	-7604
▁국가의	-7605
▁요구를	-7606
▁할머니	-7607
▁화제를	-7608
▁상관없이	-7609
▁적용한다	-7610
세라	-7611
제공	-7612
▁내달	-7613
▁많고	-7614
▁현저	-7615
▁휴업	-7616
▁250	-7617
▁말하는	-7618
▁노동자의	-7619
▁말레이시아	-7620
▁부산광역시	-7621
동기	-7622
위와	-7623
▁강좌	-7624
▁고조	-7625
▁당해	-7626
▁총파	-7627
▁것이며	-7628
▁관광객	-7629
▁열심히	-7630
▁전기를	-7631
▁여론조사	-7632
▁요청했다	-7633
하였습니다	-7634
▁담임선생님	-7635
▁샘	-7636
▁동영	-7637
▁명을	-7638
▁보낸	-7639
▁이웃	-7640
▁접어	-7641
▁즐거	-7642
나마	-7643
링을	-7644
▁두려	-7645
▁맺고	-7646
▁방학	-7647
▁올랐	-7648
▁라인업	-7649
▁협력해	-7650
▁방지하기	-7651
▁유일하게	-7652
▁붕	-7653
집행	-7654
▁매달	-7655
▁연습	-7656
기능을	-7657
▁노력이	-7658
▁렉서스	-7659
▁확인했다	-7660
보기	-7661
연은	-7662
▁물량	-7663
▁앉아	-7664
▁예금	-7665
▁나타났	-7666
▁개발하는	-7667
▁늘어나고	-7668
▁업무협약을	-7669
오염	-7670
위탁	-7671
정비	-7672
혈압	-7673
▁경매	-7674
▁대역	-7675
▁수원	-7676
▁한글	-7677
신청을	-7678
▁늘어나는	-7679
49	-7680
공천	-7681
과장	-7682
▁연방	-7683
▁1980	-7684
▁구성되어	-7685
▁드러냈다	-7686
전시	-7687
▁In	-7688
▁급등	-7689
▁단행	-7690
▁진흥	-7691
▁나경원	-7692
▁잘못된	-7693
▁학교의	-7694
▁휴대용	-7695
▁그러므로	-7696
WS	-7697
ia	-7698
료가	-7699
▁먹고	-7700
▁어르	-7701
▁중복	-7702
▁한마	-7703
도에서	-7704
▁거대한	-7705
▁아반떼	-7706
수준	-7707
▁경과	-7708
▁구미	-7709
▁깜짝	-7710
▁부채	-7711
▁분노	-7712
▁신생	-7713
▁아닐	-7714
버스터	-7715
법으로	-7716
하시는	-7717
▁그들은	-7718
▁스페인	-7719
▁근로자가	-7720
▁언급했다	-7721
▁존재하는	-7722
ET	-7723
▁큐	-7724
내기	-7725
란드	-7726
절을	-7727
▁GT	-7728
▁다섯	-7729
▁승리	-7730
▁탄핵	-7731
▁냉장고	-7732
▁이름이	-7733
▁코스피	-7734
▁방탄소년	-7735
▁브랜드를	-7736
▁웨이퍼의	-7737
점의	-7738
▁CN	-7739
▁신곡	-7740
▁금액을	-7741
▁다르다	-7742
▁대상을	-7743
▁사유로	-7744
▁작업이	-7745
▁접촉한	-7746
▁더불어민주당이	-7747
▁을	-7748
광고	-7749
급을	-7750
코인	-7751
▁무산	-7752
▁음주	-7753
▁획기	-7754
기관이	-7755
▁네이버는	-7756
복합	-7757
있다	-7758
▁경주	-7759
▁연금	-7760
▁출고	-7761
▁크고	-7762
▁사실은	-7763
▁신속한	-7764
▁럭	-7765
소시	-7766
접속	-7767
형태	-7768
▁들이	-7769
▁상정	-7770
▁정무	-7771
▁사람들	-7772
▁판매량	-7773
▁흐름을	-7774
▁수준이다	-7775
▁론	-7776
▁혁	-7777
동물	-7778
편의	-7779
SNS	-7780
▁가해	-7781
▁객관	-7782
▁방식이	-7783
▁속도로	-7784
▁현장에	-7785
▁2030	-7786
▁사용한다	-7787
▁이어가고	-7788
▁학교에서	-7789
면이	-7790
최근	-7791
▁농협	-7792
▁먹는	-7793
▁순위	-7794
당에서	-7795
스티벌	-7796
▁"20	-7797
▁계열사	-7798
▁그렇지	-7799
▁기관의	-7800
▁운동을	-7801
내며	-7802
▁요인	-7803
관계가	-7804
▁관련이	-7805
▁베스트	-7806
▁비중은	-7807
▁허가를	-7808
▁부담으로	-7809
▁임상시험	-7810
▁빅데이터를	-7811
처가	-7812
▁강사	-7813
▁기상	-7814
▁보강	-7815
▁아는	-7816
▁홀로	-7817
▁기준이	-7818
▁아무런	-7819
▁의혹이	-7820
▁있어서다	-7821
군을	-7822
동구	-7823
실의	-7824
출을	-7825
Pop	-7826
▁가벼	-7827
▁약물	-7828
▁지목	-7829
▁집을	-7830
▁파티	-7831
▁혐의	-7832
▁기간에	-7833
▁표면에	-7834
앞으로도	-7835
▁고려하면	-7836
▁홈페이지에	-7837
▁중소벤처기업	-7838
▁떼	-7839
발표	-7840
채권	-7841
▁불참	-7842
▁상향	-7843
▁하였	-7844
컴퓨터	-7845
▁말이다	-7846
▁다운로드	-7847
▁스포츠유틸리티	-7848
39	-7849
실적	-7850
여성	-7851
▁본사	-7852
▁자율주행차	-7853
▁카카오페이	-7854
겁게	-7855
담보	-7856
로지	-7857
망이	-7858
면허	-7859
▁높인	-7860
▁성립	-7861
▁장이	-7862
▁수사를	-7863
▁스포티	-7864
▁않았던	-7865
▁유지하는	-7866
▁EV	-7867
▁컸다	-7868
▁나오지	-7869
▁장기간	-7870
▁지적도	-7871
▁방송되는	-7872
IN	-7873
ad	-7874
국내	-7875
설이	-7876
작을	-7877
주식	-7878
티드	-7879
ent	-7880
▁관악	-7881
▁당의	-7882
▁머리	-7883
▁면접	-7884
▁입찰	-7885
▁조리	-7886
▁종이	-7887
▁철회	-7888
▁연결된	-7889
▁되었습니다	-7890
버터	-7891
▁견인	-7892
▁공관	-7893
▁균형	-7894
▁매도	-7895
▁변신	-7896
▁수동	-7897
▁쉽고	-7898
비디오	-7899
식에서	-7900
자료를	-7901
회로에	-7902
▁굉장히	-7903
▁아이템	-7904
▁제작한	-7905
▁시행규칙	-7906
▁인사청문	-7907
AT	-7908
로로	-7909
본다	-7910
위생	-7911
▁가고	-7912
▁멈추	-7913
하자는	-7914
▁매출을	-7915
▁상하이	-7916
▁이목을	-7917
▁이상인	-7918
연장	-7919
청의	-7920
▁기증	-7921
▁호기	-7922
▁관리가	-7923
▁아무리	-7924
▁기대감이	-7925
금액	-7926
열을	-7927
▁42	-7928
▁공항	-7929
▁오랫	-7930
▁입학	-7931
▁축하	-7932
이므로	-7933
▁사항에	-7934
▁노력하고	-7935
▁친환경차	-7936
경기	-7937
매매	-7938
▁서구	-7939
기생충	-7940
▁구조에	-7941
▁달했다	-7942
▁만든다	-7943
▁위원의	-7944
▁자리에	-7945
▁재활용	-7946
위원장을	-7947
통상자원	-7948
▁발생한다	-7949
▁이뤄졌다	-7950
▁이후에도	-7951
▁활용하여	-7952
오토	-7953
일지	-7954
▁경유	-7955
▁대사	-7956
▁재직	-7957
▁판정	-7958
▁갖는다	-7959
▁서비스의	-7960
CP	-7961
▁쌀	-7962
음에	-7963
▁매니	-7964
▁별로	-7965
▁수영	-7966
▁열을	-7967
▁이곳	-7968
▁일체	-7969
▁정산	-7970
▁기술적	-7971
▁손잡고	-7972
▁임기는	-7973
▁공개됐다	-7974
▁딱	-7975
밀한	-7976
조례	-7977
▁광학	-7978
▁대결	-7979
▁신축	-7980
▁갈등이	-7981
▁메신저	-7982
▁베이징	-7983
▁정책에	-7984
▁공직선거	-7985
엔터테인먼트	-7986
법과	-7987
비에	-7988
선과	-7989
오드	-7990
회장	-7991
▁다채	-7992
▁시공	-7993
▁마련한	-7994
▁사장이	-7995
▁애플은	-7996
▁요청할	-7997
▁전지의	-7998
▁특성이	-7999
▁긴급재난	-8000
▁이해하고	-8001
었기	-8002
▁야외	-8003
▁치러	-8004
▁한시	-8005
만명을	-8006
센터에	-8007
온라인	-8008
▁하나가	-8009
▁하여금	-8010
체험학습	-8011
▁내년부터	-8012
▁데이터의	-8013
▁연결하는	-8014
▁잉	-8015
▁비치	-8016
▁증착	-8017
▁합쳐	-8018
▁경찰에	-8019
▁엔지니	-8020
▁이밖에	-8021
▁앤	-8022
타민	-8023
▁엘리	-8024
▁고등학교	-8025
▁학생들은	-8026
ap	-8027
▁씽	-8028
▁불교	-8029
▁세금	-8030
소시엄	-8031
▁선거구	-8032
▁소중한	-8033
▁요구가	-8034
▁하고자	-8035
▁오랫동안	-8036
47	-8037
발광	-8038
청정	-8039
해왔	-8040
▁김재	-8041
▁대면	-8042
▁밝혔	-8043
▁실정	-8044
▁송수신	-8045
▁이른다	-8046
▁줄이기	-8047
▁특성상	-8048
▁형성하는	-8049
CM	-8050
▁험	-8051
교환	-8052
▁섬유	-8053
▁엄격	-8054
▁좋을	-8055
▁메시지	-8056
▁알리는	-8057
▁인정되는	-8058
료의	-8059
마블	-8060
줘야	-8061
지구	-8062
▁광역	-8063
▁괜찮	-8064
▁밀어	-8065
▁선행	-8066
▁여겨	-8067
▁코너	-8068
▁튜닝	-8069
▁기간제	-8070
▁마치고	-8071
▁성능이	-8072
▁소속사	-8073
▁기자회견	-8074
▁얇	-8075
▁왼	-8076
누리	-8077
렉트	-8078
피해	-8079
관리에	-8080
▁않을까	-8081
▁얻었다	-8082
작업	-8083
터가	-8084
▁식물	-8085
▁인테	-8086
▁코딩	-8087
▁딥러닝	-8088
▁설립한	-8089
▁수시로	-8090
▁의장은	-8091
▁전환을	-8092
자문	-8093
즈가	-8094
▁끈다	-8095
▁전라	-8096
▁중동	-8097
▁그것을	-8098
▁보호를	-8099
라이슬러	-8100
▁방송된다	-8101
▁맨	-8102
▁장점	-8103
센터가	-8104
▁곳으로	-8105
▁모양새	-8106
▁최적화된	-8107
양의	-8108
▁몰입	-8109
▁시달	-8110
▁연임	-8111
▁해주	-8112
카메라	-8113
▁1∼2	-8114
▁LPG	-8115
▁나서는	-8116
▁충격을	-8117
▁현대차가	-8118
AN	-8119
∼6	-8120
값을	-8121
사람	-8122
▁동력	-8123
▁여수	-8124
▁영남	-8125
▁인접	-8126
▁장학	-8127
▁하부	-8128
▁건강과	-8129
▁구매할	-8130
▁이뤄진	-8131
▁크기를	-8132
▁크리에	-8133
▁가정에서	-8134
▁시스템과	-8135
▁적용하는	-8136
계와	-8137
나노	-8138
모듈	-8139
무가	-8140
아는	-8141
크의	-8142
행사	-8143
▁강행	-8144
▁읽어	-8145
▁접합	-8146
▁편입	-8147
프라이	-8148
▁개선된	-8149
▁뿐이다	-8150
▁전력을	-8151
▁최적화	-8152
▁팬들의	-8153
▁단말기에	-8154
▁아니라는	-8155
(5	-8156
금지	-8157
색을	-8158
음파	-8159
티즌	-8160
▁알파	-8161
▁영등	-8162
▁흡연	-8163
구조를	-8164
퍼런스	-8165
활동에	-8166
▁권리를	-8167
▁의미다	-8168
▁협업을	-8169
▁화려한	-8170
▁지식재산	-8171
▁청와대가	-8172
▁효과적인	-8173
▁사람들에게	-8174
▁학생들에게	-8175
주년	-8176
▁동아	-8177
▁식각	-8178
▁전투	-8179
▁두드러	-8180
▁업체는	-8181
▁이하로	-8182
▁지지를	-8183
▁움직이는	-8184
자나	-8185
▁수의	-8186
▁양측	-8187
▁연내	-8188
▁음압	-8189
▁것이라	-8190
▁기지국	-8191
▁세미나	-8192
종이	-8193
▁그냥	-8194
▁레드	-8195
▁풀어	-8196
▁기관이	-8197
▁사무총	-8198
▁서류를	-8199
▁데이터가	-8200
▁산업통상자원	-8201
)·	-8202
구동	-8203
슈퍼	-8204
온다	-8205
▁맞서	-8206
▁패킷	-8207
기정통	-8208
▁고위험	-8209
▁세웠다	-8210
▁역학조사	-8211
46	-8212
un	-8213
▁뭉	-8214
▁잦	-8215
▁펜	-8216
▁대장	-8217
▁법제	-8218
▁구조가	-8219
▁타격을	-8220
▁패턴을	-8221
▁참여하고	-8222
공제	-8223
국장	-8224
장한	-8225
▁강경	-8226
▁변형	-8227
▁택배	-8228
▁합동	-8229
상태를	-8230
▁방지를	-8231
▁상담을	-8232
▁시간과	-8233
▁우려를	-8234
▁전자기	-8235
▁판단을	-8236
▁마련됐다	-8237
▁파악하고	-8238
▁삼성전자와	-8239
▁펄	-8240
실은	-8241
주도	-8242
▁만기	-8243
▁심한	-8244
▁외환	-8245
▁직면	-8246
지원을	-8247
2000	-8248
▁국회를	-8249
▁대표이	-8250
▁상용차	-8251
▁스트레	-8252
▁확대에	-8253
▁기업들은	-8254
▁기자간담	-8255
▁사실이다	-8256
▁주관하는	-8257
▁이루어지는	-8258
놓고	-8259
렌토	-8260
문의	-8261
청에	-8262
▁감성	-8263
▁준공	-8264
퍼센트	-8265
▁꼽히는	-8266
▁단백질	-8267
▁돌아가	-8268
▁때보다	-8269
▁분명히	-8270
▁크기가	-8271
▁미래에셋	-8272
▁실질적인	-8273
▁애니메이션	-8274
▁인쇄회로기판	-8275
네트	-8276
차별	-8277
▁보정	-8278
▁성별	-8279
▁성분	-8280
▁실감	-8281
▁요건	-8282
▁호와	-8283
심에서	-8284
▁조치가	-8285
▁노하우를	-8286
▁받았다고	-8287
▁직원들이	-8288
가상	-8289
인승	-8290
판의	-8291
▁몸을	-8292
▁이메	-8293
▁추억	-8294
▁해지	-8295
되므로	-8296
▁마스터	-8297
▁메이커	-8298
▁의해서	-8299
▁자금이	-8300
▁특징을	-8301
▁마켓	-8302
▁빨라	-8303
▁왜곡	-8304
▁추산	-8305
▁수준이	-8306
▁정책이	-8307
▁차량용	-8308
▁탑재한	-8309
▁강화하는	-8310
▁위원으로	-8311
▁제어하는	-8312
▁바이러스가	-8313
센서	-8314
여야	-8315
▁반납	-8316
▁불어	-8317
▁후반	-8318
▁시작해	-8319
▁원고는	-8320
▁크로스	-8321
▁본부장은	-8322
월말	-8323
터는	-8324
▁목숨	-8325
▁네티즌	-8326
▁프로토콜	-8327
▁홈페이지에서	-8328
발을	-8329
혈관	-8330
▁구멍	-8331
▁대대	-8332
▁만료	-8333
▁스탠	-8334
▁앞선	-8335
병원에	-8336
▁언급한	-8337
▁이끄는	-8338
▁한계를	-8339
회에서는	-8340
▁프로그램으로	-8341
권과	-8342
▁QM	-8343
▁방영	-8344
▁영구	-8345
되지만	-8346
▁감독의	-8347
▁그것은	-8348
▁꼽았다	-8349
▁조사한	-8350
▁포스터	-8351
▁과기정통	-8352
▁처리하는	-8353
SI	-8354
▁훈	-8355
절차	-8356
▁갖게	-8357
▁결론	-8358
▁김정	-8359
▁김현	-8360
▁상실	-8361
▁소멸	-8362
▁연비	-8363
▁CPU	-8364
▁강화할	-8365
▁관리할	-8366
만으로도	-8367
▁갤럭시노트	-8368
구매	-8369
워드	-8370
유럽	-8371
한테	-8372
▁경비	-8373
▁대단	-8374
▁벌금	-8375
▁악성	-8376
▁정수	-8377
▁호에	-8378
인들은	-8379
▁개발과	-8380
▁스타일	-8381
▁전체를	-8382
▁크리스	-8383
▁학교에	-8384
리포니아	-8385
▁늘어났다	-8386
▁3,000	-8387
LO	-8388
영의	-8389
▁반등	-8390
▁첫째	-8391
하였을	-8392
▁안드로	-8393
▁정부에	-8394
고자	-8395
세법	-8396
연한	-8397
의회	-8398
▁들려	-8399
▁생계	-8400
▁이혼	-8401
▁항암	-8402
▁렌터카	-8403
▁마련된	-8404
▁연구에	-8405
클라우드	-8406
▁공정거래	-8407
▁불필요한	-8408
▁아니한다	-8409
▁제품으로	-8410
▁'2020	-8411
바지	-8412
보에	-8413
▁가변	-8414
▁서서	-8415
▁여유	-8416
거리를	-8417
▁800	-8418
▁내년도	-8419
▁대응할	-8420
▁뜻이다	-8421
▁전화를	-8422
▁준비를	-8423
▁차량은	-8424
▁근무하는	-8425
▁때문으로	-8426
▁서비스도	-8427
세요	-8428
▁유예	-8429
과장은	-8430
들이다	-8431
았지만	-8432
▁모른다	-8433
▁성공한	-8434
▁음악을	-8435
▁한국은	-8436
▁현대기아	-8437
▁향상시키는	-8438
▁십	-8439
방의	-8440
▁걸린	-8441
▁다행	-8442
▁도약	-8443
▁세라	-8444
▁임차	-8445
▁크지	-8446
▁트로	-8447
된다면	-8448
▁그쳤다	-8449
▁콘서트	-8450
▁제안했다	-8451
▁5,000	-8452
▁인터뷰에서	-8453
즈의	-8454
켰다	-8455
▁58	-8456
▁마그	-8457
▁무렵	-8458
▁침체	-8459
사업자	-8460
▁나타나고	-8461
▁예상했다	-8462
사태	-8463
▁걸려	-8464
▁넣어	-8465
▁선두	-8466
▁얻는	-8467
▁크루	-8468
▁선거를	-8469
▁앞세워	-8470
▁의사가	-8471
▁있거나	-8472
통화	-8473
▁결함	-8474
▁나아	-8475
▁연주	-8476
▁임직	-8477
▁찾기	-8478
▁탐지	-8479
강현실	-8480
반기에	-8481
소자의	-8482
운동을	-8483
폴리오	-8484
효과를	-8485
▁경제가	-8486
▁공소외	-8487
▁업무에	-8488
▁유치원	-8489
▁이후에	-8490
▁인플루엔	-8491
▁확인하는	-8492
36	-8493
▁간에	-8494
▁담고	-8495
▁제동	-8496
▁특화	-8497
심으로	-8498
▁분야를	-8499
▁이르기	-8500
▁임금을	-8501
▁접촉자	-8502
▁판매에	-8503
▁플랫폼으로	-8504
ag	-8505
미한	-8506
온이	-8507
▁이렇	-8508
커머스	-8509
▁구조의	-8510
▁이것이	-8511
▁컴퓨팅	-8512
▁하나는	-8513
▁했는데	-8514
▁어린이집	-8515
▁제출하여	-8516
▁혁신적인	-8517
크는	-8518
▁고스	-8519
▁권장	-8520
▁극단	-8521
▁세월	-8522
들었다	-8523
업계의	-8524
회사의	-8525
▁노사가	-8526
▁상당의	-8527
▁직무를	-8528
▁카드를	-8529
▁소비자에게	-8530
▁마이크로소프트	-8531
렸고	-8532
만간	-8533
미는	-8534
현장	-8535
문재인	-8536
▁기본적인	-8537
▁보여주고	-8538
▁직접적인	-8539
▁편의성을	-8540
르지	-8541
이게	-8542
제작	-8543
▁부합	-8544
▁신장	-8545
▁높다는	-8546
▁발생해	-8547
▁진정한	-8548
▁품질을	-8549
▁문화예술	-8550
▁아니지만	-8551
HD	-8552
▁쇄	-8553
물류	-8554
이미	-8555
▁콘택	-8556
정부가	-8557
하지는	-8558
▁그것이	-8559
▁모델인	-8560
▁선언한	-8561
▁수요를	-8562
▁조금씩	-8563
▁조사에	-8564
▁햇	-8565
손해	-8566
▁검진	-8567
▁결의	-8568
▁고가	-8569
▁고안	-8570
▁요리	-8571
▁그래픽	-8572
▁무대에	-8573
지원금을	-8574
▁아니라고	-8575
▁이뤄지지	-8576
▁학부모님께서는	-8577
▁튀	-8578
문에	-8579
섬유	-8580
황을	-8581
▁유형	-8582
했다가	-8583
▁와이어	-8584
▁형성하여	-8585
시킴으로써	-8586
PE	-8587
미널	-8588
팩트	-8589
▁6,	-8590
▁걸어	-8591
▁받으	-8592
▁유가	-8593
▁의도	-8594
자로서	-8595
▁것보다	-8596
▁사망한	-8597
에서부터	-8598
▁검찰개혁	-8599
▁환자에게	-8600
▁순차적으로	-8601
▁뼈	-8602
담을	-8603
▁교원	-8604
▁살고	-8605
▁조용	-8606
▁피아	-8607
▁DNA	-8608
▁거래가	-8609
▁노래를	-8610
▁로봇이	-8611
▁없으며	-8612
▁1999	-8613
▁사업으로	-8614
▁지원대상	-8615
블릿	-8616
▁56	-8617
▁공적	-8618
▁느낀	-8619
▁벌써	-8620
▁부의	-8621
▁유무	-8622
▁재고	-8623
▁진주	-8624
도서관	-8625
일자리	-8626
▁경향이	-8627
▁별다른	-8628
▁어려움	-8629
시스템에	-8630
▁규정하고	-8631
▁파악됐다	-8632
뒀다	-8633
박한	-8634
원도	-8635
▁'5	-8636
▁구역	-8637
▁발송	-8638
▁용량	-8639
▁번째로	-8640
▁비율은	-8641
▁원인을	-8642
▁환경이	-8643
▁횟	-8644
로도	-8645
산의	-8646
터리	-8647
▁59	-8648
▁가야	-8649
▁간섭	-8650
▁무더	-8651
▁중순	-8652
▁책정	-8653
하는지	-8654
▁논란을	-8655
▁부산시	-8656
▁양사는	-8657
▁현황을	-8658
들로부터	-8659
▁라인업을	-8660
▁무급휴직	-8661
▁자동차가	-8662
▁캘리포니아	-8663
름을	-8664
합병	-8665
▁고온	-8666
▁발간	-8667
▁차는	-8668
▁첨가	-8669
▁치명	-8670
비용을	-8671
▁곳이다	-8672
▁에어백	-8673
▁이어진	-8674
▁분석된다	-8675
▁컨소시엄	-8676
+1	-8677
▁옹	-8678
▁결성	-8679
▁우울	-8680
▁의석	-8681
▁기념해	-8682
▁다음날	-8683
▁뛰어나	-8684
▁센서를	-8685
▁있다며	-8686
▁부정적인	-8687
DP	-8688
▁릴	-8689
▁당직	-8690
▁데는	-8691
▁스펙	-8692
▁전격	-8693
▁픽업	-8694
하라는	-8695
▁박차를	-8696
▁우려도	-8697
▁전원을	-8698
▁커졌다	-8699
▁맹	-8700
공헌	-8701
내가	-8702
이스	-8703
▁유포	-8704
▁일방	-8705
▁과제는	-8706
▁세라믹	-8707
▁없으면	-8708
▁불과하다	-8709
▁시나리오	-8710
▁제외하고는	-8711
청년	-8712
▁값을	-8713
▁고백	-8714
▁기사	-8715
▁박사	-8716
▁포장	-8717
▁구축해	-8718
▁교육과정	-8719
▁디자인과	-8720
38	-8721
계좌	-8722
증후	-8723
타페	-8724
▁상한	-8725
▁씨가	-8726
▁어깨	-8727
▁취재	-8728
▁조례에	-8729
정지	-8730
통제	-8731
하신	-8732
▁경사	-8733
▁넥슨	-8734
▁전액	-8735
업체인	-8736
▁이해할	-8737
▁일으킨	-8738
▁개정안이	-8739
▁공무원이	-8740
▁준용한다	-8741
국인	-8742
연히	-8743
중이	-8744
▁국세	-8745
▁귀국	-8746
▁모범	-8747
▁싶어	-8748
▁저희	-8749
▁조각	-8750
▁식으로	-8751
▁나타내는	-8752
▁노력하겠다	-8753
가락	-8754
에스	-8755
퇴직	-8756
▁근처	-8757
▁뒤집	-8758
▁맞춘	-8759
▁심판	-8760
▁집회	-8761
▁학급	-8762
행위를	-8763
▁고객은	-8764
▁광고를	-8765
▁사람과	-8766
▁신청한	-8767
▁일어나는	-8768
▁행정안전	-8769
편이	-8770
700	-8771
▁뷰티	-8772
▁진화	-8773
▁코드	-8774
▁효력	-8775
▁된다고	-8776
▁위주로	-8777
▁찾았다	-8778
▁맞이하여	-8779
▁안전하고	-8780
75	-8781
▁관절	-8782
▁상속	-8783
▁전시회	-8784
▁제기한	-8785
▁협상을	-8786
▁회사를	-8787
▁관점에서	-8788
▁띠	-8789
」(	-8790
길이	-8791
버그	-8792
원한	-8793
월한	-8794
지금	-8795
▁것인	-8796
▁꿈을	-8797
시하는	-8798
하기가	-8799
▁사고로	-8800
▁위치에	-8801
▁중학교	-8802
▁쪽으로	-8803
▁협의를	-8804
▁고스란히	-8805
▁끊임없이	-8806
▁인프라를	-8807
▁자동차부품	-8808
인권	-8809
▁길어	-8810
▁날씨	-8811
▁수천	-8812
▁스틸	-8813
▁인체	-8814
▁하위	-8815
재정부	-8816
▁넘어서	-8817
▁밖으로	-8818
▁생태계를	-8819
▁지속가능	-8820
▁우리나라의	-8821
he	-8822
니스	-8823
악의	-8824
인재	-8825
▁급감	-8826
▁선관	-8827
▁알뜰	-8828
▁연극	-8829
▁탄탄	-8830
▁폭이	-8831
▁구성을	-8832
▁뛰어넘	-8833
▁설립된	-8834
▁업체의	-8835
▁예정입니다	-8836
▁제공하는데	-8837
교섭	-8838
군에	-8839
취업	-8840
▁복수	-8841
▁수록	-8842
▁연산	-8843
▁질의	-8844
계획에	-8845
드리며	-8846
▁공동주택	-8847
▁전략이다	-8848
▁금호타이어	-8849
▁닿	-8850
가와	-8851
막이	-8852
협상	-8853
▁웃음	-8854
▁케어	-8855
▁토크	-8856
▁기기를	-8857
▁보고서	-8858
▁인상을	-8859
▁후보와	-8860
▁교육감은	-8861
▁중에서도	-8862
운송	-8863
▁눈빛	-8864
▁중개	-8865
캐피탈	-8866
▁결정할	-8867
▁공천을	-8868
▁반영한	-8869
▁손실이	-8870
▁어르신	-8871
▁지원해	-8872
자동차의	-8873
▁공유하는	-8874
▁엇	-8875
고도	-8876
▁리얼	-8877
▁배열	-8878
▁빌려	-8879
▁체납	-8880
▁해운	-8881
조원을	-8882
▁광범위	-8883
▁그들이	-8884
▁보여줄	-8885
▁본격화	-8886
▁확산에	-8887
▁다하겠다	-8888
▁사전투표	-8889
▁쌍용차는	-8890
▁이번에는	-8891
▁입장에서는	-8892
▁며	-8893
실과	-8894
하에	-8895
▁럭셔	-8896
에서다	-8897
▁구현할	-8898
▁물리적	-8899
▁주민등록	-8900
▁아시아나항공	-8901
ul	-8902
노인	-8903
대리	-8904
절한	-8905
▁론칭	-8906
▁무한	-8907
▁아빠	-8908
▁어플	-8909
▁전인	-8910
▁팩시	-8911
근로자	-8912
사회적	-8913
▁겁니다	-8914
▁도입한	-8915
▁쏘렌토	-8916
▁역사를	-8917
▁서비스와	-8918
▁제기됐다	-8919
오늘	-8920
▁이승	-8921
▁학원	-8922
▁흔히	-8923
▁노사는	-8924
▁맡았다	-8925
▁받았고	-8926
▁계속해서	-8927
▁보조금을	-8928
▁전반적인	-8929
▁방송에서는	-8930
께서	-8931
니어	-8932
션이	-8933
▁공지	-8934
▁김동	-8935
▁농촌	-8936
▁탈당	-8937
▁계획이	-8938
▁급격한	-8939
▁유동성	-8940
▁이인영	-8941
▁재미를	-8942
▁팬들이	-8943
▁후에는	-8944
▁고용유지	-8945
▁주장하는	-8946
우기	-8947
있게	-8948
▁많지	-8949
▁아나	-8950
▁장악	-8951
▁휘발	-8952
▁희생	-8953
능력을	-8954
방안을	-8955
▁감정을	-8956
▁상태에	-8957
▁진단을	-8958
▁했다는	-8959
▁행동을	-8960
▁대응하기	-8961
이노베이션	-8962
레일	-8963
행이	-8964
▁85	-8965
▁문서	-8966
▁오류	-8967
AIST	-8968
▁교육에	-8969
▁바람직	-8970
▁입장이	-8971
▁잡았다	-8972
▁확보했다	-8973
▁뚫	-8974
고의	-8975
대구	-8976
학회	-8977
▁때에	-8978
▁성향	-8979
▁출판	-8980
지도록	-8981
▁개발이	-8982
▁이어가	-8983
▁즐기는	-8984
▁초고속	-8985
of	-8986
소통	-8987
▁멀리	-8988
▁작곡	-8989
▁당국은	-8990
▁물질을	-8991
▁변호사	-8992
▁비타민	-8993
▁조만간	-8994
▁결정한다	-8995
▁다채로운	-8996
▁발명에서는	-8997
ab	-8998
준호	-8999
희롱	-9000
▁내내	-9001
▁불매	-9002
나라는	-9003
대회를	-9004
중이다	-9005
▁본인의	-9006
▁사운드	-9007
▁떨어졌다	-9008
▁사랑하는	-9009
▁2019'	-9010
▁안드로이드	-9011
▁포트폴리오	-9012
34	-9013
▁광진	-9014
▁담배	-9015
▁드는	-9016
▁성적	-9017
▁식사	-9018
▁의장	-9019
▁한때	-9020
▁간사는	-9021
▁선택을	-9022
▁1997	-9023
▁공유하고	-9024
▁나타냈다	-9025
▁다양하게	-9026
▁이르기까지	-9027
ce	-9028
▁래	-9029
고는	-9030
ong	-9031
▁소아	-9032
▁신중	-9033
협회는	-9034
▁700	-9035
▁여러분	-9036
▁유승민	-9037
▁정도를	-9038
닉스	-9039
인사	-9040
하니	-9041
▁64	-9042
▁99	-9043
▁이례	-9044
▁타임	-9045
▁검찰에	-9046
▁나타날	-9047
▁넷마블	-9048
▁1998	-9049
▁공장에서	-9050
▁수행한다	-9051
▁취약계층을	-9052
감시	-9053
검진	-9054
곳의	-9055
됐을	-9056
▁DB	-9057
▁마침	-9058
▁밀려	-9059
셉트카	-9060
▁가격에	-9061
▁검사가	-9062
▁근거로	-9063
▁방안도	-9064
▁신속히	-9065
▁트레이	-9066
▁폐기물	-9067
▁회사에	-9068
놀이	-9069
운이	-9070
▁논리	-9071
▁방어	-9072
▁산학	-9073
▁씽큐	-9074
▁정작	-9075
▁할당	-9076
▁당연히	-9077
▁동작을	-9078
▁실험을	-9079
▁자리잡	-9080
▁일상생활	-9081
▁지나치게	-9082
▁지역으로	-9083
▁이산화탄소	-9084
러블	-9085
실장	-9086
제약	-9087
▁쿠팡	-9088
소비자	-9089
임에도	-9090
▁거리가	-9091
▁로봇을	-9092
▁영화가	-9093
▁교통안전	-9094
▁시민단체	-9095
▁원인으로	-9096
▁굿	-9097
분할	-9098
설계	-9099
소형	-9100
수소	-9101
주와	-9102
층과	-9103
▁고수	-9104
▁능동	-9105
▁맞물	-9106
▁중지	-9107
물질을	-9108
시키지	-9109
▁대학교	-9110
▁매출액	-9111
연구원은	-9112
▁가능하고	-9113
▁폰	-9114
모가	-9115
석에	-9116
양성	-9117
학의	-9118
▁41	-9119
▁검체	-9120
▁싱글	-9121
▁약간	-9122
▁일관	-9123
▁입체	-9124
▁폭넓	-9125
▁폭력	-9126
앞으로	-9127
▁개발된	-9128
▁반영해	-9129
▁법안을	-9130
▁비율을	-9131
▁열린다	-9132
▁유리한	-9133
▁장관의	-9134
과정에서	-9135
▁국민의당	-9136
▁포함됐다	-9137
▁최고경영자	-9138
완전	-9139
임러	-9140
투스	-9141
▁물이	-9142
▁하던	-9143
▁확립	-9144
▁교육부	-9145
▁요구에	-9146
▁정도다	-9147
▁사용자는	-9148
▁자동차는	-9149
▁갱	-9150
▁'4	-9151
▁가짜	-9152
▁붕괴	-9153
▁숙박	-9154
▁정서	-9155
▁조심	-9156
▁포괄	-9157
▁분들이	-9158
▁사회의	-9159
▁시대의	-9160
▁장치가	-9161
▁파악할	-9162
협동조합	-9163
▁고객들이	-9164
▁확대하는	-9165
▁기획재정부	-9166
CA	-9167
FA	-9168
▁숲	-9169
파를	-9170
ity	-9171
▁공매	-9172
▁방치	-9173
되는데	-9174
해준다	-9175
▁AMG	-9176
▁동의를	-9177
▁블로그	-9178
▁의무를	-9179
▁초음파	-9180
▁마찬가지	-9181
▁주식회사	-9182
▁프로그램이다	-9183
ut	-9184
되던	-9185
의사	-9186
▁이통	-9187
▁중반	-9188
▁트림	-9189
▁과제를	-9190
▁대상에	-9191
▁목적을	-9192
▁비공개	-9193
▁시행하고	-9194
끼리	-9195
미디	-9196
방에	-9197
법률	-9198
양이	-9199
어요	-9200
영리	-9201
▁나의	-9202
▁때가	-9203
▁미중	-9204
▁심상	-9205
▁자택	-9206
▁축제	-9207
▁환율	-9208
마케팅	-9209
▁막대한	-9210
▁브라운	-9211
▁슬라이	-9212
▁연구소	-9213
▁즐거운	-9214
▁판매한	-9215
▁휠베이	-9216
us	-9217
수술	-9218
▁김상	-9219
▁신흥	-9220
▁장려	-9221
▁공간이	-9222
▁높아질	-9223
▁신세계	-9224
▁아직도	-9225
▁이르면	-9226
▁좋겠다	-9227
▁특성에	-9228
▁요구하고	-9229
▁합리적인	-9230
▁했습니다	-9231
▁자유한국당이	-9232
▁게이	-9233
▁나은	-9234
▁부르	-9235
▁정전	-9236
▁주사	-9237
▁측의	-9238
▁통증	-9239
▁휴가	-9240
▁금융권	-9241
▁안정성을	-9242
52	-9243
배우	-9244
엔진	-9245
▁몽골	-9246
▁야간	-9247
▁경로를	-9248
▁등록된	-9249
▁사무를	-9250
▁오피스	-9251
▁불가능한	-9252
▁있었는데	-9253
▁자동차에	-9254
▁필요성이	-9255
▁퀄	-9256
곳이	-9257
교사	-9258
원인	-9259
▁납입	-9260
▁말한	-9261
▁복원	-9262
▁분사	-9263
▁첫날	-9264
▁평화	-9265
베스트	-9266
▁결과다	-9267
▁구조로	-9268
▁그러면	-9269
▁늘면서	-9270
▁미치지	-9271
▁주장을	-9272
▁지급을	-9273
▁기본적으로	-9274
▁꺾	-9275
등에	-9276
메시	-9277
조가	-9278
▁경증	-9279
▁규격	-9280
▁도중	-9281
▁일찍	-9282
▁주한	-9283
▁25%	-9284
▁다임러	-9285
▁선택한	-9286
▁싼타페	-9287
▁이어갈	-9288
▁지금의	-9289
▁편의를	-9290
니케이션	-9291
▁아이디어를	-9292
포럼	-9293
CEO	-9294
▁물어	-9295
▁보일	-9296
▁적게	-9297
▁집권	-9298
업계는	-9299
전문가	-9300
▁고려한	-9301
▁안전성	-9302
▁요구할	-9303
▁주민의	-9304
▁자아냈다	-9305
▁프로세스	-9306
32	-9307
대변	-9308
저축	-9309
▁고장	-9310
국으로	-9311
스트를	-9312
었다는	-9313
▁강화해	-9314
▁안타까	-9315
▁중장기	-9316
▁부회장은	-9317
▁선호하는	-9318
▁보건복지부	-9319
▁담임선생님께	-9320
▁팝	-9321
프린	-9322
▁새해	-9323
▁절약	-9324
▁출하	-9325
기관과	-9326
▁높아진	-9327
▁디스크	-9328
▁산업이	-9329
▁않으며	-9330
▁완벽한	-9331
▁펼치고	-9332
▁피고의	-9333
▁교섭단체	-9334
▁머신러닝	-9335
▁제품이다	-9336
▁노동자들이	-9337
▁현대자동차가	-9338
TA	-9339
▁IS	-9340
▁가서	-9341
▁강도	-9342
▁시트	-9343
▁이노	-9344
▁중진	-9345
▁채워	-9346
▁노원구	-9347
해주시기	-9348
▁마련하고	-9349
끄러	-9350
캠프	-9351
▁돕기	-9352
▁함은	-9353
▁회피	-9354
▁자녀가	-9355
▁제네시	-9356
▁주행을	-9357
▁회사채	-9358
▁2025	-9359
▁공개된다	-9360
▁이용하면	-9361
농업	-9362
두에	-9363
링크	-9364
▁TF	-9365
▁갑작	-9366
▁개소	-9367
▁몇몇	-9368
▁묻는	-9369
▁원료	-9370
▁주유	-9371
해진다	-9372
▁때부터	-9373
▁여당이	-9374
▁장점을	-9375
▁한다면	-9376
▁위원장을	-9377
▁위촉한다	-9378
▁해외에서	-9379
▁형성되는	-9380
▁웰	-9381
개인	-9382
▁고체	-9383
▁단단	-9384
▁아웃	-9385
▁훌륭	-9386
업체의	-9387
자이너	-9388
지역의	-9389
▁자체를	-9390
▁공기청정	-9391
▁무엇인지	-9392
▁적용된다	-9393
4,	-9394
▁고무	-9395
▁밀집	-9396
▁시에	-9397
▁갈등을	-9398
▁아니고	-9399
▁위해선	-9400
▁유전체	-9401
▁정당한	-9402
▁종로구	-9403
▁한국이	-9404
▁대통령과	-9405
▁통보하여야	-9406
파가	-9407
▁막아	-9408
▁모인	-9409
▁수혜	-9410
▁신작	-9411
▁실물	-9412
▁조속	-9413
하시고	-9414
▁LCD	-9415
▁강조한	-9416
▁세계적	-9417
▁위에서	-9418
▁의장이	-9419
▁일종의	-9420
▁태블릿	-9421
▁합의를	-9422
▁인테리어	-9423
▁점유율을	-9424
▁사용자에게	-9425
ot	-9426
▁줌	-9427
스톤	-9428
▁경력	-9429
▁들을	-9430
▁바꿀	-9431
▁보전	-9432
▁보지	-9433
▁수련	-9434
▁안동	-9435
▁입점	-9436
▁전장	-9437
▁지낸	-9438
근로제	-9439
임금을	-9440
▁결정한	-9441
▁시대가	-9442
▁영상이	-9443
▁치료에	-9444
▁1970	-9445
▁방송에서	-9446
▁의원들은	-9447
▁전통적인	-9448
▁알고리즘을	-9449
감에	-9450
▁급락	-9451
▁금융위	-9452
▁느낌을	-9453
▁주변에	-9454
▁철저한	-9455
▁사람들을	-9456
▁안전관리	-9457
",	-9458
례를	-9459
마자	-9460
매김	-9461
연에	-9462
중국	-9463
키는	-9464
▁득표	-9465
▁몰아	-9466
▁보육	-9467
▁이란	-9468
이면서	-9469
카드는	-9470
▁당연직	-9471
▁모습은	-9472
▁방안이	-9473
▁스위칭	-9474
▁치료가	-9475
▁하는지	-9476
▁결정하는	-9477
▁비교하면	-9478
▁주목받고	-9479
▁뭔	-9480
▁셰	-9481
데다	-9482
시한	-9483
▁대의	-9484
▁도포	-9485
▁정렬	-9486
리에서	-9487
업체가	-9488
▁강렬한	-9489
▁공급이	-9490
▁스페셜	-9491
▁애플이	-9492
▁이내의	-9493
▁확인해	-9494
▁사회공헌	-9495
▁소요되는	-9496
▁자리매김	-9497
▁확진자와	-9498
AS	-9499
ir	-9500
레니	-9501
지부	-9502
▁57	-9503
▁인생	-9504
▁재능	-9505
▁적재	-9506
어린이	-9507
하셔서	-9508
▁못하게	-9509
▁부정적	-9510
▁신청이	-9511
▁제어할	-9512
▁특허를	-9513
됨으로써	-9514
▁받아들여	-9515
▁행사에는	-9516
▁핑	-9517
다란	-9518
음악	-9519
▁경량	-9520
▁재현	-9521
▁환불	-9522
력발전	-9523
중학교	-9524
▁올라가	-9525
▁인식이	-9526
▁일주일	-9527
▁전해질	-9528
▁아이들의	-9529
▁추구하는	-9530
▁고지	-9531
▁용역	-9532
▁정례	-9533
▁청취	-9534
부동산	-9535
환경을	-9536
▁개인이	-9537
▁산업을	-9538
▁직원을	-9539
▁탑재해	-9540
▁신한금융	-9541
▁불확실성이	-9542
투쟁	-9543
▁견고	-9544
▁무릎	-9545
▁서민	-9546
▁쌓아	-9547
▁아끼	-9548
▁전신	-9549
의료원	-9550
▁360	-9551
▁받으며	-9552
▁확보에	-9553
-1	-9554
뉴스	-9555
도어	-9556
쾌한	-9557
▁51	-9558
▁안산	-9559
▁피로	-9560
만명이	-9561
▁늘리는	-9562
▁선거에	-9563
▁역할이	-9564
▁이어폰	-9565
▁특별히	-9566
▁선거운동	-9567
▁있었다고	-9568
▁페스티벌	-9569
▁때문입니다	-9570
▁빙	-9571
배가	-9572
스펜	-9573
위치	-9574
조절	-9575
▁건너	-9576
▁곤란	-9577
▁세운	-9578
▁소식	-9579
▁시흥	-9580
▁애초	-9581
▁하우	-9582
브로드	-9583
▁공장이	-9584
▁내부의	-9585
▁드라이브	-9586
▁부사장은	-9587
▁위해서다	-9588
리브	-9589
색이	-9590
짜리	-9591
oDB	-9592
▁맞지	-9593
▁캠프	-9594
▁화성	-9595
연합회	-9596
▁성희롱	-9597
▁업체인	-9598
▁편이다	-9599
렸던	-9600
만은	-9601
응답	-9602
▁매체	-9603
▁원의	-9604
▁추락	-9605
▁190	-9606
▁판결을	-9607
▁드라이버	-9608
CG	-9609
우러	-9610
퍼센	-9611
회관	-9612
▁수당	-9613
▁시그	-9614
▁이성	-9615
▁체감	-9616
날로그	-9617
명에서	-9618
병원을	-9619
선에서	-9620
클래스	-9621
▁도입해	-9622
▁법안이	-9623
▁불편을	-9624
▁차질이	-9625
▁대응하는	-9626
▁스토리지	-9627
▁후보자가	-9628
▁댁	-9629
드라	-9630
오롱	-9631
RPG	-9632
▁가산	-9633
▁노광	-9634
▁몸에	-9635
▁원금	-9636
▁잠복	-9637
금리를	-9638
여부를	-9639
▁모델의	-9640
▁계획이라고	-9641
▁몫	-9642
그러	-9643
늦게	-9644
림이	-9645
준이	-9646
표가	-9647
▁동급	-9648
▁만날	-9649
▁양의	-9650
▁적법	-9651
▁중독	-9652
▁처우	-9653
라이트	-9654
목으로	-9655
야말로	-9656
▁개선할	-9657
▁신차를	-9658
▁후에도	-9659
들에게는	-9660
▁수상했다	-9661
QL	-9662
면적	-9663
화문	-9664
▁관세	-9665
▁놀이	-9666
▁서산	-9667
▁앞당	-9668
▁일괄	-9669
스타트	-9670
▁고유의	-9671
▁구축할	-9672
▁하도록	-9673
▁분석하고	-9674
▁자동차산업	-9675
TM	-9676
▁뽐	-9677
분쯤	-9678
신경	-9679
업종	-9680
연수	-9681
치며	-9682
학급	-9683
▁무죄	-9684
▁결과로	-9685
▁그러한	-9686
▁마련할	-9687
▁설치할	-9688
▁소리를	-9689
▁배경으로	-9690
▁선보이고	-9691
▁추가적인	-9692
▁텔레그램	-9693
▁중소기업의	-9694
점유	-9695
풍을	-9696
▁나눔	-9697
▁외면	-9698
▁자칫	-9699
감염병	-9700
까지도	-9701
만원에	-9702
▁가능성	-9703
▁결정에	-9704
▁날부터	-9705
▁선진국	-9706
▁위원이	-9707
▁제기된다	-9708
▁현장체험학습	-9709
▁콩	-9710
▁텍	-9711
▁날짜	-9712
▁유관	-9713
▁의류	-9714
▁증진	-9715
▁차로	-9716
▁환매	-9717
▁김종인	-9718
▁보여준	-9719
▁부모님	-9720
▁엔진과	-9721
▁올리는	-9722
시스템의	-9723
▁생산성을	-9724
▁전기차를	-9725
▁전달하는	-9726
▁중요성을	-9727
▁현대중공업	-9728
▁스포츠유틸리티차량	-9729
석과	-9730
아동	-9731
일본	-9732
▁박정	-9733
▁실효	-9734
▁위상	-9735
▁의회	-9736
▁조현	-9737
기간은	-9738
까지만	-9739
폐기물	-9740
▁가맹점	-9741
▁빠르고	-9742
▁위촉직	-9743
▁정당이	-9744
▁판단이	-9745
자로부터	-9746
▁공개한다	-9747
▁자동변속	-9748
▁하이브리드카	-9749
5,	-9750
6,	-9751
▁덩	-9752
년과	-9753
등이	-9754
활용	-9755
▁법칙	-9756
▁세련	-9757
▁숨진	-9758
▁액세	-9759
▁유재	-9760
▁장벽	-9761
▁차의	-9762
▁차체	-9763
▁코란	-9764
조치를	-9765
▁사건의	-9766
DM	-9767
언스	-9768
인도	-9769
증명	-9770
▁내리	-9771
▁방열	-9772
▁비록	-9773
▁손에	-9774
▁또다시	-9775
▁보내는	-9776
▁손상을	-9777
▁어우러	-9778
▁높아졌다	-9779
▁설치하고	-9780
▁안전성을	-9781
▁의원들의	-9782
▁전달했다	-9783
33	-9784
PU	-9785
▁붉	-9786
공원	-9787
▁믿고	-9788
▁세입	-9789
▁후면	-9790
효율을	-9791
▁개발할	-9792
▁고혈압	-9793
▁위탁할	-9794
▁일부가	-9795
▁차종을	-9796
▁투표를	-9797
▁예정이며	-9798
▁자신들의	-9799
▁실시하고자	-9800
급식	-9801
르트	-9802
포트	-9803
▁가깝	-9804
▁동네	-9805
▁발주	-9806
기관을	-9807
▁가진다	-9808
▁감성을	-9809
▁계획에	-9810
▁구로구	-9811
▁다이어	-9812
▁못했던	-9813
▁사이드	-9814
▁중이며	-9815
▁지위를	-9816
Hz	-9817
람회	-9818
어버	-9819
정상	-9820
측에	-9821
▁대목	-9822
▁서브	-9823
▁수주	-9824
▁실장	-9825
▁레이싱	-9826
▁바람이	-9827
▁압수수	-9828
▁온도를	-9829
▁업무협약	-9830
▁움직임이	-9831
강도	-9832
달라	-9833
철도	-9834
해고	-9835
▁구제	-9836
▁나도	-9837
▁미뤄	-9838
▁타다	-9839
전으로	-9840
화되는	-9841
▁나가는	-9842
▁목표다	-9843
▁양호한	-9844
▁요소를	-9845
▁조직을	-9846
▁지난주	-9847
▁투자한	-9848
▁확보해	-9849
▁가상현실	-9850
▁일으키는	-9851
▁확진자의	-9852
▁국내에서는	-9853
▁자체적으로	-9854
주얼	-9855
▁고소	-9856
▁교회	-9857
▁상부	-9858
▁속속	-9859
▁장을	-9860
▁고려할	-9861
▁높인다	-9862
▁들어오	-9863
▁마쳤다	-9864
▁시작할	-9865
▁의정부	-9866
▁수수료를	-9867
▁필요성을	-9868
▁힐	-9869
독교	-9870
수급	-9871
유치	-9872
▁구강	-9873
▁도쿄	-9874
▁돈이	-9875
▁동양	-9876
▁폭행	-9877
▁환송	-9878
정책을	-9879
▁고분자	-9880
▁내놓을	-9881
▁들어갈	-9882
▁불안정	-9883
▁산업에	-9884
▁아버지	-9885
▁안방극	-9886
▁확실히	-9887
▁성장세를	-9888
▁시중은행	-9889
설비	-9890
요금	-9891
▁공제	-9892
았다는	-9893
▁설치한	-9894
▁실정이다	-9895
▁출연하는	-9896
▁투자하는	-9897
▁지난해부터	-9898
▁프로그램의	-9899
▁'1	-9900
▁곳을	-9901
▁군사	-9902
▁김민	-9903
▁독려	-9904
▁멘토	-9905
▁여객	-9906
▁감사의	-9907
▁규제가	-9908
▁기능은	-9909
▁메르스	-9910
▁모두를	-9911
▁사항이	-9912
▁알렸다	-9913
▁찾아가	-9914
▁향상된	-9915
▁1995	-9916
▁무역분쟁	-9917
▁민주당과	-9918
▁시작됐다	-9919
뉴얼	-9920
마일	-9921
세균	-9922
엑스	-9923
월드	-9924
팀을	-9925
▁김천	-9926
▁미친	-9927
▁부딪	-9928
▁안착	-9929
▁119	-9930
▁15%	-9931
▁기판을	-9932
▁부가가	-9933
▁성범죄	-9934
▁체결한	-9935
▁피고는	-9936
▁활발한	-9937
▁간편결제	-9938
▁개정안을	-9939
▁랜드로버	-9940
▁움직임을	-9941
량에	-9942
수산	-9943
일으	-9944
타워	-9945
▁납세	-9946
▁정면	-9947
▁천안	-9948
공직자	-9949
시간에	-9950
▁거래를	-9951
▁결합한	-9952
▁목숨을	-9953
▁사정이	-9954
▁얼굴을	-9955
▁크기의	-9956
▁통신사	-9957
▁확대될	-9958
중소기업	-9959
지원센터	-9960
▁마케팅을	-9961
▁민주주의	-9962
▁원활하게	-9963
▁제기했다	-9964
▁제조방법을	-9965
▁필리버스터	-9966
마가	-9967
선대	-9968
소리	-9969
실한	-9970
조달	-9971
장치가	-9972
▁당뇨병	-9973
▁분석도	-9974
▁전시장	-9975
▁정보는	-9976
▁정보화	-9977
▁4000	-9978
▁그러하지	-9979
▁사용되고	-9980
▁엿	-9981
놓은	-9982
담배	-9983
별지	-9984
차종	-9985
▁말할	-9986
▁불이	-9987
▁실습	-9988
▁웹툰	-9989
▁정교	-9990
▁캐시	-9991
상거래	-9992
▁꾸준한	-9993
▁더욱이	-9994
▁생산성	-9995
▁피고가	-9996
▁이뤄지는	-9997
▁판매량은	-9998
▁크리에이터	-9999
▁감사드립니다	-10000
▁랩	-10001
방안	-10002
자다	-10003
▁교실	-10004
▁때의	-10005
▁목록	-10006
▁부부	-10007
▁에피	-10008
▁우버	-10009
▁유선	-10010
▁증시	-10011
▁할부	-10012
카카오	-10013
6000	-10014
▁둘러싸	-10015
▁장착된	-10016
▁제휴를	-10017
▁조성을	-10018
▁주차장	-10019
▁예고했다	-10020
▁이루어질	-10021
▁진행한다고	-10022
▁엉	-10023
대역	-10024
웨덴	-10025
▁66	-10026
▁누설	-10027
▁아세	-10028
▁접지	-10029
▁가족의	-10030
▁아이콘	-10031
▁연계해	-10032
▁의지가	-10033
▁이외에	-10034
▁사용된다	-10035
▁선거에서	-10036
▁활발하게	-10037
건은	-10038
짐을	-10039
퇴근	-10040
호는	-10041
▁거세	-10042
▁김수	-10043
▁마찰	-10044
▁입소	-10045
▁티저	-10046
회로를	-10047
▁국가가	-10048
▁규정한	-10049
▁기대할	-10050
▁방식은	-10051
▁방침을	-10052
▁상황은	-10053
▁엔진은	-10054
▁인정한	-10055
▁제주도	-10056
▁제품과	-10057
▁코오롱	-10058
▁검사에서	-10059
▁페이스북에	-10060
▁낯	-10061
에이	-10062
편을	-10063
▁간격	-10064
▁감상	-10065
▁김기	-10066
▁도움	-10067
▁명품	-10068
▁삭감	-10069
▁상의	-10070
▁승진	-10071
▁오해	-10072
▁유로	-10073
▁증여	-10074
▁권한을	-10075
▁세계의	-10076
▁시너지	-10077
▁경쟁력이	-10078
▁불러일으	-10079
▁올해부터	-10080
▁보건당국은	-10081
우의	-10082
중계	-10083
훈이	-10084
▁고집	-10085
▁보좌	-10086
▁분과	-10087
▁상표	-10088
▁없던	-10089
▁이민	-10090
▁주된	-10091
▁행태	-10092
세라티	-10093
▁대용량	-10094
▁등장한	-10095
▁보험사	-10096
▁설명할	-10097
▁구성된다	-10098
▁제조방법	-10099
▁냈	-10100
▁얹	-10101
았을	-10102
장관	-10103
지침	-10104
패턴	-10105
하를	-10106
▁가게	-10107
▁중견	-10108
▁경찰이	-10109
▁조절할	-10110
▁중국이	-10111
▁완벽하게	-10112
▁입장에서	-10113
▁해당한다	-10114
▁노동자들의	-10115
전송	-10116
총괄	-10117
치기	-10118
퍼스	-10119
▁순천	-10120
▁승용	-10121
▁중의	-10122
원들의	-10123
▁공급을	-10124
▁공연이	-10125
▁금리를	-10126
▁명확히	-10127
▁육성을	-10128
▁장면이	-10129
▁중국은	-10130
▁동일하게	-10131
▁실업급여	-10132
▁아날로그	-10133
▁위원회에	-10134
od	-10135
▁톱	-10136
리츠	-10137
속에	-10138
챌린	-10139
킬로	-10140
▁구는	-10141
▁말라	-10142
▁엇갈	-10143
▁전무	-10144
▁중점	-10145
▁청도	-10146
거리가	-10147
되었을	-10148
▁시기를	-10149
▁엔진이	-10150
▁이루는	-10151
▁인간이	-10152
▁추진을	-10153
▁회의에	-10154
▁나타난다	-10155
▁문제점이	-10156
▁선보이며	-10157
▁않는다고	-10158
▁이사장은	-10159
▁한국당의	-10160
▁투자자들이	-10161
▁톤	-10162
기통	-10163
밀히	-10164
비아	-10165
유아	-10166
ver	-10167
▁7,	-10168
▁김경	-10169
▁양해	-10170
▁예전	-10171
▁휩싸	-10172
▁개선에	-10173
▁내놓고	-10174
▁노무현	-10175
▁분야는	-10176
▁세계를	-10177
▁않고도	-10178
▁일어난	-10179
▁책임이	-10180
▁편리한	-10181
▁디바이스	-10182
▁텔레비젼	-10183
▁f	-10184
▁핫	-10185
별한	-10186
소방	-10187
▁'3	-10188
▁무리	-10189
▁액션	-10190
▁유족	-10191
▁이룬	-10192
▁편향	-10193
였다는	-10194
장치는	-10195
▁130	-10196
▁신뢰를	-10197
▁양질의	-10198
▁자세히	-10199
▁전기적	-10200
▁화제가	-10201
▁부위원장은	-10202
▁전반적으로	-10203
라스	-10204
망에	-10205
▁든다	-10206
▁법사	-10207
▁쓰레	-10208
▁일대	-10209
트로엥	-10210
▁걸리는	-10211
▁매니저	-10212
▁바꾸는	-10213
▁상품은	-10214
▁소재를	-10215
▁스토리	-10216
▁않았고	-10217
▁행위가	-10218
▁생각했다	-10219
▁웹사이트	-10220
▁일본에서	-10221
▁지원사업	-10222
▁냄	-10223
서다	-10224
세한	-10225
영은	-10226
▁걸릴	-10227
▁검은	-10228
▁고압	-10229
▁박원	-10230
▁생체	-10231
▁알레	-10232
▁열악	-10233
▁커플	-10234
▁럭셔리	-10235
▁비판을	-10236
▁사례는	-10237
▁자료에	-10238
▁코미디	-10239
▁시민들이	-10240
▁조례에서	-10241
▁활동하고	-10242
▁꾀	-10243
▁둥	-10244
▁짚	-10245
▁컷	-10246
촉진	-10247
층은	-10248
▁알림	-10249
▁학년	-10250
당국의	-10251
어지고	-10252
호서식	-10253
▁기능도	-10254
▁머리를	-10255
▁물건을	-10256
▁넘어섰다	-10257
▁사용하면	-10258
▁생각하고	-10259
▁우리은행	-10260
▁짙	-10261
망의	-10262
수지	-10263
이동	-10264
활성	-10265
▁바뀐	-10266
▁바와	-10267
▁서면	-10268
▁어제	-10269
▁이은	-10270
▁치솟	-10271
기세포	-10272
자들과	-10273
▁비영리	-10274
▁연기를	-10275
▁장시간	-10276
▁클러스	-10277
▁형성할	-10278
▁호평을	-10279
▁주장이다	-10280
▁합의했다	-10281
▁식품의약품	-10282
▁예정이라고	-10283
방식	-10284
웠던	-10285
표시	-10286
▁광명	-10287
▁되돌	-10288
▁소녀	-10289
▁스쿨	-10290
▁전월	-10291
▁출품	-10292
▁업체에	-10293
인공지능	-10294
▁근무하고	-10295
▁부득이한	-10296
▁시행하는	-10297
▁자랑하는	-10298
▁프로모션	-10299
▁빔	-10300
부지	-10301
비례	-10302
비전	-10303
성한	-10304
자율	-10305
SDI	-10306
▁각자	-10307
▁끝내	-10308
▁봐야	-10309
▁카이	-10310
▁포인	-10311
▁건전한	-10312
▁늘리고	-10313
▁앞장서	-10314
▁탑재된	-10315
▁회로를	-10316
▁갔	-10317
고등	-10318
과도	-10319
마를	-10320
퍼니	-10321
▁미쓰	-10322
▁바퀴	-10323
▁반전	-10324
▁비만	-10325
▁식당	-10326
▁커진	-10327
▁티켓	-10328
정규직	-10329
▁고주파	-10330
▁다문화	-10331
▁자원을	-10332
▁지원금	-10333
▁대중교통	-10334
▁멀티미디어	-10335
로에	-10336
▁김진	-10337
▁문턱	-10338
▁발진	-10339
▁비싼	-10340
▁자립	-10341
▁가득한	-10342
▁달러를	-10343
▁더했다	-10344
▁모은다	-10345
▁알뜰폰	-10346
▁요인이	-10347
▁정상화	-10348
하였으나	-10349
▁방지하고	-10350
▁보험료를	-10351
반을	-10352
휴가	-10353
▁선점	-10354
▁인피	-10355
▁코어	-10356
▁클릭	-10357
▁파격	-10358
전지의	-10359
▁인건비	-10360
▁정보와	-10361
▁크다는	-10362
▁호응을	-10363
▁탑재했다	-10364
▁현대모비스는	-10365
ur	-10366
관한	-10367
위인	-10368
중형	-10369
▁GV	-10370
▁누릴	-10371
▁수목	-10372
▁엔씨	-10373
▁구청장	-10374
▁불이익	-10375
▁시점에	-10376
▁여성은	-10377
▁영화의	-10378
▁이마트	-10379
▁이외의	-10380
▁일어날	-10381
▁제도다	-10382
▁제조사	-10383
▁지식을	-10384
▁지원과	-10385
▁추세다	-10386
▁1960	-10387
▁가능성에	-10388
비트	-10389
산에	-10390
실험	-10391
익을	-10392
자동	-10393
해져	-10394
▁공을	-10395
▁김대	-10396
▁꼼꼼	-10397
▁어른	-10398
▁잡은	-10399
▁지점	-10400
▁찾고	-10401
▁화소	-10402
문이다	-10403
웨이는	-10404
▁공간에	-10405
▁미래의	-10406
▁세계에	-10407
▁쏠리고	-10408
▁액티브	-10409
▁이점이	-10410
▁정하여	-10411
▁투자에	-10412
▁곳곳에서	-10413
▁노동자가	-10414
▁서울시는	-10415
▁영역에서	-10416
▁가능하다는	-10417
▁학부모님들께	-10418
∼7	-10419
려야	-10420
신탁	-10421
텍은	-10422
패드	-10423
▁68	-10424
▁꺼내	-10425
▁부재	-10426
▁송금	-10427
▁패소	-10428
공사가	-10429
되는지	-10430
협회가	-10431
▁경기가	-10432
▁안정된	-10433
▁커다란	-10434
▁학교를	-10435
기관으로	-10436
▁신용등급	-10437
▁않았다는	-10438
▁이후에는	-10439
▁제공함에	-10440
▁후보자의	-10441
▁크라이슬러	-10442
▁스마트폰으로	-10443
▁눌	-10444
가전	-10445
가정	-10446
우며	-10447
졌을	-10448
900	-10449
▁이득	-10450
▁전형	-10451
금리가	-10452
센티브	-10453
▁논란에	-10454
▁모델에	-10455
▁비용은	-10456
▁순으로	-10457
▁진행해	-10458
▁추진해	-10459
▁폭으로	-10460
▁구성한다	-10461
▁분위기다	-10462
▁테스트를	-10463
▁시스템으로	-10464
▁과학기술정보통신부	-10465
현의	-10466
▁MB	-10467
▁과징	-10468
▁도어	-10469
▁열람	-10470
▁장례	-10471
▁지붕	-10472
구조에	-10473
▁가입한	-10474
▁경제의	-10475
▁확실한	-10476
▁개최한다	-10477
▁요인으로	-10478
▁캠페인을	-10479
▁학생들을	-10480
▁확보하기	-10481
인천광역시	-10482
도급	-10483
미의	-10484
▁달간	-10485
▁박성	-10486
▁사안	-10487
▁임의	-10488
▁컨셉	-10489
▁타당	-10490
치료를	-10491
효과가	-10492
▁NHN	-10493
▁가벼운	-10494
▁나누어	-10495
▁미국은	-10496
▁설치해	-10497
▁업계에	-10498
▁마세라티	-10499
▁시민들의	-10500
▁회의에서	-10501
▁인플루엔자	-10502
∼8	-10503
겨진	-10504
령을	-10505
언을	-10506
열이	-10507
황이	-10508
and	-10509
▁우유	-10510
▁하향	-10511
업무를	-10512
▁OTT	-10513
▁감안해	-10514
▁부르는	-10515
▁기록하며	-10516
▁자동차용	-10517
▁뮤직비디오	-10518
LA	-10519
상환	-10520
▁EU	-10521
▁발현	-10522
▁의학	-10523
▁기능과	-10524
▁손해를	-10525
▁정치를	-10526
▁제안한	-10527
5,000	-10528
▁바라보는	-10529
▁재택근무	-10530
▁증강현실	-10531
▁전기자동차	-10532
소유	-10533
스톱	-10534
아버	-10535
오버	-10536
▁과다	-10537
▁석탄	-10538
▁유닛	-10539
▁회동	-10540
기준을	-10541
씨에게	-10542
▁각자의	-10543
▁그랜드	-10544
▁사람도	-10545
▁아나운	-10546
▁돌입했다	-10547
▁모양새다	-10548
▁생산라인	-10549
▁커지면서	-10550
▁결과적으로	-10551
▁깎	-10552
▁옳	-10553
검토	-10554
리세	-10555
심에	-10556
장인	-10557
치로	-10558
▁간소	-10559
▁보며	-10560
▁뿌리	-10561
▁세상	-10562
▁임용	-10563
▁장식	-10564
▁찍은	-10565
▁추측	-10566
▁할지	-10567
▁항생	-10568
석으로	-10569
▁공급할	-10570
▁기여한	-10571
▁등록을	-10572
▁서스펜	-10573
▁최첨단	-10574
▁파운드	-10575
▁현실을	-10576
▁아니었다	-10577
졌기	-10578
패스	-10579
프가	-10580
▁밀착	-10581
▁번에	-10582
▁색깔	-10583
▁수지	-10584
▁터키	-10585
상황을	-10586
▁성능과	-10587
▁요건을	-10588
▁자사의	-10589
▁판매는	-10590
▁형태를	-10591
▁인센티브	-10592
▁식품의약품안전	-10593
나의	-10594
왔던	-10595
일반	-10596
▁말에	-10597
▁생략	-10598
▁셀토	-10599
▁종종	-10600
었으나	-10601
▁근거가	-10602
▁달라고	-10603
▁발표된	-10604
▁부드러	-10605
▁사망자	-10606
▁시행할	-10607
▁중국에	-10608
▁지금도	-10609
▁하나다	-10610
자에게는	-10611
▁스마트폰에	-10612
CO	-10613
SB	-10614
▁8,	-10615
▁DS	-10616
▁대부	-10617
▁런던	-10618
▁보아	-10619
▁유상	-10620
▁조항	-10621
기업에	-10622
▁걸그룹	-10623
▁마음에	-10624
▁보냈다	-10625
▁취약한	-10626
▁캐스팅	-10627
▁돌파했다	-10628
신은	-10629
외과	-10630
▁문희	-10631
▁비싸	-10632
▁음향	-10633
▁평택	-10634
보수당	-10635
시키며	-10636
▁여행을	-10637
▁적용을	-10638
MORPG	-10639
▁근로자를	-10640
▁기대했다	-10641
▁청와대는	-10642
▁구조조정을	-10643
▁앙	-10644
▁윌	-10645
▁쪼	-10646
학규	-10647
▁극장	-10648
▁다각	-10649
▁서식	-10650
▁신인	-10651
▁에코	-10652
▁우편	-10653
▁한인	-10654
▁흡착	-10655
공사는	-10656
받는다	-10657
▁겨냥한	-10658
▁떨어질	-10659
▁반영된	-10660
▁인식을	-10661
▁혜택이	-10662
▁그려졌다	-10663
▁앞으로는	-10664
▁참여한다	-10665
."	-10666
▁닥	-10667
인한	-10668
전달	-10669
풍이	-10670
▁3%	-10671
▁67	-10672
▁IM	-10673
▁고향	-10674
▁결론을	-10675
▁끝까지	-10676
▁뒤늦게	-10677
▁리더십	-10678
▁시간은	-10679
▁위험한	-10680
▁질문을	-10681
▁디자이너	-10682
▁판단된다	-10683
▁늘어나면서	-10684
▁섀	-10685
▁펴	-10686
렉스	-10687
위성	-10688
임대	-10689
지않	-10690
▁54	-10691
▁급성	-10692
▁바깥	-10693
▁번역	-10694
▁성사	-10695
▁소폭	-10696
▁시속	-10697
▁오프	-10698
▁측에	-10699
▁탐색	-10700
제도를	-10701
하기를	-10702
▁광화문	-10703
▁규정이	-10704
▁눈물을	-10705
▁이바지	-10706
▁지정한	-10707
▁총선에	-10708
▁확정된	-10709
▁성공적인	-10710
▁환자들이	-10711
▁르노삼성은	-10712
▁람	-10713
경정	-10714
바람	-10715
연계	-10716
오스	-10717
코더	-10718
▁내야	-10719
▁타깃	-10720
공간을	-10721
7000	-10722
▁그나마	-10723
▁대체로	-10724
▁데이타	-10725
▁면에서	-10726
▁소감을	-10727
▁저작권	-10728
▁절차에	-10729
▁커패시	-10730
▁투입해	-10731
▁기자들과	-10732
▁마음으로	-10733
▁사람으로	-10734
▁시작하는	-10735
▁우리금융	-10736
▁특별관계자인	-10737
등기	-10738
본을	-10739
틱스	-10740
▁분자	-10741
▁양천	-10742
▁연체	-10743
▁조세	-10744
홈쇼핑	-10745
▁Mar	-10746
▁긍정적	-10747
▁말씀을	-10748
▁쓰이는	-10749
▁알리고	-10750
▁올해도	-10751
▁인재를	-10752
▁작업에	-10753
▁개최했다	-10754
▁들어간다	-10755
▁방지하여	-10756
▁설치되어	-10757
▁주장한다	-10758
▁프로모션을	-10759
▁최고위원회의	-10760
▁펌	-10761
액에	-10762
코올	-10763
▁가려	-10764
▁수분	-10765
▁이명	-10766
▁한창	-10767
▁소재로	-10768
▁예정된	-10769
▁장관을	-10770
▁주주총	-10771
▁화이트	-10772
▁효율이	-10773
호텔에서	-10774
▁이루어져	-10775
▁이름으로	-10776
▁전체적으로	-10777
▁소셜네트워크	-10778
▁읍	-10779
상도	-10780
에어	-10781
이와	-10782
폭을	-10783
프의	-10784
▁53	-10785
▁감수	-10786
▁거두	-10787
▁녹화	-10788
▁레인	-10789
▁셋째	-10790
▁손님	-10791
기관은	-10792
되었던	-10793
스트는	-10794
▁건강에	-10795
▁공개할	-10796
▁너무나	-10797
▁제안을	-10798
▁파워트	-10799
▁등장하는	-10800
▁서울중앙	-10801
▁설치하는	-10802
▁실리콘밸	-10803
▁지도부가	-10804
▁타이어를	-10805
CN	-10806
교류	-10807
사자	-10808
포스	-10809
형은	-10810
히지	-10811
▁부활	-10812
▁삼아	-10813
▁연일	-10814
▁화제	-10815
판정을	-10816
▁방법과	-10817
▁패러다	-10818
▁행복이	-10819
▁방법이다	-10820
▁스마트팩	-10821
▁음성으로	-10822
▁해석된다	-10823
리라	-10824
헬로	-10825
▁CT	-10826
▁가파	-10827
▁그만	-10828
▁변수	-10829
▁지리	-10830
에게도	-10831
▁귀추가	-10832
▁그녀의	-10833
▁동대문	-10834
▁방사선	-10835
▁선거가	-10836
▁은행의	-10837
▁취지로	-10838
▁구청장의	-10839
▁모델이다	-10840
▁발생하면	-10841
▁불출마를	-10842
▁적용하고	-10843
▁보고하여야	-10844
▁카카오뱅크	-10845
▁퀴	-10846
들인	-10847
량과	-10848
전용	-10849
파의	-10850
▁고시	-10851
▁매진	-10852
▁복구	-10853
▁빈번	-10854
▁선포	-10855
▁인턴	-10856
▁차등	-10857
▁히트	-10858
시설에	-10859
3000	-10860
▁개선이	-10861
▁문제의	-10862
▁올리고	-10863
▁원고가	-10864
▁영향력을	-10865
▁형성하고	-10866
내의	-10867
명도	-10868
밴드	-10869
품이	-10870
▁듣는	-10871
▁막는	-10872
▁면허	-10873
▁명백	-10874
▁산림	-10875
▁시야	-10876
▁칼라	-10877
▁투싼	-10878
사업부	-10879
했다면	-10880
▁분야로	-10881
▁성장이	-10882
▁스웨덴	-10883
▁출연한	-10884
▁포함돼	-10885
▁현장의	-10886
▁줄어드는	-10887
▁곁	-10888
▁꽤	-10889
나게	-10890
아한	-10891
지정	-10892
▁남긴	-10893
▁사양	-10894
▁오를	-10895
▁최상	-10896
스트라	-10897
▁가정의	-10898
▁결정이	-10899
▁모터의	-10900
▁미국이	-10901
▁불완전	-10902
▁선정해	-10903
▁신뢰성	-10904
▁학생을	-10905
공장에서	-10906
▁이해관계	-10907
▁활성화에	-10908
um	-10909
성모	-10910
▁"5	-10911
▁2%	-10912
▁84	-10913
▁심화	-10914
▁액정	-10915
▁역임	-10916
▁이스	-10917
▁인포	-10918
▁적어	-10919
▁토큰	-10920
1000	-10921
▁최우수	-10922
▁커지는	-10923
▁돋보이는	-10924
▁무상으로	-10925
▁제공되는	-10926
로워	-10927
사건	-10928
신한	-10929
연결	-10930
▁간주	-10931
▁양대	-10932
▁콘덴	-10933
▁하청	-10934
▁합격	-10935
스크린	-10936
▁OST	-10937
▁그녀는	-10938
▁들어와	-10939
▁시에는	-10940
▁이해를	-10941
▁처리가	-10942
▁흐르는	-10943
▁않으면서	-10944
▁전자상거래	-10945
리얼	-10946
리우	-10947
▁개폐	-10948
▁거절	-10949
▁다룬	-10950
▁디지	-10951
▁명절	-10952
▁탄성	-10953
▁토로	-10954
▁못하면	-10955
▁인력이	-10956
▁정책의	-10957
▁증가에	-10958
▁회로에	-10959
▁정상적인	-10960
▁우선적으로	-10961
95	-10962
DS	-10963
▁톡	-10964
경의	-10965
피를	-10966
▁많을	-10967
▁발신	-10968
▁밴드	-10969
▁스프	-10970
▁오일	-10971
▁이모	-10972
▁장난	-10973
▁주제	-10974
▁푸조	-10975
륜구동	-10976
▁감사를	-10977
▁고용을	-10978
▁담았다	-10979
▁대다수	-10980
▁대출이	-10981
▁사무실	-10982
▁이어져	-10983
병원으로	-10984
▁시장으로	-10985
▁이뤄지고	-10986
▁콤	-10987
규정	-10988
▁가볍	-10989
▁나쁜	-10990
▁단자	-10991
▁동생	-10992
▁보충	-10993
▁분배	-10994
▁않으	-10995
▁전교	-10996
▁창조	-10997
▁청약	-10998
▁퀄컴	-10999
만원이	-11000
했는지	-11001
▁버튼을	-11002
▁사건에	-11003
▁전국의	-11004
▁준비한	-11005
▁항공기	-11006
▁정보보호	-11007
▁대표적이다	-11008
▁데이터센터	-11009
os	-11010
▁곱	-11011
▁땀	-11012
호와	-11013
▁그다	-11014
▁달아	-11015
▁샘플	-11016
▁시연	-11017
▁육박	-11018
▁주재	-11019
▁충주	-11020
권으로	-11021
미스터	-11022
▁물리학	-11023
▁받으면	-11024
▁신고를	-11025
▁장치는	-11026
▁참가해	-11027
▁판단에	-11028
▁대표이사	-11029
▁보호하기	-11030
▁존재감을	-11031
▁파기하고	-11032
▁싫	-11033
년째	-11034
▁걸친	-11035
▁고등	-11036
▁둔화	-11037
▁법원	-11038
▁선전	-11039
▁송출	-11040
▁유산	-11041
▁이식	-11042
▁표결	-11043
내에서	-11044
사고를	-11045
▁방문객	-11046
▁숨졌다	-11047
▁작용할	-11048
▁체험할	-11049
▁해마다	-11050
▁회장과	-11051
위원회와	-11052
▁나오면서	-11053
▁행사에서	-11054
▁회사측은	-11055
7,	-11056
가며	-11057
를린	-11058
추어	-11059
ECD	-11060
SDS	-11061
▁김지	-11062
▁동향	-11063
▁드릴	-11064
▁벌인	-11065
▁불투	-11066
▁이지	-11067
▁확신	-11068
기간에	-11069
표시장	-11070
▁나중에	-11071
▁생산할	-11072
▁소득이	-11073
오프라인	-11074
▁돌봄교실	-11075
▁불가피한	-11076
▁브랜드로	-11077
▁사업이다	-11078
▁제외한다	-11079
▁플랫폼에	-11080
▁형식으로	-11081
▁확보하는	-11082
▁스마트공장	-11083
▁스타트업을	-11084
고에	-11085
비율	-11086
수출	-11087
음의	-11088
▁계층	-11089
▁말로	-11090
▁세척	-11091
▁열릴	-11092
▁재편	-11093
▁플랜	-11094
▁한일	-11095
관리법	-11096
리지널	-11097
증후군	-11098
▁다녀온	-11099
▁살아남	-11100
▁전략이	-11101
▁제치고	-11102
▁캐릭터를	-11103
IM	-11104
LC	-11105
▁힌	-11106
개특	-11107
롭고	-11108
서치	-11109
이니	-11110
▁궁극	-11111
▁대답	-11112
▁마땅	-11113
▁연애	-11114
▁원가	-11115
▁원작	-11116
▁위와	-11117
▁특례	-11118
밀하게	-11119
▁그래도	-11120
▁기판에	-11121
▁발표할	-11122
▁보이며	-11123
▁설명을	-11124
▁수석부	-11125
▁절차가	-11126
선거관리	-11127
▁구성하고	-11128
▁브랜드가	-11129
▁최소한의	-11130
▁형성되어	-11131
기념	-11132
▁감당	-11133
▁덕분	-11134
▁보낼	-11135
▁유대	-11136
▁유익	-11137
▁이기	-11138
▁지명	-11139
▁철학	-11140
▁해수	-11141
분기에	-11142
하시길	-11143
▁나란히	-11144
▁점수를	-11145
▁주변의	-11146
내믹	-11147
셨다	-11148
임이	-11149
처벌	-11150
▁가면	-11151
▁강연	-11152
▁구의	-11153
▁군산	-11154
▁나빠	-11155
▁느꼈	-11156
▁렌즈	-11157
▁박물	-11158
▁스캔	-11159
메이커	-11160
▁교육이	-11161
▁기본급	-11162
▁생산에	-11163
▁어렵게	-11164
▁없이도	-11165
▁요구한	-11166
▁은행이	-11167
▁장에게	-11168
▁전파를	-11169
▁탁월한	-11170
▁투자해	-11171
▁프로듀	-11172
▁노동시장	-11173
▁이뤄진다	-11174
▁준비하는	-11175
▁정기적으로	-11176
EM	-11177
og	-11178
▁섹	-11179
관절	-11180
러를	-11181
마의	-11182
▁TS	-11183
▁냄새	-11184
▁무단	-11185
▁워낙	-11186
았는데	-11187
였으며	-11188
▁개념을	-11189
▁구성해	-11190
▁수준인	-11191
▁유용한	-11192
▁해주는	-11193
▁확률이	-11194
▁보고서를	-11195
▁사망자가	-11196
▁제거하는	-11197
▁주장하고	-11198
▁체계적인	-11199
▁쇠	-11200
리다	-11201
민족	-11202
승을	-11203
일보	-11204
홀딩	-11205
▁배부	-11206
▁본질	-11207
▁사우	-11208
▁사흘	-11209
▁세로	-11210
▁차트	-11211
▁찾지	-11212
▁최장	-11213
▁침투	-11214
▁코인	-11215
원들은	-11216
카드를	-11217
▁기관은	-11218
▁되는데	-11219
▁시설의	-11220
▁장착한	-11221
▁다음으로	-11222
▁등장했다	-11223
▁사용하기	-11224
▁자동차와	-11225
▁학교에서는	-11226
▁CM	-11227
▁개그	-11228
▁늘릴	-11229
▁댄스	-11230
▁수단	-11231
▁제천	-11232
▁타결	-11233
기관인	-11234
▁구성에	-11235
▁대표적	-11236
▁인구가	-11237
▁증권사	-11238
▁공공부문	-11239
▁생각합니다	-11240
▁종합적으로	-11241
▁집중적으로	-11242
IV	-11243
ra	-11244
있어	-11245
행동	-11246
▁RF	-11247
▁고창	-11248
▁공조	-11249
▁관제	-11250
▁국채	-11251
▁데에	-11252
▁옵션	-11253
▁외래	-11254
▁저가	-11255
▁전계	-11256
▁주체	-11257
▁챔버	-11258
▁탈락	-11259
졌으며	-11260
▁강화에	-11261
▁곳곳에	-11262
▁뚜렷한	-11263
▁문화가	-11264
▁밀레니	-11265
▁애플의	-11266
▁관리하고	-11267
▁기본으로	-11268
▁본사에서	-11269
▁상호작용	-11270
▁판단하고	-11271
▁호소했다	-11272
▁서울중앙지	-11273
▁우리나라는	-11274
▁쫓	-11275
ine	-11276
▁63	-11277
▁길게	-11278
▁나를	-11279
▁운반	-11280
▁차질	-11281
▁축구	-11282
기에는	-11283
▁절감할	-11284
▁지키는	-11285
▁청구를	-11286
▁효율적	-11287
▁금감원은	-11288
▁공직선거법	-11289
▁더불어시민	-11290
▁넉	-11291
예약	-11292
▁LP	-11293
▁가리	-11294
▁꼬집	-11295
▁논쟁	-11296
▁서명	-11297
▁약을	-11298
▁어드	-11299
▁우즈	-11300
▁민주평	-11301
▁바라는	-11302
▁시행에	-11303
▁있을까	-11304
▁증가로	-11305
▁차종에	-11306
▁출신인	-11307
▁판결이	-11308
▁공천관리	-11309
▁구축하는	-11310
▁내부에서	-11311
▁주행성능	-11312
OU	-11313
ow	-11314
어질	-11315
해제	-11316
▁AS	-11317
▁놓여	-11318
▁먹을	-11319
▁복사	-11320
▁쓰지	-11321
▁잃은	-11322
▁철거	-11323
자금을	-11324
▁가동을	-11325
▁공정한	-11326
▁내용에	-11327
▁들여다	-11328
▁보면서	-11329
▁사태에	-11330
▁안정적	-11331
▁작성한	-11332
▁같습니다	-11333
▁육아휴직	-11334
▁조건으로	-11335
▁파트너십을	-11336
감도	-11337
보며	-11338
아웃	-11339
테일	-11340
평양	-11341
▁노드	-11342
▁리스	-11343
▁피할	-11344
▁휴게	-11345
기업을	-11346
달라고	-11347
▁세금을	-11348
▁키우는	-11349
▁특화된	-11350
▁활용될	-11351
▁교육부는	-11352
▁자신감을	-11353
▁증정한다	-11354
▁최소화할	-11355
▁폴더블폰	-11356
▁찰	-11357
대금	-11358
련의	-11359
사유	-11360
▁단식	-11361
▁발사	-11362
▁소설	-11363
▁아파	-11364
▁정할	-11365
▁파리	-11366
어지는	-11367
▁떨어뜨	-11368
▁의무가	-11369
▁작품이	-11370
▁전염병	-11371
▁준중형	-11372
기업으로	-11373
▁가입자가	-11374
▁개정안은	-11375
▁설치하여	-11376
▁정신건강	-11377
▁참여하여	-11378
▁플랫폼인	-11379
▁겉	-11380
설명	-11381
월과	-11382
전류	-11383
줄이	-11384
·18	-11385
▁드물	-11386
▁발을	-11387
▁배분	-11388
▁불리	-11389
▁시세	-11390
▁인성	-11391
▁춘천	-11392
▁치과	-11393
▁쾌적	-11394
▁한달	-11395
▁힘쓰	-11396
꺼번에	-11397
만대로	-11398
4000	-11399
▁경제를	-11400
▁법원이	-11401
▁아이가	-11402
▁염두에	-11403
▁온도가	-11404
▁일으킬	-11405
▁조기에	-11406
▁최악의	-11407
▁동영상을	-11408
▁서비스인	-11409
▁전체적인	-11410
▁제기되고	-11411
▁지역경제	-11412
▁엔터테인먼트	-11413
41	-11414
OD	-11415
그라	-11416
회전	-11417
▁76	-11418
▁상급	-11419
▁생겼	-11420
▁생생	-11421
▁속한	-11422
▁외출	-11423
▁작아	-11424
▁지갑	-11425
▁차에	-11426
▁트리	-11427
▁환영	-11428
공장을	-11429
▁극복을	-11430
▁됐다고	-11431
▁벌였다	-11432
▁않다고	-11433
▁자산을	-11434
▁향상에	-11435
산업진흥	-11436
▁않았다고	-11437
▁현대차그룹	-11438
·2	-11439
오일	-11440
▁발령	-11441
▁유저	-11442
▁재적	-11443
▁감염을	-11444
▁구축에	-11445
▁등에게	-11446
▁요청을	-11447
▁재판에	-11448
▁취하고	-11449
▁금융투자	-11450
▁부회장이	-11451
▁시트로엥	-11452
▁하나금융	-11453
▁한꺼번에	-11454
▁엔씨소프트	-11455
▁영업이익은	-11456
RP	-11457
▁d	-11458
공을	-11459
두로	-11460
방과	-11461
예정	-11462
▁검역	-11463
▁구리	-11464
▁누리	-11465
▁맥락	-11466
▁사립	-11467
▁야기	-11468
▁은평	-11469
▁펼칠	-11470
▁결합해	-11471
▁세우고	-11472
▁여부가	-11473
▁이용이	-11474
▁전제로	-11475
▁학교는	-11476
▁고객들의	-11477
▁공간에서	-11478
▁〈	-11479
니즘	-11480
▁미흡	-11481
▁민사	-11482
▁살려	-11483
▁직류	-11484
▁찬반	-11485
▁파우	-11486
▁한반	-11487
▁휴직	-11488
병원이	-11489
시에는	-11490
▁경험과	-11491
▁생산이	-11492
▁이익이	-11493
▁전문의	-11494
▁지상파	-11495
▁추첨을	-11496
인들에게	-11497
▁1500	-11498
▁1996	-11499
▁연말까지	-11500
▁태양전지	-11501
▁KAIST	-11502
▁커뮤니케이션	-11503
▁멸	-11504
▁몬	-11505
렌즈	-11506
본은	-11507
조한	-11508
택트	-11509
호로	-11510
▁목격	-11511
로서는	-11512
허가를	-11513
▁고통을	-11514
▁단계에	-11515
▁동남아	-11516
▁문희상	-11517
▁생겼다	-11518
▁서로를	-11519
▁언제나	-11520
▁연평균	-11521
▁해결을	-11522
▁핸드폰	-11523
비정규직	-11524
▁예상하고	-11525
▁타이틀곡	-11526
▁통합당이	-11527
▁기아자동차	-11528
▁시장에서는	-11529
▁인터페이스	-11530
▁해당하는지	-11531
문제	-11532
수단	-11533
역학	-11534
▁구별	-11535
▁다를	-11536
▁독감	-11537
▁오브	-11538
▁체제	-11539
▁개발자	-11540
▁개방형	-11541
▁장소에	-11542
▁제공을	-11543
▁제도가	-11544
▁제작된	-11545
▁판단한	-11546
▁하우징	-11547
▁국민연금	-11548
▁무선통신	-11549
▁열린민주당	-11550
▁짝	-11551
단협	-11552
됐기	-11553
라엘	-11554
하가	-11555
▁CD	-11556
▁LS	-11557
▁며칠	-11558
▁병상	-11559
▁살균	-11560
▁소극	-11561
▁앓고	-11562
▁액체	-11563
▁지진	-11564
년대에	-11565
▁걸렸다	-11566
▁금감원	-11567
▁기반이	-11568
▁단계를	-11569
▁전망도	-11570
▁전체가	-11571
▁정하고	-11572
▁주한미	-11573
▁클라우	-11574
▁협력사	-11575
▁대부분은	-11576
▁도입했다	-11577
▁자영업자	-11578
▁폭발적인	-11579
▁전문가들이	-11580
▁데이터베이스	-11581
답게	-11582
디에	-11583
탱크	-11584
▁김명	-11585
▁나면	-11586
▁마약	-11587
▁배가	-11588
▁부대	-11589
▁신라	-11590
▁통행	-11591
▁항의	-11592
▁했을	-11593
라면서	-11594
센터와	-11595
평가를	-11596
홀에서	-11597
▁기간은	-11598
▁사회에	-11599
▁선거제	-11600
▁올림픽	-11601
▁태도를	-11602
▁페라리	-11603
만원까지	-11604
▁긴장감을	-11605
▁온실가스	-11606
▁지방선거	-11607
모드	-11608
▁김해	-11609
▁독보	-11610
▁돌출	-11611
▁박영	-11612
▁세제	-11613
▁우대	-11614
▁일회	-11615
▁전사	-11616
았으며	-11617
회사인	-11618
▁110	-11619
▁DLF	-11620
▁아닌가	-11621
▁엔진의	-11622
▁이루고	-11623
▁입지를	-11624
▁장기화	-11625
▁지구의	-11626
▁해석이	-11627
▁활발히	-11628
시스템은	-11629
▁주도하는	-11630
▁b	-11631
▁낫	-11632
▁팰	-11633
봉투	-11634
챗봇	-11635
▁ID	-11636
▁그럴	-11637
▁메가	-11638
▁소액	-11639
▁안건	-11640
▁주총	-11641
▁확률	-11642
로서의	-11643
▁나타내	-11644
▁대체할	-11645
▁물량을	-11646
▁보내주	-11647
▁산업용	-11648
▁성공을	-11649
▁용도로	-11650
▁지속될	-11651
▁커넥티드	-11652
▁시스템이다	-11653
RA	-11654
돌이	-11655
민은	-11656
숙한	-11657
언이	-11658
우트	-11659
위반	-11660
재철	-11661
▁86	-11662
▁날이	-11663
▁모자	-11664
▁비하	-11665
▁선배	-11666
▁여권	-11667
▁윤석	-11668
▁한미	-11669
스트로	-11670
총연맹	-11671
하느냐	-11672
호흡기	-11673
▁당국이	-11674
▁말부터	-11675
▁블록체	-11676
▁안으로	-11677
▁영역에	-11678
▁자격을	-11679
▁처분을	-11680
▁패널의	-11681
▁업체들은	-11682
매출	-11683
측정	-11684
팅을	-11685
해지	-11686
화물	-11687
art	-11688
▁개통	-11689
▁고문	-11690
▁구형	-11691
▁대조	-11692
▁뒤로	-11693
▁빛이	-11694
▁빼앗	-11695
▁샤오	-11696
▁수습	-11697
▁쓰러	-11698
▁폐암	-11699
겠느냐	-11700
▁EBS	-11701
▁관측도	-11702
▁쏠린다	-11703
▁정보의	-11704
▁출마한	-11705
▁한진칼	-11706
▁간담회를	-11707
▁도요타는	-11708
▁리튬이온	-11709
▁활용하고	-11710
▁고위공직자	-11711
기자	-11712
음은	-11713
▁본래	-11714
▁사이클	-11715
▁서서히	-11716
▁여론이	-11717
▁영국의	-11718
▁자녀를	-11719
▁적용될	-11720
▁협조해	-11721
▁구축했다	-11722
▁아직까지	-11723
▁획기적으로	-11724
3'	-11725
▁얽	-11726
매체	-11727
파워	-11728
▁강요	-11729
▁걸고	-11730
▁도래	-11731
▁시술	-11732
▁양육	-11733
▁여전	-11734
▁친박	-11735
▁2.0	-11736
▁경우의	-11737
▁그룹의	-11738
▁대책이	-11739
▁말씀은	-11740
▁분야별	-11741
▁용량을	-11742
▁이용을	-11743
▁출신의	-11744
▁단계에서	-11745
▁가정에서도	-11746
77	-11747
85	-11748
안심	-11749
중독	-11750
피고	-11751
∼10	-11752
▁간부	-11753
▁들면	-11754
▁무용	-11755
▁압력	-11756
▁오버	-11757
▁자궁	-11758
▁전작	-11759
▁지주	-11760
드린다	-11761
층으로	-11762
▁거쳐야	-11763
건강보험	-11764
신청서를	-11765
▁변화하는	-11766
▁시너지를	-11767
▁오리지널	-11768
▁직원들의	-11769
▁추가경정	-11770
▁카카오는	-11771
▁소셜미디어	-11772
▁전국적으로	-11773
▁통지하여야	-11774
개소	-11775
대사	-11776
수한	-11777
▁0%	-11778
▁도매	-11779
▁등기	-11780
▁매칭	-11781
▁와서	-11782
▁절단	-11783
▁호전	-11784
기업과	-11785
노조는	-11786
보조금	-11787
사이클	-11788
음으로	-11789
▁겨울철	-11790
▁로봇은	-11791
▁만이다	-11792
▁명령을	-11793
▁부회장	-11794
▁상품이	-11795
▁Mong	-11796
▁금융위기	-11797
▁반대하는	-11798
▁보호하는	-11799
▁협력업체	-11800
▁확산되고	-11801
OC	-11802
OT	-11803
▁닮	-11804
▁셔	-11805
동과	-11806
신종	-11807
▁대남	-11808
▁물에	-11809
▁슬로	-11810
▁위의	-11811
화했다	-11812
▁가입할	-11813
▁들어갔	-11814
▁반면에	-11815
▁사용료	-11816
▁어렵고	-11817
▁중국과	-11818
▁크루즈	-11819
일로부터	-11820
▁제시하는	-11821
▁하락했다	-11822
▁이루어지고	-11823
문학	-11824
일인	-11825
▁각국	-11826
▁마크	-11827
▁상하	-11828
▁여가	-11829
▁이원	-11830
▁일고	-11831
▁정은	-11832
▁페달	-11833
▁해체	-11834
산업이	-11835
▁경비를	-11836
▁만족도	-11837
▁미쓰비	-11838
▁배기가	-11839
▁벌어진	-11840
▁빠져나	-11841
▁재건축	-11842
▁중심이	-11843
▁IPTV	-11844
▁개최하고	-11845
▁기록하고	-11846
▁본회의를	-11847
▁불매운동	-11848
▁위원장의	-11849
나눔	-11850
박물	-11851
빌딩	-11852
어와	-11853
해보	-11854
▁소장	-11855
▁형식	-11856
전자의	-11857
케이블	-11858
▁대응에	-11859
▁바람에	-11860
▁수익성	-11861
▁아래로	-11862
▁업무상	-11863
▁있느냐	-11864
▁전원이	-11865
▁전지는	-11866
▁제공한	-11867
▁균일하게	-11868
▁기업이다	-11869
▁달성했다	-11870
▁상승세를	-11871
▁와이파이	-11872
▁처리하기	-11873
▁연구에서는	-11874
▁흰	-11875
만족	-11876
번방	-11877
안내	-11878
▁가요	-11879
▁기구	-11880
▁민감	-11881
▁역을	-11882
▁전임	-11883
▁체류	-11884
절차를	-11885
▁교육청	-11886
▁손학규	-11887
▁지역이	-11888
▁성장하는	-11889
▁요구하며	-11890
▁저축은행	-11891
▁호기심을	-11892
▁찌	-11893
대전	-11894
매를	-11895
신당	-11896
재판	-11897
촛불	-11898
▁과잉	-11899
▁분담	-11900
▁한쪽	-11901
▁경영권	-11902
▁미국에	-11903
▁선정한	-11904
▁속하는	-11905
▁이슈가	-11906
▁조정할	-11907
▁의료기기	-11908
▁저소득층	-11909
▁적용됐다	-11910
대형	-11911
소스	-11912
유예	-11913
컨대	-11914
▁간사	-11915
▁공표	-11916
▁녹음	-11917
▁놓은	-11918
▁눈이	-11919
▁번도	-11920
▁외화	-11921
▁정원	-11922
▁줄을	-11923
▁청원	-11924
▁카운	-11925
▁폭을	-11926
렸다는	-11927
본부가	-11928
시간제	-11929
층에는	-11930
▁게임에	-11931
▁무게를	-11932
▁벌이는	-11933
▁생명을	-11934
▁인수한	-11935
▁직원의	-11936
▁집중할	-11937
▁편의점	-11938
▁강화했다	-11939
▁소개하는	-11940
▁수소연료	-11941
▁지지율이	-11942
▁진단했다	-11943
▁진심으로	-11944
▁튼	-11945
내과	-11946
니가	-11947
▁갱신	-11948
▁권역	-11949
▁법을	-11950
▁웨어	-11951
▁인디	-11952
▁차원	-11953
기업인	-11954
▁교육의	-11955
▁뛰어들	-11956
▁미생물	-11957
▁참가한	-11958
▁필리핀	-11959
▁그렇다면	-11960
▁내용으로	-11961
▁반박했다	-11962
구성	-11963
자고	-11964
취를	-11965
플로	-11966
▁김병	-11967
▁까다	-11968
▁깨달	-11969
▁당황	-11970
▁불균	-11971
▁이영	-11972
▁일일	-11973
▁적자	-11974
▁체온	-11975
거리는	-11976
코드를	-11977
▁3∼4	-11978
▁금액이	-11979
▁불편한	-11980
▁서울의	-11981
▁성과가	-11982
▁임단협	-11983
▁행보를	-11984
▁방송통신	-11985
▁수단으로	-11986
▁웨이퍼를	-11987
▁이들에게	-11988
▁이어갔다	-11989
▁어린이들이	-11990
▁MongoDB	-11991
살을	-11992
▁사설	-11993
▁유방	-11994
▁일에	-11995
▁카테	-11996
▁토양	-11997
▁티볼	-11998
▁협동	-11999
병원과	-12000
▁과정은	-12001
▁배제할	-12002
▁안정화	-12003
▁출퇴근	-12004
▁케이팝	-12005
▁판매할	-12006
▁포드는	-12007
▁협상이	-12008
해지면서	-12009
▁벌어지는	-12010
▁생산하고	-12011
▁불가능하다	-12012
▁정상적으로	-12013
RS	-12014
개에	-12015
국과	-12016
널드	-12017
령이	-12018
배에	-12019
속도	-12020
순위	-12021
자격	-12022
ate	-12023
▁각기	-12024
▁굳이	-12025
▁근접	-12026
▁미용	-12027
▁소지	-12028
▁은퇴	-12029
▁의지	-12030
감으로	-12031
▁1.5	-12032
▁내용과	-12033
▁등장해	-12034
▁맞았다	-12035
▁저금리	-12036
▁집회를	-12037
▁했으나	-12038
▁휘발유	-12039
다이오드	-12040
▁거리두기	-12041
▁부분변경	-12042
▁사망자는	-12043
▁존재한다	-12044
▁취약계층에	-12045
아를	-12046
타운	-12047
▁메디	-12048
▁재차	-12049
▁파급	-12050
▁푸른	-12051
▁화석	-12052
가격이	-12053
전지를	-12054
▁140	-12055
▁게임의	-12056
▁공장의	-12057
▁내년에	-12058
▁민감한	-12059
▁부품의	-12060
▁상기와	-12061
▁손으로	-12062
▁업체를	-12063
▁제출해	-12064
▁합의가	-12065
▁확대와	-12066
▁성장하고	-12067
▁안전사고	-12068
▁인피니티	-12069
▁있었다는	-12070
▁초등학생	-12071
▁추정되는	-12072
▁시뮬레이션	-12073
도서	-12074
▁걸림	-12075
▁교차	-12076
▁나눈	-12077
▁빛의	-12078
▁샌드	-12079
▁완공	-12080
▁이진	-12081
▁주류	-12082
▁처한	-12083
▁체중	-12084
경기도	-12085
9000	-12086
▁가족과	-12087
▁게임이	-12088
▁명확한	-12089
▁서초구	-12090
▁수상한	-12091
▁앱에서	-12092
▁연결해	-12093
▁주의를	-12094
▁초소형	-12095
▁촬영을	-12096
▁컨텐츠	-12097
헬스케어	-12098
▁요구되는	-12099
MI	-12100
기인	-12101
긴다	-12102
느라	-12103
미술	-12104
소독	-12105
트랜	-12106
▁권력	-12107
▁면세	-12108
▁염증	-12109
상품을	-12110
▁검찰의	-12111
▁농성을	-12112
▁소리가	-12113
▁시가총	-12114
▁실시예	-12115
▁총리는	-12116
블록체인	-12117
▁국민들이	-12118
▁국민에게	-12119
▁궁금증이	-12120
▁생활치료	-12121
▁전문성을	-12122
▁지원금을	-12123
▁도봉	-12124
▁될지	-12125
▁비가	-12126
▁상가	-12127
대학원	-12128
해서는	-12129
▁독일의	-12130
▁멤버십	-12131
▁불만을	-12132
▁실력을	-12133
▁연이어	-12134
▁장소를	-12135
▁조사가	-12136
▁기저질환	-12137
▁기후변화	-12138
▁비트코인	-12139
▁제시한다	-12140
▁현대차와	-12141
▁때문이라고	-12142
42	-12143
DR	-12144
im	-12145
라서	-12146
르크	-12147
마력	-12148
오를	-12149
친화	-12150
터와	-12151
▁61	-12152
▁62	-12153
▁당이	-12154
▁반송	-12155
▁베타	-12156
▁성질	-12157
▁올릴	-12158
▁응시	-12159
▁자진	-12160
▁합산	-12161
가스를	-12162
안으로	-12163
▁경험할	-12164
▁로봇의	-12165
▁방송인	-12166
▁방식에	-12167
▁없다면	-12168
▁올해의	-12169
▁요소가	-12170
▁정세균	-12171
▁탄탄한	-12172
▁단말기를	-12173
▁향상되는	-12174
님을	-12175
다리	-12176
맥스	-12177
심과	-12178
이야	-12179
이프	-12180
체제	-12181
▁내보	-12182
▁떠난	-12183
▁성동	-12184
▁연다	-12185
결정을	-12186
시에서	-12187
▁과태료	-12188
▁다루는	-12189
▁많다는	-12190
▁있어도	-12191
▁초기에	-12192
▁홈쇼핑	-12193
▁1994	-12194
▁공급하고	-12195
▁보장하는	-12196
▁체계적으로	-12197
▁알려드립니다	-12198
▁소셜네트워크서비스	-12199
일즈	-12200
짐에	-12201
플래	-12202
▁견제	-12203
▁기쁨	-12204
▁내걸	-12205
▁두는	-12206
▁따져	-12207
▁리츠	-12208
▁미얀	-12209
▁밝은	-12210
▁유급	-12211
▁유인	-12212
▁일할	-12213
▁칭찬	-12214
공학과	-12215
보다도	-12216
8000	-12217
▁350	-12218
▁강서구	-12219
▁안정을	-12220
▁업체와	-12221
▁이끌고	-12222
▁주장은	-12223
▁패밀리	-12224
대책본부	-12225
스타트업	-12226
업체들이	-12227
▁2023	-12228
▁QLED	-12229
▁금융기관	-12230
▁기아차의	-12231
▁배터리의	-12232
▁실시했다	-12233
▁유럽에서	-12234
▁해결하는	-12235
id	-12236
oc	-12237
셔널	-12238
일리	-12239
환이	-12240
▁번의	-12241
▁약한	-12242
▁한양	-12243
▁확고	-12244
▁환급	-12245
공정을	-12246
식에는	-12247
▁160	-12248
▁과거의	-12249
▁기금의	-12250
▁리모콘	-12251
▁모듈을	-12252
▁불만이	-12253
▁사진이	-12254
▁장면을	-12255
▁통신을	-12256
방향으로	-12257
▁구현하는	-12258
▁나가겠다	-12259
▁보고서는	-12260
▁선정했다	-12261
▁시작되는	-12262
▁인터넷을	-12263
8,	-12264
경은	-12265
래곤	-12266
상승	-12267
▁1.	-12268
▁불순	-12269
▁시의	-12270
▁월화	-12271
▁챌린	-12272
▁청춘	-12273
바이트	-12274
투자가	-12275
▁느낌이	-12276
▁다니는	-12277
▁똑같은	-12278
▁부당한	-12279
▁소자를	-12280
▁승리를	-12281
▁신호의	-12282
▁이었다	-12283
▁학습을	-12284
▁위성정당	-12285
▁의료진이	-12286
▁조사에서	-12287
▁영업이익이	-12288
▁캔	-12289
시면	-12290
움과	-12291
터로	-12292
▁까닭	-12293
▁봉쇄	-12294
▁붙여	-12295
▁옷을	-12296
▁이념	-12297
▁침입	-12298
사업은	-12299
사회의	-12300
영화제	-12301
▁고효율	-12302
▁구축한	-12303
▁남성은	-12304
▁매장을	-12305
▁베를린	-12306
▁보상을	-12307
▁시민의	-12308
▁지침을	-12309
▁특정한	-12310
▁회의는	-12311
▁가격으로	-12312
▁설문조사	-12313
▁알려주는	-12314
▁에너지가	-12315
▁조언했다	-12316
▁집중하고	-12317
▁젖	-12318
격리	-12319
냐는	-12320
보전	-12321
시다	-12322
여명	-12323
영향	-12324
준의	-12325
형과	-12326
▁CR	-12327
▁OS	-12328
▁맺은	-12329
▁왼쪽	-12330
▁지문	-12331
▁추모	-12332
▁콘셉	-12333
간다는	-12334
실장은	-12335
은행과	-12336
처분을	-12337
화하여	-12338
▁무엇을	-12339
▁상품의	-12340
▁수요에	-12341
▁아이를	-12342
▁후보에	-12343
▁규칙으로	-12344
▁금융회사	-12345
▁대통령을	-12346
▁외국인이	-12347
▁제공하며	-12348
▁집중되고	-12349
개사	-12350
더스	-12351
브를	-12352
저항	-12353
현은	-12354
▁남겨	-12355
▁동결	-12356
▁무력	-12357
▁재가	-12358
▁출동	-12359
만원씩	-12360
행위에	-12361
iaDB	-12362
▁개최된	-12363
▁들어온	-12364
▁북한의	-12365
▁사업과	-12366
▁스테이	-12367
▁의견도	-12368
▁이것을	-12369
▁판매된	-12370
▁소개한다	-12371
▁압수수색	-12372
▁인수합병	-12373
▁확대되고	-12374
▁실시한다고	-12375
바닥	-12376
병을	-12377
진한	-12378
▁XM	-12379
▁구급	-12380
▁부지	-12381
▁붙어	-12382
▁실린	-12383
▁연초	-12384
▁이듬	-12385
▁폭로	-12386
분으로	-12387
인프라	-12388
지원청	-12389
처분의	-12390
테이너	-12391
▁그녀가	-12392
▁일정이	-12393
▁체제를	-12394
▁클래스	-12395
▁학생과	-12396
만으로는	-12397
▁세계보건	-12398
▁향상시키고	-12399
▁MariaDB	-12400
86	-12401
개정	-12402
군과	-12403
금에	-12404
징수	-12405
차단	-12406
혜택	-12407
▁79	-12408
▁금연	-12409
▁기름	-12410
▁기어	-12411
▁당한	-12412
▁도민	-12413
▁연마	-12414
▁유아	-12415
▁철강	-12416
스럽다	-12417
▁결정된	-12418
▁고도화	-12419
▁발견한	-12420
▁요청한	-12421
▁일본이	-12422
▁전류를	-12423
▁주목할	-12424
▁중대한	-12425
▁지키기	-12426
▁감소시킬	-12427
▁대상이다	-12428
▁상승했다	-12429
▁통합당은	-12430
▁최소화하기	-12431
aS	-12432
▁깃	-12433
▁덴	-12434
리버	-12435
문서	-12436
▁72	-12437
▁QR	-12438
▁김희	-12439
▁녹아	-12440
▁민정	-12441
▁상무	-12442
▁지수	-12443
교육의	-12444
방법원	-12445
지역에	-12446
▁경기침	-12447
▁돌아온	-12448
▁사회를	-12449
▁전면에	-12450
▁수행하고	-12451
▁환송한다	-12452
kW	-12453
농협	-12454
저장	-12455
증진	-12456
▁77	-12457
▁강동	-12458
▁귀가	-12459
▁농어	-12460
▁발효	-12461
과정을	-12462
모델을	-12463
▁SKT	-12464
▁보내고	-12465
▁상고이	-12466
▁수소를	-12467
▁시청률	-12468
▁영업을	-12469
▁판단할	-12470
▁높아지는	-12471
▁사망했다	-12472
▁속에서도	-12473
▁이미지가	-12474
계열	-12475
미세	-12476
시청	-12477
종인	-12478
준표	-12479
화재	-12480
▁번거	-12481
▁썼다	-12482
▁어두	-12483
▁연상	-12484
▁입금	-12485
▁진상	-12486
▁최다	-12487
▁케미	-12488
▁핸들	-12489
▁혈압	-12490
관에게	-12491
운영에	-12492
▁대상자	-12493
▁예산이	-12494
▁오르는	-12495
▁올레드	-12496
▁이듬해	-12497
청사에서	-12498
▁컨셉트카	-12499
▁프로그래	-12500
▁확실하게	-12501
▁탄력근로제	-12502
나이	-12503
낸셜	-12504
됨을	-12505
등한	-12506
라의	-12507
론은	-12508
르몬	-12509
의무	-12510
죄의	-12511
채를	-12512
커스	-12513
트럼	-12514
MOU	-12515
▁송가	-12516
▁안보	-12517
▁에듀	-12518
▁좋고	-12519
▁평판	-12520
▁회생	-12521
만명의	-12522
어졌다	-12523
▁IBM	-12524
▁강의를	-12525
▁남다른	-12526
▁마포구	-12527
▁매력이	-12528
▁시험을	-12529
▁차이는	-12530
▁최대의	-12531
회관에서	-12532
▁1991	-12533
▁시장점유	-12534
▁관계자들이	-12535
▁근로기준법	-12536
▁서울대병원	-12537
▁스타트업이	-12538
▁한국과학기술	-12539
육성	-12540
티는	-12541
화질	-12542
희망	-12543
▁꿈꾸	-12544
▁다름	-12545
▁다짐	-12546
▁승계	-12547
▁제이	-12548
▁희귀	-12549
지스트	-12550
회사를	-12551
▁넘어선	-12552
▁높다고	-12553
▁맺었다	-12554
▁무엇이	-12555
▁시행한	-12556
▁연계한	-12557
▁연세대	-12558
▁중저가	-12559
▁지역별	-12560
▁차종은	-12561
▁촬영한	-12562
▁최근에	-12563
▁다이내믹	-12564
▁벌어졌다	-12565
▁여름방학	-12566
▁주민들이	-12567
▁플랫폼이	-12568
GV	-12569
이런	-12570
중견	-12571
호영	-12572
▁74	-12573
▁로보	-12574
▁선착	-12575
▁수거	-12576
▁여는	-12577
▁환원	-12578
▁격차가	-12579
▁달라진	-12580
▁대주주	-12581
▁발견된	-12582
▁변화와	-12583
▁보험금	-12584
▁사용될	-12585
▁연동형	-12586
▁인수를	-12587
▁주의가	-12588
▁지키고	-12589
▁행사로	-12590
▁내용이다	-12591
▁논의했다	-12592
▁소개하고	-12593
▁포함되어	-12594
▁현지에서	-12595
▁예방접종을	-12596
CR	-12597
FC	-12598
공화	-12599
▁95	-12600
▁ES	-12601
▁날을	-12602
▁도구	-12603
▁세그	-12604
▁소년	-12605
▁이더	-12606
▁질을	-12607
문화를	-12608
작업을	-12609
해주고	-12610
▁공기를	-12611
▁기사를	-12612
▁돕는다	-12613
▁성폭력	-12614
범죄수사	-12615
▁개선하는	-12616
▁변호사는	-12617
▁개인정보보호	-12618
▁기아자동차가	-12619
▁미래통합당이	-12620
▁굵	-12621
▁벡	-12622
불이	-12623
생태	-12624
시쯤	-12625
▁경보	-12626
▁고전	-12627
▁막말	-12628
▁빌딩	-12629
▁콜라	-12630
파트너	-12631
▁상무는	-12632
▁용이한	-12633
▁중국인	-12634
▁출력을	-12635
▁훌륭한	-12636
교육청은	-12637
지역에서	-12638
▁기다리고	-12639
▁사회안전	-12640
▁수행하기	-12641
▁연구진은	-12642
▁이날부터	-12643
▁평가하는	-12644
▁협조하여	-12645
▁참고하시어	-12646
UN	-12647
싱턴	-12648
용을	-12649
인드	-12650
▁4.	-12651
▁LA	-12652
▁개성	-12653
▁그저	-12654
▁당원	-12655
▁되길	-12656
▁바꾼	-12657
▁양국	-12658
▁지혜	-12659
▁체포	-12660
▁가져올	-12661
▁교육감	-12662
▁내세운	-12663
▁마이크	-12664
▁무조건	-12665
▁선보여	-12666
▁않았을	-12667
▁여부는	-12668
▁일부는	-12669
▁정책과	-12670
▁최우선	-12671
▁코란도	-12672
▁국무총리	-12673
▁근본적인	-12674
▁목소리도	-12675
▁밀레니얼	-12676
▁블루투스	-12677
▁처음에는	-12678
▁해명했다	-12679
▁실질적으로	-12680
LE	-12681
up	-12682
경남	-12683
중의	-12684
▁개원	-12685
▁김형	-12686
▁넓혀	-12687
▁대략	-12688
▁되찾	-12689
▁라스	-12690
▁에칭	-12691
▁연봉	-12692
▁영광	-12693
▁인원	-12694
▁일도	-12695
▁정통	-12696
▁챗봇	-12697
▁파산	-12698
▁퍼블	-12699
기준에	-12700
렸다고	-12701
했었다	-12702
▁되기를	-12703
▁발전과	-12704
▁상품에	-12705
▁서버를	-12706
▁의원도	-12707
▁직원은	-12708
▁트랜스포	-12709
▁확진환자	-12710
모터쇼에서	-12711
▁닦	-12712
심판	-12713
잖아	-12714
하길	-12715
▁겪은	-12716
▁나뉘	-12717
▁불을	-12718
▁인류	-12719
▁조율	-12720
▁척추	-12721
▁효능	-12722
교육에	-12723
단에서	-12724
▁감동을	-12725
▁경제에	-12726
▁다음의	-12727
▁성장에	-12728
▁시책을	-12729
▁저장된	-12730
▁펼치는	-12731
▁방문하는	-12732
▁수익률이	-12733
▁전국에서	-12734
▁고객들에게	-12735
▁동남아시아	-12736
▁현대차그룹은	-12737
BA	-12738
FP	-12739
렉시	-12740
조로	-12741
▁78	-12742
▁IC	-12743
▁강점	-12744
▁낮춰	-12745
▁대가	-12746
▁솔로	-12747
▁익스	-12748
▁채팅	-12749
지기도	-12750
▁과학적	-12751
▁답변을	-12752
▁디지탈	-12753
▁리니지	-12754
▁받고자	-12755
▁방송에	-12756
▁성장과	-12757
▁심재철	-12758
▁얘기가	-12759
▁업계가	-12760
▁중이던	-12761
▁지지율	-12762
▁출시될	-12763
▁받으면서	-12764
▁알려줄래	-12765
▁운영되고	-12766
▁카메라가	-12767
▁판단하는	-12768
▁운영하고자	-12769
▁출시한다고	-12770
면과	-12771
여부	-12772
조작	-12773
▁감추	-12774
▁골목	-12775
▁과열	-12776
▁내릴	-12777
▁링크	-12778
▁문학	-12779
▁총리	-12780
▁팔아	-12781
▁피드	-12782
네트웍	-12783
스타일	-12784
컴퍼니	-12785
▁만나는	-12786
▁바이어	-12787
▁사회가	-12788
▁서대문	-12789
▁열악한	-12790
▁트로트	-12791
하였다고	-12792
▁도지사가	-12793
▁보건의료	-12794
▁부작용이	-12795
▁콘텐츠가	-12796
▁어플리케이션	-12797
강을	-12798
강의	-12799
선택	-12800
세종	-12801
연동	-12802
▁공업	-12803
▁교정	-12804
▁낮출	-12805
▁넉넉	-12806
▁높을	-12807
▁늘리	-12808
▁두루	-12809
▁방위	-12810
▁스태	-12811
▁청정	-12812
▁피의	-12813
▁협박	-12814
됐으나	-12815
베이터	-12816
시장과	-12817
치면서	-12818
▁개선한	-12819
▁구입할	-12820
▁백화점	-12821
▁사례로	-12822
▁선착순	-12823
▁시동을	-12824
▁얘기를	-12825
▁여지가	-12826
▁운영과	-12827
▁조치로	-12828
▁회장을	-12829
▁효과는	-12830
▁그러니까	-12831
고속	-12832
산은	-12833
서류	-12834
조리	-12835
팀의	-12836
해줄	-12837
▁69	-12838
▁가죽	-12839
▁값이	-12840
▁박스	-12841
▁왜냐	-12842
▁자를	-12843
▁코나	-12844
▁한도	-12845
▁화질	-12846
해달라	-12847
▁감독은	-12848
▁게임은	-12849
▁끝나면	-12850
▁부문의	-12851
▁비전을	-12852
▁새누리	-12853
▁서식에	-12854
▁투자할	-12855
▁프리랜	-12856
데이터를	-12857
상공회의	-12858
▁6000	-12859
▁높아진다	-12860
▁발표하고	-12861
▁부담한다	-12862
▁비롯하여	-12863
▁이스라엘	-12864
▁이용자의	-12865
▁사로잡았다	-12866
76	-12867
거든	-12868
심은	-12869
지대	-12870
▁"4	-12871
▁넘지	-12872
▁되자	-12873
▁신탁	-12874
▁이뤘	-12875
▁짐작	-12876
▁칼럼	-12877
▁투과	-12878
▁특이	-12879
▁폭염	-12880
▁하니	-12881
산업을	-12882
신호의	-12883
▁계기판	-12884
▁고용부	-12885
▁금액은	-12886
▁기술인	-12887
▁도널드	-12888
▁변화는	-12889
▁여름철	-12890
▁영상은	-12891
▁전달할	-12892
▁차지한	-12893
▁터미널	-12894
▁부드러운	-12895
▁서울에서	-12896
▁스트레스	-12897
▁신청하면	-12898
▁적용하여	-12899
▁하겠다는	-12900
SE	-12901
경험	-12902
관제	-12903
토론	-12904
▁기체	-12905
▁부장	-12906
▁소진	-12907
▁정동	-12908
의학과	-12909
자리에	-12910
▁끊이지	-12911
▁단계로	-12912
▁받았던	-12913
▁상품권	-12914
▁원칙을	-12915
기아차는	-12916
만원에서	-12917
▁개선하고	-12918
▁산업재해	-12919
▁통화에서	-12920
▁확인하기	-12921
바바	-12922
시경	-12923
aaS	-12924
▁88	-12925
▁My	-12926
▁경감	-12927
▁내역	-12928
▁목포	-12929
▁소매	-12930
▁신년	-12931
▁이겨	-12932
▁읽고	-12933
▁진도	-12934
▁챙겨	-12935
공장은	-12936
대책을	-12937
보험은	-12938
▁강화한	-12939
▁공동체	-12940
▁부부가	-12941
▁안정성	-12942
▁의석을	-12943
▁정신을	-12944
▁제거할	-12945
▁할리우	-12946
▁홍준표	-12947
▁고용안정	-12948
▁구성하여	-12949
▁그렇다고	-12950
▁금융위는	-12951
▁대대적인	-12952
▁아니하다	-12953
▁출시한다	-12954
▁투자자들의	-12955
44	-12956
▁톨	-12957
마는	-12958
마크	-12959
만개	-12960
부총	-12961
온은	-12962
일까	-12963
해가	-12964
▁낮게	-12965
▁말은	-12966
▁보컬	-12967
▁소정	-12968
보르기	-12969
수단을	-12970
시간은	-12971
▁나누는	-12972
▁대국민	-12973
▁새마을	-12974
▁안타깝	-12975
▁주어진	-12976
▁하나를	-12977
▁매력적인	-12978
▁이루어진다	-12979
▁지난해보다	-12980
당권	-12981
세와	-12982
진영	-12983
해볼	-12984
▁과장	-12985
▁권유	-12986
▁시일	-12987
▁전직	-12988
▁혹시	-12989
수당을	-12990
▁각호의	-12991
▁달라질	-12992
▁물량이	-12993
▁불거진	-12994
▁제기된	-12995
▁캐패시	-12996
▁케이스	-12997
▁강화하기	-12998
▁공개하고	-12999
▁업체들의	-13000
▁연결되는	-13001
▁웨어러블	-13002
▁인식하고	-13003
▁장소에서	-13004
▁제조하는	-13005
▁중소기업이	-13006
▁갚	-13007
▁턱	-13008
개념	-13009
급적	-13010
▁나름	-13011
▁붉은	-13012
▁살인	-13013
▁승무	-13014
▁종전	-13015
▁중재	-13016
▁평범	-13017
는지를	-13018
환자는	-13019
회의는	-13020
휴직을	-13021
▁구성한	-13022
▁레이더	-13023
▁민생당	-13024
▁일일이	-13025
▁단체협약	-13026
▁중에서는	-13027
▁처음부터	-13028
▁더불어민주당은	-13029
데도	-13030
동작	-13031
둘러	-13032
인인	-13033
▁간염	-13034
▁더블	-13035
▁분열	-13036
▁사찰	-13037
▁속출	-13038
▁주축	-13039
▁탐구	-13040
업계가	-13041
운영할	-13042
▁균형을	-13043
▁기독교	-13044
▁세상에	-13045
▁안내를	-13046
▁유럽의	-13047
▁의혹에	-13048
▁잇달아	-13049
▁판단해	-13050
▁확보가	-13051
▁공간으로	-13052
▁꼬집었다	-13053
▁대구에서	-13054
▁변동성이	-13055
▁살아가는	-13056
▁점검하고	-13057
▁이동통신단말	-13058
▁캄	-13059
라가	-13060
맞은	-13061
뮤직	-13062
아직	-13063
아트	-13064
음과	-13065
의결	-13066
중심	-13067
▁그게	-13068
▁대항	-13069
▁들은	-13070
▁분이	-13071
▁블룸	-13072
▁소환	-13073
▁실손	-13074
▁양쪽	-13075
▁집합	-13076
행사를	-13077
▁강화된	-13078
▁균일한	-13079
▁극심한	-13080
▁김씨는	-13081
▁노이즈	-13082
▁물질이	-13083
▁밖에도	-13084
▁성명을	-13085
▁알코올	-13086
▁외부로	-13087
▁위주의	-13088
텔레콤이	-13089
▁돌아왔다	-13090
▁원격수업	-13091
▁자회사인	-13092
▁트렌드를	-13093
▁소프트뱅크	-13094
▁최저임금을	-13095
∼1	-13096
▁율	-13097
망과	-13098
홍보	-13099
희는	-13100
▁감기	-13101
▁거창	-13102
▁당기	-13103
▁매개	-13104
▁실력	-13105
▁웅진	-13106
▁자존	-13107
▁황금	-13108
기업은	-13109
브랜드	-13110
집니다	-13111
▁광진구	-13112
▁무거운	-13113
▁사용된	-13114
▁생산된	-13115
▁성분이	-13116
▁성장한	-13117
▁스토어	-13118
▁인원이	-13119
▁제작해	-13120
▁체제로	-13121
▁협업해	-13122
▁흥미를	-13123
▁1987	-13124
▁기준금리	-13125
▁연결되어	-13126
▁우리에게	-13127
▁자신에게	-13128
▁확대한다	-13129
▁2020'	-13130
▁있었습니다	-13131
문은	-13132
분리	-13133
저는	-13134
통이	-13135
하늘	-13136
후의	-13137
ISA	-13138
▁갔다	-13139
▁바가	-13140
▁버퍼	-13141
▁소위	-13142
▁알지	-13143
▁차입	-13144
▁투약	-13145
▁허리	-13146
였는데	-13147
▁규칙은	-13148
▁다행히	-13149
▁수사에	-13150
▁취지다	-13151
▁들어오는	-13152
▁약속했다	-13153
▁어렵다고	-13154
▁전략공천	-13155
▁전문가가	-13156
▁초과하는	-13157
▁방역당국은	-13158
▁추가경정예산	-13159
러가	-13160
로이	-13161
미국	-13162
배송	-13163
법규	-13164
서버	-13165
오가	-13166
tic	-13167
▁대치	-13168
▁메타	-13169
▁멜로	-13170
▁부평	-13171
▁호평	-13172
국장은	-13173
기아차	-13174
▁GPS	-13175
▁검색어	-13176
▁고민이	-13177
▁설립을	-13178
▁워크숍	-13179
▁의원총	-13180
▁이목이	-13181
▁향상과	-13182
▁현저히	-13183
▁고용부는	-13184
▁비용으로	-13185
▁있었으나	-13186
▁종래에는	-13187
▁개인정보를	-13188
▁브리핑에서	-13189
▁한국자동차	-13190
VD	-13191
WD	-13192
▁x	-13193
▁앨	-13194
바퀴	-13195
방전	-13196
출산	-13197
▁겨우	-13198
▁설렘	-13199
▁이병	-13200
▁인출	-13201
▁재단	-13202
라이프	-13203
▁나라의	-13204
▁사라진	-13205
▁직장인	-13206
▁희망을	-13207
▁넷플릭스	-13208
▁있어서는	-13209
▁체결하고	-13210
In	-13211
트릭	-13212
▁of	-13213
▁놓인	-13214
▁몸이	-13215
▁수송	-13216
▁신원	-13217
▁외의	-13218
▁직격	-13219
▁쿠폰	-13220
여명을	-13221
이거나	-13222
종으로	-13223
▁개최한	-13224
▁고려대	-13225
▁끝나는	-13226
▁디즈니	-13227
▁문제와	-13228
▁세련된	-13229
▁영화는	-13230
▁요금제	-13231
▁위반한	-13232
▁오픈뱅킹	-13233
▁유지하기	-13234
▁인사들이	-13235
▁직접고용	-13236
시스템에서	-13237
▁국내에서도	-13238
▁선제적으로	-13239
▁긴급재난지원금	-13240
▁콰	-13241
운수	-13242
▁밀폐	-13243
▁연쇄	-13244
▁위안	-13245
▁유엔	-13246
▁재학	-13247
▁적격	-13248
▁체질	-13249
동에서	-13250
▁가까워	-13251
▁간담회	-13252
▁고개를	-13253
▁공장은	-13254
▁공정에	-13255
▁구체적	-13256
▁기계적	-13257
▁나누고	-13258
▁병원은	-13259
▁상당수	-13260
▁상승한	-13261
▁영등포	-13262
▁오래된	-13263
▁지니고	-13264
▁진출한	-13265
▁협의체	-13266
▁공동대표	-13267
▁국민들의	-13268
▁스펙트럼	-13269
▁인플루언	-13270
▁자유로운	-13271
▁주문했다	-13272
▁자발적으로	-13273
▁애플리케이션을	-13274
▁났	-13275
▁컵	-13276
사진	-13277
여자	-13278
풀이	-13279
19'	-13280
▁EN	-13281
▁법조	-13282
▁붙잡	-13283
▁응모	-13284
▁전제	-13285
▁정유	-13286
▁차폐	-13287
▁컴백	-13288
▁허브	-13289
▁아끼지	-13290
▁장거리	-13291
▁중점을	-13292
▁하락한	-13293
▁회의록	-13294
▁구성됐다	-13295
▁노동자를	-13296
▁왜냐하면	-13297
▁조사하고	-13298
▁텔레비전	-13299
▁노동자들은	-13300
▁단계적으로	-13301
▁설립되었다	-13302
▁신종코로나	-13303
▁벼	-13304
동은	-13305
용이	-13306
SQL	-13307
▁갈아	-13308
▁과감	-13309
▁관통	-13310
▁네덜	-13311
▁수성	-13312
▁야생	-13313
▁의정	-13314
▁잔여	-13315
▁줄고	-13316
병원의	-13317
성장을	-13318
▁구글의	-13319
▁모양의	-13320
▁발표를	-13321
▁산업은	-13322
▁수익이	-13323
▁전하는	-13324
▁하므로	-13325
적이라는	-13326
▁7000	-13327
▁대상에서	-13328
▁사업자가	-13329
▁지지하는	-13330
▁확정했다	-13331
되었습니다	-13332
II	-13333
SK	-13334
난을	-13335
스쿨	-13336
조는	-13337
▁"1	-13338
▁9,	-13339
▁in	-13340
▁강구	-13341
▁교민	-13342
▁났다	-13343
▁드림	-13344
▁레버	-13345
▁협회	-13346
사업체	-13347
키스탄	-13348
▁900	-13349
▁공유할	-13350
▁구글은	-13351
▁기반한	-13352
▁나서야	-13353
▁오른쪽	-13354
▁전압을	-13355
▁주소를	-13356
▁최선의	-13357
▁클래식	-13358
▁편안한	-13359
▁한국토	-13360
텔레콤과	-13361
▁느껴지는	-13362
▁밝혀졌다	-13363
▁소유권이	-13364
▁출시했다고	-13365
▁흙	-13366
기존	-13367
년생	-13368
립을	-13369
보유	-13370
선수	-13371
장려	-13372
창출	-13373
특허	-13374
학술	-13375
해외	-13376
▁낮다	-13377
▁대개	-13378
▁댁내	-13379
▁돕고	-13380
▁어긋	-13381
▁열이	-13382
▁일선	-13383
▁자국	-13384
▁전이	-13385
▁퍼져	-13386
▁표를	-13387
▁화순	-13388
▁검찰총	-13389
▁되었고	-13390
▁미래차	-13391
▁받도록	-13392
▁사례도	-13393
▁사용에	-13394
▁서로의	-13395
▁예방에	-13396
▁카테고	-13397
▁토요일	-13398
▁확인이	-13399
▁공격적인	-13400
▁파운드리	-13401
ss	-13402
th	-13403
스레	-13404
증은	-13405
타입	-13406
플라	-13407
∼30	-13408
▁거둔	-13409
▁공백	-13410
▁구할	-13411
▁미루	-13412
▁엔터	-13413
▁측근	-13414
▁평면	-13415
수칙을	-13416
일수록	-13417
▁건물을	-13418
▁계약이	-13419
▁그에게	-13420
▁끝나고	-13421
▁발생이	-13422
▁빠졌다	-13423
▁억제할	-13424
▁영역의	-13425
▁유니콘	-13426
▁팰리세	-13427
▁화면에	-13428
▁급증하고	-13429
▁생산성이	-13430
▁통상임금	-13431
▁운전자에게	-13432
▁한시적으로	-13433
노동조합총연맹	-13434
론의	-13435
WHO	-13436
▁CO	-13437
▁DC	-13438
▁KE	-13439
▁개표	-13440
▁부추	-13441
▁옆에	-13442
▁파라	-13443
방식을	-13444
인력을	-13445
증으로	-13446
▁드러내	-13447
▁마련을	-13448
▁문제다	-13449
▁사업주	-13450
▁접근할	-13451
▁조건이	-13452
▁차종의	-13453
▁참여가	-13454
▁청문회	-13455
▁필요에	-13456
▁형태가	-13457
▁극복하기	-13458
▁역동적인	-13459
▁학교폭력	-13460
▁스마트폰의	-13461
▁제공하고자	-13462
▁세계보건기구	-13463
AV	-13464
IB	-13465
ps	-13466
라클	-13467
맞춤	-13468
인구	-13469
출연	-13470
▁디스	-13471
▁부양	-13472
▁소중	-13473
▁여신	-13474
▁용접	-13475
▁흡입	-13476
▁놀라운	-13477
▁느끼고	-13478
▁릴레이	-13479
▁수출이	-13480
▁심상정	-13481
▁없어서	-13482
▁지도부	-13483
적이었다	-13484
▁본회의에	-13485
▁음성인식	-13486
▁공식적으로	-13487
MD	-13488
렉션	-13489
리자	-13490
마스	-13491
박사	-13492
장도	-13493
트롯	-13494
하듯	-13495
▁관행	-13496
▁만일	-13497
▁오직	-13498
▁유죄	-13499
▁좁은	-13500
▁착신	-13501
▁촛불	-13502
프레임	-13503
▁규정된	-13504
▁마침내	-13505
▁변속기	-13506
▁순매도	-13507
▁우위를	-13508
▁의결을	-13509
▁장관과	-13510
▁중심에	-13511
▁집으로	-13512
▁간단하게	-13513
▁구매하는	-13514
▁람보르기	-13515
▁부위원장	-13516
▁서면으로	-13517
▁식약처는	-13518
▁앱스토어	-13519
▁특별연장	-13520
▁포함된다	-13521
▁MMORPG	-13522
리안	-13523
운행	-13524
패를	-13525
▁각광	-13526
▁감찰	-13527
▁공존	-13528
▁멈춰	-13529
▁모른	-13530
▁전선	-13531
▁출생	-13532
▁가정용	-13533
▁노동계	-13534
▁본교는	-13535
▁손가락	-13536
▁올해로	-13537
▁확인을	-13538
억원에서	-13539
▁떨어지고	-13540
▁알레르기	-13541
▁어디서나	-13542
▁일각에선	-13543
▁전송하는	-13544
▁측정하는	-13545
▁판단이다	-13546
▁본회의에서	-13547
▁최고위원은	-13548
교를	-13549
병이	-13550
하실	-13551
▁김포	-13552
▁니켈	-13553
▁발산	-13554
▁상처	-13555
▁실종	-13556
▁악영	-13557
▁직속	-13558
▁평탄	-13559
레이튼	-13560
행위가	-13561
활동이	-13562
▁API	-13563
▁건물의	-13564
▁생긴다	-13565
▁식사를	-13566
▁식약처	-13567
▁일본은	-13568
▁접촉을	-13569
▁정치인	-13570
▁합의한	-13571
담보대출	-13572
해달라고	-13573
▁예상보다	-13574
▁일자리가	-13575
▁주도권을	-13576
▁추천해줘	-13577
▁활동하는	-13578
▁선택적으로	-13579
변화	-13580
지표	-13581
톨릭	-13582
▁거기	-13583
▁고충	-13584
▁신당	-13585
▁역설	-13586
▁있으	-13587
▁직영	-13588
▁취향	-13589
▁혈관	-13590
▁호환	-13591
기본법	-13592
정부의	-13593
프로젝	-13594
▁0.0	-13595
▁공개돼	-13596
▁과감한	-13597
▁나오면	-13598
▁발언이	-13599
▁설치를	-13600
▁시기가	-13601
▁위기가	-13602
▁증시가	-13603
▁흐름이	-13604
▁1950	-13605
▁나타내고	-13606
▁내놓았다	-13607
▁부가가치	-13608
▁블룸버그	-13609
▁전략으로	-13610
문과	-13611
손실	-13612
시길	-13613
▁공진	-13614
▁싸움	-13615
▁어쩔	-13616
원에게	-13617
테크놀	-13618
회장이	-13619
▁당사자	-13620
▁대표로	-13621
▁라이트	-13622
▁모습에	-13623
▁보도에	-13624
▁부분의	-13625
▁생각할	-13626
▁야당이	-13627
▁에디션	-13628
▁오프로	-13629
▁주장에	-13630
▁시행한다	-13631
▁이용하고	-13632
▁전자담배	-13633
▁플러그인	-13634
▁민주노총은	-13635
의학	-13636
▁교보	-13637
▁깨닫	-13638
▁넥센	-13639
▁년간	-13640
▁돼야	-13641
▁물갈	-13642
▁분비	-13643
▁악용	-13644
▁양보	-13645
▁유독	-13646
▁정년	-13647
▁출전	-13648
특성을	-13649
▁AWS	-13650
▁강세를	-13651
▁국산화	-13652
▁모터를	-13653
▁예방할	-13654
▁전에는	-13655
▁접목한	-13656
▁주가는	-13657
대한민국	-13658
으로서의	-13659
▁전환하는	-13660
▁출연한다	-13661
▁플랫폼은	-13662
▁디스플레이를	-13663
NG	-13664
방울	-13665
변환	-13666
재와	-13667
책이	-13668
텃밭	-13669
CES	-13670
▁됐고	-13671
▁소니	-13672
▁소홀	-13673
▁양이	-13674
▁형상	-13675
스토랑	-13676
스트가	-13677
▁기준은	-13678
▁대구시	-13679
▁부사장	-13680
▁수익률	-13681
▁스위스	-13682
▁역사적	-13683
▁처리에	-13684
▁취지의	-13685
▁표현할	-13686
▁확대로	-13687
사업으로	-13688
안전보건	-13689
▁건강관리	-13690
▁계획하고	-13691
▁국가에서	-13692
▁수탁자는	-13693
▁아버지가	-13694
▁제공했다	-13695
▁주행거리	-13696
▁학교생활	-13697
▁화웨이는	-13698
▁유지하면서	-13699
▁일시적으로	-13700
▁장기적으로	-13701
▁중앙선거관리	-13702
▁닭	-13703
▁붐	-13704
업은	-13705
유니	-13706
참가	-13707
추천	-13708
특례	-13709
피아	-13710
▁가사	-13711
▁김승	-13712
▁달린	-13713
▁달할	-13714
▁대두	-13715
▁맞붙	-13716
▁부드	-13717
▁상여	-13718
▁코일	-13719
물질이	-13720
베이거	-13721
보고서	-13722
▁기법을	-13723
▁나이가	-13724
▁됐다는	-13725
▁에피소	-13726
▁예컨대	-13727
▁위법이	-13728
▁음압병	-13729
▁적절히	-13730
▁성장했다	-13731
▁신속하고	-13732
▁전문가들의	-13733
권도	-13734
드림	-13735
정도	-13736
주지	-13737
CGI	-13738
ess	-13739
▁계류	-13740
▁글이	-13741
▁비준	-13742
▁안고	-13743
▁여섯	-13744
▁이게	-13745
▁중성	-13746
백화점	-13747
으로의	-13748
▁계약직	-13749
▁금융사	-13750
▁맞추어	-13751
▁부드럽	-13752
▁불공정	-13753
▁수단을	-13754
▁있었기	-13755
하였는데	-13756
▁감소하는	-13757
▁국제표준	-13758
▁소비자를	-13759
▁알리바바	-13760
심의위원회	-13761
▁라스베이거	-13762
▁증가하면서	-13763
▁소프트웨어를	-13764
▁수소연료전지	-13765
1'	-13766
가공	-13767
방해	-13768
호트	-13769
▁농민	-13770
▁신동	-13771
▁연도	-13772
▁화폐	-13773
방법은	-13774
▁도시의	-13775
▁무증상	-13776
▁생산한	-13777
▁수당을	-13778
▁이보다	-13779
▁일제히	-13780
▁조속히	-13781
▁총선이	-13782
▁투쟁을	-13783
▁1989	-13784
▁급증했다	-13785
▁네이버가	-13786
▁만성질환	-13787
▁배우들이	-13788
▁요구된다	-13789
▁인정하고	-13790
▁관련해서는	-13791
▁인포테인먼트	-13792
가구	-13793
프터	-13794
▁98	-13795
▁발족	-13796
▁서킷	-13797
▁자의	-13798
▁적고	-13799
▁증빙	-13800
▁콘솔	-13801
▁태풍	-13802
비용이	-13803
상황에	-13804
수수료	-13805
▁CBS	-13806
▁고안의	-13807
▁듯하다	-13808
▁라이선	-13809
▁미스터	-13810
▁미얀마	-13811
▁성격이	-13812
▁센터를	-13813
▁수사가	-13814
▁외부의	-13815
▁원리를	-13816
▁자리가	-13817
▁자발적	-13818
▁전극을	-13819
▁조화를	-13820
▁체험을	-13821
▁판매대	-13822
▁호흡을	-13823
되었다고	-13824
▁자아낸다	-13825
▁취소한다	-13826
▁투자자가	-13827
셀러레이터	-13828
▁알려지면서	-13829
▁취약계층의	-13830
▁페이스북은	-13831
▁맑	-13832
▁킹	-13833
간접	-13834
분해	-13835
용역	-13836
추홀	-13837
포털	-13838
플랜	-13839
▁XC	-13840
▁감싸	-13841
▁금천	-13842
▁대지	-13843
▁미성	-13844
▁속의	-13845
▁외주	-13846
▁원유	-13847
▁이력	-13848
▁즐기	-13849
▁터져	-13850
사업법	-13851
▁느끼게	-13852
▁달리는	-13853
▁변경할	-13854
▁위험에	-13855
▁의미로	-13856
▁차례로	-13857
▁최고급	-13858
▁강조하고	-13859
▁기금운용	-13860
▁선사했다	-13861
▁있는지를	-13862
▁픽업트럭	-13863
▁정규직으로	-13864
EX	-13865
IA	-13866
▁갤	-13867
경비	-13868
군수	-13869
배출	-13870
지출	-13871
향후	-13872
▁그와	-13873
▁날인	-13874
▁내면	-13875
▁반해	-13876
▁아산	-13877
▁영재	-13878
▁오고	-13879
▁위장	-13880
▁유세	-13881
▁참조	-13882
▁출원	-13883
▁클럭	-13884
시켜야	-13885
이어야	-13886
회사는	-13887
▁감소로	-13888
▁거라고	-13889
▁아이오	-13890
▁운전석	-13891
▁익숙한	-13892
▁젊은이	-13893
▁폭넓은	-13894
▁후베이	-13895
대변인은	-13896
▁대목이다	-13897
▁벤처기업	-13898
▁상용화를	-13899
▁설치되는	-13900
▁위원장과	-13901
▁정신질환	-13902
▁판매되는	-13903
▁패키지를	-13904
각이	-13905
르며	-13906
워킹	-13907
원칙	-13908
▁솔직	-13909
▁쇄신	-13910
▁숫자	-13911
▁일명	-13912
▁자라	-13913
▁저해	-13914
▁한껏	-13915
▁해임	-13916
▁해치	-13917
렸지만	-13918
지거나	-13919
▁건축물	-13920
▁관계에	-13921
▁금리인	-13922
▁기소된	-13923
▁남겼다	-13924
▁낮추는	-13925
▁당시의	-13926
▁방안에	-13927
▁비주얼	-13928
▁소통을	-13929
▁수차례	-13930
▁업로드	-13931
▁요청이	-13932
▁중소형	-13933
▁증가해	-13934
▁한하여	-13935
▁않는다면	-13936
▁앞으로의	-13937
▁자산운용	-13938
▁제로페이	-13939
▁중요성이	-13940
▁확대했다	-13941
ct	-13942
▁앵	-13943
▁펭	-13944
게는	-13945
곡을	-13946
로만	-13947
리드	-13948
받기	-13949
하의	-13950
▁가늠	-13951
▁공학	-13952
▁누락	-13953
▁무척	-13954
▁성취	-13955
▁세분	-13956
▁얻기	-13957
▁천재	-13958
대통령	-13959
리고자	-13960
실적을	-13961
업체에	-13962
▁결합된	-13963
▁말하며	-13964
▁약속을	-13965
▁예측할	-13966
▁워싱턴	-13967
▁의식을	-13968
▁탓이다	-13969
▁확진된	-13970
▁힘들다	-13971
▁1988	-13972
▁파생결합	-13973
▁활용하면	-13974
▁후보자는	-13975
IG	-13976
▁[	-13977
▁헨	-13978
딩을	-13979
리움	-13980
욕을	-13981
철이	-13982
ack	-13983
▁거점	-13984
▁국고	-13985
▁당권	-13986
▁덜어	-13987
▁막판	-13988
▁봐도	-13989
▁삼척	-13990
▁선대	-13991
▁수료	-13992
▁촉발	-13993
▁후방	-13994
사업이	-13995
안에서	-13996
회장은	-13997
▁근무한	-13998
▁상승을	-13999
▁신경을	-14000
▁아들이	-14001
▁외부에	-14002
▁인물이	-14003
▁자료의	-14004
▁전환이	-14005
▁광범위한	-14006
▁기대되는	-14007
▁기업은행	-14008
▁생산되는	-14009
▁이용자는	-14010
▁한국문화	-14011
범죄수사처	-14012
▁확진환자가	-14013
55	-14014
▁빵	-14015
▁뻔	-14016
간을	-14017
년여	-14018
렸을	-14019
브는	-14020
▁SS	-14021
▁가축	-14022
▁상주	-14023
▁질소	-14024
드래곤	-14025
▁경우와	-14026
▁구민의	-14027
▁박원순	-14028
▁변수가	-14029
▁변화의	-14030
▁봉준호	-14031
▁부서의	-14032
▁사건은	-14033
▁소형차	-14034
▁수명을	-14035
▁정은경	-14036
▁통과한	-14037
▁특별법	-14038
빅데이터	-14039
▁감소하고	-14040
▁고려해야	-14041
▁서스펜션	-14042
▁선택하는	-14043
▁인터페이	-14044
▁지속되고	-14045
▁지원했다	-14046
▁진단검사를	-14047
▁소비자들에게	-14048
▁더불어민주당과	-14049
니처	-14050
부족	-14051
원장	-14052
전남	-14053
치와	-14054
▁간병	-14055
▁대세	-14056
▁부를	-14057
▁상해	-14058
▁여건	-14059
▁우세	-14060
▁전당	-14061
▁진지	-14062
▁팀이	-14063
수업을	-14064
▁개발도	-14065
▁구성돼	-14066
▁기기의	-14067
▁더구나	-14068
▁민주화	-14069
▁부문은	-14070
▁임의로	-14071
▁적용이	-14072
▁전자파	-14073
▁참가를	-14074
▁찾아볼	-14075
▁특징이	-14076
▁합리적	-14077
사회복지	-14078
▁대형마트	-14079
▁문자메시	-14080
▁지급하고	-14081
▁토요타는	-14082
특별위원회	-14083
경에	-14084
론에	-14085
안보	-14086
없다	-14087
▁감동	-14088
▁경품	-14089
▁네트	-14090
▁대륙	-14091
▁벗어	-14092
▁수시	-14093
▁실어	-14094
▁영위	-14095
▁원리	-14096
▁절실	-14097
▁제보	-14098
▁지어	-14099
▁출장	-14100
▁플립	-14101
▁간단히	-14102
▁명단을	-14103
▁사랑의	-14104
▁스프링	-14105
▁전체에	-14106
▁주시면	-14107
▁즐겁게	-14108
▁지나지	-14109
▁출시가	-14110
▁하루에	-14111
▁대부분을	-14112
▁문화체육	-14113
▁설명하는	-14114
▁이동하는	-14115
▁개발했다고	-14116
▁공개적으로	-14117
▁하겠습니다	-14118
▁스마트팩토리	-14119
66	-14120
9,	-14121
ee	-14122
공연	-14123
매가	-14124
블랙	-14125
블루	-14126
승인	-14127
시효	-14128
역량	-14129
은이	-14130
친구	-14131
ard	-14132
ell	-14133
▁남부	-14134
▁멋진	-14135
▁부피	-14136
▁안다	-14137
▁이준	-14138
▁주춤	-14139
▁튼튼	-14140
근무를	-14141
상이다	-14142
증권은	-14143
▁가입을	-14144
▁그러다	-14145
▁늘어났	-14146
▁배우는	-14147
▁변경을	-14148
▁사례다	-14149
▁상처를	-14150
▁시설이	-14151
▁아름다	-14152
▁업무가	-14153
▁운영해	-14154
▁펼쳤다	-14155
생명과학	-14156
▁1993	-14157
▁TSMC	-14158
▁경고했다	-14159
▁마이너스	-14160
▁못하도록	-14161
▁수익성이	-14162
▁시작된다	-14163
▁업계에서	-14164
▁상황에서도	-14165
레벨	-14166
지식	-14167
출납	-14168
▁규탄	-14169
▁기도	-14170
▁나눴	-14171
▁답답	-14172
▁세트	-14173
▁주연	-14174
▁함양	-14175
▁합법	-14176
기술이	-14177
만명에	-14178
어머니	-14179
지난해	-14180
▁각국의	-14181
▁거기에	-14182
▁검토할	-14183
▁도입된	-14184
▁유권자	-14185
▁의사의	-14186
▁적자를	-14187
▁정신적	-14188
았습니다	-14189
▁강조하는	-14190
▁분석하는	-14191
▁사업계획	-14192
▁사회관계	-14193
▁신기술을	-14194
▁전년보다	-14195
▁즐거움을	-14196
▁가능합니다	-14197
간이	-14198
구민	-14199
동력	-14200
멘트	-14201
속을	-14202
우지	-14203
운반	-14204
월의	-14205
회복	-14206
▁87	-14207
▁깔끔	-14208
▁대를	-14209
▁서부	-14210
▁세력	-14211
▁쉽다	-14212
▁쟁의	-14213
▁저온	-14214
▁조지	-14215
▁투기	-14216
▁플로	-14217
▁혼잡	-14218
됐는데	-14219
센터로	-14220
함으로	-14221
▁그었다	-14222
▁급속히	-14223
▁당국의	-14224
▁도덕적	-14225
▁드러난	-14226
▁많았고	-14227
▁무제한	-14228
▁셀트리	-14229
▁신재생	-14230
▁측정할	-14231
▁통증이	-14232
▁기다리는	-14233
▁살펴보고	-14234
▁신뢰성이	-14235
▁운전자는	-14236
▁중요하다고	-14237
▁중앙방역대책본부는	-14238
교가	-14239
발의	-14240
요구	-14241
전국	-14242
현황	-14243
ist	-14244
▁3.	-14245
▁결산	-14246
▁동행	-14247
▁분실	-14248
▁시키	-14249
▁염려	-14250
▁원통	-14251
▁재선	-14252
▁직렬	-14253
업계에	-14254
제품의	-14255
하우스	-14256
▁감정이	-14257
▁공약을	-14258
▁공정의	-14259
▁국민을	-14260
▁깨끗한	-14261
▁끝으로	-14262
▁닛산은	-14263
▁된다면	-14264
▁않거나	-14265
▁외에는	-14266
▁접어들	-14267
▁특징은	-14268
▁공동연구	-14269
▁기울이고	-14270
▁담당하고	-14271
▁데이터에	-14272
▁부족으로	-14273
▁예방하기	-14274
▁전문가를	-14275
▁지정하는	-14276
pl	-14277
▁떡	-14278
러리	-14279
▁규명	-14280
▁복제	-14281
▁복직	-14282
▁잡는	-14283
▁잡을	-14284
▁전과	-14285
▁친화	-14286
▁팽창	-14287
계에서	-14288
네이버	-14289
만원대	-14290
▁경선을	-14291
▁고민을	-14292
▁되므로	-14293
▁등록한	-14294
▁미세한	-14295
▁사유를	-14296
▁식이다	-14297
▁양해각	-14298
▁접목해	-14299
▁지나면	-14300
▁질환을	-14301
▁통보를	-14302
▁통합을	-14303
▁현상은	-14304
▁흐름에	-14305
▁개선하여	-14306
▁경상남도	-14307
▁비상대책	-14308
▁평생교육	-14309
▁필수적인	-14310
▁플랫폼이다	-14311
▁:	-14312
▁굽	-14313
재에	-14314
천여	-14315
혁명	-14316
ion	-14317
▁간다	-14318
▁막고	-14319
▁배울	-14320
▁아픔	-14321
▁열차	-14322
▁음료	-14323
▁짓고	-14324
일에도	-14325
환자의	-14326
▁교직원	-14327
▁구매를	-14328
▁구성이	-14329
▁만나볼	-14330
▁물품을	-14331
▁변동이	-14332
▁유상증	-14333
▁일으켜	-14334
▁정도에	-14335
▁조치에	-14336
▁트렌드	-14337
모터쇼에	-14338
▁그렇지만	-14339
▁나타낸다	-14340
▁데이터는	-14341
▁법제사법	-14342
▁보수통합	-14343
▁유럽연합	-14344
▁있어서의	-14345
▁찾아가는	-14346
▁판매하고	-14347
▁퍼포먼스	-14348
MB	-14349
시비	-14350
자녀	-14351
접종	-14352
차게	-14353
채무	-14354
ore	-14355
▁73	-14356
▁82	-14357
▁더한	-14358
▁바닷	-14359
▁벌여	-14360
▁찍어	-14361
▁충당	-14362
▁표기	-14363
명령을	-14364
업체와	-14365
층에서	-14366
▁경찰청	-14367
▁국회는	-14368
▁대응이	-14369
▁뜻한다	-14370
▁소비가	-14371
▁아이의	-14372
▁조정을	-14373
▁조직이	-14374
▁취득한	-14375
라이언스	-14376
▁구비하는	-14377
▁줄기세포	-14378
▁후문이다	-14379
▁학교생활을	-14380
▁선별진료소를	-14381
론과	-14382
스런	-14383
져서	-14384
igh	-14385
ure	-14386
▁6·	-14387
▁과시	-14388
▁당첨	-14389
▁매립	-14390
▁방정	-14391
▁빨간	-14392
▁손꼽	-14393
▁작고	-14394
▁재밌	-14395
▁점거	-14396
▁해산	-14397
단체의	-14398
우리가	-14399
▁WHO	-14400
▁공략에	-14401
▁구하는	-14402
▁그림을	-14403
▁리브라	-14404
▁메이크	-14405
▁베이스	-14406
▁원스톱	-14407
▁월평균	-14408
▁좀처럼	-14409
▁패널을	-14410
되더라도	-14411
크스바겐	-14412
▁공무원의	-14413
▁내년에는	-14414
▁불과했다	-14415
▁외부에서	-14416
▁안내하오니	-14417
▁인정받았다	-14418
▁지역에서는	-14419
84	-14420
ES	-14421
▁쳐	-14422
기초	-14423
세탁	-14424
애플	-14425
어붙	-14426
음식	-14427
인수	-14428
티를	-14429
패키	-14430
품목	-14431
확진	-14432
▁골드	-14433
▁귀속	-14434
▁그랬	-14435
▁리어	-14436
▁병렬	-14437
▁순서	-14438
▁종업	-14439
▁칠곡	-14440
주의를	-14441
처리를	-14442
커니즘	-14443
판으로	-14444
▁CNS	-14445
▁공감을	-14446
▁기록할	-14447
▁라인을	-14448
▁발행한	-14449
▁성격을	-14450
▁역사상	-14451
▁우선순	-14452
▁유증상	-14453
▁측면이	-14454
▁캐리어	-14455
▁표준화	-14456
시스템이	-14457
▁이어진다	-14458
▁주민들의	-14459
▁체험학습	-14460
▁팩시밀리	-14461
▁포함하고	-14462
▁4,000	-14463
▁국회의원이	-14464
AC	-14465
▁랭	-14466
▁싣	-14467
강화	-14468
드니	-14469
란이	-14470
목표	-14471
배달	-14472
사한	-14473
열에	-14474
우와	-14475
치면	-14476
카는	-14477
테이	-14478
▁그날	-14479
▁날아	-14480
▁내정	-14481
▁치유	-14482
▁가족을	-14483
▁그래핀	-14484
▁내리는	-14485
▁문자를	-14486
▁박사는	-14487
▁방대한	-14488
▁병원이	-14489
▁부모가	-14490
▁자체의	-14491
▁접수된	-14492
▁줄줄이	-14493
▁편하게	-14494
▁표시장	-14495
▁핵심은	-14496
▁현실화	-14497
▁환자에	-14498
▁5·18	-14499
▁KCGI	-14500
▁사진에는	-14501
▁상품으로	-14502
▁수준에서	-14503
▁스마트홈	-14504
▁점유율이	-14505
▁친구들과	-14506
▁근로자들이	-14507
▁대한민국의	-14508
결산	-14509
명씩	-14510
스위	-14511
지연	-14512
▁CB	-14513
▁간이	-14514
▁권익	-14515
▁김선	-14516
▁꾸려	-14517
▁꾸며	-14518
▁당진	-14519
▁수명	-14520
▁심층	-14521
▁올리	-14522
▁전일	-14523
▁참관	-14524
▁초선	-14525
나가는	-14526
린다는	-14527
원이다	-14528
자와의	-14529
컨설팅	-14530
▁거치지	-14531
▁공개해	-14532
▁구성할	-14533
▁기록해	-14534
▁무대가	-14535
▁상대방	-14536
▁용산구	-14537
▁이유에	-14538
▁주도한	-14539
▁팬들은	-14540
▁활용을	-14541
▁나머지는	-14542
▁디자인이	-14543
▁멤버들이	-14544
▁방문하여	-14545
▁시점에서	-14546
▁이곳에서	-14547
▁조절하는	-14548
▁차단하는	-14549
▁가능해진다	-14550
▁긍정적으로	-14551
NK	-14552
∼9	-14553
기사	-14554
나고	-14555
남기	-14556
란을	-14557
빈이	-14558
추행	-14559
▁96	-14560
▁가압	-14561
▁골라	-14562
▁맞고	-14563
▁잡기	-14564
▁토스	-14565
소상공	-14566
업체를	-14567
항에서	-14568
▁검증을	-14569
▁교수와	-14570
▁달성할	-14571
▁이후로	-14572
▁전보다	-14573
▁제조용	-14574
▁컨버터	-14575
위원장과	-14576
케스트라	-14577
▁강화한다	-14578
▁보호하고	-14579
▁부산에서	-14580
▁악영향을	-14581
▁제한하는	-14582
▁중이라고	-14583
▁플랫폼과	-14584
▁해당되는	-14585
▁핵심이다	-14586
▁바이러스를	-14587
ub	-14588
▁샀	-14589
교의	-14590
상한	-14591
워치	-14592
커넥	-14593
타다	-14594
▁St	-14595
▁동구	-14596
▁바쁘	-14597
▁부터	-14598
▁소켓	-14599
▁어쩌	-14600
▁열려	-14601
▁주무	-14602
▁증설	-14603
▁트윈	-14604
공사의	-14605
라디오	-14606
보험료	-14607
서류를	-14608
적이지	-14609
▁가급적	-14610
▁법원의	-14611
▁본사를	-14612
▁사람에	-14613
▁이용에	-14614
▁주행이	-14615
▁지방세	-14616
▁효과도	-14617
▁1992	-14618
▁보이지만	-14619
▁아이들을	-14620
▁제시하고	-14621
▁제외하면	-14622
▁해소하기	-14623
▁1,500	-14624
▁음극선관의	-14625
▁라임자산운용	-14626
?"	-14627
▁l	-14628
겨울	-14629
경과	-14630
고지	-14631
납부	-14632
면세	-14633
사지	-14634
▁개장	-14635
▁국적	-14636
▁다해	-14637
▁무작	-14638
▁민관	-14639
▁실망	-14640
▁앱은	-14641
▁이룰	-14642
▁조원	-14643
▁주위	-14644
기기를	-14645
사이드	-14646
으로만	-14647
▁각별한	-14648
▁개학을	-14649
▁골자로	-14650
▁원인은	-14651
▁자문을	-14652
▁접수한	-14653
▁제출할	-14654
▁합의에	-14655
▁신제품을	-14656
▁전기차의	-14657
▁추가했다	-14658
▁해외여행	-14659
유플러스가	-14660
▁람보르기니	-14661
▁현실적으로	-14662
▁《	-14663
▁흩	-14664
내역	-14665
서리	-14666
십자	-14667
피언	-14668
▁가결	-14669
▁라우	-14670
▁오신	-14671
▁잠금	-14672
▁정형	-14673
▁출현	-14674
▁취할	-14675
▁헤어	-14676
▁호선	-14677
방에서	-14678
캐피털	-14679
▁가속화	-14680
▁개정을	-14681
▁공개될	-14682
▁교사가	-14683
▁기다려	-14684
▁남편이	-14685
▁다이얼	-14686
▁매뉴얼	-14687
▁모드를	-14688
▁불과한	-14689
▁색다른	-14690
▁수명이	-14691
▁엄격한	-14692
▁여부와	-14693
▁이재용	-14694
▁전망을	-14695
▁제네바	-14696
▁통신망	-14697
자율주행	-14698
▁나타나지	-14699
▁소비자는	-14700
▁연구진이	-14701
▁출시하고	-14702
▁할리우드	-14703
CI	-14704
▁w	-14705
글로	-14706
운을	-14707
▁복무	-14708
▁볼륨	-14709
▁최강	-14710
▁칩을	-14711
▁테러	-14712
▁프라	-14713
군에서	-14714
기술의	-14715
문화재	-14716
실리콘	-14717
▁공간의	-14718
▁국정감	-14719
▁내세워	-14720
▁대비한	-14721
▁미만의	-14722
▁바람을	-14723
▁비대위	-14724
▁상고를	-14725
▁순매수	-14726
▁신선한	-14727
▁안팎의	-14728
▁애널리	-14729
▁양상을	-14730
▁업무의	-14731
▁일하고	-14732
▁차질을	-14733
▁태어나	-14734
▁하도급	-14735
구청장은	-14736
였습니다	-14737
▁독보적인	-14738
▁미쓰비시	-14739
▁발견했다	-14740
▁사용료를	-14741
▁자신만의	-14742
것도	-14743
규가	-14744
디는	-14745
셈블	-14746
술한	-14747
이로	-14748
증과	-14749
편에	-14750
▁극히	-14751
▁돌연	-14752
▁본딩	-14753
▁위배	-14754
가능한	-14755
계약이	-14756
곳으로	-14757
▁교수의	-14758
▁구매한	-14759
▁사업화	-14760
▁수용할	-14761
▁예상치	-14762
▁적용돼	-14763
▁조치다	-14764
▁지급한	-14765
▁창출을	-14766
▁파장이	-14767
▁데이터와	-14768
▁도입하는	-14769
▁않더라도	-14770
▁억제하는	-14771
▁업계에선	-14772
▁유지했다	-14773
▁존재하지	-14774
▁직격탄을	-14775
▁추진하기	-14776
프로그램을	-14777
두는	-14778
디가	-14779
막에	-14780
사원	-14781
저널	-14782
집에	-14783
채가	-14784
▁ET	-14785
▁각급	-14786
▁공용	-14787
▁동해	-14788
▁명에	-14789
▁버티	-14790
▁안의	-14791
▁약정	-14792
▁양을	-14793
가들이	-14794
개사가	-14795
본부장	-14796
부분을	-14797
였으나	-14798
조사가	-14799
▁1·2	-14800
▁겨냥해	-14801
▁공정이	-14802
▁기관에	-14803
▁노조와	-14804
▁물질의	-14805
▁삼성의	-14806
▁연기가	-14807
▁이해가	-14808
▁일련의	-14809
▁임기가	-14810
▁제고를	-14811
▁커머스	-14812
▁협의회	-14813
▁계속되고	-14814
▁부산지역	-14815
▁상반기에	-14816
▁우려했다	-14817
▁첨부하여	-14818
▁근로자에게	-14819
89	-14820
대장	-14821
묘한	-14822
배로	-14823
청와	-14824
▁공원	-14825
▁귀여	-14826
▁기피	-14827
▁때와	-14828
▁모의	-14829
▁보류	-14830
▁시한	-14831
▁쏘울	-14832
▁정경	-14833
▁중립	-14834
▁체불	-14835
▁터널	-14836
분부터	-14837
▁2.5	-14838
▁USB	-14839
▁과거에	-14840
▁다음에	-14841
▁대회를	-14842
▁맞물려	-14843
▁면적이	-14844
▁미성년	-14845
▁벤츠는	-14846
▁보안을	-14847
▁보호할	-14848
▁부부의	-14849
▁비용의	-14850
▁속도는	-14851
▁시장과	-14852
▁시행을	-14853
▁안전에	-14854
▁앱으로	-14855
▁오디션	-14856
▁전지가	-14857
▁제목의	-14858
▁참가할	-14859
망서비스	-14860
▁국토부는	-14861
▁기존에는	-14862
▁디자인은	-14863
▁민간위탁	-14864
▁오토바이	-14865
▁인정받아	-14866
▁특수고용	-14867
▁MySQL	-14868
▁관리하여야	-14869
▁이어지면서	-14870
▁뻗	-14871
▁힙	-14872
기만	-14873
락이	-14874
러시	-14875
르다	-14876
업의	-14877
회원	-14878
희의	-14879
▁71	-14880
▁결렬	-14881
▁남원	-14882
▁내일	-14883
▁마일	-14884
▁발맞	-14885
▁않자	-14886
▁오리	-14887
▁우정	-14888
▁즐겨	-14889
▁지은	-14890
▁패드	-14891
교육감	-14892
테크노	-14893
해야만	-14894
협의체	-14895
▁관리와	-14896
▁되는지	-14897
▁무기한	-14898
▁부산의	-14899
▁설비를	-14900
▁센터의	-14901
▁소식에	-14902
▁쇼케이	-14903
▁시장조	-14904
▁언제든	-14905
▁전자식	-14906
▁전지에	-14907
▁추세를	-14908
▁출범한	-14909
▁파악해	-14910
▁파우치	-14911
▁혼란을	-14912
프라이즈	-14913
▁개선하기	-14914
▁구성되는	-14915
▁구성했다	-14916
▁부산시는	-14917
▁설명하고	-14918
▁줄어들고	-14919
▁공기청정기	-14920
▁주기적으로	-14921
82	-14922
▁숭	-14923
모든	-14924
민간	-14925
보사	-14926
천만	-14927
화상	-14928
▁강성	-14929
▁만만	-14930
▁잦은	-14931
▁지부	-14932
▁크레	-14933
량으로	-14934
상적인	-14935
▁가처분	-14936
▁농산물	-14937
▁도입할	-14938
▁목표는	-14939
▁송파구	-14940
▁영화에	-14941
현장에서	-14942
▁사회에서	-14943
▁포인트를	-14944
▁바이러스에	-14945
▁플랫폼에서	-14946
▁고위공직자범죄수사처	-14947
경색	-14948
물리	-14949
법안	-14950
벤션	-14951
신과	-14952
코딩	-14953
형성	-14954
▁83	-14955
▁계승	-14956
▁교직	-14957
▁사정	-14958
▁일간	-14959
▁자구	-14960
▁초저	-14961
▁훌쩍	-14962
검진을	-14963
군으로	-14964
내용을	-14965
메리카	-14966
산업은	-14967
▁것들이	-14968
▁공사를	-14969
▁관악구	-14970
▁무게가	-14971
▁에이치	-14972
▁완전한	-14973
▁원칙에	-14974
▁의료비	-14975
▁이견이	-14976
▁이메일	-14977
▁정개특	-14978
▁정도는	-14979
▁키우고	-14980
▁파업이	-14981
되었는데	-14982
▁관객들의	-14983
▁모르겠다	-14984
▁제출했다	-14985
▁참여하지	-14986
▁환자들의	-14987
▁최종적으로	-14988
▁갓	-14989
기용	-14990
메모	-14991
변을	-14992
보존	-14993
전담	-14994
제일	-14995
▁경합	-14996
▁등재	-14997
▁몰래	-14998
▁범행	-14999
▁씨의	-15000
▁암호	-15001
▁월급	-15002
▁잔류	-15003
▁증인	-15004
▁카니	-15005
▁카본	-15006
▁팀을	-15007
▁필드	-15008
▁하에	-15009
▁훈훈	-15010
사무소	-15011
위원이	-15012
조원에	-15013
▁ENM	-15014
▁PCB	-15015
▁모델과	-15016
▁모두의	-15017
▁바라며	-15018
▁원활히	-15019
▁지정할	-15020
▁초부터	-15021
▁투자와	-15022
▁프랑크	-15023
▁행위에	-15024
▁서울시가	-15025
▁연구에서	-15026
▁용이하고	-15027
▁이해하는	-15028
▁재미있는	-15029
▁한국산업	-15030
▁암호화폐를	-15031
▁폴크스바겐	-15032
79	-15033
OR	-15034
감치	-15035
과제	-15036
반의	-15037
▁갖췄	-15038
▁국한	-15039
▁근절	-15040
▁김치	-15041
▁남구	-15042
▁네이	-15043
▁달에	-15044
▁러브	-15045
▁선명	-15046
▁성북	-15047
▁영수	-15048
▁입자	-15049
▁지내	-15050
중앙회	-15051
찌감치	-15052
▁로드맵	-15053
▁생중계	-15054
▁성질을	-15055
▁순이익	-15056
▁아직은	-15057
▁원으로	-15058
▁정당의	-15059
▁중국을	-15060
▁지켜야	-15061
▁차종이	-15062
▁투표용	-15063
▁활력을	-15064
드라이브	-15065
▁간격으로	-15066
▁만들어야	-15067
▁보여줬다	-15068
▁없으므로	-15069
▁원고에게	-15070
▁유가증권	-15071
▁진행되며	-15072
▁실시하여야	-15073
▁끓	-15074
▁붓	-15075
고기	-15076
내외	-15077
민원	-15078
코어	-15079
트륨	-15080
패널	-15081
포지	-15082
행성	-15083
▁가라	-15084
▁나눌	-15085
▁다큐	-15086
▁답을	-15087
▁동백	-15088
▁비유	-15089
▁야구	-15090
▁이경	-15091
▁이끈	-15092
▁청산	-15093
▁탈출	-15094
▁테라	-15095
단계로	-15096
보디아	-15097
올림픽	-15098
환자를	-15099
▁1·4	-15100
▁HDC	-15101
▁감소할	-15102
▁기금을	-15103
▁더해져	-15104
▁밀접한	-15105
▁상황과	-15106
▁숫자가	-15107
▁아이들	-15108
▁영화제	-15109
▁적외선	-15110
▁전극의	-15111
▁초대형	-15112
▁태어난	-15113
▁학교가	-15114
시키도록	-15115
텔레콤의	-15116
▁명확하게	-15117
▁자산관리	-15118
▁치료하는	-15119
▁판매량을	-15120
▁월화드라마	-15121
▁일방적으로	-15122
▁트랜지스터의	-15123
▁삼성디스플레이	-15124
43	-15125
▁텔	-15126
리나	-15127
진보	-15128
페라	-15129
호출	-15130
훈의	-15131
▁TK	-15132
▁박형	-15133
▁불복	-15134
▁운항	-15135
▁파는	-15136
▁폭락	-15137
▁현직	-15138
보건소	-15139
▁고강도	-15140
▁선택해	-15141
▁알아야	-15142
▁예방과	-15143
▁차지할	-15144
▁타인의	-15145
▁화학적	-15146
▁경제성장	-15147
▁급격하게	-15148
▁기획재정	-15149
▁당시에는	-15150
▁모두에게	-15151
▁받아들일	-15152
▁벌써부터	-15153
▁전자부품	-15154
▁주도하고	-15155
▁주최하고	-15156
▁준비했다	-15157
▁출신으로	-15158
▁민주평화당	-15159
▁어린이들의	-15160
▁산업통상자원부	-15161
ha	-15162
받게	-15163
슈타	-15164
촬상	-15165
함은	-15166
POP	-15167
▁개량	-15168
▁말미	-15169
▁발탁	-15170
▁불합	-15171
▁수반	-15172
▁시위	-15173
▁아픈	-15174
▁연루	-15175
▁제반	-15176
▁콘크	-15177
▁폴드	-15178
사항이	-15179
전략을	-15180
조에서	-15181
책임자	-15182
▁급성장	-15183
▁노출된	-15184
▁두께를	-15185
▁때로는	-15186
▁부문에	-15187
▁성실히	-15188
▁연기로	-15189
▁이렇다	-15190
▁자외선	-15191
▁구비하여	-15192
▁발견됐다	-15193
▁언급하며	-15194
▁원격의료	-15195
▁정체성을	-15196
▁주한미군	-15197
▁금융당국이	-15198
▁업데이트를	-15199
」,	-15200
빈의	-15201
수리	-15202
와이	-15203
종은	-15204
준은	-15205
호선	-15206
▁낸다	-15207
▁다층	-15208
▁수확	-15209
▁치아	-15210
▁합창	-15211
▁후배	-15212
공장의	-15213
년마다	-15214
대상은	-15215
문으로	-15216
봅니다	-15217
전지에	-15218
차이즈	-15219
▁고객과	-15220
▁나오자	-15221
▁부족해	-15222
▁부진한	-15223
▁업체로	-15224
▁연구의	-15225
▁연장할	-15226
▁있었을	-15227
▁정부를	-15228
▁차관은	-15229
▁휴대전	-15230
▁발표한다	-15231
▁시민사회	-15232
▁전문가로	-15233
▁정의당이	-15234
▁주목하고	-15235
▁통합당의	-15236
▁역학조사를	-15237
▁롱	-15238
눈에	-15239
더를	-15240
배당	-15241
벽을	-15242
유공	-15243
주입	-15244
측의	-15245
침을	-15246
net	-15247
▁개헌	-15248
▁기득	-15249
▁눌러	-15250
▁마비	-15251
▁마포	-15252
▁만화	-15253
▁보냈	-15254
▁사외	-15255
▁오너	-15256
▁이건	-15257
▁재원	-15258
▁점심	-15259
▁주를	-15260
새로운	-15261
연동형	-15262
전압을	-15263
정부는	-15264
회의에	-15265
▁개최할	-15266
▁거뒀다	-15267
▁데이트	-15268
▁동아리	-15269
▁맡는다	-15270
▁불투명	-15271
▁사실에	-15272
▁생방송	-15273
▁수업이	-15274
▁수출을	-15275
▁시행된	-15276
▁장애가	-15277
▁제작에	-15278
▁조사는	-15279
▁조직의	-15280
▁주택을	-15281
▁포즈를	-15282
▁공개하는	-15283
▁보고서에	-15284
▁손해보험	-15285
▁자랑한다	-15286
▁충청북도	-15287
▁컴퓨터를	-15288
▁감사드리며	-15289
▁근로자들의	-15290
▁스타트업의	-15291
▁집단감염이	-15292
▁쉴	-15293
검색	-15294
야당	-15295
음성	-15296
진출	-15297
HEV	-15298
▁계정	-15299
▁동부	-15300
▁로켓	-15301
▁삼고	-15302
▁설사	-15303
▁세븐	-15304
▁영혼	-15305
▁인덱	-15306
▁전설	-15307
▁프랜	-15308
▁한데	-15309
▁교육은	-15310
▁국민청	-15311
▁그러자	-15312
▁내놓는	-15313
▁대학의	-15314
▁증가를	-15315
▁지사는	-15316
▁충격에	-15317
▁코호트	-15318
▁트위터	-15319
▁활용이	-15320
▁회사로	-15321
▁회사와	-15322
▁나서면서	-15323
▁설명한다	-15324
▁연구팀이	-15325
▁의미하는	-15326
▁이끌었다	-15327
▁높아지면서	-15328
동맥	-15329
요청	-15330
우선	-15331
월을	-15332
자연	-15333
카페	-15334
▁고교	-15335
▁고사	-15336
▁그로	-15337
▁높지	-15338
▁두통	-15339
▁무분	-15340
▁소스	-15341
▁신앙	-15342
▁우라	-15343
▁주신	-15344
▁헌혈	-15345
지역을	-15346
▁CNN	-15347
▁논의할	-15348
▁먹거리	-15349
▁면모를	-15350
▁부착된	-15351
▁생기면	-15352
▁소재의	-15353
▁안전과	-15354
▁우즈베	-15355
▁원자력	-15356
▁의원에	-15357
▁점검을	-15358
▁제시할	-15359
▁조건에	-15360
▁진행을	-15361
▁혼다는	-15362
▁홍보를	-15363
▁흘러나	-15364
▁디자인의	-15365
▁떠올랐다	-15366
▁반발하고	-15367
▁사이트를	-15368
▁사전예약	-15369
▁아우르는	-15370
▁의원에게	-15371
▁플랫폼의	-15372
▁사각지대에	-15373
▁시청자들을	-15374
▁페이스북이	-15375
▁필요합니다	-15376
▁족	-15377
버튼	-15378
사히	-15379
용직	-15380
orm	-15381
▁기둥	-15382
▁기쁘	-15383
▁뜨거	-15384
▁마트	-15385
▁선형	-15386
▁온갖	-15387
그동안	-15388
시스코	-15389
조건을	-15390
▁ETF	-15391
▁NCM	-15392
▁경기를	-15393
▁구비된	-15394
▁기업가	-15395
▁나라가	-15396
▁만기가	-15397
▁모습과	-15398
▁모이는	-15399
▁연예인	-15400
▁윈도우	-15401
▁주시는	-15402
▁중에도	-15403
▁중으로	-15404
▁포토레	-15405
폭스바겐	-15406
▁과도하게	-15407
▁받았지만	-15408
▁발굴하고	-15409
▁불편함을	-15410
▁생각하면	-15411
▁요양병원	-15412
▁컨테이너	-15413
▁이루어졌다	-15414
▁현대자동차는	-15415
감지	-15416
결핵	-15417
경로	-15418
공해	-15419
따라	-15420
용의	-15421
저를	-15422
적일	-15423
전체	-15424
집이	-15425
▁급변	-15426
▁다툼	-15427
▁독거	-15428
▁바꿨	-15429
▁배양	-15430
▁장외	-15431
▁집값	-15432
▁하동	-15433
구의회	-15434
모터스	-15435
▁강도를	-15436
▁대학원	-15437
▁만났다	-15438
▁물었다	-15439
▁미추홀	-15440
▁바꾸고	-15441
▁시설에	-15442
▁아무도	-15443
▁야당의	-15444
▁완료된	-15445
▁위상을	-15446
▁이르고	-15447
▁취업자	-15448
▁파티클	-15449
▁하나씩	-15450
▁해운대	-15451
마이크로	-15452
▁감염자가	-15453
▁압도적인	-15454
▁인터뷰를	-15455
▁자본시장	-15456
▁전문적인	-15457
▁정부에서	-15458
▁학교운영	-15459
▁프로그램인	-15460
▁쌍용자동차가	-15461
▁젠	-15462
생물	-15463
시트	-15464
시피	-15465
업자	-15466
▁"3	-15467
▁귀를	-15468
▁근대	-15469
▁당국	-15470
▁모뎀	-15471
▁물건	-15472
▁승소	-15473
▁얇은	-15474
▁연소	-15475
▁좁아	-15476
▁직관	-15477
▁청사	-15478
▁휴식	-15479
사이버	-15480
후보는	-15481
▁3·4	-15482
▁개혁을	-15483
▁것인데	-15484
▁경영진	-15485
▁로맨스	-15486
▁법원은	-15487
▁실시해	-15488
▁않기로	-15489
▁압력을	-15490
▁이명박	-15491
▁정권의	-15492
▁주장도	-15493
▁트랜스	-15494
계에서는	-15495
장치에서	-15496
▁기점으로	-15497
▁받았으며	-15498
▁운영하며	-15499
▁전시장을	-15500
▁기준금리를	-15501
87	-15502
고와	-15503
긴급	-15504
미노	-15505
여대	-15506
특히	-15507
▁SF	-15508
▁검거	-15509
▁미달	-15510
▁박지	-15511
▁살해	-15512
▁에지	-15513
▁연차	-15514
▁적힌	-15515
▁해를	-15516
▁현안	-15517
동으로	-15518
소자를	-15519
점검을	-15520
▁대단히	-15521
▁동력을	-15522
▁말하면	-15523
▁발의한	-15524
▁불량을	-15525
▁서둘러	-15526
▁성분을	-15527
▁시급한	-15528
▁아래에	-15529
▁없거나	-15530
▁예산안	-15531
▁이상은	-15532
▁이하인	-15533
▁일본과	-15534
▁재료를	-15535
▁전자총	-15536
▁주시고	-15537
▁펼쳐질	-15538
▁한국형	-15539
졌습니다	-15540
▁개최되는	-15541
▁부작용을	-15542
▁의사결정	-15543
▁전형적인	-15544
▁정의당은	-15545
▁주민자치	-15546
▁판단한다	-15547
▁국토교통부	-15548
▁때문이라는	-15549
▁사회적경제	-15550
▁원내대표의	-15551
▁진행되었다	-15552
▁참고하시기	-15553
▁포털사이트	-15554
!"	-15555
▁g	-15556
▁록	-15557
나래	-15558
비한	-15559
업과	-15560
축을	-15561
크루	-15562
▁냉동	-15563
▁묻자	-15564
▁바뀔	-15565
▁받던	-15566
▁보람	-15567
▁사옥	-15568
▁산입	-15569
▁세션	-15570
▁아트	-15571
▁오지	-15572
▁우호	-15573
▁원주	-15574
▁유성	-15575
▁임산	-15576
▁접할	-15577
▁취미	-15578
▁퇴근	-15579
▁해명	-15580
▁해커	-15581
르면서	-15582
치료제	-15583
휴가를	-15584
▁고부가	-15585
▁공매도	-15586
▁놀라게	-15587
▁만하다	-15588
▁미국을	-15589
▁사태와	-15590
▁서버에	-15591
▁싶다는	-15592
▁알려주	-15593
▁양성을	-15594
▁일반인	-15595
▁페이지	-15596
▁8000	-15597
▁이르렀다	-15598
▁지역주민	-15599
▁파격적인	-15600
▁포함되지	-15601
▁르노삼성차	-15602
▁소유권이전	-15603
▁프로세스를	-15604
▁기자회견에서	-15605
▁문화체육관광	-15606
병은	-15607
살이	-15608
상인	-15609
역할	-15610
특정	-15611
▁낮고	-15612
▁뇌졸	-15613
▁두뇌	-15614
▁메탈	-15615
▁안성	-15616
▁우회	-15617
▁윈도	-15618
▁유래	-15619
▁적당	-15620
시행령	-15621
인지를	-15622
하이닉	-15623
▁개시된	-15624
▁그레이	-15625
▁눈으로	-15626
▁분야가	-15627
▁사랑과	-15628
▁살펴볼	-15629
▁요청에	-15630
▁유익한	-15631
▁인사가	-15632
▁준비가	-15633
▁총력을	-15634
▁표현을	-15635
위원으로	-15636
▁건강하게	-15637
▁영향력이	-15638
▁협의하여	-15639
▁넥센타이어	-15640
▁폭스바겐은	-15641
▁해당한다고	-15642
공인	-15643
기억	-15644
모는	-15645
변이	-15646
색의	-15647
수칙	-15648
습관	-15649
챔버	-15650
▁강북	-15651
▁개관	-15652
▁노선	-15653
▁맞대	-15654
▁박용	-15655
▁보게	-15656
▁부근	-15657
▁비로	-15658
▁시켜	-15659
▁식민	-15660
▁안을	-15661
▁양식	-15662
기술과	-15663
소리를	-15664
운영을	-15665
월에도	-15666
▁공사가	-15667
▁기능에	-15668
▁당대표	-15669
▁면적을	-15670
▁분석에	-15671
▁속에는	-15672
▁실현할	-15673
▁이전의	-15674
▁인버터	-15675
▁정보에	-15676
▁처벌을	-15677
▁추가해	-15678
▁피하기	-15679
▁홍남기	-15680
▁확인돼	-15681
기관에서	-15682
▁건강하고	-15683
▁대응하고	-15684
▁둘러싸고	-15685
▁드라마를	-15686
▁무역전쟁	-15687
▁솔루션은	-15688
▁일찌감치	-15689
▁정치개혁	-15690
▁주의해야	-15691
▁한국영화	-15692
▁행정소송	-15693
▁가능하다고	-15694
▁최소화하는	-15695
▁국민건강보험	-15696
▁중앙방역대책본부	-15697
PI	-15698
다양	-15699
림의	-15700
목에	-15701
설치	-15702
세스	-15703
정밀	-15704
▁광산	-15705
▁눈높	-15706
▁눈앞	-15707
▁로밍	-15708
▁모호	-15709
▁밀봉	-15710
▁성실	-15711
▁아키	-15712
▁월간	-15713
▁포지	-15714
시기를	-15715
오피스	-15716
위원의	-15717
▁걱정이	-15718
▁경계를	-15719
▁구성원	-15720
▁범위가	-15721
▁소유자	-15722
▁수치다	-15723
▁신산업	-15724
▁신생아	-15725
▁양산을	-15726
▁이사장	-15727
▁있기를	-15728
▁지식과	-15729
▁함께한	-15730
선거대책	-15731
▁공개하며	-15732
▁등장한다	-15733
▁매장에서	-15734
▁안테나를	-15735
▁여기에는	-15736
▁영상으로	-15737
▁의료진의	-15738
▁의심되는	-15739
▁톨게이트	-15740
▁펼쳐진다	-15741
▁프랑크푸	-15742
소프트웨어	-15743
▁이용자들이	-15744
▁램	-15745
▁잭	-15746
▁탭	-15747
란스	-15748
말이	-15749
물품	-15750
예측	-15751
최저	-15752
추적	-15753
취약	-15754
▁걸음	-15755
▁공영	-15756
▁매번	-15757
▁알릴	-15758
▁옛날	-15759
▁원전	-15760
마저도	-15761
물질의	-15762
순이익	-15763
아파트	-15764
자치법	-15765
장이나	-15766
현상을	-15767
▁Pro	-15768
▁기관과	-15769
▁당연한	-15770
▁대리점	-15771
▁말아야	-15772
▁배우고	-15773
▁부문을	-15774
▁비밀을	-15775
▁적당한	-15776
▁조성에	-15777
▁지도를	-15778
▁지켜보	-15779
▁커넥터	-15780
▁쾌적한	-15781
▁형성한	-15782
브로드밴	-15783
▁근로자는	-15784
▁드라마가	-15785
▁면역력이	-15786
▁배기가스	-15787
▁배우들의	-15788
▁부분이다	-15789
▁시그니처	-15790
▁자녀들의	-15791
▁프리랜서	-15792
▁고용노동부는	-15793
단위	-15794
무효	-15795
비즈	-15796
유입	-15797
▁89	-15798
▁끝날	-15799
▁동래	-15800
▁딸이	-15801
▁물가	-15802
▁바디	-15803
▁부러	-15804
▁부속	-15805
▁비춰	-15806
▁안양	-15807
▁주당	-15808
▁출구	-15809
▁크롬	-15810
으려는	-15811
▁1,0	-15812
▁가하고	-15813
▁검진을	-15814
▁격차를	-15815
▁계획은	-15816
▁단체에	-15817
▁똑같이	-15818
▁문화의	-15819
▁미소를	-15820
▁배우가	-15821
▁사퇴를	-15822
▁시상식	-15823
▁신개념	-15824
▁역대급	-15825
▁영유아	-15826
▁유력한	-15827
▁재산을	-15828
▁제도적	-15829
▁증세를	-15830
▁카리스	-15831
인베스트	-15832
킬로미터	-15833
▁1200	-15834
▁권고했다	-15835
▁달성하기	-15836
▁마련하는	-15837
▁만족도를	-15838
▁유도하는	-15839
▁털어놨다	-15840
▁후보자를	-15841
▁중소기업과	-15842
-2	-15843
KT	-15844
▁땐	-15845
노래	-15846
부진	-15847
분과	-15848
선한	-15849
종에	-15850
타이	-15851
all	-15852
ice	-15853
▁거다	-15854
▁골든	-15855
▁난다	-15856
▁시티	-15857
▁일주	-15858
▁장의	-15859
▁조향	-15860
▁진실	-15861
▁단점이	-15862
▁대안을	-15863
▁문화재	-15864
▁바닥에	-15865
▁벤츠의	-15866
▁불어넣	-15867
▁서울과	-15868
▁센터는	-15869
▁신호가	-15870
▁열처리	-15871
▁우아한	-15872
▁의사와	-15873
▁장애를	-15874
▁제품인	-15875
▁한나라	-15876
▁항생제	-15877
▁구축한다	-15878
▁분석됐다	-15879
▁브리핑을	-15880
▁스위치를	-15881
▁실제로는	-15882
▁이해하기	-15883
▁자녀들이	-15884
▁전기모터	-15885
▁출시되는	-15886
▁토로했다	-15887
▁판매한다	-15888
▁확인한다	-15889
▁소비자들은	-15890
▁스마트폰과	-15891
▁인공지능을	-15892
▁프로그래밍	-15893
▁하반기부터	-15894
51	-15895
▁꽂	-15896
겁고	-15897
보좌	-15898
분은	-15899
심리	-15900
▁2.	-15901
▁PE	-15902
▁남지	-15903
▁방통	-15904
▁상을	-15905
▁신발	-15906
▁신천	-15907
▁인민	-15908
▁팽팽	-15909
▁표본	-15910
년간의	-15911
년만에	-15912
운전자	-15913
협력을	-15914
▁감소를	-15915
▁그런가	-15916
▁리서치	-15917
▁스파이	-15918
▁신청은	-15919
▁아동의	-15920
▁여당의	-15921
▁역으로	-15922
▁전동화	-15923
▁지정을	-15924
▁추가된	-15925
▁컷오프	-15926
▁평가는	-15927
▁항목을	-15928
▁활동은	-15929
혈관질환	-15930
▁개최하는	-15931
▁멤버들의	-15932
▁은행들이	-15933
▁작동하는	-15934
▁장점이다	-15935
▁환자들을	-15936
노동위원회	-15937
▁제공함으로써	-15938
▁사회관계망서비스	-15939
▁식품의약품안전처	-15940
ob	-15941
▁쿨	-15942
▁팁	-15943
재활	-15944
혁이	-15945
훈은	-15946
▁공산	-15947
▁당정	-15948
▁무서	-15949
▁비자	-15950
▁원에	-15951
▁주저	-15952
▁줬다	-15953
▁캠핑	-15954
거든요	-15955
기까지	-15956
대상자	-15957
브리핑	-15958
사랑의	-15959
사항은	-15960
▁결제가	-15961
▁다이오	-15962
▁박람회	-15963
▁배경을	-15964
▁세력이	-15965
▁수요는	-15966
▁암세포	-15967
▁이어서	-15968
▁챌린지	-15969
▁표면을	-15970
▁품질이	-15971
재난안전	-15972
함으로서	-15973
▁구현했다	-15974
▁기록하는	-15975
▁안전자산	-15976
▁않겠다는	-15977
▁영등포구	-15978
▁원고들의	-15979
▁유발하는	-15980
▁있음에도	-15981
▁자신들이	-15982
▁장착했다	-15983
▁콘퍼런스	-15984
▁하반기에	-15985
▁이노베이션	-15986
▁인공지능이	-15987
▁지식재산권	-15988
PP	-15989
예금	-15990
의약	-15991
취소	-15992
▁4%	-15993
▁AD	-15994
▁고공	-15995
▁교내	-15996
▁군수	-15997
▁농림	-15998
▁리뷰	-15999
▁사은	-16000
▁애로	-16001
▁원형	-16002
▁육군	-16003
▁잇는	-16004
▁자에	-16005
▁지사	-16006
▁짧아	-16007
▁텃밭	-16008
▁해시	-16009
▁후손	-16010
결과에	-16011
법원에	-16012
장비를	-16013
하고도	-16014
▁고안에	-16015
▁구글이	-16016
▁담보로	-16017
▁대응해	-16018
▁마그네	-16019
▁못지않	-16020
▁문제도	-16021
▁사업부	-16022
▁언론에	-16023
▁없었고	-16024
▁했으며	-16025
▁확대가	-16026
되었으나	-16027
지역으로	-16028
▁부여하는	-16029
▁착수했다	-16030
▁참가하는	-16031
▁카메라와	-16032
▁프로세서	-16033
▁감사하겠습니다	-16034
▁꽉	-16035
▁띈	-16036
간염	-16037
난한	-16038
두가	-16039
면역	-16040
바다	-16041
변호	-16042
아산	-16043
을지	-16044
청사	-16045
폴리	-16046
▁가세	-16047
▁끼워	-16048
▁눈물	-16049
▁모닝	-16050
▁생애	-16051
▁시판	-16052
▁오피	-16053
▁이윤	-16054
▁인덕	-16055
▁키즈	-16056
기준은	-16057
카드가	-16058
테스트	-16059
하자면	-16060
▁강동구	-16061
▁계속될	-16062
▁고가의	-16063
▁급증한	-16064
▁노력할	-16065
▁수치를	-16066
▁얻는다	-16067
▁여력이	-16068
▁운영이	-16069
▁조정이	-16070
▁중대형	-16071
▁지역과	-16072
▁지원은	-16073
▁평가할	-16074
▁평범한	-16075
▁과반수의	-16076
▁관하여는	-16077
▁근로복지	-16078
▁뛰어넘는	-16079
▁부족하다	-16080
▁상당수가	-16081
▁수립하고	-16082
▁정책위의	-16083
▁클러스터	-16084
▁확인되지	-16085
▁쌍용자동차	-16086
▁페이스북을	-16087
스퀘	-16088
아리	-16089
오지	-16090
윤리	-16091
축제	-16092
▁'2	-16093
▁7%	-16094
▁김광	-16095
▁당을	-16096
▁동월	-16097
▁머릿	-16098
▁배틀	-16099
▁안재	-16100
▁재량	-16101
▁프론	-16102
렌터카	-16103
문에서	-16104
우리는	-16105
차산업	-16106
▁3.0	-16107
▁IBK	-16108
▁기술도	-16109
▁마니아	-16110
▁마련에	-16111
▁문화적	-16112
▁부호화	-16113
▁섬세한	-16114
▁엔진에	-16115
▁오가는	-16116
▁유지를	-16117
▁이력이	-16118
▁일상을	-16119
▁제한을	-16120
▁준비해	-16121
연구원이	-16122
▁공급한다	-16123
▁메커니즘	-16124
▁있겠지만	-16125
▁청와대와	-16126
▁주택담보대출	-16127
▁형성함으로써	-16128
RO	-16129
ak	-16130
물인	-16131
베르	-16132
보의	-16133
세트	-16134
진행	-16135
총선	-16136
▁EQ	-16137
▁가끔	-16138
▁고의	-16139
▁국책	-16140
▁나쁘	-16141
▁동호	-16142
▁부패	-16143
▁알기	-16144
▁용도	-16145
▁정성	-16146
▁편이	-16147
▁평안	-16148
능력이	-16149
사실을	-16150
▁거리에	-16151
▁국방부	-16152
▁기기에	-16153
▁기회로	-16154
▁다르지	-16155
▁따르는	-16156
▁변경된	-16157
▁비행기	-16158
▁성적을	-16159
▁속으로	-16160
▁어셈블	-16161
▁이후의	-16162
▁인가를	-16163
▁저하를	-16164
▁저항을	-16165
▁전류가	-16166
▁제작할	-16167
▁제조할	-16168
▁진실을	-16169
▁최상위	-16170
▁피부에	-16171
▁하기도	-16172
▁늘어난다	-16173
▁방문했다	-16174
▁스페이스	-16175
▁일정하게	-16176
▁출시하는	-16177
▁해당하지	-16178
▁불완전판매	-16179
▁엘리베이터	-16180
▁프로그램과	-16181
se	-16182
▁갇	-16183
계로	-16184
곡이	-16185
레오	-16186
미애	-16187
법령	-16188
뷰티	-16189
사다	-16190
숙이	-16191
시마	-16192
업소	-16193
있고	-16194
중을	-16195
타는	-16196
할인	-16197
▁각하	-16198
▁넘은	-16199
▁때만	-16200
▁미쳤	-16201
▁뽑아	-16202
▁승합	-16203
▁원장	-16204
▁진천	-16205
▁파고	-16206
▁패배	-16207
로이드	-16208
모델링	-16209
였다고	-16210
오면서	-16211
▁12.	-16212
▁개선과	-16213
▁계정을	-16214
▁보았다	-16215
▁사태의	-16216
▁성남시	-16217
▁오류가	-16218
▁표현한	-16219
▁하다가	-16220
대회에서	-16221
으면서도	-16222
이었으나	-16223
▁기술력과	-16224
▁어울리는	-16225
▁중고차를	-16226
▁캄보디아	-16227
▁투자자의	-16228
▁한진그룹	-16229
▁현실적인	-16230
▁방탄소년단	-16231
▁클라우드를	-16232
▁자유한국당은	-16233
라리	-16234
연설	-16235
이제	-16236
증의	-16237
직장	-16238
포를	-16239
필름	-16240
필터	-16241
▁결심	-16242
▁나지	-16243
▁다리	-16244
▁모험	-16245
▁발라	-16246
▁본청	-16247
▁부응	-16248
▁북구	-16249
▁삭발	-16250
▁상반	-16251
▁성수	-16252
▁스핀	-16253
▁조화	-16254
▁주방	-16255
▁튜브	-16256
▁포도	-16257
▁표방	-16258
▁해방	-16259
는데도	-16260
렉트릭	-16261
장치와	-16262
▁ESS	-16263
▁건물이	-16264
▁계좌를	-16265
▁나라를	-16266
▁동선을	-16267
▁드디어	-16268
▁비하여	-16269
▁소속된	-16270
▁스케줄	-16271
▁콘셉트	-16272
하므로써	-16273
▁공급되는	-16274
▁바람직한	-16275
▁작품으로	-16276
▁적절하게	-16277
▁정확도를	-16278
▁제작하는	-16279
▁지원으로	-16280
▁차지한다	-16281
▁휴대폰을	-16282
▁시작하였다	-16283
▁신청하여야	-16284
▁예비후보는	-16285
공립	-16286
돈을	-16287
비티	-16288
인간	-16289
침해	-16290
카를	-16291
행복	-16292
▁HD	-16293
▁고대	-16294
▁고마	-16295
▁그해	-16296
▁날로	-16297
▁날카	-16298
▁내기	-16299
▁내로	-16300
▁발동	-16301
▁삶이	-16302
▁성명	-16303
▁술을	-16304
▁승격	-16305
▁예로	-16306
▁오차	-16307
▁외관	-16308
▁유한	-16309
▁재임	-16310
▁점용	-16311
▁집약	-16312
▁합당	-16313
▁화가	-16314
▁흑자	-16315
니스트	-16316
속도를	-16317
정책의	-16318
▁낮추고	-16319
▁다이아	-16320
▁되어야	-16321
▁명칭을	-16322
▁보다는	-16323
▁부위에	-16324
▁신사업	-16325
▁쓰레기	-16326
▁않겠다	-16327
▁자신과	-16328
▁자에게	-16329
▁준비에	-16330
▁크다고	-16331
▁폴리머	-16332
▁해준다	-16333
만원이다	-16334
하기에는	-16335
▁과태료를	-16336
▁금융상품	-16337
▁있었으며	-16338
▁진행하며	-16339
▁초기에는	-16340
▁추천하는	-16341
▁컨퍼런스	-16342
ip	-16343
·3	-16344
과세	-16345
동향	-16346
러의	-16347
비서	-16348
인원	-16349
판과	-16350
age	-16351
ork	-16352
▁낯선	-16353
▁민속	-16354
▁예수	-16355
▁죽은	-16356
▁줄인	-16357
▁춤을	-16358
▁토요	-16359
▁폭증	-16360
▁해가	-16361
▁헬스	-16362
▁힐링	-16363
교육과	-16364
스러워	-16365
전지는	-16366
▁MOU	-16367
▁감염자	-16368
▁공간은	-16369
▁관객을	-16370
▁기능성	-16371
▁꼼꼼히	-16372
▁발굴해	-16373
▁설정된	-16374
▁세계가	-16375
▁수출입	-16376
▁시간의	-16377
▁유럽과	-16378
▁유방암	-16379
▁자료가	-16380
▁최상의	-16381
▁컴팩트	-16382
▁공정위는	-16383
▁대표에게	-16384
▁떨어진다	-16385
▁이용해서	-16386
▁전달하고	-16387
▁전문가의	-16388
▁주최하는	-16389
▁파악하는	-16390
▁표시하는	-16391
▁개최한다고	-16392
▁결정했다고	-16393
▁두산중공업	-16394
▁자연스러운	-16395
!'	-16396
RC	-16397
▁줬	-16398
▁툴	-16399
▁헐	-16400
공이	-16401
비행	-16402
상생	-16403
씨에	-16404
유로	-16405
일째	-16406
좌석	-16407
헬스	-16408
화장	-16409
▁AC	-16410
▁권위	-16411
▁남는	-16412
▁늦게	-16413
▁일산	-16414
▁작게	-16415
▁전속	-16416
▁제명	-16417
▁종영	-16418
▁출사	-16419
▁치고	-16420
게임즈	-16421
닙니다	-16422
발전을	-16423
보험에	-16424
사항에	-16425
억원어	-16426
▁240	-16427
▁CGV	-16428
▁감독과	-16429
▁건수가	-16430
▁것이기	-16431
▁겪었다	-16432
▁결정은	-16433
▁무리한	-16434
▁시점을	-16435
▁유형의	-16436
▁차이로	-16437
▁환자로	-16438
▁활동과	-16439
▁경우에만	-16440
▁바뀌었다	-16441
▁정책으로	-16442
▁종사하는	-16443
▁지급하지	-16444
▁차량으로	-16445
▁평가하고	-16446
▁네이버페이	-16447
▁분야에서는	-16448
▁온라인에서	-16449
▁최소화하고	-16450
▁프로그램도	-16451
지방자치단체	-16452
?'	-16453
CB	-16454
VC	-16455
▁윗	-16456
나를	-16457
대체	-16458
루가	-16459
보지	-16460
사령	-16461
이든	-16462
지던	-16463
청소	-16464
케미	-16465
티넨	-16466
파는	-16467
푸드	-16468
형제	-16469
▁군소	-16470
▁김준	-16471
▁등극	-16472
▁법이	-16473
▁사료	-16474
▁승강	-16475
▁아인	-16476
▁전락	-16477
▁줄곧	-16478
▁청송	-16479
▁초에	-16480
▁클린	-16481
공단은	-16482
지로버	-16483
▁간격을	-16484
▁경쟁에	-16485
▁근거를	-16486
▁김대중	-16487
▁되기도	-16488
▁많은데	-16489
▁미쳤다	-16490
▁병원의	-16491
▁북한이	-16492
▁설정할	-16493
▁연락을	-16494
▁유쾌한	-16495
▁인근에	-16496
▁재학생	-16497
▁적었다	-16498
▁지원한	-16499
▁경상북도	-16500
▁금융시장	-16501
▁다양하고	-16502
▁반려동물	-16503
▁보험금을	-16504
▁이달부터	-16505
▁창의적인	-16506
▁하나하나	-16507
▁한국경제	-16508
▁기록했다고	-16509
▁블록체인을	-16510
거를	-16511
담한	-16512
실태	-16513
연과	-16514
요소	-16515
임상	-16516
입찰	-16517
파인	-16518
해결	-16519
pop	-16520
▁5.	-16521
▁갈라	-16522
▁경향	-16523
▁남을	-16524
▁무언	-16525
▁부스	-16526
▁불구	-16527
▁압전	-16528
▁앞다	-16529
▁영웅	-16530
▁원화	-16531
▁전폭	-16532
▁타는	-16533
▁학과	-16534
▁한가	-16535
공동체	-16536
메이트	-16537
증상이	-16538
▁1∼3	-16539
▁4+1	-16540
▁경사노	-16541
▁계약에	-16542
▁교섭을	-16543
▁규모에	-16544
▁그렇다	-16545
▁단순화	-16546
▁미래형	-16547
▁사업체	-16548
▁선거는	-16549
▁시기는	-16550
▁심리적	-16551
▁안건을	-16552
▁오라클	-16553
▁일본에	-16554
▁작가가	-16555
▁절반을	-16556
▁제작을	-16557
▁파일을	-16558
▁해소를	-16559
▁효율성	-16560
▁기간보다	-16561
▁산학협력	-16562
▁수익률을	-16563
▁오프로드	-16564
▁이뤄져야	-16565
▁처리한다	-16566
▁청소년의	-16567
▁펼쳐졌다	-16568
▁살펴보시고	-16569
▁기자간담회를	-16570
▁시장조사업체	-16571
88	-16572
급의	-16573
수용	-16574
조와	-16575
품의	-16576
프란	-16577
▁개교	-16578
▁고해	-16579
▁공주	-16580
▁국악	-16581
▁만났	-16582
▁맡게	-16583
▁부결	-16584
▁불꽃	-16585
▁액상	-16586
▁어댑	-16587
▁자로	-16588
▁전례	-16589
▁직결	-16590
▁체인	-16591
▁펼친	-16592
▁허락	-16593
색으로	-16594
제도가	-16595
호에서	-16596
▁220	-16597
▁내장된	-16598
▁노조에	-16599
▁미지수	-16600
▁발휘할	-16601
▁사진과	-16602
▁소지가	-16603
▁실시된	-16604
▁예고한	-16605
▁오르고	-16606
▁원고와	-16607
▁주었다	-16608
▁주호영	-16609
▁중국산	-16610
▁지적을	-16611
▁콰트로	-16612
▁타격이	-16613
▁한눈에	-16614
▁OECD	-16615
▁강조한다	-16616
▁경쟁에서	-16617
▁사법개혁	-16618
▁운전면허	-16619
▁증가세를	-16620
▁찬성으로	-16621
▁표현하는	-16622
▁한국당과	-16623
▁수목드라마	-16624
▁시작되었다	-16625
SC	-16626
▁펠	-16627
드릴	-16628
들고	-16629
리전	-16630
무선	-16631
미와	-16632
작은	-16633
주자	-16634
직업	-16635
통계	-16636
통일	-16637
티스	-16638
▁구금	-16639
▁낮춘	-16640
▁로스	-16641
▁루프	-16642
▁윤종	-16643
▁지위	-16644
▁키울	-16645
▁특집	-16646
계약에	-16647
여행을	-16648
▁VIP	-16649
▁대상인	-16650
▁뒤에는	-16651
▁등급을	-16652
▁때에도	-16653
▁말았다	-16654
▁벨기에	-16655
▁입원한	-16656
▁자세를	-16657
▁재검토	-16658
▁프린팅	-16659
▁행보에	-16660
▁협의해	-16661
하이닉스	-16662
▁구분하여	-16663
▁반도체를	-16664
▁부사장이	-16665
▁생각하지	-16666
▁의료진과	-16667
▁지원하기로	-16668
▁우즈베키스탄	-16669
겁다	-16670
계산	-16671
기부	-16672
모의	-16673
방문	-16674
여름	-16675
원자	-16676
클리	-16677
파견	-16678
▁8.	-16679
▁모하	-16680
▁본선	-16681
▁부친	-16682
▁성폭	-16683
▁셀프	-16684
▁안면	-16685
▁앞뒤	-16686
▁외신	-16687
▁울진	-16688
▁인위	-16689
▁타협	-16690
▁파장	-16691
▁표지	-16692
▁후의	-16693
단체가	-16694
캐스트	-16695
▁170	-16696
▁공기압	-16697
▁규제에	-16698
▁그치지	-16699
▁대가로	-16700
▁바뀌는	-16701
▁밝히고	-16702
▁비교할	-16703
▁아세안	-16704
▁음식점	-16705
▁응급실	-16706
▁입원해	-16707
▁작품은	-16708
▁제출을	-16709
▁중단된	-16710
▁촬영이	-16711
▁포부를	-16712
▁한동안	-16713
▁힘들어	-16714
▁대기업과	-16715
▁독자적인	-16716
▁드라마의	-16717
▁불가피할	-16718
▁브랜드인	-16719
▁실태조사	-16720
▁장기적인	-16721
▁콘텐츠로	-16722
▁호텔에서	-16723
▁중소기업에	-16724
▁직접적으로	-16725
▁형성방법에	-16726
▁미래통합당의	-16727
▁중소벤처기업부	-16728
EA	-16729
▁옴	-16730
류에	-16731
성수	-16732
여건	-16733
지나	-16734
지하	-16735
...	-16736
▁밸런	-16737
▁약국	-16738
▁연설	-16739
▁원이	-16740
▁장성	-16741
▁적도	-16742
▁주역	-16743
▁직권	-16744
▁콘센	-16745
▁하천	-16746
▁한식	-16747
기기의	-16748
달라는	-16749
렉트로	-16750
상태에	-16751
▁개선해	-16752
▁국가와	-16753
▁극복할	-16754
▁댓글을	-16755
▁드론을	-16756
▁떠오른	-16757
▁선택이	-16758
▁성공할	-16759
▁시설물	-16760
▁실질적	-16761
▁아마도	-16762
▁어두운	-16763
▁용량이	-16764
▁인용해	-16765
▁장소로	-16766
▁재사용	-16767
▁전자가	-16768
▁출시해	-16769
▁펼친다	-16770
▁확산이	-16771
손해보험	-16772
업체들은	-16773
▁발표하는	-16774
▁부분에서	-16775
▁의료진은	-16776
▁줄어든다	-16777
▁치명적인	-16778
▁도지사에게	-16779
▁우리나라가	-16780
▁제공한다고	-16781
▁직원들에게	-16782
4'	-16783
63	-16784
ge	-16785
▁폼	-16786
대기	-16787
소매	-16788
ort	-16789
▁가령	-16790
▁강소	-16791
▁남양	-16792
▁노벨	-16793
▁다듬	-16794
▁벤치	-16795
▁비닐	-16796
▁중부	-16797
▁후유	-16798
금액을	-16799
▁강화와	-16800
▁대신해	-16801
▁모르고	-16802
▁비추어	-16803
▁시청자	-16804
▁신고한	-16805
▁없어도	-16806
▁자유를	-16807
▁전액을	-16808
▁차별화	-16809
▁초청해	-16810
▁하기로	-16811
▁1985	-16812
▁가상화폐	-16813
▁가전제품	-16814
▁그야말로	-16815
▁네이버의	-16816
▁분쟁조정	-16817
▁요청하는	-16818
▁유튜브를	-16819
▁이야기는	-16820
▁중요하게	-16821
▁집행유예	-16822
▁한국닛산	-16823
▁한국도로	-16824
▁팰리세이드	-16825
▁한국타이어는	-16826
▁톰	-16827
더는	-16828
머리	-16829
카가	-16830
피크	-16831
함께	-16832
▁국외	-16833
▁기인	-16834
▁김모	-16835
▁낸드	-16836
▁논산	-16837
▁스택	-16838
▁습관	-16839
▁시계	-16840
▁신혼	-16841
▁쓰기	-16842
▁예결	-16843
▁이관	-16844
▁형제	-16845
재단은	-16846
하이머	-16847
화학은	-16848
환경이	-16849
▁같은데	-16850
▁건수는	-16851
▁긴밀한	-16852
▁나가고	-16853
▁넘었다	-16854
▁명칭이	-16855
▁부득이	-16856
▁부른다	-16857
▁사생활	-16858
▁시각이	-16859
▁여유가	-16860
▁열리고	-16861
▁음성이	-16862
▁의한다	-16863
▁임대차	-16864
▁지시를	-16865
▁충격이	-16866
▁탄생한	-16867
▁파일럿	-16868
▁메시지가	-16869
▁안심하고	-16870
▁언제든지	-16871
▁자극한다	-16872
▁당선되었다	-16873
▁인사청문회	-16874
▁프랑크푸르트	-16875
건전	-16876
내년	-16877
장소	-16878
yst	-16879
▁가용	-16880
▁개를	-16881
▁개조	-16882
▁넣고	-16883
▁노즐	-16884
▁모형	-16885
▁무의	-16886
▁우량	-16887
▁위메	-16888
▁윌리	-16889
▁환산	-16890
▁회신	-16891
당국에	-16892
대상이	-16893
밖에도	-16894
▁계기를	-16895
▁농도가	-16896
▁도로를	-16897
▁등에도	-16898
▁만전을	-16899
▁밖에서	-16900
▁발목을	-16901
▁부모의	-16902
▁선사할	-16903
▁시점이	-16904
▁신성장	-16905
▁않았기	-16906
▁애프터	-16907
▁위원을	-16908
▁이렇듯	-16909
▁이재갑	-16910
▁일어났	-16911
▁취지를	-16912
▁커진다	-16913
▁팩시밀	-16914
▁펀드를	-16915
▁필요시	-16916
▁행하는	-16917
▁협상에	-16918
▁2500	-16919
▁급속도로	-16920
▁기아차가	-16921
▁회계연도	-16922
▁후보들이	-16923
관리시스템	-16924
▁받아들이지	-16925
▁지난해에는	-16926
KB	-16927
▁꿀	-16928
너의	-16929
부상	-16930
율과	-16931
정수	-16932
질병	-16933
투어	-16934
팀과	-16935
▁7.	-16936
▁92	-16937
▁DJ	-16938
▁글로	-16939
▁김제	-16940
▁내실	-16941
▁넘기	-16942
▁디렉	-16943
▁마라	-16944
▁몰랐	-16945
▁스텝	-16946
▁자매	-16947
▁카메	-16948
▁특혜	-16949
▁횡령	-16950
공단이	-16951
명이며	-16952
속도가	-16953
시설이	-16954
정보화	-16955
태평양	-16956
▁도입에	-16957
▁드러낸	-16958
▁방송이	-16959
▁사무처	-16960
▁사항과	-16961
▁여성을	-16962
▁울트라	-16963
▁정치가	-16964
▁제한된	-16965
▁질병을	-16966
▁징계를	-16967
▁카드사	-16968
로부터의	-16969
억달러를	-16970
▁담당한다	-16971
▁무선전화	-16972
▁벌어지고	-16973
▁전화번호	-16974
▁피해자가	-16975
▁혁신성장	-16976
▁자동적으로	-16977
▁프랜차이즈	-16978
▁확진판정을	-16979
▁과기정통부는	-16980
▁꼴	-16981
그런	-16982
미경	-16983
수납	-16984
일수	-16985
전과	-16986
축산	-16987
탄소	-16988
한데	-16989
ont	-16990
▁극한	-16991
▁동선	-16992
▁만인	-16993
▁증발	-16994
▁지각	-16995
▁지그	-16996
▁출국	-16997
▁필라	-16998
계획의	-16999
적이며	-17000
투자를	-17001
투자자	-17002
투표를	-17003
▁강점을	-17004
▁개그맨	-17005
▁검체를	-17006
▁것임을	-17007
▁기관을	-17008
▁길이가	-17009
▁변하는	-17010
▁부총리	-17011
▁설계를	-17012
▁시선이	-17013
▁실장은	-17014
▁얼굴이	-17015
▁연수를	-17016
▁우리를	-17017
▁인원은	-17018
▁증세가	-17019
▁환경과	-17020
시간으로	-17021
▁레스토랑	-17022
▁매출액은	-17023
▁세그먼트	-17024
▁시가총액	-17025
▁입증했다	-17026
▁카카오의	-17027
▁6,000	-17028
▁국무총리가	-17029
▁레인지로버	-17030
▁헝	-17031
래도	-17032
력도	-17033
수탁	-17034
집단	-17035
창조	-17036
19)	-17037
▁UN	-17038
▁깊게	-17039
▁끄는	-17040
▁마모	-17041
▁박진	-17042
▁보궐	-17043
▁수축	-17044
▁자릿	-17045
▁청각	-17046
▁출혈	-17047
▁판별	-17048
노조가	-17049
모니터	-17050
비즈니	-17051
사와의	-17052
소득이	-17053
책으로	-17054
체제를	-17055
▁개선될	-17056
▁검사는	-17057
▁검사의	-17058
▁경험한	-17059
▁규제로	-17060
▁내역을	-17061
▁단체가	-17062
▁당선자	-17063
▁메리츠	-17064
▁부스를	-17065
▁사측은	-17066
▁연임할	-17067
▁의무화	-17068
▁중환자	-17069
▁증진을	-17070
▁지장이	-17071
▁추진한	-17072
▁출연을	-17073
▁판정이	-17074
▁해치백	-17075
▁환경의	-17076
연구소는	-17077
최저임금	-17078
하시기를	-17079
▁결정적인	-17080
▁변호사가	-17081
▁불이익을	-17082
▁상징하는	-17083
▁수출규제	-17084
▁유기발광	-17085
▁직원들은	-17086
▁클레이튼	-17087
▁수소전기차	-17088
▁확인하였다	-17089
▁싹	-17090
▁텅	-17091
기나	-17092
돼지	-17093
디로	-17094
로써	-17095
으려	-17096
턴트	-17097
▁ST	-17098
▁공작	-17099
▁그걸	-17100
▁보드	-17101
▁본관	-17102
▁불만	-17103
▁사단	-17104
▁스릴	-17105
▁악플	-17106
▁얻게	-17107
▁음반	-17108
▁좁혀	-17109
▁클리	-17110
결과가	-17111
국회의	-17112
너지가	-17113
문제를	-17114
브란스	-17115
설비의	-17116
▁0.2	-17117
▁감안할	-17118
▁개인별	-17119
▁공격을	-17120
▁공기가	-17121
▁구입한	-17122
▁달러의	-17123
▁많지만	-17124
▁명의로	-17125
▁순수한	-17126
▁스카이	-17127
▁시간당	-17128
▁알리기	-17129
▁연구와	-17130
▁윤석열	-17131
▁임대료	-17132
▁전국에	-17133
▁제도의	-17134
▁타워크	-17135
▁페이코	-17136
▁기능으로	-17137
▁대기오염	-17138
▁디자인에	-17139
▁민정수석	-17140
▁아닙니다	-17141
▁완료했다	-17142
▁클라이언	-17143
▁개별적으로	-17144
▁의료기관을	-17145
▁전화번호를	-17146
▁희망하시는	-17147
인베스트먼트	-17148
94	-17149
St	-17150
모임	-17151
버트	-17152
벅스	-17153
빨리	-17154
자흐	-17155
플립	-17156
피는	-17157
▁"2	-17158
▁기가	-17159
▁넘나	-17160
▁든든	-17161
▁야권	-17162
▁잊지	-17163
▁자부	-17164
▁적다	-17165
▁총무	-17166
▁톡톡	-17167
▁해촉	-17168
내셔널	-17169
는다는	-17170
신호가	-17171
청에서	-17172
하였던	-17173
협회와	-17174
환경에	-17175
▁개정된	-17176
▁단점을	-17177
▁두려워	-17178
▁로그인	-17179
▁만남을	-17180
▁세월호	-17181
▁스페이	-17182
▁시간도	-17183
▁얼어붙	-17184
▁잃어버	-17185
▁참가자	-17186
▁총리가	-17187
▁털어놓	-17188
▁형상을	-17189
▁가정통신	-17190
▁결정하고	-17191
▁공인인증	-17192
▁브랜드는	-17193
▁비례연합	-17194
▁사이트에	-17195
▁사정으로	-17196
▁선생님께	-17197
▁쏟아졌다	-17198
▁아나운서	-17199
▁이용한다	-17200
▁잠정합의	-17201
▁전년대비	-17202
▁투자하고	-17203
▁포착됐다	-17204
▁한국전자	-17205
▁가득하시길	-17206
▁때문이었다	-17207
▁원내대표를	-17208
▁원심판결을	-17209
▁폭발적으로	-17210
구글	-17211
데믹	-17212
방출	-17213
타를	-17214
한도	-17215
합성	-17216
ech	-17217
ect	-17218
ran	-17219
▁MP	-17220
▁깎아	-17221
▁농가	-17222
▁데도	-17223
▁데서	-17224
▁렌털	-17225
▁복리	-17226
▁부른	-17227
▁상단	-17228
▁쌓은	-17229
▁쟁점	-17230
▁전진	-17231
▁차선	-17232
▁추격	-17233
▁탈퇴	-17234
▁투어	-17235
▁틈새	-17236
▁항만	-17237
▁햇빛	-17238
개월이	-17239
포스트	-17240
할수록	-17241
했다며	-17242
▁10.	-17243
▁개념이	-17244
▁건조기	-17245
▁공략을	-17246
▁구조다	-17247
▁다큐멘	-17248
▁들어선	-17249
▁렉스턴	-17250
▁설명한	-17251
▁설치가	-17252
▁양방향	-17253
▁예정돼	-17254
▁요금을	-17255
▁작가의	-17256
▁전략에	-17257
▁전한다	-17258
▁제조된	-17259
▁주민이	-17260
▁현장이	-17261
원으로서	-17262
▁강력하게	-17263
▁도전하는	-17264
▁미니앨범	-17265
▁완성도를	-17266
▁인정받고	-17267
▁전달한다	-17268
▁청와대의	-17269
▁촉구하는	-17270
▁향상시킨	-17271
▁근본적으로	-17272
▁안방극장을	-17273
(=	-17274
EU	-17275
IF	-17276
MP	-17277
▁낚	-17278
▁맵	-17279
▁쉼	-17280
관용	-17281
냐고	-17282
민정	-17283
밀도	-17284
박이	-17285
사도	-17286
정리	-17287
주관	-17288
▁갑질	-17289
▁스키	-17290
▁아기	-17291
▁역전	-17292
▁음란	-17293
▁이석	-17294
▁지는	-17295
▁지킬	-17296
▁컨버	-17297
▁한컴	-17298
▁항체	-17299
교육법	-17300
에게서	-17301
힌드라	-17302
▁급여를	-17303
▁내리고	-17304
▁대변인	-17305
▁몰리는	-17306
▁사랑이	-17307
▁상태의	-17308
▁스티커	-17309
▁시작을	-17310
▁영상의	-17311
▁유학생	-17312
▁이사는	-17313
▁이유도	-17314
▁추천을	-17315
기보다는	-17316
▁모바일로	-17317
▁비교하여	-17318
▁요금제를	-17319
▁운영된다	-17320
▁저렴하게	-17321
▁파업으로	-17322
프란시스코	-17323
64	-17324
개와	-17325
게도	-17326
남미	-17327
님은	-17328
다만	-17329
모와	-17330
백신	-17331
사각	-17332
율의	-17333
절연	-17334
채용	-17335
파업	-17336
파일	-17337
퍼시	-17338
▁97	-17339
▁관료	-17340
▁단어	-17341
▁덕에	-17342
▁본체	-17343
▁손보	-17344
▁수질	-17345
▁외상	-17346
▁운명	-17347
▁이강	-17348
▁일로	-17349
▁잃고	-17350
▁정숙	-17351
▁책은	-17352
▁체력	-17353
▁파나	-17354
▁표출	-17355
▁학기	-17356
산업에	-17357
졌는데	-17358
▁과제가	-17359
▁구현한	-17360
▁기대해	-17361
▁밀어붙	-17362
▁박지원	-17363
▁법원에	-17364
▁보장을	-17365
▁비로소	-17366
▁원심의	-17367
▁카니발	-17368
▁태스크	-17369
▁퍼블릭	-17370
▁표했다	-17371
▁화장실	-17372
▁확산될	-17373
▁구성하되	-17374
▁양성평등	-17375
▁에듀테크	-17376
▁운영되는	-17377
▁이사장이	-17378
▁점유율은	-17379
▁휴대단말	-17380
교육지원청	-17381
▁이유에서다	-17382
▁크로스오버	-17383
▁한국토요타	-17384
97	-17385
▁줘	-17386
걸음	-17387
네마	-17388
분류	-17389
분사	-17390
은혜	-17391
청과	-17392
bps	-17393
▁Re	-17394
▁거둘	-17395
▁겪을	-17396
▁두되	-17397
▁레저	-17398
▁마리	-17399
▁배운	-17400
▁법규	-17401
▁부유	-17402
▁써야	-17403
▁이체	-17404
▁점진	-17405
▁증언	-17406
▁집어	-17407
▁팬미	-17408
▁폐업	-17409
▁행안	-17410
과대학	-17411
금액이	-17412
레스트	-17413
미세먼	-17414
정당을	-17415
▁450	-17416
▁광주시	-17417
▁기온이	-17418
▁바이낸	-17419
▁범위는	-17420
▁분명한	-17421
▁비트코	-17422
▁수소차	-17423
▁알려야	-17424
▁양천구	-17425
▁연락이	-17426
▁전지용	-17427
▁정부도	-17428
▁챔피언	-17429
▁총파업	-17430
▁투표에	-17431
들에게도	-17432
츠하이머	-17433
▁단독으로	-17434
▁소송에서	-17435
▁신청했다	-17436
▁위치하고	-17437
▁인정했다	-17438
▁활용한다	-17439
▁납부하여야	-17440
▁폭스바겐의	-17441
▁구체적으로는	-17442
▁예능프로그램	-17443
▁인스타그램에	-17444
LL	-17445
내지	-17446
리던	-17447
민과	-17448
염을	-17449
제출	-17450
조명	-17451
종목	-17452
티콘	-17453
폐쇄	-17454
▁PB	-17455
▁개개	-17456
▁경신	-17457
▁극의	-17458
▁내몰	-17459
▁다할	-17460
▁대금	-17461
▁대주	-17462
▁대피	-17463
▁습득	-17464
▁시원	-17465
▁의외	-17466
▁인명	-17467
▁일조	-17468
▁입지	-17469
▁전광	-17470
▁혁명	-17471
▁환수	-17472
비율이	-17473
생명은	-17474
자리를	-17475
형간염	-17476
▁곡으로	-17477
▁그룹이	-17478
▁남성의	-17479
▁방식과	-17480
▁방역을	-17481
▁생기고	-17482
▁세계로	-17483
▁순위를	-17484
▁실적에	-17485
▁아니할	-17486
▁오신환	-17487
▁있기에	-17488
▁제출된	-17489
▁조치는	-17490
▁증가가	-17491
▁친구가	-17492
▁통증을	-17493
▁해소할	-17494
▁해외에	-17495
▁행복을	-17496
▁활동의	-17497
▁명목으로	-17498
▁사건으로	-17499
▁사업장에	-17500
▁시스템도	-17501
▁시작했고	-17502
▁아무것도	-17503
▁정도였다	-17504
▁제안한다	-17505
▁한국당을	-17506
산업진흥원	-17507
▁산업안전보건	-17508
▁이산화탄소를	-17509
▁곰	-17510
간호	-17511
그린	-17512
나와	-17513
내야	-17514
너는	-17515
더의	-17516
벌이	-17517
입을	-17518
▁공헌	-17519
▁과목	-17520
▁낙찰	-17521
▁노예	-17522
▁늦은	-17523
▁띄는	-17524
▁민경	-17525
▁민법	-17526
▁병역	-17527
▁삼각	-17528
▁시책	-17529
▁신의	-17530
▁아모	-17531
▁열애	-17532
▁재심	-17533
▁준법	-17534
▁지형	-17535
▁초당	-17536
▁판타	-17537
▁핑크	-17538
▁환기	-17539
도지사	-17540
들보다	-17541
하자고	-17542
현상이	-17543
▁가져다	-17544
▁구속영	-17545
▁더한다	-17546
▁버전을	-17547
▁삼성은	-17548
▁안겼다	-17549
▁유연한	-17550
▁이동을	-17551
▁이뤘다	-17552
▁주변을	-17553
▁화재가	-17554
조선해양	-17555
트로이트	-17556
▁관측이다	-17557
▁구성으로	-17558
▁네트워킹	-17559
▁대기업이	-17560
▁도와주는	-17561
▁발행하는	-17562
▁센터장은	-17563
▁셀트리온	-17564
▁자금조달	-17565
▁전문인력	-17566
▁제공하여	-17567
▁추가됐다	-17568
▁후베이성	-17569
▁흥미로운	-17570
▁스마트폰이	-17571
▁고용노동부가	-17572
▁미래에셋대우	-17573
tv	-17574
▁맘	-17575
날이	-17576
버린	-17577
부채	-17578
설정	-17579
스키	-17580
아세	-17581
증에	-17582
착취	-17583
▁가성	-17584
▁개구	-17585
▁거울	-17586
▁김소	-17587
▁당당	-17588
▁박재	-17589
▁세우	-17590
▁실려	-17591
▁심해	-17592
▁쌓여	-17593
▁요약	-17594
▁전하	-17595
▁착공	-17596
▁키우	-17597
▁픽셀	-17598
▁학사	-17599
▁행보	-17600
상품권	-17601
정보의	-17602
▁가톨릭	-17603
▁규칙을	-17604
▁나눴다	-17605
▁대도시	-17606
▁뜨겁게	-17607
▁반발이	-17608
▁방문을	-17609
▁번호를	-17610
▁법령에	-17611
▁성장률	-17612
▁센서가	-17613
▁어디에	-17614
▁우라늄	-17615
▁증가와	-17616
▁창출할	-17617
▁투자는	-17618
▁핵심인	-17619
보고서를	-17620
시키면서	-17621
▁근로자와	-17622
▁내비쳤다	-17623
▁생산량을	-17624
▁수립하여	-17625
▁시리즈는	-17626
▁아인슈타	-17627
▁어머니가	-17628
▁이더리움	-17629
▁판단되는	-17630
▁활동으로	-17631
▁사무총장은	-17632
▁사회안전망	-17633
▁자동차업계	-17634
▁프로젝트에	-17635
▁향상시키기	-17636
▁라스베이거스에서	-17637
감소	-17638
브의	-17639
오던	-17640
왔고	-17641
저우	-17642
GHz	-17643
▁91	-17644
▁낭비	-17645
▁뉴딜	-17646
▁띈다	-17647
▁많기	-17648
▁산불	-17649
▁어쨌	-17650
▁위헌	-17651
▁이별	-17652
▁한방	-17653
면에는	-17654
석에서	-17655
속에서	-17656
편으로	-17657
▁가라앉	-17658
▁고품질	-17659
▁국민연	-17660
▁농어촌	-17661
▁디젤엔	-17662
▁만만치	-17663
▁에어팟	-17664
▁영구자	-17665
▁예정이	-17666
▁원자핵	-17667
▁유발할	-17668
▁장치와	-17669
▁정책은	-17670
▁찾아야	-17671
▁학교와	-17672
만명으로	-17673
▁갤럭시폴	-17674
▁기초자산	-17675
▁대구시는	-17676
▁대구지역	-17677
▁대법원은	-17678
▁마련해야	-17679
▁많습니다	-17680
▁모아지고	-17681
▁반발했다	-17682
▁엔진오일	-17683
▁연계하여	-17684
▁온라인몰	-17685
▁작품이다	-17686
▁중단하고	-17687
▁직원들을	-17688
▁모니터링을	-17689
▁파워트레인	-17690
pp	-17691
강남	-17692
교대	-17693
아와	-17694
이도	-17695
전계	-17696
즈에	-17697
▁6%	-17698
▁FM	-17699
▁건네	-17700
▁건보	-17701
▁경연	-17702
▁보자	-17703
▁숙지	-17704
▁시동	-17705
▁오세	-17706
▁온천	-17707
▁파란	-17708
▁포맷	-17709
감독을	-17710
사업장	-17711
스토리	-17712
실적이	-17713
았다고	-17714
학부모	-17715
효율이	-17716
▁BTS	-17717
▁국가에	-17718
▁돌아갈	-17719
▁변경이	-17720
▁상장을	-17721
▁생활에	-17722
▁식중독	-17723
▁실적은	-17724
▁요소로	-17725
▁인간과	-17726
▁제한이	-17727
▁통화를	-17728
▁협력이	-17729
▁환경부	-17730
되었다는	-17731
3,000	-17732
▁경선에서	-17733
▁사용했다	-17734
▁삼성서울	-17735
▁전라남도	-17736
▁전해진다	-17737
▁제출하면	-17738
▁참고하여	-17739
▁패러다임	-17740
위원장으로	-17741
▁디트로이트	-17742
▁확산되면서	-17743
▁가이드라인을	-17744
▁시청자들에게	-17745
▁르노삼성자동차	-17746
▁뺀	-17747
▁흠	-17748
경보	-17749
교수	-17750
부정	-17751
상대	-17752
열의	-17753
예고	-17754
유기	-17755
출동	-17756
판은	-17757
하긴	-17758
▁걸러	-17759
▁링컨	-17760
▁모를	-17761
▁불분	-17762
▁소련	-17763
▁잡지	-17764
▁철수	-17765
▁판로	-17766
전에서	-17767
팀장은	-17768
품으로	-17769
▁EUV	-17770
▁ILO	-17771
▁갖도록	-17772
▁것들을	-17773
▁국산차	-17774
▁노래가	-17775
▁도모할	-17776
▁들어올	-17777
▁부상을	-17778
▁선택의	-17779
▁소비를	-17780
▁우연히	-17781
▁움직일	-17782
▁위험도	-17783
▁윌리엄	-17784
▁이틀간	-17785
▁전도성	-17786
▁전환에	-17787
▁접속이	-17788
▁추억을	-17789
관한법률	-17790
사업본부	-17791
▁개인위생	-17792
▁경제정책	-17793
▁공무원은	-17794
▁근로자에	-17795
▁드리오니	-17796
▁변경하는	-17797
▁스토리를	-17798
▁올라왔다	-17799
▁정치권이	-17800
▁주파수를	-17801
▁철저하게	-17802
▁금융감독원	-17803
▁트랜스포메이션	-17804
67	-17805
기요	-17806
닥터	-17807
리그	-17808
믹스	-17809
지향	-17810
찬을	-17811
철을	-17812
최고	-17813
콘서	-17814
하셨	-17815
협정	-17816
∼40	-17817
▁간식	-17818
▁관건	-17819
▁남용	-17820
▁다국	-17821
▁데려	-17822
▁동맹	-17823
▁마시	-17824
▁말도	-17825
▁몸의	-17826
▁보살	-17827
▁부설	-17828
▁불황	-17829
▁세액	-17830
▁스캐	-17831
▁잘라	-17832
▁전의	-17833
▁코엑	-17834
기술은	-17835
대까지	-17836
먼트를	-17837
일에서	-17838
▁결과와	-17839
▁그렇기	-17840
▁나서서	-17841
▁받거나	-17842
▁백신을	-17843
▁벌어질	-17844
▁성능은	-17845
▁소음을	-17846
▁스피드	-17847
▁시도를	-17848
▁운동에	-17849
▁자격이	-17850
▁자세로	-17851
▁전무는	-17852
▁찾는다	-17853
▁최근의	-17854
▁테크놀	-17855
▁공정에서	-17856
▁규정하는	-17857
▁등장하고	-17858
▁상품이다	-17859
▁신한은행	-17860
▁에너지의	-17861
▁의미에서	-17862
▁전기차용	-17863
▁정치권의	-17864
▁피해자의	-17865
▁향상시켜	-17866
▁스트레스를	-17867
▁시장에서도	-17868
▁샌프란시스코	-17869
가요	-17870
길에	-17871
단기	-17872
미로	-17873
킨다	-17874
확산	-17875
▁구해	-17876
▁길러	-17877
▁돼지	-17878
▁부위	-17879
▁분수	-17880
▁숨을	-17881
▁아크	-17882
▁입출	-17883
▁제때	-17884
▁초록	-17885
▁푸드	-17886
렉시블	-17887
부분에	-17888
운드를	-17889
일랜드	-17890
티넨탈	-17891
▁감추지	-17892
▁관계로	-17893
▁금요일	-17894
▁단체를	-17895
▁뜻하는	-17896
▁리콜을	-17897
▁목적에	-17898
▁산업과	-17899
▁서식의	-17900
▁여야는	-17901
▁의원들	-17902
▁정치에	-17903
▁차량과	-17904
▁투명한	-17905
▁평가에	-17906
▁활약을	-17907
▁달라진다	-17908
▁모아진다	-17909
▁부담하는	-17910
▁선거관리	-17911
▁스타일을	-17912
▁시리즈를	-17913
▁시장에게	-17914
▁오피스텔	-17915
▁잇따르고	-17916
▁조정하는	-17917
▁카메라에	-17918
▁파트너십	-17919
▁환자들은	-17920
▁단말기에서	-17921
▁당기순이익	-17922
▁불가피하다	-17923
▁사로잡는다	-17924
▁홈페이지와	-17925
▁&	-17926
▁댐	-17927
끄럽	-17928
두를	-17929
등은	-17930
디를	-17931
불법	-17932
상표	-17933
요건	-17934
학원	-17935
휴업	-17936
▁개가	-17937
▁계양	-17938
▁구토	-17939
▁낙관	-17940
▁들지	-17941
▁백업	-17942
▁불발	-17943
▁사임	-17944
▁예매	-17945
▁이가	-17946
▁포용	-17947
상태가	-17948
소송법	-17949
어비스	-17950
업체는	-17951
▁광대역	-17952
▁구조적	-17953
▁구축과	-17954
▁내려가	-17955
▁문턱을	-17956
▁발전소	-17957
▁사장과	-17958
▁상에서	-17959
▁수강생	-17960
▁스파크	-17961
▁없음을	-17962
▁역할에	-17963
▁연료를	-17964
▁영역이	-17965
▁작품에	-17966
▁장르의	-17967
▁장비의	-17968
▁주최한	-17969
▁주행할	-17970
▁차례에	-17971
▁필터를	-17972
센터장은	-17973
▁가입자는	-17974
▁거론된다	-17975
▁경제사회	-17976
▁관계자가	-17977
▁국립중앙	-17978
▁극복하고	-17979
▁기여하고	-17980
▁안타까운	-17981
▁엔지니어	-17982
▁오픈소스	-17983
▁인물이다	-17984
과학기술원	-17985
▁선거운동을	-17986
▁알츠하이머	-17987
▁지속가능한	-17988
▁최고위원회의에서	-17989
ne	-17990
▁솟	-17991
것이	-17992
마로	-17993
미니	-17994
방사	-17995
벨트	-17996
보자	-17997
율에	-17998
전선	-17999
촘촘	-18000
코는	-18001
▁곡을	-18002
▁공룡	-18003
▁과실	-18004
▁교감	-18005
▁대북	-18006
▁대시	-18007
▁독창	-18008
▁외식	-18009
▁유류	-18010
▁유학	-18011
▁종속	-18012
▁판독	-18013
▁팔린	-18014
▁형평	-18015
구조가	-18016
권에서	-18017
금액은	-18018
실장이	-18019
▁가치는	-18020
▁경향을	-18021
▁규모다	-18022
▁넘어가	-18023
▁다목적	-18024
▁단위의	-18025
▁당선된	-18026
▁벗어난	-18027
▁살아가	-18028
▁서버가	-18029
▁세일즈	-18030
▁수업에	-18031
▁스마일	-18032
▁실현을	-18033
▁아닐까	-18034
▁업무는	-18035
▁운동이	-18036
▁정치의	-18037
▁주체가	-18038
▁증거를	-18039
▁타이밍	-18040
▁특성과	-18041
▁특수한	-18042
▁판결에	-18043
▁패널에	-18044
▁1986	-18045
▁과거에는	-18046
▁떠오르고	-18047
▁사과했다	-18048
▁선정하고	-18049
▁쌍용차의	-18050
▁의사소통	-18051
▁일어났다	-18052
▁입력하면	-18053
▁한국어를	-18054
▁확대됐다	-18055
▁관계자들은	-18056
▁구조조정이	-18057
▁시작한다고	-18058
▁재생에너지	-18059
▁재규어랜드로버	-18060
68	-18061
▁뿜	-18062
경부	-18063
광주	-18064
동백	-18065
루를	-18066
방위	-18067
석유	-18068
시큐	-18069
오픈	-18070
카르	-18071
탄이	-18072
특수	-18073
▁1~	-18074
▁8%	-18075
▁CU	-18076
▁나간	-18077
▁단수	-18078
▁모래	-18079
▁묘사	-18080
▁에드	-18081
▁이세	-18082
▁점과	-18083
▁정정	-18084
▁지고	-18085
▁치킨	-18086
▁탈북	-18087
▁폭풍	-18088
경쟁력	-18089
리거나	-18090
만대의	-18091
상황이	-18092
연했다	-18093
외국인	-18094
▁계절에	-18095
▁구조와	-18096
▁노조원	-18097
▁도전성	-18098
▁무이자	-18099
▁반영할	-18100
▁발맞춰	-18101
▁발전할	-18102
▁발표가	-18103
▁방향에	-18104
▁법안은	-18105
▁보도가	-18106
▁보호자	-18107
▁생성된	-18108
▁선정돼	-18109
▁어워드	-18110
▁연비를	-18111
▁외국어	-18112
▁은행과	-18113
▁인상과	-18114
▁지키지	-18115
▁카자흐	-18116
▁패턴의	-18117
고용노동	-18118
지방법원	-18119
코리아의	-18120
프로젝트	-18121
하였다는	-18122
▁매출액이	-18123
▁못했다는	-18124
▁선도하는	-18125
▁선사한다	-18126
▁우려되는	-18127
▁일어나지	-18128
▁전자기기	-18129
▁집중된다	-18130
▁컴퓨터가	-18131
▁퇴직연금	-18132
▁평가된다	-18133
▁항공우주	-18134
▁구조조정에	-18135
▁기자간담회에서	-18136
▁과학기술정보통신부는	-18137
TP	-18138
가리	-18139
는가	-18140
동원	-18141
들여	-18142
모니	-18143
분께	-18144
즈와	-18145
체크	-18146
특구	-18147
평생	-18148
▁남한	-18149
▁넘을	-18150
▁네오	-18151
▁노란	-18152
▁리듬	-18153
▁맛을	-18154
▁불허	-18155
▁붙은	-18156
▁생리	-18157
▁지났	-18158
▁촬상	-18159
▁통장	-18160
등급을	-18161
버스를	-18162
전극을	-18163
정당이	-18164
차전지	-18165
커버리	-18166
▁75%	-18167
▁강력히	-18168
▁건강이	-18169
▁넘는다	-18170
▁도입이	-18171
▁돌봄교	-18172
▁떠나는	-18173
▁부진이	-18174
▁비하면	-18175
▁와중에	-18176
▁재개발	-18177
▁커지자	-18178
▁코드를	-18179
기업들이	-18180
업체들의	-18181
저축은행	-18182
▁2024	-18183
▁것이므로	-18184
▁말라리아	-18185
▁설치한다	-18186
▁안정성이	-18187
▁의거하여	-18188
▁이벤트도	-18189
▁전기화학	-18190
▁해결해야	-18191
시장에서는	-18192
▁예비후보가	-18193
▁카카오모빌리티	-18194
if	-18195
▁끄	-18196
▁룰	-18197
▁잎	-18198
가장	-18199
디언	-18200
마에	-18201
션은	-18202
지휘	-18203
취득	-18204
퀀텀	-18205
키트	-18206
DLF	-18207
est	-18208
▁93	-18209
▁94	-18210
▁것만	-18211
▁권영	-18212
▁눈치	-18213
▁물려	-18214
▁미소	-18215
▁박탈	-18216
▁북부	-18217
▁샤워	-18218
▁서지	-18219
▁키를	-18220
▁키운	-18221
▁키폰	-18222
▁태어	-18223
과장이	-18224
년에도	-18225
소자에	-18226
▁RPA	-18227
▁가치와	-18228
▁검토를	-18229
▁기억이	-18230
▁누구도	-18231
▁법인세	-18232
▁별개로	-18233
▁생산과	-18234
▁신체적	-18235
▁영향은	-18236
▁완성된	-18237
▁이번엔	-18238
▁자치구	-18239
▁적극적	-18240
▁전환할	-18241
▁포스트	-18242
▁프론트	-18243
▁필두로	-18244
▁개발한다	-18245
▁개선했다	-18246
▁건강검진	-18247
▁노동계는	-18248
▁당선자가	-18249
▁도전장을	-18250
▁시리즈의	-18251
▁예측하는	-18252
▁장애인의	-18253
▁헤드램프	-18254
▁엔지니어링	-18255
▁중요합니다	-18256
결이	-18257
년은	-18258
모집	-18259
사관	-18260
온도	-18261
전드	-18262
중고	-18263
▁81	-18264
▁고품	-18265
▁김원	-18266
▁버려	-18267
▁벤틀	-18268
▁봤을	-18269
▁부풀	-18270
▁이천	-18271
▁정합	-18272
▁제너	-18273
▁제임	-18274
▁채굴	-18275
▁평행	-18276
당으로	-18277
디스크	-18278
사고가	-18279
▁GDP	-18280
▁가격의	-18281
▁가입이	-18282
▁과징금	-18283
▁귀여운	-18284
▁규정은	-18285
▁늘렸다	-18286
▁미연에	-18287
▁반려동	-18288
▁비상이	-18289
▁사업도	-18290
▁선발된	-18291
▁소자에	-18292
▁싶었다	-18293
▁이자를	-18294
▁인간을	-18295
▁임금이	-18296
▁작년에	-18297
▁장착해	-18298
▁주장한	-18299
▁증거가	-18300
▁지수가	-18301
▁출시에	-18302
▁크기는	-18303
▁표현이	-18304
고속도로	-18305
ystem	-18306
▁1981	-18307
▁공유재산	-18308
▁기간으로	-18309
▁소통하는	-18310
▁아니하고	-18311
▁온라인을	-18312
▁우려된다	-18313
▁유료방송	-18314
▁임금피크	-18315
▁전망하고	-18316
▁지속해서	-18317
▁개최했다고	-18318
▁이루어지도록	-18319
갑을	-18320
런트	-18321
복구	-18322
센스	-18323
시즌	-18324
어스	-18325
회째	-18326
▁CS	-18327
▁농지	-18328
▁도의	-18329
▁동산	-18330
▁런칭	-18331
▁미안	-18332
▁비수	-18333
▁위조	-18334
▁은폐	-18335
▁인계	-18336
▁적혀	-18337
▁점등	-18338
▁천천	-18339
▁촘촘	-18340
▁판교	-18341
▁학계	-18342
결과는	-18343
국회가	-18344
보증을	-18345
셧다운	-18346
쇼핑몰	-18347
시간의	-18348
▁가리지	-18349
▁고전압	-18350
▁뇌졸중	-18351
▁동향을	-18352
▁마음의	-18353
▁모델링	-18354
▁비상장	-18355
▁사업비	-18356
▁소문이	-18357
▁스태프	-18358
▁어레이	-18359
▁역량이	-18360
▁운행을	-18361
▁일체형	-18362
▁재판을	-18363
▁적정한	-18364
▁중단을	-18365
▁학생들	-18366
▁회복을	-18367
민주주의	-18368
▁공개하지	-18369
▁공중보건	-18370
▁근로계약	-18371
▁부합하는	-18372
▁사람들과	-18373
▁사업자는	-18374
▁선정한다	-18375
▁안테나의	-18376
▁입장문을	-18377
▁전기차와	-18378
▁정부서울	-18379
▁채택했다	-18380
▁캐릭터가	-18381
▁활용되고	-18382
▁활용하기	-18383
▁7,000	-18384
▁모터쇼에서	-18385
▁유권자들이	-18386
▁르노삼성자동차가	-18387
CS	-18388
iz	-18389
년차	-18390
르의	-18391
부부	-18392
우한	-18393
장년	-18394
창의	-18395
쳤고	-18396
항이	-18397
▁거칠	-18398
▁단절	-18399
▁뜻이	-18400
▁몸과	-18401
▁무주	-18402
▁반성	-18403
▁성숙	-18404
▁수락	-18405
▁용기	-18406
▁위암	-18407
▁점쳐	-18408
▁정제	-18409
▁표적	-18410
군수는	-18411
리니지	-18412
법인을	-18413
법인의	-18414
줍니다	-18415
통신은	-18416
▁11.	-18417
▁BNK	-18418
▁강도가	-18419
▁기업도	-18420
▁꿈꾸는	-18421
▁다음주	-18422
▁달라는	-18423
▁두번째	-18424
▁사과를	-18425
▁선순환	-18426
▁선언을	-18427
▁역사가	-18428
▁예측이	-18429
▁위대한	-18430
▁저마다	-18431
▁주도로	-18432
▁지방의	-18433
▁힘으로	-18434
레이션을	-18435
2,000	-18436
▁고객들을	-18437
▁아니하는	-18438
▁유입되는	-18439
▁일어나고	-18440
▁작용하는	-18441
▁주어진다	-18442
▁출시된다	-18443
▁학생들과	-18444
▁환경오염	-18445
원으로부터	-18446
▁교육과정을	-18447
▁시작하면서	-18448
▁이루어지지	-18449
▁서울시교육청	-18450
-3	-18451
과거	-18452
량제	-18453
미스	-18454
방은	-18455
법원	-18456
엣지	-18457
유산	-18458
응용	-18459
조립	-18460
중단	-18461
파로	-18462
허브	-18463
ers	-18464
▁RV	-18465
▁SR	-18466
▁광복	-18467
▁기숙	-18468
▁길고	-18469
▁꿈과	-18470
▁노르	-18471
▁달해	-18472
▁대관	-18473
▁대권	-18474
▁대유	-18475
▁동서	-18476
▁바쁜	-18477
▁박찬	-18478
▁배워	-18479
▁변조	-18480
▁새겨	-18481
▁서양	-18482
▁심어	-18483
▁아랍	-18484
▁열풍	-18485
▁잠실	-18486
▁짙은	-18487
▁친문	-18488
▁토종	-18489
▁피트	-18490
▁헌신	-18491
▁현수	-18492
건설은	-18493
위원을	-18494
했음을	-18495
▁ATM	-18496
▁검증된	-18497
▁것인가	-18498
▁결제를	-18499
▁국가를	-18500
▁김정은	-18501
▁노사정	-18502
▁당선인	-18503
▁데에는	-18504
▁매니지	-18505
▁문제점	-18506
▁분석할	-18507
▁삼성이	-18508
▁세대를	-18509
▁알아서	-18510
▁약간의	-18511
▁인생을	-18512
▁일본차	-18513
▁읽어보	-18514
▁저희가	-18515
▁종목은	-18516
▁채널의	-18517
▁청구할	-18518
▁해외로	-18519
드리오니	-18520
월말까지	-18521
▁관련해서	-18522
▁도입하고	-18523
▁동아시아	-18524
▁선거대책	-18525
▁선택하여	-18526
▁아이들은	-18527
▁위험성이	-18528
▁의존도가	-18529
▁조성하고	-18530
▁카메라로	-18531
▁파악하기	-18532
▁펼쳐지는	-18533
▁프레임을	-18534
▁플렉시블	-18535
▁시행한다고	-18536
▁인플루언서	-18537
▁프로젝트는	-18538
▁중앙재난안전	-18539
TO	-18540
▁덤	-18541
개입	-18542
남용	-18543
선도	-18544
액과	-18545
▁NA	-18546
▁SD	-18547
▁다크	-18548
▁보닛	-18549
▁시인	-18550
▁실명	-18551
▁없지	-18552
▁인과	-18553
▁좀더	-18554
▁특약	-18555
▁한참	-18556
▁허물	-18557
▁힙합	-18558
국민의	-18559
라인을	-18560
러스트	-18561
컴퓨팅	-18562
▁기록이	-18563
▁기사가	-18564
▁나오기	-18565
▁논문을	-18566
▁다하고	-18567
▁대내외	-18568
▁동원해	-18569
▁브리지	-18570
▁설정한	-18571
▁세상이	-18572
▁수집된	-18573
▁수행을	-18574
▁언택트	-18575
▁여건이	-18576
▁육성에	-18577
▁이뤄져	-18578
▁전략과	-18579
▁전송할	-18580
▁줄였다	-18581
▁집값이	-18582
▁차이나	-18583
▁컬렉션	-18584
▁펀드는	-18585
▁포드의	-18586
▁행위는	-18587
구청장이	-18588
되었음을	-18589
스카우트	-18590
일부터는	-18591
▁가족들이	-18592
▁네덜란드	-18593
▁네이버와	-18594
▁배터리가	-18595
▁부총리는	-18596
▁않으므로	-18597
▁우려하는	-18598
[...]
