<unk>	0
<s>	0
</s>	0
▁이	-0
▁있	-1
으로	-2
▁수	-3
에서	-4
▁사	-5
▁전	-6
▁것	-7
▁기	-8
▁대	-9
▁지	-10
하는	-11
▁가	-12
▁있다	-13
했다	-14
▁1	-15
이다	-16
▁시	-17
▁그	-18
▁제	-19
▁한	-20
▁자	-21
▁등	-22
▁2	-23
하고	-24
▁'	-25
▁보	-26
▁정	-27
▁발	-28
▁주	-29
▁위	-30
▁관	-31
▁아	-32
▁중	-33
▁상	-34
▁인	-35
▁경	-36
▁다	-37
▁공	-38
▁고	-39
▁부	-40
▁"	-41
▁하	-42
▁모	-43
▁방	-44
▁일	-45
▁있는	-46
▁연	-47
▁나	-48
▁소	-49
▁개	-50
▁유	-51
한다	-52
▁구	-53
▁신	-54
▁내	-55
▁조	-56
▁비	-57
니다	-58
▁본	-59
00	-60
▁마	-61
▁서	-62
▁통	-63
▁의	-64
▁않	-65
▁해	-66
▁최	-67
▁때	-68
▁따	-69
▁3	-70
▁노	-71
▁미	-72
었다	-73
▁동	-74
하여	-75
들이	-76
▁국	-77
▁어	-78
▁만	-79
▁장	-80
▁오	-81
▁생	-82
▁현	-83
▁실	-84
▁확	-85
▁없	-86
▁영	-87
▁것이다	-88
▁안	-89
▁스	-90
▁차	-91
▁우	-92
▁여	-93
▁바	-94
▁특	-95
에는	-96
지만	-97
▁도	-98
▁감	-99
적으로	-100
된다	-101
▁및	-102
▁선	-103
▁예	-104
▁분	-105
▁학	-106
이라	-107
면서	-108
▁결	-109
하게	-110
▁반	-111
▁세	-112
▁진	-113
▁교	-114
적인	-115
▁무	-116
▁말	-117
▁적	-118
▁성	-119
▁강	-120
▁불	-121
▁것으로	-122
▁단	-123
▁또	-124
되는	-125
까지	-126
▁배	-127
▁5	-128
▁발명	-129
하기	-130
▁더	-131
▁금	-132
▁한다	-133
▁계	-134
▁설	-135
▁원	-136
▁많	-137
▁지난	-138
▁문	-139
▁20	-140
▁4	-141
에게	-142
부터	-143
▁거	-144
▁회	-145
▁매	-146
▁대한	-147
▁같	-148
▁받	-149
▁위해	-150
도록	-151
▁높	-152
▁재	-153
▁사용	-154
▁과	-155
▁따라	-156
▁코	-157
다는	-158
▁출	-159
▁산	-160
▁추	-161
▁관한	-162
들의	-163
▁운	-164
▁증	-165
▁알	-166
▁판	-167
▁변	-168
▁포	-169
▁활	-170
▁직	-171
▁작	-172
▁물	-173
▁경우	-174
자가	-175
▁발명은	-176
▁때문	-177
▁통해	-178
에서는	-179
▁가능	-180
▁입	-181
▁형	-182
동차	-183
▁프	-184
▁필	-185
▁올	-186
▁파	-187
▁제공	-188
▁저	-189
▁남	-190
▁사람	-191
▁이용	-192
▁데	-193
▁참	-194
▁되	-195
▁건	-196
▁후	-197
들은	-198
▁두	-199
▁6	-200
비스	-201
▁근	-202
▁투	-203
하다	-204
으며	-205
였다	-206
▁역	-207
▁달	-208
됐다	-209
▁환	-210
▁들	-211
▁업	-212
▁함	-213
▁요	-214
▁점	-215
▁평	-216
▁화	-217
▁밝	-218
▁집	-219
▁할	-220
성을	-221
▁양	-222
▁각	-223
▁위한	-224
▁김	-225
▁하는	-226
▁새	-227
▁당	-228
▁게	-229
▁것이	-230
▁한국	-231
▁외	-232
▁열	-233
▁간	-234
▁디	-235
기를	-236
습니다	-237
▁효	-238
하지	-239
성이	-240
▁임	-241
▁발생	-242
▁S	-243
▁앞	-244
▁행	-245
았다	-246
▁필요	-247
▁우리	-248
로나	-249
자의	-250
▁201	-251
되어	-252
에도	-253
▁10	-254
▁국내	-255
▁7	-256
이라고	-257
▁있어	-258
▁기업	-259
자는	-260
▁같은	-261
▁기술	-262
▁초	-263
지는	-264
하며	-265
▁했다	-266
▁표	-267
▁목	-268
▁합	-269
▁광	-270
하면	-271
▁지원	-272
▁자동차	-273
▁피	-274
▁방법	-275
▁서비스	-276
▁크	-277
▁검	-278
▁시장	-279
▁이상	-280
이나	-281
보다	-282
▁함께	-283
▁이어	-284
▁못	-285
▁접	-286
▁처	-287
스템	-288
▁종	-289
▁규	-290
혔다	-291
▁충	-292
."	-293
▁지역	-294
▁사업	-295
▁속	-296
▁코로나	-297
▁8	-298
레이	-299
▁밝혔다	-300
▁줄	-301
▁관련	-302
▁취	-303
▁다른	-304
▁향	-305
▁온	-306
▁드	-307
기에	-308
▁문제	-309
은행	-310
▁아니	-311
▁명	-312
▁노동	-313
▁것을	-314
▁프로	-315
▁손	-316
▁체	-317
▁19	-318
▁정부	-319
▁연구	-320
▁대해	-321
▁약	-322
▁심	-323
지를	-324
▁A	-325
19	-326
리고	-327
▁채	-328
▁9	-329
▁가장	-330
리를	-331
▁맞	-332
▁에	-333
되고	-334
▁리	-335
000	-336
▁음	-337
▁특히	-338
▁완	-339
들을	-340
▁진행	-341
▁개발	-342
▁많은	-343
▁금융	-344
▁있도록	-345
▁청	-346
▁판매	-347
▁협	-348
리는	-349
▁다양	-350
이터	-351
▁상황	-352
▁편	-353
▁카	-354
▁돌	-355
▁이후	-356
▁들어	-357
라는	-358
▁담	-359
력을	-360
▁그러	-361
졌다	-362
▁시작	-363
▁때문에	-364
▁미국	-365
▁말했다	-366
▁타	-367
▁또한	-368
▁서울	-369
▁플	-370
▁등을	-371
▁커	-372
사를	-373
▁용	-374
▁관계	-375
▁절	-376
라고	-377
기가	-378
▁교육	-379
대로	-380
▁늘	-381
▁것은	-382
▁만들	-383
지고	-384
▁현대	-385
▁살	-386
해야	-387
다고	-388
▁치	-389
▁시간	-390
정을	-391
▁시스템	-392
▁결과	-393
사가	-394
▁투자	-395
▁큰	-396
▁박	-397
▁복	-398
▁된다	-399
▁삼	-400
▁나타	-401
▁갖	-402
▁형성	-403
시간	-404
▁메	-405
▁호	-406
▁정보	-407
▁고용	-408
▁효과	-409
▁좋	-410
하면서	-411
▁법	-412
라인	-413
거나	-414
▁생산	-415
▁대상	-416
로운	-417
▁이번	-418
▁다양한	-419
▁제조	-420
▁마을	-421
억원	-422
장은	-423
▁측	-424
이라는	-425
▁근로	-426
▁사이	-427
▁증가	-428
장치	-429
▁세계	-430
스트	-431
상을	-432
▁자신	-433
▁사회	-434
▁학생	-435
▁설명	-436
▁전기	-437
리가	-438
장이	-439
▁현재	-440
▁총	-441
▁장치	-442
▁적용	-443
▁최근	-444
장을	-445
▁넘	-446
▁운영	-447
▁생각	-448
▁하나	-449
▁학교	-450
▁트	-451
이고	-452
기업	-453
▁급	-454
▁확인	-455
서는	-456
▁독	-457
▁모두	-458
▁참여	-459
▁L	-460
시키	-461
▁찾	-462
▁방송	-463
▁구조	-464
▁등이	-465
화를	-466
자를	-467
▁아이	-468
도를	-469
▁이를	-470
처럼	-471
▁잘	-472
▁C	-473
▁포함	-474
▁올해	-475
▁하지만	-476
▁차량	-477
▁않는	-478
▁패	-479
▁모습	-480
▁폭	-481
▁중국	-482
▁브	-483
▁뒤	-484
▁민	-485
▁순	-486
▁지난해	-487
▁활용	-488
도가	-489
▁안전	-490
▁번	-491
▁공개	-492
▁이에	-493
▁질	-494
▁대표	-495
그램	-496
▁분석	-497
르면	-498
▁걸	-499
▁등의	-500
▁있다는	-501
운데	-502
이는	-503
▁식	-504
▁기대	-505
▁있으며	-506
▁없는	-507
▁준	-508
도체	-509
▁글	-510
원이	-511
▁논	-512
▁로	-513
지가	-514
▁예정	-515
▁곳	-516
▁계획	-517
▁구성	-518
▁휴	-519
▁산업	-520
▁모든	-521
기도	-522
▁가운데	-523
▁사실	-524
▁낮	-525
▁콘	-526
▁아니라	-527
▁데이터	-528
▁감염	-529
▁K	-530
▁눈	-531
▁경제	-532
▁소비	-533
라이	-534
▁새로운	-535
▁때문이다	-536
▁창	-537
▁높은	-538
20	-539
는데	-540
▁누	-541
▁반도체	-542
러스	-543
▁기준	-544
▁있었다	-545
▁있고	-546
▁관심	-547
위원	-548
▁이루	-549
에서도	-550
도로	-551
▁하고	-552
▁활동	-553
▁언	-554
▁영향	-555
▁그러나	-556
▁토	-557
▁없다	-558
▁될	-559
마트	-560
▁항	-561
▁고객	-562
▁북	-563
▁기존	-564
부모	-565
▁따르면	-566
▁개인	-567
▁개선	-568
▁그리고	-569
▁전문	-570
▁직접	-571
만원	-572
▁이동	-573
▁병	-574
▁다음	-575
▁네	-576
▁엔	-577
▁태	-578
▁B	-579
▁확대	-580
명이	-581
들에게	-582
▁중요	-583
▁어려	-584
▁길	-585
▁따른	-586
▁농	-587
▁12	-588
기의	-589
▁200	-590
▁상태	-591
▁이날	-592
▁내용	-593
학교	-594
▁이미	-595
력이	-596
▁학부모	-597
으로써	-598
▁힘	-599
센터	-600
▁최대	-601
이스	-602
▁중심	-603
▁위치	-604
▁영화	-605
▁첫	-606
▁극	-607
▁해당	-608
▁기능	-609
▁빠	-610
▁모델	-611
▁연결	-612
▁방식	-613
▁11	-614
▁따라서	-615
▁볼	-616
▁M	-617
▁추가	-618
하였다	-619
▁많이	-620
▁애	-621
▁또는	-622
▁결정	-623
므로	-624
▁알려	-625
▁이유	-626
▁있을	-627
▁프로그램	-628
▁승	-629
기는	-630
▁느	-631
진다	-632
▁전체	-633
금을	-634
▁권	-635
▁I	-636
▁향상	-637
랜드	-638
음을	-639
▁감소	-640
▁환경	-641
▁수준	-642
▁평가	-643
했다고	-644
▁30	-645
▁일본	-646
▁여러	-647
▁더욱	-648
시에	-649
왔다	-650
인다	-651
▁스마트	-652
▁의미	-653
▁다시	-654
▁송	-655
▁제품	-656
이어	-657
▁발표	-658
▁버	-659
▁않고	-660
했던	-661
보험	-662
▁출시	-663
▁G	-664
입니다	-665
부는	-666
▁제작	-667
가는	-668
▁이런	-669
▁전자	-670
▁날	-671
▁신청	-672
사는	-673
상이	-674
▁배우	-675
어나	-676
▁경쟁	-677
▁노조	-678
자동차	-679
▁삼성	-680
시장	-681
사의	-682
▁전망	-683
▁존	-684
▁유지	-685
▁P	-686
노동	-687
인이	-688
▁기록	-689
▁있습니다	-690
기관	-691
러한	-692
▁막	-693
▁일반	-694
▁규모	-695
교육	-696
원을	-697
▁방지	-698
▁책	-699
▁일부	-700
▁제공한다	-701
으나	-702
▁실제	-703
이며	-704
▁그는	-705
▁면	-706
▁확진	-707
으면	-708
▁어떤	-709
▁인터	-710
▁철	-711
▁공급	-712
▁친	-713
▁의해	-714
▁같이	-715
▁과정	-716
▁게임	-717
▁업체	-718
▁탄	-719
▁이러한	-720
▁15	-721
부분	-722
▁요구	-723
▁보고	-724
합니다	-725
로벌	-726
사업	-727
되었다	-728
▁마련	-729
▁않은	-730
수가	-731
원은	-732
랍니다	-733
▁캐	-734
▁T	-735
방법	-736
자들이	-737
하도록	-738
▁백	-739
▁관리	-740
통신	-741
▁허	-742
▁바랍니다	-743
▁벌	-744
▁실시	-745
이트	-746
▁처음	-747
났다	-748
자인	-749
▁부산	-750
▁만들어	-751
▁기간	-752
▁지금	-753
▁부분	-754
▁변화	-755
▁잡	-756
▁건강	-757
이었다	-758
0%	-759
되지	-760
▁성장	-761
들과	-762
스크	-763
▁클	-764
이러스	-765
▁피해	-766
▁뉴	-767
▁기반	-768
전자	-769
▁만큼	-770
기로	-771
▁얻	-772
▁갈	-773
▁동안	-774
케이	-775
▁관계자는	-776
▁선택	-777
▁이야	-778
▁보호	-779
▁아래	-780
▁글로벌	-781
리에	-782
▁이루어	-783
▁얼	-784
▁있었	-785
식을	-786
▁떨	-787
▁상기	-788
정보	-789
▁한편	-790
디어	-791
▁상품	-792
▁테	-793
위원회	-794
▁그런	-795
▁가격	-796
▁현대차	-797
▁월	-798
▁응	-799
감을	-800
▁시행	-801
▁블	-802
▁지속	-803
▁설치	-804
▁베	-805
▁된	-806
▁발전	-807
기술	-808
▁고안	-809
료를	-810
▁범	-811
▁끝	-812
▁분야	-813
는다	-814
▁안정	-815
▁보험	-816
시기	-817
제를	-818
▁광고	-819
▁이름	-820
▁합니다	-821
라도	-822
▁가입	-823
▁주요	-824
▁국가	-825
드는	-826
쪽으로	-827
주의	-828
▁특별	-829
▁쉽	-830
UV	-831
▁공간	-832
▁정도	-833
대를	-834
▁확보	-835
▁대비	-836
지로	-837
▁은행	-838
치를	-839
했고	-840
▁강화	-841
▁키	-842
▁온라인	-843
▁판단	-844
▁천	-845
▁업무	-846
▁축	-847
▁없이	-848
▁제어	-849
▁100	-850
▁경영	-851
▁별	-852
▁대부분	-853
그룹	-854
▁확산	-855
랫폼	-856
▁폐	-857
▁통신	-858
▁나온	-859
텐츠	-860
▁조사	-861
▁지적	-862
▁물론	-863
▁암	-864
▁크게	-865
▁보여	-866
하겠	-867
▁악	-868
지털	-869
▁지급	-870
▁제공하는	-871
▁예상	-872
▁엔진	-873
▁E	-874
▁쓰	-875
▁LG	-876
부가	-877
▁D	-878
위를	-879
산업	-880
시킬	-881
▁밀	-882
▁방향	-883
수를	-884
율이	-885
▁떨어	-886
▁역할	-887
▁정책	-888
▁우려	-889
▁있다고	-890
▁흐	-891
▁형태	-892
▁학부모님	-893
르는	-894
▁적극	-895
▁긴	-896
렸다	-897
자로	-898
계를	-899
리아	-900
▁주행	-901
해서	-902
▁예정이다	-903
부를	-904
▁존재	-905
원의	-906
▁지나	-907
▁당시	-908
▁18	-909
▁군	-910
▁고려	-911
▁되는	-912
정이	-913
▁해외	-914
▁설명했다	-915
▁즉	-916
지의	-917
▁상승	-918
▁자동	-919
금융	-920
▁홍	-921
▁각각	-922
점을	-923
업을	-924
▁최고	-925
▁효과가	-926
▁영상	-927
▁회사	-928
▁페	-929
동을	-930
▁비교	-931
▁브랜드	-932
▁필요한	-933
▁의료	-934
▁집중	-935
지원	-936
▁방법에	-937
▁가능한	-938
주는	-939
▁미래	-940
▁혼	-941
▁이는	-942
▁오는	-943
자와	-944
▁있게	-945
▁특징	-946
이가	-947
▁전국	-948
▁플랫폼	-949
지에	-950
▁받아	-951
▁이해	-952
▁찾아	-953
임금	-954
▁추진	-955
▁디지털	-956
스를	-957
▁영향을	-958
업체	-959
서를	-960
선을	-961
▁보인다	-962
▁핵	-963
개월	-964
▁자연	-965
▁대상으로	-966
,000	-967
▁국민	-968
펀드	-969
수의	-970
▁생활	-971
관리	-972
▁도입	-973
▁역시	-974
▁현장	-975
▁레	-976
치는	-977
▁터	-978
▁가지	-979
▁강조	-980
▁비롯	-981
자들의	-982
▁문화	-983
▁희	-984
▁잠	-985
▁수도	-986
▁사고	-987
▁대응	-988
▁등에	-989
▁전기차	-990
명을	-991
스터	-992
▁서비스를	-993
안을	-994
웨이	-995
부에	-996
▁풍	-997
움을	-998
▁위험	-999
로는	-1000
▁계속	-1001
▁시청	-1002
▁인간	-1003
▁몰	-1004
▁대출	-1005
▁업계	-1006
▁매우	-1007
▁자체	-1008
▁격	-1009
점이	-1010
▁13	-1011
하고자	-1012
라마	-1013
▁먹	-1014
의를	-1015
함으로써	-1016
▁거래	-1017
▁콘텐츠	-1018
▁주변	-1019
▁가정	-1020
▁선보	-1021
립니다	-1022
되면서	-1023
▁효율	-1024
▁가족	-1025
부의	-1026
량이	-1027
회를	-1028
물을	-1029
렇게	-1030
▁압	-1031
▁부품	-1032
워크	-1033
▁있어서	-1034
▁자신의	-1035
▁수행	-1036
트를	-1037
▁나오	-1038
▁뿐	-1039
▁가능성이	-1040
▁공정	-1041
▁주장	-1042
규직	-1043
도의	-1044
▁신종	-1045
▁전환	-1046
포츠	-1047
▁싶	-1048
▁SUV	-1049
▁해결	-1050
량을	-1051
▁사람이	-1052
▁방문	-1053
▁침	-1054
▁고안은	-1055
▁떠	-1056
▁준비	-1057
▁취약	-1058
▁동시에	-1059
▁너	-1060
▁높아	-1061
▁앞서	-1062
▁발명에	-1063
리의	-1064
▁컴	-1065
▁먼	-1066
▁전달	-1067
▁최저	-1068
▁출연	-1069
학년	-1070
▁안내	-1071
▁기아	-1072
▁인터넷	-1073
대에	-1074
디오	-1075
▁능	-1076
▁비용	-1077
로부터	-1078
▁경험	-1079
성과	-1080
▁수익	-1081
▁등으로	-1082
▁16	-1083
▁좋은	-1084
▁컨	-1085
대가	-1086
▁처리	-1087
▁사랑	-1088
▁보다	-1089
르게	-1090
▁인해	-1091
시아	-1092
▁바로	-1093
▁놓	-1094
▁임금	-1095
했지만	-1096
▁수요	-1097
▁돌아	-1098
▁14	-1099
▁부담	-1100
▁귀	-1101
▁머	-1102
▁에너	-1103
▁25	-1104
▁표현	-1105
하려	-1106
▁0	-1107
한다는	-1108
자에게	-1109
▁둘	-1110
▁휴대	-1111
▁기본	-1112
명의	-1113
사회	-1114
▁골	-1115
▁계약	-1116
▁사례	-1117
▁예방	-1118
연구	-1119
환경	-1120
혁신	-1121
스가	-1122
▁펼	-1123
장의	-1124
▁정확	-1125
▁몸	-1126
▁아닌	-1127
▁지난달	-1128
밖에	-1129
▁정보를	-1130
한다고	-1131
플레이	-1132
전히	-1133
하거나	-1134
▁최초	-1135
정한	-1136
▁중소	-1137
▁서로	-1138
▁됐다	-1139
수는	-1140
▁신호	-1141
▁도로	-1142
',	-1143
▁있지만	-1144
시키는	-1145
▁않았다	-1146
▁라	-1147
▁즐	-1148
시켜	-1149
▁봉	-1150
나무	-1151
▁운전	-1152
▁앞으로	-1153
▁이뤄	-1154
가가	-1155
▁단말	-1156
▁스타	-1157
스는	-1158
▁17	-1159
▁내년	-1160
▁드러	-1161
소를	-1162
없이	-1163
▁육	-1164
▁정부가	-1165
하였	-1166
일부터	-1167
개의	-1168
제가	-1169
되었	-1170
▁직원	-1171
▁전략	-1172
▁공동	-1173
▁과학	-1174
인의	-1175
적이	-1176
▁최소	-1177
▁치료	-1178
▁사태	-1179
▁도시	-1180
▁하여	-1181
바이러스	-1182
▁중앙	-1183
세를	-1184
▁중심으로	-1185
▁핵심	-1186
▁차지	-1187
▁수입	-1188
업이	-1189
▁N	-1190
▁자리	-1191
▁제시	-1192
계가	-1193
선이	-1194
▁맡	-1195
냈다	-1196
▁보유	-1197
임을	-1198
▁넓	-1199
▁움	-1200
▁전지	-1201
▁경기	-1202
인을	-1203
나라	-1204
▁그래	-1205
투자	-1206
계층	-1207
▁작품	-1208
▁이와	-1209
▁붙	-1210
▁등장	-1211
드를	-1212
어난	-1213
▁윤	-1214
▁성공	-1215
▁사건	-1216
▁기판	-1217
▁다만	-1218
▁어린	-1219
▁목표	-1220
시는	-1221
바일	-1222
제로	-1223
▁나온다	-1224
▁전해	-1225
▁완성	-1226
▁마음	-1227
▁넘어	-1228
▁중요한	-1229
▁풀	-1230
▁교통	-1231
▁구매	-1232
▁스마트폰	-1233
▁자율	-1234
▁않아	-1235
▁방법을	-1236
▁외국	-1237
▁탑	-1238
MW	-1239
가를	-1240
면에	-1241
▁구축	-1242
▁보면	-1243
▁지방	-1244
▁50	-1245
▁디자인	-1246
▁르	-1247
▁이용한	-1248
▁참석	-1249
▁자유	-1250
되면	-1251
▁일자	-1252
물이	-1253
▁가능하다	-1254
▁장기	-1255
▁울	-1256
▁개시	-1257
▁받은	-1258
차를	-1259
▁고정	-1260
서비스	-1261
▁되었다	-1262
▁황	-1263
▁계획이다	-1264
▁성능	-1265
▁되어	-1266
▁자녀	-1267
동안	-1268
시스템	-1269
드립니다	-1270
상의	-1271
▁먼저	-1272
▁반응	-1273
하기로	-1274
지역	-1275
▁팔	-1276
규모	-1277
▁야	-1278
▁하락	-1279
▁표시	-1280
▁결합	-1281
▁배터	-1282
▁착	-1283
▁이용하여	-1284
회로	-1285
개발	-1286
다가	-1287
▁평균	-1288
씨는	-1289
▁끌	-1290
▁움직	-1291
▁비해	-1292
▁어렵	-1293
▁어느	-1294
▁상대	-1295
사와	-1296
▁수출	-1297
▁국제	-1298
▁겪	-1299
▁과거	-1300
▁역할을	-1301
▁난	-1302
화가	-1303
▁무선	-1304
▁선정	-1305
에서의	-1306
성은	-1307
프트	-1308
하다는	-1309
이를	-1310
▁주목	-1311
사에	-1312
주행	-1313
▁무엇	-1314
자들은	-1315
▁나타났다	-1316
떻게	-1317
▁발견	-1318
▁인정	-1319
▁깊	-1320
▁의견	-1321
마다	-1322
▁않는다	-1323
▁기관	-1324
BS	-1325
스로	-1326
▁뛰	-1327
▁현실	-1328
대의	-1329
▁상당	-1330
▁죽	-1331
▁알고	-1332
▁엄	-1333
▁우선	-1334
▁품	-1335
▁유럽	-1336
▁석	-1337
▁부족	-1338
▁문제가	-1339
▁사진	-1340
트워크	-1341
▁전했다	-1342
▁퇴	-1343
로서	-1344
▁의한	-1345
▁받고	-1346
도는	-1347
▁제출	-1348
▁아직	-1349
▁녹	-1350
▁모바일	-1351
▁어떻게	-1352
▁각종	-1353
더라도	-1354
퓨터	-1355
.5	-1356
▁자기	-1357
용차	-1358
▁우수	-1359
▁BMW	-1360
이지	-1361
▁대학	-1362
▁쌍	-1363
▁감독	-1364
되며	-1365
▁공공	-1366
▁인한	-1367
▁스포츠	-1368
▁와	-1369
시킨	-1370
▁건설	-1371
병원	-1372
촬영	-1373
스의	-1374
▁취약계층	-1375
▁것도	-1376
▁웨이	-1377
▁르노	-1378
▁이전	-1379
비를	-1380
▁대형	-1381
▁필요하다	-1382
▁그것	-1383
▁24	-1384
▁코로나바이러스	-1385
▁조성	-1386
▁신뢰	-1387
▁있기	-1388
▁파악	-1389
▁제한	-1390
▁공유	-1391
▁불가	-1392
나는	-1393
▁최저임금	-1394
▁없어	-1395
▁학습	-1396
▁체험	-1397
장치에	-1398
▁있는데	-1399
▁액	-1400
▁혁신	-1401
▁근로자	-1402
▁뜻	-1403
▁외부	-1404
▁작업	-1405
▁오후	-1406
▁R	-1407
▁작은	-1408
르고	-1409
생활	-1410
▁않았	-1411
▁금속	-1412
스플레이	-1413
▁놀	-1414
▁오늘	-1415
▁만에	-1416
▁반영	-1417
▁결국	-1418
었던	-1419
▁인식	-1420
회의	-1421
과의	-1422
▁주택	-1423
▁줄어	-1424
▁지분	-1425
▁영역	-1426
▁한다는	-1427
내는	-1428
50	-1429
▁하이	-1430
년에	-1431
▁기술을	-1432
▁받았다	-1433
▁않을	-1434
▁본격	-1435
▁여성	-1436
씨가	-1437
▁과정에서	-1438
▁돈	-1439
▁만든	-1440
▁접속	-1441
▁수신	-1442
장에서	-1443
▁가지고	-1444
▁달리	-1445
리티	-1446
▁신규	-1447
지면서	-1448
▁번째	-1449
▁병원	-1450
▁변경	-1451
▁사회적	-1452
질을	-1453
▁사람들이	-1454
▁충전	-1455
▁V	-1456
움이	-1457
▁제기	-1458
▁참가	-1459
▁낮은	-1460
▁몇	-1461
▁희망	-1462
머니	-1463
▁궁	-1464
▁모습이	-1465
▁위하여	-1466
▁매출	-1467
▁전문가	-1468
▁기능을	-1469
수록	-1470
▁용이	-1471
▁내부	-1472
▁인공	-1473
률이	-1474
이오	-1475
▁협력	-1476
▁받을	-1477
▁전송	-1478
권을	-1479
▁채널	-1480
이션	-1481
▁충분	-1482
인지	-1483
▁하루	-1484
▁이것	-1485
치가	-1486
스타	-1487
▁부탁	-1488
동산	-1489
▁근무	-1490
▁쉽게	-1491
▁21	-1492
▁티	-1493
년간	-1494
▁측정	-1495
문을	-1496
▁미디어	-1497
▁그의	-1498
화된	-1499
▁민주	-1500
하지만	-1501
▁AI	-1502
자에	-1503
구조	-1504
성에	-1505
회사	-1506
▁조직	-1507
▁노력	-1508
▁정상	-1509
▁전화	-1510
▁네트워크	-1511
이드	-1512
체가	-1513
파트	-1514
▁F	-1515
▁촬영	-1516
▁웃	-1517
▁SK	-1518
방법에	-1519
관계	-1520
▁꾸	-1521
▁노사	-1522
▁O	-1523
라며	-1524
▁웨이퍼	-1525
세대	-1526
증권	-1527
▁로봇	-1528
조합	-1529
체를	-1530
이라며	-1531
기와	-1532
▁드라마	-1533
했다는	-1534
증을	-1535
▁벤	-1536
▁은	-1537
▁모습을	-1538
롭게	-1539
체의	-1540
▁변동	-1541
구가	-1542
▁가진	-1543
▁기아차	-1544
근로	-1545
텔레	-1546
▁반면	-1547
린다	-1548
노총	-1549
소가	-1550
▁중단	-1551
리지	-1552
세가	-1553
인은	-1554
안전	-1555
▁가까	-1556
▁그룹	-1557
▁모터	-1558
▁시설	-1559
▁아니다	-1560
▁199	-1561
▁사망	-1562
▁중인	-1563
메라	-1564
▁단순	-1565
▁올라	-1566
▁설계	-1567
▁내용을	-1568
이기	-1569
▁대신	-1570
▁목적	-1571
▁통한	-1572
▁팬	-1573
▁솔	-1574
▁지정	-1575
▁프리	-1576
장에	-1577
▁마이	-1578
하던	-1579
금이	-1580
BC	-1581
▁마스크	-1582
▁거의	-1583
▁23	-1584
리와	-1585
▁1,	-1586
▁퍼	-1587
겠다	-1588
▁회로	-1589
일까지	-1590
▁신용	-1591
기간	-1592
▁전극	-1593
▁소재	-1594
▁내려	-1595
▁컴퓨터	-1596
▁납	-1597
▁삶	-1598
▁디스플레이	-1599
▁소형	-1600
들도	-1601
▁주로	-1602
도에	-1603
▁인상	-1604
▁중소기업	-1605
▁숨	-1606
회가	-1607
▁음악	-1608
▁조정	-1609
▁주시기	-1610
▁흥	-1611
▁제거	-1612
자산	-1613
▁주식	-1614
▁너무	-1615
▁관심을	-1616
브리	-1617
▁동일	-1618
▁겨	-1619
▁주민	-1620
▁접촉	-1621
▁제외	-1622
▁시간이	-1623
▁22	-1624
으로는	-1625
▁곡	-1626
위가	-1627
▁경찰	-1628
km	-1629
▁일이	-1630
▁장애	-1631
▁관심이	-1632
▁탈	-1633
▁했	-1634
위에	-1635
▁우리나라	-1636
▁연기	-1637
▁활성	-1638
▁견	-1639
▁답	-1640
지지	-1641
▁단계	-1642
▁이상의	-1643
▁조건	-1644
▁정치	-1645
▁갖는	-1646
▁대구	-1647
▁일정	-1648
가지	-1649
▁실험	-1650
▁27	-1651
▁효과를	-1652
▁검사	-1653
장과	-1654
웨어	-1655
▁장착	-1656
함을	-1657
▁규제	-1658
▁슬	-1659
▁덕	-1660
▁홈	-1661
▁왕	-1662
▁강조했다	-1663
▁냉	-1664
▁40	-1665
▁시민	-1666
▁갖고	-1667
▁억	-1668
▁왜	-1669
▁소속	-1670
▁않다	-1671
▁본교	-1672
통령	-1673
▁하지	-1674
분기	-1675
)'	-1676
▁흔	-1677
▁정도로	-1678
▁혜	-1679
시설	-1680
▁블록	-1681
실을	-1682
▁장치에	-1683
등학교	-1684
▁2017	-1685
하시	-1686
▁구현	-1687
율을	-1688
▁특정	-1689
▁없었다	-1690
으로부터	-1691
▁빛	-1692
▁자산	-1693
▁수가	-1694
▁구비	-1695
▁대체	-1696
▁멀	-1697
▁이렇게	-1698
▁위해서는	-1699
▁사전	-1700
▁같다	-1701
▁행복	-1702
▁균	-1703
▁어려운	-1704
격을	-1705
▁낙	-1706
▁하나의	-1707
상에	-1708
소득	-1709
▁개정	-1710
으로서	-1711
▁발달	-1712
▁감염증	-1713
▁의하면	-1714
▁이동통신	-1715
▁이제	-1716
▁입력	-1717
▁향후	-1718
반기	-1719
▁얼마	-1720
▁2018	-1721
대한	-1722
▁주는	-1723
▁레이	-1724
코리아	-1725
▁H	-1726
▁폴	-1727
감이	-1728
▁자율주행	-1729
▁그렇	-1730
▁독일	-1731
▁26	-1732
▁흘	-1733
부와	-1734
경제	-1735
▁협조	-1736
▁신차	-1737
▁색	-1738
▁화학	-1739
면을	-1740
트로	-1741
▁논의	-1742
▁환자	-1743
▁다음과	-1744
▁비중	-1745
하는데	-1746
.2	-1747
10	-1748
▁운동	-1749
▁노동자	-1750
80	-1751
▁밤	-1752
▁대통령	-1753
▁필요가	-1754
마을	-1755
▁점을	-1756
▁‘	-1757
▁앱	-1758
▁촉	-1759
▁부동산	-1760
식이	-1761
▁이하	-1762
▁보건	-1763
▁비정	-1764
▁흡	-1765
▁이들	-1766
소년	-1767
조정	-1768
▁많다	-1769
리로	-1770
▁살펴	-1771
▁성과	-1772
▁시간을	-1773
하자	-1774
고용	-1775
▁두고	-1776
▁작용	-1777
▁소개	-1778
er	-1779
▁인수	-1780
TV	-1781
릭터	-1782
지와	-1783
▁내놓	-1784
구를	-1785
▁오전	-1786
▁문제를	-1787
▁열린	-1788
▁잔	-1789
▁카메라	-1790
▁차종	-1791
▁통과	-1792
전을	-1793
에선	-1794
하기도	-1795
▁헤	-1796
▁아무	-1797
▁그런데	-1798
업계	-1799
지막	-1800
▁상황에서	-1801
in	-1802
▁발명의	-1803
지도	-1804
신호	-1805
▁여기에	-1806
▁라이	-1807
케팅	-1808
▁담당	-1809
▁덧	-1810
▁좌	-1811
▁TV	-1812
▁분위	-1813
▁공식	-1814
▁받는	-1815
▁캐릭터	-1816
상공	-1817
▁탑재	-1818
진이	-1819
▁데이터를	-1820
▁진단	-1821
갔다	-1822
▁사용하는	-1823
▁개념	-1824
▁활동을	-1825
년부터	-1826
30	-1827
▁어린이	-1828
▁메시	-1829
인데	-1830
▁집단	-1831
▁2019	-1832
▁발생하는	-1833
별로	-1834
약을	-1835
▁통합	-1836
▁설립	-1837
▁하면	-1838
스러	-1839
▁제대로	-1840
▁여름	-1841
▁있던	-1842
▁여기	-1843
성의	-1844
▁예측	-1845
▁위원	-1846
▁경우가	-1847
▁듯	-1848
화에	-1849
▁공시	-1850
▁조절	-1851
▁되고	-1852
▁질병	-1853
국의	-1854
▁택	-1855
리스	-1856
▁28	-1857
▁것이라는	-1858
▁좀	-1859
체인	-1860
▁바탕	-1861
▁르노삼	-1862
활동	-1863
▁사이에	-1864
▁출력	-1865
됩니다	-1866
▁조합	-1867
▁등록	-1868
▁케이	-1869
▁깨	-1870
▁개최	-1871
▁설정	-1872
▁만족	-1873
▁영업	-1874
▁혹	-1875
▁접근	-1876
이자	-1877
▁방침	-1878
▁프로젝	-1879
▁센	-1880
▁셀	-1881
거래	-1882
▁감사	-1883
원에	-1884
지능	-1885
▁목소	-1886
▁파업	-1887
▁소득	-1888
▁캠	-1889
보다는	-1890
▁조선	-1891
▁행정	-1892
항공	-1893
▁사실을	-1894
▁전망이다	-1895
뮤니	-1896
▁대책	-1897
비가	-1898
▁부문	-1899
▁전력	-1900
▁사용할	-1901
쪽에	-1902
▁최종	-1903
▁음성	-1904
▁고속	-1905
▁여전히	-1906
명으로	-1907
아가	-1908
산이	-1909
▁시스템을	-1910
▁요청	-1911
했을	-1912
▁망	-1913
른다	-1914
▁차단	-1915
▁검토	-1916
▁보내	-1917
on	-1918
▁섬	-1919
▁대중	-1920
▁태양	-1921
▁덧붙	-1922
▁바람	-1923
▁정부는	-1924
▁목적으로	-1925
▁애플	-1926
카오	-1927
▁상담	-1928
▁플라	-1929
▁회전	-1930
▁자신이	-1931
▁읽	-1932
년대	-1933
질이	-1934
.1	-1935
되기	-1936
▁못한	-1937
도와	-1938
구의	-1939
섰다	-1940
▁나서	-1941
들에	-1942
▁책임	-1943
▁우리가	-1944
▁배출	-1945
▁구체	-1946
▁29	-1947
▁논란	-1948
이지만	-1949
▁동작	-1950
케이션	-1951
▁해석	-1952
달러	-1953
오니	-1954
▁혜택	-1955
만큼	-1956
▁보는	-1957
▁첨	-1958
▁만나	-1959
보는	-1960
▁알려졌다	-1961
데이터	-1962
▁마지막	-1963
▁자금	-1964
▁염	-1965
고를	-1966
인트	-1967
▁조금	-1968
울러	-1969
▁그래서	-1970
▁라인	-1971
▁비슷	-1972
차가	-1973
드가	-1974
원으로	-1975
▁방향으로	-1976
복지	-1977
▁부탁드립니다	-1978
▁수밖에	-1979
▁소비자	-1980
▁스위	-1981
▁연속	-1982
▁믿	-1983
▁청년	-1984
겼다	-1985
▁갑	-1986
▁2016	-1987
물의	-1988
.3	-1989
불어	-1990
▁뒷	-1991
프로	-1992
▁스스로	-1993
▁있으	-1994
▁꼽	-1995
었고	-1996
▁나는	-1997
▁나왔다	-1998
▁아파트	-1999
▁것이라고	-2000
▁분리	-2001
▁펼쳐	-2002
▁아울러	-2003
▁에너지	-2004
▁정부의	-2005
▁내가	-2006
▁펀드	-2007
▁배터리	-2008
사로	-2009
안이	-2010
▁환자가	-2011
▁커뮤니	-2012
▁수소	-2013
리즈	-2014
▁보장	-2015
▁잇	-2016
노조	-2017
▁결과를	-2018
▁더불어	-2019
주가	-2020
▁장치를	-2021
거리	-2022
일을	-2023
월부터	-2024
60	-2025
▁둔	-2026
▁좋아	-2027
▁체결	-2028
▁원하는	-2029
▁궁금	-2030
▁긴급	-2031
▁모양	-2032
▁혐	-2033
▁마케팅	-2034
관이	-2035
▁회복	-2036
▁가져	-2037
▁채용	-2038
▁기계	-2039
▁실적	-2040
위는	-2041
정책	-2042
▁알아	-2043
천이	-2044
▁측은	-2045
▁그동안	-2046
▁나타나	-2047
▁않도록	-2048
▁많아	-2049
했으며	-2050
라우	-2051
▁벗	-2052
▁측면	-2053
▁편리	-2054
드의	-2055
▁방식으로	-2056
▁2020	-2057
류를	-2058
▁간단	-2059
▁달라	-2060
보고	-2061
▁일으	-2062
▁합의	-2063
항을	-2064
▁작동	-2065
멤버	-2066
▁때는	-2067
▁빨	-2068
이버	-2069
▁저장	-2070
▁전년	-2071
시가	-2072
액이	-2073
▁거쳐	-2074
▁하이브리	-2075
▁상호	-2076
원에서	-2077
▁실제로	-2078
▁광주	-2079
▁케	-2080
튜브	-2081
▁특성을	-2082
문화	-2083
▁만드는	-2084
▁늘어나	-2085
생님	-2086
▁팀	-2087
▁가수	-2088
▁것으로서	-2089
▁비판	-2090
▁종합	-2091
▁KT	-2092
▁부모	-2093
▁불법	-2094
.4	-2095
▁익	-2096
▁쿠	-2097
▁인공지능	-2098
▁숙	-2099
▁전압	-2100
▁쇼	-2101
▁것과	-2102
▁살아	-2103
▁빠르게	-2104
▁관광	-2105
쳤다	-2106
▁대규모	-2107
시키고	-2108
▁제도	-2109
▁전원	-2110
산을	-2111
▁기억	-2112
먼트	-2113
▁발생한	-2114
스럽	-2115
▁제안	-2116
▁지지	-2117
함에	-2118
▁시장에서	-2119
▁유명	-2120
하겠다	-2121
.6	-2122
mm	-2123
▁덧붙였다	-2124
▁일자리	-2125
▁도전	-2126
▁시각	-2127
▁빈	-2128
▁노출	-2129
▁구동	-2130
▁미세	-2131
있는	-2132
▁해도	-2133
간의	-2134
▁이야기	-2135
심을	-2136
▁카카오	-2137
▁바이러스	-2138
▁유기	-2139
▁하며	-2140
▁해야	-2141
▁추정	-2142
▁지도	-2143
▁투입	-2144
▁아주	-2145
랐다	-2146
▁이곳	-2147
▁일을	-2148
▁그대로	-2149
▁영국	-2150
류가	-2151
▁바탕으로	-2152
▁비정규직	-2153
해주	-2154
품을	-2155
▁늘어	-2156
관을	-2157
▁누구	-2158
.8	-2159
▁타이어	-2160
NS	-2161
▁최초로	-2162
크로	-2163
▁강력	-2164
▁나선	-2165
.7	-2166
길을	-2167
터를	-2168
오는	-2169
▁여행	-2170
▁사라	-2171
▁X	-2172
▁최소화	-2173
▁꿈	-2174
▁탐	-2175
▁스토	-2176
▁소프트	-2177
▁웹	-2178
▁언론	-2179
▁패턴	-2180
▁하기	-2181
▁31	-2182
▁공장	-2183
▁멤버	-2184
서도	-2185
▁외국인	-2186
▁인하	-2187
▁전통	-2188
▁수상	-2189
▁확인할	-2190
▁에어	-2191
▁순간	-2192
▁증권	-2193
▁발행	-2194
▁행사	-2195
스와	-2196
▁카드	-2197
▁행동	-2198
▁정규직	-2199
▁이달	-2200
▁전시	-2201
▁하였다	-2202
▁비롯해	-2203
억원을	-2204
본부	-2205
▁돼	-2206
▁기업이	-2207
▁기초	-2208
대출	-2209
▁고민	-2210
▁실시간	-2211
▁의무	-2212
어를	-2213
학습	-2214
▁공연	-2215
▁정신	-2216
▁발광	-2217
▁듣	-2218
▁작성	-2219
▁중이다	-2220
▁보조	-2221
▁벌어	-2222
▁달러	-2223
▁사업을	-2224
시켰	-2225
▁아름	-2226
▁시작했다	-2227
▁관객	-2228
.9	-2229
▁60	-2230
▁자본	-2231
▁민간	-2232
▁예고	-2233
▁신속	-2234
테크	-2235
기준	-2236
▁것에	-2237
장치를	-2238
▁형성된	-2239
페이	-2240
▁물리	-2241
▁시험	-2242
▁운용	-2243
만을	-2244
치고	-2245
준다	-2246
▁입장	-2247
▁끊	-2248
낸다	-2249
리즘	-2250
▁연료	-2251
▁이론	-2252
▁실업	-2253
▁기준으로	-2254
▁인력	-2255
▁해고	-2256
▁빌	-2257
거운	-2258
▁말을	-2259
성능	-2260
▁항상	-2261
▁우리는	-2262
▁초기	-2263
▁그가	-2264
리며	-2265
▁수는	-2266
▁셈	-2267
▁전에	-2268
▁쌓	-2269
히려	-2270
▁사람의	-2271
▁참고	-2272
두고	-2273
▁가득	-2274
량의	-2275
적이고	-2276
▁끼	-2277
사고	-2278
▁사람은	-2279
▁징	-2280
▁배경	-2281
▁수용	-2282
▁이끌	-2283
▁조치	-2284
▁불안	-2285
▁이야기를	-2286
▁겨울	-2287
▁남아	-2288
국이	-2289
처리	-2290
▁연장	-2291
▁보안	-2292
트가	-2293
▁의사	-2294
로를	-2295
▁빅	-2296
체에	-2297
▁제주	-2298
해진	-2299
▁되면	-2300
▁고용노동	-2301
▁개의	-2302
▁쏘	-2303
만의	-2304
▁높다	-2305
▁소상공	-2306
트의	-2307
티브	-2308
▁프로그램을	-2309
▁연간	-2310
와의	-2311
▁불편	-2312
▁확정	-2313
▁나라	-2314
선의	-2315
▁뮤	-2316
▁패널	-2317
▁콜	-2318
▁아우	-2319
▁검색	-2320
▁후보	-2321
방송	-2322
▁힘을	-2323
▁항공	-2324
▁금리	-2325
▁뜨	-2326
앨범	-2327
▁차별	-2328
▁정의	-2329
▁꼭	-2330
▁교수	-2331
▁나무	-2332
▁프레	-2333
▁씨	-2334
학생	-2335
▁친구	-2336
▁매년	-2337
▁학생들의	-2338
▁매각	-2339
▁상세	-2340
▁예술	-2341
▁잃	-2342
▁방지할	-2343
▁하이브리드	-2344
▁심각	-2345
▁조작	-2346
▁둘러	-2347
▁구분	-2348
▁비롯한	-2349
제는	-2350
▁없다는	-2351
▁이유로	-2352
▁점에서	-2353
▁통계	-2354
),	-2355
기판	-2356
▁옥	-2357
정에	-2358
회에	-2359
▁시장에	-2360
회에서	-2361
▁기술이	-2362
▁관련된	-2363
금리	-2364
▁전파	-2365
▁일어나	-2366
▁분포	-2367
▁근거	-2368
▁뇌	-2369
조사	-2370
▁연계	-2371
▁편의	-2372
▁무역	-2373
률을	-2374
대는	-2375
▁곧	-2376
면의	-2377
시고	-2378
▁코스	-2379
▁특수	-2380
만이	-2381
관은	-2382
▁부정	-2383
요타	-2384
카드	-2385
▁이들은	-2386
▁억제	-2387
▁전반	-2388
▁그려	-2389
▁기반으로	-2390
가고	-2391
개를	-2392
단을	-2393
▁적절	-2394
▁재판	-2395
▁조립	-2396
겠다는	-2397
▁진출	-2398
▁분류	-2399
▁종래	-2400
▁휘	-2401
▁아시아	-2402
▁짧	-2403
▁기업의	-2404
▁속에서	-2405
▁값	-2406
상은	-2407
▁결혼	-2408
▁우려가	-2409
▁못하고	-2410
▁이처럼	-2411
▁불과	-2412
▁대해서는	-2413
▁혹은	-2414
▁오히려	-2415
법을	-2416
코로나	-2417
▁이벤	-2418
▁언급	-2419
▁흘러	-2420
회는	-2421
니터	-2422
▁프랑	-2423
테나	-2424
▁2015	-2425
▁상황이	-2426
▁과정을	-2427
▁뿐만	-2428
류의	-2429
다면	-2430
적이다	-2431
5%	-2432
으면서	-2433
▁교환	-2434
▁친환경	-2435
▁수업	-2436
▁중고	-2437
▁직장	-2438
만으로	-2439
▁한다고	-2440
진을	-2441
형을	-2442
▁느끼	-2443
과학	-2444
발전	-2445
드시	-2446
▁스트	-2447
▁옛	-2448
▁쉬	-2449
▁신고	-2450
▁프리미	-2451
정의	-2452
▁꾸준	-2453
량은	-2454
▁인도	-2455
▁습	-2456
▁트랜	-2457
휴직	-2458
▁단축	-2459
점에서	-2460
▁202	-2461
모터	-2462
▁확진자가	-2463
▁도움이	-2464
▁개별	-2465
▁GM	-2466
단이	-2467
▁통화	-2468
▁확장	-2469
▁취업	-2470
▁민주노총	-2471
▁괴	-2472
일에	-2473
▁구조를	-2474
▁처음으로	-2475
주택	-2476
▁단체	-2477
하다고	-2478
원과	-2479
위로	-2480
▁넘는	-2481
▁안에	-2482
▁구글	-2483
▁운행	-2484
▁300	-2485
니까	-2486
▁복잡	-2487
▁적합	-2488
호화	-2489
▁노래	-2490
▁지켜	-2491
▁원격	-2492
▁마음을	-2493
▁혈	-2494
인과	-2495
▁자료	-2496
▁등은	-2497
가격	-2498
▁역사	-2499
▁보이는	-2500
▁판결	-2501
▁얘	-2502
▁반복	-2503
▁꽃	-2504
갤럭	-2505
▁달성	-2506
▁최적	-2507
▁흐름	-2508
.0	-2509
질의	-2510
운용	-2511
상품	-2512
▁홍보	-2513
지면	-2514
▁위해서	-2515
전지	-2516
▁쏟	-2517
▁얼굴	-2518
▁맥	-2519
는지	-2520
년까지	-2521
ED	-2522
▁폭발	-2523
계약	-2524
시의	-2525
▁길이	-2526
▁보도	-2527
▁전용	-2528
어링	-2529
구하고	-2530
▁'20	-2531
명은	-2532
▁손실	-2533
갤럭시	-2534
상으로	-2535
▁말한다	-2536
▁포함한	-2537
감독	-2538
▁완성차	-2539
▁상대적으로	-2540
평가	-2541
▁경우에는	-2542
▁옮	-2543
▁위반	-2544
▁상황을	-2545
▁넣	-2546
일이	-2547
▁기존의	-2548
봤다	-2549
면이	-2550
▁소통	-2551
▁기여	-2552
분이	-2553
▁기획	-2554
▁이온	-2555
▁관련해	-2556
우는	-2557
▁끌어	-2558
▁점검	-2559
▁지원을	-2560
▁반대	-2561
계의	-2562
로가	-2563
비용	-2564
▁슈	-2565
▁리튬	-2566
▁재미	-2567
▁수입차	-2568
영업	-2569
▁의심	-2570
▁소송	-2571
▁소유	-2572
▁훨	-2573
▁유리	-2574
▁유사	-2575
▁소프트웨어	-2576
라운	-2577
▁메모	-2578
▁우수한	-2579
동이	-2580
▁유입	-2581
▁보였다	-2582
스러운	-2583
▁향상시킬	-2584
단체	-2585
대책	-2586
▁훨씬	-2587
력과	-2588
▁유통	-2589
▁인천	-2590
▁이유는	-2591
어도	-2592
교통	-2593
작용	-2594
▁전혀	-2595
▁주도	-2596
▁모니터	-2597
▁장소	-2598
▁찬	-2599
▁실현	-2600
▁구입	-2601
▁악화	-2602
▁채권	-2603
▁어려움을	-2604
건을	-2605
▁패키	-2606
▁불가능	-2607
재를	-2608
▁방역	-2609
액을	-2610
즈니	-2611
▁이익	-2612
▁사용되는	-2613
아이	-2614
분에	-2615
▁동의	-2616
▁원자	-2617
▁이용해	-2618
영화	-2619
▁극복	-2620
보호	-2621
▁지속적으로	-2622
▁아버	-2623
▁왔다	-2624
▁규모의	-2625
▁블록체인	-2626
▁형태로	-2627
▁개시한다	-2628
학년도	-2629
▁모듈	-2630
▁특성	-2631
▁포함하는	-2632
▁얼마나	-2633
▁히	-2634
▁언제	-2635
▁반드시	-2636
▁방안을	-2637
▁내에	-2638
▁생태	-2639
▁오래	-2640
▁텔레	-2641
▁사용자가	-2642
감염	-2643
목을	-2644
트는	-2645
▁르노삼성	-2646
▁응답	-2647
▁J	-2648
▁시대	-2649
▁삼성전자	-2650
▁의견을	-2651
뿐만	-2652
▁휴대폰	-2653
▁네이버	-2654
▁힘들	-2655
▁못하는	-2656
▁활성화	-2657
▁거주	-2658
사들이	-2659
▁가치	-2660
▁양자	-2661
▁설명이다	-2662
▁출신	-2663
▁수요가	-2664
쪽으로는	-2665
▁지적했다	-2666
▁휠	-2667
▁상황이다	-2668
과는	-2669
or	-2670
▁예상된다	-2671
▁셈이다	-2672
▁푸	-2673
빌리티	-2674
▁결제	-2675
▁스타트	-2676
전압	-2677
▁밝혀	-2678
▁요소	-2679
금은	-2680
▁벤츠	-2681
▁것처럼	-2682
유의	-2683
▁갈등	-2684
루션	-2685
였던	-2686
트에	-2687
▁현지	-2688
▁것입니다	-2689
산화	-2690
▁생성	-2691
▁인근	-2692
at	-2693
▁싸	-2694
지며	-2695
▁루	-2696
웠다	-2697
▁메르	-2698
▁러	-2699
▁부여	-2700
가의	-2701
▁핀	-2702
▁창출	-2703
다운	-2704
구에	-2705
르기	-2706
▁유동	-2707
▁맛	-2708
▁방침이다	-2709
계획	-2710
하려는	-2711
▁변화를	-2712
▁배치	-2713
▁판정을	-2714
▁어디	-2715
스바	-2716
▁계산	-2717
▁통하여	-2718
▁예를	-2719
▁절반	-2720
은행이	-2721
이란	-2722
▁낮아	-2723
라우드	-2724
▁충분히	-2725
▁학생들이	-2726
▁금지	-2727
월에	-2728
▁검출	-2729
▁해소	-2730
경영	-2731
▁대표는	-2732
▁적극적으로	-2733
▁급격	-2734
▁안테나	-2735
▁높이	-2736
상태	-2737
스에	-2738
▁그렇게	-2739
40	-2740
▁자아	-2741
▁걱	-2742
▁관찰	-2743
▁가는	-2744
▁예능	-2745
방향	-2746
▁마찬	-2747
▁표준	-2748
▁증상이	-2749
▁동기	-2750
▁운전자	-2751
▁딸	-2752
▁줄어들	-2753
▁넓은	-2754
▁재료	-2755
▁시스템에	-2756
▁혐의	-2757
▁구조조정	-2758
▁완화	-2759
▁지금까지	-2760
았던	-2761
어진	-2762
▁디젤	-2763
▁맞춰	-2764
▁이때	-2765
▁긍	-2766
▁맺	-2767
▁유튜브	-2768
..	-2769
▁관측	-2770
▁사용자	-2771
기에서	-2772
▁다이	-2773
▁워	-2774
▁젊	-2775
학적	-2776
▁주파	-2777
▁공시했다	-2778
산의	-2779
▁인증	-2780
▁발표한	-2781
▁위치한	-2782
▁발표했다	-2783
프라	-2784
▁경기도	-2785
년이	-2786
장으로	-2787
▁업종	-2788
▁분명	-2789
▁있었던	-2790
▁노조는	-2791
▁진입	-2792
▁차이가	-2793
급여	-2794
▁간의	-2795
▁크다	-2796
▁하천	-2797
▁PC	-2798
▁강남	-2799
▁신경	-2800
▁독립	-2801
▁쌍용차	-2802
▁2000	-2803
어서	-2804
▁공개된	-2805
▁못했다	-2806
하므로	-2807
▁기다	-2808
▁융	-2809
▁그리	-2810
인으로	-2811
▁홀	-2812
층을	-2813
▁검찰	-2814
▁아동	-2815
서가	-2816
위의	-2817
▁삼성전	-2818
▁묻	-2819
▁타이	-2820
▁피해를	-2821
▁미국의	-2822
▁싱	-2823
▁앞두고	-2824
▁페이스	-2825
an	-2826
▁기원	-2827
▁신형	-2828
에만	-2829
해도	-2830
▁지하	-2831
▁비교적	-2832
70	-2833
▁전면	-2834
▁주고	-2835
명에	-2836
▁강한	-2837
즈마	-2838
▁해서	-2839
▁호흡	-2840
▁주장했다	-2841
느냐	-2842
▁규정	-2843
▁대기	-2844
▁고용보험	-2845
▁U	-2846
▁지역의	-2847
▁유도	-2848
되도록	-2849
▁칼	-2850
▁52	-2851
▁유전	-2852
번호	-2853
▁사이의	-2854
▁돕	-2855
내고	-2856
▁국도	-2857
▁나누	-2858
▁속에	-2859
인공	-2860
▁새롭게	-2861
려고	-2862
▁「	-2863
음이	-2864
▁선사	-2865
▁특허	-2866
▁가동	-2867
▁대기업	-2868
기능	-2869
▁쏟아	-2870
▁케이블	-2871
▁다소	-2872
▁규모가	-2873
▁IT	-2874
었지만	-2875
하게는	-2876
학과	-2877
▁수집	-2878
▁완료	-2879
분을	-2880
▁부착	-2881
▁허용	-2882
▁사람들은	-2883
많은	-2884
▁공기	-2885
▁개발한	-2886
▁보유한	-2887
▁완전히	-2888
▁가격이	-2889
▁방과	-2890
▁봄	-2891
단의	-2892
재가	-2893
▁미리	-2894
▁음식	-2895
▁감안	-2896
▁공격	-2897
테인	-2898
▁사실상	-2899
▁프리미엄	-2900
시킨다	-2901
▁새로	-2902
▁불구하고	-2903
▁제공할	-2904
▁기자	-2905
▁시장을	-2906
수로	-2907
▁등교	-2908
▁온도	-2909
▁더해	-2910
무리	-2911
▁빠른	-2912
어야	-2913
성장	-2914
점에	-2915
▁긍정	-2916
▁이외	-2917
▁지키	-2918
▁잘못	-2919
▁갤럭시	-2920
▁청소년	-2921
▁활용해	-2922
시를	-2923
▁앤	-2924
어가	-2925
스바겐	-2926
▁Q	-2927
문이	-2928
▁칩	-2929
▁개인정보	-2930
▁방안	-2931
적을	-2932
▁일상	-2933
▁충격	-2934
난다	-2935
▁전세	-2936
차는	-2937
▁지구	-2938
500	-2939
시켰다	-2940
분의	-2941
al	-2942
등급	-2943
질환	-2944
▁자세	-2945
▁옆	-2946
▁플라즈마	-2947
▁갖추	-2948
플러스	-2949
보건	-2950
려는	-2951
▁위기	-2952
지스터	-2953
▁공개했다	-2954
▁오픈	-2955
▁자동으로	-2956
▁급증	-2957
▁시장의	-2958
▁여부를	-2959
▁소자의	-2960
▁시장이	-2961
▁특징이다	-2962
기아	-2963
보면	-2964
▁500	-2965
▁느낌	-2966
▁눈길을	-2967
쪽에는	-2968
▁비슷한	-2969
▁손해	-2970
▁말씀	-2971
램프	-2972
▁바라	-2973
간다	-2974
▁간편	-2975
▁하다	-2976
▁저항	-2977
▁이용할	-2978
▁욕	-2979
▁바뀌	-2980
▁없을	-2981
▁엘	-2982
▁흑	-2983
▁밖	-2984
주를	-2985
▁실내	-2986
이에	-2987
제품	-2988
▁정리	-2989
▁원칙	-2990
▁절감	-2991
전화	-2992
사에서	-2993
▁이들의	-2994
▁중에	-2995
었습니다	-2996
▁상황에	-2997
▁사무	-2998
호선이	-2999
▁수술	-3000
▁이들이	-3001
▁장비	-3002
▁이름을	-3003
▁2,	-3004
▁뉴스	-3005
▁다르	-3006
▁추가로	-3007
▁시도	-3008
만원을	-3009
막을	-3010
▁위에	-3011
▁고급	-3012
▁시작한	-3013
▁동일한	-3014
직원	-3015
▁감지	-3016
▁기념	-3017
▁문제는	-3018
▁기록했다	-3019
리기	-3020
리콘	-3021
▁오른	-3022
▁감염병	-3023
▁기회를	-3024
▁늦	-3025
▁보니	-3026
성도	-3027
▁인쇄	-3028
▁고객이	-3029
▁스피	-3030
▁이로	-3031
▁대화	-3032
▁돌봄	-3033
형의	-3034
▁훈	-3035
학을	-3036
▁차례	-3037
▁않으면	-3038
▁용이하게	-3039
▁바다	-3040
▁드라이	-3041
국은	-3042
면서도	-3043
▁계열	-3044
▁핸	-3045
진은	-3046
▁절연	-3047
▁변환	-3048
▁발생할	-3049
▁형성되어	-3050
▁무료	-3051
▁유일	-3052
▁나섰다	-3053
▁자주	-3054
▁전쟁	-3055
▁강력한	-3056
▁들어가	-3057
▁겸	-3058
▁신한	-3059
▁받지	-3060
▁그녀	-3061
자동차가	-3062
효과	-3063
▁중간	-3064
행을	-3065
▁격리	-3066
▁그림	-3067
▁렌	-3068
▁사는	-3069
▁SNS	-3070
스럽게	-3071
▁불러	-3072
DI	-3073
의료	-3074
▁복합	-3075
▁어머니	-3076
▁특별한	-3077
▁찍	-3078
전기	-3079
증이	-3080
▁없고	-3081
▁지원하는	-3082
관의	-3083
산은	-3084
세포	-3085
▁다수의	-3086
▁거리	-3087
▁국토	-3088
신이	-3089
전이	-3090
당한	-3091
▁선호	-3092
▁얻을	-3093
한다면	-3094
▁학부모님께	-3095
▁적은	-3096
▁종사	-3097
체험	-3098
▁남편	-3099
∼2	-3100
▁걸쳐	-3101
▁되지	-3102
▁물질	-3103
▁비상	-3104
지게	-3105
▁마무리	-3106
다른	-3107
▁깊은	-3108
대학교	-3109
▁빼	-3110
개가	-3111
율은	-3112
▁스크	-3113
▁정확한	-3114
게임	-3115
▁확실	-3116
안정	-3117
계는	-3118
▁오랜	-3119
▁땅	-3120
종의	-3121
▁수수	-3122
력의	-3123
▁건물	-3124
▁좁	-3125
▁획	-3126
터의	-3127
▁고령	-3128
▁회장	-3129
▁나오는	-3130
▁삽	-3131
드라마	-3132
▁특징으로	-3133
▁자극	-3134
▁마을이	-3135
▁니	-3136
▁선거	-3137
▁탄소	-3138
▁연출	-3139
▁완벽	-3140
가스	-3141
▁마치	-3142
▁지배	-3143
▁모여	-3144
데스	-3145
형이	-3146
▁앨범	-3147
▁이상이	-3148
▁가속	-3149
▁돈을	-3150
년을	-3151
▁KB	-3152
방법을	-3153
▁늘어난	-3154
▁있음을	-3155
▁하는데	-3156
▁현대차는	-3157
▁t	-3158
▁이내	-3159
▁인사	-3160
▁좋다	-3161
려면	-3162
▁적극적인	-3163
▁W	-3164
▁등에서	-3165
▁이미지	-3166
▁낸	-3167
AI	-3168
같이	-3169
▁전날	-3170
▁증폭	-3171
리카	-3172
중에	-3173
▁뛰어	-3174
▁이용하는	-3175
▁명의	-3176
▁혜택을	-3177
▁아우디	-3178
▁할인	-3179
▁어렵다	-3180
▁대부분의	-3181
받고	-3182
률은	-3183
▁MBC	-3184
▁수많은	-3185
▁198	-3186
구는	-3187
어요	-3188
▁페이스북	-3189
▁제조방법에	-3190
▁생긴	-3191
하겠다는	-3192
서에	-3193
▁활발	-3194
함이	-3195
▁담긴	-3196
▁됐	-3197
▁지식	-3198
인들이	-3199
▁팩	-3200
부품	-3201
크를	-3202
.5%	-3203
ar	-3204
▁가공	-3205
▁에이	-3206
▁상반기	-3207
▁파워	-3208
▁멀티	-3209
▁보통	-3210
▁센터	-3211
▁앞에서	-3212
▁느껴	-3213
▁젊은	-3214
신을	-3215
제의	-3216
▁바꾸	-3217
▁산화	-3218
▁기울	-3219
받는	-3220
▁꾸준히	-3221
롯데	-3222
하이	-3223
▁모아	-3224
▁졸	-3225
▁세단	-3226
서의	-3227
판매	-3228
▁회의	-3229
ST	-3230
같은	-3231
▁맞아	-3232
▁있지	-3233
에게는	-3234
▁쉽지	-3235
▁영상을	-3236
동의	-3237
▁구간	-3238
▁상용	-3239
지기	-3240
▁회장이	-3241
▁맞춤	-3242
▁도움을	-3243
11	-3244
▁틀	-3245
▁클라우드	-3246
▁묘	-3247
▁아마	-3248
▁찾는	-3249
▁다가	-3250
▁비중이	-3251
차량	-3252
▁등과	-3253
▁나머	-3254
▁데뷔	-3255
▁유발	-3256
▁미치는	-3257
▁운영하는	-3258
계에	-3259
▁해안	-3260
▁원활	-3261
▁재난	-3262
▁성능을	-3263
액은	-3264
▁생기	-3265
▁필수	-3266
호선	-3267
▁우주	-3268
▁상세하게는	-3269
▁음극	-3270
▁적이	-3271
▁교수는	-3272
▁대하여	-3273
▁재생	-3274
▁수준의	-3275
▁여파	-3276
▁굴	-3277
들로	-3278
▁대폭	-3279
▁입원	-3280
장치의	-3281
▁점점	-3282
▁관심과	-3283
▁담임	-3284
▁방법이	-3285
▁서울시	-3286
▁제네	-3287
받은	-3288
▁KBS	-3289
▁복지	-3290
▁지분율이	-3291
▁가을	-3292
▁금감	-3293
▁인간의	-3294
▁받았	-3295
세데스	-3296
적으로는	-3297
부문	-3298
층의	-3299
▁있으나	-3300
력은	-3301
▁점이	-3302
▁인물	-3303
▁삭	-3304
▁질문	-3305
페이스	-3306
했습니다	-3307
자기	-3308
▁국회	-3309
▁추천	-3310
▁표면	-3311
▁년	-3312
▁충돌	-3313
점으로	-3314
제도	-3315
전문	-3316
력으로	-3317
▁무엇보다	-3318
▁아래와	-3319
테인먼트	-3320
무를	-3321
▁갖춘	-3322
▁상장	-3323
▁구성된	-3324
▁제품을	-3325
▁양성	-3326
주고	-3327
▁맞는	-3328
전에	-3329
▁가까운	-3330
전극	-3331
▁커넥	-3332
▁평소	-3333
▁내에서	-3334
▁점차	-3335
18	-3336
▁별도의	-3337
▁1000	-3338
▁사로	-3339
▁자리를	-3340
력에	-3341
▁만들었다	-3342
▁스타트업	-3343
리오	-3344
▁탄생	-3345
년에는	-3346
▁선생님	-3347
했는데	-3348
과정	-3349
▁지연	-3350
▁벽	-3351
라면	-3352
론을	-3353
▁점유	-3354
▁활용한	-3355
대상	-3356
▁실천	-3357
▁준다	-3358
▁사례가	-3359
▁솔루션	-3360
솔린	-3361
▁한번	-3362
▁인지	-3363
▁협의	-3364
▁축소	-3365
▁보이고	-3366
▁게이트	-3367
받을	-3368
▁저하	-3369
▁대표적인	-3370
▁멈	-3371
▁짓	-3372
▁텔레비	-3373
단은	-3374
드로	-3375
▁줄일	-3376
▁중고차	-3377
▁놓고	-3378
▁밑	-3379
▁명확	-3380
▁사로잡	-3381
▁감정	-3382
자들에게	-3383
▁객	-3384
미디어	-3385
▁의하여	-3386
▁메르세데스	-3387
∼3	-3388
단에	-3389
영상	-3390
▁맞이	-3391
▁형태의	-3392
가능	-3393
▁정기	-3394
▁앉	-3395
▁계곡	-3396
▁테스트	-3397
▁부과	-3398
▁닛	-3399
▁임대	-3400
타이어	-3401
▁변화가	-3402
▁열고	-3403
▁중요하다	-3404
12	-3405
▁균일	-3406
사인	-3407
표를	-3408
▁가솔린	-3409
▁마이크로	-3410
물질	-3411
히는	-3412
▁많았다	-3413
▁쓸	-3414
조차	-3415
▁가능성을	-3416
에너	-3417
치지	-3418
▁자랑	-3419
▁실행	-3420
▁검사를	-3421
▁의혹	-3422
▁가치를	-3423
▁주주	-3424
▁의미를	-3425
%,	-3426
▁첨단	-3427
▁특별관계	-3428
▁쏠	-3429
▁개설	-3430
▁따뜻	-3431
▁늘었다	-3432
단말	-3433
▁정말	-3434
▁흥미	-3435
까지는	-3436
그래	-3437
비는	-3438
역을	-3439
▁알려져	-3440
▁링	-3441
▁전동	-3442
▁주차	-3443
▁캠페	-3444
▁넷	-3445
▁대법	-3446
▁오염	-3447
▁변동했다고	-3448
▁탓	-3449
90	-3450
▁업무를	-3451
▁소상공인	-3452
▁왔	-3453
▁공모	-3454
▁공무	-3455
GM	-3456
▁주관	-3457
▁숲	-3458
▁롯데	-3459
▁영어	-3460
▁상태를	-3461
▁스티	-3462
이기도	-3463
▁회원	-3464
시키기	-3465
▁붙여	-3466
▁가능해	-3467
▁가로	-3468
▁이사	-3469
▁주의	-3470
▁인기	-3471
이어서	-3472
정부	-3473
제어	-3474
▁동쪽	-3475
▁전개	-3476
포인트	-3477
▁계획을	-3478
▁됩니다	-3479
▁명이	-3480
▁약속	-3481
▁움직임	-3482
체는	-3483
▁이탈	-3484
▁시리즈	-3485
▁자영업	-3486
▁눈에	-3487
겠다고	-3488
지자	-3489
▁이른	-3490
▁이중	-3491
▁모델을	-3492
▁사실이	-3493
▁점이다	-3494
▁차량을	-3495
향을	-3496
▁꺼	-3497
▁보상	-3498
▁불확	-3499
▁생명	-3500
▁이것은	-3501
▁누적	-3502
▁합류	-3503
지에서	-3504
▁질병관리	-3505
▁암호화	-3506
▁콘텐츠를	-3507
화와	-3508
▁곳에	-3509
▁지역에	-3510
▁시절	-3511
국민	-3512
석이	-3513
▁비용을	-3514
▁가능하게	-3515
공장	-3516
▁나가	-3517
▁자체가	-3518
ic	-3519
자금	-3520
▁거부	-3521
▁냉각	-3522
▁폭스바겐	-3523
▁보급	-3524
▁아내	-3525
시간을	-3526
▁모빌리티	-3527
화할	-3528
없는	-3529
하나	-3530
▁빠져	-3531
▁집계	-3532
한국	-3533
▁지금은	-3534
▁싶은	-3535
▁까	-3536
▁범죄	-3537
▁커지고	-3538
널리	-3539
망을	-3540
▁70	-3541
▁진동	-3542
le	-3543
건이	-3544
수와	-3545
▁하반기	-3546
▁퇴직	-3547
공사	-3548
연금	-3549
▁외에도	-3550
▁울산	-3551
▁주인공	-3552
▁빅데이터	-3553
공간	-3554
▁발휘	-3555
▁가지는	-3556
버스	-3557
보를	-3558
▁교체	-3559
▁물이	-3560
▁배달	-3561
했기	-3562
▁치료를	-3563
▁한국의	-3564
화로	-3565
▁체계	-3566
이익	-3567
▁우리의	-3568
협회	-3569
▁봐	-3570
▁계절	-3571
▁돌파	-3572
▁손을	-3573
▁정비	-3574
업에	-3575
연이	-3576
▁모집	-3577
▁없다고	-3578
중앙	-3579
▁유연	-3580
▁신호를	-3581
시스	-3582
▁실질	-3583
▁커뮤니케이션	-3584
가에	-3585
연합	-3586
▁서쪽	-3587
▁집행	-3588
▁프랑스	-3589
▁서비스가	-3590
▁볼보	-3591
결과	-3592
우리	-3593
이즈	-3594
션을	-3595
▁양산	-3596
로의	-3597
점은	-3598
▁남쪽	-3599
억원으로	-3600
드에	-3601
이면	-3602
▁언어	-3603
▁기대된다	-3604
교실	-3605
했으나	-3606
수에	-3607
▁일반적으로	-3608
월까지	-3609
▁걱정	-3610
▁위협	-3611
▁재정	-3612
▁부회	-3613
▁방식을	-3614
료가	-3615
▁공감	-3616
▁입장을	-3617
▁빚	-3618
▁저렴	-3619
됐다고	-3620
▁결과가	-3621
▁보증	-3622
▁시즌	-3623
우고	-3624
▁타고	-3625
하면서도	-3626
▁벗어나	-3627
화학	-3628
▁가상	-3629
▁개편	-3630
공정	-3631
▁품질	-3632
식으로	-3633
▁기능이	-3634
▁2014	-3635
▁있다면	-3636
▁사용하여	-3637
리어	-3638
▁안전한	-3639
▁수준으로	-3640
▁아이디어	-3641
뱅크	-3642
주로	-3643
▁변속	-3644
비의	-3645
▁삽입	-3646
▁실리콘	-3647
▁인기를	-3648
▁있는지	-3649
제에	-3650
▁사항	-3651
▁확진자	-3652
소의	-3653
▁관계를	-3654
▁트랜지스터	-3655
수당	-3656
▁잇따	-3657
텔레콤	-3658
▁논란이	-3659
인터	-3660
가지로	-3661
경을	-3662
▁북쪽	-3663
▁내용이	-3664
CT	-3665
우가	-3666
▁있어야	-3667
▁장애인	-3668
▁노동조합	-3669
▁있으므로	-3670
▁내비	-3671
▁비밀	-3672
장애	-3673
▁서버	-3674
모델	-3675
목이	-3676
▁동물	-3677
▁실패	-3678
▁주력	-3679
체로	-3680
▁만약	-3681
▁출발	-3682
▁무급	-3683
▁헌	-3684
▁경계	-3685
드와	-3686
en	-3687
자들을	-3688
요일	-3689
▁2010	-3690
▁때까지	-3691
▁비즈니	-3692
▁얘기	-3693
▁효율적으로	-3694
▁초과	-3695
권이	-3696
▁나와	-3697
▁앞에	-3698
리에서	-3699
▁써	-3700
▁가스	-3701
▁보완	-3702
소는	-3703
ing	-3704
▁무게	-3705
▁사상	-3706
▁호텔	-3707
▁불가피	-3708
▁현상	-3709
▁효과적으로	-3710
▁회장은	-3711
▁기부	-3712
▁긴장	-3713
▁국내외	-3714
▁최고의	-3715
니아	-3716
법이	-3717
▁브레이	-3718
상황	-3719
씨의	-3720
▁미만	-3721
▁엑	-3722
▁말이	-3723
▁연락	-3724
▁세포	-3725
▁개봉	-3726
식에	-3727
▁작년	-3728
▁어려워	-3729
재인	-3730
▁이슈	-3731
▁차량의	-3732
공업	-3733
레인	-3734
함과	-3735
▁완전	-3736
▁주문	-3737
▁높이는	-3738
▁질환	-3739
▁화면	-3740
▁풍부	-3741
▁투자를	-3742
▁현대자동차	-3743
▁사람을	-3744
대학	-3745
트남	-3746
▁기후	-3747
형으로	-3748
▁털	-3749
▁폐쇄	-3750
▁2008	-3751
▁단위	-3752
▁승용차	-3753
▁의존	-3754
▁풀이	-3755
▁SBS	-3756
▁하면서	-3757
▁80	-3758
▁기타	-3759
▁사모	-3760
이라면	-3761
기기	-3762
▁부사	-3763
▁평가를	-3764
▁플레이	-3765
판을	-3766
▁쓴	-3767
▁들어서	-3768
연을	-3769
▁불확실	-3770
▁프로젝트	-3771
▁고통	-3772
▁투명	-3773
▁메모리	-3774
▁아침	-3775
▁창의	-3776
운동	-3777
▁취소	-3778
▁<	-3779
▁『	-3780
▁높일	-3781
사랑	-3782
▁10%	-3783
이라도	-3784
진의	-3785
물로	-3786
.2%	-3787
▁다중	-3788
산과	-3789
▁오프	-3790
▁지적이	-3791
▁선언	-3792
▁슈퍼	-3793
▁임상	-3794
▁교육을	-3795
▁나오고	-3796
군의	-3797
▁담은	-3798
▁생존	-3799
it	-3800
세기	-3801
▁수학	-3802
▁것이란	-3803
▁고성능	-3804
▁남북	-3805
▁과학기술	-3806
▁돋	-3807
주시	-3808
트롤	-3809
▁상징	-3810
▁절대	-3811
아야	-3812
▁활용할	-3813
셔서	-3814
▁주거	-3815
▁파트	-3816
▁뛰어난	-3817
▁두께	-3818
로그	-3819
번째	-3820
▁이번에	-3821
▁있으면	-3822
▁하나로	-3823
▁알게	-3824
▁국내에서	-3825
▁커뮤니티	-3826
▁경고	-3827
차의	-3828
▁창업	-3829
건설	-3830
안에	-3831
▁50%	-3832
▁오늘날	-3833
▁든	-3834
▁목적은	-3835
▁이루고	-3836
▁곤	-3837
▁나머지	-3838
▁높이고	-3839
▁국립	-3840
▁임시	-3841
광역	-3842
생을	-3843
▁뮤지	-3844
보레	-3845
▁정밀	-3846
▁남성	-3847
▁흡수	-3848
▁이미지를	-3849
으므로	-3850
▁중에서	-3851
만대	-3852
▁경상	-3853
▁급여	-3854
▁법률	-3855
▁상관	-3856
▁수립	-3857
▁한층	-3858
▁장치의	-3859
▁쉐	-3860
화하는	-3861
▁쇼핑	-3862
조원	-3863
▁위축	-3864
▁나아가	-3865
▁상품을	-3866
▁현상이	-3867
기구	-3868
▁곳곳	-3869
▁발열	-3870
▁시스템의	-3871
▁알고리즘	-3872
▁이송	-3873
▁속도를	-3874
▁현금	-3875
단계	-3876
▁게다가	-3877
▁인프라	-3878
하겠다고	-3879
▁기업들이	-3880
▁버스	-3881
▁도요타	-3882
EO	-3883
▁개방	-3884
▁파괴	-3885
▁옷	-3886
화의	-3887
▁분야에서	-3888
석을	-3889
▁돌입	-3890
▁메시지를	-3891
▁겪고	-3892
▁만들고	-3893
15	-3894
▁식품	-3895
▁통상	-3896
▁의미가	-3897
▁쪽	-3898
스토	-3899
▁당연	-3900
▁방과후	-3901
▁했지만	-3902
▁설문	-3903
▁증가했다	-3904
▁권고	-3905
cm	-3906
향이	-3907
▁20%	-3908
▁만한	-3909
▁활동에	-3910
▁역대	-3911
이프	-3912
중한	-3913
▁척	-3914
운영	-3915
종을	-3916
▁내다	-3917
하려면	-3918
▁이어지는	-3919
▁검증	-3920
개로	-3921
건강	-3922
되자	-3923
실이	-3924
▁치열	-3925
▁하게	-3926
▁제외한	-3927
▁기아차는	-3928
격이	-3929
리적	-3930
일의	-3931
▁반발	-3932
▁바이오	-3933
▁알려진	-3934
터에	-3935
▁36	-3936
▁매입	-3937
▁착용	-3938
▁2013	-3939
▁잡고	-3940
▁개시된다	-3941
었을	-3942
▁끈	-3943
▁똑	-3944
벤츠	-3945
▁다수	-3946
▁임원	-3947
▁학부모님의	-3948
민주	-3949
▁가슴	-3950
▁과도	-3951
▁계약을	-3952
▁정확하게	-3953
▁흐르는	-3954
교육청	-3955
▁프레임	-3956
▁안정적인	-3957
▁당부	-3958
▁엄마	-3959
▁장점이	-3960
됨에	-3961
▁외에	-3962
터테인먼트	-3963
▁스피커	-3964
▁궁금증을	-3965
됐고	-3966
▁점도	-3967
▁제공된다	-3968
▁원래	-3969
▁진료	-3970
▁공간을	-3971
▁담겨	-3972
▁방사	-3973
▁기대를	-3974
▁사용한	-3975
▁영업이	-3976
▁북한	-3977
▁사측	-3978
▁생겨	-3979
▁요금	-3980
▁생각이	-3981
▁근로시간	-3982
직한	-3983
▁과연	-3984
▁바닥	-3985
▁철저	-3986
▁여기서	-3987
▁방법으로	-3988
▁일시	-3989
도시	-3990
▁않게	-3991
▁지닌	-3992
▁경험을	-3993
▁위험이	-3994
▁중국의	-3995
▁늘고	-3996
▁전문가들은	-3997
▁단기	-3998
▁심각한	-3999
▁지원한다	-4000
▁유치	-4001
▁포함해	-4002
▁층	-4003
스포츠	-4004
▁때마다	-4005
▁올랐다	-4006
▁환경을	-4007
▁본교에서는	-4008
▁상상	-4009
▁소요	-4010
▁시기	-4011
▁최대한	-4012
▁미니	-4013
▁장르	-4014
▁했던	-4015
▁아름다운	-4016
▁제가	-4017
란다	-4018
▁송신	-4019
▁덜	-4020
▁이차	-4021
진흥	-4022
.9%	-4023
▁재무	-4024
▁사람들의	-4025
▁시장은	-4026
고속	-4027
▁현상을	-4028
▁소자	-4029
▁평야	-4030
▁부담이	-4031
로드	-4032
시험	-4033
호가	-4034
▁제공하고	-4035
▁관람	-4036
▁성과를	-4037
등의	-4038
▁경북	-4039
▁마찬가지로	-4040
러그	-4041
식은	-4042
▁심사	-4043
수신	-4044
▁속도	-4045
▁자회사	-4046
▁상당히	-4047
힌다	-4048
▁듀	-4049
실에서	-4050
▁상대로	-4051
▁혐의로	-4052
스코	-4053
해를	-4054
▁인구	-4055
▁전류	-4056
조선	-4057
대에서	-4058
▁레이저	-4059
재로	-4060
▁추세	-4061
▁섭	-4062
위기	-4063
▁사과	-4064
▁양호	-4065
▁대한민	-4066
▁모두가	-4067
▁연구원은	-4068
▁맞추	-4069
▁수급	-4070
▁일어	-4071
▁종료	-4072
▁마음이	-4073
▁방법은	-4074
소비	-4075
▁받아들	-4076
소에	-4077
.3%	-4078
▁이재	-4079
▁이주	-4080
▁조기	-4081
활동을	-4082
▁상태에서	-4083
당이	-4084
.1%	-4085
▁불리는	-4086
▁모니터링	-4087
▁숫	-4088
님이	-4089
▁베트남	-4090
▁2009	-4091
ion	-4092
▁극대	-4093
▁부진	-4094
.4%	-4095
▁수직	-4096
▁가까이	-4097
초등학교	-4098
▁그때	-4099
▁경우에	-4100
틸리티	-4101
유지	-4102
▁문자	-4103
▁반응을	-4104
st	-4105
법에	-4106
선에	-4107
▁MC	-4108
심이	-4109
레이션	-4110
고가	-4111
▁35	-4112
▁그에	-4113
겠지만	-4114
OS	-4115
주파	-4116
▁그럼	-4117
▁지표	-4118
▁능력을	-4119
▁조치를	-4120
▁분석했다	-4121
▁렉	-4122
이번	-4123
▁뜨거운	-4124
▁술	-4125
군이	-4126
대와	-4127
▁뚜	-4128
렀다	-4129
패시	-4130
▁단지	-4131
▁정지	-4132
상에서	-4133
으로도	-4134
▁도모	-4135
▁매일	-4136
▁면역	-4137
소에서	-4138
리케이션	-4139
▁시청자들의	-4140
▁꼬	-4141
▁간단한	-4142
▁일본의	-4143
레스	-4144
▁잠재	-4145
▁30%	-4146
▁떨어진	-4147
▁달하는	-4148
드리	-4149
▁제품의	-4150
▁판매가	-4151
▁비디오	-4152
▁적절한	-4153
서울	-4154
▁스위치	-4155
▁나올	-4156
▁들었다	-4157
CD	-4158
조건	-4159
▁발굴	-4160
▁블랙	-4161
물은	-4162
▁의미한다	-4163
법인	-4164
재는	-4165
▁건축	-4166
▁입증	-4167
▁주파수	-4168
▁전해졌다	-4169
칙을	-4170
▁수정	-4171
▁자신을	-4172
▁증가한	-4173
▁2011	-4174
▁차지했다	-4175
▁하늘	-4176
▁경남	-4177
▁IP	-4178
방을	-4179
▁박막	-4180
▁에스	-4181
▁줄어든	-4182
사항	-4183
▁유행	-4184
▁이루어진	-4185
re	-4186
▁연령	-4187
▁안에서	-4188
체와	-4189
▁이어질	-4190
유플러스	-4191
어져	-4192
예술	-4193
치료	-4194
게이션	-4195
▁헬	-4196
미가	-4197
▁듣고	-4198
▁스크린	-4199
▁증가하고	-4200
25	-4201
일로	-4202
▁노인	-4203
▁부족한	-4204
▁2012	-4205
▁해당하는	-4206
▁쉐보레	-4207
차에	-4208
▁사유	-4209
▁유출	-4210
▁주가	-4211
▁지방도	-4212
어는	-4213
▁대해서	-4214
▁뿌	-4215
만에	-4216
물에	-4217
▁짧은	-4218
▁자금을	-4219
▁한정	-4220
▁부담을	-4221
▁작업을	-4222
▁영업이익	-4223
재의	-4224
▁정도의	-4225
▁본격적인	-4226
▁바이	-4227
▁소셜	-4228
▁한진	-4229
었는데	-4230
▁고려해	-4231
▁미세먼	-4232
▁가이드	-4233
시장에서	-4234
대표	-4235
듯이	-4236
.8%	-4237
▁가구	-4238
▁장면	-4239
▁쿠페	-4240
▁혼자	-4241
▁암호화폐	-4242
▁강원	-4243
▁문을	-4244
▁일단	-4245
▁화장	-4246
▁금호	-4247
▁정착	-4248
노동조합	-4249
리게	-4250
시킴	-4251
원한	-4252
▁가입자	-4253
▁환자의	-4254
17	-4255
협약	-4256
▁둘째	-4257
▁회사가	-4258
들어	-4259
▁충족	-4260
하시어	-4261
▁경우는	-4262
▁자료를	-4263
나가	-4264
▁등도	-4265
▁던	-4266
▁파트너	-4267
▁낼	-4268
▁갑자기	-4269
▁사태가	-4270
▁깜	-4271
으니	-4272
▁내는	-4273
▁사랑을	-4274
▁학부모님들의	-4275
▁걷	-4276
▁공통	-4277
▁폴리	-4278
▁웃음을	-4279
▁주가가	-4280
드러	-4281
▁내장	-4282
▁노력을	-4283
▁맞춤형	-4284
하우	-4285
자치	-4286
▁대로	-4287
▁마주	-4288
▁비대	-4289
았고	-4290
이의	-4291
▁개발에	-4292
▁'2019	-4293
화한	-4294
▁내수	-4295
자산운용	-4296
▁철도	-4297
▁출범	-4298
▁e	-4299
.7%	-4300
▁차세대	-4301
▁통해서	-4302
자리	-4303
된다는	-4304
▁상태다	-4305
▁변호	-4306
름이	-4307
▁분쟁	-4308
▁저녁	-4309
▁접수	-4310
▁조달	-4311
▁기준을	-4312
▁옮겨	-4313
▁시선을	-4314
▁적합한	-4315
해주는	-4316
▁상태로	-4317
▁건조	-4318
▁계좌	-4319
▁대해서도	-4320
▁센서	-4321
▁수사	-4322
▁이르	-4323
▁통제	-4324
▁사이버	-4325
▁33	-4326
▁끝나	-4327
▁컸	-4328
식의	-4329
▁대전	-4330
▁수강	-4331
▁일으키	-4332
▁거듭	-4333
▁구릉	-4334
▁전지를	-4335
▁참여한	-4336
되어야	-4337
권의	-4338
▁tv	-4339
▁빨리	-4340
▁상위	-4341
▁이야기가	-4342
▁지역사회	-4343
부로	-4344
▁채택	-4345
▁경제적	-4346
▁리스크	-4347
▁부분이	-4348
▁컬	-4349
란히	-4350
루미	-4351
▁예산	-4352
▁굳	-4353
동강	-4354
▁400	-4355
▁길을	-4356
▁주기	-4357
▁트렌	-4358
▁연구를	-4359
▁45	-4360
▁SM	-4361
▁뉴욕	-4362
▁다니	-4363
▁다루	-4364
베이스	-4365
▁덕분에	-4366
▁셋	-4367
경이	-4368
트와	-4369
▁내고	-4370
▁모으	-4371
▁지상	-4372
▁책임을	-4373
▁최초의	-4374
▁곳이	-4375
▁옛날	-4376
사이트	-4377
NA	-4378
▁원인	-4379
▁높였다	-4380
▁교섭	-4381
▁판매를	-4382
▁이름이다	-4383
▁차원에서	-4384
▁라임	-4385
▁육아	-4386
▁추구	-4387
▁이끌어	-4388
견을	-4389
생이	-4390
▁공사	-4391
▁청구	-4392
▁목표로	-4393
▁중심의	-4394
▁차지하는	-4395
▁페이	-4396
▁선보인	-4397
▁효율을	-4398
겠습니다	-4399
▁직업	-4400
페이지	-4401
16	-4402
▁불교	-4403
▁문재인	-4404
▁100%	-4405
▁참여하는	-4406
명과	-4407
▁방전	-4408
▁포토	-4409
▁충분한	-4410
▁가능하도록	-4411
지방	-4412
원들이	-4413
▁노조가	-4414
액의	-4415
▁지역에서	-4416
▁기원합니다	-4417
▁감시	-4418
▁양극	-4419
▁요즘	-4420
▁저감	-4421
▁LED	-4422
보증	-4423
제한	-4424
200	-4425
▁입주	-4426
▁커버	-4427
졌고	-4428
▁기지	-4429
▁여파로	-4430
▁프로세	-4431
광고	-4432
억원의	-4433
▁초등학교	-4434
▁글을	-4435
▁시중	-4436
▁즉시	-4437
▁기반의	-4438
13	-4439
▁밝힌	-4440
▁배당	-4441
▁유용	-4442
▁높고	-4443
▁이르는	-4444
▁딜	-4445
와는	-4446
▁북미	-4447
▁연관	-4448
▁연말	-4449
시리즈	-4450
화하고	-4451
기고	-4452
▁당초	-4453
▁매매	-4454
▁오토	-4455
▁경쟁력을	-4456
EV	-4457
터가	-4458
▁형광	-4459
▁사진을	-4460
▁브레이크	-4461
년의	-4462
스틱	-4463
▁끝에	-4464
▁융합	-4465
▁처벌	-4466
본부는	-4467
▁운영하고	-4468
▁분산	-4469
▁키워	-4470
바이스	-4471
▁그러면서	-4472
나타	-4473
▁제약	-4474
▁본격적으로	-4475
▁졸업	-4476
▁경우도	-4477
▁게시	-4478
▁밖에	-4479
▁사장	-4480
▁관련한	-4481
▁소규모	-4482
령을	-4483
▁그것은	-4484
▁기회가	-4485
▁구체적인	-4486
▁스티어링	-4487
▁고용노동부	-4488
동에	-4489
특별	-4490
▁가치가	-4491
▁마을의	-4492
안은	-4493
협의	-4494
▁포착	-4495
▁내비게이션	-4496
▁적지	-4497
▁공공기관	-4498
▁현재까지	-4499
PG	-4500
냐는	-4501
층이	-4502
▁벨	-4503
직을	-4504
▁국산	-4505
▁쌍용	-4506
▁증거	-4507
▁비율이	-4508
받아	-4509
제와	-4510
▁데이	-4511
▁지자	-4512
▁향해	-4513
▁현황	-4514
▁197	-4515
화는	-4516
▁각각의	-4517
▁근로자의	-4518
정은	-4519
▁다음달	-4520
▁풀이된다	-4521
▁종목	-4522
▁최신	-4523
▁출입	-4524
▁이루어져	-4525
론이	-4526
차로	-4527
치게	-4528
▁즐길	-4529
폭력	-4530
▁3,	-4531
▁화상	-4532
시장의	-4533
▁대리	-4534
▁본다	-4535
▁부하	-4536
▁피해가	-4537
et	-4538
▁CJ	-4539
▁분석이	-4540
▁인터뷰	-4541
▁목소리가	-4542
에스	-4543
줬다	-4544
▁도와	-4545
▁무급휴직	-4546
즈를	-4547
▁해양	-4548
▁대상이	-4549
▁분석이다	-4550
인가	-4551
▁예비	-4552
▁회사의	-4553
▁납부	-4554
▁도서	-4555
▁보이	-4556
▁신설	-4557
▁점은	-4558
▁크고	-4559
락을	-4560
세로	-4561
▁돋보	-4562
선생님	-4563
○○	-4564
사용	-4565
▁당장	-4566
▁도달	-4567
▁여자	-4568
▁적응	-4569
▁매력을	-4570
▁것이었다	-4571
▁시작으로	-4572
▁에너지를	-4573
퍼센	-4574
▁괴롭	-4575
▁택시	-4576
하였고	-4577
▁사태로	-4578
▁전략을	-4579
▁엄청	-4580
▁측면에서	-4581
IT	-4582
▁반사	-4583
▁속도가	-4584
▁안내해	-4585
▁대거	-4586
▁향한	-4587
▁참여할	-4588
위험	-4589
▁32	-4590
▁낮추	-4591
▁법정	-4592
▁후에	-4593
▁겪는	-4594
▁쓰는	-4595
▁포털	-4596
생산	-4597
▁수평	-4598
▁포르	-4599
▁위치를	-4600
▁말해	-4601
▁선별	-4602
▁산업혁	-4603
▁업체가	-4604
수익	-4605
▁무한	-4606
▁사용자의	-4607
음에도	-4608
▁누구나	-4609
뱅킹	-4610
▁수단	-4611
▁있을지	-4612
▁정확히	-4613
▁확인됐다	-4614
파이	-4615
파크	-4616
▁주시	-4617
▁현장에서	-4618
▁곳이다	-4619
▁종래의	-4620
만명	-4621
▁테슬	-4622
▁핸드	-4623
광역시	-4624
은행은	-4625
▁tvN	-4626
▁건강한	-4627
▁정보가	-4628
▁삶의	-4629
▁재배	-4630
▁받는다	-4631
▁쟁	-4632
신청	-4633
▁그들의	-4634
▁의료기관	-4635
▁간호	-4636
▁떠나	-4637
▁증대	-4638
▁농업	-4639
▁조명	-4640
▁줄여	-4641
면으로	-4642
▁이름이	-4643
▁출근	-4644
4%	-4645
IP	-4646
▁나노	-4647
▁상업	-4648
▁바란다	-4649
▁뽑	-4650
마저	-4651
▁NH	-4652
▁교사	-4653
▁수십	-4654
▁생각을	-4655
▁짐	-4656
돼야	-4657
.6%	-4658
▁느낄	-4659
▁인가	-4660
▁플랫폼을	-4661
▁동반	-4662
▁부분을	-4663
▁그린	-4664
▁대량	-4665
▁이어지고	-4666
▁뻗	-4667
각을	-4668
▁들고	-4669
▁헤드	-4670
▁세상을	-4671
▁연구팀	-4672
▁덮	-4673
▁정당	-4674
억원에	-4675
▁만들기	-4676
프로그램	-4677
미터	-4678
▁곳으로	-4679
▁이상을	-4680
소와	-4681
▁흔들	-4682
▁힘든	-4683
▁들여	-4684
▁폐렴	-4685
▁따뜻한	-4686
▁비용이	-4687
▁1,000	-4688
LS	-4689
클래	-4690
▁고양	-4691
▁대처	-4692
▁신체	-4693
▁열어	-4694
▁훈련	-4695
튜디오	-4696
▁살펴보	-4697
▁단일	-4698
▁떠올	-4699
▁보이지	-4700
▁붙여진	-4701
전의	-4702
▁공포	-4703
▁발언	-4704
▁침해	-4705
나무가	-4706
▁영향으로	-4707
SUV	-4708
▁삶을	-4709
▁저축	-4710
▁호소	-4711
▁변화에	-4712
▁복잡한	-4713
어로	-4714
▁그를	-4715
▁신문	-4716
▁유의	-4717
▁인접	-4718
▁취득	-4719
▁산재	-4720
었다고	-4721
▁말이다	-4722
▁시간에	-4723
▁제조업	-4724
▁플러그	-4725
▁주목된다	-4726
'(	-4727
▁장관	-4728
▁비즈니스	-4729
▁시가	-4730
▁한국노총	-4731
▁스테	-4732
부에서	-4733
▁나타나는	-4734
▁근본	-4735
▁방출	-4736
▁유래	-4737
▁집에	-4738
▁탄력	-4739
▁방송된	-4740
▁데다	-4741
▁자가	-4742
▁개발을	-4743
▁정책을	-4744
▁최선을	-4745
▁포인트	-4746
▁중형	-4747
▁혼란	-4748
▁현재의	-4749
▁구속	-4750
▁플래	-4751
하려고	-4752
▁복수의	-4753
상과	-4754
▁배선	-4755
▁행위	-4756
▁기업에	-4757
위원회가	-4758
▁PD	-4759
공급	-4760
영이	-4761
▁상환	-4762
실에	-4763
성으로	-4764
▁처음이다	-4765
등록	-4766
법은	-4767
▁압축	-4768
정보를	-4769
▁낙동강	-4770
▁성장을	-4771
▁마스크를	-4772
▁버튼	-4773
▁법적	-4774
▁신천	-4775
▁활약	-4776
해왔다	-4777
▁방과후학교	-4778
해질	-4779
▁동남	-4780
▁만남	-4781
▁법인	-4782
▁이태	-4783
은행의	-4784
해지는	-4785
▁수익을	-4786
▁적어도	-4787
▁일자리를	-4788
▁직후	-4789
▁픽	-4790
▁개학	-4791
▁보관	-4792
▁참여를	-4793
어의	-4794
▁변형	-4795
▁시작된	-4796
▁태양광	-4797
▁진행된	-4798
▁디바이스	-4799
▁모은	-4800
▁않아도	-4801
▁핀테크	-4802
▁사이에서	-4803
▁연결하는	-4804
▁넥	-4805
▁현재는	-4806
라가	-4807
▁지침	-4808
▁떨어져	-4809
검사	-4810
▁널리	-4811
▁증명	-4812
▁힘이	-4813
▁도로가	-4814
▁뮤지컬	-4815
정으로	-4816
▁마을로	-4817
▁미래에	-4818
▁엔진을	-4819
TS	-4820
▁띄	-4821
방지	-4822
요한	-4823
현이	-4824
▁종교	-4825
여명이	-4826
7%	-4827
▁청와	-4828
메이션	-4829
인터넷	-4830
▁38	-4831
▁사각	-4832
▁사고가	-4833
▁열리는	-4834
▁저소득	-4835
▁대한민국	-4836
프레	-4837
▁도심	-4838
▁일은	-4839
▁투쟁	-4840
되었고	-4841
유틸리티	-4842
선은	-4843
▁도착	-4844
▁뚜렷	-4845
▁방송을	-4846
▁막기	-4847
▁무기	-4848
해지고	-4849
든지	-4850
일과	-4851
주에	-4852
▁급속	-4853
▁금리가	-4854
▁신청을	-4855
투자증권	-4856
이사	-4857
시장에	-4858
▁드립니다	-4859
▁램프	-4860
▁우한	-4861
▁오르	-4862
▁편집	-4863
▁러시아	-4864
▁생각하는	-4865
자들	-4866
▁생각한다	-4867
▁개입	-4868
▁골짜	-4869
?"	-4870
▁낳	-4871
▁연예	-4872
▁하였	-4873
▁순수	-4874
▁협약	-4875
▁감독이	-4876
▁금융당	-4877
▁대표가	-4878
▁문제로	-4879
▁주제로	-4880
폭이	-4881
▁살고	-4882
▁여유	-4883
▁포함된	-4884
ol	-4885
▁최근에는	-4886
일은	-4887
▁설득	-4888
▁참여해	-4889
▁모습으로	-4890
▁일제	-4891
▁기술의	-4892
▁제공하기	-4893
▁담아	-4894
▁진공	-4895
▁평생	-4896
▁포기	-4897
▁나선다	-4898
지니	-4899
▁예약	-4900
▁과제로	-4901
▁조사를	-4902
▁요구하는	-4903
▁칠	-4904
연구원	-4905
▁소비자가	-4906
▁강의	-4907
▁물을	-4908
▁보수	-4909
▁자원	-4910
▁급격히	-4911
▁보도했다	-4912
▁카페	-4913
▁전망이	-4914
간에	-4915
서로	-4916
처를	-4917
협력	-4918
▁그것을	-4919
▁회장의	-4920
▁무인	-4921
▁세부	-4922
▁위로	-4923
리면서	-4924
하시기	-4925
▁메이	-4926
하오니	-4927
DC	-4928
▁밴	-4929
▁높여	-4930
▁밝히	-4931
▁스포	-4932
▁첫째	-4933
▁높아지고	-4934
▁훌	-4935
플루	-4936
▁매력	-4937
▁배제	-4938
들께	-4939
▁부당	-4940
▁돌려	-4941
▁등급	-4942
▁잡아	-4943
신호를	-4944
▁경쟁이	-4945
▁경험이	-4946
▁참석해	-4947
결제	-4948
▁발급	-4949
▁비트	-4950
▁현행	-4951
▁일반적인	-4952
관에	-4953
▁목적이	-4954
▁주변에	-4955
▁함으로써	-4956
▁그만큼	-4957
미를	-4958
▁떠오	-4959
▁명칭	-4960
▁발생되는	-4961
▁세워	-4962
선으로	-4963
▁케이스	-4964
▁사모펀드	-4965
CC	-4966
길이	-4967
▁차를	-4968
루미늄	-4969
스카	-4970
▁종류	-4971
▁기자회	-4972
▁탁	-4973
리면	-4974
학기	-4975
▁리더	-4976
▁리콜	-4977
▁화려	-4978
▁방향을	-4979
▁이것이	-4980
권에	-4981
자본	-4982
▁가르	-4983
▁된다는	-4984
댓글	-4985
▁지역은	-4986
▁팽	-4987
▁가정에	-4988
▁나타난다	-4989
▁범위	-4990
▁정체	-4991
▁90	-4992
▁분양	-4993
▁유니	-4994
▁자사	-4995
▁스토리	-4996
▁“	-4997
▁일각	-4998
▁곳에서	-4999
객이	-5000
장비	-5001
▁달려	-5002
▁아이폰	-5003
채널	-5004
▁담보	-5005
하였으며	-5006
▁현대차그룹	-5007
결합	-5008
실로	-5009
▁단순히	-5010
▁사업장	-5011
▁머물	-5012
▁시점	-5013
▁기업은	-5014
▁둘러싸	-5015
▁대부분이	-5016
14	-5017
약품	-5018
▁다운	-5019
▁갖는다	-5020
▁주말	-5021
▁시대에	-5022
▁일정한	-5023
▁지나고	-5024
▁밸	-5025
신의	-5026
▁올바	-5027
▁150	-5028
▁수준을	-5029
감한	-5030
세계	-5031
호를	-5032
▁부르	-5033
▁선진	-5034
▁자동차를	-5035
LF	-5036
▁부가	-5037
▁발생했다	-5038
▁전망된다	-5039
놨다	-5040
수지	-5041
▁스페	-5042
▁응급	-5043
▁전도	-5044
▁게임을	-5045
el	-5046
kg	-5047
▁때도	-5048
▁의결	-5049
▁콘셉	-5050
센터에서	-5051
▁기대감을	-5052
모를	-5053
▁강제	-5054
▁획득	-5055
▁존재하는	-5056
▁필요하다는	-5057
가량	-5058
구나	-5059
매도	-5060
희가	-5061
▁남자	-5062
▁못할	-5063
▁이른바	-5064
▁스포츠유틸리티	-5065
▁챙	-5066
▁물류	-5067
▁선임	-5068
▁시승	-5069
지원금	-5070
되었으며	-5071
▁겹	-5072
▁튜	-5073
만한	-5074
종이	-5075
천의	-5076
▁것인지	-5077
▁가능성도	-5078
▁대우	-5079
▁서식	-5080
조사를	-5081
▁자동차의	-5082
국제	-5083
자원	-5084
▁보기	-5085
▁일환	-5086
▁지능	-5087
▁촉구	-5088
MA	-5089
남도	-5090
생충	-5091
▁가열	-5092
▁인하여	-5093
▁적용해	-5094
▁노동자의	-5095
▁샤	-5096
값이	-5097
북도	-5098
TBC	-5099
월에는	-5100
동은	-5101
바이	-5102
치의	-5103
▁분야의	-5104
▁레벨	-5105
▁사용한다	-5106
랜저	-5107
▁196	-5108
위원회는	-5109
▁연구개발	-5110
진과	-5111
▁측이	-5112
▁합성	-5113
▁기대가	-5114
내에	-5115
럼프	-5116
췄다	-5117
학의	-5118
▁손상	-5119
▁아프	-5120
사들은	-5121
▁줄었다	-5122
▁진행하고	-5123
▁싶다	-5124
▁혼합	-5125
▁내부에	-5126
▁오디오	-5127
해온	-5128
▁교과	-5129
청이	-5130
▁리드	-5131
시장이	-5132
▁홈페이지	-5133
▁창원	-5134
▁발매	-5135
▁불량	-5136
▁시급	-5137
▁육성	-5138
▁기판의	-5139
▁유사한	-5140
▁이용자	-5141
▁단말기의	-5142
▁포함한다	-5143
친다	-5144
표시	-5145
▁설비	-5146
시대	-5147
▁다섯	-5148
▁드리	-5149
일에는	-5150
▁닫	-5151
시티	-5152
평균	-5153
▁깜짝	-5154
▁분위기를	-5155
▁보유하고	-5156
▁담임선생님	-5157
▁정해	-5158
▁생각해	-5159
▁지속적인	-5160
▁구비한	-5161
▁기술은	-5162
▁일하는	-5163
선과	-5164
▁그간	-5165
▁댓글	-5166
▁유형	-5167
▁내세	-5168
▁보인	-5169
▁흥행	-5170
▁경쟁력	-5171
▁고객의	-5172
챔버	-5173
▁수백	-5174
▁영향이	-5175
▁휴대용	-5176
∼4	-5177
국에	-5178
물과	-5179
▁부처	-5180
▁끌어올	-5181
▁늘어날	-5182
▁전망했다	-5183
▁시스템에서	-5184
▁웅	-5185
▁단독	-5186
▁선발	-5187
▁통보	-5188
▁내용은	-5189
▁들어간	-5190
▁환자는	-5191
방이	-5192
▁비행	-5193
생활을	-5194
▁만들어진	-5195
▁손실을	-5196
지어	-5197
환자	-5198
▁독특	-5199
▁좌우	-5200
▁함유	-5201
▁차이	-5202
▁상태가	-5203
▁특유의	-5204
▁구성되어	-5205
▁자유롭게	-5206
▁베이	-5207
▁않기	-5208
▁어떠	-5209
▁인건	-5210
▁라디오	-5211
▁별도로	-5212
▁부작용	-5213
▁조합원	-5214
▁안전하게	-5215
소로	-5216
식과	-5217
효율	-5218
▁전지의	-5219
▁북서	-5220
▁분할	-5221
▁터널	-5222
▁하드	-5223
▁보험료	-5224
하더라도	-5225
됐던	-5226
▁동료	-5227
▁개인의	-5228
▁올해는	-5229
▁행사를	-5230
리한	-5231
소자	-5232
▁복귀	-5233
▁영양	-5234
▁단말기	-5235
▁논문	-5236
▁피부	-5237
되기도	-5238
역이	-5239
▁받게	-5240
▁상생	-5241
▁시상	-5242
분야	-5243
▁모르	-5244
▁무너	-5245
▁넘치는	-5246
▁수를	-5247
▁탑승	-5248
모비스	-5249
▁그들은	-5250
▁이벤트	-5251
▁샘	-5252
▁쥐	-5253
▁건너	-5254
▁잊	-5255
공단	-5256
벤처	-5257
▁발병	-5258
▁필름	-5259
▁이유다	-5260
PS	-5261
일간	-5262
▁눈을	-5263
▁안전을	-5264
▁투자자	-5265
▁시스템은	-5266
▁아래의	-5267
▁강릉	-5268
▁공정을	-5269
▁코스닥	-5270
▁흐르고	-5271
▁미국에서	-5272
▁같아	-5273
▁조언	-5274
▁집을	-5275
▁일이다	-5276
▁내다봤다	-5277
▁천연	-5278
▁추적	-5279
▁아이들이	-5280
▁알루미늄	-5281
▁붕	-5282
설이	-5283
▁나갈	-5284
▁애플리케이션	-5285
도우	-5286
해가	-5287
▁나눠	-5288
▁다녀	-5289
▁맞게	-5290
▁JTBC	-5291
▁건립	-5292
▁교류	-5293
▁자녀의	-5294
가입	-5295
었기	-5296
책을	-5297
▁뒤에	-5298
▁맡은	-5299
되거나	-5300
▁대출을	-5301
▁산업의	-5302
▁기재	-5303
▁사장은	-5304
▁특성이	-5305
▁강렬	-5306
▁보존	-5307
▁주최	-5308
▁이산화	-5309
▁한계가	-5310
▁연동	-5311
코리아는	-5312
▁않는다는	-5313
▁특별관계자의	-5314
대형	-5315
▁놀라	-5316
▁렉서	-5317
▁세정	-5318
▁이행	-5319
▁사업에	-5320
8%	-5321
▁캡	-5322
다니	-5323
쇼핑	-5324
온다	-5325
▁사내	-5326
▁저작	-5327
▁지출	-5328
모터쇼	-5329
▁시스템이	-5330
▁엠	-5331
쉽게	-5332
▁공략	-5333
▁학생의	-5334
▁행복한	-5335
▁본인	-5336
▁비교해	-5337
▁실시간으로	-5338
▁깔	-5339
노동자	-5340
▁동영상	-5341
▁코스피	-5342
▁재판부는	-5343
하였습니다	-5344
▁후속	-5345
▁쏘나타	-5346
▁적용한	-5347
▁타이틀	-5348
▁금융감독	-5349
▁방식이다	-5350
·4	-5351
돌봄	-5352
▁블루	-5353
▁안방	-5354
▁내놓은	-5355
▁수수료	-5356
▁2007	-5357
▁정부와	-5358
분석	-5359
▁내지	-5360
▁애니	-5361
▁진로	-5362
▁찾을	-5363
▁(	-5364
▁가계	-5365
▁이웃	-5366
▁건강보험	-5367
차례	-5368
트리	-5369
▁부근	-5370
▁수영	-5371
▁시범	-5372
▁인생	-5373
▁말하는	-5374
▁선박	-5375
▁잠시	-5376
▁출연해	-5377
▁진행하는	-5378
가로	-5379
▁동참	-5380
▁유지할	-5381
▁만난	-5382
▁모래	-5383
▁회사는	-5384
하라	-5385
▁누군	-5386
▁설치된	-5387
▁이유가	-5388
▁구직	-5389
▁스케	-5390
관에서	-5391
중공업	-5392
▁70%	-5393
▁단순한	-5394
▁차량이	-5395
▁트럼프	-5396
▁아시아나	-5397
ac	-5398
더니	-5399
▁그것이	-5400
▁컨트롤	-5401
출력	-5402
▁고도	-5403
▁고유	-5404
▁못해	-5405
▁전염	-5406
▁생산하는	-5407
토록	-5408
▁클럽	-5409
▁투표	-5410
▁현대모비스	-5411
동과	-5412
▁올려	-5413
▁요인	-5414
▁발전을	-5415
▁일어난	-5416
▁행동을	-5417
연맹	-5418
▁소리	-5419
▁편안	-5420
해졌다	-5421
▁연결된	-5422
▁하오니	-5423
▁방지하는	-5424
▁수행할	-5425
▁임직원	-5426
▁휴업	-5427
▁이제는	-5428
▁안정적으로	-5429
주주	-5430
체계	-5431
100	-5432
▁미국과	-5433
▁매수	-5434
▁선물	-5435
▁위치하고	-5436
PC	-5437
바로	-5438
사이	-5439
예방	-5440
▁양측	-5441
▁하우	-5442
▁그랜저	-5443
▁드러나	-5444
IC	-5445
▁횡	-5446
보가	-5447
정과	-5448
▁34	-5449
▁높게	-5450
▁주어	-5451
화되고	-5452
▁결정을	-5453
▁만든다	-5454
시와	-5455
탄을	-5456
화될	-5457
호텔	-5458
▁남은	-5459
▁수납	-5460
됐다는	-5461
▁유전자	-5462
▁직원이	-5463
전략	-5464
▁둘러싼	-5465
▁연구가	-5466
▁영화를	-5467
▁감소했다	-5468
52	-5469
면과	-5470
▁나왔	-5471
▁안심	-5472
▁이룬	-5473
▁반대로	-5474
▁예방접	-5475
▁위기를	-5476
▁위기에	-5477
▁구성하는	-5478
▁진행한다	-5479
청은	-5480
하기에	-5481
▁갈수록	-5482
▁구조조	-5483
▁한국인	-5484
막의	-5485
▁도출	-5486
▁메인	-5487
▁안타	-5488
▁주지	-5489
▁선보일	-5490
▁지하철	-5491
▁밭	-5492
가족	-5493
이용	-5494
▁선고	-5495
▁즐거	-5496
▁합병	-5497
▁선보였다	-5498
ro	-5499
심히	-5500
▁곳은	-5501
▁위탁	-5502
▁유효	-5503
▁파생	-5504
억원이	-5505
▁다르게	-5506
▁방식의	-5507
▁수행하는	-5508
▁웨이퍼의	-5509
감과	-5510
분간	-5511
▁깊이	-5512
▁많고	-5513
▁괴롭힘	-5514
▁그럼에도	-5515
▁근로자가	-5516
상담	-5517
▁격려	-5518
▁공부	-5519
건의	-5520
▁듯한	-5521
었으며	-5522
▁신뢰성을	-5523
▁나설	-5524
▁입은	-5525
졌다는	-5526
▁내용의	-5527
회로기판	-5528
회로에	-5529
▁낭	-5530
▁재개	-5531
▁나타난	-5532
신용	-5533
▁수리	-5534
면에서	-5535
▁어려움이	-5536
▁펀	-5537
군은	-5538
▁합리	-5539
▁환경에서	-5540
9%	-5541
▁죄	-5542
▁비율	-5543
▁빛을	-5544
▁선도	-5545
전자가	-5546
▁참석한	-5547
▁짜	-5548
▁생물	-5549
▁진짜	-5550
▁협업	-5551
▁거대한	-5552
▁이들을	-5553
양을	-5554
▁넘게	-5555
▁소송을	-5556
▁1990	-5557
▁모습이다	-5558
▁발생한다	-5559
▁사용하지	-5560
▁입장이다	-5561
▁참석했다	-5562
로스	-5563
▁구멍	-5564
▁미칠	-5565
▁항목	-5566
▁대책을	-5567
SA	-5568
리트	-5569
▁입을	-5570
▁자격	-5571
▁상당한	-5572
▁적용할	-5573
▁칭	-5574
▁무슨	-5575
▁얻어	-5576
▁테마	-5577
사들의	-5578
▁형성하는	-5579
▁필요하다고	-5580
MG	-5581
방학	-5582
플릭	-5583
▁취급	-5584
▁트래	-5585
관과	-5586
▁앉아	-5587
▁저지	-5588
▁기술과	-5589
▁다르다	-5590
▁마을은	-5591
▁목표를	-5592
▁경우에도	-5593
민이	-5594
▁따로	-5595
▁트위	-5596
받았다	-5597
스에서	-5598
▁지역을	-5599
지수	-5600
▁55	-5601
▁응용	-5602
▁크기	-5603
2%	-5604
등을	-5605
주기	-5606
▁명예	-5607
▁어떠한	-5608
▁사용된다	-5609
▁신청서를	-5610
24	-5611
▁IB	-5612
▁바꿔	-5613
▁봉사	-5614
▁압박	-5615
비디오	-5616
▁사전에	-5617
▁대한항공	-5618
▁추출	-5619
▁되면서	-5620
진료	-5621
▁로맨	-5622
▁파견	-5623
▁기대하고	-5624
3%	-5625
구로	-5626
스턴	-5627
차원	-5628
▁소화	-5629
▁수석	-5630
▁준수	-5631
▁담겼다	-5632
▁토요타	-5633
▁이루어지는	-5634
이너	-5635
▁독자	-5636
▁수치	-5637
▁차가	-5638
만원의	-5639
▁않습니다	-5640
▁묶	-5641
명한	-5642
의가	-5643
▁감각	-5644
▁단백	-5645
▁제휴	-5646
▁사항을	-5647
트럭	-5648
▁누가	-5649
▁저널	-5650
▁회수	-5651
됐지만	-5652
▁5000	-5653
6%	-5654
99	-5655
▁띠	-5656
▁상에	-5657
▁콘서	-5658
▁계기로	-5659
▁분위기	-5660
▁음극선	-5661
▁줄이고	-5662
▁기기	-5663
▁이래	-5664
▁결과에	-5665
▁노조의	-5666
▁되었습니다	-5667
▁37	-5668
▁책을	-5669
▁최우	-5670
시간이	-5671
억달러	-5672
▁마을을	-5673
시로	-5674
▁심리	-5675
▁전부	-5676
▁화재	-5677
정보통신	-5678
▁판단했다	-5679
▁자연스럽게	-5680
근무	-5681
▁냈다	-5682
▁승인	-5683
▁식각	-5684
▁중계	-5685
▁관계가	-5686
▁패키지	-5687
▁사용하고	-5688
▁있었지만	-5689
하겠습니다	-5690
ed	-5691
현실	-5692
▁벤처	-5693
▁파손	-5694
▁한계	-5695
▁꼽힌다	-5696
▁스튜디오	-5697
금의	-5698
산에	-5699
영역	-5700
조를	-5701
▁48	-5702
▁토대로	-5703
▁방송된다	-5704
소한	-5705
▁경사	-5706
▁규칙	-5707
▁막을	-5708
▁뮤직	-5709
▁산하	-5710
▁접합	-5711
▁제일	-5712
▁향상을	-5713
MS	-5714
▁흰	-5715
스티	-5716
▁먹고	-5717
▁적층	-5718
에너지	-5719
미널	-5720
▁가질	-5721
▁아르	-5722
▁트럭	-5723
교육을	-5724
5000	-5725
▁절차를	-5726
▁자발	-5727
▁가능하며	-5728
▁연결되어	-5729
▁접착	-5730
▁최적의	-5731
림이	-5732
서와	-5733
신은	-5734
▁끊임	-5735
▁국내에	-5736
카데	-5737
▁4,	-5738
▁p	-5739
관광	-5740
기지	-5741
▁입국	-5742
▁아무리	-5743
서비스를	-5744
피스	-5745
▁들이	-5746
▁중증	-5747
▁한은	-5748
▁홍콩	-5749
▁사건이	-5750
▁적용된	-5751
▁했다고	-5752
만원으로	-5753
▁멜	-5754
▁농경	-5755
▁일치	-5756
▁지향	-5757
▁구조에	-5758
1%	-5759
▁눈빛	-5760
▁음원	-5761
▁제도를	-5762
림을	-5763
스팅	-5764
자도	-5765
▁별도	-5766
▁모른다	-5767
▁부모님	-5768
▁하나는	-5769
▁이외에도	-5770
훼손	-5771
▁공장을	-5772
▁이용자가	-5773
▁경로	-5774
▁몰입	-5775
▁영세	-5776
▁전후	-5777
▁개선을	-5778
▁움직이는	-5779
▁삼성전자가	-5780
DA	-5781
이온	-5782
점검	-5783
▁65	-5784
재단	-5785
▁매니	-5786
▁올렸다	-5787
▁출시한	-5788
▁묵	-5789
그러	-5790
당을	-5791
▁털어	-5792
▁80%	-5793
▁갖추고	-5794
▁매출이	-5795
▁모델로	-5796
▁확보할	-5797
▁떨어지는	-5798
백을	-5799
설을	-5800
바이오	-5801
▁이상으로	-5802
▁지역으로	-5803
인치	-5804
▁사용이	-5805
▁신속하게	-5806
▁좋지	-5807
▁지니	-5808
▁토론	-5809
▁모르는	-5810
여행	-5811
▁무상	-5812
▁적정	-5813
▁감소한	-5814
▁미세먼지	-5815
▁섞	-5816
▁불필	-5817
▁메시지	-5818
▁영역을	-5819
▁이산화탄	-5820
구와	-5821
사무	-5822
이던	-5823
▁건전	-5824
▁내구	-5825
▁무대	-5826
▁시너	-5827
재난	-5828
▁간담	-5829
▁실태	-5830
▁연구는	-5831
▁표면에	-5832
회와	-5833
▁방학	-5834
▁입고	-5835
▁업계의	-5836
▁환경에	-5837
체험학습	-5838
코리아가	-5839
▁방송되는	-5840
▁평가했다	-5841
▁딱	-5842
딜락	-5843
판에	-5844
▁방문해	-5845
▁근로기준	-5846
▁검은	-5847
▁전부터	-5848
▁조건을	-5849
▁지원이	-5850
▁차이를	-5851
▁코리아	-5852
▁밥	-5853
결정	-5854
색을	-5855
▁앞둔	-5856
▁일부를	-5857
▁학생이	-5858
미는	-5859
분쟁	-5860
였고	-5861
크가	-5862
▁증착	-5863
▁사람들	-5864
▁이유를	-5865
▁학생은	-5866
▁발생하고	-5867
▁임의	-5868
▁탓에	-5869
▁필터	-5870
▁리모	-5871
▁활용하는	-5872
연의	-5873
▁부품을	-5874
▁생각했다	-5875
▁오프라인	-5876
밀리	-5877
자료	-5878
▁갖게	-5879
▁석유	-5880
▁없기	-5881
그룹이	-5882
연기관	-5883
▁홈페이	-5884
공원	-5885
재해	-5886
주와	-5887
▁관해	-5888
▁내린	-5889
▁지점	-5890
인에게	-5891
▁없지만	-5892
▁운전자가	-5893
경찰	-5894
저가	-5895
▁과정이	-5896
▁실시한	-5897
▁잎	-5898
▁햇	-5899
▁CP	-5900
▁섭취	-5901
금으로	-5902
▁작품을	-5903
▁편이다	-5904
▁관점에서	-5905
▁나타내는	-5906
▁남동	-5907
▁작가	-5908
되므로	-5909
▁결과는	-5910
▁뿐이다	-5911
▁어려울	-5912
▁있었고	-5913
▁정도가	-5914
▁아니냐는	-5915
▁제네시스	-5916
데이	-5917
되게	-5918
▁그중	-5919
▁없도록	-5920
▁집에서	-5921
▁할머니	-5922
▁사람에게	-5923
엔터테인먼트	-5924
단지	-5925
씨를	-5926
▁익숙	-5927
기술을	-5928
▁끌었다	-5929
▁위원장은	-5930
▁학교에서	-5931
포먼	-5932
▁능력	-5933
하여야	-5934
▁않다는	-5935
▁진행할	-5936
▁포르쉐	-5937
천시	-5938
추가	-5939
▁클래	-5940
기생충	-5941
▁보여주는	-5942
세요	-5943
씨와	-5944
전도	-5945
▁고조	-5946
▁산정	-5947
▁아빠	-5948
구조를	-5949
▁발생을	-5950
▁필요로	-5951
▁대통령이	-5952
▁형성하여	-5953
▁롤	-5954
내가	-5955
링을	-5956
중인	-5957
∼20	-5958
▁멀리	-5959
센터를	-5960
소프트	-5961
▁파업을	-5962
▁화제를	-5963
해주시기	-5964
비와	-5965
▁내외	-5966
▁두려	-5967
▁수동	-5968
감염증	-5969
▁없었던	-5970
▁서비스는	-5971
▁편리하게	-5972
변경	-5973
현대	-5974
▁부채	-5975
▁이자	-5976
▁파업에	-5977
▁텍	-5978
전거	-5979
크의	-5980
▁가시	-5981
▁배기	-5982
▁부실	-5983
▁세대	-5984
▁소방	-5985
▁시기에	-5986
▁고용유지	-5987
▁지원하고	-5988
▁세계적으로	-5989
▁i	-5990
수수	-5991
▁보편	-5992
▁분해	-5993
▁불거	-5994
▁쉬운	-5995
▁초반	-5996
▁후원	-5997
▁구조가	-5998
▁대화를	-5999
▁전체의	-6000
▁특징을	-6001
이한	-6002
▁성격	-6003
▁지형	-6004
국에서	-6005
▁초점을	-6006
ES	-6007
안의	-6008
▁봤다	-6009
▁수령	-6010
▁규모는	-6011
▁사업이	-6012
▁하더라도	-6013
as	-6014
▁배열	-6015
▁연방	-6016
▁해수	-6017
었으나	-6018
▁무대를	-6019
▁받아들이	-6020
▁사람들에게	-6021
국을	-6022
여서	-6023
오프	-6024
▁가맹	-6025
▁고분	-6026
▁웃음	-6027
▁호기	-6028
데이트	-6029
▁넷플릭	-6030
▁비대면	-6031
▁자가격	-6032
▁겁	-6033
당은	-6034
라의	-6035
생명	-6036
연장	-6037
.0%	-6038
▁두산	-6039
▁주변의	-6040
▁환자를	-6041
▁공개됐다	-6042
범죄	-6043
종합	-6044
▁소속사	-6045
▁종류의	-6046
▁들어가는	-6047
시킴으로써	-6048
법상	-6049
합의	-6050
▁기사	-6051
▁답변	-6052
▁보일	-6053
▁적발	-6054
▁기간제	-6055
▁이익을	-6056
▁활동이	-6057
▁기대한다	-6058
▁둥	-6059
우의	-6060
▁GS	-6061
▁급등	-6062
개월간	-6063
▁몸을	-6064
▁신곡	-6065
▁아들	-6066
▁얻고	-6067
▁촉진	-6068
▁사업은	-6069
▁사이트	-6070
▁이루는	-6071
▁소비자의	-6072
▁멋	-6073
마이	-6074
말로	-6075
▁농촌	-6076
▁방식이	-6077
▁디자인을	-6078
▁조사됐다	-6079
▁마지막으로	-6080
년도	-6081
▁가변	-6082
▁기간이	-6083
자동차는	-6084
▁발생하지	-6085
▁독서	-6086
▁쌀	-6087
▁안팎	-6088
▁구조의	-6089
▁사고를	-6090
▁단말기에	-6091
경쟁	-6092
▁깨끗	-6093
▁없애	-6094
▁역량을	-6095
▁고속도로	-6096
▁비난	-6097
▁와이어	-6098
▁이해할	-6099
▁확산으로	-6100
▁담임선생님께	-6101
▁붉	-6102
내며	-6103
▁무시	-6104
▁추억	-6105
▁높이기	-6106
▁되도록	-6107
▁분야에	-6108
▁생활을	-6109
▁열심히	-6110
▁줄이는	-6111
▁고객에게	-6112
▁돌봄교실	-6113
▁스포츠카	-6114
▁구체적으로	-6115
레일	-6116
천과	-6117
▁자금이	-6118
▁캐딜락	-6119
▁방송에서는	-6120
▁인터페이스	-6121
▁Y	-6122
기록	-6123
라믹	-6124
▁초래	-6125
▁내렸다	-6126
▁모으고	-6127
▁유명한	-6128
▁정치적	-6129
▁애니메이션	-6130
▁노후	-6131
▁압도	-6132
▁여겨	-6133
▁흔히	-6134
▁모델이	-6135
▁수도권	-6136
▁지분을	-6137
▁국토교통	-6138
▁드라이빙	-6139
45	-6140
▁m	-6141
치에	-6142
▁3000	-6143
할지	-6144
▁골프	-6145
▁토양	-6146
▁흐르	-6147
도에서	-6148
▁가격을	-6149
▁사각지	-6150
▁의해서	-6151
▁형성하고	-6152
▁칸	-6153
▁닛산	-6154
▁되기	-6155
▁여부	-6156
▁해발	-6157
마스크	-6158
▁간섭	-6159
▁어울	-6160
사업을	-6161
▁독특한	-6162
▁반응이	-6163
▁문제점을	-6164
▁사운	-6165
▁저는	-6166
▁규제를	-6167
▁느끼는	-6168
▁채널을	-6169
▁나타나고	-6170
▁실업급여	-6171
▁정보통신	-6172
▁진행되는	-6173
▁길게	-6174
▁손쉽게	-6175
▁의견이	-6176
▁인간이	-6177
스포	-6178
300	-6179
▁유해	-6180
부터는	-6181
티스트	-6182
하시는	-6183
▁것이며	-6184
▁목소리를	-6185
▁배려	-6186
▁포드	-6187
▁화물	-6188
레이드	-6189
▁기업과	-6190
▁라이프	-6191
▁효율적인	-6192
▁뭐	-6193
▁분기	-6194
별로는	-6195
▁40%	-6196
▁감안하면	-6197
▁긍정적인	-6198
▁세계에서	-6199
▁못한다	-6200
▁신천지	-6201
▁세계적인	-6202
▁대다	-6203
▁조회	-6204
▁진정	-6205
▁대법원	-6206
▁생기는	-6207
▁올바른	-6208
▁진행한	-6209
▁2005	-6210
▁업계에서는	-6211
▁학부모님께서는	-6212
▁대단	-6213
▁다이오	-6214
▁저널리즘	-6215
▁전남	-6216
▁협상	-6217
▁돌아가	-6218
▁사례를	-6219
▁인기가	-6220
져야	-6221
지인	-6222
한테	-6223
▁방열	-6224
▁잠정	-6225
▁엄청난	-6226
▁2006	-6227
2'	-6228
▁쾌	-6229
락이	-6230
범위	-6231
인력	-6232
점과	-6233
▁충적	-6234
▁고객을	-6235
▁높았다	-6236
▁이전에	-6237
▁플라스틱	-6238
값을	-6239
매를	-6240
아버	-6241
층에	-6242
▁뜻을	-6243
▁맞은	-6244
▁운송	-6245
소자의	-6246
무는	-6247
오고	-6248
▁거짓	-6249
▁끝난	-6250
▁매주	-6251
▁폐지	-6252
▁능력이	-6253
▁문제에	-6254
금속	-6255
인당	-6256
인증	-6257
▁북동	-6258
▁시내	-6259
▁쓰고	-6260
▁취임	-6261
말을	-6262
▁가전	-6263
▁집적	-6264
▁팩시	-6265
스마트	-6266
▁인플루	-6267
MC	-6268
잡고	-6269
▁이틀	-6270
랫동안	-6271
▁개선된	-6272
▁달한다	-6273
▁시대의	-6274
▁환경이	-6275
▁벼	-6276
▁옹	-6277
장기	-6278
차와	-6279
케어	-6280
▁연습	-6281
▁풀어	-6282
▁공무원	-6283
▁잇따라	-6284
▁주식을	-6285
▁퍼포먼	-6286
▁이어졌다	-6287
교가	-6288
동기	-6289
조가	-6290
▁금액	-6291
아시아	-6292
▁그러므로	-6293
▁아시아나항공	-6294
설팅	-6295
▁객관	-6296
▁호출	-6297
▁않지만	-6298
▁최소한	-6299
▁남쪽으로	-6300
▁상호작용	-6301
▁썼	-6302
받침	-6303
순환	-6304
우러	-6305
LED	-6306
▁없습니다	-6307
▁틈	-6308
받지	-6309
▁1%	-6310
▁터보	-6311
▁규모를	-6312
▁브라운	-6313
▁사건을	-6314
▁실적이	-6315
▁쪽으로	-6316
▁마련했다	-6317
▁스포츠유틸리티차량	-6318
es	-6319
터는	-6320
▁남녀	-6321
▁기술에	-6322
▁며	-6323
▁솟	-6324
▁삭제	-6325
▁폭이	-6326
▁CEO	-6327
▁가격은	-6328
▁관리를	-6329
▁엔지니	-6330
▁살펴보면	-6331
PE	-6332
건으로	-6333
▁과도한	-6334
▁여성이	-6335
▁임금을	-6336
▁드러났다	-6337
▁보여준다	-6338
▁증가하는	-6339
▁발명에서는	-6340
TF	-6341
방역	-6342
호의	-6343
▁개통	-6344
▁무관	-6345
▁역동	-6346
▁총괄	-6347
▁무료로	-6348
▁제시한	-6349
▁들어갔다	-6350
▁말할	-6351
▁했고	-6352
▁기존에	-6353
▁등이다	-6354
▁결정했다	-6355
▁자아냈다	-6356
▁제재	-6357
▁컨셉	-6358
▁아마존	-6359
▁지금도	-6360
▁흐름을	-6361
▁일환으로	-6362
▁의원	-6363
▁공개한	-6364
35	-6365
ch	-6366
oT	-6367
끄는	-6368
다란	-6369
▁올린	-6370
▁이목을	-6371
▁이사회	-6372
있다	-6373
▁교차	-6374
▁구로	-6375
▁선제	-6376
▁없게	-6377
▁보여주	-6378
∼5	-6379
석의	-6380
▁고백	-6381
▁관통	-6382
▁뒤를	-6383
▁아쉬	-6384
▁연금	-6385
▁존중	-6386
▁총파	-6387
▁코팅	-6388
▁양호한	-6389
▁어우러	-6390
▁판매량이	-6391
▁인쇄회로기판	-6392
임이	-6393
처가	-6394
▁끌고	-6395
▁사물	-6396
▁전담	-6397
용으로	-6398
▁그러한	-6399
▁기록한	-6400
▁라이브	-6401
▁송수신	-6402
▁캠페인	-6403
스타그램	-6404
▁내연기관	-6405
▁어렵다는	-6406
AR	-6407
▁싼	-6408
망이	-6409
▁내의	-6410
▁앱을	-6411
▁일체	-6412
▁지불	-6413
▁90%	-6414
▁노력이	-6415
▁데이터의	-6416
▁현대차의	-6417
일으	-6418
▁포장	-6419
▁기간을	-6420
▁이어진	-6421
▁이하의	-6422
▁전자기	-6423
▁형태를	-6424
▁2021	-6425
▁일어나는	-6426
판이	-6427
▁강사	-6428
▁전라	-6429
▁오랫동안	-6430
PI	-6431
▁닿	-6432
숨을	-6433
▁제고	-6434
▁기대감이	-6435
포르	-6436
▁거치	-6437
▁순환	-6438
▁읽어	-6439
▁모터쇼	-6440
규칙	-6441
▁브라	-6442
▁체크	-6443
▁트렁	-6444
▁지금의	-6445
▁과제	-6446
▁매체	-6447
▁제정	-6448
▁커질	-6449
하기는	-6450
▁강하게	-6451
▁대체로	-6452
▁때에는	-6453
▁빗	-6454
로로	-6455
▁분석을	-6456
▁저렴한	-6457
▁제외하고	-6458
▁좋아하는	-6459
지주	-6460
▁고온	-6461
▁만기	-6462
▁명령	-6463
▁유일한	-6464
▁육아휴직	-6465
▁자동차보험	-6466
▁혼다	-6467
게이트	-6468
력발전	-6469
▁노사가	-6470
▁원인이	-6471
▁있었는데	-6472
▁밟	-6473
고도	-6474
▁수목	-6475
▁시사	-6476
▁우유	-6477
▁주입	-6478
▁트로	-6479
리스트	-6480
▁금융위	-6481
▁선택할	-6482
▁소식이	-6483
GI	-6484
배를	-6485
터카	-6486
▁일주	-6487
▁심지어	-6488
▁형성되는	-6489
▁-	-6490
암이	-6491
▁공중	-6492
▁머리	-6493
▁광고를	-6494
▁그렇지	-6495
▁불러일으	-6496
▁향상시키는	-6497
▁튀	-6498
이게	-6499
▁법무	-6500
▁변신	-6501
▁창작	-6502
▁축적	-6503
▁편성	-6504
▁답했다	-6505
▁실적을	-6506
▁음식을	-6507
▁프로모	-6508
▁방지하기	-6509
막이	-6510
▁개혁	-6511
▁사기	-6512
▁콘택	-6513
▁가능할	-6514
▁기관이	-6515
▁확인하고	-6516
노동위원회	-6517
전환	-6518
▁끈다	-6519
▁늘려	-6520
▁바닷	-6521
▁붕괴	-6522
▁약간	-6523
관계를	-6524
하셔서	-6525
▁속도로	-6526
고객	-6527
국과	-6528
부담	-6529
▁트랙	-6530
▁뜻이다	-6531
▁범위를	-6532
▁지원할	-6533
▁당부했다	-6534
▁맑	-6535
공동	-6536
▁EV	-6537
▁간접	-6538
▁고개	-6539
▁나의	-6540
▁단속	-6541
▁조각	-6542
▁호평	-6543
▁경향이	-6544
▁정해진	-6545
▁몽	-6546
준비	-6547
▁동원	-6548
▁마감	-6549
▁관련이	-6550
▁모델은	-6551
▁사람들을	-6552
▁연결되는	-6553
▁지급하는	-6554
▁진행되고	-6555
음에	-6556
▁직무	-6557
카데미	-6558
▁거리를	-6559
▁이탈리아	-6560
너스	-6561
석은	-6562
▁가량	-6563
▁맡아	-6564
▁배정	-6565
▁신선	-6566
▁연휴	-6567
▁부분에	-6568
▁이번이	-6569
▁풍부한	-6570
▁가정에서	-6571
▁업데이트	-6572
식품	-6573
▁건강과	-6574
▁금융권	-6575
▁패턴을	-6576
▁무렵	-6577
▁심한	-6578
▁주간	-6579
▁치매	-6580
인들의	-6581
▁수준에	-6582
▁즐거운	-6583
금과	-6584
연료	-6585
▁직전	-6586
▁초등	-6587
근로제	-6588
산에서	-6589
었다는	-6590
▁출시를	-6591
▁물론이고	-6592
▁감축	-6593
▁성형	-6594
▁아닐	-6595
▁정규	-6596
▁극대화	-6597
▁올라가	-6598
▁이루어지고	-6599
▁39	-6600
▁복수	-6601
▁파우	-6602
▁개인이	-6603
▁기준이	-6604
▁기술이다	-6605
발광	-6606
▁산림	-6607
▁여의	-6608
▁마찬가지	-6609
개선	-6610
류는	-6611
연은	-6612
▁가해	-6613
▁백신	-6614
▁이의	-6615
▁퇴적	-6616
구에서	-6617
컴퓨터	-6618
▁수준이	-6619
▁시대를	-6620
▁위치에	-6621
▁유동성	-6622
▁작업이	-6623
▁회로를	-6624
▁1980	-6625
▁얇	-6626
베이	-6627
▁동시	-6628
▁산출	-6629
▁예전	-6630
▁2,000	-6631
천을	-6632
▁마그	-6633
▁세종	-6634
▁아는	-6635
▁것보다	-6636
▁장관은	-6637
회에서는	-6638
▁유지하는	-6639
활용	-6640
▁수렴	-6641
▁실무	-6642
▁원통	-6643
▁창조	-6644
▁청와대	-6645
▁브랜드의	-6646
▁선보인다	-6647
▁윈	-6648
군을	-6649
만여	-6650
아의	-6651
▁공인	-6652
▁되며	-6653
▁지시	-6654
▁패러	-6655
▁충격을	-6656
▁펼쳐져	-6657
▁협조를	-6658
▁관계없이	-6659
▁기업들의	-6660
▁분위기가	-6661
▁아티스트	-6662
수업	-6663
▁46	-6664
▁밀집	-6665
▁채무	-6666
된다고	-6667
▁스위칭	-6668
▁인스타그램	-6669
수요	-6670
▁셋째	-6671
▁연합	-6672
됐으며	-6673
▁600	-6674
▁것이고	-6675
자나	-6676
형태	-6677
▁구독	-6678
▁모드	-6679
▁재산	-6680
▁정전	-6681
▁개념을	-6682
▁물리학	-6683
▁의미다	-6684
▁사실이다	-6685
로버	-6686
▁명시	-6687
회사가	-6688
▁세라믹	-6689
▁제시했다	-6690
▁취약계층을	-6691
▁봤	-6692
▁가중	-6693
시장은	-6694
▁하나가	-6695
▁공급하는	-6696
▁쇠	-6697
겨진	-6698
변속	-6699
수도	-6700
한을	-6701
▁기회	-6702
▁남서	-6703
▁접지	-6704
임금을	-6705
▁수업을	-6706
▁이해하고	-6707
▁참여했다	-6708
밀한	-6709
▁법칙	-6710
▁종이	-6711
하기가	-6712
▁뛰어나	-6713
▁문제점이	-6714
▁떼	-6715
전쟁	-6716
▁얻은	-6717
계약을	-6718
대병원	-6719
▁장치가	-6720
▁코로나바이러스감염증	-6721
▁캘	-6722
에이	-6723
▁시나	-6724
▁충북	-6725
▁프린	-6726
▁회사채	-6727
▁집계됐다	-6728
지엠	-6729
▁본부	-6730
▁부인	-6731
▁용량	-6732
▁원을	-6733
▁크기가	-6734
세는	-6735
소송	-6736
완전	-6737
▁CC	-6738
▁매달	-6739
▁승차	-6740
▁요양	-6741
▁탄성	-6742
로서의	-6743
해진다	-6744
▁소중한	-6745
▁진행했다	-6746
▁학생들에게	-6747
캐피	-6748
▁방해	-6749
▁시는	-6750
▁거래가	-6751
▁미래를	-6752
▁생산을	-6753
▁시간과	-6754
▁북쪽으로	-6755
대우	-6756
러닝	-6757
박스	-6758
▁QM	-6759
▁그냥	-6760
▁단단	-6761
▁생길	-6762
드리며	-6763
▁전력을	-6764
▁뚫	-6765
반응	-6766
운전	-6767
이노	-6768
목으로	-6769
▁그들이	-6770
▁물리적	-6771
▁아이들의	-6772
∼6	-6773
반떼	-6774
사람	-6775
심의	-6776
역에	-6777
프리	-6778
▁가야	-6779
▁말에	-6780
▁외환	-6781
▁일대	-6782
▁강렬한	-6783
▁모습은	-6784
▁부분은	-6785
▁이같은	-6786
내기	-6787
▁꿈을	-6788
▁파티	-6789
장치는	-6790
▁감독의	-6791
▁사회의	-6792
▁차량에	-6793
보조	-6794
일지	-6795
▁갖춰	-6796
▁나아	-6797
▁배송	-6798
▁적립	-6799
▁2003	-6800
모가	-6801
문의	-6802
아는	-6803
▁불어	-6804
▁역학	-6805
▁감정을	-6806
▁공간이	-6807
▁기업을	-6808
▁노이즈	-6809
▁투자가	-6810
▁확대를	-6811
▁우리나라의	-6812
장한	-6813
▁고스	-6814
▁들려	-6815
▁120	-6816
▁학교에	-6817
▁앞으로도	-6818
iv	-6819
▁런	-6820
▁켜	-6821
▁보정	-6822
기능을	-6823
하다가	-6824
▁프로그램에	-6825
1,	-6826
is	-6827
보니	-6828
▁먹는	-6829
▁바위	-6830
▁충남	-6831
▁힘입	-6832
▁기술로	-6833
▁얘기다	-6834
▁커다란	-6835
▁적용되는	-6836
▁해결하기	-6837
cc	-6838
러를	-6839
류에	-6840
온이	-6841
▁마침	-6842
안으로	-6843
▁교수가	-6844
▁안방극	-6845
▁재미를	-6846
▁모색	-6847
▁이승	-6848
▁훼손	-6849
▁감성을	-6850
▁나타났	-6851
▁현장을	-6852
업무	-6853
▁권리	-6854
▁근처	-6855
▁당사	-6856
▁식물	-6857
▁접어	-6858
▁해제	-6859
하시고	-6860
티즌	-6861
▁VR	-6862
▁녹색	-6863
▁대립	-6864
▁스프	-6865
▁심장	-6866
▁접목	-6867
▁추후	-6868
▁고개를	-6869
▁관련하여	-6870
▁제어하는	-6871
▁예정입니다	-6872
운이	-6873
▁5,	-6874
▁급식	-6875
▁대변	-6876
▁아예	-6877
▁해상	-6878
리스마	-6879
▁사실은	-6880
▁식으로	-6881
▁공동으로	-6882
담보	-6883
▁걸어	-6884
▁몰려	-6885
▁크지	-6886
▁업계는	-6887
▁끊임없이	-6888
TE	-6889
하니	-6890
▁돈이	-6891
▁분노	-6892
▁생계	-6893
▁서서	-6894
▁인권	-6895
▁컸다	-6896
▁과정에	-6897
▁사용해	-6898
만으로도	-6899
▁동쪽으로	-6900
▁왼	-6901
건에	-6902
다시	-6903
최근	-6904
▁5%	-6905
▁김영	-6906
▁의도	-6907
인식	-6908
▁결코	-6909
▁청도	-6910
▁바람직	-6911
▁분석한	-6912
▁소리를	-6913
▁위험을	-6914
▁가능하고	-6915
모듈	-6916
▁예금	-6917
▁폴더	-6918
▁늘어나는	-6919
▁유지하고	-6920
▁현장체험학습	-6921
ot	-6922
▁류	-6923
▁휩	-6924
구동	-6925
▁완벽한	-6926
▁평가가	-6927
시스템을	-6928
▁직원들이	-6929
공개	-6930
방의	-6931
팀이	-6932
▁전형	-6933
▁기술적	-6934
▁도포	-6935
▁SDI	-6936
▁보여줄	-6937
▁스트레	-6938
▁지정된	-6939
▁출시된	-6940
▁해결할	-6941
▁화려한	-6942
준이	-6943
▁○○	-6944
▁나이	-6945
▁때가	-6946
▁밀접	-6947
▁위성	-6948
▁체육	-6949
▁자전거	-6950
▁특정한	-6951
▁고스란히	-6952
▁희망하는	-6953
▁델	-6954
기반	-6955
▁부각	-6956
▁사업의	-6957
▁자녀가	-6958
▁춘	-6959
겁게	-6960
히고	-6961
▁심의	-6962
▁학급	-6963
▁방문한	-6964
▁아이가	-6965
▁없으며	-6966
▁역사를	-6967
▁열었다	-6968
▁자리에	-6969
▁크기를	-6970
▁하나인	-6971
▁관리하는	-6972
▁금융기관	-6973
▁존재한다	-6974
▁질병관리본부	-6975
▁펄	-6976
관련	-6977
조직	-6978
▁형사	-6979
글로벌	-6980
▁스포티	-6981
▁실험을	-6982
▁지역이	-6983
▁친환경차	-6984
▁함께하는	-6985
렌토	-6986
세에	-6987
심한	-6988
▁가고	-6989
▁얻는	-6990
▁재규	-6991
▁패션	-6992
▁포트	-6993
기업의	-6994
시장을	-6995
▁치열한	-6996
▁수준이다	-6997
니가	-6998
키로	-6999
▁반등	-7000
▁성인	-7001
▁응원	-7002
▁교육과	-7003
▁운영을	-7004
▁노동자들이	-7005
감은	-7006
님의	-7007
▁42	-7008
▁43	-7009
▁무려	-7010
▁커피	-7011
시부터	-7012
▁네티즌	-7013
▁느낌을	-7014
▁상태에	-7015
▁않으며	-7016
▁질문에	-7017
▁서비스에	-7018
▁전달하는	-7019
▁맨	-7020
프를	-7021
▁간에	-7022
▁감성	-7023
▁좁은	-7024
▁즉각	-7025
▁화합	-7026
▁규모로	-7027
▁위에서	-7028
▁배터리를	-7029
▁텐	-7030
민의	-7031
번에	-7032
▁나를	-7033
▁일찍	-7034
날로그	-7035
▁경제가	-7036
▁받아야	-7037
▁비중을	-7038
▁아이돌	-7039
▁늘어나고	-7040
▁횟	-7041
커버	-7042
▁실용	-7043
▁징역	-7044
거리를	-7045
들이다	-7046
번호를	-7047
▁미래에셋	-7048
▁조성되어	-7049
▁학부모님들께	-7050
▁순차	-7051
▁합작	-7052
▁이같이	-7053
▁콜센터	-7054
보기	-7055
▁급락	-7056
▁마찰	-7057
▁일종의	-7058
▁진행된다	-7059
▁차지하고	-7060
▁싫	-7061
구청	-7062
▁고가	-7063
▁담고	-7064
▁번호	-7065
▁별로	-7066
▁원금	-7067
▁의뢰	-7068
기업이	-7069
랜드로버	-7070
▁제출하여	-7071
▁궤	-7072
▁민족	-7073
▁엘리	-7074
▁영화의	-7075
법의	-7076
색의	-7077
전은	-7078
▁싶어	-7079
▁이성	-7080
▁예방을	-7081
▁포스터	-7082
▁드러냈다	-7083
▁씻	-7084
름을	-7085
▁값을	-7086
▁멈추	-7087
▁판매량	-7088
▁감사드립니다	-7089
절을	-7090
▁거론	-7091
▁기호	-7092
▁바깥	-7093
▁첨가	-7094
▁폐기	-7095
▁대상을	-7096
▁의지를	-7097
▁상관없이	-7098
▁열을	-7099
▁온실	-7100
▁손실이	-7101
▁여름철	-7102
▁이점이	-7103
▁시작한다	-7104
▁중국에서	-7105
▁추정된다	-7106
국가	-7107
▁농협	-7108
▁산지	-7109
▁이렇	-7110
▁테이	-7111
▁한시	-7112
▁과제는	-7113
▁구조로	-7114
▁2004	-7115
▁방지하여	-7116
▁제조방법을	-7117
IS	-7118
RS	-7119
▁십	-7120
공무	-7121
매가	-7122
연히	-7123
조에	-7124
체육	-7125
▁말고	-7126
▁배가	-7127
▁유력	-7128
▁가족이	-7129
▁전원을	-7130
▁댁	-7131
▁뭉	-7132
▁재현	-7133
▁평탄	-7134
▁가득한	-7135
MO	-7136
즈가	-7137
폰을	-7138
▁아나	-7139
▁입사	-7140
▁전방	-7141
▁태풍	-7142
▁진정한	-7143
발생	-7144
▁동네	-7145
▁물량	-7146
▁선수	-7147
▁청소	-7148
▁해운	-7149
▁60%	-7150
ation	-7151
▁노동자가	-7152
▁소개했다	-7153
▁한국지엠	-7154
쾌한	-7155
▁상부	-7156
▁토크	-7157
였지만	-7158
▁맞이하여	-7159
▁신용등급	-7160
▁신용카드	-7161
면은	-7162
▁광명	-7163
▁신라	-7164
▁신입	-7165
▁증시	-7166
졌지만	-7167
▁국민의	-7168
▁조금씩	-7169
▁힘입어	-7170
▁실시하고자	-7171
연구소	-7172
▁경찰은	-7173
▁고주파	-7174
▁곧바로	-7175
▁트렁크	-7176
▁간편하게	-7177
▁퓨	-7178
교환	-7179
리도	-7180
해달	-7181
▁웹툰	-7182
이면서	-7183
▁급격한	-7184
▁남성이	-7185
▁방식은	-7186
▁아니면	-7187
▁이름으로	-7188
▁잦	-7189
소재	-7190
판의	-7191
편의	-7192
▁가리	-7193
▁곳을	-7194
▁그릴	-7195
▁씨는	-7196
▁전주	-7197
법으로	-7198
▁이것을	-7199
▁이로써	-7200
▁활용하여	-7201
▁효과적인	-7202
교사	-7203
▁개척	-7204
▁노트	-7205
▁본래	-7206
▁직류	-7207
▁철학	-7208
▁커플	-7209
▁확충	-7210
회로를	-7211
▁영상이	-7212
▁증가할	-7213
▁하고자	-7214
▁예상되는	-7215
▁요구했다	-7216
▁방어	-7217
▁뻗어	-7218
▁만나는	-7219
▁소식을	-7220
이라고도	-7221
LO	-7222
▁흉	-7223
▁견고	-7224
▁연마	-7225
▁왜곡	-7226
▁충청	-7227
하라고	-7228
ig	-7229
구역	-7230
대회	-7231
동작	-7232
복을	-7233
▁영구	-7234
기에는	-7235
▁이어져	-7236
▁추진하고	-7237
로도	-7238
리포	-7239
영의	-7240
▁유료	-7241
▁조용	-7242
▁훌륭	-7243
.”	-7244
▁래	-7245
가와	-7246
공학	-7247
부산	-7248
슬러	-7249
파를	-7250
▁도덕	-7251
▁미중	-7252
▁소독	-7253
▁하부	-7254
▁밖으로	-7255
▁베이스	-7256
▁쌍용차는	-7257
▁우리은행	-7258
CA	-7259
지다	-7260
▁위상	-7261
검사를	-7262
근로자	-7263
스트를	-7264
▁기본급	-7265
▁무엇인지	-7266
▁노동자들의	-7267
▁제공하는데	-7268
계와	-7269
기금	-7270
능력	-7271
배가	-7272
▁대답	-7273
▁추석	-7274
산으로	-7275
▁대상은	-7276
▁마을에	-7277
퇴직	-7278
트릭	-7279
▁경유	-7280
▁구별	-7281
▁그곳	-7282
▁길어	-7283
▁상시	-7284
▁실정	-7285
▁작곡	-7286
▁노사는	-7287
▁운동을	-7288
▁은행이	-7289
▁기본적인	-7290
▁업체들이	-7291
▁프로그램이	-7292
상승	-7293
확인	-7294
▁노광	-7295
▁성분	-7296
▁시달	-7297
▁전화를	-7298
▁했는데	-7299
결을	-7300
고개	-7301
▁자라	-7302
▁합쳐	-7303
▁기판을	-7304
▁제조방법	-7305
▁휴대전화	-7306
▁덩	-7307
▁샌	-7308
규제	-7309
하신	-7310
▁반려	-7311
라인을	-7312
▁문화를	-7313
▁지방자치	-7314
▁닮	-7315
졌던	-7316
행이	-7317
▁급감	-7318
▁어른	-7319
▁증상	-7320
▁한마	-7321
주시기	-7322
▁뒷받침	-7323
▁집으로	-7324
▁지적이다	-7325
▁손에	-7326
▁의식	-7327
▁정식	-7328
만원이	-7329
▁장치는	-7330
▁서쪽으로	-7331
▁이루어질	-7332
디션	-7333
▁찾고	-7334
▁2∼3	-7335
▁곳곳에	-7336
▁사람과	-7337
▁타격을	-7338
▁2002	-7339
산물	-7340
▁가서	-7341
▁갔다	-7342
▁독점	-7343
▁숙박	-7344
▁쉽고	-7345
▁테크	-7346
그룹의	-7347
▁있으니	-7348
▁아니라는	-7349
▁소비자들이	-7350
▁근육	-7351
▁듀얼	-7352
▁예외	-7353
심으로	-7354
장치가	-7355
전자는	-7356
▁잘못된	-7357
권은	-7358
린이	-7359
▁간주	-7360
▁기침	-7361
▁상향	-7362
▁원고	-7363
▁화제	-7364
금리가	-7365
▁개발이	-7366
▁거리가	-7367
▁이른다	-7368
▁팬들의	-7369
▁아날로그	-7370
주간	-7371
▁당일	-7372
▁빌려	-7373
▁엄격	-7374
▁임신	-7375
▁가진다	-7376
▁건강을	-7377
▁금리를	-7378
▁물질을	-7379
▁필요할	-7380
▁자동차용	-7381
DP	-7382
대응	-7383
▁신흥	-7384
▁계기가	-7385
▁눈물을	-7386
▁했다는	-7387
▁공개된다	-7388
▁자가격리	-7389
놓고	-7390
키는	-7391
해고	-7392
▁44	-7393
▁대역	-7394
▁용접	-7395
▁진화	-7396
에서만	-7397
▁국회의	-7398
▁행복이	-7399
▁대표하는	-7400
▁하드웨어	-7401
▁가벼	-7402
▁배상	-7403
이었던	-7404
▁규제가	-7405
▁이뤄질	-7406
▁주민들이	-7407
▁릴	-7408
악한	-7409
점의	-7410
현의	-7411
▁믿고	-7412
▁세운	-7413
▁전투	-7414
▁후반	-7415
▁이벤트를	-7416
am	-7417
▁맹	-7418
지난	-7419
형은	-7420
▁갈라	-7421
▁결함	-7422
▁고발	-7423
▁발신	-7424
그룹은	-7425
하지는	-7426
▁부르는	-7427
▁연기를	-7428
▁철저히	-7429
▁특성상	-7430
▁평가다	-7431
▁과학기술정보통신	-7432
il	-7433
준호	-7434
책임	-7435
통화	-7436
▁결핵	-7437
▁부서	-7438
▁선행	-7439
▁한해	-7440
▁주행을	-7441
▁불필요한	-7442
▁학생들은	-7443
례를	-7444
800	-7445
▁반전	-7446
▁받기	-7447
▁새벽	-7448
▁세상	-7449
▁회계	-7450
▁높다는	-7451
▁의원은	-7452
▁보건복지	-7453
▁텔레비젼	-7454
▁스마트폰을	-7455
▁동서	-7456
▁성남	-7457
▁파우치	-7458
▁지나치게	-7459
여개	-7460
▁디자	-7461
▁많지	-7462
▁소음	-7463
▁입체	-7464
▁타입	-7465
▁편향	-7466
경영자	-7467
시키지	-7468
점이다	-7469
▁내부의	-7470
▁제작한	-7471
▁프로듀	-7472
▁뮤직비디오	-7473
주식	-7474
▁만성	-7475
▁시정	-7476
▁찾기	-7477
▁통일	-7478
▁기후변	-7479
▁대비해	-7480
▁아무런	-7481
▁무역분쟁	-7482
▁제공함에	-7483
▁때문입니다	-7484
de	-7485
▁부상	-7486
▁직면	-7487
금리를	-7488
▁성능이	-7489
▁쏘렌토	-7490
▁커패시	-7491
미디	-7492
색이	-7493
일까	-7494
▁것인	-7495
▁공익	-7496
▁보낸	-7497
▁소설	-7498
▁전수	-7499
베이션	-7500
▁감염이	-7501
▁슬라이	-7502
▁원활한	-7503
▁인상을	-7504
▁전체를	-7505
▁행위를	-7506
▁선보이는	-7507
▁네트워크를	-7508
▁보강	-7509
▁빠진	-7510
▁스카	-7511
▁목적을	-7512
▁학교의	-7513
▁배출가스	-7514
층과	-7515
▁기소	-7516
▁인재	-7517
▁터치	-7518
▁생태계	-7519
▁아카데미	-7520
달아	-7521
저항	-7522
▁GV	-7523
▁동생	-7524
▁미술	-7525
▁위생	-7526
▁잡은	-7527
까지의	-7528
▁경쟁을	-7529
▁단위로	-7530
▁온도가	-7531
나마	-7532
조의	-7533
▁고전	-7534
▁놓여	-7535
이므로	-7536
▁관리가	-7537
▁중에는	-7538
▁자리에서	-7539
▁일각에서는	-7540
SI	-7541
▁산소	-7542
▁식별	-7543
▁컨버	-7544
되는데	-7545
▁180	-7546
▁DNA	-7547
▁특별관계자인	-7548
리우	-7549
봉사	-7550
훈이	-7551
▁개폐	-7552
▁공원	-7553
▁생겼	-7554
▁양의	-7555
▁유예	-7556
▁착수	-7557
효과를	-7558
▁교육부	-7559
▁나타날	-7560
▁당연히	-7561
▁들어오	-7562
▁사장이	-7563
▁제품이	-7564
▁형성할	-7565
▁데이터가	-7566
▁자리하고	-7567
▁짙	-7568
차별	-7569
▁김성	-7570
▁들면	-7571
▁사양	-7572
▁관측이	-7573
▁당분간	-7574
▁결정하는	-7575
공제	-7576
론은	-7577
중이	-7578
집을	-7579
통을	-7580
편이	-7581
▁동력	-7582
▁택배	-7583
▁홀로	-7584
▁것이라	-7585
▁바람이	-7586
▁불완전	-7587
▁호흡기	-7588
▁신한금융	-7589
TT	-7590
스테	-7591
▁돕는	-7592
▁세금	-7593
▁이혼	-7594
▁자살	-7595
▁찾은	-7596
콘텐츠	-7597
▁하겠다	-7598
▁사랑하는	-7599
▁서비스의	-7600
▁펜	-7601
▁혁	-7602
본다	-7603
▁기상	-7604
▁불이	-7605
▁세월	-7606
▁절차	-7607
▁편입	-7608
▁노래를	-7609
▁달했다	-7610
▁예정인	-7611
▁인사를	-7612
▁시중은행	-7613
어버	-7614
줘야	-7615
지급	-7616
▁GT	-7617
▁역량	-7618
▁옆에	-7619
▁재해	-7620
기간을	-7621
▁사고로	-7622
▁전기적	-7623
▁조치가	-7624
▁체계를	-7625
▁사용되고	-7626
▁쫓	-7627
용량	-7628
▁IC	-7629
▁스틸	-7630
졌다고	-7631
지도록	-7632
▁설명할	-7633
▁인력을	-7634
▁연구팀은	-7635
▁n	-7636
속에	-7637
이상	-7638
재산	-7639
▁걸린	-7640
▁단자	-7641
▁모았다	-7642
▁의료진	-7643
▁산업혁명	-7644
▁불확실성이	-7645
▁가면	-7646
▁남부	-7647
▁하자	-7648
▁두드러	-7649
▁차량은	-7650
▁특성에	-7651
▁읍	-7652
조치	-7653
▁ES	-7654
▁세균	-7655
▁중구	-7656
▁취재	-7657
▁하던	-7658
만달러	-7659
▁분명히	-7660
▁대통령은	-7661
▁시나리오	-7662
세의	-7663
외선	-7664
▁고체	-7665
▁대면	-7666
하시길	-7667
▁계획이	-7668
23	-7669
당의	-7670
성한	-7671
▁서민	-7672
▁입법	-7673
되지만	-7674
▁강화를	-7675
▁기반을	-7676
▁인구가	-7677
▁연료전지	-7678
▁있었다고	-7679
천은	-7680
컨대	-7681
타임	-7682
트라	-7683
▁선출	-7684
▁셀토	-7685
▁야외	-7686
▁컬러	-7687
▁소나무	-7688
▁차량용	-7689
▁텔레비전	-7690
▁c	-7691
보드	-7692
해양	-7693
▁다채	-7694
▁상영	-7695
▁말까지	-7696
▁그려졌다	-7697
▁이루어진다	-7698
▁동영	-7699
▁마친	-7700
▁보지	-7701
▁싱글	-7702
▁적게	-7703
▁한화	-7704
사항을	-7705
플랫폼	-7706
▁크로스	-7707
됨으로써	-7708
발표	-7709
▁전북	-7710
▁195	-7711
▁계열사	-7712
▁전지가	-7713
▁전체가	-7714
▁프라이	-7715
▁뷰	-7716
업종	-7717
▁노무	-7718
단으로	-7719
미스터	-7720
▁마음에	-7721
▁전기를	-7722
▁주장이	-7723
에서부터	-7724
▁바라보는	-7725
▁확인했다	-7726
끼리	-7727
매수	-7728
400	-7729
▁매도	-7730
▁메뉴	-7731
▁티저	-7732
▁막대한	-7733
▁연결된다	-7734
21	-7735
▁낚	-7736
로우	-7737
이와	-7738
측에	-7739
▁스펙	-7740
▁월드	-7741
▁자치	-7742
동으로	-7743
▁성장할	-7744
▁아반떼	-7745
▁않았던	-7746
CM	-7747
교를	-7748
론의	-7749
하를	-7750
▁47	-7751
▁경비	-7752
▁폭력	-7753
▁혈액	-7754
2000	-7755
▁나오지	-7756
▁하거나	-7757
▁대외	-7758
▁씨가	-7759
▁한때	-7760
▁화강	-7761
상태를	-7762
▁관광객	-7763
▁베스트	-7764
▁세계를	-7765
▁포스코	-7766
▁완벽하게	-7767
경북	-7768
신문	-7769
즈의	-7770
▁로그	-7771
▁빨라	-7772
▁소모	-7773
▁싱가	-7774
▁지리	-7775
▁지진	-7776
▁패킷	-7777
자들과	-7778
▁194	-7779
▁운영에	-7780
▁기자회견을	-7781
▁웨	-7782
기획	-7783
희는	-7784
희롱	-7785
▁고무	-7786
▁수록	-7787
▁전공	-7788
까지도	-7789
▁국가의	-7790
트카	-7791
▁나쁜	-7792
▁느낀	-7793
▁업그	-7794
▁시청률	-7795
▁업체의	-7796
▁계속해서	-7797
▁긴장감을	-7798
▁받아들여	-7799
ct	-7800
미래	-7801
배우	-7802
연에	-7803
절한	-7804
취업	-7805
▁초청	-7806
▁광범위	-7807
▁교육에	-7808
▁제어할	-7809
시스템에	-7810
▁부정적인	-7811
▁않았지만	-7812
소시	-7813
즈는	-7814
▁걸려	-7815
▁동해	-7816
▁면적	-7817
▁현저	-7818
센터는	-7819
았지만	-7820
일자리	-7821
▁ICT	-7822
▁내놨다	-7823
▁아이템	-7824
▁영화는	-7825
▁차원의	-7826
▁강화하고	-7827
▁아니었다	-7828
▁아니지만	-7829
께서	-7830
네트	-7831
▁군사	-7832
▁복원	-7833
퍼센트	-7834
▁맡았다	-7835
▁컨설팅	-7836
PA	-7837
▁시뮬	-7838
▁중독	-7839
▁코너	-7840
▁등장한	-7841
▁불가능한	-7842
▁뽐	-7843
▁옵	-7844
감에	-7845
영은	-7846
평등	-7847
▁방탄	-7848
산업의	-7849
▁라인업	-7850
▁현장에	-7851
▁고려하면	-7852
▁금호타이어	-7853
▁성공적으로	-7854
28	-7855
리세	-7856
만은	-7857
미의	-7858
분할	-7859
전력	-7860
▁국무	-7861
▁물어	-7862
▁배포	-7863
▁병행	-7864
▁일관	-7865
▁진행될	-7866
▁회로에	-7867
▁방송에서	-7868
ou	-7869
로지	-7870
아리	-7871
행정	-7872
▁193	-7873
▁공간에	-7874
▁모은다	-7875
▁활성화를	-7876
세라	-7877
하가	-7878
▁경주	-7879
▁분당	-7880
▁연대	-7881
▁출자	-7882
▁허위	-7883
▁데이타	-7884
▁어려움	-7885
▁회사를	-7886
위원회를	-7887
▁분석된다	-7888
▁운전자의	-7889
▁김동	-7890
▁수면	-7891
▁수천	-7892
▁쌓아	-7893
▁일방	-7894
▁탄탄	-7895
구조에	-7896
▁정책이	-7897
▁노동시장	-7898
▁캐릭터를	-7899
▁얽	-7900
현재	-7901
▁넓게	-7902
▁다행	-7903
▁접종	-7904
▁천안	-7905
▁개그	-7906
▁건의	-7907
▁내내	-7908
▁데는	-7909
▁수의	-7910
▁칼라	-7911
화되는	-7912
회의를	-7913
▁250	-7914
▁귀추가	-7915
▁아름답	-7916
▁언제나	-7917
▁꼼	-7918
시민	-7919
져서	-7920
▁이수	-7921
▁제로	-7922
▁사태를	-7923
▁온도를	-7924
▁이곳에	-7925
▁현대차가	-7926
▁소비자들의	-7927
▁가깝	-7928
▁감상	-7929
▁비가	-7930
▁강원도	-7931
▁아름다	-7932
▁우리금융	-7933
▁냄	-7934
어와	-7935
▁놓은	-7936
▁앞세	-7937
▁전계	-7938
▁정렬	-7939
▁논의가	-7940
▁때보다	-7941
▁분석해	-7942
▁이상인	-7943
▁일정을	-7944
▁전압을	-7945
▁다양하게	-7946
▁인플루엔	-7947
ID	-7948
질은	-7949
▁논리	-7950
▁사후	-7951
▁800	-7952
▁겁니다	-7953
▁높아진	-7954
▁아버지	-7955
▁요인이	-7956
▁방법이다	-7957
▁선정됐다	-7958
▁안전하고	-7959
▁이후에도	-7960
▁톱	-7961
더라	-7962
방에	-7963
보장	-7964
융합	-7965
▁군산	-7966
▁드릴	-7967
▁적어	-7968
▁조심	-7969
▁주한	-7970
▁징계	-7971
▁픽업	-7972
▁갈등이	-7973
▁갖췄다	-7974
▁시대가	-7975
▁제공해	-7976
▁지원에	-7977
▁부산광역시	-7978
오버	-7979
▁딜러	-7980
▁이정	-7981
▁재발	-7982
▁치솟	-7983
수지가	-7984
▁LPG	-7985
▁아직도	-7986
▁인건비	-7987
▁아프리카	-7988
▁험	-7989
심사	-7990
충전	-7991
행위	-7992
▁연체	-7993
▁콘덴	-7994
▁하청	-7995
▁기록을	-7996
▁못하게	-7997
▁비중은	-7998
▁여러분	-7999
▁이뤄진	-8000
▁지자체	-8001
▁혁신을	-8002
▁실질적인	-8003
퍼런	-8004
휴가	-8005
▁비례	-8006
▁서부	-8007
▁학년	-8008
▁할지	-8009
체계를	-8010
▁DLF	-8011
▁강남구	-8012
▁높인다	-8013
▁무대에	-8014
▁얼굴을	-8015
▁요구를	-8016
▁정도를	-8017
▁자동차가	-8018
▁직접적인	-8019
▁집단감염	-8020
▁깃	-8021
석과	-8022
600	-8023
▁49	-8024
▁고장	-8025
▁대회	-8026
▁밀려	-8027
▁서산	-8028
▁실물	-8029
▁올랐	-8030
▁원천	-8031
▁사업자	-8032
▁전까지	-8033
▁투자하는	-8034
강의	-8035
수준	-8036
작업	-8037
▁눈이	-8038
▁다룬	-8039
디지털	-8040
▁신호의	-8041
▁주목을	-8042
▁파악할	-8043
▁개발하고	-8044
▁출시했다	-8045
술을	-8046
▁강도	-8047
▁고압	-8048
▁등산	-8049
▁브리	-8050
▁장벽	-8051
네시아	-8052
▁공장이	-8053
▁효율이	-8054
▁이어가고	-8055
▁앓	-8056
가며	-8057
리라	-8058
시코	-8059
조절	-8060
클럽	-8061
협상	-8062
▁섬유	-8063
▁식당	-8064
▁중개	-8065
▁본인이	-8066
▁에어백	-8067
▁전반에	-8068
▁전통적인	-8069
▁아이디어를	-8070
▁콩	-8071
끄러	-8072
스펜	-8073
악의	-8074
예요	-8075
현은	-8076
▁가게	-8077
▁김용	-8078
▁뒤로	-8079
▁로드	-8080
▁붉은	-8081
▁연극	-8082
▁그쳤다	-8083
▁내년도	-8084
▁신속한	-8085
▁5,000	-8086
29	-8087
em	-8088
▁갔	-8089
▁굉	-8090
렸고	-8091
메이	-8092
용을	-8093
▁이득	-8094
▁190	-8095
▁경계를	-8096
▁알리는	-8097
▁판매하는	-8098
스위	-8099
▁갑작	-8100
▁균형	-8101
▁해지	-8102
명에게	-8103
역에서	-8104
▁거리두	-8105
▁아나운	-8106
▁확산을	-8107
▁멸	-8108
경기	-8109
나의	-8110
마자	-8111
법과	-8112
▁CN	-8113
▁몸에	-8114
▁문의	-8115
식에서	-8116
▁중학교	-8117
▁해당한다	-8118
▁굽	-8119
▁댄	-8120
▁59	-8121
▁바른	-8122
▁목숨을	-8123
▁보호를	-8124
▁전류를	-8125
▁트래픽	-8126
▁돋보이는	-8127
▁중에서도	-8128
TM	-8129
▁빙	-8130
▁잉	-8131
▁부딪	-8132
▁비록	-8133
▁스쿨	-8134
▁인텔	-8135
▁발생해	-8136
▁스타일	-8137
▁안타까	-8138
▁위주로	-8139
▁장면이	-8140
▁전지는	-8141
▁패널의	-8142
▁공정거래	-8143
▁이어진다	-8144
▁출연하는	-8145
▁학교에서는	-8146
인에	-8147
킨다	-8148
▁게재	-8149
▁김수	-8150
▁벌써	-8151
▁사찰	-8152
▁수련	-8153
▁우울	-8154
▁운반	-8155
하라는	-8156
▁여성의	-8157
▁장시간	-8158
▁줄이기	-8159
▁1970	-8160
▁확인하는	-8161
▁휠베이스	-8162
▁구조조정을	-8163
▁연구에서는	-8164
재료	-8165
▁비전	-8166
▁오류	-8167
▁입학	-8168
▁나가는	-8169
▁대학생	-8170
▁아래로	-8171
▁증상을	-8172
▁가능성은	-8173
▁투자자들이	-8174
르지	-8175
▁매장	-8176
▁양도	-8177
바이트	-8178
▁같았다	-8179
▁전략적	-8180
거든	-8181
배상	-8182
보안	-8183
▁가파	-8184
▁극단	-8185
▁나은	-8186
▁동래	-8187
▁수원	-8188
▁에피	-8189
▁허가	-8190
시간제	-8191
청소년	-8192
▁기계적	-8193
▁넘어서	-8194
▁보내는	-8195
▁안정된	-8196
▁의사를	-8197
▁준비를	-8198
▁떨어졌다	-8199
▁유일하게	-8200
▁전체적으로	-8201
▁큐	-8202
올해	-8203
허가	-8204
▁물러	-8205
▁상한	-8206
▁모델의	-8207
▁터미널	-8208
▁판매에	-8209
▁대륙	-8210
▁무더	-8211
▁실장	-8212
▁역을	-8213
▁원작	-8214
▁중복	-8215
멕시코	-8216
▁부른다	-8217
모빌리티	-8218
▁교육과정	-8219
▁앞으로는	-8220
▁모터스포츠	-8221
2,	-8222
내의	-8223
단과	-8224
데다	-8225
마가	-8226
접속	-8227
700	-8228
▁날아	-8229
▁보행	-8230
▁선을	-8231
▁환율	-8232
하기를	-8233
▁들어와	-8234
▁멘	-8235
▁미친	-8236
▁점에	-8237
▁진보	-8238
▁해킹	-8239
았다는	-8240
야말로	-8241
▁아이를	-8242
▁에어컨	-8243
▁원인을	-8244
▁은행의	-8245
▁자체를	-8246
▁공장에서	-8247
▁생산성을	-8248
▁〈	-8249
되던	-8250
로봇	-8251
봐야	-8252
켰다	-8253
▁75	-8254
▁공항	-8255
▁상반	-8256
▁중기	-8257
▁중반	-8258
활동에	-8259
▁겨울철	-8260
▁기간에	-8261
▁자율주행차	-8262
ay	-8263
▁럭	-8264
▁경부	-8265
▁몰아	-8266
▁바퀴	-8267
▁보자	-8268
▁손님	-8269
▁처우	-8270
리에는	-8271
인들은	-8272
▁고려한	-8273
▁동작을	-8274
▁소득이	-8275
▁있어서다	-8276
▁타이틀곡	-8277
마켓	-8278
실한	-8279
팩트	-8280
▁뒤집	-8281
▁코드	-8282
▁탁월	-8283
업체가	-8284
에서다	-8285
▁기여할	-8286
▁노하우	-8287
▁성희롱	-8288
▁이르기	-8289
담을	-8290
실의	-8291
인권	-8292
▁의거	-8293
▁기판에	-8294
▁하우징	-8295
▁바이러스가	-8296
왔던	-8297
주얼	-8298
▁그다	-8299
▁김지	-8300
▁넣어	-8301
▁살인	-8302
▁세미	-8303
▁획기	-8304
임에도	-8305
▁무엇을	-8306
▁무엇이	-8307
▁실시예	-8308
▁진행됐다	-8309
▁카메라를	-8310
로와	-8311
리츠	-8312
연한	-8313
표준	-8314
▁교원	-8315
▁나섰	-8316
▁변압	-8317
▁부피	-8318
▁파일	-8319
주년을	-8320
▁마스터	-8321
▁어디서	-8322
▁주었다	-8323
으로서의	-8324
▁병원에서	-8325
니스	-8326
소형	-8327
▁섬세	-8328
▁않으	-8329
▁재능	-8330
▁나누어	-8331
▁아래에	-8332
▁전세계	-8333
▁수소전기	-8334
▁삼성전자는	-8335
▁Z	-8336
나다	-8337
무가	-8338
저축	-8339
크는	-8340
▁동부	-8341
▁인용	-8342
▁중성	-8343
▁칭찬	-8344
환자가	-8345
▁공급이	-8346
▁금감원	-8347
▁대출이	-8348
▁서로를	-8349
▁세계의	-8350
▁시간은	-8351
▁업체는	-8352
▁자동화	-8353
▁개발했다	-8354
▁실시하고	-8355
▁기본적으로	-8356
3,	-8357
TC	-8358
코더	-8359
▁KC	-8360
▁국채	-8361
▁오래된	-8362
▁출연한	-8363
▁커졌다	-8364
▁코미디	-8365
▁크리에	-8366
▁한국에서	-8367
▁팰	-8368
건축	-8369
코드	-8370
▁동백	-8371
▁드는	-8372
▁색깔	-8373
▁타임	-8374
나라는	-8375
▁된다고	-8376
▁전지에	-8377
▁테슬라	-8378
▁프로토	-8379
▁교통사고	-8380
▁입장에서는	-8381
▁낯	-8382
▁감싸	-8383
▁말은	-8384
▁연산	-8385
▁연애	-8386
된다면	-8387
라이언	-8388
소시엄	-8389
업계의	-8390
▁미래의	-8391
▁영화가	-8392
▁협력을	-8393
고속도로	-8394
▁근로자를	-8395
▁싱가포르	-8396
▁겉	-8397
경의	-8398
나게	-8399
디아	-8400
리밍	-8401
▁김태	-8402
▁때의	-8403
▁민원	-8404
▁받으	-8405
▁발원	-8406
▁삼각	-8407
▁소녀	-8408
▁스탠	-8409
▁초대	-8410
▁탐색	-8411
▁해주	-8412
▁경기가	-8413
▁사람도	-8414
▁장기간	-8415
▁정도다	-8416
▁플래그	-8417
▁기업들은	-8418
▁종래에는	-8419
AM	-8420
철도	-8421
타페	-8422
▁56	-8423
▁단행	-8424
▁돌출	-8425
▁본사	-8426
▁부부	-8427
▁지목	-8428
▁측의	-8429
기관이	-8430
에게도	-8431
▁일어날	-8432
▁현실을	-8433
▁후에는	-8434
▁했습니다	-8435
훈련	-8436
▁악성	-8437
▁정한	-8438
▁휴식	-8439
라이브	-8440
▁결과로	-8441
▁모델인	-8442
▁생각할	-8443
▁연구에	-8444
▁요소를	-8445
▁이후에	-8446
▁장비를	-8447
▁마음으로	-8448
▁일상생활	-8449
▁깎	-8450
패턴	-8451
▁분배	-8452
▁전선	-8453
▁준공	-8454
▁중의	-8455
관계가	-8456
을수록	-8457
▁고유의	-8458
▁구성을	-8459
▁마치고	-8460
▁사용을	-8461
▁유전체	-8462
▁전한다	-8463
▁즐기는	-8464
▁국민연금	-8465
▁노력하고	-8466
▁에너지가	-8467
교섭	-8468
년과	-8469
지구	-8470
▁광학	-8471
▁데서	-8472
▁적재	-8473
정규직	-8474
▁기대할	-8475
▁시설이	-8476
▁시행령	-8477
▁지적도	-8478
▁캐스팅	-8479
방역대책	-8480
▁궁금증이	-8481
▁성공했다	-8482
▁갯	-8483
▁캔	-8484
국인	-8485
유가	-8486
채권	-8487
▁녹음	-8488
▁막아	-8489
▁불리	-8490
▁시공	-8491
▁1∼2	-8492
▁더욱이	-8493
▁못했던	-8494
▁물질이	-8495
▁상담을	-8496
▁손상을	-8497
▁전환을	-8498
▁지상파	-8499
▁향상된	-8500
▁적용된다	-8501
▁효율성을	-8502
군에	-8503
▁보며	-8504
▁속한	-8505
▁신작	-8506
▁연주	-8507
▁챔버	-8508
효율을	-8509
▁그래픽	-8510
▁빠져나	-8511
▁산업이	-8512
▁소리가	-8513
▁품질을	-8514
▁지원하기	-8515
▁참고하시어	-8516
SD	-8517
짐을	-8518
▁SW	-8519
▁간격	-8520
▁솟아	-8521
▁코란	-8522
▁크루	-8523
폴리오	-8524
▁권리를	-8525
▁물었다	-8526
▁병원을	-8527
▁이태원	-8528
▁한계를	-8529
▁근무하는	-8530
▁눌	-8531
▁힐	-8532
국내	-8533
렸던	-8534
출을	-8535
터리	-8536
▁견인	-8537
▁신도	-8538
▁보았다	-8539
▁부정적	-8540
▁고객들이	-8541
▁보여주고	-8542
▁일으키는	-8543
▁판단된다	-8544
▁전기자동차	-8545
▁뼈	-8546
고는	-8547
인승	-8548
▁동급	-8549
▁유재	-8550
▁정서	-8551
▁체감	-8552
▁휴가	-8553
▁엔진이	-8554
▁자세한	-8555
▁점유율	-8556
▁투자한	-8557
▁판매한	-8558
▁담당하는	-8559
▁예상했다	-8560
▁64	-8561
▁납품	-8562
▁때에	-8563
▁크기의	-8564
▁판결을	-8565
▁파악하고	-8566
박한	-8567
부장	-8568
비에	-8569
하에	-8570
▁그럴	-8571
▁승객	-8572
▁주총	-8573
명이다	-8574
클래스	-8575
▁상용차	-8576
▁않을까	-8577
▁인식이	-8578
▁있을까	-8579
▁구성된다	-8580
▁예방접종	-8581
▁웨이퍼를	-8582
▁추구하는	-8583
▁학생들을	-8584
▁소비자에게	-8585
▁중앙방역대책	-8586
om	-8587
따라	-8588
셨다	-8589
장히	-8590
처분	-8591
▁논쟁	-8592
▁도내	-8593
▁맥락	-8594
▁세탁	-8595
▁식사	-8596
▁와서	-8597
▁자제	-8598
▁정수	-8599
▁종로	-8600
▁채워	-8601
시간에	-8602
▁비율은	-8603
▁소자를	-8604
▁나타낸다	-8605
▁적용했다	-8606
▁엉	-8607
▁맞물	-8608
▁점포	-8609
▁히트	-8610
거리가	-8611
▁경로를	-8612
▁말씀은	-8613
▁발전에	-8614
▁치료제	-8615
▁교육부는	-8616
▁질병관리본부는	-8617
림픽	-8618
열을	-8619
▁구미	-8620
▁능동	-8621
▁만일	-8622
▁바뀐	-8623
▁안착	-8624
▁종종	-8625
▁하위	-8626
기간이	-8627
라운드	-8628
▁근거로	-8629
▁비율을	-8630
▁상기와	-8631
▁차별화된	-8632
▁최저임금을	-8633
▁랜	-8634
티드	-8635
▁결론	-8636
▁박사	-8637
▁발진	-8638
▁어두	-8639
▁이메	-8640
▁재택	-8641
▁주된	-8642
▁트림	-8643
▁개발된	-8644
▁혜택이	-8645
▁확대해	-8646
▁움직임이	-8647
대문	-8648
유럽	-8649
접촉	-8650
▁면제	-8651
▁신중	-8652
▁약한	-8653
▁임직	-8654
▁주제	-8655
전지의	-8656
▁잡았다	-8657
▁화면을	-8658
▁시장에서는	-8659
층은	-8660
호흡	-8661
▁가짜	-8662
▁그만	-8663
▁둔화	-8664
▁워크	-8665
▁조현	-8666
▁치명	-8667
▁침체	-8668
여명의	-8669
▁검찰은	-8670
▁모양의	-8671
▁일부가	-8672
▁배경으로	-8673
▁탄력근로제	-8674
▁프로그램의	-8675
▁퀴	-8676
링크	-8677
았을	-8678
▁몇몇	-8679
▁물에	-8680
▁버전	-8681
▁전월	-8682
▁코딩	-8683
▁포괄	-8684
▁학술	-8685
▁방탄소년	-8686
▁움직임을	-8687
▁멀티미디어	-8688
▁꽤	-8689
롭고	-8690
우트	-8691
▁AR	-8692
▁소수	-8693
▁부드러	-8694
▁용이한	-8695
▁종사자	-8696
회의에서	-8697
▁저축은행	-8698
▁가정에서도	-8699
ER	-8700
졌기	-8701
터와	-8702
펌프	-8703
▁디지	-8704
▁서브	-8705
▁신임	-8706
▁차등	-8707
▁회피	-8708
▁결과다	-8709
▁매력이	-8710
▁미치지	-8711
▁상황은	-8712
▁확대하고	-8713
▁검진	-8714
▁높인	-8715
▁당뇨	-8716
▁축하	-8717
▁출판	-8718
문이다	-8719
위원은	-8720
회사의	-8721
▁늘면서	-8722
▁자세히	-8723
▁검토하고	-8724
▁이들에게	-8725
▁취약계층에	-8726
기통	-8727
비로	-8728
▁기저	-8729
▁당선	-8730
▁와이	-8731
▁장난	-8732
▁대응할	-8733
▁뛰어넘	-8734
▁선택한	-8735
▁캐패시	-8736
▁한진칼	-8737
네트워크	-8738
디스플레이	-8739
▁더불어민주	-8740
▁딥	-8741
가락	-8742
망의	-8743
▁관여	-8744
▁궁극	-8745
▁대사	-8746
▁대여	-8747
▁커진	-8748
▁케미	-8749
▁더했다	-8750
▁마련해	-8751
▁선정된	-8752
▁쇼핑몰	-8753
▁제네시	-8754
▁트레이	-8755
▁돌아왔다	-8756
▁서울특별	-8757
▁요구하고	-8758
27	-8759
라리	-8760
제작	-8761
▁강좌	-8762
▁도래	-8763
▁밀어	-8764
▁시트	-8765
▁지반	-8766
▁추산	-8767
▁추측	-8768
자로서	-8769
▁들어갈	-8770
▁로봇이	-8771
▁머리를	-8772
▁그렇다면	-8773
▁존재감을	-8774
▁사용자에게	-8775
CN	-8776
...	-8777
▁반박	-8778
▁범람	-8779
▁영혼	-8780
▁채취	-8781
▁출현	-8782
▁형상	-8783
▁멕시코	-8784
▁물건을	-8785
▁신청할	-8786
▁지식을	-8787
위원회의	-8788
▁금융위기	-8789
▁르노삼성은	-8790
▁곁	-8791
실은	-8792
편을	-8793
▁완치	-8794
▁우승	-8795
▁유가	-8796
▁줄이	-8797
라이트	-8798
물질을	-8799
▁감사의	-8800
▁감염된	-8801
▁교육의	-8802
▁부부가	-8803
▁플래그십	-8804
65	-8805
▁율	-8806
기계	-8807
석에	-8808
설계	-8809
엔진	-8810
▁기어	-8811
▁놀이	-8812
▁유닛	-8813
▁제목	-8814
▁코일	-8815
▁환불	-8816
센터가	-8817
▁상용화	-8818
▁신청이	-8819
▁알렸다	-8820
▁엔진과	-8821
▁이용이	-8822
▁플러스	-8823
▁방지하고	-8824
▁불과하다	-8825
▁실정이다	-8826
▁요인으로	-8827
공항	-8828
르트	-8829
▁공학	-8830
▁부총	-8831
▁신분	-8832
▁지어	-8833
들과의	-8834
▁경영권	-8835
▁대상에	-8836
▁대표이	-8837
▁서울대	-8838
▁파워트	-8839
▁등장하는	-8840
도서	-8841
미한	-8842
우며	-8843
중소	-8844
짜리	-8845
퇴근	-8846
▁몸이	-8847
▁호응	-8848
거리는	-8849
졌으며	-8850
▁번째로	-8851
▁병원에	-8852
▁정보의	-8853
▁한다면	-8854
▁확인된	-8855
▁등장했다	-8856
▁빔	-8857
졌을	-8858
▁리얼	-8859
▁복용	-8860
▁성적	-8861
▁시에	-8862
▁중순	-8863
▁지각	-8864
▁포항	-8865
만대를	-8866
▁고용을	-8867
▁때부터	-8868
▁조절할	-8869
▁피해자	-8870
▁2001	-8871
▁인도네시아	-8872
▁곽	-8873
개인	-8874
로에	-8875
바람	-8876
▁국세	-8877
▁나면	-8878
▁미생	-8879
▁요리	-8880
▁정작	-8881
▁제동	-8882
위에서	-8883
▁보건당	-8884
▁콘서트	-8885
▁'2020	-8886
▁기아자동차	-8887
있게	-8888
파가	-8889
폭을	-8890
▁거친	-8891
▁국정	-8892
▁봐야	-8893
▁집합	-8894
▁콘센	-8895
색으로	-8896
▁굉장히	-8897
▁도입을	-8898
▁없으면	-8899
▁음악을	-8900
▁이룬다	-8901
▁회사에	-8902
▁2022	-8903
▁균일하게	-8904
▁다채로운	-8905
▁적용하는	-8906
메시	-8907
전류	-8908
▁국방	-8909
▁먹을	-8910
▁상하	-8911
▁시흥	-8912
▁여객	-8913
▁잇는	-8914
▁작아	-8915
▁전교	-8916
▁조항	-8917
▁튜닝	-8918
냐하면	-8919
비용을	-8920
▁그러면	-8921
▁모터의	-8922
▁미국이	-8923
▁제출해	-8924
▁조사한	-8925
▁좋겠다	-8926
▁화웨이	-8927
▁가입자가	-8928
▁이용하고	-8929
련의	-8930
열이	-8931
치며	-8932
▁묘사	-8933
▁방치	-8934
▁부적	-8935
▁빛이	-8936
▁AMG	-8937
▁감독은	-8938
▁구현할	-8939
▁기지국	-8940
▁학교는	-8941
▁할리우	-8942
▁1960	-8943
▁발생하면	-8944
▁촉구했다	-8945
역의	-8946
▁58	-8947
▁구상	-8948
▁냄새	-8949
▁냉장	-8950
▁맞춘	-8951
▁석탄	-8952
▁폭넓	-8953
▁학원	-8954
시하는	-8955
장애인	-8956
▁제도다	-8957
▁협조해	-8958
▁확보를	-8959
이라면서	-8960
▁금감원은	-8961
▁윌	-8962
▁공적	-8963
▁레드	-8964
▁맡고	-8965
▁절단	-8966
▁조리	-8967
▁중동	-8968
▁출산	-8969
▁파이	-8970
▁700	-8971
▁걸그룹	-8972
▁기준에	-8973
▁제품은	-8974
▁혐의를	-8975
리포니아	-8976
▁문화예술	-8977
▁직원들의	-8978
봉이	-8979
황을	-8980
황이	-8981
▁0%	-8982
▁나눔	-8983
▁액션	-8984
▁단계를	-8985
▁위험한	-8986
▁중국이	-8987
▁찾아가	-8988
▁편리한	-8989
▁금융투자	-8990
▁내년부터	-8991
▁대응하는	-8992
▁추진하는	-8993
▁전반적으로	-8994
공유	-8995
군과	-8996
▁럭셔	-8997
▁빛의	-8998
▁실린	-8999
▁실증	-9000
▁용인	-9001
▁나서는	-9002
▁돌아온	-9003
▁리모콘	-9004
▁재규어	-9005
▁차질이	-9006
▁안정성을	-9007
▁전형적인	-9008
▁향상되는	-9009
문에	-9010
방전	-9011
오염	-9012
자다	-9013
환이	-9014
▁구제	-9015
▁나빠	-9016
▁드론	-9017
▁발송	-9018
▁주체	-9019
▁티브	-9020
되었던	-9021
▁선택을	-9022
▁고려하여	-9023
▁생각하고	-9024
▁요청했다	-9025
오토	-9026
▁도어	-9027
▁되돌	-9028
▁송가	-9029
▁이모	-9030
▁한쪽	-9031
케이블	-9032
케이스	-9033
▁원통형	-9034
▁확실히	-9035
병원에서	-9036
▁알려드립니다	-9037
▁뭔	-9038
음의	-9039
▁서초	-9040
▁쓰레	-9041
▁월화	-9042
▁위의	-9043
▁추락	-9044
명했다	-9045
정부가	-9046
▁개선이	-9047
▁달라고	-9048
▁세상에	-9049
▁이끄는	-9050
▁확산에	-9051
▁개발하는	-9052
우스	-9053
▁금강	-9054
▁김천	-9055
▁여수	-9056
▁헬스	-9057
▁휴직	-9058
만원에	-9059
스트로	-9060
음으로	-9061
▁경제의	-9062
▁모두를	-9063
▁싼타페	-9064
▁언급한	-9065
▁우려를	-9066
▁판단이	-9067
▁고등학교	-9068
▁대부분은	-9069
▁이해하는	-9070
▁주관하는	-9071
26	-9072
OP	-9073
가치	-9074
생의	-9075
섬유	-9076
풍이	-9077
하되	-9078
▁다를	-9079
▁말로	-9080
▁반송	-9081
▁부합	-9082
▁어깨	-9083
▁짐작	-9084
▁화산	-9085
시키며	-9086
▁개선할	-9087
▁나중에	-9088
▁아들이	-9089
▁전류가	-9090
▁강화하는	-9091
▁수익률이	-9092
▁이르기까지	-9093
곳이	-9094
등이	-9095
▁날짜	-9096
▁수지	-9097
▁아끼	-9098
▁출고	-9099
▁토지	-9100
▁표기	-9101
아파트	-9102
▁디즈니	-9103
▁벌이고	-9104
▁질문을	-9105
▁학교를	-9106
연장근로	-9107
▁스토리텔	-9108
3'	-9109
▁웰	-9110
▁짝	-9111
교의	-9112
호로	-9113
▁깨달	-9114
▁이민	-9115
▁주사	-9116
▁한반	-9117
들었다	-9118
캐피탈	-9119
▁균일한	-9120
▁않았고	-9121
▁증권사	-9122
▁안전성을	-9123
▁톤	-9124
음은	-9125
▁야간	-9126
▁에칭	-9127
▁차기	-9128
▁책정	-9129
호선과	-9130
▁열렸다	-9131
▁폭으로	-9132
▁원활하게	-9133
▁포함하여	-9134
▁프로그램은	-9135
계좌	-9136
기념	-9137
년형	-9138
ent	-9139
▁거대	-9140
▁불참	-9141
▁알리	-9142
까지만	-9143
▁명확히	-9144
▁문제의	-9145
▁생겼다	-9146
▁열린다	-9147
▁실시하는	-9148
▁업그레이드	-9149
▁넉	-9150
▁을	-9151
경은	-9152
삼성	-9153
위와	-9154
청에	-9155
▁EU	-9156
▁듣는	-9157
▁맞서	-9158
▁음향	-9159
▁청주	-9160
▁놀라운	-9161
▁성공한	-9162
▁오르는	-9163
들로부터	-9164
▁그렇지만	-9165
▁받았다고	-9166
▁사회안전	-9167
▁커지면서	-9168
▁필요성이	-9169
▁s	-9170
▁팝	-9171
▁2%	-9172
▁MB	-9173
▁고위	-9174
▁붙어	-9175
▁방법과	-9176
▁아니고	-9177
▁유리한	-9178
▁이어폰	-9179
▁카드를	-9180
▁비롯하여	-9181
▁셰	-9182
▁XM	-9183
▁만날	-9184
▁매월	-9185
▁전설	-9186
▁평범	-9187
▁피드	-9188
관리를	-9189
▁고려할	-9190
▁대응을	-9191
▁렉서스	-9192
▁사이드	-9193
▁엔진은	-9194
▁비교하면	-9195
!"	-9196
TA	-9197
▁젖	-9198
사태	-9199
▁41	-9200
▁도는	-9201
▁박정	-9202
▁카이	-9203
나무는	-9204
▁그녀의	-9205
▁떨어질	-9206
▁서스펜	-9207
▁시작해	-9208
▁양질의	-9209
▁전극을	-9210
▁디자인과	-9211
▁서비스로	-9212
▁선호하는	-9213
▁영역에서	-9214
▁입장에서	-9215
▁3,000	-9216
∼8	-9217
▁갱	-9218
고의	-9219
종사	-9220
▁상의	-9221
▁읽고	-9222
▁청춘	-9223
▁투여	-9224
년으로	-9225
반도체	-9226
▁긍정적	-9227
▁느낌이	-9228
▁소정의	-9229
▁인력이	-9230
▁팩시밀	-9231
▁라인업을	-9232
▁마련됐다	-9233
▁국내에서는	-9234
▁프로젝트를	-9235
▁엔터테인먼트	-9236
▁괜	-9237
▁거절	-9238
▁보아	-9239
▁안산	-9240
▁희생	-9241
▁규정을	-9242
▁늘리는	-9243
▁사건의	-9244
▁사이클	-9245
▁살아남	-9246
▁전극의	-9247
▁거주하는	-9248
▁제시한다	-9249
▁판매량은	-9250
▁닥	-9251
▁앙	-9252
놓은	-9253
량에	-9254
실과	-9255
응답	-9256
품이	-9257
▁날씨	-9258
▁본질	-9259
▁산이	-9260
▁어르	-9261
▁원리	-9262
▁갈등을	-9263
▁높아질	-9264
▁등장해	-9265
▁스페셜	-9266
▁있었기	-9267
▁벌어지는	-9268
▁선별진료	-9269
▁캘리포니아	-9270
▁향상시키고	-9271
▁꺾	-9272
▁옳	-9273
▁감수	-9274
▁일에	-9275
▁고용부	-9276
▁팰리세	-9277
▁다음으로	-9278
▁사회복지	-9279
▁위해서다	-9280
▁직접고용	-9281
▁컨소시엄	-9282
▁포트폴리오	-9283
ad	-9284
▁춤	-9285
▁흙	-9286
브를	-9287
주민	-9288
진단	-9289
▁녹화	-9290
▁무리	-9291
▁없던	-9292
▁오를	-9293
▁처분	-9294
▁공동체	-9295
▁위치해	-9296
▁유용한	-9297
▁확보한	-9298
▁그렇다고	-9299
▁고집	-9300
▁유로	-9301
▁청취	-9302
▁할당	-9303
▁분들이	-9304
▁빠르고	-9305
▁역할이	-9306
▁올리는	-9307
▁진료를	-9308
▁고용부는	-9309
▁고용안정	-9310
▁때문으로	-9311
▁왜냐하면	-9312
▁호기심을	-9313
▁가능하다는	-9314
러가	-9315
▁53	-9316
▁고수	-9317
▁곤란	-9318
▁붙인	-9319
▁입찰	-9320
▁줄기	-9321
▁판정	-9322
▁피아	-9323
원들의	-9324
▁공간의	-9325
▁나란히	-9326
▁확대될	-9327
▁CCTV	-9328
▁출연한다	-9329
▁포함되어	-9330
▁운영하고자	-9331
웠던	-9332
조로	-9333
합병	-9334
호는	-9335
▁과기	-9336
어지고	-9337
자료를	-9338
▁가동을	-9339
▁계획에	-9340
▁공연을	-9341
▁금액을	-9342
▁남다른	-9343
▁반영한	-9344
▁수요를	-9345
▁랜드로버	-9346
▁자랑하는	-9347
▁추진한다	-9348
▁결과적으로	-9349
▁기아자동차가	-9350
머스	-9351
심에	-9352
하늘	-9353
▁경량	-9354
▁그저	-9355
▁돕기	-9356
▁선형	-9357
▁소폭	-9358
▁잃은	-9359
▁재고	-9360
▁정교	-9361
▁착신	-9362
▁통행	-9363
▁흡연	-9364
보다도	-9365
▁똑같은	-9366
▁방식에	-9367
▁서서히	-9368
▁예컨대	-9369
▁나타냈다	-9370
▁비판했다	-9371
▁않았다는	-9372
▁있었으나	-9373
▁자영업자	-9374
▁전반적인	-9375
님은	-9376
담당	-9377
퓨팅	-9378
▁설렘	-9379
▁신장	-9380
▁임차	-9381
▁차체	-9382
선에서	-9383
스트는	-9384
위원장	-9385
하자는	-9386
▁대해선	-9387
▁신기술	-9388
▁영국의	-9389
▁이내에	-9390
▁이하로	-9391
▁주한미	-9392
▁이동통신단말	-9393
강도	-9394
됨을	-9395
수입	-9396
재와	-9397
통상	-9398
통제	-9399
▁남긴	-9400
▁리츠	-9401
▁발산	-9402
▁알파	-9403
▁압력	-9404
기아차	-9405
리고자	-9406
▁"20	-9407
▁각자의	-9408
▁고통을	-9409
▁과학적	-9410
▁너무나	-9411
▁단백질	-9412
▁상품은	-9413
▁신차를	-9414
▁안전성	-9415
▁없어서	-9416
▁요소가	-9417
▁형태가	-9418
고등학교	-9419
방향으로	-9420
▁공유하는	-9421
LG	-9422
개혁	-9423
령이	-9424
션이	-9425
▁반납	-9426
▁소외	-9427
▁유익	-9428
만명을	-9429
천으로	-9430
▁국가가	-9431
▁이번에는	-9432
▁이용하면	-9433
▁대표적이다	-9434
EC	-9435
▁힌	-9436
마의	-9437
오늘	-9438
▁감추	-9439
▁겨냥	-9440
▁밝은	-9441
▁엑스	-9442
▁피로	-9443
년대에	-9444
▁과거의	-9445
▁노동계	-9446
▁정보는	-9447
▁처리를	-9448
▁브랜드를	-9449
▁예고했다	-9450
▁자신들의	-9451
▁존재하지	-9452
ET	-9453
▁셔	-9454
됐을	-9455
연대	-9456
증상	-9457
▁57	-9458
▁느티	-9459
▁맺고	-9460
▁장식	-9461
▁호주	-9462
서에서	-9463
심에서	-9464
효과가	-9465
▁동의를	-9466
▁미국은	-9467
▁신뢰성	-9468
▁하도록	-9469
발을	-9470
어에	-9471
한이	-9472
▁분사	-9473
▁연비	-9474
▁절약	-9475
그리고	-9476
▁이해를	-9477
▁부문에서	-9478
▁아버지가	-9479
▁자동차는	-9480
▁굿	-9481
움과	-9482
회전	-9483
▁각기	-9484
▁밴드	-9485
▁중부	-9486
스트가	-9487
▁상품이	-9488
견이	-9489
블록	-9490
스톤	-9491
우기	-9492
제조	-9493
▁DS	-9494
▁개막	-9495
▁멜로	-9496
▁수혜	-9497
기관의	-9498
층으로	-9499
했다가	-9500
▁불렀다	-9501
▁직원을	-9502
▁2030	-9503
▁시스템과	-9504
▁확대하는	-9505
37	-9506
보에	-9507
아웃	-9508
지표	-9509
티는	-9510
▁가난	-9511
▁극장	-9512
▁모형	-9513
▁밝혔	-9514
▁전격	-9515
▁지휘	-9516
▁출석	-9517
▁한글	-9518
총연맹	-9519
▁25%	-9520
▁가족의	-9521
▁마련한	-9522
▁마침내	-9523
▁제품에	-9524
▁조사에	-9525
담보대출	-9526
▁여름방학	-9527
▁이곳에서	-9528
숙한	-9529
주도	-9530
▁김종	-9531
▁비판이	-9532
▁영역에	-9533
▁하나다	-9534
실히	-9535
터로	-9536
▁개체	-9537
▁구리	-9538
▁신축	-9539
▁월급	-9540
공사가	-9541
륜구동	-9542
협약을	-9543
▁걸리는	-9544
▁얻었다	-9545
▁이뤄지지	-9546
▁낫	-9547
러는	-9548
파의	-9549
▁든다	-9550
▁밀착	-9551
▁불순	-9552
▁시야	-9553
▁자문	-9554
▁침입	-9555
어지는	-9556
▁상하이	-9557
▁감소시킬	-9558
▁변동성이	-9559
▁보험료를	-9560
▁아니라고	-9561
▁제기됐다	-9562
lo	-9563
다리	-9564
▁내리	-9565
▁물가	-9566
▁지수	-9567
▁페르	-9568
리지널	-9569
투자가	-9570
화되어	-9571
▁인증을	-9572
▁확대할	-9573
▁최소화할	-9574
▁노동자들은	-9575
▁순차적으로	-9576
▁있었습니다	-9577
돌이	-9578
브라	-9579
통합	-9580
▁66	-9581
▁구강	-9582
▁방안이	-9583
▁보험사	-9584
▁연구의	-9585
▁트로트	-9586
▁현장의	-9587
▁카카오톡	-9588
95	-9589
▁동결	-9590
▁원의	-9591
사회적	-9592
▁가졌다	-9593
▁금액이	-9594
▁우려도	-9595
들고	-9596
랜서	-9597
▁걸릴	-9598
▁그랬	-9599
▁명을	-9600
▁앞장	-9601
▁야기	-9602
▁오버	-9603
▁자칫	-9604
▁침투	-9605
▁항생	-9606
▁화가	-9607
▁휴게	-9608
▁개발해	-9609
▁꾸준한	-9610
▁방지를	-9611
▁사회에	-9612
▁스프링	-9613
▁실시할	-9614
▁저작권	-9615
▁제도가	-9616
▁캐나다	-9617
▁취약계층의	-9618
현장	-9619
화폐	-9620
CEO	-9621
SNS	-9622
ter	-9623
▁85	-9624
▁되자	-9625
▁상류	-9626
▁휘발	-9627
▁사용될	-9628
▁성질을	-9629
▁수시로	-9630
▁여의도	-9631
▁있다며	-9632
▁장기화	-9633
▁커지는	-9634
▁테이블	-9635
▁시행하고	-9636
▁주장하는	-9637
▁쪼	-9638
루가	-9639
상환	-9640
▁내달	-9641
▁대대	-9642
▁스태	-9643
▁이스	-9644
▁초고	-9645
시까지	-9646
▁고위험	-9647
▁되는데	-9648
▁매니저	-9649
▁예산을	-9650
▁지나면	-9651
▁지원해	-9652
▁모델이다	-9653
▁실시한다	-9654
▁자동차에	-9655
▁주목받고	-9656
▁주장한다	-9657
▁추가적인	-9658
▁포함된다	-9659
∼1	-9660
향에	-9661
▁세련	-9662
▁중지	-9663
▁타결	-9664
▁황금	-9665
업체인	-9666
▁구성에	-9667
▁말씀을	-9668
▁미스터	-9669
▁쏠리고	-9670
▁확인한	-9671
지원금을	-9672
▁1999	-9673
▁동일하게	-9674
▁이뤄졌다	-9675
▁제안했다	-9676
▁콘텐츠가	-9677
▁곱	-9678
공헌	-9679
량과	-9680
마력	-9681
무역	-9682
손해	-9683
▁넘겨	-9684
▁모인	-9685
▁실감	-9686
▁입지	-9687
▁IoT	-9688
▁관계자	-9689
▁마련된	-9690
▁면에서	-9691
▁어렵게	-9692
▁제기한	-9693
▁공간에서	-9694
▁들어간다	-9695
▁민주주의	-9696
▁자동변속	-9697
▁근로기준법	-9698
▁정규직으로	-9699
▁트랜지스터의	-9700
나갈	-9701
다이	-9702
실험	-9703
어질	-9704
음과	-9705
▁6,	-9706
▁느꼈	-9707
▁법원	-9708
▁삭감	-9709
▁연상	-9710
▁용산	-9711
▁입자	-9712
▁티볼	-9713
영화제	-9714
▁생긴다	-9715
▁아무도	-9716
▁KCGI	-9717
▁시작됐다	-9718
시면	-9719
진에	-9720
치로	-9721
▁직렬	-9722
▁하향	-9723
종으로	-9724
트로엥	-9725
▁1.5	-9726
▁나서고	-9727
▁논의를	-9728
▁정부에	-9729
▁증시가	-9730
▁학생을	-9731
▁설치하여	-9732
기본	-9733
모드	-9734
소통	-9735
슈퍼	-9736
프는	-9737
▁54	-9738
▁각형	-9739
▁어쩌	-9740
▁저희	-9741
▁한창	-9742
▁가입한	-9743
▁마세라	-9744
▁말하면	-9745
▁불편을	-9746
▁행사에	-9747
▁회의를	-9748
▁훌륭한	-9749
▁시작하는	-9750
▁제거하는	-9751
GV	-9752
▁람	-9753
정통	-9754
중의	-9755
회장	-9756
▁근접	-9757
▁김해	-9758
▁속의	-9759
인트를	-9760
▁많다는	-9761
▁받으며	-9762
▁별다른	-9763
▁사라진	-9764
▁출력을	-9765
▁단말기를	-9766
▁준비하고	-9767
▁현대중공업	-9768
첨단	-9769
▁가볍	-9770
▁도움	-9771
▁이종	-9772
▁인테	-9773
밀하게	-9774
▁거예요	-9775
▁그녀는	-9776
▁변화는	-9777
▁보이며	-9778
▁세금을	-9779
과학기술	-9780
▁서비스다	-9781
▁자아낸다	-9782
▁하나금융	-9783
님을	-9784
단협	-9785
란드	-9786
러의	-9787
소리	-9788
중형	-9789
▁꺼내	-9790
▁날이	-9791
▁놓인	-9792
▁유급	-9793
▁차는	-9794
▁평안	-9795
노조는	-9796
능력을	-9797
되었을	-9798
▁경우를	-9799
▁못하면	-9800
▁세웠다	-9801
▁이르면	-9802
▁차종을	-9803
▁이후에는	-9804
▁합리적인	-9805
교회	-9806
▁TF	-9807
▁꼼꼼	-9808
▁옷을	-9809
▁푸른	-9810
였다는	-9811
▁생산성	-9812
▁설립한	-9813
▁엔진의	-9814
▁여부에	-9815
▁위원장	-9816
▁장면을	-9817
▁기업으로	-9818
▁수단으로	-9819
▁진심으로	-9820
▁파생결합	-9821
▁늘어나면서	-9822
▁때문이었다	-9823
▁폰	-9824
동물	-9825
트롯	-9826
▁기장	-9827
▁쓰러	-9828
▁약물	-9829
▁토로	-9830
▁학문	-9831
▁했을	-9832
가능한	-9833
씨에게	-9834
화하여	-9835
▁꼽았다	-9836
▁주장을	-9837
▁핸드폰	-9838
비정규직	-9839
▁하락했다	-9840
▁쳐	-9841
로워	-9842
▁63	-9843
▁가요	-9844
▁과태	-9845
▁장을	-9846
▁지혜	-9847
▁추첨	-9848
▁화성	-9849
▁OST	-9850
▁교육이	-9851
▁근거가	-9852
▁들여다	-9853
▁렌터카	-9854
▁있거나	-9855
▁자원을	-9856
▁한국에	-9857
▁흥미를	-9858
▁선사했다	-9859
▁프로그래	-9860
",	-9861
해져	-9862
▁74	-9863
▁다리	-9864
▁대장	-9865
▁발화	-9866
다이오	-9867
만명이	-9868
▁모양이	-9869
▁베이징	-9870
▁브리핑	-9871
▁없다면	-9872
▁장착된	-9873
▁찾았다	-9874
▁활발한	-9875
▁기준금리	-9876
▁언급했다	-9877
▁전체적인	-9878
▁f	-9879
려야	-9880
보며	-9881
연계	-9882
음악	-9883
▁근대	-9884
▁액체	-9885
▁인적	-9886
▁작고	-9887
▁짓고	-9888
▁필드	-9889
▁가까워	-9890
▁결정할	-9891
▁그래도	-9892
▁디지탈	-9893
▁때로는	-9894
▁장점을	-9895
시스템의	-9896
▁2025	-9897
▁느껴지는	-9898
▁신뢰성이	-9899
▁있었다는	-9900
▁줄어드는	-9901
▁민주노총은	-9902
개국	-9903
금지	-9904
벌이	-9905
▁경과	-9906
▁당황	-9907
▁속속	-9908
▁전장	-9909
▁진지	-9910
▁컴백	-9911
환경을	-9912
▁경찰이	-9913
▁교육청	-9914
▁또다시	-9915
▁배우들이	-9916
▁스트리밍	-9917
▁영향력을	-9918
▁주장이다	-9919
▁학교폭력	-9920
▁서울특별시	-9921
방식	-9922
상증	-9923
집이	-9924
▁내야	-9925
▁소정	-9926
▁액정	-9927
▁전인	-9928
▁소감을	-9929
▁정책에	-9930
▁행사는	-9931
▁중요성을	-9932
MF	-9933
▁갚	-9934
▁엇	-9935
실적	-9936
포트	-9937
▁고대	-9938
▁대의	-9939
▁막는	-9940
▁협동	-9941
▁검사가	-9942
▁도입한	-9943
▁분야를	-9944
▁후에도	-9945
▁공공부문	-9946
▁학교생활	-9947
▁협조하여	-9948
▁인플루엔자	-9949
▁굵	-9950
공공	-9951
교는	-9952
보자	-9953
수급	-9954
치기	-9955
하의	-9956
▁"“	-9957
▁공지	-9958
▁맞지	-9959
▁목격	-9960
▁보전	-9961
▁창립	-9962
공정을	-9963
▁과정은	-9964
▁다루는	-9965
▁한국을	-9966
▁생산성이	-9967
▁포함됐다	-9968
▁선택적으로	-9969
▁특별연장근로	-9970
노동조합총연맹	-9971
22	-9972
HO	-9973
ag	-9974
▁몫	-9975
▁섹	-9976
눈에	-9977
매매	-9978
목적	-9979
부처	-9980
아한	-9981
▁관세	-9982
▁기쁨	-9983
▁김민	-9984
▁선배	-9985
▁수송	-9986
▁아파	-9987
▁조례	-9988
▁지붕	-9989
▁공매도	-9990
▁본교는	-9991
▁사례는	-9992
▁오피스	-9993
▁전에는	-9994
▁하므로	-9995
▁효과는	-9996
▁구비하는	-9997
▁이뤄지는	-9998
▁처리하는	-9999
▁어린이들이	-10000
▁냈	-10001
▁얹	-10002
양의	-10003
화해	-10004
히지	-10005
▁간소	-10006
▁방영	-10007
▁원가	-10008
▁증정	-10009
▁뚜렷한	-10010
▁애플이	-10011
▁액티브	-10012
▁의사가	-10013
▁조건이	-10014
▁사용하면	-10015
▁찌	-10016
과도	-10017
니어	-10018
워드	-10019
조는	-10020
▁67	-10021
▁공업	-10022
▁다임	-10023
▁들을	-10024
▁빈번	-10025
▁신약	-10026
▁진도	-10027
▁처한	-10028
관으로	-10029
산업이	-10030
카메라	-10031
▁계약직	-10032
▁보여준	-10033
▁생산이	-10034
▁여행을	-10035
▁폴리머	-10036
▁회장과	-10037
공장에서	-10038
▁핑	-10039
비아	-10040
양이	-10041
▁되었	-10042
▁비하	-10043
▁형식	-10044
조원을	-10045
▁수준인	-10046
▁순매수	-10047
▁의혹을	-10048
▁적용될	-10049
▁출시할	-10050
벤처기업	-10051
앞으로도	-10052
▁제기했다	-10053
▁확보하고	-10054
∼7	-10055
별한	-10056
심과	-10057
포구	-10058
▁게이	-10059
▁남겨	-10060
▁쉽다	-10061
▁시그	-10062
▁시세	-10063
▁액세	-10064
▁피할	-10065
▁그리스	-10066
▁시설을	-10067
▁신제품	-10068
▁안으로	-10069
▁하여금	-10070
▁협약을	-10071
▁상승했다	-10072
▁원인으로	-10073
▁협력업체	-10074
▁[	-10075
▁윗	-10076
▁컵	-10077
▁콤	-10078
▁톨	-10079
문학	-10080
포를	-10081
풍을	-10082
▁강경	-10083
▁그날	-10084
▁기도	-10085
▁데에	-10086
▁문학	-10087
▁보낼	-10088
▁서류	-10089
▁일괄	-10090
▁중도	-10091
▁방송에	-10092
▁보조금	-10093
▁상당의	-10094
▁용량을	-10095
▁전하는	-10096
▁태도를	-10097
▁4000	-10098
시스템에서	-10099
▁곰	-10100
감시	-10101
마를	-10102
비율	-10103
측은	-10104
▁될지	-10105
▁드물	-10106
▁말한	-10107
▁민감	-10108
▁솔로	-10109
▁앞선	-10110
▁오일	-10111
▁임진	-10112
▁정류	-10113
▁클릭	-10114
신호의	-10115
▁0.0	-10116
▁경찰에	-10117
▁다이어	-10118
▁탑재한	-10119
▁평야가	-10120
▁환자와	-10121
5,000	-10122
▁집중되고	-10123
▁데이터베이스	-10124
지금	-10125
▁관내	-10126
▁광역	-10127
▁대가	-10128
▁바와	-10129
▁박성	-10130
▁실효	-10131
▁임명	-10132
▁지주	-10133
▁타당	-10134
▁평판	-10135
▁폭행	-10136
마을은	-10137
았는데	-10138
전압을	-10139
▁나타내	-10140
▁성장이	-10141
▁전해질	-10142
▁지속될	-10143
▁최악의	-10144
▁호흡을	-10145
▁동쪽으로는	-10146
▁사로잡았다	-10147
▁더불어민주당	-10148
광을	-10149
도어	-10150
▁GL	-10151
▁누설	-10152
▁병렬	-10153
▁성취	-10154
▁연쇄	-10155
▁좋을	-10156
▁대책이	-10157
▁메이커	-10158
▁센서를	-10159
▁제작된	-10160
▁클러스	-10161
▁판결이	-10162
▁폴더블	-10163
▁하나를	-10164
▁프로토콜	-10165
되었습니다	-10166
CR	-10167
▁댐	-10168
슈타	-10169
재에	-10170
품질	-10171
홀딩	-10172
▁녹아	-10173
▁동북	-10174
▁물고	-10175
▁송출	-10176
▁타깃	-10177
▁확률	-10178
일수록	-10179
▁거래를	-10180
▁고안의	-10181
▁시간의	-10182
▁신청한	-10183
▁중장기	-10184
▁지위를	-10185
▁탑재된	-10186
▁높아졌다	-10187
▁솔루션을	-10188
▁오리지널	-10189
▁적용됐다	-10190
▁전기차를	-10191
▁찰	-10192
노트	-10193
르크	-10194
버그	-10195
▁교실	-10196
▁납입	-10197
▁동굴	-10198
▁떠난	-10199
동에서	-10200
했다면	-10201
▁수석부	-10202
▁시에는	-10203
▁지난주	-10204
▁형상을	-10205
▁병원으로	-10206
▁안전사고	-10207
▁외국인이	-10208
▁프로모션	-10209
▁온라인으로	-10210
▁감당	-10211
▁고지	-10212
▁레인	-10213
▁며칠	-10214
▁면접	-10215
▁모임	-10216
▁불균	-10217
▁빼앗	-10218
▁서해	-10219
▁이례	-10220
▁장악	-10221
▁찬성	-10222
▁탐지	-10223
▁한가	-10224
▁확립	-10225
지기도	-10226
▁가정의	-10227
▁럭셔리	-10228
▁소재로	-10229
▁수술을	-10230
▁업무에	-10231
▁지니고	-10232
▁차이는	-10233
들에게는	-10234
▁대응하기	-10235
ul	-10236
곡을	-10237
▁관절	-10238
▁기인	-10239
▁대조	-10240
▁로켓	-10241
▁무릎	-10242
▁외화	-10243
▁증여	-10244
▁지내	-10245
▁산업에	-10246
▁시점에	-10247
▁원리를	-10248
▁있어도	-10249
▁자녀를	-10250
▁제거할	-10251
▁확실한	-10252
위원장은	-10253
▁늘어났다	-10254
▁무선통신	-10255
▁부회장이	-10256
▁사업으로	-10257
▁제기된다	-10258
▁처음에는	-10259
▁엿	-10260
공을	-10261
요양	-10262
▁낮고	-10263
▁매개	-10264
▁숨진	-10265
▁인류	-10266
▁기업인	-10267
▁방송인	-10268
▁일주일	-10269
▁임단협	-10270
▁주주총	-10271
▁표현할	-10272
기아차는	-10273
▁남북으로	-10274
두에	-10275
조달	-10276
희의	-10277
▁까닭	-10278
▁났다	-10279
▁아웃	-10280
▁양대	-10281
▁연내	-10282
▁입구	-10283
▁전액	-10284
▁가격에	-10285
▁농성을	-10286
▁시가총	-10287
▁않고도	-10288
▁제주도	-10289
▁투자에	-10290
▁드라이버	-10291
▁손해배상	-10292
▁확실하게	-10293
▁최고경영자	-10294
DM	-10295
VR	-10296
▁x	-10297
▁짚	-10298
건은	-10299
권과	-10300
역은	-10301
짐에	-10302
▁관할	-10303
▁깨닫	-10304
▁넉넉	-10305
▁미쓰	-10306
▁본딩	-10307
▁소식	-10308
▁심화	-10309
▁플랜	-10310
▁항암	-10311
▁공정이	-10312
▁광고는	-10313
▁모델에	-10314
▁반영해	-10315
▁올리고	-10316
▁의미로	-10317
▁선보이며	-10318
▁요구되는	-10319
구성	-10320
니즘	-10321
면적	-10322
줄이	-10323
▁'1	-10324
▁거야	-10325
▁골목	-10326
▁김정	-10327
▁물품	-10328
▁여섯	-10329
▁최상	-10330
▁감동을	-10331
▁거라고	-10332
▁기획재	-10333
▁문화가	-10334
▁비하여	-10335
▁상품의	-10336
▁추진할	-10337
▁전해진다	-10338
이노베이션	-10339
EM	-10340
IN	-10341
▁줌	-10342
고자	-10343
대비	-10344
하실	-10345
▁김희	-10346
▁들은	-10347
▁바꿀	-10348
▁번거	-10349
▁유인	-10350
▁청약	-10351
▁초음	-10352
센티브	-10353
▁외부로	-10354
▁자료에	-10355
▁저금리	-10356
▁통신을	-10357
▁판단을	-10358
▁해마다	-10359
▁확률이	-10360
해지면서	-10361
자율	-10362
▁귀여	-10363
▁법안	-10364
▁소멸	-10365
▁쓰지	-10366
▁폭락	-10367
▁15%	-10368
▁결론을	-10369
▁관리할	-10370
▁세계에	-10371
▁중국은	-10372
▁지점에	-10373
과정에서	-10374
▁사회공헌	-10375
▁우리에게	-10376
▁작용하는	-10377
▁감면	-10378
▁괜찮	-10379
▁보컬	-10380
▁확신	-10381
꺼번에	-10382
▁취약한	-10383
▁측정할	-10384
▁땀	-10385
경에	-10386
수사	-10387
역학	-10388
은이	-10389
인드	-10390
일본	-10391
▁그게	-10392
▁링크	-10393
▁묻는	-10394
▁분자	-10395
▁성동	-10396
▁음주	-10397
▁좋고	-10398
면에는	-10399
시설을	-10400
▁게임이	-10401
▁끝까지	-10402
▁손잡고	-10403
▁시기를	-10404
▁쓰이는	-10405
▁형성한	-10406
▁살아가는	-10407
▁투자자들의	-10408
▁펴	-10409
용품	-10410
이로	-10411
▁비싸	-10412
▁알레	-10413
▁은퇴	-10414
▁봉준호	-10415
▁화제가	-10416
▁대상이다	-10417
▁이동하는	-10418
▁캠페인을	-10419
▁한꺼번에	-10420
바퀴	-10421
편에	-10422
▁고등	-10423
▁도중	-10424
▁소중	-10425
▁스캔	-10426
▁외교	-10427
▁제천	-10428
▁죽은	-10429
베스트	-10430
테이션	-10431
▁관리에	-10432
▁독일의	-10433
▁바꾸는	-10434
▁보면서	-10435
▁어렵고	-10436
▁위기가	-10437
▁주시면	-10438
▁특별히	-10439
▁특징이	-10440
▁보호하기	-10441
▁가이드라인	-10442
늦게	-10443
시길	-10444
시다	-10445
전송	-10446
정지	-10447
▁누릴	-10448
▁어제	-10449
▁여전	-10450
▁타다	-10451
가격이	-10452
명에서	-10453
적이며	-10454
▁느끼게	-10455
▁안정화	-10456
▁운영할	-10457
▁절감할	-10458
▁힘들다	-10459
▁노동자를	-10460
▁않으면서	-10461
▁체험학습	-10462
▁투자자가	-10463
▁라임자산운용	-10464
대역	-10465
▁기하	-10466
▁발의	-10467
▁부활	-10468
▁신인	-10469
▁정년	-10470
▁고객은	-10471
▁본인의	-10472
▁불편한	-10473
▁사회를	-10474
▁속에는	-10475
▁위해선	-10476
▁이목이	-10477
▁일부는	-10478
▁재료를	-10479
▁책임이	-10480
▁금융회사	-10481
▁어머니가	-10482
▁즐거움을	-10483
▁근로자에게	-10484
곡이	-10485
방과	-10486
스피	-10487
정상	-10488
트럼	-10489
화점	-10490
▁가려	-10491
▁대략	-10492
▁마땅	-10493
▁육박	-10494
▁퇴원	-10495
계획을	-10496
▁가벼운	-10497
▁기기를	-10498
▁기사를	-10499
▁말았다	-10500
▁변호사	-10501
▁비주얼	-10502
▁예정된	-10503
▁요구가	-10504
▁준비한	-10505
▁해수욕	-10506
▁협상을	-10507
▁보호하는	-10508
▁제시하는	-10509
▁제조하는	-10510
▁삼성전자의	-10511
AN	-10512
ON	-10513
▁났	-10514
▁붓	-10515
망에	-10516
불이	-10517
싱턴	-10518
여성	-10519
연과	-10520
잖아	-10521
투표	-10522
▁발을	-10523
▁유선	-10524
▁휩싸	-10525
지스트	-10526
▁경기침	-10527
▁나누는	-10528
▁뜻한다	-10529
▁없이도	-10530
▁적절히	-10531
▁전달할	-10532
▁한국은	-10533
▁간단하게	-10534
▁경쟁력이	-10535
▁과기정통	-10536
▁넘어가는	-10537
▁턱	-10538
기용	-10539
주년	-10540
지않	-10541
▁각자	-10542
▁굳이	-10543
▁댁내	-10544
▁도구	-10545
▁렌즈	-10546
▁매립	-10547
▁부를	-10548
▁재직	-10549
▁환매	-10550
렸다고	-10551
사이드	-10552
어머니	-10553
▁가능성	-10554
▁길이가	-10555
▁사회가	-10556
▁수익률	-10557
▁열처리	-10558
▁주어진	-10559
▁확대에	-10560
▁1997	-10561
▁사용하기	-10562
▁인센티브	-10563
▁자신에게	-10564
▁아르바이트	-10565
라스	-10566
▁68	-10567
▁거두	-10568
▁멋진	-10569
▁상속	-10570
▁인출	-10571
▁자생	-10572
▁조지	-10573
▁하니	-10574
▁희귀	-10575
모바일	-10576
수단을	-10577
으로의	-10578
지거나	-10579
3000	-10580
▁가지가	-10581
▁고분자	-10582
▁수익성	-10583
▁신뢰를	-10584
▁심사를	-10585
▁변화하는	-10586
라엘	-10587
변환	-10588
▁기름	-10589
▁남해	-10590
▁발사	-10591
▁불을	-10592
▁오직	-10593
▁콘크	-10594
프레임	-10595
▁공개돼	-10596
▁다음의	-10597
▁취하고	-10598
본부장은	-10599
▁분포하고	-10600
셔널	-10601
택시	-10602
▁과잉	-10603
▁기분	-10604
▁나도	-10605
▁내릴	-10606
▁발간	-10607
▁야생	-10608
▁여론	-10609
▁유포	-10610
▁평화	-10611
▁한껏	-10612
자리에	-10613
▁계기판	-10614
▁수단을	-10615
▁억제할	-10616
▁업계에	-10617
▁정보와	-10618
▁추세다	-10619
▁크다는	-10620
안전보건	-10621
▁상승세를	-10622
▁전달했다	-10623
▁우리나라는	-10624
전계	-10625
조한	-10626
▁51	-10627
▁99	-10628
▁도봉	-10629
▁찾지	-10630
았으며	-10631
우리가	-10632
7000	-10633
▁공급을	-10634
▁교통이	-10635
▁출퇴근	-10636
▁패러다	-10637
▁규정하고	-10638
▁이용되고	-10639
▁자신만의	-10640
반을	-10641
연결	-10642
침을	-10643
회계	-10644
▁다름	-10645
▁메타	-10646
▁미뤄	-10647
▁비로	-10648
▁비타	-10649
▁신생	-10650
▁일도	-10651
이익이	-10652
▁개선에	-10653
▁당신이	-10654
▁발달해	-10655
▁산지가	-10656
▁생산할	-10657
▁장관이	-10658
▁제출한	-10659
▁촬영을	-10660
▁특징은	-10661
▁확보에	-10662
▁설치되어	-10663
▁활발하게	-10664
he	-10665
▁b	-10666
리브	-10667
용이	-10668
월과	-10669
▁맑은	-10670
▁새끼	-10671
▁신기	-10672
▁외주	-10673
▁워낙	-10674
▁정산	-10675
▁충주	-10676
▁팽창	-10677
▁표본	-10678
은행과	-10679
▁130	-10680
▁부호화	-10681
▁열악한	-10682
▁탄탄한	-10683
▁확인해	-10684
▁다운로드	-10685
▁않는다고	-10686
▁정상적인	-10687
▁마찬가지다	-10688
▁프로그램으로	-10689
금액	-10690
시청	-10691
▁CD	-10692
▁신동	-10693
▁애초	-10694
▁엔딩	-10695
▁할부	-10696
공사는	-10697
에이터	-10698
▁과거에	-10699
▁베어링	-10700
▁성능과	-10701
▁이밖에	-10702
▁합의를	-10703
▁돌입했다	-10704
▁배터리의	-10705
▁베스트셀	-10706
▁확보하는	-10707
▁스토리텔링	-10708
5,	-10709
익을	-10710
중국	-10711
철이	-10712
▁낮게	-10713
▁노드	-10714
▁니켈	-10715
▁런던	-10716
▁비싼	-10717
▁상처	-10718
▁연봉	-10719
▁연수	-10720
▁오리	-10721
▁외면	-10722
▁주소	-10723
았다고	-10724
제도를	-10725
▁국민이	-10726
▁서로의	-10727
▁수익이	-10728
▁지나는	-10729
▁나타내고	-10730
▁매력적인	-10731
▁주변에는	-10732
▁혁신적인	-10733
▁확보했다	-10734
▁안내하오니	-10735
ut	-10736
블리	-10737
탱크	-10738
▁개성	-10739
▁공을	-10740
▁다큐	-10741
▁문턱	-10742
▁복직	-10743
▁불렀	-10744
▁삼아	-10745
▁순위	-10746
▁인버	-10747
▁제이	-10748
▁측에	-10749
업계는	-10750
▁거리에	-10751
▁건강에	-10752
▁공급할	-10753
▁구비된	-10754
▁그나마	-10755
▁보내고	-10756
▁안내를	-10757
▁이었다	-10758
▁수상했다	-10759
▁편의성을	-10760
▁사물인터넷	-10761
▁앨	-10762
검진	-10763
신저	-10764
튜버	-10765
행사	-10766
▁바쁘	-10767
▁안동	-10768
▁코나	-10769
▁하동	-10770
▁감안해	-10771
▁세계적	-10772
▁수명을	-10773
▁신속히	-10774
▁아이의	-10775
▁한눈에	-10776
되었다고	-10777
▁기술개발	-10778
▁남쪽으로는	-10779
AS	-10780
Hz	-10781
▁꾀	-10782
금에	-10783
매김	-10784
설비	-10785
신고	-10786
중을	-10787
▁명절	-10788
▁성립	-10789
▁적고	-10790
관리에	-10791
병원이	-10792
원들은	-10793
▁것들이	-10794
▁고안에	-10795
▁않았을	-10796
▁어르신	-10797
▁시민들이	-10798
75	-10799
들인	-10800
란이	-10801
차단	-10802
피니	-10803
▁모른	-10804
▁번에	-10805
▁시멘	-10806
▁차로	-10807
▁첫날	-10808
▁폭염	-10809
▁가족과	-10810
▁끊이지	-10811
▁문화적	-10812
▁받으면	-10813
▁사망한	-10814
▁여지가	-10815
▁화장품	-10816
▁자리매김	-10817
PR	-10818
만족	-10819
ive	-10820
▁대부	-10821
▁부천	-10822
▁양이	-10823
▁인체	-10824
사업자	-10825
▁강조한	-10826
▁노트북	-10827
▁만족도	-10828
▁성격을	-10829
▁손으로	-10830
▁의약품	-10831
▁현상은	-10832
▁화강암	-10833
▁시트로엥	-10834
▁체결했다	-10835
▁통상임금	-10836
▁표현하는	-10837
ap	-10838
▁핫	-10839
감도	-10840
바위	-10841
보상	-10842
▁붙은	-10843
▁안고	-10844
▁양쪽	-10845
▁적자	-10846
▁철회	-10847
▁파격	-10848
▁후면	-10849
보험료	-10850
▁다음날	-10851
▁방안도	-10852
▁승인을	-10853
▁의무를	-10854
▁절차가	-10855
▁주행성능	-10856
▁불가능하다	-10857
너의	-10858
느라	-10859
십을	-10860
월드	-10861
재생	-10862
▁공고	-10863
▁리스	-10864
▁완공	-10865
▁질화	-10866
▁촉매	-10867
▁폭포	-10868
부에는	-10869
▁다이얼	-10870
▁바라는	-10871
▁선진국	-10872
▁싶었다	-10873
▁작품이	-10874
▁같습니다	-10875
▁기록하며	-10876
▁높아진다	-10877
▁참여하고	-10878
각이	-10879
질로	-10880
▁강요	-10881
▁결의	-10882
▁권장	-10883
▁대목	-10884
▁우버	-10885
기업에	-10886
▁감정이	-10887
▁관계에	-10888
▁물량을	-10889
▁물량이	-10890
▁블로그	-10891
▁수명이	-10892
▁시작할	-10893
▁원칙을	-10894
▁의혹이	-10895
▁자유로운	-10896
▁최소한의	-10897
▁폭발적인	-10898
▁랩	-10899
마는	-10900
자유	-10901
커스	-10902
▁뿌리	-10903
▁생생	-10904
▁오지	-10905
▁저가	-10906
▁강도를	-10907
▁다니는	-10908
▁모습과	-10909
▁작업에	-10910
▁제조용	-10911
▁지능형	-10912
▁최대의	-10913
▁판매는	-10914
▁해주는	-10915
▁드라이브	-10916
▁부드러운	-10917
▁속에서도	-10918
▁일자리가	-10919
프가	-10920
하듯	-10921
그래피	-10922
▁개정안	-10923
▁레이싱	-10924
▁바라며	-10925
▁속으로	-10926
▁의지가	-10927
▁편의를	-10928
▁해운대	-10929
▁화면에	-10930
▁흐른다	-10931
▁1998	-10932
▁개선하여	-10933
▁사이에는	-10934
▁서비스와	-10935
▁시작된다	-10936
▁웹사이트	-10937
▁이뤄지고	-10938
▁태양전지	-10939
▁근로자들의	-10940
EB	-10941
니지	-10942
▁공존	-10943
▁극히	-10944
▁기동	-10945
▁낮다	-10946
▁펼칠	-10947
▁계약이	-10948
▁내용에	-10949
▁떨어뜨	-10950
▁부당한	-10951
▁원장은	-10952
▁저항을	-10953
▁전염병	-10954
▁주의를	-10955
▁즐겁게	-10956
▁공개한다	-10957
▁일본에서	-10958
▁할리우드	-10959
▁몬	-10960
리학	-10961
트랜	-10962
평야	-10963
▁IS	-10964
▁기구	-10965
▁달아	-10966
▁비준	-10967
▁스웨	-10968
▁책은	-10969
마케팅	-10970
▁꼽히는	-10971
▁만기가	-10972
▁쏠린다	-10973
▁업체에	-10974
▁하락한	-10975
▁현황을	-10976
▁사업자가	-10977
▁수수료를	-10978
있어	-10979
진한	-10980
▁독보	-10981
▁문서	-10982
▁사설	-10983
부동산	-10984
특성을	-10985
▁광고가	-10986
▁대학교	-10987
▁본격화	-10988
▁소재를	-10989
▁업체인	-10990
▁재건축	-10991
▁조화를	-10992
▁학습을	-10993
▁서쪽으로는	-10994
34	-10995
39	-10996
kW	-10997
▁닦	-10998
기사	-10999
바다	-11000
치와	-11001
피해	-11002
▁김명	-11003
▁까다	-11004
▁대개	-11005
▁소켓	-11006
▁온갖	-11007
▁팔아	-11008
▁대주주	-11009
▁반면에	-11010
▁받았고	-11011
▁배우는	-11012
▁부품의	-11013
▁얻는다	-11014
▁준중형	-11015
▁항공기	-11016
▁개정안이	-11017
▁예정이며	-11018
▁강점	-11019
▁계층	-11020
▁도약	-11021
▁썼다	-11022
▁퍼져	-11023
▁품목	-11024
거든요	-11025
라고도	-11026
사고를	-11027
6000	-11028
▁EBS	-11029
▁LCD	-11030
▁남쪽에	-11031
▁내리는	-11032
▁릴레이	-11033
▁목표다	-11034
▁보냈다	-11035
▁에피소	-11036
▁이외에	-11037
▁일으킬	-11038
▁지키기	-11039
자로부터	-11040
▁곳곳에서	-11041
▁않았다고	-11042
▁요구된다	-11043
▁전화번호	-11044
▁준비하는	-11045
▁집중적으로	-11046
68	-11047
ri	-11048
여야	-11049
훈은	-11050
▁담배	-11051
▁번도	-11052
▁선전	-11053
▁전산	-11054
▁평면	-11055
센터에	-11056
지역의	-11057
▁보이스	-11058
▁사용된	-11059
▁이어갈	-11060
▁컴퓨팅	-11061
▁텍스트	-11062
▁어린이집	-11063
▁이해하기	-11064
▁후문이다	-11065
▁월화드라마	-11066
곳에	-11067
조작	-11068
▁걸림	-11069
▁대만	-11070
▁무척	-11071
▁밸브	-11072
▁요약	-11073
▁유엔	-11074
내에서	-11075
방안을	-11076
해준다	-11077
1000	-11078
▁공감을	-11079
▁관람객	-11080
▁발원한	-11081
▁벌어진	-11082
▁부산의	-11083
▁산업을	-11084
▁외부의	-11085
▁일으킨	-11086
▁자산을	-11087
▁처리할	-11088
▁학교가	-11089
만으로는	-11090
장치에서	-11091
▁유입되는	-11092
▁저소득층	-11093
▁제공되는	-11094
▁알고리즘을	-11095
▁학교생활을	-11096
강이	-11097
그런	-11098
만간	-11099
정신	-11100
종은	-11101
촬상	-11102
프의	-11103
▁거울	-11104
▁공진	-11105
▁얻기	-11106
▁연초	-11107
▁화석	-11108
업체의	-11109
하느냐	-11110
▁개발과	-11111
▁경제에	-11112
▁들어온	-11113
▁배기가	-11114
▁직원의	-11115
▁테이프	-11116
▁트랜스	-11117
하였으나	-11118
▁환자에게	-11119
유플러스가	-11120
▁수목드라마	-11121
OD	-11122
un	-11123
원인	-11124
해왔	-11125
▁알지	-11126
▁어긋	-11127
▁카운	-11128
▁코어	-11129
▁클럭	-11130
▁담았다	-11131
▁대단히	-11132
▁명확한	-11133
▁성분이	-11134
▁순으로	-11135
▁약간의	-11136
▁역사적	-11137
▁전자가	-11138
▁펼치고	-11139
▁1500	-11140
▁감소하고	-11141
▁고려해야	-11142
▁공간으로	-11143
GB	-11144
가구	-11145
민은	-11146
적한	-11147
킬로	-11148
▁겪은	-11149
▁모범	-11150
공간을	-11151
상적인	-11152
어린이	-11153
▁거래소	-11154
▁결정에	-11155
▁결정한	-11156
▁당국이	-11157
▁무조건	-11158
▁반영된	-11159
▁사랑의	-11160
▁안정을	-11161
▁주시는	-11162
▁진출을	-11163
▁기자회견	-11164
▁안테나를	-11165
▁온실가스	-11166
▁이스라엘	-11167
▁환자들이	-11168
▁가능합니다	-11169
▁이산화탄소	-11170
▁프로그램이다	-11171
▁숭	-11172
내믹	-11173
벽을	-11174
증후	-11175
▁값이	-11176
▁경력	-11177
▁난다	-11178
▁더블	-11179
▁둘레	-11180
▁소액	-11181
▁일명	-11182
사업에	-11183
했는지	-11184
▁대다수	-11185
▁데이트	-11186
▁드러내	-11187
▁배우가	-11188
▁순매도	-11189
▁연기가	-11190
▁워싱턴	-11191
▁인접한	-11192
▁최적화	-11193
▁의미하는	-11194
▁이미지가	-11195
▁포함하고	-11196
▁자동차부품	-11197
▁주택담보대출	-11198
방안	-11199
상한	-11200
센서	-11201
우와	-11202
자연	-11203
▁나눈	-11204
▁모자	-11205
▁엇갈	-11206
▁여가	-11207
▁인포	-11208
▁적당	-11209
▁증진	-11210
수당을	-11211
역으로	-11212
전지를	-11213
▁2.0	-11214
▁간호사	-11215
▁달러를	-11216
▁상품에	-11217
▁오른쪽	-11218
▁컨텐츠	-11219
▁행위가	-11220
▁흐름이	-11221
▁용이하고	-11222
▁양자컴퓨터	-11223
속도	-11224
전달	-11225
제공	-11226
테일	-11227
투스	-11228
▁대안	-11229
▁만화	-11230
▁수여	-11231
▁수주	-11232
▁식민	-11233
▁온천	-11234
▁중첩	-11235
▁체불	-11236
▁훈훈	-11237
교육의	-11238
▁360	-11239
▁인물이	-11240
▁장소를	-11241
▁주의가	-11242
▁치료가	-11243
▁한국과	-11244
▁호평을	-11245
▁본부장은	-11246
▁올해부터	-11247
▁지난해보다	-11248
가면	-11249
술한	-11250
시한	-11251
월의	-11252
참여	-11253
▁RF	-11254
▁보게	-11255
▁유족	-11256
보르기	-11257
자금을	-11258
▁기능은	-11259
▁남편이	-11260
▁노조와	-11261
▁되었고	-11262
▁마련할	-11263
▁실린더	-11264
▁유튜버	-11265
▁이름은	-11266
▁인근에	-11267
▁주목할	-11268
▁지원금	-11269
▁초소형	-11270
▁협의를	-11271
았습니다	-11272
▁대중교통	-11273
▁마이너스	-11274
▁자신감을	-11275
▁자체적으로	-11276
RI	-11277
대전	-11278
살이	-11279
패스	-11280
훈의	-11281
▁과열	-11282
▁앞당	-11283
▁장려	-11284
▁전제	-11285
▁함양	-11286
국으로	-11287
온라인	-11288
▁달리는	-11289
▁세미나	-11290
▁올해도	-11291
▁은행들이	-11292
▁조건으로	-11293
▁형성한다	-11294
곳을	-11295
긴다	-11296
뒀다	-11297
▁김재	-11298
▁미루	-11299
▁시의	-11300
▁우대	-11301
▁종영	-11302
▁요구에	-11303
▁내부에서	-11304
▁설치되는	-11305
▁플랫폼이	-11306
▁기준금리를	-11307
나래	-11308
니는	-11309
순위	-11310
스레	-11311
임대	-11312
▁말미	-11313
▁분담	-11314
▁산책	-11315
▁차입	-11316
디자인	-11317
량으로	-11318
로서는	-11319
이익을	-11320
▁걸렸다	-11321
▁두께를	-11322
▁업계가	-11323
▁전국의	-11324
▁들어오는	-11325
▁떨어지고	-11326
▁마세라티	-11327
▁브랜드가	-11328
▁제공하고자	-11329
버트	-11330
호와	-11331
▁말라	-11332
▁무언	-11333
▁번의	-11334
▁부득	-11335
▁브러	-11336
▁승용	-11337
▁이영	-11338
▁집안	-11339
▁합격	-11340
8000	-11341
▁강화할	-11342
▁개시된	-11343
▁전략이	-11344
▁전자총	-11345
▁증가로	-11346
▁지형이	-11347
▁하는지	-11348
▁국회에서	-11349
▁근본적인	-11350
▁금융위는	-11351
▁넘어섰다	-11352
▁사용자는	-11353
▁아직까지	-11354
▁앞으로의	-11355
▁연구진이	-11356
▁진단했다	-11357
▁살펴보시고	-11358
▁한국타이어	-11359
MP	-11360
강을	-11361
것도	-11362
급식	-11363
름의	-11364
역과	-11365
▁공약	-11366
▁나뉘	-11367
▁불매	-11368
▁슬로	-11369
▁주유	-11370
▁폭로	-11371
▁흡착	-11372
▁개념이	-11373
▁도시의	-11374
▁드디어	-11375
▁모듈을	-11376
▁버튼을	-11377
▁연기로	-11378
▁지구의	-11379
▁키우는	-11380
▁트레일	-11381
시키도록	-11382
▁개선하는	-11383
▁근로자는	-11384
▁돌파했다	-11385
▁참여하여	-11386
▁측정하는	-11387
▁시스템으로	-11388
▁지방자치단체	-11389
VD	-11390
등한	-11391
아를	-11392
준의	-11393
SDI	-11394
▁두루	-11395
▁무서	-11396
▁법을	-11397
▁상가	-11398
▁잔류	-11399
▁폭을	-11400
적이었다	-11401
▁감소하는	-11402
▁내용이다	-11403
▁둘러싸고	-11404
▁의미에서	-11405
맞춤	-11406
욕을	-11407
용직	-11408
위생	-11409
▁3%	-11410
▁구형	-11411
▁대결	-11412
▁발주	-11413
▁상실	-11414
▁선두	-11415
▁수명	-11416
▁올릴	-11417
▁유독	-11418
▁중견	-11419
▁진주	-11420
▁찬반	-11421
달라고	-11422
물질이	-11423
▁LTE	-11424
▁느끼고	-11425
▁바람에	-11426
▁범위가	-11427
▁사진이	-11428
▁아마도	-11429
▁인간은	-11430
▁탁월한	-11431
▁편안한	-11432
▁한마디	-11433
▁보고서를	-11434
▁어린이들의	-11435
▁음극선관의	-11436
립을	-11437
업은	-11438
운을	-11439
워서	-11440
▁세제	-11441
▁여신	-11442
▁인원	-11443
▁전무	-11444
▁전신	-11445
▁전이	-11446
교육에	-11447
분기에	-11448
분으로	-11449
앞으로	-11450
집니다	-11451
▁도로를	-11452
▁되므로	-11453
▁올해의	-11454
▁원자력	-11455
▁유쾌한	-11456
▁임진왜	-11457
▁크리스	-11458
위원회에	-11459
▁사진에는	-11460
▁연구에서	-11461
▁자본주의	-11462
▁자산운용	-11463
▁주민들의	-11464
▁참여한다	-11465
▁참고하시기	-11466
마블	-11467
미와	-11468
인도	-11469
▁가령	-11470
▁나눌	-11471
▁낸다	-11472
▁비유	-11473
▁실직	-11474
▁유망	-11475
▁입소	-11476
▁체납	-11477
▁투과	-11478
▁메신저	-11479
▁블록체	-11480
▁사항은	-11481
▁의원이	-11482
▁높아지는	-11483
▁한진그룹	-11484
▁팰리세이드	-11485
서다	-11486
언이	-11487
주차	-11488
중계	-11489
파는	-11490
▁맺은	-11491
▁머릿	-11492
▁변수	-11493
▁시속	-11494
▁열차	-11495
▁오고	-11496
▁이지	-11497
▁직선	-11498
▁로봇은	-11499
▁어두운	-11500
▁역으로	-11501
▁장소에	-11502
▁기술력을	-11503
▁스트레스	-11504
▁특수고용	-11505
▁확진자는	-11506
▁시청자들을	-11507
-1	-11508
▁떡	-11509
▁빵	-11510
▁흩	-11511
운드	-11512
차게	-11513
▁기둥	-11514
▁성별	-11515
▁재가	-11516
▁차폐	-11517
렸다는	-11518
소비자	-11519
함으로	-11520
▁기기의	-11521
▁늘리고	-11522
▁대용량	-11523
▁사운드	-11524
▁서울의	-11525
▁위험에	-11526
▁일일이	-11527
▁입장이	-11528
▁지키는	-11529
▁행사가	-11530
▁교통안전	-11531
▁임상시험	-11532
▁파악됐다	-11533
▁현대차와	-11534
▁형식으로	-11535
▁영업이익이	-11536
▁정상적으로	-11537
뉴얼	-11538
려가	-11539
빈이	-11540
채를	-11541
패널	-11542
▁MS	-11543
▁공제	-11544
▁내륙	-11545
▁넥슨	-11546
▁소진	-11547
▁어드	-11548
▁원소	-11549
▁해변	-11550
▁듯하다	-11551
▁인식을	-11552
▁평범한	-11553
▁대부분을	-11554
▁일정하게	-11555
묘한	-11556
활성	-11557
▁글이	-11558
▁낮춰	-11559
▁내게	-11560
▁도쿄	-11561
▁무주	-11562
▁밀폐	-11563
▁북부	-11564
▁이기	-11565
▁직격	-11566
▁찍은	-11567
▁해체	-11568
메리카	-11569
▁것이기	-11570
▁그러다	-11571
▁뒤늦게	-11572
▁밖에도	-11573
▁장착한	-11574
▁재활용	-11575
▁전원이	-11576
▁학생과	-11577
텔레콤이	-11578
하므로써	-11579
▁기다리고	-11580
▁기본으로	-11581
▁설명하는	-11582
▁요구하며	-11583
▁운영한다	-11584
▁줄어들고	-11585
DB	-11586
▁론	-11587
▁잭	-11588
골은	-11589
엑스	-11590
오가	-11591
월말	-11592
토가	-11593
▁8,	-11594
▁가산	-11595
▁고향	-11596
▁꿈꾸	-11597
▁박스	-11598
▁분이	-11599
▁산줄	-11600
▁아인	-11601
▁일일	-11602
▁쿠팡	-11603
만원씩	-11604
받는다	-11605
소자를	-11606
▁간단히	-11607
▁나라의	-11608
▁뉴스를	-11609
▁실력을	-11610
▁일련의	-11611
▁구축하고	-11612
▁도요타는	-11613
▁등장한다	-11614
▁불가피한	-11615
▁선택하는	-11616
▁않는다면	-11617
▁자동차와	-11618
▁컴퓨터를	-11619
▁불완전판매	-11620
77	-11621
문제	-11622
900	-11623
▁끝이	-11624
▁솔직	-11625
▁언덕	-11626
▁원료	-11627
▁의지	-11628
▁조종	-11629
▁특례	-11630
레이저	-11631
병원은	-11632
투자자	-11633
▁경사노	-11634
▁그에게	-11635
▁무게를	-11636
▁발표된	-11637
▁분야는	-11638
▁성공을	-11639
▁정도는	-11640
▁중심이	-11641
▁증가에	-11642
▁아이들을	-11643
▁인터넷을	-11644
▁타이어를	-11645
드라	-11646
처는	-11647
∼10	-11648
▁귀가	-11649
▁이윤	-11650
▁철강	-11651
계에서	-11652
시에서	-11653
▁OTT	-11654
▁광고의	-11655
▁내놓고	-11656
▁만이다	-11657
▁발견된	-11658
▁발견한	-11659
▁전압이	-11660
▁투자해	-11661
라이슬러	-11662
▁OLED	-11663
▁단계에서	-11664
▁보장하는	-11665
▁분석하고	-11666
▁노력하겠다	-11667
▁닭	-11668
간이	-11669
보수	-11670
심은	-11671
ICT	-11672
▁달린	-11673
▁동양	-11674
▁멈춰	-11675
▁압전	-11676
▁저해	-11677
▁통증	-11678
▁한도	-11679
▁화소	-11680
중이다	-11681
협회가	-11682
▁개발할	-11683
▁그녀가	-11684
▁기능과	-11685
▁더해져	-11686
▁바위가	-11687
▁자기가	-11688
▁중심에	-11689
▁철저한	-11690
▁성장하는	-11691
▁스펙트럼	-11692
▁확대되고	-11693
▁한시적으로	-11694
85	-11695
농협	-11696
리얼	-11697
무늬	-11698
팅을	-11699
프린	-11700
함은	-11701
▁눈물	-11702
▁번역	-11703
▁샘플	-11704
▁유산	-11705
테이너	-11706
▁문제다	-11707
▁속하는	-11708
▁요건을	-11709
▁지키고	-11710
▁최근에	-11711
적이라는	-11712
▁대통령의	-11713
▁수익률을	-11714
▁시작되는	-11715
▁업체들은	-11716
▁상황에서도	-11717
▁시뮬레이션	-11718
▁갓	-11719
기만	-11720
놀이	-11721
청년	-11722
혈압	-11723
▁7,	-11724
▁겨우	-11725
▁송파	-11726
▁영등	-11727
▁최장	-11728
방식을	-11729
연합회	-11730
였으며	-11731
▁공간은	-11732
▁공개해	-11733
▁미세한	-11734
▁사례다	-11735
▁생명을	-11736
▁람보르기	-11737
▁안전자산	-11738
▁억제하는	-11739
▁역동적인	-11740
▁유명하다	-11741
▁이용자의	-11742
▁지지하는	-11743
▁확보하기	-11744
▁이용자들이	-11745
ab	-11746
됐기	-11747
리다	-11748
이미	-11749
청의	-11750
축을	-11751
▁낮출	-11752
▁당한	-11753
▁루프	-11754
▁마약	-11755
▁양을	-11756
▁플렉	-11757
▁호랑	-11758
감으로	-11759
계획에	-11760
레이터	-11761
하자면	-11762
▁공장의	-11763
▁맞았다	-11764
▁방향의	-11765
▁변화와	-11766
▁사정이	-11767
▁영역의	-11768
▁유치원	-11769
▁저하를	-11770
▁체험을	-11771
▁이뤄진다	-11772
▁프리랜서	-11773
▁갈아	-11774
▁걸친	-11775
▁명백	-11776
▁복구	-11777
▁빨간	-11778
▁어플	-11779
스티벌	-11780
였으나	-11781
▁눈으로	-11782
▁변속기	-11783
▁분석도	-11784
▁수사를	-11785
▁조만간	-11786
▁주시고	-11787
▁캐리어	-11788
▁탓이다	-11789
▁패밀리	-11790
▁하천이	-11791
▁화이트	-11792
▁희망을	-11793
▁모양으로	-11794
▁생산하고	-11795
▁국내에서도	-11796
▁전문가들이	-11797
6,	-11798
▁튼	-11799
겨울	-11800
등에	-11801
문은	-11802
바닥	-11803
하길	-11804
형과	-11805
▁개가	-11806
▁고사	-11807
▁깔끔	-11808
▁우세	-11809
▁페달	-11810
▁해가	-11811
▁휴양	-11812
업계가	-11813
였는데	-11814
해야만	-11815
▁달라진	-11816
▁비타민	-11817
▁상승을	-11818
▁이어가	-11819
통상자원	-11820
▁기대되는	-11821
▁무선전화	-11822
▁밝혀졌다	-11823
CO	-11824
념을	-11825
밀히	-11826
암은	-11827
업의	-11828
▁84	-11829
▁과세	-11830
▁달간	-11831
▁미흡	-11832
▁스핀	-11833
베이터	-11834
실리콘	-11835
▁개선한	-11836
▁공정의	-11837
▁그러자	-11838
▁디스크	-11839
▁모양새	-11840
▁색다른	-11841
▁기아차의	-11842
▁기업은행	-11843
▁주한미군	-11844
▁필요성을	-11845
레벨	-11846
▁경보	-11847
▁모호	-11848
▁반환	-11849
▁살려	-11850
▁연안	-11851
▁즐기	-11852
▁카피	-11853
결과를	-11854
▁강도가	-11855
▁내놓을	-11856
▁단기간	-11857
▁성범죄	-11858
▁전파를	-11859
▁초기에	-11860
▁협력해	-11861
▁금융시장	-11862
▁긴급재난	-11863
▁정보기술	-11864
▁해석된다	-11865
위원회에서	-11866
NK	-11867
우주	-11868
유예	-11869
이런	-11870
적일	-11871
통이	-11872
ECD	-11873
▁몰래	-11874
▁송금	-11875
▁에코	-11876
▁초록	-11877
▁기관의	-11878
▁바닥에	-11879
▁비트코	-11880
▁설명을	-11881
▁지도를	-11882
▁타워크	-11883
▁포함돼	-11884
▁경상북도	-11885
▁공유하고	-11886
▁지급한다	-11887
▁카리스마	-11888
▁근로자들이	-11889
▁크리에이터	-11890
▁홈페이지를	-11891
나노	-11892
당에	-11893
세와	-11894
직장	-11895
형에	-11896
▁김상	-11897
▁물건	-11898
▁발현	-11899
▁좋게	-11900
농사가	-11901
시에는	-11902
지원을	-11903
▁과제를	-11904
▁높다고	-11905
▁등록된	-11906
▁물질의	-11907
▁미소를	-11908
▁스웨덴	-11909
▁영상의	-11910
▁파이프	-11911
▁확보가	-11912
▁스위치를	-11913
▁외부에서	-11914
▁인식하고	-11915
▁제외하면	-11916
▁확산되고	-11917
▁감사드리며	-11918
▁중소기업의	-11919
▁형성함으로써	-11920
WD	-11921
▁텔	-11922
년째	-11923
맥이	-11924
선거	-11925
시트	-11926
주입	-11927
주지	-11928
플라	-11929
▁AS	-11930
▁기온	-11931
▁당기	-11932
▁레버	-11933
▁인덕	-11934
▁파산	-11935
▁HDC	-11936
▁동쪽에	-11937
▁되기를	-11938
▁방침을	-11939
▁성과가	-11940
▁안드로	-11941
▁않다고	-11942
▁저장된	-11943
▁적당한	-11944
▁적용을	-11945
▁조직을	-11946
▁중국에	-11947
▁펼치는	-11948
▁멤버들이	-11949
▁산업재해	-11950
▁설치하고	-11951
▁조절하는	-11952
▁하겠습니다	-11953
94	-11954
▁앵	-11955
난을	-11956
지부	-11957
책이	-11958
HEV	-11959
▁고소	-11960
▁그로	-11961
▁그와	-11962
▁밀봉	-11963
▁왼쪽	-11964
▁의학	-11965
▁잠복	-11966
▁장수	-11967
어졌다	-11968
▁공사가	-11969
▁구매할	-11970
▁깨끗한	-11971
▁달라질	-11972
▁당시의	-11973
▁보건소	-11974
▁작가가	-11975
▁체험할	-11976
▁펼쳐질	-11977
▁최적화된	-11978
▁합의했다	-11979
▁해외에서	-11980
▁인터뷰에서	-11981
레드	-11982
이니	-11983
자동	-11984
학급	-11985
후의	-11986
▁말도	-11987
▁명품	-11988
▁무작	-11989
▁중대	-11990
▁차원	-11991
▁합동	-11992
4000	-11993
▁가입할	-11994
▁게임의	-11995
▁경제를	-11996
▁논란을	-11997
▁다큐멘	-11998
▁당국은	-11999
▁사업주	-12000
▁영상은	-12001
▁다하겠다	-12002
▁명확하게	-12003
▁아인슈타	-12004
▁생각합니다	-12005
▁지난해부터	-12006
▁고용노동부가	-12007
▁섀	-12008
경과	-12009
중독	-12010
중심	-12011
▁'3	-12012
▁가끔	-12013
▁경매	-12014
▁노란	-12015
▁농민	-12016
▁많을	-12017
▁무산	-12018
▁방정	-12019
▁신혼	-12020
▁정유	-12021
▁핸들	-12022
협의회	-12023
▁3∼4	-12024
▁구성원	-12025
▁들어갔	-12026
▁인간과	-12027
▁지나지	-12028
▁차종에	-12029
▁취업자	-12030
▁할아버	-12031
▁사망자가	-12032
▁수익성이	-12033
▁엔지니어	-12034
▁톨게이트	-12035
▁가득하시길	-12036
ow	-12037
고에	-12038
나고	-12039
드럽	-12040
복합	-12041
전시	-12042
타워	-12043
▁간부	-12044
▁개구	-12045
▁기한	-12046
▁수확	-12047
▁양식	-12048
▁치과	-12049
▁트리	-12050
▁한참	-12051
▁금융사	-12052
▁나이가	-12053
▁더구나	-12054
▁미국에	-12055
▁유럽의	-12056
▁임금이	-12057
▁제조할	-12058
▁직장인	-12059
▁진단을	-12060
▁표현을	-12061
만원까지	-12062
함으로서	-12063
▁초등학생	-12064
▁친구들과	-12065
▁자동차산업	-12066
림의	-12067
서치	-12068
지요	-12069
▁만료	-12070
▁머신	-12071
▁빌딩	-12072
▁양해	-12073
▁오브	-12074
▁혼잡	-12075
▁대중의	-12076
▁로봇의	-12077
▁상처를	-12078
▁시험을	-12079
▁신호가	-12080
▁의무가	-12081
▁이곳은	-12082
▁일본이	-12083
▁자유를	-12084
▁자체의	-12085
▁진실을	-12086
▁생태계를	-12087
▁시민들의	-12088
▁작성하여	-12089
▁휴대단말	-12090
84	-12091
▁껍	-12092
산면	-12093
수리	-12094
캠프	-12095
∼30	-12096
▁XC	-12097
▁당신	-12098
▁보충	-12099
▁세로	-12100
▁속출	-12101
▁악영	-12102
▁유무	-12103
는지를	-12104
중학교	-12105
▁그렇기	-12106
▁모습에	-12107
▁사이를	-12108
▁심리적	-12109
▁크기는	-12110
▁팬들이	-12111
▁자녀들의	-12112
▁제품으로	-12113
▁필요합니다	-12114
▁산업통상자원	-12115
▁쌍용자동차가	-12116
개에	-12117
도급	-12118
박물	-12119
방울	-12120
업과	-12121
▁부재	-12122
▁산의	-12123
▁승진	-12124
▁점등	-12125
▁조속	-12126
▁하수	-12127
솔루션	-12128
치면서	-12129
▁결합한	-12130
▁관객을	-12131
▁단계에	-12132
▁말부터	-12133
▁압력을	-12134
▁적용이	-12135
▁정신을	-12136
▁1995	-12137
▁스토리를	-12138
▁북쪽으로는	-12139
닷컴	-12140
맞은	-12141
병을	-12142
손실	-12143
오롱	-12144
▁마켓	-12145
▁서북	-12146
▁세무	-12147
▁알뜰	-12148
▁어쩔	-12149
▁연일	-12150
▁왕복	-12151
▁전작	-12152
▁줄고	-12153
▁테러	-12154
▁투기	-12155
▁레이더	-12156
▁산으로	-12157
▁연평균	-12158
▁설명한다	-12159
▁고용노동부는	-12160
▁감사하겠습니다	-12161
수단	-12162
일리	-12163
터널	-12164
and	-12165
▁내보	-12166
▁장례	-12167
▁축제	-12168
기관에	-12169
▁구축을	-12170
▁금리인	-12171
▁모두의	-12172
▁부회장	-12173
▁북쪽에	-12174
▁불량을	-12175
▁상승한	-12176
▁우리를	-12177
▁전자파	-12178
▁정책의	-12179
▁커넥터	-12180
▁파업이	-12181
▁했으나	-12182
▁활용될	-12183
▁인테리어	-12184
▁재미있는	-12185
▁전송하는	-12186
CP	-12187
us	-12188
▁쉴	-12189
▁톡	-12190
간을	-12191
기나	-12192
생은	-12193
청정	-12194
평양	-12195
▁거세	-12196
▁구름	-12197
▁김현	-12198
▁다층	-12199
▁생체	-12200
▁성폭	-12201
▁영입	-12202
▁울릉	-12203
▁이슬	-12204
▁줄을	-12205
해서는	-12206
▁검찰이	-12207
▁부드럽	-12208
▁여부가	-12209
▁전체에	-12210
연구원은	-12211
자동차의	-12212
▁마을이다	-12213
▁보이지만	-12214
▁전략이다	-12215
▁제조업체	-12216
▁주장하고	-12217
▁카메라가	-12218
HD	-12219
II	-12220
출이	-12221
▁69	-12222
▁경감	-12223
▁경작	-12224
▁기법	-12225
▁서구	-12226
▁환원	-12227
였다고	-12228
전지에	-12229
제품을	-12230
▁높이가	-12231
▁부모가	-12232
▁성격이	-12233
▁신선한	-12234
▁유상증	-12235
▁전자의	-12236
▁조사가	-12237
▁죽음을	-12238
▁중앙에	-12239
▁초음파	-12240
▁크루즈	-12241
▁구현하는	-12242
▁나오면서	-12243
▁부작용이	-12244
▁임진왜란	-12245
▁지원금을	-12246
▁추정되는	-12247
▁평가하는	-12248
▁개인정보를	-12249
▁때문이라고	-12250
▁전국적으로	-12251
▁직접적으로	-12252
31	-12253
·2	-12254
노인	-12255
▁61	-12256
▁과시	-12257
▁재편	-12258
마을이	-12259
스크린	-12260
조치를	-12261
현상을	-12262
▁900	-12263
▁공정에	-12264
▁균형을	-12265
▁단계로	-12266
▁브라질	-12267
▁손해를	-12268
▁완전한	-12269
▁이루며	-12270
▁접촉한	-12271
▁한국이	-12272
▁디자이너	-12273
▁수행한다	-12274
▁이용한다	-12275
▁이어지면서	-12276
▁현대모비스는	-12277
SB	-12278
▁d	-12279
구매	-12280
대행	-12281
유니	-12282
▁DB	-12283
▁구해	-12284
▁다각	-12285
▁리듬	-12286
▁바가	-12287
▁벗어	-12288
▁서남	-12289
▁성사	-12290
▁아픈	-12291
▁얇은	-12292
▁저온	-12293
▁집값	-12294
▁투싼	-12295
▁평행	-12296
▁햇빛	-12297
▁극복을	-12298
▁도전성	-12299
▁벌이는	-12300
▁불만을	-12301
▁서쪽에	-12302
▁스페인	-12303
▁예전에	-12304
▁이렇듯	-12305
▁작용할	-12306
▁재료의	-12307
▁재판에	-12308
▁접근이	-12309
▁접근할	-12310
▁종로구	-12311
▁주택을	-12312
▁선보이고	-12313
▁유지하기	-12314
▁이야기는	-12315
IB	-12316
op	-12317
▁록	-12318
사례	-12319
수산	-12320
신탁	-12321
▁교회	-12322
▁대치	-12323
▁독려	-12324
▁부양	-12325
▁예수	-12326
▁오해	-12327
▁일렉	-12328
▁지그	-12329
▁지문	-12330
▁축구	-12331
▁한달	-12332
공장은	-12333
하이닉	-12334
▁PCB	-12335
▁개그맨	-12336
▁대응이	-12337
▁불만이	-12338
▁업체를	-12339
▁여성은	-12340
▁연이어	-12341
▁오프로	-12342
▁유형의	-12343
▁찾아볼	-12344
▁출연을	-12345
▁태어난	-12346
▁넷플릭스	-12347
▁퇴직연금	-12348
SK	-12349
▁뻔	-12350
규가	-12351
여명	-12352
피크	-12353
▁복사	-12354
▁연인	-12355
▁이원	-12356
▁탐구	-12357
▁파리	-12358
방으로	-12359
▁가져올	-12360
▁이전의	-12361
▁충격에	-12362
자에게는	-12363
▁경제성장	-12364
▁부분변경	-12365
▁자본시장	-12366
▁캐릭터가	-12367
▁실질적으로	-12368
기서	-12369
이동	-12370
창한	-12371
통계	-12372
화문	-12373
▁답을	-12374
▁되찾	-12375
▁메가	-12376
▁봐도	-12377
▁실습	-12378
▁원형	-12379
▁인장	-12380
▁지류	-12381
▁평택	-12382
▁합금	-12383
속에서	-12384
▁결합된	-12385
▁구조는	-12386
▁모양을	-12387
▁조기에	-12388
▁최우수	-12389
▁구성하고	-12390
▁단체협약	-12391
▁마련하고	-12392
▁소요되는	-12393
▁유기전계	-12394
AT	-12395
▁붐	-12396
▁씽	-12397
▁콰	-12398
▁누리	-12399
▁박진	-12400
▁변조	-12401
▁쏘울	-12402
▁주를	-12403
▁차트	-12404
▁티비	-12405
▁파동	-12406
▁편이	-12407
▁플로	-12408
▁필리	-12409
설비의	-12410
소득이	-12411
의약품	-12412
정책을	-12413
활동이	-12414
▁내용과	-12415
▁아내가	-12416
▁앞세워	-12417
▁여력이	-12418
▁이외의	-12419
▁전해액	-12420
▁최첨단	-12421
▁흐름에	-12422
▁신속하고	-12423
▁적절하게	-12424
▁전문가가	-12425
36	-12426
▁벡	-12427
디가	-12428
위인	-12429
취를	-12430
플렉	-12431
▁가죽	-12432
▁기증	-12433
▁꽃이	-12434
▁끝내	-12435
▁대두	-12436
▁사우	-12437
▁성향	-12438
▁수반	-12439
▁장점	-12440
▁주위	-12441
▁특화	-12442
▁가입을	-12443
▁바이어	-12444
▁사태에	-12445
▁7000	-12446
▁배우들의	-12447
▁성장하고	-12448
▁소비자를	-12449
▁아무것도	-12450
▁지원사업	-12451
▁전문가들의	-12452
▁시청자들에게	-12453
대인	-12454
을지	-12455
티비	-12456
▁DC	-12457
▁LP	-12458
▁목록	-12459
▁신앙	-12460
▁유권	-12461
▁주신	-12462
▁포럼	-12463
▁행태	-12464
카드가	-12465
회로의	-12466
▁부가가	-12467
▁세계가	-12468
▁세우고	-12469
▁원인은	-12470
▁휘발유	-12471
▁급격하게	-12472
▁기대했다	-12473
▁디자인은	-12474
▁사회에서	-12475
▁생각하면	-12476
▁서스펜션	-12477
▁처음부터	-12478
▁평생교육	-12479
▁활용하고	-12480
▁자발적으로	-12481
뉴스	-12482
듬해	-12483
르며	-12484
신한	-12485
팀은	-12486
DLF	-12487
▁김기	-12488
▁늘릴	-12489
▁반해	-12490
▁봉쇄	-12491
▁숨어	-12492
▁아랫	-12493
▁안성	-12494
▁어셈	-12495
▁유저	-12496
▁팀이	-12497
▁비로소	-12498
▁얼굴이	-12499
▁찾는다	-12500
▁촬영한	-12501
▁측면이	-12502
▁코란도	-12503
▁파티클	-12504
▁위원장이	-12505
▁있는지를	-12506
▁제작진은	-12507
▁행사에는	-12508
그라	-12509
달라	-12510
어붙	-12511
▁가설	-12512
▁간다	-12513
▁강동	-12514
▁매칭	-12515
▁무단	-12516
▁박지	-12517
▁벌인	-12518
▁승강	-12519
▁약을	-12520
▁축조	-12521
▁해를	-12522
▁환영	-12523
닙니다	-12524
▁110	-12525
▁140	-12526
▁ETF	-12527
▁그렇다	-12528
▁그림을	-12529
▁놀라게	-12530
▁마그네	-12531
▁보험금	-12532
▁분양가	-12533
▁선사할	-12534
▁시기가	-12535
▁아이콘	-12536
▁오가는	-12537
▁유익한	-12538
▁투자할	-12539
▁농경지가	-12540
▁사라지고	-12541
▁일시적으로	-12542
밴드	-12543
버튼	-12544
▁소하	-12545
▁안재	-12546
▁영남	-12547
▁적다	-12548
▁정은	-12549
▁조세	-12550
보험은	-12551
이거나	-12552
▁감소로	-12553
▁결정이	-12554
▁경험할	-12555
▁구성한	-12556
▁기분이	-12557
▁대표적	-12558
▁비판을	-12559
▁상태의	-12560
▁용량이	-12561
▁우연히	-12562
▁이듬해	-12563
▁자리잡	-12564
▁작품에	-12565
▁작품은	-12566
▁촬영이	-12567
▁티브이	-12568
▁화학적	-12569
▁노동시간	-12570
▁다이오드	-12571
▁형성된다	-12572
▁뱀	-12573
간담	-12574
변을	-12575
사실	-12576
전선	-12577
창을	-12578
희망	-12579
ack	-12580
net	-12581
▁공화	-12582
▁노선	-12583
▁바꾼	-12584
▁부른	-12585
▁양육	-12586
▁이진	-12587
▁체질	-12588
▁귀여운	-12589
▁그런가	-12590
▁도입해	-12591
▁로봇을	-12592
▁시동을	-12593
▁알아야	-12594
▁예상치	-12595
▁위주의	-12596
▁전보다	-12597
▁커진다	-12598
▁현저히	-12599
▁가상현실	-12600
▁공급되는	-12601
▁기초자산	-12602
▁받으면서	-12603
▁사업이다	-12604
▁현대차그룹은	-12605
▁끓	-12606
당과	-12607
부족	-12608
비시	-12609
운송	-12610
▁높지	-12611
▁눈앞	-12612
▁독감	-12613
▁모험	-12614
▁부러	-12615
▁승무	-12616
▁역설	-12617
▁연소	-12618
▁열이	-12619
▁챙겨	-12620
▁형제	-12621
기업인	-12622
▁거기에	-12623
▁끝나는	-12624
▁방역당	-12625
▁사랑과	-12626
▁수상한	-12627
▁외부에	-12628
▁이해가	-12629
▁익숙한	-12630
▁다이내믹	-12631
▁음성으로	-12632
년생	-12633
반의	-12634
수소	-12635
▁강서	-12636
▁한강	-12637
퍼런스	-12638
▁감사를	-12639
▁교사가	-12640
▁그룹의	-12641
▁마이크	-12642
▁많았고	-12643
▁보호할	-12644
▁사측은	-12645
▁속도는	-12646
▁얘기를	-12647
▁업체와	-12648
▁이슈가	-12649
▁제안한	-12650
▁태어나	-12651
▁털어놓	-12652
▁회로의	-12653
기보다는	-12654
▁구성되는	-12655
▁동영상을	-12656
▁성공적인	-12657
▁콘텐츠의	-12658
▁가능해진다	-12659
∼9	-12660
공이	-12661
막에	-12662
살을	-12663
▁79	-12664
▁AP	-12665
▁마크	-12666
▁상여	-12667
▁인성	-12668
▁자구	-12669
▁증강	-12670
▁헌법	-12671
사랑의	-12672
장치와	-12673
홀에서	-12674
회사인	-12675
▁CPU	-12676
▁넘어선	-12677
▁넷마블	-12678
▁사건은	-12679
▁지원과	-12680
▁참가를	-12681
▁탑재해	-12682
▁포즈를	-12683
▁금융상품	-12684
▁남쪽에는	-12685
▁위치하며	-12686
▁유럽에서	-12687
MI	-12688
ce	-12689
개는	-12690
부채	-12691
오스	-12692
ity	-12693
▁77	-12694
▁가사	-12695
▁구할	-12696
▁물체	-12697
▁사흘	-12698
▁서면	-12699
▁용역	-12700
▁쟁의	-12701
▁주연	-12702
▁차의	-12703
▁촉발	-12704
▁추모	-12705
▁파라	-12706
▁한양	-12707
▁119	-12708
▁경험과	-12709
▁구글이	-12710
▁기온이	-12711
▁낮추는	-12712
▁비교할	-12713
▁영업을	-12714
▁전설이	-12715
▁주가는	-12716
▁지역과	-12717
▁관리하고	-12718
▁기록하고	-12719
▁인수합병	-12720
▁직격탄을	-12721
▁금융당국이	-12722
▁지역에서는	-12723
DS	-12724
정비	-12725
▁공조	-12726
▁급성	-12727
▁기슭	-12728
▁낚시	-12729
▁남한	-12730
▁부추	-12731
▁심층	-12732
▁아픔	-12733
▁이별	-12734
▁혹시	-12735
▁효능	-12736
억원어	-12737
전류를	-12738
▁경향을	-12739
▁고민이	-12740
▁남겼다	-12741
▁단점이	-12742
▁드러난	-12743
▁로맨스	-12744
▁모터를	-12745
▁무거운	-12746
▁밀접한	-12747
▁부부의	-12748
▁최선의	-12749
▁해결을	-12750
▁해석이	-12751
▁활발히	-12752
교육지원	-12753
▁어우러져	-12754
▁여기에는	-12755
▁커넥티드	-12756
▁유지하면서	-12757
38	-12758
▁끄	-12759
간접	-12760
내외	-12761
지나	-12762
천에	-12763
▁72	-12764
▁결성	-12765
▁넥센	-12766
▁법령	-12767
▁살피	-12768
▁차에	-12769
▁티켓	-12770
▁파는	-12771
식에는	-12772
▁2.5	-12773
▁급속히	-12774
▁매출을	-12775
▁면적을	-12776
▁부산시	-12777
▁역대급	-12778
▁예측할	-12779
▁이보다	-12780
▁노하우를	-12781
▁마케팅을	-12782
▁자녀들이	-12783
▁해결하는	-12784
▁훔	-12785
나눔	-12786
말이	-12787
요금	-12788
자고	-12789
친구	-12790
▁간이	-12791
▁낯선	-12792
▁돌연	-12793
▁무사	-12794
▁세척	-12795
▁수분	-12796
▁암컷	-12797
▁연임	-12798
▁올리	-12799
▁작게	-12800
▁점거	-12801
▁주당	-12802
대회를	-12803
▁계절에	-12804
▁다임러	-12805
▁단지가	-12806
▁도서관	-12807
▁딥러닝	-12808
▁방사선	-12809
▁부착된	-12810
▁불안정	-12811
▁자사의	-12812
▁지수가	-12813
▁호응을	-12814
▁활동의	-12815
▁전국에서	-12816
▁펼쳐진다	-12817
▁헬스케어	-12818
▁현실적으로	-12819
▁산업안전보건	-12820
▁캄	-12821
속을	-12822
집에	-12823
▁78	-12824
▁네이	-12825
▁덕분	-12826
▁배부	-12827
▁산성	-12828
▁새해	-12829
▁안양	-12830
▁짙은	-12831
▁탈출	-12832
▁격차가	-12833
▁매출액	-12834
▁명령을	-12835
▁변하는	-12836
▁사이로	-12837
▁업무가	-12838
▁의식을	-12839
▁일본은	-12840
▁추억을	-12841
▁경상남도	-12842
▁대표이사	-12843
▁부사장이	-12844
▁사람들과	-12845
▁지역이다	-12846
▁집중된다	-12847
▁표시하는	-12848
▁희망퇴직	-12849
▁최소화하기	-12850
▁형성방법에	-12851
SJ	-12852
급적	-12853
란을	-12854
뮤직	-12855
보로	-12856
오일	-12857
▁각국	-12858
▁날카	-12859
▁볼륨	-12860
▁비만	-12861
▁소지	-12862
▁시키	-12863
▁정통	-12864
9000	-12865
▁고민을	-12866
▁법원은	-12867
▁변동이	-12868
▁사랑이	-12869
▁식사를	-12870
▁앞에는	-12871
▁전망도	-12872
▁조정을	-12873
▁지지를	-12874
▁지침을	-12875
▁확인이	-12876
▁과도하게	-12877
▁노동자는	-12878
▁부사장은	-12879
▁적용하여	-12880
▁조언했다	-12881
▁체계적인	-12882
▁픽업트럭	-12883
▁킹	-12884
개념	-12885
둘러	-12886
실장	-12887
아트	-12888
치면	-12889
해상	-12890
▁걸고	-12891
▁규격	-12892
▁남원	-12893
▁따져	-12894
▁알림	-12895
▁크레	-12896
▁훌쩍	-12897
과정을	-12898
단체가	-12899
▁관하여	-12900
▁면모를	-12901
▁보상을	-12902
▁부사장	-12903
▁수업이	-12904
▁일어났	-12905
▁점수를	-12906
▁집중할	-12907
▁1950	-12908
▁구성하여	-12909
▁근로복지	-12910
▁드리오니	-12911
▁중요하다고	-12912
천만	-12913
토리	-12914
▁공산	-12915
▁김경	-12916
▁단락	-12917
▁벌금	-12918
▁수컷	-12919
▁슬픔	-12920
▁안의	-12921
▁이룰	-12922
▁일선	-12923
▁일할	-12924
▁점심	-12925
▁확고	-12926
▁걱정이	-12927
▁당신의	-12928
▁마쳤다	-12929
▁맞추어	-12930
▁미쳤다	-12931
▁시청자	-12932
▁중국과	-12933
▁회장을	-12934
고용노동	-12935
▁실제로는	-12936
▁연구진은	-12937
▁점유율을	-12938
▁패키지를	-12939
▁구조조정이	-12940
▁자연스러운	-12941
of	-12942
곳의	-12943
데도	-12944
머리	-12945
면허	-12946
블릿	-12947
수석	-12948
약한	-12949
준은	-12950
중개	-12951
퍼스	-12952
혁이	-12953
▁고시	-12954
▁배울	-12955
▁산학	-12956
▁자국	-12957
▁주류	-12958
▁지은	-12959
▁칩을	-12960
▁호전	-12961
가스를	-12962
상품을	-12963
적이지	-12964
▁노출된	-12965
▁논란에	-12966
▁미래차	-12967
▁생각에	-12968
▁수출이	-12969
▁시행한	-12970
▁참여가	-12971
▁코오롱	-12972
▁개선하고	-12973
▁동쪽에는	-12974
▁수준에서	-12975
▁중요하게	-12976
▁중소기업이	-12977
▁진행한다고	-12978
분리	-12979
수한	-12980
일반	-12981
챌린	-12982
투쟁	-12983
호출	-12984
▁귀국	-12985
▁대본	-12986
▁러브	-12987
▁스폰	-12988
▁실력	-12989
▁전사	-12990
▁조원	-12991
▁직관	-12992
▁짧아	-12993
조사에	-12994
캐스트	-12995
협회는	-12996
▁관계로	-12997
▁그랜드	-12998
▁다행히	-12999
▁발생이	-13000
▁분야가	-13001
▁자라는	-13002
▁타이밍	-13003
▁패턴의	-13004
▁하루에	-13005
현장에서	-13006
▁가능성에	-13007
▁보고서는	-13008
▁불과했다	-13009
▁연구팀이	-13010
▁차단하는	-13011
▁장기적으로	-13012
)·	-13013
장려	-13014
제약	-13015
패드	-13016
▁신탁	-13017
▁쌓여	-13018
▁우라	-13019
▁우편	-13020
▁음압	-13021
▁일회	-13022
모터스	-13023
▁0.2	-13024
▁되어야	-13025
▁많아서	-13026
▁보내주	-13027
▁섬세한	-13028
▁제한된	-13029
▁조직이	-13030
▁친구가	-13031
▁1996	-13032
▁멤버들의	-13033
▁아닙니다	-13034
▁있었으며	-13035
▁편리하다	-13036
▁제출해주시기	-13037
겁고	-13038
병이	-13039
분쯤	-13040
사건	-13041
ell	-13042
▁강수	-13043
▁내면	-13044
▁볼트	-13045
▁선착	-13046
▁폭풍	-13047
▁허락	-13048
▁환급	-13049
사회의	-13050
시기를	-13051
줍니다	-13052
▁감독과	-13053
▁닛산은	-13054
▁숨졌다	-13055
▁스태프	-13056
▁시너지	-13057
▁위대한	-13058
▁투입해	-13059
▁포토레	-13060
▁하나씩	-13061
계에서는	-13062
하시기를	-13063
▁둘러싸여	-13064
▁미디어의	-13065
▁제기되고	-13066
▁삼성전자와	-13067
▁획기적으로	-13068
FP	-13069
OC	-13070
골이	-13071
스런	-13072
코딩	-13073
▁1~	-13074
▁LS	-13075
▁골드	-13076
▁과다	-13077
▁극의	-13078
▁너머	-13079
▁마릴	-13080
▁배를	-13081
▁선포	-13082
▁성질	-13083
▁전하	-13084
▁즐겨	-13085
▁처방	-13086
▁패드	-13087
하였을	-13088
▁검찰에	-13089
▁메르스	-13090
▁적자를	-13091
▁전환이	-13092
▁조건에	-13093
▁조치로	-13094
▁표현의	-13095
▁프레젠	-13096
하기에는	-13097
▁공격적인	-13098
▁구비하여	-13099
▁제시하고	-13100
▁사회안전망	-13101
49	-13102
od	-13103
ur	-13104
계열	-13105
르몬	-13106
오지	-13107
운수	-13108
적의	-13109
해지	-13110
호인	-13111
▁감동	-13112
▁경향	-13113
▁김소	-13114
▁메탈	-13115
▁불투	-13116
▁손잡	-13117
▁영웅	-13118
▁유관	-13119
▁읽는	-13120
▁자존	-13121
▁잡을	-13122
▁튜브	-13123
에게서	-13124
▁것인가	-13125
▁됐다고	-13126
▁똑같이	-13127
▁생산에	-13128
▁아닌가	-13129
▁아이들	-13130
▁염두에	-13131
▁정당한	-13132
▁판단할	-13133
▁환경의	-13134
▁근로계약	-13135
▁당시에는	-13136
▁방지한다	-13137
▁분위기다	-13138
▁서쪽에는	-13139
4,	-13140
66	-13141
▁w	-13142
▁컷	-13143
대리	-13144
▁경증	-13145
▁꾸며	-13146
▁생애	-13147
▁채팅	-13148
▁태국	-13149
▁하류	-13150
작업을	-13151
케스트	-13152
프라이	-13153
▁고효율	-13154
▁끝나고	-13155
▁당연한	-13156
▁대체할	-13157
▁변화의	-13158
▁선정한	-13159
▁안타깝	-13160
▁예방할	-13161
▁이후로	-13162
▁증가가	-13163
▁취지다	-13164
▁기다리는	-13165
▁발견했다	-13166
▁의사소통	-13167
▁금융감독원	-13168
▁단말기에서	-13169
▁사로잡는다	-13170
관절	-13171
배에	-13172
버린	-13173
산리	-13174
운다	-13175
종목	-13176
항이	-13177
▁기조	-13178
▁넣고	-13179
▁미소	-13180
▁술을	-13181
▁연차	-13182
▁열애	-13183
▁영재	-13184
▁위장	-13185
▁잃고	-13186
기준을	-13187
자리를	-13188
하는지	-13189
▁교섭을	-13190
▁기간은	-13191
▁기관은	-13192
▁단순화	-13193
▁설치한	-13194
▁세련된	-13195
▁아끼지	-13196
▁연구소	-13197
▁월평균	-13198
▁확보해	-13199
만원에서	-13200
▁알려주는	-13201
▁이어갔다	-13202
▁흥미로운	-13203
▁서울시교육청	-13204
ir	-13205
두는	-13206
선택	-13207
전체	-13208
학회	-13209
▁동월	-13210
▁면허	-13211
▁발령	-13212
▁살던	-13213
▁상주	-13214
▁오너	-13215
▁외관	-13216
▁윤종	-13217
▁이병	-13218
▁자갈	-13219
▁전속	-13220
▁조율	-13221
▁구로구	-13222
▁기법을	-13223
▁사례도	-13224
▁생기면	-13225
▁신경을	-13226
▁정보에	-13227
▁집회를	-13228
▁치료에	-13229
▁판매된	-13230
▁6000	-13231
▁학교운영	-13232
▁한국자동차	-13233
측의	-13234
▁갱신	-13235
▁막고	-13236
▁물의	-13237
▁미성	-13238
▁부유	-13239
▁숫자	-13240
▁이겨	-13241
▁질을	-13242
▁파급	-13243
만명의	-13244
본부가	-13245
행위를	-13246
▁가족을	-13247
▁공장은	-13248
▁끝으로	-13249
▁부분의	-13250
▁안겼다	-13251
▁영화에	-13252
▁의견도	-13253
▁이론을	-13254
▁읽어보	-13255
▁정신적	-13256
▁제품과	-13257
▁완성도를	-13258
▁자유한국	-13259
▁스마트시티	-13260
▁안드로이드	-13261
RT	-13262
ov	-13263
▁득	-13264
비트	-13265
승을	-13266
이든	-13267
컴퍼	-13268
티를	-13269
▁SA	-13270
▁디스	-13271
▁앤이	-13272
▁얻게	-13273
▁질소	-13274
▁짓는	-13275
▁체제	-13276
▁체포	-13277
▁캐소	-13278
▁푸조	-13279
소자에	-13280
측으로	-13281
해주고	-13282
▁0.1	-13283
▁김씨는	-13284
▁사업체	-13285
▁설치할	-13286
▁소통을	-13287
▁이익이	-13288
▁작품의	-13289
▁준비가	-13290
▁펀드는	-13291
▁강조하는	-13292
▁구직급여	-13293
▁대상에서	-13294
▁보여줬다	-13295
▁예상하고	-13296
▁운영되고	-13297
▁임금피크	-13298
▁자랑한다	-13299
▁판단하고	-13300
▁해당된다	-13301
▁향상시킨	-13302
개소	-13303
빈의	-13304
▁넘나	-13305
▁달에	-13306
▁선점	-13307
▁소스	-13308
▁숲이	-13309
▁예로	-13310
▁예쁜	-13311
▁이은	-13312
▁인디	-13313
▁임피	-13314
▁잡는	-13315
▁허브	-13316
▁협박	-13317
▁호남	-13318
비용이	-13319
진흥원	-13320
▁공개될	-13321
▁극심한	-13322
▁말하고	-13323
▁목표는	-13324
▁무대가	-13325
▁비용은	-13326
▁설립된	-13327
▁어쩌면	-13328
▁이재갑	-13329
▁적용돼	-13330
▁증가를	-13331
▁펀드를	-13332
▁현실화	-13333
▁고객들의	-13334
▁구축하는	-13335
▁내용으로	-13336
▁못하도록	-13337
▁부회장은	-13338
▁비용으로	-13339
▁수소연료	-13340
▁전기적으로	-13341
▁직원들에게	-13342
(5	-13343
마일	-13344
매체	-13345
절연	-13346
▁EQ	-13347
▁Si	-13348
▁강성	-13349
▁귀를	-13350
▁길고	-13351
▁댄스	-13352
▁발라	-13353
▁세분	-13354
▁인위	-13355
▁진술	-13356
▁천천	-13357
▁피고	-13358
▁한일	-13359
▁후배	-13360
물질의	-13361
방에서	-13362
사업의	-13363
▁가맹점	-13364
▁구성이	-13365
▁규정에	-13366
▁급여를	-13367
▁기능도	-13368
▁따르는	-13369
▁부문의	-13370
▁불어넣	-13371
▁사망자	-13372
▁산업은	-13373
▁이동이	-13374
▁인수한	-13375
▁장거리	-13376
▁전자식	-13377
▁전지용	-13378
▁제공한	-13379
▁지급할	-13380
▁출시가	-13381
▁흔적이	-13382
▁마을에서	-13383
▁산재보험	-13384
▁참고하여	-13385
▁핵심이다	-13386
▁구조조정에	-13387
▁증가하면서	-13388
▁중소벤처기업	-13389
7,	-13390
▁힙	-13391
론에	-13392
아동	-13393
아와	-13394
없다	-13395
최저	-13396
키를	-13397
파워	-13398
▁구는	-13399
▁권유	-13400
▁넓혀	-13401
▁눌러	-13402
▁앤은	-13403
▁여건	-13404
▁인턴	-13405
▁잡지	-13406
▁체온	-13407
중앙회	-13408
회사를	-13409
▁강화된	-13410
▁구릉성	-13411
▁근거를	-13412
▁발언을	-13413
▁벌였다	-13414
▁보고서	-13415
▁설정된	-13416
▁역사가	-13417
▁오디션	-13418
▁요구한	-13419
▁이후의	-13420
▁전면에	-13421
▁주행이	-13422
▁차례로	-13423
▁필요에	-13424
억원에서	-13425
였습니다	-13426
▁바람직한	-13427
▁안정성이	-13428
▁어려웠다	-13429
▁업체들의	-13430
▁긍정적으로	-13431
동백	-13432
신종	-13433
장인	-13434
전동	-13435
.”"	-13436
▁끼워	-13437
▁신의	-13438
▁씨의	-13439
▁청정	-13440
▁촬상	-13441
기까지	-13442
당에서	-13443
했었다	-13444
▁경사가	-13445
▁고전압	-13446
▁공유할	-13447
▁규칙을	-13448
▁노사정	-13449
▁문자를	-13450
▁용도로	-13451
▁협업을	-13452
▁경제사회	-13453
▁관객들의	-13454
▁근로자와	-13455
▁나타나지	-13456
▁미디어를	-13457
▁예상보다	-13458
▁정체성을	-13459
▁종합적으로	-13460
IF	-13461
▁린	-13462
강점	-13463
러블	-13464
시마	-13465
▁"1	-13466
▁그릇	-13467
▁되길	-13468
▁두뇌	-13469
▁딸이	-13470
▁리어	-13471
▁방위	-13472
▁부지	-13473
▁이통	-13474
▁집회	-13475
전극을	-13476
▁개념은	-13477
▁권한을	-13478
▁금액은	-13479
▁기반이	-13480
▁다리를	-13481
▁모르고	-13482
▁상대방	-13483
▁시원한	-13484
▁아니냐	-13485
▁일하고	-13486
▁임의로	-13487
▁작성한	-13488
▁전시장	-13489
▁특허를	-13490
▁개선하기	-13491
▁목소리도	-13492
▁부분이다	-13493
▁자금조달	-13494
▁작품으로	-13495
▁적용하고	-13496
▁전년보다	-13497
▁파악하는	-13498
▁향상시켜	-13499
▁빅데이터를	-13500
▁자동적으로	-13501
▁예능프로그램	-13502
▁펭	-13503
류와	-13504
▁그들	-13505
▁노총	-13506
▁당첨	-13507
▁악용	-13508
▁주저	-13509
▁홀더	-13510
▁흰색	-13511
▁건전한	-13512
▁관계는	-13513
▁사용에	-13514
▁세상의	-13515
▁신세계	-13516
▁필리핀	-13517
스카우트	-13518
▁모두에게	-13519
▁서울시는	-13520
▁서울에서	-13521
▁시너지를	-13522
▁유도하는	-13523
▁제작하는	-13524
▁제외하고는	-13525
▁홈페이지에	-13526
림은	-13527
식물	-13528
타입	-13529
풀이	-13530
▁CT	-13531
▁PE	-13532
▁과감	-13533
▁기체	-13534
▁넷째	-13535
▁대행	-13536
▁소년	-13537
▁오빠	-13538
▁외출	-13539
▁입금	-13540
▁합법	-13541
인지를	-13542
▁1·4	-13543
▁같다고	-13544
▁당국의	-13545
▁예방에	-13546
▁인간을	-13547
▁전동화	-13548
▁증가해	-13549
▁직원은	-13550
▁편지를	-13551
▁독보적인	-13552
▁수행하고	-13553
▁시민단체	-13554
▁작품이다	-13555
▁주도하는	-13556
▁사각지대에	-13557
▁선제적으로	-13558
▁소프트웨어를	-13559
니를	-13560
미로	-13561
택트	-13562
▁결렬	-13563
▁믿을	-13564
▁사법	-13565
▁사안	-13566
▁서지	-13567
▁소위	-13568
▁운명	-13569
구조가	-13570
여부를	-13571
▁160	-13572
▁강화해	-13573
▁구축할	-13574
▁대학의	-13575
▁더한다	-13576
▁됐다는	-13577
▁상당수	-13578
▁상황과	-13579
▁설계를	-13580
▁운전석	-13581
▁인상과	-13582
▁절차에	-13583
▁정도에	-13584
▁판단에	-13585
▁핵심은	-13586
하였다고	-13587
▁과거에는	-13588
▁메시지가	-13589
▁본사에서	-13590
▁설명하고	-13591
▁연결하여	-13592
▁음극선관	-13593
▁직원들은	-13594
▁프로세스	-13595
모터쇼에서	-13596
im	-13597
로만	-13598
보지	-13599
사한	-13600
▁경신	-13601
▁권력	-13602
▁김선	-13603
▁늘리	-13604
▁대세	-13605
▁성숙	-13606
▁정합	-13607
▁콜라	-13608
▁해치	-13609
처리를	-13610
환경이	-13611
▁그려져	-13612
▁나오면	-13613
▁말하며	-13614
▁방송이	-13615
▁스케줄	-13616
▁시기는	-13617
▁제조사	-13618
▁토요일	-13619
▁표현이	-13620
거리에서	-13621
드리오니	-13622
▁사라졌다	-13623
▁선사한다	-13624
▁아나운서	-13625
▁이해관계	-13626
▁르노삼성차	-13627
MD	-13628
▁꿀	-13629
꽃이	-13630
인더	-13631
코올	-13632
형성	-13633
▁고마	-13634
▁구역	-13635
▁기가	-13636
▁끼고	-13637
▁마리	-13638
▁보람	-13639
▁수당	-13640
▁합산	-13641
네트웍	-13642
카드는	-13643
커니즘	-13644
▁350	-13645
▁나누고	-13646
▁된다면	-13647
▁모드를	-13648
▁성장한	-13649
▁실현할	-13650
▁위치가	-13651
▁이마트	-13652
▁인피니	-13653
▁잇달아	-13654
▁제작에	-13655
▁제한이	-13656
▁조성을	-13657
▁충격이	-13658
▁노동계는	-13659
▁분석하는	-13660
▁소비자는	-13661
▁시점에서	-13662
▁일어나지	-13663
▁통과하는	-13664
▁플러그인	-13665
▁안방극장을	-13666
▁카카오뱅크	-13667
▁덴	-13668
글로	-13669
네요	-13670
수술	-13671
인구	-13672
철은	-13673
▁가늠	-13674
▁나쁘	-13675
▁무효	-13676
▁비평	-13677
▁시일	-13678
▁싫어	-13679
▁오름	-13680
▁외곽	-13681
▁우회	-13682
▁잊지	-13683
▁척추	-13684
간다는	-13685
휴가를	-13686
▁가입이	-13687
▁누군가	-13688
▁살아가	-13689
▁알리고	-13690
▁일대의	-13691
▁장소로	-13692
▁트위터	-13693
▁활용이	-13694
▁구성으로	-13695
▁방송통신	-13696
▁벌어졌다	-13697
▁어머니는	-13698
▁인정하는	-13699
▁재택근무	-13700
▁전환하는	-13701
▁단계적으로	-13702
▁꼴	-13703
비한	-13704
아서	-13705
위치	-13706
유통	-13707
증은	-13708
타는	-13709
트랙	-13710
포가	-13711
플로	-13712
학은	-13713
학이	-13714
혈관	-13715
▁가라	-13716
▁과징	-13717
▁기금	-13718
▁답답	-13719
▁삶이	-13720
▁써야	-13721
▁씽큐	-13722
▁요건	-13723
▁우정	-13724
▁웅진	-13725
▁이명	-13726
단에서	-13727
들에서	-13728
▁나무가	-13729
▁노조에	-13730
▁소비가	-13731
▁않거나	-13732
▁일대에	-13733
▁전류의	-13734
▁전제로	-13735
▁합리적	-13736
▁내놓았다	-13737
▁분포한다	-13738
▁어렵다고	-13739
▁일제강점	-13740
▁지정되어	-13741
▁찾아가는	-13742
UN	-13743
망과	-13744
설명	-13745
여름	-13746
축이	-13747
art	-13748
▁관행	-13749
▁내몰	-13750
▁년간	-13751
▁대항	-13752
▁땅을	-13753
▁산은	-13754
▁소성	-13755
▁소아	-13756
▁스릴	-13757
▁암석	-13758
▁암호	-13759
▁재활	-13760
▁점화	-13761
▁지명	-13762
센터의	-13763
식간에	-13764
신호가	-13765
▁CGV	-13766
▁박나래	-13767
▁발표할	-13768
▁불공정	-13769
▁생산된	-13770
▁원자핵	-13771
▁인원이	-13772
▁자리가	-13773
▁정상화	-13774
되었는데	-13775
청사에서	-13776
▁가정통신	-13777
▁노사관계	-13778
▁만족감을	-13779
▁북쪽에는	-13780
▁상품으로	-13781
도우마스크	-13782
▁예방접종을	-13783
▁희망하시는	-13784
?'	-13785
▁촌	-13786
▁텅	-13787
수납	-13788
카가	-13789
해외	-13790
해줄	-13791
19)	-13792
▁62	-13793
▁TS	-13794
▁며느	-13795
▁의성	-13796
▁종속	-13797
라디오	-13798
센터와	-13799
파트너	-13800
▁ILO	-13801
▁구조적	-13802
▁빠졌다	-13803
▁살펴볼	-13804
▁성폭력	-13805
▁세상이	-13806
▁역사상	-13807
▁있었을	-13808
▁제공을	-13809
▁환경과	-13810
업체들이	-13811
호텔에서	-13812
▁근로감독	-13813
▁선생님께	-13814
▁우려했다	-13815
▁포착됐다	-13816
▁회로기판	-13817
▁띤	-13818
답게	-13819
렸을	-13820
료는	-13821
변에	-13822
빌딩	-13823
셔야	-13824
티가	-13825
해수	-13826
▁곤충	-13827
▁김승	-13828
▁깊게	-13829
▁단어	-13830
▁드림	-13831
▁몸의	-13832
▁배후	-13833
▁살짝	-13834
▁수습	-13835
▁야구	-13836
▁우량	-13837
▁잦은	-13838
▁체류	-13839
▁카본	-13840
정부의	-13841
학부모	-13842
▁CES	-13843
▁광화문	-13844
▁교직원	-13845
▁구체적	-13846
▁전도성	-13847
▁조성된	-13848
▁조정이	-13849
▁중간에	-13850
▁중국인	-13851
▁편하게	-13852
▁화장실	-13853
졌습니다	-13854
▁바뀌었다	-13855
▁서비스도	-13856
▁유가증권	-13857
▁'2018	-13858
▁관계자들이	-13859
▁형성되었다	-13860
33	-13861
는가	-13862
뤘다	-13863
미국	-13864
변화	-13865
복이	-13866
봉을	-13867
언스	-13868
영과	-13869
용의	-13870
▁In	-13871
▁개소	-13872
▁극중	-13873
▁나지	-13874
▁론칭	-13875
▁바디	-13876
▁부장	-13877
▁시원	-13878
▁자택	-13879
▁품고	-13880
▁학기	-13881
문화를	-13882
스럽다	-13883
이어야	-13884
▁가지로	-13885
▁간격을	-13886
▁기념해	-13887
▁나서야	-13888
▁달성할	-13889
▁대상자	-13890
▁문제와	-13891
▁문화의	-13892
▁법무부	-13893
▁소자에	-13894
▁어디에	-13895
▁어레이	-13896
▁연수를	-13897
▁오류가	-13898
▁일상을	-13899
▁천천히	-13900
▁출신의	-13901
▁하천의	-13902
▁활력을	-13903
▁선택하여	-13904
▁의료진이	-13905
▁판단이다	-13906
▁활용되고	-13907
▁갇	-13908
국도	-13909
기자	-13910
녀가	-13911
마리	-13912
방출	-13913
▁교내	-13914
▁넓고	-13915
▁몰랐	-13916
▁반도	-13917
▁석회	-13918
▁소홀	-13919
▁연다	-13920
▁질의	-13921
▁특이	-13922
▁항소	-13923
▁계획은	-13924
▁박차를	-13925
▁받았던	-13926
▁배제할	-13927
▁사례로	-13928
▁이어서	-13929
▁지켜야	-13930
▁늘어난다	-13931
▁반대하는	-13932
▁발달되어	-13933
▁중에서는	-13934
▁지역경제	-13935
▁고용유지지원금	-13936
48	-13937
게도	-13938
대구	-13939
쓰고	-13940
전용	-13941
▁보냈	-13942
▁살해	-13943
▁소극	-13944
▁실손	-13945
▁아기	-13946
▁임기	-13947
▁진실	-13948
▁진안	-13949
▁청송	-13950
▁회생	-13951
공장을	-13952
드린다	-13953
렸지만	-13954
보았다	-13955
스러워	-13956
운동을	-13957
자와의	-13958
▁광고에	-13959
▁매뉴얼	-13960
▁연락이	-13961
▁우위를	-13962
▁작용을	-13963
▁진행해	-13964
▁한동안	-13965
▁함께한	-13966
▁행복을	-13967
중소기업	-13968
▁인포테인먼트	-13969
▁르노삼성자동차가	-13970
FC	-13971
NM	-13972
리드	-13973
백산	-13974
보의	-13975
증폭	-13976
판과	-13977
▁87	-13978
▁강행	-13979
▁과장	-13980
▁베를	-13981
▁서명	-13982
▁우거	-13983
가에서	-13984
기기의	-13985
라면서	-13986
수업을	-13987
시설이	-13988
▁개발자	-13989
▁바람을	-13990
▁손가락	-13991
▁식이다	-13992
▁제조된	-13993
▁중에도	-13994
▁차질을	-13995
▁패널에	-13996
▁8000	-13997
▁되었다고	-13998
▁설문조사	-13999
▁마이크로소프트	-14000
감의	-14001
기존	-14002
둥이	-14003
마크	-14004
받기	-14005
사관	-14006
예산	-14007
의사	-14008
측정	-14009
타를	-14010
▁88	-14011
▁CB	-14012
▁기각	-14013
▁본체	-14014
▁부평	-14015
▁상쇄	-14016
▁없었	-14017
▁절실	-14018
▁정동	-14019
▁포지	-14020
감염병	-14021
수칙을	-14022
카드를	-14023
▁가지를	-14024
▁가지며	-14025
▁고혈압	-14026
▁방향에	-14027
▁사무실	-14028
▁시행할	-14029
▁저임금	-14030
▁조치다	-14031
▁존재를	-14032
▁공정에서	-14033
▁데이터는	-14034
▁아버지의	-14035
▁차량으로	-14036
▁포인트를	-14037
▁휴대폰의	-14038
▁스트레스를	-14039
고정	-14040
로이	-14041
비전	-14042
세트	-14043
수출	-14044
숙이	-14045
연수	-14046
있고	-14047
제일	-14048
터링	-14049
▁무의	-14050
▁비닐	-14051
▁소장	-14052
▁이노	-14053
▁정성	-14054
▁치유	-14055
▁포맷	-14056
물이다	-14057
지수가	-14058
▁공기를	-14059
▁대표와	-14060
▁법원이	-14061
▁않았기	-14062
▁애플의	-14063
▁올림픽	-14064
▁이끌고	-14065
▁있느냐	-14066
▁접어들	-14067
▁조정할	-14068
▁폭넓은	-14069
▁환율이	-14070
▁들어가면	-14071
▁브랜드로	-14072
▁선언했다	-14073
▁주파수를	-14074
▁털어놨다	-14075
▁테스트를	-14076
▁최저임금이	-14077
년여	-14078
협동	-14079
▁계급	-14080
▁상을	-14081
▁스텝	-14082
▁실사	-14083
▁용의	-14084
▁지질	-14085
▁치고	-14086
라이프	-14087
속도를	-14088
▁186	-14089
▁강화에	-14090
▁내년에	-14091
▁뜻으로	-14092
▁민감한	-14093
▁성장에	-14094
▁시행된	-14095
▁인류의	-14096
▁장치와	-14097
▁차종은	-14098
▁태블릿	-14099
▁판매할	-14100
▁노동계의	-14101
▁무상으로	-14102
▁성장세를	-14103
▁소개한다	-14104
▁순식간에	-14105
▁슬라이드	-14106
▁확인하기	-14107
▁계획이라고	-14108
1'	-14109
널드	-14110
입력	-14111
▁ID	-14112
▁교정	-14113
▁김진	-14114
▁두는	-14115
▁법제	-14116
▁샌드	-14117
▁절벽	-14118
▁정원	-14119
▁집이	-14120
▁차질	-14121
기관과	-14122
기술이	-14123
문으로	-14124
판정을	-14125
▁곡으로	-14126
▁많은데	-14127
▁물체의	-14128
▁발휘할	-14129
▁시간당	-14130
▁에이치	-14131
▁조직의	-14132
▁중대한	-14133
▁중저가	-14134
▁초고속	-14135
▁패널을	-14136
▁강조한다	-14137
▁데이터에	-14138
▁방문하여	-14139
▁시행하는	-14140
▁실시했다	-14141
▁이르렀다	-14142
▁이사장은	-14143
▁정보보호	-14144
▁제한하는	-14145
▁중요성이	-14146
▁크리스마	-14147
▁토로했다	-14148
▁패키지의	-14149
▁회사에서	-14150
▁밧	-14151
닥터	-14152
헬스	-14153
후보	-14154
▁덜어	-14155
▁동향	-14156
▁동화	-14157
▁됐고	-14158
▁묻자	-14159
▁붙잡	-14160
▁비극	-14161
▁알기	-14162
▁의류	-14163
▁참조	-14164
암으로	-14165
▁것들을	-14166
▁기록이	-14167
▁센서가	-14168
▁순수한	-14169
▁안정적	-14170
▁움직일	-14171
▁은행권	-14172
▁일반인	-14173
▁자라고	-14174
▁장애가	-14175
▁접촉자	-14176
▁피하기	-14177
▁해준다	-14178
▁협력사	-14179
▁가계대출	-14180
▁거리두기	-14181
▁급증하고	-14182
▁달라진다	-14183
▁발생하여	-14184
▁보호하고	-14185
▁연말까지	-14186
▁운전자는	-14187
▁일어나고	-14188
▁장소에서	-14189
▁전자부품	-14190
▁조사에서	-14191
유플러스는	-14192
▁근본적으로	-14193
▁높아지면서	-14194
▁한국은행이	-14195
ss	-14196
기인	-14197
돈을	-14198
열에	-14199
중견	-14200
증명	-14201
창업	-14202
합을	-14203
행동	-14204
▁가압	-14205
▁강연	-14206
▁고공	-14207
▁권선	-14208
▁세트	-14209
▁열릴	-14210
▁일과	-14211
▁천재	-14212
▁파란	-14213
판으로	-14214
▁KEB	-14215
▁구축해	-14216
▁방문객	-14217
▁벤츠는	-14218
▁속한다	-14219
▁의사결	-14220
▁이슬람	-14221
▁인수를	-14222
▁조원태	-14223
▁표현한	-14224
▁확대와	-14225
상공회의	-14226
▁가족돌봄	-14227
▁대대적인	-14228
▁체결했다고	-14229
언을	-14230
종에	-14231
특히	-14232
▁9,	-14233
▁가뭄	-14234
▁골라	-14235
▁산란	-14236
▁삶에	-14237
▁열전	-14238
▁이가	-14239
▁줬다	-14240
▁펌프	-14241
▁가져다	-14242
▁감소할	-14243
▁게임에	-14244
▁결합해	-14245
▁고가의	-14246
▁누구도	-14247
▁도모할	-14248
▁선보여	-14249
▁시상식	-14250
▁않아서	-14251
▁일제히	-14252
▁자신과	-14253
▁키우고	-14254
▁행동이	-14255
▁현장이	-14256
▁활동은	-14257
▁활물질	-14258
▁가격으로	-14259
▁서울중앙	-14260
▁일어난다	-14261
▁아이들에게	-14262
▁현장체험학습을	-14263
CI	-14264
EA	-14265
▁쇄	-14266
스쿨	-14267
아직	-14268
영을	-14269
점유	-14270
쪽의	-14271
촉진	-14272
타운	-14273
▁공백	-14274
▁금방	-14275
▁금정	-14276
▁돕고	-14277
▁물과	-14278
▁박영	-14279
▁버티	-14280
▁상급	-14281
▁선명	-14282
▁소금	-14283
▁승리	-14284
▁시위	-14285
▁시켜	-14286
▁열려	-14287
▁이식	-14288
▁읽을	-14289
▁자궁	-14290
▁태도	-14291
카카오	-14292
하고도	-14293
▁고양이	-14294
▁늘어났	-14295
▁서류를	-14296
▁성장과	-14297
▁양상을	-14298
▁요소로	-14299
▁의미는	-14300
▁이상한	-14301
▁일체로	-14302
▁잃어버	-14303
▁처리가	-14304
▁콘셉트	-14305
▁특성과	-14306
▁부족으로	-14307
▁시장으로	-14308
▁안테나의	-14309
▁위치한다	-14310
▁활동으로	-14311
두로	-14312
매는	-14313
민정	-14314
보유	-14315
사각	-14316
생태	-14317
▁'5	-14318
▁규명	-14319
▁대피	-14320
▁빌린	-14321
▁수은	-14322
▁유적	-14323
▁장이	-14324
▁중점	-14325
▁화순	-14326
▁화폐	-14327
만명에	-14328
업계에	-14329
주의를	-14330
회사에	-14331
▁OCN	-14332
▁교차로	-14333
▁급증한	-14334
▁다음에	-14335
▁안에는	-14336
▁영향은	-14337
▁전자는	-14338
▁중소형	-14339
▁집값이	-14340
▁체결한	-14341
▁추진해	-14342
▁간편결제	-14343
▁공기청정	-14344
▁기점으로	-14345
▁디자인의	-14346
▁있어서의	-14347
▁전국민주	-14348
▁활동하는	-14349
▁바람직하다	-14350
담배	-14351
락에	-14352
시피	-14353
▁82	-14354
▁거다	-14355
▁고의	-14356
▁그루	-14357
▁날개	-14358
▁물은	-14359
▁생략	-14360
▁시동	-14361
▁아산	-14362
▁오면	-14363
▁원동	-14364
▁원이	-14365
▁회신	-14366
렌터카	-14367
증후군	-14368
▁BNK	-14369
▁게임은	-14370
▁국회에	-14371
▁배우고	-14372
▁이하인	-14373
▁자리한	-14374
▁특수한	-14375
되었으나	-14376
▁떨어진다	-14377
▁연방준비	-14378
▁자극한다	-14379
▁투자자의	-14380
▁이루어졌다	-14381
감사	-14382
그것	-14383
았기	-14384
임은	-14385
▁내기	-14386
▁삼척	-14387
▁앞을	-14388
▁참관	-14389
▁키폰	-14390
▁파고	-14391
▁0.5	-14392
▁감소가	-14393
▁다녀온	-14394
▁만났다	-14395
▁사건에	-14396
▁사측이	-14397
▁오르면	-14398
▁차지한	-14399
▁컨버터	-14400
▁콰트로	-14401
▁국회의원	-14402
▁드러낸다	-14403
▁만들어야	-14404
▁악영향을	-14405
▁예전에는	-14406
▁일어났다	-14407
▁줄어든다	-14408
▁파악하기	-14409
▁페스티벌	-14410
▁행정안전	-14411
▁스마트폰의	-14412
▁엘리베이터	-14413
▁쉼	-14414
계곡	-14415
바지	-14416
블랙	-14417
서리	-14418
열의	-14419
움에	-14420
일즈	-14421
학자	-14422
▁95	-14423
▁도금	-14424
▁도망	-14425
▁돌이	-14426
▁미안	-14427
▁사정	-14428
▁살균	-14429
▁식약	-14430
▁영암	-14431
▁이선	-14432
▁조화	-14433
▁준법	-14434
▁판타	-14435
다니엘	-14436
방법은	-14437
사무소	-14438
할수록	-14439
현상이	-14440
▁강화한	-14441
▁기다려	-14442
▁나라를	-14443
▁당기순	-14444
▁되기도	-14445
▁뛰어들	-14446
▁배경을	-14447
▁불린다	-14448
▁선택이	-14449
▁이용을	-14450
▁있는가	-14451
▁줄줄이	-14452
▁중이던	-14453
▁판단해	-14454
▁편의점	-14455
데이터를	-14456
▁이끌었다	-14457
▁인정하고	-14458
▁퍼포먼스	-14459
▁하나하나	-14460
▁4,000	-14461
▁결정했다고	-14462
▁일방적으로	-14463
에프	-14464
커가	-14465
특성	-14466
파일	-14467
혜택	-14468
▁73	-14469
▁곳의	-14470
▁교직	-14471
▁모를	-14472
▁모순	-14473
▁캠프	-14474
▁특집	-14475
시켜야	-14476
화했다	-14477
▁ATM	-14478
▁가파른	-14479
▁경영진	-14480
▁기억을	-14481
▁길이는	-14482
▁뒤에는	-14483
▁북쪽의	-14484
▁소비를	-14485
▁소식에	-14486
▁아들을	-14487
▁양방향	-14488
▁언론의	-14489
▁연결해	-14490
▁영역이	-14491
▁일으켜	-14492
▁자연의	-14493
▁좀처럼	-14494
▁주차장	-14495
▁투쟁을	-14496
▁판단한	-14497
▁펼쳤다	-14498
▁하다가	-14499
▁혼란을	-14500
▁확대가	-14501
▁기자간담	-14502
▁아이들은	-14503
▁전기차의	-14504
▁제안한다	-14505
▁지속되고	-14506
▁1,500	-14507
▁연속적으로	-14508
97	-14509
AC	-14510
▁널	-14511
▁퀄	-14512
겨져	-14513
단기	-14514
르다	-14515
민과	-14516
세종	-14517
스키	-14518
월을	-14519
환은	-14520
▁86	-14521
▁국한	-14522
▁익스	-14523
▁통찰	-14524
▁튼튼	-14525
▁화를	-14526
비율이	-14527
▁가급적	-14528
▁교수의	-14529
▁내리고	-14530
▁미만의	-14531
▁발행한	-14532
▁숨겨진	-14533
▁실업자	-14534
▁업무상	-14535
▁작가의	-14536
▁주위에	-14537
▁차종의	-14538
▁취지로	-14539
▁페라리	-14540
▁흘러나	-14541
▁힘들어	-14542
되더라도	-14543
시키면서	-14544
▁수석부회	-14545
▁판단하는	-14546
▁플랫폼에	-14547
▁넥센타이어	-14548
▁이루어지지	-14549
▁현대자동차가	-14550
▁족	-14551
남동	-14552
네마	-14553
드림	-14554
베르	-14555
압을	-14556
우지	-14557
원장	-14558
월이	-14559
지법	-14560
지하	-14561
카는	-14562
휴업	-14563
▁교보	-14564
▁국책	-14565
▁맞고	-14566
▁무늬	-14567
▁물려	-14568
▁밑에	-14569
▁박물	-14570
▁배급	-14571
▁배분	-14572
▁사외	-14573
▁서양	-14574
▁위법	-14575
▁유방	-14576
▁일고	-14577
▁장성	-14578
▁집어	-14579
▁털이	-14580
소상공	-14581
지역에	-14582
▁각별한	-14583
▁강하다	-14584
▁구조다	-14585
▁도입된	-14586
▁미연에	-14587
▁부르게	-14588
▁싶다는	-14589
▁안정성	-14590
▁엄격한	-14591
▁연락을	-14592
▁지급을	-14593
▁포스트	-14594
▁피드백	-14595
▁활약을	-14596
산업개발	-14597
최저임금	-14598
▁개설되어	-14599
▁겨울방학	-14600
▁기존에는	-14601
▁모아지고	-14602
▁발표하고	-14603
▁부여하는	-14604
▁비교하여	-14605
▁살펴보고	-14606
▁현실적인	-14607
▁형성되고	-14608
▁전국민주노동조합총연맹	-14609
▁녀	-14610
▁팟	-14611
니발	-14612
니의	-14613
봉산	-14614
양성	-14615
▁가창	-14616
▁대선	-14617
▁동아	-14618
▁동행	-14619
▁바뀔	-14620
▁산다	-14621
▁수축	-14622
▁애틋	-14623
▁외모	-14624
▁정숙	-14625
▁허리	-14626
▁후손	-14627
병원에	-14628
▁강의를	-14629
▁겪었다	-14630
▁결혼을	-14631
▁공정한	-14632
▁달러의	-14633
▁대표의	-14634
▁불과한	-14635
▁세계로	-14636
▁수단이	-14637
▁심의를	-14638
▁공급하고	-14639
▁극복하기	-14640
▁디자인이	-14641
▁생각하지	-14642
▁생산되는	-14643
▁소개하는	-14644
▁심각하게	-14645
▁알레르기	-14646
▁제품이다	-14647
▁읽어보시고	-14648
▁향상시키기	-14649
▁확인하였다	-14650
▁개인정보보호	-14651
▁스마트폰으로	-14652
▁어플리케이션	-14653
8,	-14654
92	-14655
▁:	-14656
성수	-14657
오를	-14658
왕이	-14659
조리	-14660
igh	-14661
▁김유	-14662
▁숙지	-14663
▁영원	-14664
▁저수	-14665
▁출품	-14666
▁층간	-14667
▁콜로	-14668
▁나타낸	-14669
▁들어선	-14670
▁부족해	-14671
▁사실에	-14672
▁있기에	-14673
▁장면은	-14674
▁접촉을	-14675
▁출시될	-14676
▁표면을	-14677
▁흘러내	-14678
블레이저	-14679
하였는데	-14680
▁급증했다	-14681
▁담당하고	-14682
▁영향력이	-14683
▁예방하기	-14684
▁제작발표	-14685
▁집중하고	-14686
▁팩시밀리	-14687
▁실시합니다	-14688
▁운전자에게	-14689
▁포털사이트	-14690
▁향상시킨다	-14691
가정	-14692
경험	-14693
모든	-14694
인간	-14695
카를	-14696
패키	-14697
IoT	-14698
▁간척	-14699
▁고군	-14700
▁늦게	-14701
▁밀도	-14702
▁버퍼	-14703
▁옵션	-14704
▁임계	-14705
▁정립	-14706
▁주춤	-14707
▁창건	-14708
▁칩의	-14709
▁태어	-14710
▁텐데	-14711
▁펄스	-14712
▁폐암	-14713
▁한미	-14714
됐으나	-14715
보증을	-14716
업체에	-14717
▁450	-14718
▁감소를	-14719
▁갖도록	-14720
▁끝나면	-14721
▁다름이	-14722
▁대응에	-14723
▁문화재	-14724
▁발달한	-14725
▁방향이	-14726
▁벤츠의	-14727
▁분야로	-14728
▁시급한	-14729
▁시민의	-14730
▁약속을	-14731
▁없었고	-14732
▁여건이	-14733
▁입구에	-14734
▁정말로	-14735
▁주요한	-14736
▁지역별	-14737
▁업계에선	-14738
▁이용되는	-14739
▁자회사인	-14740
▁학부모회	-14741
▁보건복지부	-14742
▁전화번호를	-14743
▁제공함으로써	-14744
RP	-14745
▁뿜	-14746
든다	-14747
레는	-14748
철을	-14749
항에	-14750
▁강인	-14751
▁견해	-14752
▁금토	-14753
▁내일	-14754
▁노즐	-14755
▁다듬	-14756
▁다짐	-14757
▁들지	-14758
▁마모	-14759
▁많기	-14760
▁백악	-14761
▁부식	-14762
▁억울	-14763
▁온다	-14764
▁외장	-14765
▁키울	-14766
그러나	-14767
노조가	-14768
신청을	-14769
작으로	-14770
▁공기가	-14771
▁기억이	-14772
▁만하다	-14773
▁목적에	-14774
▁서쪽은	-14775
▁소수의	-14776
▁압력이	-14777
▁이동할	-14778
▁인구의	-14779
시간으로	-14780
▁네이버가	-14781
▁발견됐다	-14782
▁비하인드	-14783
▁파업으로	-14784
▁개별적으로	-14785
▁우선적으로	-14786
▁프로그래밍	-14787
롭다	-14788
여자	-14789
오라	-14790
처벌	-14791
▁계정	-14792
▁길은	-14793
▁날을	-14794
▁네가	-14795
▁대원	-14796
▁등하	-14797
▁살기	-14798
▁열정	-14799
▁제너	-14800
▁중징	-14801
▁충당	-14802
▁한지	-14803
속으로	-14804
전문가	-14805
▁ENM	-14806
▁대신에	-14807
▁무리가	-14808
▁문제도	-14809
▁부진한	-14810
▁선정해	-14811
▁아이오	-14812
▁얼어붙	-14813
▁연계해	-14814
▁오동작	-14815
▁오르고	-14816
▁은행에	-14817
▁지정한	-14818
▁총파업	-14819
▁펀드의	-14820
왔습니다	-14821
지역에서	-14822
▁그러니까	-14823
▁배기가스	-14824
▁부분에서	-14825
▁않더라도	-14826
▁않으므로	-14827
▁여기에서	-14828
▁판매량을	-14829
▁호소했다	-14830
▁업무협약을	-14831
라를	-14832
밀도	-14833
배당	-14834
주일	-14835
팀을	-14836
포럼	-14837
▁갑질	-14838
▁거둔	-14839
▁두꺼	-14840
▁말뚝	-14841
▁비수	-14842
▁빈곤	-14843
▁신예	-14844
▁에프	-14845
▁우호	-14846
▁포도	-14847
▁헤어	-14848
▁1.6	-14849
▁가로막	-14850
▁간담회	-14851
▁고정된	-14852
▁구글의	-14853
▁내장된	-14854
▁노조원	-14855
▁다리가	-14856
▁뜻하는	-14857
▁라인을	-14858
▁렉스턴	-14859
▁마련을	-14860
▁바뀌는	-14861
▁방식과	-14862
▁시선이	-14863
▁이렇다	-14864
▁일대는	-14865
▁전자빔	-14866
▁제네바	-14867
▁주제를	-14868
▁처분을	-14869
다이오드	-14870
만원이다	-14871
텔레콤은	-14872
▁리스크가	-14873
▁모양새다	-14874
▁발표하는	-14875
▁지나면서	-14876
트랜지스터	-14877
▁알려지면서	-14878
▁꽂	-14879
▁으	-14880
곡리	-14881
놀로	-14882
맥을	-14883
불을	-14884
슨은	-14885
예금	-14886
요소	-14887
우면	-14888
이야	-14889
조립	-14890
▁76	-14891
▁CI	-14892
▁고기	-14893
▁대칭	-14894
▁마시	-14895
▁마일	-14896
▁만났	-14897
▁보육	-14898
▁수월	-14899
▁짧게	-14900
▁폭증	-14901
기업과	-14902
시대에	-14903
전으로	-14904
▁건물을	-14905
▁것인데	-14906
▁공간과	-14907
▁교육은	-14908
▁나라가	-14909
▁돕는다	-14910
▁두려워	-14911
▁라이선	-14912
▁만남을	-14913
▁서둘러	-14914
▁이것에	-14915
되었다는	-14916
자율주행	-14917
▁간격으로	-14918
▁느껴진다	-14919
▁대우조선	-14920
▁메커니즘	-14921
▁미니앨범	-14922
▁보조금을	-14923
▁사망했다	-14924
▁유발하는	-14925
▁인프라를	-14926
▁점유율이	-14927
▁차지한다	-14928
▁확정했다	-14929
▁시스템이다	-14930
▁정기적으로	-14931
▁플랫폼으로	-14932
▁샀	-14933
▁줬	-14934
내야	-14935
사리	-14936
새가	-14937
토를	-14938
▁거칠	-14939
▁계류	-14940
▁그걸	-14941
▁기뻐	-14942
▁브이	-14943
▁신성	-14944
▁유한	-14945
▁잠을	-14946
▁좀더	-14947
▁지름	-14948
▁청풍	-14949
▁키코	-14950
▁탈락	-14951
교실을	-14952
년만에	-14953
대책을	-14954
병원을	-14955
▁3.0	-14956
▁가난한	-14957
▁건수가	-14958
▁다이아	-14959
▁담보로	-14960
▁메리츠	-14961
▁완만한	-14962
▁원으로	-14963
▁전쟁이	-14964
▁주변을	-14965
▁진동을	-14966
▁최우선	-14967
▁품질이	-14968
▁행동에	-14969
적으로도	-14970
▁개인적인	-14971
▁도입했다	-14972
▁발생했을	-14973
▁서울시가	-14974
▁스쿨뱅킹	-14975
▁압도적인	-14976
▁어울리는	-14977
▁연계하여	-14978
▁연구하는	-14979
▁자원봉사	-14980
▁전달되는	-14981
▁커넥터를	-14982
▁핵심협약	-14983
▁쌍용자동차	-14984
PP	-14985
▁꽉	-14986
상생	-14987
저수	-14988
점인	-14989
▁과수	-14990
▁단절	-14991
▁듯이	-14992
▁말과	-14993
▁모하	-14994
▁않자	-14995
▁용융	-14996
▁이념	-14997
▁지칭	-14998
▁하단	-14999
▁학사	-15000
▁구입할	-15001
▁떠났다	-15002
▁밀도가	-15003
▁심하게	-15004
▁쓰인다	-15005
▁제안을	-15006
▁경고했다	-15007
▁돌아오는	-15008
▁생산라인	-15009
▁아버지는	-15010
▁유럽연합	-15011
▁정도였다	-15012
▁지역에는	-15013
▁컴퓨터가	-15014
▁갤럭시노트	-15015
▁시작하면서	-15016
▁타워크레인	-15017
FM	-15018
ip	-15019
너는	-15020
리자	-15021
배로	-15022
즈음	-15023
토크	-15024
특정	-15025
피아	-15026
▁깎아	-15027
▁등극	-15028
▁서킷	-15029
▁시술	-15030
▁월간	-15031
▁인명	-15032
▁자부	-15033
▁출생	-15034
▁침수	-15035
▁파기	-15036
▁하차	-15037
군으로	-15038
시키면	-15039
▁냉장고	-15040
▁병원이	-15041
▁성과급	-15042
▁성장률	-15043
▁아직은	-15044
▁이르러	-15045
▁일정이	-15046
▁중이며	-15047
▁확산이	-15048
▁후보자	-15049
▁오랜만에	-15050
▁있어서는	-15051
▁컨셉트카	-15052
▁확대됐다	-15053
CB	-15054
PU	-15055
~6	-15056
▁싹	-15057
▁탭	-15058
랭크	-15059
▁급변	-15060
▁달이	-15061
▁부대	-15062
▁북극	-15063
▁서술	-15064
▁심해	-15065
▁언젠	-15066
▁완충	-15067
▁챌린	-15068
▁하반	-15069
▁힐링	-15070
교육과	-15071
웨이가	-15072
▁과감한	-15073
▁대상의	-15074
▁방대한	-15075
▁산업용	-15076
▁상부에	-15077
▁스테이	-15078
▁앞장서	-15079
▁여부는	-15080
▁우주의	-15081
▁일용직	-15082
▁제작할	-15083
▁존재할	-15084
▁주인이	-15085
협동조합	-15086
▁개정안은	-15087
▁벌써부터	-15088
▁손해보험	-15089
▁신청하면	-15090
▁이날부터	-15091
▁이전에는	-15092
▁피해자가	-15093
▁휴대폰을	-15094
▁네트워크에	-15095
▁때문이라는	-15096
▁만들어졌다	-15097
▁구체적으로는	-15098
46	-15099
78	-15100
값은	-15101
문과	-15102
소매	-15103
소스	-15104
스톱	-15105
파업	-15106
▁갈색	-15107
▁개량	-15108
▁근절	-15109
▁꿈과	-15110
▁내재	-15111
▁다해	-15112
▁밖의	-15113
▁보드	-15114
▁불만	-15115
▁수산	-15116
▁숨을	-15117
▁승소	-15118
▁위안	-15119
▁정면	-15120
▁통지	-15121
▁퇴근	-15122
▁해저	-15123
▁후방	-15124
소리가	-15125
조건을	-15126
▁검토할	-15127
▁그다지	-15128
▁받도록	-15129
▁알뜰폰	-15130
▁언제든	-15131
▁엄마가	-15132
▁적용한다	-15133
▁전자제품	-15134
▁파워트레	-15135
▁고객들에게	-15136
▁기획재정부	-15137
▁노동조합이	-15138
MB	-15139
광이	-15140
드릴	-15141
미니	-15142
사다	-15143
▁개장	-15144
▁계측	-15145
▁권위	-15146
▁그해	-15147
▁김준	-15148
▁나눴	-15149
▁모뎀	-15150
▁모방	-15151
▁무분	-15152
▁세입	-15153
▁연못	-15154
▁원에	-15155
▁응시	-15156
공장의	-15157
세포가	-15158
스토어	-15159
심리가	-15160
전자의	-15161
▁가지게	-15162
▁개선과	-15163
▁경제성	-15164
▁구성해	-15165
▁당뇨병	-15166
▁동력을	-15167
▁마을과	-15168
▁명칭이	-15169
▁법원의	-15170
▁안전에	-15171
▁없으나	-15172
▁은행과	-15173
▁일본차	-15174
▁자격을	-15175
▁제작해	-15176
▁중국을	-15177
▁하기도	-15178
▁학교와	-15179
▁합의가	-15180
▁화면이	-15181
폭스바겐	-15182
▁이야기다	-15183
▁작동하는	-15184
▁주문했다	-15185
▁중앙방역대책본부는	-15186
EU	-15187
부하	-15188
왕의	-15189
음식	-15190
자격	-15191
텍은	-15192
판은	-15193
▁"3	-15194
▁겹쳐	-15195
▁구청	-15196
▁넘지	-15197
▁달할	-15198
▁무죄	-15199
▁습득	-15200
검진을	-15201
산업은	-15202
▁각국의	-15203
▁방안에	-15204
▁분석에	-15205
▁수차례	-15206
▁스파이	-15207
▁여기는	-15208
▁원자의	-15209
▁적외선	-15210
▁파장이	-15211
▁화상을	-15212
▁대법원은	-15213
▁분쟁조정	-15214
▁주변에서	-15215
▁지배구조	-15216
▁만들어지는	-15217
▁반도체장치	-15218
▁이유에서다	-15219
▁확진환자가	-15220
▁반도체장치의	-15221
CS	-15222
균이	-15223
대체	-15224
러리	-15225
수행	-15226
압이	-15227
일보	-15228
ine	-15229
▁김대	-15230
▁맛이	-15231
▁모닝	-15232
▁밥을	-15233
▁수려	-15234
▁원화	-15235
▁유령	-15236
▁유아	-15237
▁주인	-15238
▁지대	-15239
▁팀을	-15240
기업을	-15241
성이나	-15242
인력을	-15243
▁220	-15244
▁구글은	-15245
▁동아리	-15246
▁되돌아	-15247
▁박사는	-15248
▁안전과	-15249
▁여부와	-15250
▁우라늄	-15251
▁이곳을	-15252
▁자체에	-15253
▁장비의	-15254
▁중대형	-15255
▁항목을	-15256
기아차의	-15257
▁1987	-15258
▁모아진다	-15259
▁부족하다	-15260
▁시가총액	-15261
▁창의적인	-15262
▁프로듀서	-15263
▁네트워크의	-15264
▁체계적으로	-15265
▁정보통신기술	-15266
▁르노삼성자동차	-15267
TR	-15268
▁롱	-15269
▁싣	-15270
람회	-15271
셀러	-15272
저널	-15273
▁SF	-15274
▁높을	-15275
▁눈치	-15276
▁당산	-15277
권으로	-15278
지로버	-15279
▁GDP	-15280
▁나무를	-15281
▁도덕적	-15282
▁보다는	-15283
▁연세대	-15284
▁정하는	-15285
▁제도적	-15286
▁제작을	-15287
▁타격이	-15288
▁1991	-15289
▁감염자가	-15290
▁강화하기	-15291
▁개최했다	-15292
▁결정한다	-15293
▁광범위한	-15294
▁교육부가	-15295
▁리튬이온	-15296
▁위치하여	-15297
▁입력되는	-15298
▁케이블을	-15299
▁한국도로	-15300
▁해소하기	-15301
-2	-15302
물류	-15303
전과	-15304
파견	-15305
플랜	-15306
▁골든	-15307
▁기독	-15308
▁김씨	-15309
▁불합	-15310
▁성실	-15311
▁써서	-15312
▁이끈	-15313
▁이더	-15314
▁잠깐	-15315
▁초에	-15316
▁최다	-15317
▁침식	-15318
▁캠핑	-15319
치료를	-15320
▁강세를	-15321
▁공사를	-15322
▁모델과	-15323
▁발생된	-15324
▁번째는	-15325
▁사고의	-15326
▁운동이	-15327
▁전쟁을	-15328
▁파악해	-15329
▁표정을	-15330
▁허가를	-15331
▁협상이	-15332
▁확대로	-15333
▁IPTV	-15334
▁계획하고	-15335
▁다양하다	-15336
▁무엇일지	-15337
▁성장했다	-15338
▁쇼케이스	-15339
▁아파트를	-15340
▁영역으로	-15341
▁의거하여	-15342
▁일이었다	-15343
▁전원공급	-15344
▁주민들은	-15345
▁주민등록	-15346
▁통화정책	-15347
▁비정규직의	-15348
▁수소전기차	-15349
▁최종적으로	-15350
랑이	-15351
우를	-15352
인상	-15353
입찰	-15354
▁Al	-15355
▁PB	-15356
▁격벽	-15357
▁네덜	-15358
▁라우	-15359
▁마힌	-15360
▁보살	-15361
▁부호	-15362
▁안다	-15363
▁안락	-15364
▁원유	-15365
▁인종	-15366
▁장학	-15367
▁점진	-15368
▁제니	-15369
▁조국	-15370
▁죽을	-15371
▁지낸	-15372
▁플립	-15373
공무원	-15374
린다는	-15375
상황을	-15376
신호에	-15377
▁고강도	-15378
▁길이를	-15379
▁동쪽은	-15380
▁맞물려	-15381
▁무기한	-15382
▁무리한	-15383
▁발전과	-15384
▁베를린	-15385
▁살았다	-15386
▁스파크	-15387
▁신고를	-15388
▁영화제	-15389
▁이스타	-15390
▁있기를	-15391
▁자료가	-15392
▁자발적	-15393
▁전송할	-15394
▁차종이	-15395
▁최근의	-15396
▁통신망	-15397
▁건강하게	-15398
▁공개하고	-15399
▁떠올랐다	-15400
▁안테나에	-15401
▁유지했다	-15402
▁이온주입	-15403
▁전라남도	-15404
▁주어진다	-15405
▁치명적인	-15406
▁예정이라고	-15407
▁땐	-15408
님께	-15409
루는	-15410
본은	-15411
장도	-15412
추어	-15413
패를	-15414
▁HD	-15415
▁감탄	-15416
▁거북	-15417
▁광양	-15418
▁남는	-15419
▁땅에	-15420
▁매진	-15421
▁뭔가	-15422
▁부터	-15423
▁사료	-15424
▁출간	-15425
▁팽팽	-15426
금액이	-15427
마저도	-15428
부재를	-15429
오면서	-15430
▁NHN	-15431
▁결정된	-15432
▁넉넉한	-15433
▁발표를	-15434
▁부득이	-15435
▁사생활	-15436
▁외에는	-15437
▁음식점	-15438
▁접하고	-15439
▁제치고	-15440
▁지켜보	-15441
▁통증이	-15442
▁표면의	-15443
▁향상에	-15444
▁환경부	-15445
▁경제적인	-15446
▁기울이고	-15447
▁설치하는	-15448
▁자신들이	-15449
9,	-15450
▁갭	-15451
강과	-15452
교대	-15453
나이	-15454
물인	-15455
변이	-15456
작은	-15457
▁끝날	-15458
▁넓어	-15459
▁다툼	-15460
▁때와	-15461
▁레저	-15462
▁명에	-15463
▁반가	-15464
▁방통	-15465
▁블룸	-15466
▁뽑아	-15467
▁손꼽	-15468
▁아저	-15469
▁앓고	-15470
▁재벌	-15471
▁철수	-15472
▁풍요	-15473
기관을	-15474
브로드	-15475
성에서	-15476
전력을	-15477
제도가	-15478
프로듀	-15479
▁1·2	-15480
▁가스를	-15481
▁개선될	-15482
▁공개할	-15483
▁꼼꼼히	-15484
▁동서로	-15485
▁리더십	-15486
▁모듈에	-15487
▁목소리	-15488
▁미성년	-15489
▁배우의	-15490
▁비밀을	-15491
▁생산과	-15492
▁역할은	-15493
▁연예인	-15494
▁있다가	-15495
▁했으며	-15496
▁행보를	-15497
기업으로	-15498
▁개념으로	-15499
▁결정적인	-15500
▁달성하기	-15501
▁드라마를	-15502
▁소송에서	-15503
▁이용된다	-15504
▁주목하고	-15505
▁콘크리트	-15506
▁한가운데	-15507
▁해명했다	-15508
▁소비자들은	-15509
▁이루어지도록	-15510
담한	-15511
안내	-15512
표가	-15513
플래	-15514
▁걸음	-15515
▁견디	-15516
▁부자	-15517
▁사립	-15518
▁심상	-15519
▁양지	-15520
▁윤리	-15521
▁좁아	-15522
▁코믹	-15523
▁클리	-15524
▁타는	-15525
▁특고	-15526
▁흔적	-15527
동백꽃	-15528
봅니다	-15529
지난해	-15530
해수욕	-15531
▁GPS	-15532
▁MBN	-15533
▁결제가	-15534
▁계속될	-15535
▁광주형	-15536
▁기록해	-15537
▁요청을	-15538
▁임금체	-15539
▁입자의	-15540
▁차가운	-15541
▁통하는	-15542
▁필요는	-15543
▁간단하고	-15544
▁구매하는	-15545
▁드리고자	-15546
▁벌어지고	-15547
▁서비스업	-15548
▁연구결과	-15549
▁직원들을	-15550
▁수소연료전지	-15551
▁트랜지스터를	-15552
노래	-15553
대기	-15554
들여	-15555
리던	-15556
변의	-15557
안과	-15558
원자	-15559
전드	-15560
주인	-15561
▁공직	-15562
▁든든	-15563
▁소매	-15564
▁심어	-15565
▁안겨	-15566
▁앞뒤	-15567
▁원내	-15568
▁유대	-15569
▁정자	-15570
▁철거	-15571
됐는데	-15572
전극의	-15573
▁남쪽의	-15574
▁대비한	-15575
▁리서치	-15576
▁매각을	-15577
▁부인이	-15578
▁수요에	-15579
▁수율을	-15580
▁어셈블	-15581
▁이메일	-15582
손해보험	-15583
▁관광객이	-15584
▁다양하고	-15585
▁우려되는	-15586
▁인정했다	-15587
▁잠정합의	-15588
▁전달한다	-15589
▁반도체소자의	-15590
▁파생결합펀드	-15591
82	-15592
기슭	-15593
냐고	-15594
단자	-15595
사도	-15596
운행	-15597
▁83	-15598
▁개개	-15599
▁더한	-15600
▁덩어	-15601
▁복리	-15602
▁유혹	-15603
▁일곱	-15604
▁자진	-15605
▁키움	-15606
▁토끼	-15607
▁화질	-15608
나가는	-15609
터에서	-15610
▁개정을	-15611
▁고객과	-15612
▁국산차	-15613
▁급성장	-15614
▁기반한	-15615
▁남자가	-15616
▁무게가	-15617
▁부진이	-15618
▁불거진	-15619
▁비전을	-15620
▁생성된	-15621
▁소형화	-15622
▁아닐까	-15623
▁영구자	-15624
▁옆으로	-15625
▁이재용	-15626
▁입장에	-15627
▁지었다	-15628
▁컴팩트	-15629
▁통계를	-15630
▁행위는	-15631
널리스트	-15632
▁개정안을	-15633
▁결정된다	-15634
▁상징하는	-15635
▁역학조사	-15636
▁오프로드	-15637
▁펼쳐지는	-15638
▁프로모션을	-15639
▁우리나라에서	-15640
▁탔	-15641
가공	-15642
감지	-15643
기며	-15644
동향	-15645
렌즈	-15646
유치	-15647
현과	-15648
회관	-15649
▁개를	-15650
▁검정	-15651
▁결심	-15652
▁계승	-15653
▁남양	-15654
▁노벨	-15655
▁농도	-15656
▁뉴턴	-15657
▁마비	-15658
▁시티	-15659
▁어딘	-15660
▁역전	-15661
▁윌리	-15662
▁있겠	-15663
▁재차	-15664
▁전일	-15665
▁전직	-15666
▁지는	-15667
▁착공	-15668
▁펼친	-15669
▁폭탄	-15670
▁IBK	-15671
▁검진을	-15672
▁경계가	-15673
▁구간을	-15674
▁구매한	-15675
▁구멍이	-15676
▁구조와	-15677
▁모이는	-15678
▁변경을	-15679
▁부품이	-15680
▁사연이	-15681
▁애정을	-15682
▁이르고	-15683
▁제어를	-15684
▁프레스	-15685
▁회전자	-15686
▁목소리로	-15687
▁복수개의	-15688
▁사전계약	-15689
▁조사하고	-15690
▁지식재산	-15691
▁활용하면	-15692
▁가정에서는	-15693
▁스마트폰에	-15694
▁확인되었다	-15695
IV	-15696
▁띈	-15697
목에	-15698
예약	-15699
오의	-15700
온도	-15701
정치	-15702
짐이	-15703
채용	-15704
테이	-15705
▁검체	-15706
▁넘은	-15707
▁당당	-15708
▁밀양	-15709
▁산간	-15710
▁위임	-15711
▁출동	-15712
▁취할	-15713
▁표방	-15714
다니는	-15715
루라이	-15716
만대로	-15717
졌는데	-15718
하게도	-15719
호흡기	-15720
▁건물이	-15721
▁그들을	-15722
▁기능에	-15723
▁대내외	-15724
▁드러낸	-15725
▁못지않	-15726
▁본교의	-15727
▁인하를	-15728
▁전망을	-15729
▁제한을	-15730
▁체제를	-15731
▁패턴이	-15732
▁회사와	-15733
▁매력으로	-15734
▁브랜드는	-15735
▁사업주가	-15736
▁요금수납	-15737
▁2019'	-15738
55	-15739
In	-15740
▁뚝	-15741
강은	-15742
담이	-15743
론적	-15744
분은	-15745
행복	-15746
▁간략	-15747
▁불평	-15748
▁숙련	-15749
▁순서	-15750
▁신발	-15751
▁신화	-15752
▁악플	-15753
▁프론	-15754
가들이	-15755
군에서	-15756
그먼트	-15757
지이다	-15758
효율이	-15759
▁경험한	-15760
▁고집적	-15761
▁구매를	-15762
▁국무총	-15763
▁내외의	-15764
▁농도가	-15765
▁달리고	-15766
▁떠나는	-15767
▁생기고	-15768
▁생방송	-15769
▁설립을	-15770
▁성질이	-15771
▁의문을	-15772
▁정책과	-15773
▁중심을	-15774
▁클래식	-15775
▁통화를	-15776
▁특화된	-15777
▁행하는	-15778
▁강다니엘	-15779
▁건강하고	-15780
▁국토부는	-15781
▁만들어낸	-15782
▁비슷하다	-15783
▁오픈뱅킹	-15784
▁유리하다	-15785
▁제공하며	-15786
▁주의해야	-15787
▁캐릭터의	-15788
▁확진자와	-15789
OU	-15790
if	-15791
th	-15792
▁숏	-15793
갑질	-15794
두가	-15795
속의	-15796
식당	-15797
증과	-15798
▁MP	-15799
▁누워	-15800
▁미스	-15801
▁뷰티	-15802
▁상무	-15803
▁습관	-15804
▁약화	-15805
▁열화	-15806
▁위촉	-15807
▁이력	-15808
▁중산	-15809
▁직결	-15810
▁친화	-15811
▁톡톡	-15812
▁폭의	-15813
▁항만	-15814
▁흡입	-15815
국장은	-15816
기관인	-15817
증권은	-15818
AIST	-15819
▁가처분	-15820
▁개봉을	-15821
▁구간이	-15822
▁먹으면	-15823
▁완성된	-15824
▁요구할	-15825
▁위상을	-15826
▁저비용	-15827
▁존재가	-15828
▁중점을	-15829
▁지식과	-15830
▁참가해	-15831
▁판매대	-15832
▁평가할	-15833
▁확정된	-15834
▁강조하고	-15835
▁공개하며	-15836
▁금감원이	-15837
▁분포하는	-15838
▁사람으로	-15839
▁의심되는	-15840
▁하락세를	-15841
▁무엇보다도	-15842
▁중요합니다	-15843
▁프레젠테이션	-15844
76	-15845
▁쿼	-15846
내용	-15847
낸셜	-15848
데믹	-15849
분류	-15850
작을	-15851
중은	-15852
타이	-15853
탄소	-15854
▁"5	-15855
▁개관	-15856
▁고찰	-15857
▁때만	-15858
▁몰고	-15859
▁분비	-15860
▁시인	-15861
▁쌓은	-15862
▁이준	-15863
▁진천	-15864
▁토요	-15865
개월이	-15866
사이클	-15867
자마자	-15868
조원에	-15869
주의적	-15870
하였던	-15871
하지도	-15872
▁거쳐야	-15873
▁다르지	-15874
▁마음의	-15875
▁만나게	-15876
▁물품을	-15877
▁선물을	-15878
▁설정할	-15879
▁알았다	-15880
▁엔진에	-15881
▁웃음이	-15882
▁이상은	-15883
▁절반을	-15884
▁계속되고	-15885
▁나머지는	-15886
▁받아들일	-15887
▁전화기의	-15888
▁지급하고	-15889
▁초기에는	-15890
▁컴퓨터의	-15891
▁텔레그램	-15892
▁현상이다	-15893
▁크로스오버	-15894
교와	-15895
번이	-15896
유로	-15897
율과	-15898
▁in	-15899
▁감기	-15900
▁고립	-15901
▁곳도	-15902
▁내열	-15903
▁모금	-15904
▁법이	-15905
▁병을	-15906
▁분수	-15907
▁불황	-15908
▁아크	-15909
▁어릴	-15910
▁음반	-15911
▁장의	-15912
▁조향	-15913
▁쪽에	-15914
▁착탈	-15915
▁해방	-15916
과장은	-15917
년간의	-15918
커머스	-15919
표시기	-15920
하이머	-15921
....	-15922
▁3·4	-15923
▁감염을	-15924
▁같다는	-15925
▁기록할	-15926
▁넘었다	-15927
▁부모의	-15928
▁요청한	-15929
▁위치와	-15930
▁이동을	-15931
▁일요일	-15932
▁전시회	-15933
▁증가와	-15934
▁지방의	-15935
▁초부터	-15936
▁크기에	-15937
▁필터를	-15938
▁행위에	-15939
▁1988	-15940
▁사람들도	-15941
▁실시예에	-15942
▁접근성이	-15943
▁금융위원회	-15944
▁자유한국당	-15945
LA	-15946
ck	-15947
ra	-15948
노사	-15949
더의	-15950
링이	-15951
보사	-15952
소독	-15953
신과	-15954
전원	-15955
차선	-15956
페라	-15957
▁각광	-15958
▁꼬집	-15959
▁다공	-15960
▁대주	-15961
▁래퍼	-15962
▁배양	-15963
▁배운	-15964
▁뱅킹	-15965
▁번식	-15966
▁비자	-15967
▁실망	-15968
▁어댑	-15969
▁오락	-15970
▁용기	-15971
▁지났	-15972
▁지인	-15973
▁출하	-15974
▁표출	-15975
▁헤지	-15976
상거래	-15977
으려고	-15978
일에도	-15979
트로닉	-15980
▁결함이	-15981
▁골짜기	-15982
▁기준은	-15983
▁두께가	-15984
▁무사히	-15985
▁산기슭	-15986
▁설명한	-15987
▁성명을	-15988
▁없어도	-15989
▁오로지	-15990
▁우선순	-15991
▁원활히	-15992
▁임의의	-15993
▁재료로	-15994
▁찾아온	-15995
▁통과한	-15996
▁향상과	-15997
▁기후변화	-15998
▁마련하는	-15999
▁블룸버그	-16000
▁심사위원	-16001
▁이야기에	-16002
▁출시한다	-16003
▁표정으로	-16004
▁레인지로버	-16005
▁시작되었다	-16006
▁안방극장에	-16007
86	-16008
끄럽	-16009
리버	-16010
만히	-16011
매의	-16012
분해	-16013
지사	-16014
창출	-16015
▁LA	-16016
▁권한	-16017
▁끄는	-16018
▁에지	-16019
▁온몸	-16020
▁이게	-16021
▁한데	-16022
는다는	-16023
상태가	-16024
증으로	-16025
했음을	-16026
회사는	-16027
▁날씨가	-16028
▁다하고	-16029
▁대화가	-16030
▁데리고	-16031
▁마이너	-16032
▁벗어난	-16033
▁분명한	-16034
▁비하면	-16035
▁산화물	-16036
▁원자로	-16037
▁전자를	-16038
▁제시할	-16039
▁제약이	-16040
▁창의적	-16041
▁화제다	-16042
▁효과도	-16043
▁기아차가	-16044
▁달성했다	-16045
▁돌아가는	-16046
▁반박했다	-16047
▁상당수가	-16048
▁알려지지	-16049
▁이미지와	-16050
▁작용했다	-16051
▁장점이다	-16052
▁저수지가	-16053
▁전달하고	-16054
▁제거하여	-16055
▁증가시킬	-16056
▁활성화에	-16057
▁광범위하게	-16058
▁실시한다고	-16059
!'	-16060
pp	-16061
강사	-16062
렉트	-16063
배선	-16064
암의	-16065
창의	-16066
트륨	-16067
ate	-16068
▁71	-16069
▁개조	-16070
▁내실	-16071
▁데려	-16072
▁로마	-16073
▁발효	-16074
▁백종	-16075
▁복제	-16076
▁실어	-16077
▁에러	-16078
▁초저	-16079
▁크로	-16080
▁틈새	-16081
▁피복	-16082
▁행할	-16083
▁가정을	-16084
▁가치는	-16085
▁변화로	-16086
▁사유로	-16087
▁성분을	-16088
▁수출입	-16089
▁알코올	-16090
▁압수수	-16091
▁인정한	-16092
▁제휴를	-16093
▁주도한	-16094
▁주체가	-16095
▁준비해	-16096
▁지난다	-16097
▁최상위	-16098
▁합의에	-16099
▁방문하는	-16100
▁분석됐다	-16101
▁아래에는	-16102
▁업계에서	-16103
▁이어지며	-16104
▁이용해서	-16105
▁궁극적으로	-16106
▁발생시키는	-16107
▁출시한다고	-16108
4'	-16109
bp	-16110
id	-16111
um	-16112
▁갤	-16113
막과	-16114
받게	-16115
봉은	-16116
센트	-16117
액에	-16118
연애	-16119
체적	-16120
▁CO	-16121
▁길러	-16122
▁법조	-16123
▁보닛	-16124
▁분실	-16125
▁상단	-16126
▁일로	-16127
▁하얀	-16128
▁호환	-16129
개사가	-16130
경으로	-16131
우리는	-16132
지로서	-16133
▁걸린다	-16134
▁그룹이	-16135
▁그치지	-16136
▁바다를	-16137
▁설치해	-16138
▁수당을	-16139
▁수용할	-16140
▁여성을	-16141
▁운영해	-16142
▁정하고	-16143
▁차이로	-16144
▁채권을	-16145
▁쾌적한	-16146
▁한정된	-16147
▁화면의	-16148
▁활동과	-16149
▁힘으로	-16150
시스템은	-16151
장에서는	-16152
▁기록하는	-16153
▁노동자와	-16154
▁마련되어	-16155
▁많습니다	-16156
▁모르겠다	-16157
▁사용했다	-16158
▁사회보험	-16159
▁인식하는	-16160
▁전문성을	-16161
▁활동하고	-16162
▁독립적으로	-16163
▁스타트업이	-16164
▁페이스북이	-16165
▁인스타그램에	-16166
날이	-16167
부부	-16168
정도	-16169
천면	-16170
취약	-16171
하루	-16172
해결	-16173
▁거시	-16174
▁국고	-16175
▁남을	-16176
▁내걸	-16177
▁막내	-16178
▁몰딩	-16179
▁범용	-16180
▁비틀	-16181
▁스택	-16182
▁아낌	-16183
▁아람	-16184
▁어쨌	-16185
▁여는	-16186
▁이경	-16187
▁인민	-16188
▁자는	-16189
▁전폭	-16190
▁청각	-16191
▁카테	-16192
▁휘도	-16193
겠어요	-16194
공학과	-16195
관리가	-16196
리라는	-16197
문제를	-16198
질환이	-16199
청에서	-16200
▁것임을	-16201
▁곡이다	-16202
▁구성할	-16203
▁기회로	-16204
▁노력할	-16205
▁노조를	-16206
▁단위의	-16207
▁도널드	-16208
▁시작을	-16209
▁시점을	-16210
▁아니며	-16211
▁없거나	-16212
▁입자가	-16213
▁입지를	-16214
▁전략은	-16215
▁지나며	-16216
▁차량과	-16217
▁처벌을	-16218
▁초대형	-16219
되었음을	-16220
플레이션	-16221
▁느티나무	-16222
▁드러내는	-16223
▁반발하고	-16224
▁발생하기	-16225
▁업무협약	-16226
▁예로부터	-16227
▁인물이다	-16228
업계에서는	-16229
▁경제사회노동위원회	-16230
건전	-16231
구간	-16232
량도	-16233
롭지	-16234
모의	-16235
스달	-16236
율의	-16237
저장	-16238
전담	-16239
▁덕에	-16240
▁독거	-16241
▁뒷좌	-16242
▁셀룰	-16243
▁실종	-16244
▁운항	-16245
▁인과	-16246
▁적도	-16247
▁정례	-16248
▁정형	-16249
▁첨부	-16250
▁트윈	-16251
▁횡단	-16252
사고가	-16253
연으로	-16254
전에서	-16255
행사를	-16256
▁KTX	-16257
▁개발도	-16258
▁광대역	-16259
▁규모에	-16260
▁말아야	-16261
▁미친다	-16262
▁벌어질	-16263
▁보장을	-16264
▁불규칙	-16265
▁시간대	-16266
▁언어를	-16267
▁여유가	-16268
▁역할에	-16269
▁인재를	-16270
▁임대료	-16271
▁중단된	-16272
▁페이지	-16273
▁펼쳐진	-16274
▁확인을	-16275
▁휴식을	-16276
▁개인투자	-16277
▁보고서에	-16278
▁불안감이	-16279
▁사업장에	-16280
▁장기적인	-16281
▁주최하고	-16282
▁지속가능	-16283
▁과학자들은	-16284
▁사용함으로써	-16285
▁포토레지스트	-16286
▁한국투자증권	-16287
엔터테인먼트는	-16288
기부	-16289
난이	-16290
스텐	-16291
체제	-16292
출산	-16293
▁96	-16294
▁건네	-16295
▁계단	-16296
▁매번	-16297
▁멘토	-16298
▁면세	-16299
▁멸종	-16300
▁성황	-16301
▁양보	-16302
▁역은	-16303
▁와인	-16304
▁지갑	-16305
▁항의	-16306
근무를	-16307
대까지	-16308
사항이	-16309
해달라	-16310
▁과거와	-16311
▁근무를	-16312
▁근처에	-16313
▁내려온	-16314
▁눈물이	-16315
▁등장할	-16316
▁시각이	-16317
▁시각적	-16318
▁이내로	-16319
▁정책은	-16320
▁조절이	-16321
▁좋다고	-16322
▁감소시켜	-16323
▁권고했다	-16324
▁소개하고	-16325
▁안타까운	-16326
▁확진자의	-16327
미스터트롯	-16328
▁시작하였다	-16329
IM	-16330
개와	-16331
리나	-16332
빨리	-16333
설에	-16334
실습	-16335
철의	-16336
▁공주	-16337
▁극우	-16338
▁로보	-16339
▁몰라	-16340
▁섬진	-16341
▁외의	-16342
▁장동	-16343
▁중재	-16344
▁진흥	-16345
▁탄산	-16346
▁터뜨	-16347
▁폐업	-16348
▁필연	-16349
▁한두	-16350
▁형국	-16351
소리를	-16352
스토랑	-16353
인프라	-16354
▁검은색	-16355
▁경쟁에	-16356
▁관객이	-16357
▁규제에	-16358
▁그래핀	-16359
▁단단한	-16360
▁바꾸어	-16361
▁사항이	-16362
▁생기지	-16363
▁인류가	-16364
▁임금은	-16365
▁전국에	-16366
▁주장도	-16367
▁진행을	-16368
▁콘덴서	-16369
▁특이한	-16370
▁한반도	-16371
▁화재가	-16372
▁후베이	-16373
▁경제활동	-16374
▁국가에서	-16375
▁발견하고	-16376
▁보험금을	-16377
▁블루투스	-16378
▁오케스트	-16379
▁중앙은행	-16380
▁하겠다는	-16381
▁한국영화	-16382
명령	-16383
미네	-16384
분투	-16385
수화	-16386
시오	-16387
으려	-16388
챔피	-16389
처로	-16390
▁것만	-16391
▁공매	-16392
▁김혜	-16393
▁불행	-16394
▁속해	-16395
▁신이	-16396
▁아가	-16397
▁크롬	-16398
리라고	-16399
버스를	-16400
사업이	-16401
엔에스	-16402
▁감추지	-16403
▁국민연	-16404
▁기여한	-16405
▁단어를	-16406
▁도로의	-16407
▁마포구	-16408
▁버리고	-16409
▁소유한	-16410
▁시행에	-16411
▁없이는	-16412
▁예고한	-16413
▁이해와	-16414
▁있어요	-16415
▁참여와	-16416
▁카드사	-16417
▁펼친다	-16418
▁풍성한	-16419
▁흐르며	-16420
시스템이	-16421
▁1989	-16422
▁드러난다	-16423
▁사건으로	-16424
▁우려된다	-16425
▁일각에선	-16426
▁정신건강	-16427
▁제조공정	-16428
▁카메라의	-16429
▁특별고용	-16430
▁편리하고	-16431
▁폴더블폰	-16432
▁회의에서	-16433
▁감염증으로	-16434
▁개발했다고	-16435
▁노동자들을	-16436
▁바이러스를	-16437
IG	-16438
▁a	-16439
▁뾰	-16440
▁젠	-16441
▁풋	-16442
경보	-16443
맨이	-16444
물가	-16445
번방	-16446
서버	-16447
우선	-16448
이디	-16449
프터	-16450
▁갖췄	-16451
▁과일	-16452
▁넘쳐	-16453
▁노예	-16454
▁바쁜	-16455
▁앞의	-16456
▁양적	-16457
▁엔씨	-16458
▁원어	-16459
▁중립	-16460
▁힙합	-16461
년대비	-16462
도서관	-16463
레스트	-16464
버스터	-16465
품으로	-16466
▁1,0	-16467
▁공격을	-16468
▁구멍을	-16469
▁기업가	-16470
▁동대문	-16471
▁마음껏	-16472
▁미국을	-16473
▁부위에	-16474
▁상기한	-16475
▁아이디	-16476
▁일체형	-16477
▁자세를	-16478
▁즐겁고	-16479
▁지급한	-16480
▁진출한	-16481
▁차관은	-16482
▁프랑크	-16483
▁Mnet	-16484
▁개시되어	-16485
▁드라마의	-16486
▁스페이스	-16487
▁올라가는	-16488
▁좋습니다	-16489
▁주도권을	-16490
▁중소기업에	-16491
▁최저임금의	-16492
▁소비자들에게	-16493
72	-16494
SW	-16495
▁l	-16496
내과	-16497
익이	-16498
청구	-16499
친화	-16500
팀의	-16501
해볼	-16502
▁1/	-16503
▁QR	-16504
▁가기	-16505
▁갯벌	-16506
▁검역	-16507
▁계도	-16508
▁늦은	-16509
▁되게	-16510
▁띈다	-16511
▁백색	-16512
▁산악	-16513
▁솔더	-16514
▁어찌	-16515
▁영동	-16516
▁영위	-16517
▁자꾸	-16518
▁자성	-16519
▁적힌	-16520
▁절삭	-16521
▁친근	-16522
▁커서	-16523
▁퀴즈	-16524
▁파운	-16525
▁퍼스	-16526
▁푸르	-16527
문에서	-16528
상태에	-16529
석으로	-16530
트에서	-16531
▁가속화	-16532
▁고용이	-16533
▁나타낼	-16534
▁대표를	-16535
▁모습도	-16536
▁상승에	-16537
▁생활에	-16538
▁소음을	-16539
▁예산이	-16540
▁윌리엄	-16541
▁의미의	-16542
▁장애를	-16543
▁주민의	-16544
▁투자의	-16545
▁1200	-16546
▁나가겠다	-16547
▁머신러닝	-16548
▁무역전쟁	-16549
▁부작용을	-16550
▁어디서나	-16551
▁어우러진	-16552
▁입증했다	-16553
▁컨테이너	-16554
▁트랜스포	-16555
▁파격적인	-16556
▁한국은행	-16557
▁가능하다고	-16558
▁신종코로나	-16559
GA	-16560
·3	-16561
▁쿨	-16562
▁펠	-16563
녀의	-16564
률도	-16565
봉과	-16566
성모	-16567
였을	-16568
▁거둘	-16569
▁고품	-16570
▁곡을	-16571
▁나뉜	-16572
▁먹지	-16573
▁무용	-16574
▁베르	-16575
▁사적	-16576
▁연중	-16577
▁열쇠	-16578
▁진상	-16579
▁카메	-16580
세포를	-16581
▁DLS	-16582
▁개학을	-16583
▁고유한	-16584
▁관측도	-16585
▁교통의	-16586
▁낮추고	-16587
▁대응해	-16588
▁데에는	-16589
▁돌아갈	-16590
▁동남아	-16591
▁라이트	-16592
▁많지만	-16593
▁살면서	-16594
▁새마을	-16595
▁생산한	-16596
▁이론은	-16597
▁인생을	-16598
▁자녀와	-16599
▁제도의	-16600
▁추세를	-16601
▁특성은	-16602
▁펀드에	-16603
▁해석을	-16604
▁호르몬	-16605
인베스트	-16606
해달라고	-16607
▁대목이다	-16608
▁대안으로	-16609
▁마련해야	-16610
▁목적이다	-16611
▁사각지대	-16612
▁스타일을	-16613
▁시대에는	-16614
▁안전관리	-16615
▁제공하여	-16616
▁사용하였다	-16617
▁연구위원은	-16618
길은	-16619
까요	-16620
누리	-16621
마한	-16622
미세	-16623
봉의	-16624
브의	-16625
사채	-16626
상인	-16627
선수	-16628
평한	-16629
ont	-16630
▁4%	-16631
▁것일	-16632
▁공단	-16633
▁기생	-16634
▁당해	-16635
▁뜨거	-16636
▁메디	-16637
▁무덤	-16638
▁밸런	-16639
▁위를	-16640
▁종전	-16641
▁캐시	-16642
▁콘솔	-16643
▁튜너	-16644
▁팬미	-16645
▁한자	-16646
▁협회	-16647
여명을	-16648
으니까	-16649
이러한	-16650
▁ELS	-16651
▁답변을	-16652
▁당신은	-16653
▁모시고	-16654
▁백화점	-16655
▁보시고	-16656
▁선택의	-16657
▁수입이	-16658
▁수치를	-16659
▁전문의	-16660
▁정은경	-16661
▁통보를	-16662
로부터의	-16663
▁급속도로	-16664
▁노출되는	-16665
▁다가오는	-16666
▁만족도를	-16667
▁시장점유	-16668
▁언제든지	-16669
▁우수하고	-16670
▁종사하는	-16671
▁지점에서	-16672
▁프랑스의	-16673
▁해결해야	-16674
▁확인되지	-16675
▁베스트셀링	-16676
▁파워트레인	-16677
▁취약계층에게	-16678
▁헐	-16679
검색	-16680
들만	-16681
등과	-16682
박이	-16683
산성	-16684
속이	-16685
역사	-16686
영웅	-16687
위탁	-16688
▁EL	-16689
▁공용	-16690
▁나고	-16691
▁남지	-16692
▁바둑	-16693
▁비옥	-16694
▁슬롯	-16695
▁시연	-16696
▁싶지	-16697
▁잡음	-16698
▁제보	-16699
▁횡령	-16700
▁가구가	-16701
▁골자다	-16702
▁국내의	-16703
▁규정이	-16704
▁기기에	-16705
▁모터에	-16706
▁뮤지션	-16707
▁반응은	-16708
▁소득을	-16709
▁시점이	-16710
▁원자가	-16711
▁재개발	-16712
▁전세가	-16713
▁찾아야	-16714
▁탄생한	-16715
2,000	-16716
▁1994	-16717
▁검사에서	-16718
▁그리하여	-16719
▁미쓰비시	-16720
▁불편함을	-16721
▁적합하다	-16722
▁조선시대	-16723
▁천연기념	-16724
▁향상된다	-16725
시장에서는	-16726
▁두산중공업	-16727
▁라이프스타	-16728
RC	-16729
갈색	-16730
길에	-16731
만개	-16732
부진	-16733
유를	-16734
종인	-16735
19'	-16736
ess	-16737
▁6·	-16738
▁놀랍	-16739
▁대남	-16740
▁대시	-16741
▁머무	-16742
▁모멘	-16743
▁반짝	-16744
▁벌여	-16745
▁비춰	-16746
▁성수	-16747
▁수탁	-16748
▁쉬워	-16749
▁우체	-16750
▁증발	-16751
▁지옥	-16752
▁집배	-16753
▁키우	-16754
▁판독	-16755
▁한라	-16756
기업은	-16757
상이다	-16758
편으로	-16759
▁IBM	-16760
▁가라앉	-16761
▁구하는	-16762
▁규제로	-16763
▁북쪽은	-16764
▁사진과	-16765
▁소재의	-16766
▁실적에	-16767
▁업체로	-16768
▁일들이	-16769
▁임피던	-16770
▁전해져	-16771
▁전화기	-16772
▁제작이	-16773
▁중단을	-16774
▁펀드가	-16775
▁현실에	-16776
적이라고	-16777
▁내년에는	-16778
▁받았지만	-16779
▁발휘한다	-16780
▁신용평가	-16781
▁직원에게	-16782
▁최고치를	-16783
▁충청북도	-16784
▁포함되지	-16785
▁다큐멘터리	-16786
▁대부분이다	-16787
▁중소기업과	-16788
▁출시했다고	-16789
걸음	-16790
겁다	-16791
답을	-16792
대금	-16793
두산	-16794
민족	-16795
배나	-16796
빛이	-16797
세안	-16798
청과	-16799
카이	-16800
커넥	-16801
투어	-16802
화재	-16803
▁"4	-16804
▁8%	-16805
▁거침	-16806
▁경직	-16807
▁고창	-16808
▁공룡	-16809
▁관제	-16810
▁광복	-16811
▁글로	-16812
▁다룰	-16813
▁닮은	-16814
▁독창	-16815
▁방수	-16816
▁위함	-16817
▁음란	-16818
▁잔여	-16819
▁직영	-16820
▁차선	-16821
▁투사	-16822
가면서	-16823
그래서	-16824
월에도	-16825
했거나	-16826
▁1∼3	-16827
▁4∼5	-16828
▁구축한	-16829
▁넘는다	-16830
▁모듈의	-16831
▁사연을	-16832
▁상이한	-16833
▁수업에	-16834
▁숫자가	-16835
▁신청해	-16836
▁않기로	-16837
▁올해로	-16838
▁의정부	-16839
▁정교한	-16840
▁주장은	-16841
▁체계가	-16842
▁확산될	-16843
▁후보로	-16844
병원으로	-16845
▁문자메시	-16846
▁보험료가	-16847
▁생산량이	-16848
▁영상으로	-16849
▁원격수업	-16850
▁정부에서	-16851
▁최대주주	-16852
▁통과하고	-16853
▁반복적으로	-16854
▁신용등급이	-16855
(3	-16856
▁맘	-16857
▁촘	-16858
료의	-16859
루나	-16860
모는	-16861
저를	-16862
▁기를	-16863
▁나사	-16864
▁만만	-16865
▁사냥	-16866
▁서정	-16867
▁염려	-16868
▁외래	-16869
▁응력	-16870
▁의외	-16871
▁잘라	-16872
▁증빙	-16873
▁표정	-16874
스럽고	-16875
코드를	-16876
▁가정용	-16877
▁같아요	-16878
▁교수와	-16879
▁남성은	-16880
▁만나볼	-16881
▁불평등	-16882
▁산지로	-16883
▁수요는	-16884
▁수준은	-16885
▁신개념	-16886
▁실질적	-16887
▁어렵지	-16888
▁운전을	-16889
▁의무화	-16890
▁인상이	-16891
▁전환할	-16892
▁조사는	-16893
▁크다고	-16894
▁프론트	-16895
▁하늘을	-16896
모터쇼에	-16897
▁공개하는	-16898
▁나서면서	-16899
▁시작하여	-16900
▁어머니의	-16901
▁인터뷰를	-16902
▁전기차와	-16903
▁전문기업	-16904
▁학교교육	-16905
▁현상으로	-16906
▁6,000	-16907
▁소셜미디어	-16908
▁이스타항공	-16909
▁인공지능이	-16910
십자	-16911
적금	-16912
중공	-16913
지정	-16914
챗봇	-16915
kWh	-16916
▁가세	-16917
▁고생	-16918
▁군도	-16919
▁다녔	-16920
▁무력	-16921
▁미달	-16922
▁버려	-16923
▁부풀	-16924
▁삶과	-16925
▁세액	-16926
▁세팅	-16927
▁용어	-16928
▁잠금	-16929
▁지킬	-16930
▁체인	-16931
▁추경	-16932
▁커져	-16933
▁타원	-16934
▁틀을	-16935
▁편마	-16936
건설이	-16937
기기를	-16938
따라서	-16939
바람이	-16940
사업은	-16941
▁권력을	-16942
▁다문화	-16943
▁만난다	-16944
▁법원에	-16945
▁사태의	-16946
▁수신된	-16947
▁수학적	-16948
▁얘기가	-16949
▁예정돼	-16950
▁전통적	-16951
▁주장에	-16952
▁채널의	-16953
▁형상의	-16954
▁1930	-16955
▁개최한다	-16956
▁네이버는	-16957
▁세상에서	-16958
▁수준까지	-16959
▁영상에는	-16960
▁있음에도	-16961
▁전라북도	-16962
▁주인공이	-16963
▁지적한다	-16964
▁집중하는	-16965
▁카카오페이	-16966
▁믹	-16967
경남	-16968
끔찍	-16969
레니	-16970
리그	-16971
통과	-16972
헬로	-16973
▁나간	-16974
▁나뭇	-16975
▁내로	-16976
▁로딩	-16977
▁미쳤	-16978
▁밤에	-16979
▁분출	-16980
▁쇠퇴	-16981
▁습식	-16982
▁쓰기	-16983
▁알찬	-16984
▁완만	-16985
▁청사	-16986
▁치아	-16987
▁하교	-16988
공단은	-16989
대학원	-16990
성하게	-16991
업체와	-16992
재단이	-16993
층에서	-16994
▁나오기	-16995
▁도로와	-16996
▁분포를	-16997
▁빛나는	-16998
▁사업과	-16999
▁생각은	-17000
▁신호로	-17001
▁심리가	-17002
▁연구와	-17003
▁우아한	-17004
▁자산이	-17005
▁절대로	-17006
▁제조에	-17007
▁주머니	-17008
▁지명이	-17009
▁참가한	-17010
▁카니발	-17011
▁혁신이	-17012
▁형태는	-17013
교육청은	-17014
▁감지하여	-17015
▁말합니다	-17016
▁변호사는	-17017
▁장치에서	-17018
▁텔루라이	-17019
▁투자은행	-17020
▁미국에서는	-17021
▁부분적으로	-17022
96	-17023
게는	-17024
고와	-17025
나와	-17026
다만	-17027
메모	-17028
소방	-17029
오픈	-17030
이제	-17031
인사	-17032
지침	-17033
형제	-17034
홍보	-17035
▁97	-17036
▁CM	-17037
▁규탄	-17038
▁날렵	-17039
▁드럼	-17040
▁띠고	-17041
▁로스	-17042
▁민속	-17043
▁뾰족	-17044
▁수만	-17045
▁신원	-17046
▁안보	-17047
▁알람	-17048
▁제법	-17049
▁집착	-17050
▁책의	-17051
▁청원	-17052
▁터져	-17053
▁회동	-17054
막으로	-17055
실장은	-17056
여행을	-17057
정부는	-17058
▁논문을	-17059
▁댓글을	-17060
▁더욱더	-17061
▁떠오른	-17062
▁마련이	-17063
▁사고는	-17064
▁사람에	-17065
▁선언한	-17066
▁성공할	-17067
▁신뢰할	-17068
▁해고를	-17069
▁휴가를	-17070
기로부터	-17071
▁경우에만	-17072
▁넘어서는	-17073
▁노동계가	-17074
▁상대방의	-17075
▁증가한다	-17076
▁필수적인	-17077
▁확인한다	-17078
▁람보르기니	-17079
▁만들어진다	-17080
▁사업장에서	-17081
▁낡	-17082
과세	-17083
매틱	-17084
목은	-17085
사지	-17086
서야	-17087
▁FM	-17088
▁ON	-17089
▁대를	-17090
▁돼야	-17091
▁믿는	-17092
▁발동	-17093
▁서낭	-17094
▁시계	-17095
▁안녕	-17096
▁의문	-17097
▁전단	-17098
▁접할	-17099
▁청산	-17100
▁체력	-17101
▁촘촘	-17102
▁파장	-17103
▁피의	-17104
▁혁명	-17105
민들이	-17106
성능을	-17107
평가를	-17108
▁3.5	-17109
▁개방형	-17110
▁건물의	-17111
▁계정을	-17112
▁과태료	-17113
▁낮아진	-17114
▁내역을	-17115
▁농사를	-17116
▁무제한	-17117
▁바쁘시	-17118
▁번거로	-17119
▁소지가	-17120
▁애플은	-17121
▁장르의	-17122
▁재사용	-17123
▁주시길	-17124
▁주위의	-17125
▁준대형	-17126
▁포커스	-17127
▁학교로	-17128
▁항생제	-17129
위원장이	-17130
▁가전제품	-17131
▁강화했다	-17132
▁사이트에	-17133
▁실태조사	-17134
▁실현하는	-17135
▁오피스텔	-17136
▁정도이다	-17137
▁집행유예	-17138
▁금융당국은	-17139
▁트레일블레이저	-17140
공의	-17141
년은	-17142
률과	-17143
스탄	-17144
아니	-17145
워즈	-17146
초를	-17147
폭포	-17148
RPG	-17149
▁가마	-17150
▁공헌	-17151
▁기쁘	-17152
▁나름	-17153
▁데도	-17154
▁불꽃	-17155
▁빚을	-17156
▁수시	-17157
▁스승	-17158
▁신비	-17159
▁쓴다	-17160
▁윤석	-17161
▁적혀	-17162
▁전락	-17163
▁조그	-17164
▁찍어	-17165
▁표지	-17166
▁필라	-17167
공정이	-17168
년에서	-17169
는지는	-17170
대상은	-17171
대출을	-17172
브레이	-17173
사업부	-17174
퇴직을	-17175
▁가져야	-17176
▁개학이	-17177
▁극복할	-17178
▁단점을	-17179
▁대국민	-17180
▁바꾸고	-17181
▁바다로	-17182
▁법안이	-17183
▁시도가	-17184
▁아니기	-17185
▁양사는	-17186
▁예술의	-17187
▁운영이	-17188
▁이유에	-17189
▁포착돼	-17190
▁공인인증	-17191
▁배경에는	-17192
▁응답자의	-17193
▁이차전지	-17194
▁제공했다	-17195
▁제작진이	-17196
▁해당되는	-17197
▁행사에서	-17198
▁공식적으로	-17199
▁영상표시기	-17200
os	-17201
▁얕	-17202
▁헨	-17203
거를	-17204
림과	-17205
매출	-17206
애가	-17207
외과	-17208
유입	-17209
절차	-17210
총괄	-17211
하셨	-17212
▁6%	-17213
▁고추	-17214
▁구혜	-17215
▁내포	-17216
▁도체	-17217
▁명명	-17218
▁무지	-17219
▁미사	-17220
▁백운	-17221
▁산을	-17222
▁얼음	-17223
▁염증	-17224
▁이직	-17225
▁잡기	-17226
▁정권	-17227
▁징수	-17228
▁틀림	-17229
▁판별	-17230
▁하에	-17231
공단이	-17232
기술의	-17233
네이버	-17234
상황에	-17235
업무를	-17236
▁가리지	-17237
▁겨냥한	-17238
▁결과와	-17239
▁기관과	-17240
▁기판과	-17241
▁내놓는	-17242
▁멜로디	-17243
▁미끄러	-17244
▁보니까	-17245
▁스위스	-17246
▁욕구를	-17247
▁용기를	-17248
▁유연한	-17249
▁파일럿	-17250
서비스가	-17251
▁등장하고	-17252
▁뛰어넘는	-17253
▁서식하는	-17254
▁성장률이	-17255
▁신한은행	-17256
▁오늘날의	-17257
▁잇따르고	-17258
▁전년대비	-17259
▁초과하는	-17260
▁확대했다	-17261
▁갑작스러운	-17262
▁네트워크가	-17263
▁민주노총이	-17264
▁주기적으로	-17265
가요	-17266
라와	-17267
반이	-17268
버넌	-17269
본을	-17270
신경	-17271
어스	-17272
오면	-17273
행성	-17274
훈과	-17275
ist	-17276
▁감광	-17277
▁관전	-17278
▁기암	-17279
▁낮춘	-17280
▁높기	-17281
▁대수	-17282
▁몽골	-17283
▁버린	-17284
▁법규	-17285
▁봤을	-17286
▁비서	-17287
▁시골	-17288
▁시판	-17289
▁유죄	-17290
▁자식	-17291
▁작사	-17292
▁재량	-17293
▁총선	-17294
▁흔한	-17295
들까지	-17296
▁가구의	-17297
▁거치지	-17298
▁결함을	-17299
▁경기를	-17300
▁과정의	-17301
▁나가고	-17302
▁맡는다	-17303
▁부부는	-17304
▁설정한	-17305
▁실천할	-17306
▁아이는	-17307
▁여론이	-17308
▁역사의	-17309
▁자외선	-17310
▁전기에	-17311
▁특성의	-17312
▁평가는	-17313
▁공정으로	-17314
▁드러나는	-17315
▁스토리가	-17316
▁안심하고	-17317
▁장착했다	-17318
▁총파업에	-17319
▁판매되는	-17320
▁패러다임	-17321
▁현실이다	-17322
▁바이러스에	-17323
▁제어방법에	-17324
▁유기전계발광	-17325
▁애플리케이션을	-17326
▁&	-17327
내지	-17328
모습	-17329
민을	-17330
음극	-17331
코어	-17332
하러	-17333
▁공작	-17334
▁민첩	-17335
▁발맞	-17336
▁서귀	-17337
▁스키	-17338
▁음료	-17339
▁절친	-17340
▁진학	-17341
▁탐사	-17342
▁픽셀	-17343
계약직	-17344
브랜드	-17345
시간은	-17346
시키게	-17347
업체를	-17348
책으로	-17349
▁개인과	-17350
▁검색어	-17351
▁결정은	-17352
▁넘으면	-17353
▁때에도	-17354
▁만남이	-17355
▁방송은	-17356
▁습관을	-17357
▁시행을	-17358
▁의미와	-17359
▁장관을	-17360
▁최고급	-17361
▁하도급	-17362
▁행장은	-17363
▁현실이	-17364
안정자금	-17365
▁극복하고	-17366
▁노동부는	-17367
▁다이아몬	-17368
▁면역력이	-17369
▁시작했고	-17370
▁연결되고	-17371
▁운영되는	-17372
▁저렴하게	-17373
▁전문가의	-17374
▁전문적인	-17375
▁중이라고	-17376
▁학생들과	-17377
▁최소화하는	-17378
87	-17379
▁g	-17380
▁는	-17381
▁맵	-17382
곡면	-17383
날을	-17384
독한	-17385
두리	-17386
러에	-17387
법률	-17388
실태	-17389
주면	-17390
출동	-17391
코노	-17392
하긴	-17393
▁94	-17394
▁간식	-17395
▁고화	-17396
▁관악	-17397
▁능선	-17398
▁막혀	-17399
▁문헌	-17400
▁민사	-17401
▁박원	-17402
▁빚어	-17403
▁시킬	-17404
▁식의	-17405
▁여느	-17406
▁집필	-17407
▁초월	-17408
▁캄보	-17409
▁헌혈	-17410
▁화보	-17411
▁회귀	-17412
들보다	-17413
보험에	-17414
셧다운	-17415
▁TOP	-17416
▁USB	-17417
▁가치와	-17418
▁거리는	-17419
▁구성의	-17420
▁대신해	-17421
▁마니아	-17422
▁마련에	-17423
▁사유가	-17424
▁서초구	-17425
▁쏟아져	-17426
▁유발할	-17427
▁인상에	-17428
▁정체가	-17429
▁조용히	-17430
▁주민이	-17431
▁중국산	-17432
▁하나도	-17433
▁형성을	-17434
▁효과에	-17435
▁효율성	-17436
▁개념이다	-17437
▁견고하게	-17438
▁근로자로	-17439
▁근로자에	-17440
▁데이터와	-17441
▁바라보고	-17442
▁반도체를	-17443
▁아이들과	-17444
▁있겠지만	-17445
▁최고출력	-17446
▁테마파크	-17447
▁집중시켰다	-17448
▁확인하시고	-17449
대사	-17450
벨트	-17451
정리	-17452
천여	-17453
피를	-17454
항은	-17455
▁89	-17456
▁고인	-17457
▁교량	-17458
▁동맹	-17459
▁마라	-17460
▁밧데	-17461
▁삼고	-17462
▁섞인	-17463
▁어지	-17464
▁입점	-17465
▁줄인	-17466
▁중위	-17467
▁키를	-17468
▁회상	-17469
▁후기	-17470
년에도	-17471
외국인	-17472
자금이	-17473
주었다	-17474
펀드가	-17475
▁계곡을	-17476
▁돌아와	-17477
▁물질로	-17478
▁밖에서	-17479
▁밝히고	-17480
▁스페이	-17481
▁연결을	-17482
▁인버터	-17483
▁재구성	-17484
▁정보화	-17485
▁제기된	-17486
▁제작사	-17487
▁종류가	-17488
▁필요해	-17489
▁한은이	-17490
▁회사로	-17491
▁PHEV	-17492
▁가입자의	-17493
▁간담회를	-17494
▁도입하는	-17495
▁말하자면	-17496
▁발행하는	-17497
▁생각된다	-17498
▁얼마든지	-17499
▁이미지로	-17500
▁전적으로	-17501
▁증가세를	-17502
▁지나가는	-17503
▁철저하게	-17504
▁탑재했다	-17505
라디오스타	-17506
▁브라운관의	-17507
▁아이디어가	-17508
▁우리나라가	-17509
▁집중시킨다	-17510
32	-17511
▁톰	-17512
년차	-17513
론과	-17514
브가	-17515
산지	-17516
암을	-17517
연도	-17518
윤이	-17519
재판	-17520
▁CH	-17521
▁김병	-17522
▁면이	-17523
▁미시	-17524
▁승합	-17525
▁앞다	-17526
▁왔던	-17527
▁왕래	-17528
▁유역	-17529
▁이건	-17530
▁전성	-17531
▁쳐다	-17532
▁취향	-17533
▁치러	-17534
▁탈퇴	-17535
▁해명	-17536
▁했기	-17537
▁현직	-17538
시설에	-17539
으로만	-17540
일랜드	-17541
잖아요	-17542
▁BTS	-17543
▁HEV	-17544
▁IMF	-17545
▁것에서	-17546
▁구간은	-17547
▁기소된	-17548
▁도로는	-17549
▁도입이	-17550
▁모드로	-17551
▁발전소	-17552
▁방법도	-17553
▁변하지	-17554
▁상승이	-17555
▁생각한	-17556
▁에디션	-17557
▁연관된	-17558
▁있듯이	-17559
▁정리해	-17560
▁정부를	-17561
▁제목의	-17562
▁조작이	-17563
▁조치에	-17564
▁카테고	-17565
▁타입의	-17566
▁투자는	-17567
▁현대의	-17568
▁2023	-17569
▁교육복지	-17570
▁근무하고	-17571
▁내려오는	-17572
▁매출액이	-17573
▁미디어가	-17574
▁불가피할	-17575
▁서로에게	-17576
▁영화에서	-17577
▁완성했다	-17578
▁출력하는	-17579
▁캐패시터	-17580
▁관련해서는	-17581
▁노동자에게	-17582
BI	-17583
GS	-17584
▁솜	-17585
▁툴	-17586
벤션	-17587
안심	-17588
약이	-17589
쪽은	-17590
톨릭	-17591
폴리	-17592
ure	-17593
▁각도	-17594
▁겪을	-17595
▁관점	-17596
▁금오	-17597
▁끔찍	-17598
▁노면	-17599
▁녹여	-17600
▁띄는	-17601
▁라디	-17602
▁변해	-17603
▁위와	-17604
▁정무	-17605
▁종업	-17606
▁층을	-17607
▁케어	-17608
뿐이다	-17609
속도가	-17610
호선을	-17611
▁170	-17612
▁95%	-17613
▁고려대	-17614
▁매출은	-17615
▁비용과	-17616
▁설치가	-17617
▁시멘트	-17618
▁연출을	-17619
▁이유도	-17620
▁전기가	-17621
▁참가할	-17622
▁표정이	-17623
▁하려고	-17624
▁하려면	-17625
▁흔적을	-17626
드라이브	-17627
▁게스트로	-17628
▁날카로운	-17629
▁마그네트	-17630
▁못했다는	-17631
▁문화체육	-17632
▁배터리가	-17633
▁유발한다	-17634
▁점검하고	-17635
▁테슬라는	-17636
▁트렌드를	-17637
▁판결했다	-17638
▁프랑크푸	-17639
▁해외여행	-17640
▁휴대폰에	-17641
▁받아들이지	-17642
LC	-17643
▁늙	-17644
결이	-17645
놓을	-17646
또한	-17647
레오	-17648
미술	-17649
시즌	-17650
채가	-17651
처에	-17652
age	-17653
▁낙하	-17654
▁냉동	-17655
▁델타	-17656
▁도둑	-17657
▁병이	-17658
▁자릿	-17659
▁자외	-17660
▁주면	-17661
▁차분	-17662
▁환산	-17663
▁힌지	-17664
단계로	-17665
손실을	-17666
저항을	-17667
▁75%	-17668
▁감상할	-17669
▁교사의	-17670
▁나갔다	-17671
▁내세운	-17672
▁뜨겁게	-17673
▁브리지	-17674
▁사회는	-17675
▁앨범을	-17676
▁업로드	-17677
▁오래전	-17678
▁은행은	-17679
▁지식이	-17680
▁창출을	-17681
▁추첨을	-17682
▁해소를	-17683
▁해치백	-17684
▁향하는	-17685
▁홈쇼핑	-17686
연구원이	-17687
▁강력하게	-17688
▁고군분투	-17689
▁구비한다	-17690
▁국민들이	-17691
▁무관하게	-17692
▁분명하다	-17693
▁사이트를	-17694
▁사정으로	-17695
▁상품성을	-17696
▁수수료가	-17697
▁에너지의	-17698
▁외환위기	-17699
▁임직원이	-17700
▁주변으로	-17701
▁캐릭터에	-17702
▁콘텐츠로	-17703
▁가능해졌다	-17704
▁스마트폰이	-17705
▁전자상거래	-17706
▁새도우마스크	-17707
▁멍	-17708
발이	-17709
생존	-17710
수칙	-17711
암과	-17712
채는	-17713
커녕	-17714
해준	-17715
▁DJ	-17716
▁가결	-17717
▁고구	-17718
▁근속	-17719
▁김모	-17720
▁날로	-17721
▁문장	-17722
▁브로	-17723
▁식량	-17724
▁야심	-17725
▁웨어	-17726
▁재계	-17727
▁지선	-17728
▁추격	-17729
▁함안	-17730
▁혈관	-17731
나무와	-17732
리거나	-17733
장에게	-17734
주의의	-17735
▁결합을	-17736
▁공략에	-17737
▁금속의	-17738
▁달러로	-17739
▁대학이	-17740
▁변형을	-17741
▁서귀포	-17742
▁어느새	-17743
▁연결이	-17744
▁연계한	-17745
▁예정이	-17746
▁저항이	-17747
▁줄기가	-17748
▁클래스	-17749
▁타인의	-17750
▁현금을	-17751
레이시아	-17752
▁들어왔다	-17753
▁마련이다	-17754
▁만족도가	-17755
▁아우르는	-17756
▁이뤄져야	-17757
▁증가함에	-17758
▁출연했다	-17759
▁표현했다	-17760
▁학부모의	-17761
▁현지에서	-17762
▁고안에서는	-17763
▁만들어내는	-17764
▁방탄소년단	-17765
▁상황에서는	-17766
▁영업이익은	-17767
▁집단감염이	-17768
구멍	-17769
기한	-17770
래곤	-17771
생물	-17772
포지	-17773
화면	-17774
회복	-17775
∼19	-17776
▁SO	-17777
▁격자	-17778
▁그늘	-17779
▁그란	-17780
▁근린	-17781
▁김포	-17782
▁내어	-17783
▁달해	-17784
▁배수	-17785
▁암시	-17786
▁어떨	-17787
▁업황	-17788
▁잠실	-17789
▁지체	-17790
객들이	-17791
모델을	-17792
새로운	-17793
손실이	-17794
시장과	-17795
지원이	-17796
하우스	-17797
▁개인용	-17798
▁건강이	-17799
▁경관이	-17800
▁권리가	-17801
▁남성의	-17802
▁남쪽은	-17803
▁라이더	-17804
▁몰리는	-17805
▁사이즈	-17806
▁순위가	-17807
▁스폰서	-17808
▁없음을	-17809
▁와중에	-17810
▁요인을	-17811
▁이용에	-17812
▁일본에	-17813
▁일상이	-17814
▁자체로	-17815
▁재산을	-17816
▁팔렸다	-17817
▁한국형	-17818
▁해소할	-17819
▁회복을	-17820
되었지만	-17821
생명과학	-17822
저축은행	-17823
▁금속노조	-17824
▁단기간에	-17825
▁리스크를	-17826
▁상반기에	-17827
▁아니오라	-17828
▁의사결정	-17829
▁재미있게	-17830
▁정책으로	-17831
▁존재하고	-17832
▁프로젝트가	-17833
▁엽	-17834
결핵	-17835
과거	-17836
급의	-17837
마루	-17838
소설	-17839
해제	-17840
현동	-17841
IST	-17842
▁RV	-17843
▁권익	-17844
▁낙엽	-17845
▁단편	-17846
▁매스	-17847
▁미적	-17848
▁샤워	-17849
▁쌓인	-17850
▁여타	-17851
▁예쁘	-17852
▁타협	-17853
문화가	-17854
시대의	-17855
자영업	-17856
화학은	-17857
▁ESS	-17858
▁LFP	-17859
▁기사가	-17860
▁남편의	-17861
▁능력과	-17862
▁도시를	-17863
▁매트릭	-17864
▁부근에	-17865
▁상승할	-17866
▁상에서	-17867
▁설비의	-17868
▁여자가	-17869
▁영원히	-17870
▁오류를	-17871
▁온전히	-17872
▁저수지	-17873
▁전지로	-17874
▁접속이	-17875
시키는데	-17876
이었다고	-17877
프로듀스	-17878
▁그야말로	-17879
▁도시계획	-17880
▁발생하게	-17881
▁보험사가	-17882
▁불이익을	-17883
▁사업장의	-17884
▁없으므로	-17885
▁예고하고	-17886
▁웨이퍼에	-17887
▁유동성을	-17888
▁일대에서	-17889
▁전화기에	-17890
▁조정하는	-17891
▁프레임을	-17892
▁한국경제	-17893
▁확대한다	-17894
▁발생하면서	-17895
▁시상식에서	-17896
44	-17897
개정	-17898
두를	-17899
빈은	-17900
재정	-17901
초가	-17902
추행	-17903
카페	-17904
투를	-17905
항의	-17906
환의	-17907
▁남구	-17908
▁녀석	-17909
▁미션	-17910
▁박근	-17911
▁상해	-17912
▁아홉	-17913
▁이방	-17914
▁잔뜩	-17915
▁전복	-17916
▁좌석	-17917
▁주재	-17918
▁출원	-17919
▁쿠폰	-17920
물리학	-17921
았으나	-17922
하시면	-17923
했다며	-17924
▁CNN	-17925
▁대가로	-17926
▁동쪽의	-17927
▁들어올	-17928
▁머물러	-17929
▁모형을	-17930
▁문의가	-17931
▁불편이	-17932
▁선택해	-17933
▁소형차	-17934
▁시도를	-17935
▁윈도우	-17936
▁은성수	-17937
▁이자를	-17938
▁임기가	-17939
▁정의선	-17940
▁조치는	-17941
▁지키지	-17942
▁찾아와	-17943
▁콘트롤	-17944
▁학생들	-17945
▁한도를	-17946
기업들이	-17947
▁OECD	-17948
▁공동주택	-17949
▁국민들의	-17950
▁금융지원	-17951
▁기간보다	-17952
▁동의서를	-17953
▁들어서는	-17954
▁소통하는	-17955
▁카메라에	-17956
▁플랫폼은	-17957
▁필요하지	-17958
▁허용하는	-17959
▁분야에서는	-17960
▁폴리실리콘	-17961
▁가이드라인을	-17962
▁홈페이지에서	-17963
남의	-17964
대다	-17965
상대	-17966
심리	-17967
영리	-17968
접종	-17969
지던	-17970
품의	-17971
희와	-17972
▁CS	-17973
▁계통	-17974
▁낭비	-17975
▁동산	-17976
▁보복	-17977
▁부도	-17978
▁비아	-17979
▁비치	-17980
▁승려	-17981
▁아미	-17982
▁약정	-17983
▁예의	-17984
▁오정	-17985
▁웃돌	-17986
▁인격	-17987
▁장군	-17988
▁정량	-17989
▁조류	-17990
▁터를	-17991
▁학과	-17992
▁휠을	-17993
곳에서	-17994
능력이	-17995
달라는	-17996
의료원	-17997
▁근무한	-17998
▁농산물	-17999
▁선착순	-18000
▁소문이	-18001
▁식중독	-18002
▁여학생	-18003
▁올라갈	-18004
▁완료된	-18005
▁조속히	-18006
▁주행할	-18007
▁총재는	-18008
▁최상의	-18009
▁팬들과	-18010
▁행보에	-18011
▁훈훈한	-18012
▁다수개의	-18013
▁부담으로	-18014
▁브랜드인	-18015
▁서비스인	-18016
▁세계보건	-18017
▁스피커를	-18018
▁쏟아지는	-18019
▁엄청나게	-18020
▁올라왔다	-18021
▁유틸리티	-18022
▁일상적인	-18023
▁주행거리	-18024
▁들어서면서	-18025
▁반도체소자	-18026
▁볼보자동차	-18027
▁폭발적으로	-18028
▁확산되면서	-18029
인베스트먼트	-18030
ne	-18031
▁썸	-18032
감소	-18033
범이	-18034
왔고	-18035
움의	-18036
인재	-18037
일째	-18038
질러	-18039
촌이	-18040
측이	-18041
필름	-18042
확산	-18043
∼40	-18044
▁"2	-18045
▁극한	-18046
▁꾸려	-18047
▁내며	-18048
▁도박	-18049
▁동성	-18050
▁맡게	-18051
▁받던	-18052
▁배틀	-18053
▁벤틀	-18054
▁불분	-18055
▁빠짐	-18056
▁산록	-18057
▁상임	-18058
▁소련	-18059
▁아키	-18060
▁외신	-18061
▁유성	-18062
▁전임	-18063
▁채소	-18064
▁테라	-18065
▁토큰	-18066
공사의	-18067
내셔널	-18068
부품을	-18069
스트의	-18070
으려는	-18071
▁감독을	-18072
▁경영을	-18073
▁계좌를	-18074
▁구분할	-18075
▁나에게	-18076
▁대안을	-18077
▁링크를	-18078
▁민주당	-18079
▁불안한	-18080
▁아내는	-18081
▁아닌지	-18082
▁악화로	-18083
▁업종별	-18084
▁여기저	-18085
▁잠재적	-18086
▁참고로	-18087
▁투명한	-18088
▁가능하여	-18089
▁도와주는	-18090
▁떨어지면	-18091
▁모른다는	-18092
▁발표한다	-18093
▁아우디의	-18094
▁안전성이	-18095
▁여러분의	-18096
▁유기발광	-18097
▁증강현실	-18098
▁지속되는	-18099
▁합류한다	-18100
▁국토교통부	-18101
▁소상공인과	-18102
▁크라이슬러	-18103
▁특별고용지원	-18104
년경	-18105
도전	-18106
렉터	-18107
례가	-18108
막은	-18109
모로	-18110
벽이	-18111
병에	-18112
창이	-18113
평을	-18114
ort	-18115
▁달콤	-18116
▁망가	-18117
▁묶어	-18118
▁바꿨	-18119
▁수에	-18120
▁수증	-18121
▁스캐	-18122
▁양천	-18123
▁이연	-18124
▁잎이	-18125
▁자립	-18126
▁정준	-18127
▁지고	-18128
▁키패	-18129
▁팀의	-18130
▁표적	-18131
▁향토	-18132
▁휩쓸	-18133
공정의	-18134
들이는	-18135
병원의	-18136
부부의	-18137
상황이	-18138
소송을	-18139
수수료	-18140
스트림	-18141
조사가	-18142
조원이	-18143
지에는	-18144
환경에	-18145
▁1.2	-18146
▁강제로	-18147
▁그레이	-18148
▁꿈꾸는	-18149
▁높아져	-18150
▁누르면	-18151
▁느꼈다	-18152
▁느낀다	-18153
▁도구를	-18154
▁미생물	-18155
▁바다에	-18156
▁발견할	-18157
▁배치된	-18158
▁변수가	-18159
▁아동의	-18160
▁아쉬운	-18161
▁알아서	-18162
▁위기의	-18163
▁일본과	-18164
▁제천시	-18165
▁캐소드	-18166
▁프린트	-18167
저수지가	-18168
▁강화한다	-18169
▁내구성이	-18170
▁디스커버	-18171
▁반복되는	-18172
▁벗어나지	-18173
▁변경하여	-18174
▁사업장은	-18175
▁상태였다	-18176
▁상황으로	-18177
▁시리즈의	-18178
▁약속했다	-18179
▁위험성이	-18180
▁일으키고	-18181
▁자기자본	-18182
▁출시되는	-18183
▁충격적인	-18184
▁콘셉트카	-18185
▁핵심적인	-18186
▁동남아시아	-18187
▁리드프레임	-18188
▁에스엔에스	-18189
NG	-18190
PD	-18191
▁엮	-18192
▁젤	-18193
돼지	-18194
움은	-18195
지연	-18196
코스	-18197
토는	-18198
향후	-18199
▁92	-18200
▁93	-18201
▁거점	-18202
▁귀댁	-18203
▁뉴런	-18204
▁단면	-18205
▁박준	-18206
▁배전	-18207
▁빠질	-18208
▁산불	-18209
▁승계	-18210
▁어둠	-18211
▁여야	-18212
▁이데	-18213
▁일한	-18214
▁제임	-18215
▁지위	-18216
▁챗봇	-18217
▁청량	-18218
▁최강	-18219
▁한혜	-18220
시간의	-18221
작업이	-18222
졌으나	-18223
주에서	-18224
홈쇼핑	-18225
▁경영에	-18226
▁과정과	-18227
▁달라는	-18228
▁도착한	-18229
▁번호를	-18230
▁보도가	-18231
▁비상이	-18232
▁상무는	-18233
▁속도와	-18234
▁수치가	-18235
▁오스트	-18236
▁외국계	-18237
▁요청이	-18238
▁작업은	-18239
▁재료는	-18240
▁제어가	-18241
▁채용을	-18242
▁철도가	-18243
▁코드를	-18244
기관으로	-18245
▁극단적인	-18246
▁달라지는	-18247
▁범위에서	-18248
▁생각보다	-18249
▁선정했다	-18250
▁슬라이딩	-18251
▁이미지는	-18252
▁준비했다	-18253
▁커패시터	-18254
▁필요했다	-18255
▁금토드라마	-18256
▁사용자들이	-18257
▁사회적으로	-18258
▁프로젝트는	-18259
▁연방준비제도	-18260
88	-18261
그는	-18262
력도	-18263
발성	-18264
성분	-18265
손이	-18266
욱이	-18267
코가	-18268
▁7%	-18269
▁넘을	-18270
▁넣은	-18271
▁다할	-18272
▁뒤따	-18273
▁손보	-18274
▁이란	-18275
▁자의	-18276
▁정세	-18277
▁혐오	-18278
방학을	-18279
지므로	-18280
지역을	-18281
▁가슴을	-18282
▁감성이	-18283
▁것과는	-18284
▁그리드	-18285
▁많았던	-18286
▁면적이	-18287
▁무서운	-18288
▁물질은	-18289
▁변경될	-18290
▁복리후	-18291
▁시설로	-18292
▁아내의	-18293
▁자유로	-18294
▁전하며	-18295
▁프로브	-18296
▁하우스	-18297
들에게도	-18298
클라우드	-18299
▁고려하지	-18300
▁사업장을	-18301
▁상품이다	-18302
▁시청자의	-18303
▁시행한다	-18304
▁쏟아졌다	-18305
▁장착되는	-18306
▁코스피가	-18307
▁인천광역시	-18308
▁자율적으로	-18309
▁몹	-18310
경고	-18311
농도	-18312
농업	-18313
능한	-18314
박사	-18315
불가	-18316
불교	-18317
사원	-18318
주며	-18319
지검	-18320
태가	-18321
해요	-18322
▁갈래	-18323
▁결석	-18324
▁국부	-18325
▁때를	-18326
▁몰린	-18327
▁번씩	-18328
▁상온	-18329
▁수몰	-18330
▁아트	-18331
▁안을	-18332
▁용담	-18333
▁유흥	-18334
▁이순	-18335
▁잔존	-18336
▁재검	-18337
▁질적	-18338
▁클린	-18339
▁평형	-18340
이티브	-18341
▁경제는	-18342
▁그리는	-18343
▁냄새가	-18344
▁다시금	-18345
▁마시고	-18346
▁시각을	-18347
▁안팎의	-18348
▁여파가	-18349
▁오른다	-18350
▁운동에	-18351
▁울창한	-18352
▁유럽과	-18353
▁입었다	-18354
▁장비가	-18355
▁증거를	-18356
▁차원이	-18357
▁크기와	-18358
▁클라우	-18359
▁튀어나	-18360
▁훈련을	-18361
만큼이나	-18362
▁1992	-18363
▁고속으로	-18364
▁드라마가	-18365
▁생태계가	-18366
▁선생님이	-18367
▁스포티한	-18368
▁원칙으로	-18369
▁증가세가	-18370
▁증정한다	-18371
▁헤드램프	-18372
의약품안전	-18373
▁설문조사를	-18374
▁크리스마스	-18375
▁현장에서는	-18376
▁금융감독원이	-18377
▁문화체육관광	-18378
▁학부모님께서	-18379
격에	-18380
기억	-18381
나를	-18382
방은	-18383
습관	-18384
시쯤	-18385
앤이	-18386
은혜	-18387
추진	-18388
카의	-18389
크에	-18390
타다	-18391
▁St	-18392
▁강북	-18393
▁구부	-18394
▁깊어	-18395
▁둥근	-18396
▁맥스	-18397
▁봉화	-18398
▁부친	-18399
▁생육	-18400
▁송정	-18401
▁시선	-18402
▁심도	-18403
▁어색	-18404
▁일원	-18405
▁잡힌	-18406
▁집주	-18407
▁터키	-18408
▁퓨즈	-18409
▁한류	-18410
▁흑자	-18411
거리로	-18412
드리고	-18413
증상이	-18414
지지만	-18415
▁감소와	-18416
▁거래일	-18417
▁거짓말	-18418
▁경기부	-18419
▁구축에	-18420
▁그보다	-18421
▁금요일	-18422
▁김명환	-18423
▁로그인	-18424
▁발전이	-18425
▁부문에	-18426
▁비대칭	-18427
▁산지의	-18428
▁성장해	-18429
▁시그니	-18430
▁아침에	-18431
▁어느덧	-18432
▁위반한	-18433
▁유력한	-18434
▁인근의	-18435
▁인하가	-18436
▁재판을	-18437
▁전극과	-18438
▁제작진	-18439
▁종류에	-18440
▁줄면서	-18441
▁증세가	-18442
▁지적을	-18443
▁확인돼	-18444
스트리트	-18445
▁디자인에	-18446
▁만들어져	-18447
▁사륜구동	-18448
▁수행하기	-18449
▁쌍용차의	-18450
▁알아보고	-18451
▁의존도가	-18452
▁탑재됐다	-18453
▁판매했다	-18454
▁것만으로도	-18455
▁모터쇼에서	-18456
▁브리핑에서	-18457
▁조금이라도	-18458
▁중요하다는	-18459
▁프랑크푸르트	-18460
LL	-18461
근이	-18462
라기	-18463
선형	-18464
야만	-18465
염을	-18466
장년	-18467
정원	-18468
지대	-18469
축에	-18470
▁AC	-18471
▁가용	-18472
▁광장	-18473
▁뚫고	-18474
▁명세	-18475
▁박재	-18476
▁부패	-18477
▁비어	-18478
▁상정	-18479
▁슬립	-18480
▁실수	-18481
▁애로	-18482
▁엿볼	-18483
▁중력	-18484
▁중생	-18485
▁철폐	-18486
공정에	-18487
이오니	-18488
저수지	-18489
증권이	-18490
캐피털	-18491
펀드는	-18492
협회에	-18493
▁가슴이	-18494
▁감소에	-18495
▁개최한	-18496
▁공부를	-18497
▁교통은	-18498
▁낮다는	-18499
▁물체가	-18500
▁바뀌고	-18501
▁부르고	-18502
▁불투명	-18503
▁사실과	-18504
▁사태와	-18505
▁신체적	-18506
▁쓰레기	-18507
▁얼굴에	-18508
▁역사와	-18509
▁연비를	-18510
▁영향에	-18511
▁요금제	-18512
▁적었다	-18513
▁주위를	-18514
▁차지할	-18515
▁출범한	-18516
▁퍼스널	-18517
▁하루가	-18518
▁한국어	-18519
레이션을	-18520
▁6·25	-18521
▁가족들이	-18522
▁경쟁에서	-18523
▁내구성을	-18524
▁도모하는	-18525
▁명목으로	-18526
▁불안감을	-18527
▁비트코인	-18528
▁생성하는	-18529
▁세계대전	-18530
▁에너지는	-18531
▁음성인식	-18532
▁자산관리	-18533
▁전자기기	-18534
▁정밀하게	-18535
▁지원했다	-18536
▁지향하는	-18537
▁참여하지	-18538
▁커넥터에	-18539
▁파생상품	-18540
▁메르세데스벤츠	-18541
OR	-18542
규정	-18543
데시	-18544
런트	-18545
망은	-18546
벌레	-18547
조와	-18548
좋은	-18549
후가	-18550
▁광산	-18551
▁단정	-18552
▁대유	-18553
▁마마	-18554
▁만인	-18555
▁받침	-18556
▁변모	-18557
▁사서	-18558
▁운수	-18559
▁일간	-18560
▁전위	-18561
▁채로	-18562
▁충실	-18563
▁침묵	-18564
▁키가	-18565
고속국	-18566
님께서	-18567
되었기	-18568
르면서	-18569
방법이	-18570
분석을	-18571
수요가	-18572
스타트	-18573
시켜서	-18574
지수는	-18575
투자를	-18576
▁가져온	-18577
▁놓았다	-18578
▁달러에	-18579
▁발전할	-18580
▁붙었다	-18581
▁삼성의	-18582
▁상품과	-18583
▁세대가	-18584
▁소음이	-18585
▁유지를	-18586
▁적자가	-18587
▁전력이	-18588
▁제도는	-18589
▁지대가	-18590
▁차별화	-18591
▁측면을	-18592
▁커지자	-18593
▁피아노	-18594
▁합의한	-18595
텔레콤과	-18596
3,000	-18597
▁결합하여	-18598
▁나라에서	-18599
▁아메리카	-18600
▁인피니티	-18601
▁자리잡고	-18602
▁프레임의	-18603
▁향상되고	-18604
▁방지하도록	-18605
▁의무적으로	-18606
▁취약계층과	-18607
Ah	-18608
TI	-18609
og	-18610
극을	-18611
사자	-18612
석유	-18613
에어	-18614
[...]
