<unk>	0
<s>	0
</s>	0
する	-0
した	-1
して	-2
され	-3
こと	-4
ある	-5
った	-6
いる	-7
って	-8
ない	-9
よう	-10
でき	-11
など	-12
から	-13
とい	-14
ため	-15
である	-16
という	-17
された	-18
できる	-19
この	-20
ている	-21
によ	-22
される	-23
ように	-24
ことが	-25
には	-26
00	-27
では	-28
ョン	-29
れば	-30
している	-31
イン	-32
れる	-33
自動	-34
として	-35
ター	-36
にな	-37
ット	-38
もの	-39
的な	-40
その	-41
これ	-42
自動車	-43
たち	-44
ォン	-45
ング	-46
れた	-47
いた	-48
20	-49
的に	-50
ック	-51
ます	-52
▁本	-53
まで	-54
に対	-55
がある	-56
に関	-57
いて	-58
ウォン	-59
ート	-60
すること	-61
発明	-62
かった	-63
しい	-64
また	-65
なく	-66
受け	-67
ーム	-68
だけ	-69
▁この	-70
させ	-71
ュー	-72
企業	-73
より	-74
者の	-75
あり	-76
労働	-77
サー	-78
なら	-79
ティ	-80
を通	-81
▁本発明	-82
可能	-83
スト	-84
ために	-85
ると	-86
に関する	-87
韓国	-88
ディ	-89
ような	-90
ード	-91
っている	-92
場合	-93
ければ	-94
ール	-95
える	-96
ことができる	-97
コン	-98
ラン	-99
大き	-100
会社	-101
市場	-102
なければ	-103
じて	-104
を受け	-105
リー	-106
イル	-107
提供	-108
えた	-109
、「	-110
方法	-111
19	-112
の中	-113
ファ	-114
技術	-115
▁本発明は	-116
だった	-117
10	-118
装置	-119
事業	-120
時間	-121
に対する	-122
支援	-123
ステ	-124
ビス	-125
利用	-126
を通じて	-127
▁これ	-128
に関するもの	-129
なければなら	-130
者が	-131
ップ	-132
およ	-133
サービス	-134
金融	-135
および	-136
でも	-137
にも	-138
それ	-139
多く	-140
なかった	-141
にした	-142
なが	-143
感染	-144
発生	-145
しか	-146
使用	-147
チャ	-148
必要	-149
教育	-150
なければならない	-151
らか	-152
研究	-153
られる	-154
ための	-155
ション	-156
情報	-157
地域	-158
ことを	-159
キム	-160
バー	-161
投資	-162
参加	-163
によって	-164
▁また	-165
ライ	-166
などの	-167
になる	-168
関係	-169
国内	-170
開発	-171
なる	-172
人の	-173
ンジ	-174
ント	-175
ステム	-176
プロ	-177
システム	-178
明らか	-179
を提供	-180
ので	-181
ンド	-182
カー	-183
問題	-184
を見	-185
学校	-186
すると	-187
ながら	-188
政府	-189
られ	-190
雇用	-191
を持	-192
により	-193
人が	-194
ージ	-195
フォ	-196
させる	-197
しかし	-198
ンの	-199
販売	-200
ータ	-201
ウル	-202
きた	-203
保護	-204
につ	-205
者は	-206
以上	-207
おり	-208
されている	-209
銀行	-210
▁しかし	-211
であり	-212
めた	-213
める	-214
ープ	-215
産業	-216
めて	-217
201	-218
コロ	-219
状況	-220
社会	-221
べて	-222
性を	-223
特に	-224
コロナ	-225
ソウル	-226
新型	-227
ロー	-228
世界	-229
時に	-230
力を	-231
ろう	-232
したが	-233
効果	-234
高い	-235
ソン	-236
▁"	-237
管理	-238
セン	-239
です	-240
保険	-241
結果	-242
ネル	-243
ーク	-244
今年	-245
委員	-246
000	-247
つの	-248
性が	-249
による	-250
イルス	-251
ウイルス	-252
及び	-253
さら	-254
形成	-255
のように	-256
現代	-257
引き	-258
られた	-259
安全	-260
。"	-261
電子	-262
関連	-263
キャ	-264
間の	-265
生産	-266
ース	-267
構造	-268
対象	-269
電気	-270
ジェ	-271
ネット	-272
放送	-273
通信	-274
経済	-275
億ウォン	-276
さらに	-277
データ	-278
新型コロナ	-279
しく	-280
だろう	-281
活動	-282
とも	-283
ライン	-284
ほど	-285
明らかにした	-286
たちが	-287
スン	-288
とし	-289
んで	-290
現在	-291
が出	-292
されて	-293
、1	-294
のは	-295
アル	-296
のが	-297
最近	-298
します	-299
▁その	-300
確認	-301
今回	-302
になった	-303
上げ	-304
フィ	-305
オン	-306
説明	-307
えて	-308
昨年	-309
多くの	-310
運営	-311
▁一	-312
公開	-313
とする	-314
たちの	-315
自分	-316
▁「	-317
なった	-318
タイ	-319
製造	-320
と話	-321
新しい	-322
ウェ	-323
なり	-324
グラ	-325
適用	-326
計画	-327
規模	-328
増加	-329
新型コロナウイルス	-330
ではない	-331
のために	-332
グル	-333
分析	-334
、2	-335
スク	-336
れて	-337
を利用	-338
レー	-339
発表	-340
のか	-341
環境	-342
賃金	-343
サム	-344
代表	-345
あった	-346
30	-347
機関	-348
基準	-349
ける	-350
に関するものである	-351
最も	-352
映画	-353
プラ	-354
います	-355
価格	-356
を行	-357
んだ	-358
部の	-359
デル	-360
消費	-361
ジョン	-362
ヨン	-363
構成	-364
万ウォン	-365
チェ	-366
電池	-367
を提供する	-368
すれば	-369
拡大	-370
活用	-371
意味	-372
他の	-373
などを	-374
について	-375
位置	-376
影響	-377
アン	-378
と話した	-379
専門	-380
チャン	-381
予定	-382
導体	-383
を作	-384
との	-385
中国	-386
50	-387
成長	-388
ことができ	-389
評価	-390
調査	-391
だと	-392
スタ	-393
モデル	-394
共に	-395
状態	-396
期待	-397
大きく	-398
だけで	-399
米国	-400
したと	-401
機能	-402
ッド	-403
に入	-404
改善	-405
とは	-406
すべて	-407
ころ	-408
できるように	-409
今回の	-410
の一	-411
感染症	-412
スマ	-413
半導体	-414
向上	-415
生活	-416
子供	-417
うち	-418
勤労	-419
行わ	-420
にお	-421
まり	-422
しなければならない	-423
バル	-424
▁特に	-425
日の	-426
れている	-427
さん	-428
日に	-429
長は	-430
12	-431
チョン	-432
プレ	-433
多様	-434
▁彼	-435
大学	-436
スの	-437
ンが	-438
顧客	-439
運転	-440
のための	-441
ニュー	-442
常に	-443
製品	-444
などが	-445
変化	-446
発売	-447
年に	-448
ンツ	-449
同じ	-450
最大	-451
パク	-452
することができる	-453
グループ	-454
によると	-455
サムスン	-456
サイ	-457
直接	-458
移動	-459
ラー	-460
ジュ	-461
自動車の	-462
過程	-463
リア	-464
減少	-465
理由	-466
のような	-467
取り	-468
タル	-469
大きな	-470
病院	-471
わせ	-472
出した	-473
ランド	-474
初めて	-475
内容	-476
期間	-477
委員会	-478
安定	-479
が可能	-480
リング	-481
に対して	-482
を開	-483
重要	-484
そして	-485
11	-486
いない	-487
と言	-488
付け	-489
だが	-490
または	-491
グラム	-492
さい	-493
りに	-494
センター	-495
業界	-496
ました	-497
ルの	-498
文化	-499
チョ	-500
商品	-501
ゲーム	-502
労組	-503
スター	-504
事実	-505
防止	-506
への	-507
部分	-508
いく	-509
日本	-510
の中で	-511
スマート	-512
にある	-513
ーション	-514
電話	-515
があり	-516
処理	-517
多い	-518
するために	-519
中心	-520
追加	-521
実際	-522
ーカー	-523
そう	-524
シー	-525
記録	-526
けて	-527
ジャ	-528
方式	-529
のに	-530
政策	-531
が必要	-532
していた	-533
ものと	-534
合わせ	-535
エンジ	-536
クラ	-537
維持	-538
たちは	-539
ーター	-540
まった	-541
全体	-542
取引	-543
と思	-544
経営	-545
メディ	-546
フェ	-547
前に	-548
率が	-549
ンは	-550
特別	-551
供給	-552
しながら	-553
ッチ	-554
が発生	-555
工場	-556
ところ	-557
数の	-558
度を	-559
年の	-560
多様な	-561
映像	-562
このような	-563
金利	-564
制御	-565
金を	-566
学生	-567
ること	-568
200	-569
実施	-570
車両	-571
の場合	-572
目的	-573
ヒョン	-574
ショ	-575
プログラム	-576
関心	-577
ユー	-578
個人	-579
時代	-580
国民	-581
間に	-582
組合	-583
方向	-584
現場	-585
最高	-586
良い	-587
医療	-588
インター	-589
健康	-590
広告	-591
出す	-592
新型コロナウイルス感染症	-593
ということ	-594
ウン	-595
簡単	-596
アップ	-597
を受けた	-598
よく	-599
契約	-600
ーの	-601
起こ	-602
ではなく	-603
信号	-604
今後	-605
変わ	-606
ティング	-607
分野	-608
らの	-609
できない	-610
のだ	-611
度の	-612
りの	-613
競争	-614
予想	-615
しよう	-616
道路	-617
▁韓国	-618
ンス	-619
を持つ	-620
ンを	-621
証券	-622
半期	-623
グロー	-624
15	-625
釜山	-626
▁このような	-627
になり	-628
職員	-629
性の	-630
者に	-631
ても	-632
監督	-633
調整	-634
を含	-635
スポ	-636
クト	-637
上昇	-638
知ら	-639
治療	-640
メディア	-641
マー	-642
しない	-643
科学	-644
上が	-645
での	-646
人々	-647
ブル	-648
々な	-649
非常に	-650
続き	-651
加入	-652
シャ	-653
したがって	-654
と共に	-655
年間	-656
度が	-657
じめ	-658
後に	-659
をする	-660
感じ	-661
協力	-662
んな	-663
グローバル	-664
▁一方	-665
回路	-666
が一	-667
強化	-668
くだ	-669
乗り	-670
ハン	-671
部品	-672
会長	-673
業務	-674
月に	-675
リン	-676
すべての	-677
ギー	-678
がない	-679
要求	-680
ただ	-681
コンテ	-682
関係者は	-683
被害	-684
検査	-685
けた	-686
バイ	-687
決定	-688
事故	-689
確保	-690
企業の	-691
作業	-692
▁したがって	-693
テレ	-694
緒に	-695
上記	-696
労働者	-697
デジ	-698
効率	-699
オンライン	-700
アイ	-701
住宅	-702
ックス	-703
俳優	-704
を与	-705
100	-706
チーム	-707
することを	-708
サン	-709
走行	-710
デジタル	-711
判断	-712
家族	-713
起亜	-714
LG	-715
示した	-716
選択	-717
発表した	-718
▁それ	-719
生徒	-720
べき	-721
だけでなく	-722
部は	-723
交通	-724
内の	-725
SU	-726
可能性	-727
申請	-728
ここ	-729
施設	-730
主張	-731
会社の	-732
設置	-733
エネル	-734
せる	-735
かか	-736
したり	-737
に出	-738
メーカー	-739
フォーム	-740
のある	-741
経験	-742
18	-743
ワーク	-744
性能	-745
来の	-746
説明した	-747
力が	-748
らず	-749
資産	-750
コンテンツ	-751
営業	-752
まる	-753
を得	-754
フォン	-755
集中	-756
40	-757
ザー	-758
以上の	-759
海外	-760
もある	-761
において	-762
ぞれ	-763
素子	-764
シン	-765
工程	-766
水準	-767
役割	-768
指摘	-769
体験	-770
考案	-771
積極	-772
するための	-773
存在	-774
学習	-775
危機	-776
ッテ	-777
カード	-778
ることができる	-779
もち	-780
プリ	-781
ためだ	-782
プラット	-783
基板	-784
SUV	-785
ベル	-786
自然	-787
、3	-788
ブランド	-789
再び	-790
支給	-791
するように	-792
ファンド	-793
端末	-794
該当	-795
都市	-796
に関するものだ	-797
いに	-798
建設	-799
携帯	-800
それぞれ	-801
プラットフォーム	-802
様々な	-803
25	-804
車の	-805
自動車は	-806
当時	-807
価値	-808
解決	-809
既存	-810
一般	-811
60	-812
ドラ	-813
とん	-814
もちろ	-815
人を	-816
エネルギー	-817
もちろん	-818
しており	-819
製作	-820
数が	-821
人は	-822
▁私	-823
特徴	-824
ーツ	-825
高く	-826
ウム	-827
準備	-828
インターネット	-829
ドル	-830
っていた	-831
とした	-832
いで	-833
からだ	-834
自分の	-835
予防	-836
これを	-837
全て	-838
者を	-839
中に	-840
所得	-841
ラク	-842
収益	-843
マン	-844
購入	-845
ください	-846
導入	-847
▁S	-848
という点	-849
させた	-850
減ら	-851
推進	-852
だけに	-853
全国	-854
空間	-855
13	-856
初の	-857
規制	-858
ダイ	-859
コミ	-860
出し	-861
一緒に	-862
ダー	-863
日から	-864
地方	-865
強調	-866
ーン	-867
物質	-868
中で	-869
ナー	-870
ほとん	-871
ほとんど	-872
最低	-873
があった	-874
注目	-875
月の	-876
視聴	-877
オー	-878
負担	-879
進行	-880
に比	-881
ファン	-882
市場の	-883
体の	-884
費用	-885
に参加	-886
ませ	-887
同時に	-888
戦略	-889
以下	-890
するため	-891
ハイ	-892
モーター	-893
ロック	-894
下げ	-895
えている	-896
▁彼は	-897
AI	-898
マイ	-899
ともに	-900
理解	-901
考慮	-902
開か	-903
を使用	-904
カン	-905
中の	-906
発展	-907
希望	-908
繰り	-909
大きい	-910
と見	-911
▁イ	-912
会議	-913
主要	-914
需要	-915
どう	-916
資金	-917
名前	-918
デザ	-919
基本	-920
れない	-921
国家	-922
難しい	-923
ドラマ	-924
予定だ	-925
するという	-926
ことは	-927
だという	-928
17	-929
パー	-930
16	-931
危険	-932
を集	-933
運動	-934
14	-935
表示	-936
を見せ	-937
接続	-938
国際	-939
施行	-940
バン	-941
に達	-942
じた	-943
対策	-944
した後	-945
比較	-946
条件	-947
を提	-948
措置	-949
家庭	-950
することで	-951
教授	-952
裁判	-953
表現	-954
対象に	-955
をは	-956
▁現代	-957
80	-958
中央	-959
と呼	-960
段階	-961
リティ	-962
拡散	-963
ネットワーク	-964
の上	-965
共同	-966
容易	-967
含ま	-968
べた	-969
正規	-970
めている	-971
平均	-972
スポーツ	-973
コー	-974
考え	-975
連結	-976
案内	-977
以後	-978
もし	-979
外国	-980
認識	-981
中小	-982
に関するもので	-983
労使	-984
してきた	-985
基盤	-986
目の	-987
っと	-988
らは	-989
機器	-990
現象	-991
受信	-992
利益	-993
▁本考案	-994
スが	-995
周辺	-996
過ぎ	-997
企業が	-998
自由	-999
言葉	-1000
登場	-1001
CO	-1002
▁ただ	-1003
事件	-1004
などで	-1005
物の	-1006
くれる	-1007
反応	-1008
デザイン	-1009
低い	-1010
まず	-1011
所の	-1012
傾向	-1013
▁これは	-1014
メン	-1015
政府が	-1016
られている	-1017
事例	-1018
んでいる	-1019
まま	-1020
を利用して	-1021
われる	-1022
現実	-1023
面に	-1024
作品	-1025
ウィ	-1026
シュ	-1027
世代	-1028
ノー	-1029
と明らかにした	-1030
願い	-1031
ブリ	-1032
披露	-1033
▁そして	-1034
メント	-1035
のイ	-1036
、201	-1037
内に	-1038
障害	-1039
航空	-1040
転換	-1041
エン	-1042
株式	-1043
電気自動車	-1044
側に	-1045
電極	-1046
,000	-1047
労働組合	-1048
伝えた	-1049
過去	-1050
スを	-1051
よりも	-1052
村の	-1053
テレビ	-1054
訪問	-1055
ユン	-1056
ことが分	-1057
er	-1058
▁大	-1059
部門	-1060
ID	-1061
公共	-1062
結合	-1063
メッ	-1064
BM	-1065
保有	-1066
未来	-1067
を高	-1068
部に	-1069
をはじめ	-1070
最低賃金	-1071
情報を	-1072
革新	-1073
可能性が	-1074
化学	-1075
領域	-1076
かに	-1077
正確	-1078
成功	-1079
意見	-1080
立場	-1081
と説明した	-1082
専門家	-1083
距離	-1084
まだ	-1085
ュニ	-1086
下落	-1087
側の	-1088
ホン	-1089
▁国内	-1090
を形成	-1091
事態	-1092
制限	-1093
簡単に	-1094
女性	-1095
点を	-1096
in	-1097
バッテ	-1098
重要な	-1099
になって	-1100
でに	-1101
アプリ	-1102
物を	-1103
ことで	-1104
対応	-1105
と関連	-1106
議論	-1107
24	-1108
写真	-1109
構築	-1110
メリ	-1111
完成	-1112
フト	-1113
信頼	-1114
ボット	-1115
金属	-1116
保健	-1117
朝鮮	-1118
いつ	-1119
しに	-1120
しても	-1121
担当	-1122
定の	-1123
作用	-1124
を記録	-1125
ラック	-1126
スマートフォン	-1127
中心に	-1128
えば	-1129
十分	-1130
が不	-1131
トロ	-1132
輸出	-1133
脆弱	-1134
on	-1135
場所	-1136
人に	-1137
前の	-1138
設計	-1139
バッテリー	-1140
福祉	-1141
までに	-1142
変動	-1143
固定	-1144
後の	-1145
トラン	-1146
コミュニ	-1147
先月	-1148
者と	-1149
責任	-1150
異なる	-1151
ません	-1152
、19	-1153
いている	-1154
に行	-1155
階層	-1156
目標	-1157
さを	-1158
が多い	-1159
仕事	-1160
団体	-1161
.5	-1162
投資家	-1163
地域の	-1164
運用	-1165
する場合	-1166
ーマ	-1167
すでに	-1168
▁今回の	-1169
スは	-1170
電圧	-1171
▁今	-1172
をした	-1173
モバ	-1174
国の	-1175
らが	-1176
制度	-1177
モバイル	-1178
引き上げ	-1179
わけ	-1180
ディス	-1181
本発明	-1182
レン	-1183
従来の	-1184
クロ	-1185
製造方法	-1186
既存の	-1187
交渉	-1188
無線	-1189
▁最近	-1190
を含む	-1191
小さ	-1192
症状	-1193
▁本考案は	-1194
別の	-1195
ベント	-1196
、20	-1197
生き	-1198
測定	-1199
キャン	-1200
くる	-1201
に乗り	-1202
輸入	-1203
ずに	-1204
70	-1205
の大	-1206
ワー	-1207
お願い	-1208
変更	-1209
ピュー	-1210
たり	-1211
、5	-1212
授業	-1213
り込	-1214
を防止	-1215
組織	-1216
買収	-1217
ケーション	-1218
BS	-1219
民主	-1220
があ	-1221
広げ	-1222
立て	-1223
やす	-1224
長期	-1225
に対し	-1226
少なく	-1227
部が	-1228
のうち	-1229
保護者の	-1230
コンピュー	-1231
▁K	-1232
過程で	-1233
を受ける	-1234
を活用	-1235
人材	-1236
メージ	-1237
積極的に	-1238
を一	-1239
保護者	-1240
21	-1241
効果がある	-1242
BMW	-1243
共有	-1244
山の	-1245
流れ	-1246
充電	-1247
ホーム	-1248
もう	-1249
のため	-1250
側は	-1251
必要な	-1252
GM	-1253
に分	-1254
程度	-1255
を行う	-1256
死亡	-1257
アク	-1258
資料	-1259
」、「	-1260
メッセ	-1261
ケット	-1262
マスク	-1263
カメ	-1264
社会的	-1265
持ち	-1266
ロボット	-1267
ディング	-1268
会の	-1269
撮影	-1270
警察	-1271
キュ	-1272
時期	-1273
上の	-1274
行われる	-1275
かを	-1276
始めた	-1277
まっている	-1278
ということだ	-1279
▁A	-1280
ナム	-1281
エンジン	-1282
ことが分かった	-1283
少し	-1284
することが	-1285
日午	-1286
終わ	-1287
新型コロナウイルス感染症の	-1288
22	-1289
ソク	-1290
住民	-1291
述べた	-1292
プレイ	-1293
90	-1294
を超	-1295
が増	-1296
登録	-1297
▁C	-1298
食べ	-1299
人気	-1300
広が	-1301
チャンネル	-1302
セル	-1303
を減ら	-1304
会社が	-1305
勤務	-1306
完全	-1307
努力	-1308
行動	-1309
ジン	-1310
に基	-1311
高速	-1312
の不	-1313
23	-1314
行為	-1315
、4	-1316
学校の	-1317
▁現在	-1318
タイム	-1319
把握	-1320
わらず	-1321
来年	-1322
パート	-1323
ストライ	-1324
シア	-1325
用意	-1326
人工	-1327
ビュー	-1328
スペ	-1329
ドン	-1330
機の	-1331
小型	-1332
を使	-1333
カル	-1334
ミン	-1335
別に	-1336
ディー	-1337
持続	-1338
市民	-1339
ドライ	-1340
カメラ	-1341
主義	-1342
▁今年	-1343
スピ	-1344
▁続	-1345
に基づ	-1346
四半期	-1347
が生	-1348
ヶ月	-1349
社の	-1350
特性	-1351
発見	-1352
キング	-1353
が多く	-1354
こう	-1355
すぐ	-1356
ッグ	-1357
反映	-1358
に向	-1359
数は	-1360
立つ	-1361
ブロック	-1362
指定	-1363
ルノー	-1364
が大きく	-1365
金の	-1366
ストライキ	-1367
サムスン電子	-1368
採用	-1369
合わせて	-1370
診断	-1371
統領	-1372
試験	-1373
ギョン	-1374
▁キム	-1375
労働者の	-1376
人間	-1377
接触	-1378
を備	-1379
落ち	-1380
音楽	-1381
▁ア	-1382
を利用した	-1383
タイヤ	-1384
発電	-1385
大型	-1386
結局	-1387
メッセージ	-1388
を引き	-1389
総合	-1390
キー	-1391
強調した	-1392
心を	-1393
が急	-1394
主に	-1395
当局	-1396
コリア	-1397
発生する	-1398
出力	-1399
向上させる	-1400
新規	-1401
本格	-1402
どんな	-1403
動産	-1404
を支援	-1405
可能な	-1406
を経	-1407
種の	-1408
損失	-1409
▁これに	-1410
及ぼ	-1411
電力	-1412
チュー	-1413
正規職	-1414
体が	-1415
計画だ	-1416
歴史	-1417
長が	-1418
電流	-1419
保証	-1420
▁さらに	-1421
としては	-1422
クリ	-1423
を実施	-1424
BC	-1425
することができ	-1426
用の	-1427
政府の	-1428
知能	-1429
設定	-1430
などに	-1431
機会	-1432
先立	-1433
楽し	-1434
果た	-1435
面の	-1436
移動通信	-1437
可能性がある	-1438
に比べて	-1439
材料	-1440
最小	-1441
トル	-1442
する方法	-1443
VID	-1444
イベント	-1445
サイト	-1446
を占	-1447
ズム	-1448
で構成	-1449
貸出	-1450
が続	-1451
交換	-1452
搭載	-1453
年代	-1454
報告	-1455
実験	-1456
▁このように	-1457
氏は	-1458
ことに	-1459
大幅	-1460
話を	-1461
らない	-1462
改正	-1463
とともに	-1464
活性	-1465
と思います	-1466
▁金融	-1467
相談	-1468
生の	-1469
組み	-1470
成果	-1471
困難	-1472
フレ	-1473
形態	-1474
COVID	-1475
を中心に	-1476
京畿	-1477
2019	-1478
機械	-1479
号線	-1480
の下	-1481
ってきた	-1482
イツ	-1483
政治	-1484
携帯電話	-1485
なので	-1486
ものである	-1487
統合	-1488
時間を	-1489
27	-1490
挙げ	-1491
られない	-1492
姿が	-1493
ハー	-1494
持分	-1495
大統領	-1496
自動運転	-1497
を迎	-1498
内部	-1499
原因	-1500
車を	-1501
株主	-1502
動作	-1503
景気	-1504
見られる	-1505
出して	-1506
とに	-1507
影響を	-1508
と述べた	-1509
量を	-1510
26	-1511
代わ	-1512
はもちろん	-1513
が集	-1514
▁実際	-1515
保障	-1516
員の	-1517
様の	-1518
をつ	-1519
合意	-1520
したという	-1521
するなど	-1522
申し	-1523
28	-1524
案を	-1525
伝え	-1526
ベース	-1527
によれば	-1528
メリカ	-1529
患者	-1530
と呼ば	-1531
が高	-1532
課題	-1533
であ	-1534
長い	-1535
▁M	-1536
信用	-1537
レベル	-1538
ガス	-1539
決済	-1540
ニング	-1541
脆弱階層	-1542
ことも	-1543
▁第	-1544
とき	-1545
かり	-1546
技術を	-1547
▁新	-1548
教師	-1549
加えた	-1550
ドイツ	-1551
することにした	-1552
観光	-1553
選定	-1554
原子	-1555
懸念	-1556
燃料	-1557
ユーザー	-1558
▁19	-1559
ムン	-1560
確定	-1561
イス	-1562
必ず	-1563
示する	-1564
を持って	-1565
酸化	-1566
患者が	-1567
役割を	-1568
予測	-1569
範囲	-1570
29	-1571
ールド	-1572
ボル	-1573
かな	-1574
外部	-1575
化した	-1576
電源	-1577
ウェア	-1578
大な	-1579
芸術	-1580
緊急	-1581
化する	-1582
シェ	-1583
大幅に	-1584
銀行の	-1585
体系	-1586
イメージ	-1587
-19	-1588
回転	-1589
がなく	-1590
を除	-1591
リアル	-1592
月から	-1593
くて	-1594
ずつ	-1595
チャー	-1596
資本	-1597
市場で	-1598
駆動	-1599
ジュー	-1600
IT	-1601
度に	-1602
手段	-1603
最終	-1604
所属	-1605
業者	-1606
量が	-1607
ナル	-1608
ニー	-1609
イント	-1610
タン	-1611
概念	-1612
上に	-1613
地の	-1614
イド	-1615
要素	-1616
an	-1617
水素	-1618
てきた	-1619
装備	-1620
入力	-1621
開かれた	-1622
マル	-1623
性と	-1624
フィル	-1625
延長	-1626
ジュン	-1627
強い	-1628
ものだ	-1629
私の	-1630
▁ここ	-1631
たい	-1632
発達	-1633
行政	-1634
金額	-1635
不動産	-1636
ブラ	-1637
実現	-1638
っても	-1639
韓国の	-1640
クス	-1641
造成	-1642
見通	-1643
株価	-1644
一つの	-1645
を維持	-1646
年から	-1647
ソフト	-1648
知らせ	-1649
紹介	-1650
内容を	-1651
演技	-1652
設立	-1653
装置の	-1654
たちに	-1655
核心	-1656
TV	-1657
ラクター	-1658
▁ソウル	-1659
集団	-1660
を対象に	-1661
時間が	-1662
km	-1663
実績	-1664
規定	-1665
私たちの	-1666
に応	-1667
旅行	-1668
ょう	-1669
売り	-1670
必要がある	-1671
人と	-1672
ベンツ	-1673
500	-1674
予想される	-1675
を与える	-1676
フラ	-1677
のキム	-1678
上記の	-1679
先に	-1680
検討	-1681
働き	-1682
連続	-1683
素材	-1684
のない	-1685
の間	-1686
割合	-1687
ジア	-1688
理事	-1689
パター	-1690
問題を	-1691
▁国	-1692
ピング	-1693
公式	-1694
リスト	-1695
マーケ	-1696
政府は	-1697
満足	-1698
自己	-1699
▁LG	-1700
が出ている	-1701
ディスプレイ	-1702
回復	-1703
0.	-1704
▁昨年	-1705
ダン	-1706
規模の	-1707
プロジェ	-1708
事項	-1709
本部	-1710
を示	-1711
スイ	-1712
させて	-1713
量の	-1714
にして	-1715
早く	-1716
事務	-1717
囲気	-1718
太陽	-1719
雰囲気	-1720
万台	-1721
キャラクター	-1722
相手	-1723
員が	-1724
盛り込	-1725
銀行が	-1726
発光	-1727
解雇	-1728
たく	-1729
込み	-1730
に位置	-1731
遮断	-1732
発行	-1733
はない	-1734
初期	-1735
員は	-1736
メンバー	-1737
協約	-1738
ギャ	-1739
トン	-1740
線を	-1741
人で	-1742
力の	-1743
方針	-1744
フォル	-1745
かつ	-1746
統計	-1747
コール	-1748
ウォ	-1749
データを	-1750
いの	-1751
ニア	-1752
周波	-1753
展示	-1754
を作る	-1755
以降	-1756
伝送	-1757
認証	-1758
入れ	-1759
マーケティング	-1760
ッケ	-1761
を探	-1762
スタート	-1763
大邱	-1764
ヵ月	-1765
車種	-1766
にする	-1767
種類	-1768
物が	-1769
と同じ	-1770
舞台	-1771
生命	-1772
をして	-1773
パネル	-1774
をも	-1775
空気	-1776
チュ	-1777
を持っている	-1778
ぶりに	-1779
に従	-1780
かかわらず	-1781
されており	-1782
行われた	-1783
協議	-1784
あまり	-1785
抵抗	-1786
目を	-1787
通り	-1788
ヒョ	-1789
判定	-1790
要請	-1791
機能を	-1792
品質	-1793
深刻	-1794
よりは	-1795
ベン	-1796
支持	-1797
カオ	-1798
ショー	-1799
市場に	-1800
フラン	-1801
することは	-1802
余り	-1803
が形成	-1804
遂行	-1805
適切	-1806
繰り広げ	-1807
雇用労働	-1808
ギュ	-1809
エア	-1810
日まで	-1811
状況で	-1812
というのが	-1813
フル	-1814
自動車が	-1815
小さな	-1816
インド	-1817
細胞	-1818
化された	-1819
いを	-1820
要因	-1821
まれた	-1822
の一つ	-1823
差別	-1824
ページ	-1825
いい	-1826
見通し	-1827
分離	-1828
さに	-1829
指導	-1830
えない	-1831
世帯	-1832
コミュニケーション	-1833
クル	-1834
ポイント	-1835
を取り	-1836
調節	-1837
を取	-1838
候補	-1839
氏が	-1840
るように	-1841
が可能な	-1842
トリ	-1843
行事	-1844
各種	-1845
アメリカ	-1846
解釈	-1847
子の	-1848
▁T	-1849
の結果	-1850
具体	-1851
歌手	-1852
前年	-1853
保存	-1854
展開	-1855
が開	-1856
テル	-1857
セット	-1858
感情	-1859
という意味	-1860
患者の	-1861
になると	-1862
装着	-1863
なのか	-1864
バス	-1865
自治	-1866
カカオ	-1867
北道	-1868
とても	-1869
公開された	-1870
が現	-1871
貿易	-1872
ネク	-1873
感を	-1874
人口	-1875
リズム	-1876
コンピュータ	-1877
隔離	-1878
を適用	-1879
今年の	-1880
人工知能	-1881
私が	-1882
互いに	-1883
方向に	-1884
低く	-1885
同期	-1886
思い	-1887
反対	-1888
率は	-1889
の主	-1890
デン	-1891
or	-1892
シング	-1893
プロジェクト	-1894
300	-1895
▁これにより	-1896
にもかかわらず	-1897
1.	-1898
労総	-1899
ティー	-1900
シャル	-1901
近く	-1902
ッシュ	-1903
1%	-1904
展望	-1905
はこの	-1906
企画	-1907
暮ら	-1908
IC	-1909
当て	-1910
ほしい	-1911
単純	-1912
体を	-1913
双龍	-1914
防疫	-1915
ハイブリ	-1916
、6	-1917
義務	-1918
ハイブリッド	-1919
訴訟	-1920
速度	-1921
しました	-1922
増えた	-1923
活性化	-1924
複数の	-1925
優秀	-1926
外の	-1927
炭素	-1928
理論	-1929
少年	-1930
京畿道	-1931
方法に関するものである	-1932
選挙	-1933
2%	-1934
消費者	-1935
を訪	-1936
最初の	-1937
センサー	-1938
中断	-1939
どのように	-1940
長官	-1941
批判	-1942
しようとする	-1943
一つ	-1944
いう	-1945
疾患	-1946
ジョ	-1947
ケー	-1948
資源	-1949
これは	-1950
価格が	-1951
切り	-1952
つか	-1953
al	-1954
公園	-1955
融資	-1956
サービスを	-1957
光州	-1958
補助	-1959
ミュー	-1960
▁201	-1961
代わりに	-1962
であった	-1963
数を	-1964
端末機	-1965
確実	-1966
自身	-1967
認め	-1968
見える	-1969
速に	-1970
売却	-1971
NS	-1972
市の	-1973
優れた	-1974
素子の	-1975
裁判所	-1976
につなが	-1977
公開した	-1978
有名	-1979
能力	-1980
売上	-1981
締結	-1982
リーズ	-1983
点検	-1984
青年	-1985
方が	-1986
提起	-1987
排出	-1988
ムの	-1989
明確	-1990
なっている	-1991
新た	-1992
商工	-1993
単位	-1994
別途	-1995
南道	-1996
毎年	-1997
バック	-1998
時の	-1999
スイッチ	-2000
するか	-2001
審査	-2002
率を	-2003
相次	-2004
国内の	-2005
以下の	-2006
社が	-2007
られて	-2008
アルバ	-2009
ではないか	-2010
しろ	-2011
欧州	-2012
だけを	-2013
ジャン	-2014
家の	-2015
相当	-2016
しょう	-2017
の中に	-2018
地下	-2019
を経て	-2020
1,	-2021
を行った	-2022
彼の	-2023
精神	-2024
となる	-2025
引き下げ	-2026
ができる	-2027
推定	-2028
ことがある	-2029
日常	-2030
本当	-2031
検索	-2032
買い	-2033
みを	-2034
分か	-2035
兆ウォン	-2036
、200	-2037
新車	-2038
ロード	-2039
洞の	-2040
禁止	-2041
さえ	-2042
デオ	-2043
付け加えた	-2044
ar	-2045
できた	-2046
ウェブ	-2047
通貨	-2048
)」	-2049
テナ	-2050
ニュース	-2051
le	-2052
伝達	-2053
増加した	-2054
そのまま	-2055
ソー	-2056
ーリー	-2057
だけが	-2058
中小企業	-2059
手続き	-2060
次の	-2061
報道	-2062
深い	-2063
観客	-2064
週間	-2065
▁まず	-2066
オープ	-2067
▁2	-2068
発生した	-2069
教室	-2070
公演	-2071
ジュール	-2072
里の	-2073
ロッ	-2074
システムの	-2075
影響を及ぼ	-2076
しま	-2077
便利	-2078
だったが	-2079
先立って	-2080
じる	-2081
受賞	-2082
を受けて	-2083
するのに	-2084
装置に関するものである	-2085
高齢	-2086
リアルタイム	-2087
を運営	-2088
ED	-2089
出演	-2090
物理	-2091
衝撃	-2092
を見て	-2093
5%	-2094
下が	-2095
呼び	-2096
場の	-2097
診療	-2098
だから	-2099
ためには	-2100
伝統	-2101
芸能	-2102
言った	-2103
使われる	-2104
操作	-2105
チップ	-2106
を通じた	-2107
最初	-2108
▁G	-2109
なしに	-2110
リスク	-2111
なた	-2112
3%	-2113
を下	-2114
たくさん	-2115
ブロックチェ	-2116
質問	-2117
知識	-2118
設備	-2119
先生	-2120
分の	-2121
達成	-2122
グループの	-2123
ルノーサムスン	-2124
予算	-2125
ミュージ	-2126
場合は	-2127
これまで	-2128
ゼル	-2129
シリーズ	-2130
型の	-2131
相互	-2132
結婚	-2133
化し	-2134
働き口	-2135
▁起亜	-2136
人生	-2137
きて	-2138
さが	-2139
拡張	-2140
2020	-2141
投入	-2142
社長	-2143
▁P	-2144
緩和	-2145
OS	-2146
を確認	-2147
保険料	-2148
大韓	-2149
ボン	-2150
特殊	-2151
せた	-2152
まって	-2153
予告	-2154
タク	-2155
ミニ	-2156
自分が	-2157
慶尚	-2158
を送	-2159
少ない	-2160
さま	-2161
を越	-2162
オフ	-2163
なわ	-2164
同意	-2165
幸せ	-2166
特性を	-2167
する予定だ	-2168
もした	-2169
ネイ	-2170
温度	-2171
米国の	-2172
2.	-2173
アー	-2174
4%	-2175
相対	-2176
優先	-2177
地が	-2178
、10	-2179
開発した	-2180
レス	-2181
削減	-2182
を成	-2183
mm	-2184
学年	-2185
となった	-2186
感謝	-2187
内で	-2188
河川	-2189
を控	-2190
であることを	-2191
してみ	-2192
限界	-2193
イオン	-2194
できなかった	-2195
計算	-2196
かけ	-2197
違う	-2198
ジオ	-2199
民間	-2200
▁お	-2201
失業	-2202
線の	-2203
SK	-2204
勤労者	-2205
リュー	-2206
ティブ	-2207
en	-2208
at	-2209
モニ	-2210
全体の	-2211
に変	-2212
休職	-2213
台の	-2214
最大の	-2215
することに	-2216
を終	-2217
標準	-2218
が大きい	-2219
様に	-2220
院の	-2221
音声	-2222
いは	-2223
かもし	-2224
テック	-2225
ようにする	-2226
金が	-2227
すべき	-2228
ッピング	-2229
かい	-2230
例えば	-2231
違反	-2232
が起	-2233
広い	-2234
協会	-2235
ミョン	-2236
▁続いて	-2237
くれた	-2238
しているが	-2239
動き	-2240
すなわ	-2241
すなわち	-2242
注意	-2243
自ら	-2244
が主	-2245
基礎	-2246
私は	-2247
継続	-2248
と強調した	-2249
ちに	-2250
爆発	-2251
長く	-2252
モード	-2253
意味する	-2254
有機	-2255
低下	-2256
8%	-2257
が流	-2258
強力	-2259
済州	-2260
における	-2261
ユニ	-2262
運行	-2263
レイ	-2264
児童	-2265
繰り返	-2266
疾病	-2267
ケース	-2268
側には	-2269
パッケ	-2270
パッケージ	-2271
を記録した	-2272
初等	-2273
市場が	-2274
のお	-2275
IP	-2276
ハウ	-2277
ミア	-2278
こそ	-2279
見る	-2280
たら	-2281
いたします	-2282
したい	-2283
ごとに	-2284
お願いします	-2285
一方	-2286
広く	-2287
始まった	-2288
テーマ	-2289
中国の	-2290
を防	-2291
退職	-2292
あなた	-2293
が発生した	-2294
配置	-2295
活動を	-2296
と伝えた	-2297
ウリ	-2298
トラ	-2299
ンジャ	-2300
画面	-2301
と主張	-2302
日本の	-2303
に達する	-2304
ことになる	-2305
らく	-2306
宇宙	-2307
▁E	-2308
戦争	-2309
今月	-2310
7%	-2311
しば	-2312
エコ	-2313
文字	-2314
現在の	-2315
一度	-2316
鉄道	-2317
食品	-2318
依然	-2319
有する	-2320
ーズ	-2321
最適	-2322
背景	-2323
に適用	-2324
海岸	-2325
オープン	-2326
以来	-2327
再生	-2328
技術の	-2329
全く	-2330
話題	-2331
ホール	-2332
一部の	-2333
ようにした	-2334
損害	-2335
アウ	-2336
ルが	-2337
多数の	-2338
を減らす	-2339
心理	-2340
に関連	-2341
参加した	-2342
区の	-2343
指摘した	-2344
メモ	-2345
ラム	-2346
▁D	-2347
地球	-2348
ビデオ	-2349
アジア	-2350
にと	-2351
ッジ	-2352
憂慮	-2353
システムを	-2354
的で	-2355
感染者が	-2356
することになる	-2357
補償	-2358
沿って	-2359
減少した	-2360
どこ	-2361
解消	-2362
事業を	-2363
のみ	-2364
工業	-2365
建て	-2366
を守	-2367
会で	-2368
としても	-2369
チューブ	-2370
捜査	-2371
短縮	-2372
正常	-2373
連合	-2374
9%	-2375
がん	-2376
なって	-2377
▁その後	-2378
側面	-2379
のも	-2380
表面	-2381
構造調整	-2382
以前	-2383
ワイ	-2384
育て	-2385
財政	-2386
が入	-2387
記憶	-2388
しています	-2389
ドライバー	-2390
を披露	-2391
ストーリー	-2392
コンセ	-2393
されれば	-2394
番号	-2395
個の	-2396
判決	-2397
書を	-2398
半分	-2399
の中の	-2400
理由は	-2401
を起こ	-2402
の影響	-2403
作った	-2404
依然として	-2405
ヨタ	-2406
職場	-2407
ワン	-2408
トヨタ	-2409
▁ところ	-2410
合う	-2411
▁高	-2412
通常	-2413
プレミア	-2414
ガソ	-2415
コード	-2416
日午後	-2417
まさに	-2418
▁本発明の	-2419
このように	-2420
複雑	-2421
セキュ	-2422
次元	-2423
日明らかにした	-2424
が必要な	-2425
した結果	-2426
トゥ	-2427
広報	-2428
給与	-2429
初め	-2430
に応じて	-2431
上がった	-2432
産業の	-2433
粒子	-2434
部と	-2435
基準で	-2436
現代自動車	-2437
心配	-2438
認知	-2439
リード	-2440
業界の	-2441
多かった	-2442
PC	-2443
記念	-2444
制の	-2445
市は	-2446
テスト	-2447
疑惑	-2448
全ての	-2449
スタッ	-2450
工事	-2451
すぐに	-2452
ご案内	-2453
ビッグ	-2454
することによって	-2455
完全に	-2456
6%	-2457
番組	-2458
良く	-2459
セキュリティ	-2460
ソフトウェア	-2461
流通	-2462
犯罪	-2463
サービスの	-2464
異なり	-2465
ポート	-2466
していく	-2467
特定	-2468
▁同	-2469
出て	-2470
会長が	-2471
業種	-2472
近い	-2473
▁N	-2474
かれた	-2475
アンテナ	-2476
アルバム	-2477
を受け取	-2478
ホイ	-2479
小商工	-2480
高める	-2481
呼吸	-2482
ウド	-2483
化を	-2484
世界の	-2485
まな	-2486
時は	-2487
規則	-2488
つまり	-2489
スタッフ	-2490
2018	-2491
モジュール	-2492
ジャー	-2493
番目の	-2494
▁B	-2495
と付け加えた	-2496
プト	-2497
が高い	-2498
31	-2499
の形	-2500
ようだ	-2501
仁川	-2502
国道	-2503
委員会の	-2504
なう	-2505
ゴル	-2506
プロセ	-2507
であるため	-2508
52	-2509
ジー	-2510
融合	-2511
確認された	-2512
どれ	-2513
が終わ	-2514
部を	-2515
不足	-2516
本発明は	-2517
ったり	-2518
ガン	-2519
が出て	-2520
で最も	-2521
可能性が高い	-2522
先端	-2523
さまざ	-2524
チウム	-2525
いが	-2526
プライ	-2527
を作り	-2528
ないという	-2529
やは	-2530
手術	-2531
できるよう	-2532
モー	-2533
人間の	-2534
彼は	-2535
する計画だ	-2536
ンジュ	-2537
々に	-2538
不良	-2539
検察	-2540
外国人	-2541
するのが	-2542
アナ	-2543
法律	-2544
やはり	-2545
大規模	-2546
ラス	-2547
制作	-2548
除去	-2549
バイオ	-2550
ッション	-2551
非正規職	-2552
ルス	-2553
休み	-2554
事実を	-2555
母親	-2556
抑制	-2557
実際に	-2558
ディーゼル	-2559
リチウム	-2560
画像	-2561
せて	-2562
シリ	-2563
年金	-2564
むしろ	-2565
形成された	-2566
具現	-2567
を拡大	-2568
しなかった	-2569
としての	-2570
提案	-2571
クラウド	-2572
さまざまな	-2573
就職	-2574
なくても	-2575
分布	-2576
に入って	-2577
特定の	-2578
リーン	-2579
ブック	-2580
りを	-2581
瞬間	-2582
するが	-2583
までは	-2584
フン	-2585
事前	-2586
際に	-2587
シップ	-2588
公正	-2589
機関の	-2590
二次	-2591
正確に	-2592
割引	-2593
克服	-2594
生成	-2595
変わる	-2596
詳しく	-2597
余りの	-2598
科学技術	-2599
と言った	-2600
公務	-2601
時間の	-2602
量子	-2603
されない	-2604
流動	-2605
んと	-2606
させることができる	-2607
団地	-2608
観察	-2609
満た	-2610
関連の	-2611
していない	-2612
生態	-2613
ーグル	-2614
収集	-2615
遺伝	-2616
手を	-2617
整備	-2618
記者	-2619
と判断	-2620
強く	-2621
▁ただし	-2622
ビリティ	-2623
せず	-2624
実際の	-2625
公社	-2626
法の	-2627
クー	-2628
アリング	-2629
ゆる	-2630
を高める	-2631
そのような	-2632
ようになった	-2633
を考慮	-2634
特別な	-2635
が必要だ	-2636
過ご	-2637
遠隔	-2638
かもしれない	-2639
を進	-2640
アクセ	-2641
ショッピング	-2642
氏の	-2643
人々が	-2644
してくれる	-2645
できるようにした	-2646
に対応	-2647
一番	-2648
代替	-2649
通話	-2650
寄付	-2651
災害	-2652
3.	-2653
所有	-2654
会社は	-2655
するのは	-2656
等級	-2657
スー	-2658
の前	-2659
大会	-2660
払い	-2661
体に	-2662
AM	-2663
絶縁	-2664
ホイール	-2665
申告	-2666
▁L	-2667
ルは	-2668
コスト	-2669
停止	-2670
特許	-2671
▁例えば	-2672
ガソリン	-2673
器の	-2674
作動	-2675
かかる	-2676
時点	-2677
権を	-2678
▁ある	-2679
ことから	-2680
ネイバー	-2681
イズ	-2682
になっている	-2683
かなり	-2684
代表は	-2685
まれ	-2686
技術が	-2687
紛争	-2688
状態で	-2689
実に	-2690
を結	-2691
攻撃	-2692
賃貸	-2693
独立	-2694
クの	-2695
一層	-2696
振動	-2697
これらの	-2698
に合わせて	-2699
フリ	-2700
の変化	-2701
主導	-2702
する予定	-2703
トラック	-2704
げた	-2705
他にも	-2706
ギリ	-2707
を上げ	-2708
と一緒に	-2709
スタートアップ	-2710
製品の	-2711
に乗	-2712
出身	-2713
ともなう	-2714
ガー	-2715
地帯	-2716
グレ	-2717
レク	-2718
消費者の	-2719
連携	-2720
ゲート	-2721
気持ち	-2722
ミック	-2723
万人	-2724
境界	-2725
一部	-2726
参考	-2727
打ち	-2728
と呼ばれる	-2729
パン	-2730
などは	-2731
をお	-2732
使わ	-2733
、7	-2734
商用	-2735
誘導	-2736
流入	-2737
2017	-2738
フレーム	-2739
を集めている	-2740
▁1	-2741
労組は	-2742
も出	-2743
複合	-2744
▁全	-2745
本当に	-2746
を要求	-2747
がさらに	-2748
会長は	-2749
販売台	-2750
たちを	-2751
医師	-2752
へと	-2753
個人情報	-2754
ヨー	-2755
SNS	-2756
と思う	-2757
分野の	-2758
完了	-2759
ミング	-2760
ケーブル	-2761
it	-2762
が最も	-2763
ことだ	-2764
いつも	-2765
最高の	-2766
情報通信	-2767
に基づいて	-2768
直ちに	-2769
代の	-2770
が出た	-2771
されると	-2772
CE	-2773
原則	-2774
検出	-2775
▁I	-2776
使う	-2777
ホテル	-2778
et	-2779
未満	-2780
興味	-2781
▁そう	-2782
▁本校	-2783
のではないか	-2784
面積	-2785
ものと見られる	-2786
ズマ	-2787
に沿って	-2788
層の	-2789
意識	-2790
グーグル	-2791
恐れ	-2792
電池の	-2793
大衆	-2794
企業は	-2795
するためには	-2796
くり	-2797
することにより	-2798
くい	-2799
年には	-2800
トレ	-2801
放課	-2802
されていない	-2803
コム	-2804
不安	-2805
連盟	-2806
シーズ	-2807
ランプ	-2808
LED	-2809
▁当時	-2810
時代の	-2811
年齢	-2812
ホームページ	-2813
期の	-2814
証明	-2815
に移	-2816
対比	-2817
ウンド	-2818
代表的な	-2819
ポン	-2820
を見つ	-2821
タクシー	-2822
なぜ	-2823
加工	-2824
ることができ	-2825
顧客が	-2826
追い	-2827
レーション	-2828
を変	-2829
の実	-2830
汚染	-2831
市場を	-2832
と言って	-2833
テク	-2834
ッチング	-2835
2000	-2836
を受けている	-2837
居住	-2838
を増	-2839
付けられた	-2840
輸入車	-2841
仮想	-2842
挑戦	-2843
メル	-2844
日程	-2845
立ち	-2846
色の	-2847
誕生	-2848
子供の	-2849
マンション	-2850
父親	-2851
病気	-2852
正しい	-2853
ドゥ	-2854
登校	-2855
的には	-2856
リューション	-2857
と同	-2858
始め	-2859
が含ま	-2860
35	-2861
ドア	-2862
コネク	-2863
で開かれた	-2864
革命	-2865
からは	-2866
が容易	-2867
積極的な	-2868
放送される	-2869
モビリティ	-2870
を出	-2871
位の	-2872
言語	-2873
コンサ	-2874
公示した	-2875
フォー	-2876
監視	-2877
部屋	-2878
送信	-2879
葛藤	-2880
かどう	-2881
っており	-2882
プレミアム	-2883
ヤン	-2884
長の	-2885
縮小	-2886
プラズマ	-2887
見通しだ	-2888
変わった	-2889
およびその	-2890
々の	-2891
を強化	-2892
チン	-2893
パラ	-2894
創出	-2895
上場	-2896
は昨年	-2897
をしている	-2898
1000	-2899
マルチ	-2900
)、	-2901
専用	-2902
かげ	-2903
保育	-2904
ロッパ	-2905
の高	-2906
世紀	-2907
当たり	-2908
を発	-2909
▁この日	-2910
私たちが	-2911
に過ぎ	-2912
に入った	-2913
くと	-2914
るかに	-2915
二つの	-2916
放電	-2917
無料	-2918
問題は	-2919
系列	-2920
提供される	-2921
江南	-2922
ビー	-2923
夫婦	-2924
クラス	-2925
雇用保険	-2926
強力な	-2927
に至	-2928
許可	-2929
電動	-2930
ギャラク	-2931
少なくとも	-2932
ic	-2933
定着	-2934
進出	-2935
45	-2936
定的な	-2937
ベンチャー	-2938
動画	-2939
今後の	-2940
を確保	-2941
相次いで	-2942
手数	-2943
院は	-2944
と言い	-2945
もので	-2946
▁俳優	-2947
方式で	-2948
ミー	-2949
低迷	-2950
浮上	-2951
そこ	-2952
彼らの	-2953
休業	-2954
を続	-2955
ネス	-2956
ウェイ	-2957
性は	-2958
を発売	-2959
入れる	-2960
支配	-2961
を選択	-2962
ことにより	-2963
ヨーロッパ	-2964
休暇	-2965
長所	-2966
▁そのため	-2967
ブロックチェーン	-2968
界の	-2969
場で	-2970
大学の	-2971
者である	-2972
役割を果た	-2973
えられる	-2974
中古	-2975
手数料	-2976
ならば	-2977
にともなう	-2978
農業	-2979
悪化	-2980
に関心	-2981
ST	-2982
乗用	-2983
ブレー	-2984
AR	-2985
全般	-2986
公団	-2987
火災	-2988
タイプ	-2989
考える	-2990
する時	-2991
ワード	-2992
に続き	-2993
という指摘	-2994
することも	-2995
難しく	-2996
あります	-2997
目に	-2998
▁だが	-2999
教育庁	-3000
民主労総	-3001
好き	-3002
▁チョン	-3003
に置	-3004
デス	-3005
ワーゲ	-3006
st	-3007
▁ところが	-3008
クスワーゲ	-3009
フォルクスワーゲ	-3010
感知	-3011
我が	-3012
を最小	-3013
青少年	-3014
▁これまで	-3015
突然	-3016
財産	-3017
中心の	-3018
を選	-3019
違い	-3020
ギャラクシー	-3021
レベ	-3022
言う	-3023
に使用	-3024
次のように	-3025
を行い	-3026
を構成	-3027
ソリューション	-3028
分から	-3029
をか	-3030
意志	-3031
完成車	-3032
減った	-3033
子が	-3034
所に	-3035
たる	-3036
もっと	-3037
一帯	-3038
避け	-3039
を改善	-3040
日午前	-3041
DI	-3042
くなった	-3043
質の	-3044
を決	-3045
KT	-3046
差し	-3047
4.	-3048
明らかに	-3049
EV	-3050
押し	-3051
法人	-3052
苦し	-3053
を聞	-3054
▁米国	-3055
できるようにする	-3056
▁ク	-3057
MC	-3058
やり	-3059
彼女	-3060
現代自動車の	-3061
経路	-3062
アカ	-3063
上半期	-3064
、8	-3065
気が	-3066
が可能だ	-3067
リオ	-3068
期待される	-3069
下記	-3070
を開発	-3071
衝突	-3072
料金	-3073
の後	-3074
ながらも	-3075
広域	-3076
タリング	-3077
駐車	-3078
に該当	-3079
説明だ	-3080
とは異なり	-3081
方針だ	-3082
唯一	-3083
ロン	-3084
わけだ	-3085
と関連して	-3086
今は	-3087
魅力	-3088
ビジ	-3089
根拠	-3090
ならない	-3091
▁これに対し	-3092
権利	-3093
海洋	-3094
やすい	-3095
現れる	-3096
実行	-3097
プラス	-3098
ソウル市	-3099
不法	-3100
放課後	-3101
カリ	-3102
接種	-3103
顧客の	-3104
英語	-3105
日産	-3106
刺激	-3107
開催	-3108
台に	-3109
が広が	-3110
くなる	-3111
正確な	-3112
状況を	-3113
ビット	-3114
比較的	-3115
▁彼らは	-3116
の時	-3117
事実上	-3118
ボー	-3119
均一	-3120
ビョン	-3121
支援する	-3122
地に	-3123
場面	-3124
従事	-3125
スラ	-3126
性に	-3127
設け	-3128
わず	-3129
フォード	-3130
を表	-3131
財団	-3132
目的とする	-3133
えられた	-3134
を見せた	-3135
ほか	-3136
有無	-3137
を防ぐ	-3138
が発生する	-3139
透明	-3140
調達	-3141
信号を	-3142
言い	-3143
した場合	-3144
高速道路	-3145
されていた	-3146
コンセプト	-3147
工場の	-3148
意思	-3149
フェイス	-3150
形の	-3151
分類	-3152
からの	-3153
ピー	-3154
に乗り出す	-3155
車両の	-3156
相対的に	-3157
債権	-3158
暗号	-3159
十分に	-3160
どの	-3161
グリ	-3162
NA	-3163
はず	-3164
従来	-3165
さんが	-3166
プレゼ	-3167
シリコン	-3168
執行	-3169
400	-3170
億ウォンを	-3171
向上させることができる	-3172
提供する	-3173
給食	-3174
うえ	-3175
宣言	-3176
疾病管理	-3177
マイクロ	-3178
ユーチューブ	-3179
新型コロナウイルスの	-3180
込む	-3181
でない	-3182
ジスタ	-3183
開かれる	-3184
クが	-3185
教授は	-3186
をはじめとする	-3187
..	-3188
電気自動車の	-3189
金は	-3190
だけの	-3191
存在する	-3192
スカ	-3193
ケア	-3194
いくつか	-3195
失敗	-3196
定期	-3197
明る	-3198
36	-3199
を訪問	-3200
と指摘した	-3201
定義	-3202
たって	-3203
もなく	-3204
状況だ	-3205
メルセ	-3206
を集めた	-3207
el	-3208
▁F	-3209
モン	-3210
する必要がある	-3211
ログ	-3212
試み	-3213
分割	-3214
ハナ	-3215
水が	-3216
緊張	-3217
全面	-3218
シート	-3219
年ぶりに	-3220
、9	-3221
職業	-3222
配達	-3223
暴力	-3224
高校	-3225
ウェハー	-3226
終了	-3227
自営業	-3228
残っている	-3229
自動車メーカー	-3230
担保	-3231
早期	-3232
量は	-3233
を備えた	-3234
印刷	-3235
平野	-3236
建築	-3237
ou	-3238
注文	-3239
の中心	-3240
で初めて	-3241
社員	-3242
保有している	-3243
oo	-3244
キシ	-3245
考えて	-3246
自動的に	-3247
損傷	-3248
足り	-3249
新しく	-3250
助け	-3251
最後の	-3252
イム	-3253
希望する	-3254
に集中	-3255
パイ	-3256
露出	-3257
申し上げ	-3258
号線が	-3259
労働者が	-3260
人事	-3261
日間	-3262
激しい	-3263
会社である	-3264
変速	-3265
ing	-3266
病院の	-3267
メルセデス	-3268
市場は	-3269
という点で	-3270
ポリ	-3271
.5%	-3272
行われ	-3273
らい	-3274
ボルボ	-3275
委員会は	-3276
▁マ	-3277
提出	-3278
▁このため	-3279
拒否	-3280
事業の	-3281
資金を	-3282
作成	-3283
個別	-3284
災難	-3285
を提供すること	-3286
シナ	-3287
所で	-3288
検証	-3289
深く	-3290
端子	-3291
報告書	-3292
初等学校	-3293
が大	-3294
デビュー	-3295
▁これらの	-3296
▁オ	-3297
家に	-3298
されたが	-3299
尽く	-3300
姿を	-3301
抜け	-3302
見て	-3303
計画を	-3304
▁3	-3305
売買	-3306
口座	-3307
回の	-3308
方案	-3309
新聞	-3310
独自	-3311
エル	-3312
区間	-3313
を開示する	-3314
を構築	-3315
まと	-3316
数学	-3317
講師	-3318
サイズ	-3319
人物	-3320
成分	-3321
観測	-3322
ブレーキ	-3323
面白	-3324
どのような	-3325
新たに	-3326
を超える	-3327
銀行は	-3328
共感	-3329
担任	-3330
育成	-3331
に向か	-3332
キャンペ	-3333
に陥	-3334
来た	-3335
チョル	-3336
効果を	-3337
過去の	-3338
活発	-3339
観点	-3340
5000	-3341
国会	-3342
方の	-3343
非常	-3344
能力を	-3345
▁BMW	-3346
が初めて	-3347
機構	-3348
選ば	-3349
閉鎖	-3350
▁東	-3351
分析した	-3352
反面	-3353
普段	-3354
なると	-3355
インタ	-3356
伝える	-3357
が行われる	-3358
してください	-3359
を着	-3360
結果を	-3361
しようと	-3362
子ど	-3363
近づ	-3364
ER	-3365
指標	-3366
来月	-3367
ますます	-3368
インフラ	-3369
処分	-3370
適切な	-3371
車は	-3372
▁中国	-3373
▁もちろん	-3374
保護者の皆	-3375
振興	-3376
までの	-3377
▁パク	-3378
作られた	-3379
上で	-3380
方に	-3381
及びその	-3382
室内	-3383
年末	-3384
億ウォンの	-3385
▁前	-3386
的だ	-3387
なし	-3388
を置	-3389
異常	-3390
下の	-3391
という分析	-3392
99	-3393
季節	-3394
が難しい	-3395
を設置	-3396
加速	-3397
に比べ	-3398
側が	-3399
すことができる	-3400
体は	-3401
ハラ	-3402
アパート	-3403
っぱ	-3404
両親	-3405
支払	-3406
▁SK	-3407
車が	-3408
えると	-3409
トーク	-3410
臨床	-3411
通過	-3412
美しい	-3413
を作って	-3414
CD	-3415
を再	-3416
50%	-3417
承認	-3418
に適	-3419
動物	-3420
行った	-3421
められた	-3422
川が	-3423
合流	-3424
祈り	-3425
警告	-3426
記事	-3427
請求	-3428
ガイド	-3429
パートナー	-3430
ソル	-3431
投票	-3432
短期	-3433
アルゴ	-3434
ニック	-3435
疑問	-3436
資格	-3437
げる	-3438
出た	-3439
協力を	-3440
為替	-3441
ダム	-3442
午後	-3443
ネシ	-3444
参加を	-3445
可否	-3446
この日	-3447
を開き	-3448
ボード	-3449
実践	-3450
絶対	-3451
詳細	-3452
わない	-3453
別途の	-3454
修正	-3455
迅速	-3456
メール	-3457
しまった	-3458
蔚山	-3459
コル	-3460
貢献	-3461
ダウン	-3462
ソナ	-3463
約束	-3464
普及	-3465
うる	-3466
だき	-3467
吸収	-3468
チック	-3469
に必要な	-3470
▁各	-3471
仏教	-3472
フィン	-3473
一時	-3474
しばらく	-3475
がより	-3476
調べ	-3477
募集	-3478
持つ	-3479
装置を提供する	-3480
彼が	-3481
購買	-3482
会長の	-3483
を示した	-3484
照明	-3485
趣旨	-3486
コア	-3487
については	-3488
人余り	-3489
大きさ	-3490
2016	-3491
ボックス	-3492
人公	-3493
みられる	-3494
ウリィ	-3495
事業場	-3496
消費者が	-3497
トランジスタ	-3498
だろうか	-3499
に乗り出した	-3500
SM	-3501
レート	-3502
ロッテ	-3503
工学	-3504
そんな	-3505
周波数	-3506
コミュニティ	-3507
洗浄	-3508
を担当	-3509
機関が	-3510
区分	-3511
川の	-3512
でしょう	-3513
下半期	-3514
企業に	-3515
性格	-3516
が適用	-3517
を見ると	-3518
かした	-3519
メモリ	-3520
けている	-3521
伴う	-3522
来る	-3523
稼動	-3524
創業	-3525
理由で	-3526
会員	-3527
貯蓄	-3528
を迎え	-3529
行く	-3530
陽性	-3531
こともある	-3532
基盤の	-3533
ケート	-3534
が見	-3535
周辺の	-3536
2,	-3537
突破	-3538
言及	-3539
恩恵	-3540
電解	-3541
現地	-3542
好奇	-3543
有の	-3544
▁政府が	-3545
▁この日の	-3546
が位置	-3547
微細	-3548
時には	-3549
▁教育	-3550
ファー	-3551
に進	-3552
入り	-3553
冷却	-3554
図書	-3555
ァン	-3556
方法で	-3557
簡単な	-3558
会社に	-3559
個人の	-3560
うま	-3561
伴い	-3562
れていた	-3563
業界では	-3564
に対しては	-3565
化の	-3566
明らかになった	-3567
すぎ	-3568
公募	-3569
せずに	-3570
起亜自動車の	-3571
推薦	-3572
データの	-3573
クレ	-3574
通知	-3575
効果が	-3576
力と	-3577
人々は	-3578
に備	-3579
バラ	-3580
受け取	-3581
ブレ	-3582
低減	-3583
ちゃ	-3584
▁釜山	-3585
以内に	-3586
と主張した	-3587
望む	-3588
きれ	-3589
台を	-3590
直面	-3591
変換	-3592
順位	-3593
クは	-3594
ワク	-3595
さんの	-3596
会は	-3597
シーズン	-3598
ソーシャル	-3599
特徴とする	-3600
シミ	-3601
が出演	-3602
障害者	-3603
忠清	-3604
▁一般	-3605
参加する	-3606
知っている	-3607
ペイ	-3608
急激	-3609
社は	-3610
ヨーク	-3611
基板の	-3612
ピン	-3613
円滑	-3614
クラブ	-3615
資産運用	-3616
あるいは	-3617
を与えた	-3618
放射	-3619
陰極	-3620
もやはり	-3621
者として	-3622
▁200	-3623
るために	-3624
オーディ	-3625
ほぼ	-3626
率の	-3627
続く	-3628
」、	-3629
気候	-3630
トップ	-3631
を通して	-3632
線が	-3633
30%	-3634
▁続けて	-3635
本格的に	-3636
を支援する	-3637
薄膜	-3638
かが	-3639
があります	-3640
やや	-3641
を推進	-3642
書き	-3643
関係者の	-3644
モーターショー	-3645
re	-3646
回答	-3647
だと思	-3648
▁本発明によると	-3649
作家	-3650
月末	-3651
長さ	-3652
々と	-3653
を失	-3654
っくり	-3655
追加で	-3656
監査	-3657
挿入	-3658
比重	-3659
結晶	-3660
遊び	-3661
主な	-3662
事情	-3663
体制	-3664
去る	-3665
小さい	-3666
められる	-3667
エッチング	-3668
の内	-3669
を用	-3670
想像	-3671
上がる	-3672
対話	-3673
予約	-3674
依存	-3675
▁つまり	-3676
所が	-3677
役員	-3678
地域で	-3679
深刻な	-3680
高級	-3681
につながる	-3682
わけではない	-3683
最善	-3684
院が	-3685
たちと	-3686
神経	-3687
課程	-3688
連絡	-3689
を経験	-3690
▁コ	-3691
一定	-3692
寿命	-3693
詳しくは	-3694
するだろう	-3695
今日	-3696
出会	-3697
▁結局	-3698
モデルの	-3699
体験学習	-3700
セラ	-3701
20%	-3702
役立つ	-3703
可能性を	-3704
も出ている	-3705
AT	-3706
マネ	-3707
10%	-3708
公示	-3709
流れる	-3710
のではなく	-3711
かげで	-3712
判定を受けた	-3713
容量	-3714
振り	-3715
をし	-3716
作り	-3717
無給	-3718
地位	-3719
人も	-3720
挙げられる	-3721
安全な	-3722
にわ	-3723
彼ら	-3724
統制	-3725
に入る	-3726
アルゴリズム	-3727
寄与	-3728
総連盟	-3729
エンター	-3730
破壊	-3731
頻繁	-3732
を感じ	-3733
を準備	-3734
対面	-3735
住居	-3736
込んだ	-3737
があるが	-3738
ion	-3739
▁先	-3740
カバー	-3741
ヘッド	-3742
が非常に	-3743
不便	-3744
延期	-3745
フェイスブック	-3746
の外	-3747
活躍	-3748
賠償	-3749
デバイ	-3750
変動したと	-3751
審議	-3752
を直接	-3753
万ウォンの	-3754
島の	-3755
社会の	-3756
配当	-3757
薬品	-3758
価格の	-3759
合理	-3760
整理	-3761
製造業	-3762
のです	-3763
がつ	-3764
関心と	-3765
かる	-3766
が起こ	-3767
カム	-3768
しかない	-3769
スーパー	-3770
金融監督	-3771
知られている	-3772
バンド	-3773
十分な	-3774
年生	-3775
度は	-3776
数値	-3777
行う	-3778
特徴だ	-3779
ナビ	-3780
ローン	-3781
交流	-3782
でもある	-3783
を見せている	-3784
いわ	-3785
関係者	-3786
スタイル	-3787
が始	-3788
もない	-3789
地域に	-3790
組立	-3791
調和	-3792
年生の	-3793
反発	-3794
を締結	-3795
労組の	-3796
責任を	-3797
デュ	-3798
答えた	-3799
完璧	-3800
MBC	-3801
教育の	-3802
さんは	-3803
っき	-3804
循環	-3805
を購入	-3806
を開始	-3807
パワ	-3808
ライト	-3809
基地	-3810
生物	-3811
生態系	-3812
▁政府は	-3813
きち	-3814
支障	-3815
熱い	-3816
ご家庭	-3817
テイン	-3818
入れた	-3819
次世代	-3820
ON	-3821
したのは	-3822
持株	-3823
誰も	-3824
▁映画	-3825
勧告	-3826
変形	-3827
本校	-3828
KBS	-3829
行き	-3830
見た	-3831
などがある	-3832
点が	-3833
訓練	-3834
▁H	-3835
財務	-3836
オート	-3837
カラー	-3838
ベト	-3839
一日	-3840
地形	-3841
▁世界	-3842
アプリケーション	-3843
の新	-3844
銘柄	-3845
ナノ	-3846
会が	-3847
急増	-3848
セダン	-3849
影響を及ぼす	-3850
▁私は	-3851
労働組合総連盟	-3852
に会	-3853
▁双龍	-3854
方法を	-3855
類似	-3856
ほとんどの	-3857
増え	-3858
尋ね	-3859
に突	-3860
部署	-3861
委員長	-3862
入院	-3863
の販売	-3864
億ドル	-3865
免疫	-3866
コイル	-3867
意見を	-3868
インフル	-3869
に参加した	-3870
の発生	-3871
を作成	-3872
かね	-3873
発熱	-3874
れており	-3875
示される	-3876
することになった	-3877
を提供することを	-3878
南北	-3879
補完	-3880
まるで	-3881
パス	-3882
状況が	-3883
誘発	-3884
建物	-3885
貯水	-3886
当然	-3887
欠陥	-3888
知り	-3889
いくつかの	-3890
CC	-3891
▁もし	-3892
▁研究	-3893
ジェネシ	-3894
負荷	-3895
集計	-3896
ピック	-3897
▁ルノーサムスン	-3898
中止	-3899
実質	-3900
土地	-3901
程度の	-3902
けば	-3903
ベトナム	-3904
が起き	-3905
サーバー	-3906
合わせた	-3907
従業	-3908
をより	-3909
ビング	-3910
分野で	-3911
インフルエン	-3912
残りの	-3913
効果的に	-3914
テン	-3915
累積	-3916
38	-3917
に戻	-3918
ゴン	-3919
子供たちが	-3920
ビン	-3921
リム	-3922
文を	-3923
物語	-3924
スピーカー	-3925
山地	-3926
問題が	-3927
日には	-3928
部材	-3929
ステアリング	-3930
装置に関するものだ	-3931
DA	-3932
を生産	-3933
付加	-3934
飛び	-3935
徐々に	-3936
方法は	-3937
面で	-3938
と評価	-3939
を用意	-3940
スティ	-3941
テインメント	-3942
とその	-3943
と関連した	-3944
エイ	-3945
強制	-3946
なければならなかった	-3947
▁何	-3948
視覚	-3949
がよく	-3950
を開催	-3951
時代に	-3952
水の	-3953
業者の	-3954
しかった	-3955
するには	-3956
付近	-3957
の研究	-3958
AN	-3959
ac	-3960
ハッ	-3961
柔軟	-3962
激しく	-3963
金利が	-3964
合併	-3965
▁4	-3966
位に	-3967
処罰	-3968
えられ	-3969
けない	-3970
ビジネス	-3971
効率的に	-3972
子を	-3973
物流	-3974
ファイ	-3975
増幅	-3976
形式	-3977
配線	-3978
であれば	-3979
原理	-3980
しては	-3981
いだ	-3982
ルを	-3983
っかり	-3984
を通過	-3985
男性	-3986
装置は	-3987
交差	-3988
ボール	-3989
起亜自動車	-3990
伸び	-3991
四半期の	-3992
方法に関するものだ	-3993
37	-3994
6.	-3995
ET	-3996
大宇	-3997
浮か	-3998
を使う	-3999
比率が	-4000
現場で	-4001
開始	-4002
を見せる	-4003
んでいた	-4004
具体的な	-4005
パッド	-4006
レベルの	-4007
を活用した	-4008
プレゼント	-4009
▁サムスン電子	-4010
やかな	-4011
午前	-4012
回収	-4013
自律	-4014
私たちは	-4015
合い	-4016
普通	-4017
起こす	-4018
に従って	-4019
エンジンを	-4020
残念	-4021
am	-4022
シボ	-4023
節減	-4024
生存	-4025
遅延	-4026
する計画	-4027
委員会が	-4028
ol	-4029
酸素	-4030
が出る	-4031
が増加	-4032
勉強	-4033
弁護	-4034
自主	-4035
を持ち	-4036
ジット	-4037
IS	-4038
の上に	-4039
48	-4040
ッツ	-4041
排気	-4042
ができ	-4043
慶尚北道	-4044
体育	-4045
闘争	-4046
パーク	-4047
容易に	-4048
違って	-4049
半導体素子の	-4050
65	-4051
がい	-4052
アンケート	-4053
地図	-4054
ユーザ	-4055
DC	-4056
命令	-4057
プレー	-4058
社長は	-4059
ることになる	-4060
次第	-4061
講義	-4062
を供給	-4063
▁R	-4064
特典	-4065
状態を	-4066
点は	-4067
に出演	-4068
ンジャー	-4069
パターン	-4070
向け	-4071
が登場	-4072
キャンプ	-4073
生徒の	-4074
シュー	-4075
貯水池	-4076
ヒー	-4077
村は	-4078
に指定	-4079
フィック	-4080
を活用して	-4081
人権	-4082
の使用	-4083
コメント	-4084
反射	-4085
みると	-4086
ポータ	-4087
改正案	-4088
TS	-4089
毎日	-4090
してから	-4091
センターの	-4092
いな	-4093
侵害	-4094
自身の	-4095
区域	-4096
徹底	-4097
部分が	-4098
スペース	-4099
子供たちの	-4100
くれ	-4101
料理	-4102
演出	-4103
しますので	-4104
万ウォンを	-4105
最低賃金の	-4106
▁北	-4107
シティ	-4108
ハンド	-4109
保護者の方	-4110
便宜	-4111
フリー	-4112
コネクタ	-4113
アド	-4114
意図	-4115
となり	-4116
似ている	-4117
知らせる	-4118
燃料電池	-4119
創造	-4120
若い	-4121
変わり	-4122
視聴者の	-4123
ことになった	-4124
LS	-4125
付着	-4126
フォーマ	-4127
使用する	-4128
大規模な	-4129
0%	-4130
マス	-4131
リの	-4132
改編	-4133
流行	-4134
600	-4135
ブラック	-4136
運営する	-4137
ようになる	-4138
ットの	-4139
についての	-4140
不当	-4141
部門の	-4142
セク	-4143
国民の	-4144
タイトル	-4145
地上	-4146
ペク	-4147
目的は	-4148
に大きな	-4149
数多くの	-4150
シル	-4151
首都	-4152
本部は	-4153
だけでも	-4154
AP	-4155
近隣	-4156
つつ	-4157
他に	-4158
人々の	-4159
増える	-4160
歳の	-4161
これに	-4162
リンク	-4163
するよう	-4164
かす	-4165
▁その結果	-4166
人たちが	-4167
我々	-4168
萎縮	-4169
解除	-4170
光を	-4171
必須	-4172
所は	-4173
デュー	-4174
レンジ	-4175
を持った	-4176
することだ	-4177
を繰り広げ	-4178
されることを	-4179
が高く	-4180
本格的な	-4181
上位	-4182
気に	-4183
したのだ	-4184
満期	-4185
最後に	-4186
をさらに	-4187
199	-4188
くださ	-4189
してお	-4190
で構成された	-4191
2015	-4192
似た	-4193
が集中	-4194
の開発	-4195
カップ	-4196
地方道	-4197
分子	-4198
追求	-4199
短い	-4200
その後	-4201
小規模	-4202
といって	-4203
チームが	-4204
を公開した	-4205
パシ	-4206
ヤー	-4207
を公開	-4208
モール	-4209
中型	-4210
接近	-4211
業績	-4212
の間に	-4213
バラン	-4214
感覚	-4215
トロール	-4216
を楽し	-4217
国内で	-4218
規模が	-4219
モニタリング	-4220
掲載	-4221
自然に	-4222
フランス	-4223
55	-4224
職員の	-4225
いわゆる	-4226
されます	-4227
がな	-4228
ラル	-4229
を達成	-4230
いか	-4231
垂直	-4232
当初	-4233
運転手	-4234
してほしい	-4235
合成	-4236
事前に	-4237
書いた	-4238
営業利益	-4239
博士	-4240
初めての	-4241
を示す	-4242
子ども	-4243
しまう	-4244
企業と	-4245
▁それで	-4246
受講	-4247
が集まっている	-4248
債券	-4249
党の	-4250
ったが	-4251
ラジオ	-4252
らなければならない	-4253
哲学	-4254
エラー	-4255
上がり	-4256
っきり	-4257
費を	-4258
端末機の	-4259
卒業	-4260
象徴	-4261
電磁	-4262
を受賞	-4263
公開される	-4264
間で	-4265
らしい	-4266
ーブ	-4267
指数	-4268
積み	-4269
請け	-4270
構造の	-4271
等の	-4272
降り	-4273
ユーザーが	-4274
▁上記	-4275
プラグ	-4276
現れた	-4277
といえる	-4278
パワー	-4279
ビッグデータ	-4280
育児	-4281
したこと	-4282
制裁	-4283
が過ぎ	-4284
ほどの	-4285
空港	-4286
に加入	-4287
競争力	-4288
促進	-4289
トンネル	-4290
連帯	-4291
うまく	-4292
ことにした	-4293
取締	-4294
場に	-4295
種類の	-4296
問題を解決	-4297
があって	-4298
果たして	-4299
良好	-4300
地方自治	-4301
サービスを提供する	-4302
獲得	-4303
患者は	-4304
▁先立って	-4305
アウディ	-4306
安定した	-4307
以外	-4308
交わ	-4309
放出	-4310
をよく	-4311
▁V	-4312
」「	-4313
幅が	-4314
第一	-4315
赤字	-4316
入した	-4317
現場の	-4318
がなかった	-4319
派遣	-4320
混乱	-4321
証拠	-4322
職員が	-4323
ビジョン	-4324
に関するものであり	-4325
が高まっている	-4326
代理	-4327
加わ	-4328
改革	-4329
されるように	-4330
にか	-4331
商業	-4332
有利	-4333
速度を	-4334
申込	-4335
限り	-4336
いなかった	-4337
システムは	-4338
生徒たちの	-4339
秘密	-4340
量産	-4341
に含ま	-4342
ライフ	-4343
色々な	-4344
委員長は	-4345
ブランドの	-4346
論理	-4347
注目される	-4348
39	-4349
観覧	-4350
無給休職	-4351
国立	-4352
手当	-4353
額が	-4354
彼らが	-4355
友達	-4356
懲戒	-4357
部品の	-4358
分からない	-4359
かは	-4360
現金	-4361
ポル	-4362
渓谷	-4363
昨年の	-4364
始業	-4365
カフェ	-4366
メート	-4367
恐れがある	-4368
▁起亜自動車は	-4369
の一部	-4370
加入者	-4371
人類	-4372
を加	-4373
スダ	-4374
共通	-4375
をもたら	-4376
▁現代自動車は	-4377
管の	-4378
価格は	-4379
リュ	-4380
医学	-4381
韓進	-4382
騒音	-4383
ビル	-4384
まれる	-4385
物理学	-4386
点がある	-4387
サービスが	-4388
を描	-4389
▁ここに	-4390
学期	-4391
編成	-4392
オード	-4393
指針	-4394
を除去	-4395
を抑制	-4396
感じられる	-4397
タクト	-4398
公務員	-4399
プル	-4400
クォン	-4401
信号の	-4402
貸し	-4403
を実現	-4404
予備	-4405
膜の	-4406
ーチ	-4407
に変動したと	-4408
納付	-4409
造船	-4410
産業革命	-4411
法を	-4412
安心	-4413
要件	-4414
った後	-4415
下さい	-4416
を出した	-4417
ed	-4418
期限	-4419
蛍光	-4420
表情	-4421
もまた	-4422
に向けた	-4423
スコ	-4424
江原	-4425
目を引	-4426
盛り込んだ	-4427
ではなかった	-4428
目で	-4429
補正	-4430
事業者	-4431
したと明らかにした	-4432
PG	-4433
デア	-4434
何か	-4435
疎通	-4436
看護	-4437
感染者	-4438
洛東	-4439
ありません	-4440
確診	-4441
結論	-4442
ものの	-4443
を求	-4444
一人	-4445
を出す	-4446
ターの	-4447
ダイオード	-4448
性質	-4449
勤労者の	-4450
成功した	-4451
IN	-4452
頭取	-4453
CM	-4454
▁中	-4455
リモ	-4456
海水	-4457
費の	-4458
に転換	-4459
3000	-4460
インフルエンザ	-4461
ro	-4462
に行く	-4463
月には	-4464
費用を	-4465
という話	-4466
付与	-4467
機器の	-4468
乾燥	-4469
絶え	-4470
に直面	-4471
広域市	-4472
ニューヨーク	-4473
LF	-4474
無限	-4475
▁日本	-4476
ウント	-4477
さと	-4478
テスラ	-4479
下記の	-4480
きちんと	-4481
レーザー	-4482
ユープ	-4483
上昇した	-4484
チームは	-4485
フィルム	-4486
帯域	-4487
排除	-4488
持続的に	-4489
論難	-4490
全国の	-4491
構造を	-4492
ミュージック	-4493
動力	-4494
新韓	-4495
知らない	-4496
PD	-4497
臨時	-4498
読み	-4499
リョン	-4500
人のうち	-4501
を使用して	-4502
を使用する	-4503
心が	-4504
ることを	-4505
研究員は	-4506
イノ	-4507
悪い	-4508
二次電池	-4509
という事実	-4510
34	-4511
修理	-4512
を占めた	-4513
持っている	-4514
かく	-4515
めぐ	-4516
飛行	-4517
受けた	-4518
▁だから	-4519
られなかった	-4520
つき	-4521
役に	-4522
シボレー	-4523
特別関係者の	-4524
二重	-4525
保管	-4526
預金	-4527
▁学校	-4528
捨て	-4529
シェア	-4530
ソース	-4531
状態だ	-4532
するものと	-4533
伝播	-4534
参加し	-4535
トロット	-4536
ルー	-4537
働く	-4538
を導入	-4539
▁両	-4540
丘陵	-4541
発言	-4542
自信	-4543
論文	-4544
部長官	-4545
重工業	-4546
リアルタイムで	-4547
中だ	-4548
先立ち	-4549
中継	-4550
扱う	-4551
習慣	-4552
支援金	-4553
という評価	-4554
ざる	-4555
機能が	-4556
ワールド	-4557
▁水	-4558
法的	-4559
はるかに	-4560
7.	-4561
速度が	-4562
ってくる	-4563
テレコム	-4564
なければならず	-4565
ss	-4566
にあ	-4567
アイデア	-4568
▁エ	-4569
伝導	-4570
史上	-4571
台が	-4572
放送された	-4573
を理解	-4574
明かした	-4575
エンジンの	-4576
CP	-4577
ch	-4578
始める	-4579
さなければならない	-4580
委託	-4581
形で	-4582
形状	-4583
ティア	-4584
全員	-4585
われた	-4586
ヨンが	-4587
付けた	-4588
時から	-4589
水準の	-4590
を終えた	-4591
多重	-4592
家電	-4593
研修	-4594
ライム	-4595
私募	-4596
CEO	-4597
ホル	-4598
導電	-4599
開放	-4600
俳優の	-4601
全羅	-4602
示す	-4603
の中央	-4604
100%	-4605
を尽く	-4606
潜在	-4607
を与え	-4608
ストラ	-4609
▁5	-4610
メイン	-4611
ようとする	-4612
ウエ	-4613
英国	-4614
を得た	-4615
エコカー	-4616
ナン	-4617
入口	-4618
隣接	-4619
KB	-4620
圧縮	-4621
地点	-4622
ダイナ	-4623
精密	-4624
▁チョ	-4625
死亡した	-4626
借り	-4627
レクト	-4628
明確に	-4629
値を	-4630
金利引き下げ	-4631
を抱	-4632
選手	-4633
なども	-4634
サイバー	-4635
裁判所は	-4636
装置及び	-4637
根本	-4638
技術は	-4639
方式の	-4640
相手に	-4641
ことによって	-4642
協業	-4643
所在	-4644
植物	-4645
が直接	-4646
制度を	-4647
由来	-4648
追跡	-4649
競争力を	-4650
選ばれた	-4651
期待している	-4652
分譲	-4653
周囲	-4654
問い	-4655
医薬品	-4656
インタビュー	-4657
分に	-4658
ジング	-4659
未来の	-4660
小商工人	-4661
が進	-4662
印象	-4663
▁こう	-4664
基準に	-4665
続いて	-4666
ボム	-4667
豊富	-4668
が進行	-4669
情報の	-4670
の新しい	-4671
恐怖	-4672
昌原	-4673
最新	-4674
読書	-4675
▁先月	-4676
ンジェ	-4677
の危険	-4678
高性能	-4679
教育活動	-4680
宗教	-4681
望ま	-4682
編集	-4683
コントロール	-4684
▁W	-4685
多少	-4686
分散	-4687
書類	-4688
しようと思います	-4689
▁南	-4690
応答	-4691
が続く	-4692
見ると	-4693
ジャーナ	-4694
ことができない	-4695
ずれ	-4696
厳しい	-4697
よい	-4698
廃止	-4699
▁KT	-4700
付ける	-4701
イェ	-4702
対立	-4703
懇談	-4704
数十	-4705
コリアは	-4706
者たちは	-4707
見ている	-4708
したことが	-4709
を無	-4710
曲が	-4711
最後	-4712
あまりにも	-4713
加盟	-4714
進路	-4715
複雑な	-4716
▁従来の	-4717
ベスト	-4718
を作った	-4719
の関係者は	-4720
を生	-4721
の問題	-4722
女性の	-4723
立った	-4724
発売した	-4725
労災	-4726
大量	-4727
を満た	-4728
を明らかにした	-4729
を図	-4730
えれば	-4731
ポール	-4732
経済的	-4733
しなければ	-4734
拘束	-4735
▁以後	-4736
する際	-4737
フロ	-4738
体と	-4739
連邦	-4740
システムで	-4741
避けられない	-4742
区別	-4743
衛生	-4744
食事	-4745
ーンの	-4746
店舗	-4747
に至る	-4748
ガラス	-4749
助ける	-4750
弁護士	-4751
5.	-4752
出身の	-4753
▁金	-4754
労組が	-4755
自体が	-4756
研究開発	-4757
制度の	-4758
洛東江	-4759
私たち	-4760
に該当する	-4761
不振	-4762
議決	-4763
当時の	-4764
ソナタ	-4765
にとって	-4766
法が	-4767
ノート	-4768
病院で	-4769
ベースの	-4770
りが	-4771
ノード	-4772
保険の	-4773
ることは	-4774
わなければならない	-4775
場を	-4776
を提供し	-4777
として活用	-4778
ひど	-4779
式の	-4780
有効	-4781
法案	-4782
首席	-4783
北朝鮮	-4784
ねて	-4785
当た	-4786
武漢	-4787
それが	-4788
▁ここで	-4789
ES	-4790
150	-4791
行われている	-4792
つなが	-4793
の増加	-4794
クーペ	-4795
レンズ	-4796
という言葉	-4797
息子	-4798
せない	-4799
電話機	-4800
力は	-4801
動く	-4802
多数	-4803
様子	-4804
ハード	-4805
労働界	-4806
急速に	-4807
キャパシ	-4808
サイクル	-4809
グループは	-4810
左右	-4811
答え	-4812
らかじめ	-4813
フィンテック	-4814
とイ	-4815
をあ	-4816
するようにした	-4817
すると明らかにした	-4818
いくら	-4819
アクセス	-4820
得られる	-4821
先進	-4822
多目的	-4823
みに	-4824
割り	-4825
道の	-4826
リーダー	-4827
度な	-4828
都心	-4829
里は	-4830
業界は	-4831
の中には	-4832
ファンの	-4833
それぞれの	-4834
脆弱階層の	-4835
PS	-4836
vN	-4837
回る	-4838
くなり	-4839
変速機	-4840
する必要	-4841
本社	-4842
幼い	-4843
800	-4844
ようと	-4845
デート	-4846
ヒュー	-4847
▁O	-4848
アンド	-4849
ビーム	-4850
と見られる	-4851
スクリーン	-4852
を立て	-4853
業者が	-4854
▁自動車	-4855
「2019	-4856
示している	-4857
33	-4858
健全	-4859
身体	-4860
ポータル	-4861
土交通	-4862
音源	-4863
に属	-4864
今後も	-4865
大きかった	-4866
方法を提供する	-4867
経緯	-4868
の先生	-4869
地下鉄	-4870
監督が	-4871
雇用維持	-4872
バンキング	-4873
みが	-4874
大変	-4875
速い	-4876
中古車	-4877
なりません	-4878
アニ	-4879
楽しい	-4880
伝えられた	-4881
が提供される	-4882
感が	-4883
生涯	-4884
地域は	-4885
方案を	-4886
かれている	-4887
周期	-4888
以前の	-4889
低所得	-4890
ジェイン	-4891
トランス	-4892
会見	-4893
単一	-4894
文書	-4895
発揮	-4896
の対象	-4897
49	-4898
ヶ所	-4899
家計	-4900
映画祭	-4901
利子	-4902
家族の	-4903
生きて	-4904
お子	-4905
出発	-4906
当該	-4907
プラン	-4908
経済の	-4909
オーディオ	-4910
基金	-4911
自宅	-4912
はその	-4913
を保護	-4914
ロシア	-4915
太陽光	-4916
に過ぎない	-4917
ay	-4918
が減	-4919
実態	-4920
に投資	-4921
コンサート	-4922
チェック	-4923
確認できる	-4924
保安	-4925
年前	-4926
真空	-4927
肺炎	-4928
を把握	-4929
州市	-4930
ージャ	-4931
上げた	-4932
が現れる	-4933
心臓	-4934
当局は	-4935
されなければならない	-4936
cm	-4937
きに	-4938
パリ	-4939
ルーム	-4940
事業主	-4941
が開示される	-4942
出る	-4943
項目	-4944
推定される	-4945
▁米	-4946
年を	-4947
それを	-4948
及ぼす	-4949
最初に	-4950
○○	-4951
水平	-4952
そうだ	-4953
にとど	-4954
コース	-4955
ナップ	-4956
ニョン	-4957
市場では	-4958
メーカーの	-4959
になるだろう	-4960
スケ	-4961
容疑	-4962
日は	-4963
著作	-4964
と言う	-4965
優秀な	-4966
を務	-4967
国産	-4968
文章	-4969
連動	-4970
適正	-4971
▁上記の	-4972
▁本発明による	-4973
手に	-4974
説得	-4975
SBS	-4976
増大	-4977
立証	-4978
業務を	-4979
エンターテインメント	-4980
伝わ	-4981
石油	-4982
討論	-4983
など多様な	-4984
マーケット	-4985
を提起	-4986
を発表	-4987
であると	-4988
下落した	-4989
皮膚	-4990
乗用車	-4991
向上させ	-4992
シク	-4993
打撃	-4994
事業は	-4995
リコール	-4996
ということを	-4997
教科	-4998
いじめ	-4999
全世界	-5000
比べて	-5001
▁韓国の	-5002
ドイツの	-5003
していると	-5004
OR	-5005
支出	-5006
のである	-5007
▁本校では	-5008
が発達	-5009
大韓民	-5010
感じる	-5011
の場合は	-5012
小説	-5013
生計	-5014
学生の	-5015
メディアの	-5016
モーション	-5017
することになり	-5018
感動	-5019
流出	-5020
衛星	-5021
支給する	-5022
提携	-5023
▁警察	-5024
視聴者	-5025
使い	-5026
国が	-5027
最近の	-5028
投資証券	-5029
持分率が	-5030
が目	-5031
詐欺	-5032
という立場	-5033
億ウォンで	-5034
たび	-5035
老人	-5036
を得る	-5037
遺伝子	-5038
になれば	-5039
に関して	-5040
前年同期	-5041
次産業革命	-5042
集積	-5043
化して	-5044
知って	-5045
グループが	-5046
改善された	-5047
政権	-5048
▁国内の	-5049
受け入れ	-5050
▁サムスン	-5051
▁現代自動車	-5052
分かち	-5053
最大限	-5054
未満の	-5055
に達した	-5056
からである	-5057
を利用する	-5058
最善を尽く	-5059
装置に関するもので	-5060
▁ソ	-5061
足りない	-5062
きっ	-5063
の木	-5064
大切	-5065
を進行	-5066
ッター	-5067
はさらに	-5068
オーバー	-5069
地域社会	-5070
手当て	-5071
物価	-5072
努力を	-5073
が一緒に	-5074
が発生し	-5075
場合には	-5076
が提起	-5077
を追加	-5078
首都圏	-5079
IM	-5080
飲食	-5081
70%	-5082
名前だ	-5083
株主総	-5084
ニュ	-5085
許容	-5086
万ドル	-5087
されなかった	-5088
時間に	-5089
▁ハン	-5090
にも関	-5091
ゾン	-5092
収納	-5093
履行	-5094
ずっと	-5095
を見た	-5096
内容が	-5097
重要だ	-5098
フィルター	-5099
に提	-5100
天然	-5101
様が	-5102
価値を	-5103
を見せて	-5104
装置および	-5105
無理	-5106
の拡大	-5107
レクサ	-5108
組合員	-5109
パソ	-5110
当り	-5111
メッセージを	-5112
会計	-5113
基地局	-5114
▁新しい	-5115
75	-5116
電界	-5117
と比較	-5118
切り替	-5119
可能だ	-5120
ファイル	-5121
積層	-5122
週末	-5123
次第に	-5124
という意味だ	-5125
エク	-5126
傾斜	-5127
客が	-5128
教会	-5129
格差	-5130
栽培	-5131
求職	-5132
消防	-5133
せいで	-5134
期間が	-5135
3,	-5136
早い	-5137
栄養	-5138
の位置	-5139
文学	-5140
▁これに伴い	-5141
の両	-5142
思い出	-5143
パソコン	-5144
農協	-5145
かない	-5146
に住	-5147
入居	-5148
▁他の	-5149
バンク	-5150
新たな	-5151
ミュージカル	-5152
JT	-5153
を含め	-5154
性能を	-5155
▁新型コロナウイルス感染症	-5156
スリ	-5157
デモ	-5158
高さ	-5159
イギリ	-5160
予想した	-5161
移動通信端末機	-5162
ペン	-5163
ヴィ	-5164
世宗	-5165
加熱	-5166
応援	-5167
を予告	-5168
有名な	-5169
し始めた	-5170
コンタクト	-5171
主人公	-5172
取締役	-5173
子供が	-5174
注入	-5175
ソード	-5176
記者会見	-5177
、2017	-5178
▁新型コロナウイルス感染症の	-5179
VR	-5180
om	-5181
介入	-5182
北米	-5183
山と	-5184
を制御	-5185
仕事を	-5186
顧客に	-5187
どれほど	-5188
医療機関	-5189
▁金融監督	-5190
暴行	-5191
が増え	-5192
人件	-5193
新設	-5194
療養	-5195
減少し	-5196
分析される	-5197
指示	-5198
級の	-5199
道を	-5200
戻し	-5201
チェンジ	-5202
▁本発明によれば	-5203
ものを	-5204
ボラン	-5205
慶尚南道	-5206
知られた	-5207
貸し出し	-5208
オフライン	-5209
越し	-5210
SDI	-5211
以下のように	-5212
名称	-5213
利用者が	-5214
にも関わらず	-5215
樹立	-5216
話が	-5217
▁村の	-5218
与える	-5219
中貿易	-5220
訪れる	-5221
年までに	-5222
の花	-5223
待機	-5224
本を	-5225
法則	-5226
は今年	-5227
力発電	-5228
組み立て	-5229
使用される	-5230
試乗	-5231
返済	-5232
代表が	-5233
烈な	-5234
安全に	-5235
着実に	-5236
キャパシタ	-5237
が予想される	-5238
申し上げます	-5239
、2018	-5240
科学技術情報通信	-5241
台で	-5242
真実	-5243
始まり	-5244
2010	-5245
プション	-5246
バージョン	-5247
削除	-5248
シアナ	-5249
現行	-5250
稼働	-5251
できず	-5252
につれ	-5253
不正	-5254
除外	-5255
映画の	-5256
サポート	-5257
を意味する	-5258
ボランティア	-5259
リチウムイオン	-5260
復帰	-5261
したら	-5262
▁この時	-5263
全部	-5264
高価	-5265
図書館	-5266
環境に	-5267
アラ	-5268
シム	-5269
債務	-5270
水を	-5271
総額	-5272
聞いて	-5273
引き続き	-5274
を提供することにある	-5275
苦情	-5276
当局が	-5277
に参加し	-5278
il	-5279
不満	-5280
内蔵	-5281
ウェハ	-5282
ループ	-5283
を行っている	-5284
送り	-5285
生活の	-5286
研究院	-5287
肯定的な	-5288
サブ	-5289
興行	-5290
ve	-5291
タバ	-5292
余裕	-5293
▁今回	-5294
ストリ	-5295
年間の	-5296
であるだけに	-5297
テキ	-5298
勘案	-5299
山が	-5300
one	-5301
備えた	-5302
株価が	-5303
落ちる	-5304
を巡	-5305
社債	-5306
といい	-5307
合った	-5308
is	-5309
内部の	-5310
迅速に	-5311
を使って	-5312
ローバー	-5313
宿泊	-5314
派生	-5315
いただき	-5316
法は	-5317
サイド	-5318
物質の	-5319
を占める	-5320
スタジオ	-5321
に向かって	-5322
会う	-5323
▁アン	-5324
▁チェ	-5325
やって	-5326
を申請	-5327
ベルト	-5328
ホンダ	-5329
女性が	-5330
投資家の	-5331
▁すなわち	-5332
ダイナミック	-5333
▁西	-5334
崩壊	-5335
年度	-5336
1~	-5337
イヤ	-5338
無償	-5339
700	-5340
創意	-5341
市が	-5342
以上が	-5343
入れて	-5344
年まで	-5345
きっかけ	-5346
医療スタッフ	-5347
イト	-5348
気づ	-5349
蓄積	-5350
内容の	-5351
あら	-5352
基に	-5353
疑い	-5354
今まで	-5355
製品を	-5356
ちゃん	-5357
増や	-5358
映像を	-5359
装置を	-5360
ユーザーの	-5361
だろうという	-5362
負債	-5363
コンピューター	-5364
共生	-5365
数百	-5366
ここに	-5367
ライブ	-5368
レント	-5369
自由に	-5370
されたり	-5371
を形成する	-5372
認可	-5373
を広げ	-5374
を伝えた	-5375
使用者が	-5376
登場した	-5377
すと	-5378
ゼロ	-5379
代行	-5380
現況	-5381
▁GM	-5382
過程を	-5383
プレート	-5384
到着	-5385
の時に	-5386
販売した	-5387
制定	-5388
同一	-5389
物は	-5390
間接	-5391
ロット	-5392
設置された	-5393
分解	-5394
力で	-5395
遠く	-5396
選別	-5397
は最近	-5398
と答えた	-5399
金融投資	-5400
猶予	-5401
船舶	-5402
賦課	-5403
を見る	-5404
名誉	-5405
サービスは	-5406
しているため	-5407
蒸着	-5408
かれる	-5409
を提案	-5410
引っ	-5411
東南	-5412
プロセス	-5413
一般的な	-5414
85	-5415
笑い	-5416
謝罪	-5417
につれて	-5418
に積極的に	-5419
所属の	-5420
より多くの	-5421
▁カ	-5422
を残	-5423
世話	-5424
申し込み	-5425
歴代	-5426
燃費	-5427
JTBC	-5428
するほど	-5429
女子	-5430
に接続	-5431
彼らは	-5432
ことを願	-5433
を高めた	-5434
化される	-5435
発売された	-5436
いずれ	-5437
を探す	-5438
副作用	-5439
ンジョン	-5440
自動車部品	-5441
を前	-5442
職務	-5443
ダンス	-5444
パック	-5445
▁疾病管理	-5446
46	-5447
PE	-5448
が何	-5449
学的	-5450
男女	-5451
見方	-5452
ハリ	-5453
庁の	-5454
江陵	-5455
スタン	-5456
不確実	-5457
モービス	-5458
80%	-5459
二人の	-5460
政府と	-5461
を始めた	-5462
仲介	-5463
地区	-5464
幸せな	-5465
賞を受賞	-5466
AS	-5467
たと	-5468
村で	-5469
が生じ	-5470
商品を	-5471
が遅	-5472
の姿	-5473
控除	-5474
un	-5475
元素	-5476
▁今後	-5477
内容は	-5478
スピード	-5479
好奇心を	-5480
限定	-5481
ICT	-5482
ドリ	-5483
天地	-5484
接合	-5485
の割合	-5486
陰極線	-5487
トランプ	-5488
が行われた	-5489
っていない	-5490
授賞	-5491
曜日	-5492
の拡散	-5493
増加し	-5494
の中でも	-5495
の役割	-5496
小さく	-5497
魅力を	-5498
みる	-5499
に分類	-5500
▁これに対して	-5501
8.	-5502
TE	-5503
混合	-5504
誘致	-5505
ラインナップ	-5506
GV	-5507
有害	-5508
検診	-5509
さない	-5510
スダック	-5511
システムが	-5512
慎重	-5513
の代わりに	-5514
ご協力	-5515
を分析	-5516
セント	-5517
単純な	-5518
お知らせ	-5519
が起きた	-5520
クレジット	-5521
下に	-5522
研究所	-5523
度も	-5524
風が	-5525
の原因	-5526
ガール	-5527
巨大な	-5528
情報が	-5529
高めた	-5530
増えている	-5531
できるという	-5532
などを通じて	-5533
に関係	-5534
内需	-5535
移転	-5536
の生産	-5537
取得	-5538
攻略	-5539
違法	-5540
バッグ	-5541
二酸化	-5542
山は	-5543
を決定	-5544
聞いた	-5545
パフォーマ	-5546
パフォーマンス	-5547
兄弟	-5548
学科	-5549
里と	-5550
会社と	-5551
電子が	-5552
弾力	-5553
樹脂	-5554
周辺に	-5555
年以上	-5556
プロデュー	-5557
影響を与える	-5558
ギル	-5559
からも	-5560
ということは	-5561
刑事	-5562
実装	-5563
くらい	-5564
要請した	-5565
が必要である	-5566
89	-5567
AL	-5568
野原	-5569
ッカー	-5570
し遂	-5571
数字	-5572
間違	-5573
しにくい	-5574
という点だ	-5575
を流	-5576
単独	-5577
吹き	-5578
起き	-5579
社長が	-5580
かねない	-5581
を有する	-5582
キャンペーン	-5583
償還	-5584
驚く	-5585
これら	-5586
を呼び	-5587
生まれ	-5588
エンジニア	-5589
あげ	-5590
は一	-5591
団の	-5592
本の	-5593
ノイズ	-5594
ステアリングホイール	-5595
▁ユ	-5596
民族	-5597
繊維	-5598
認定	-5599
暮らし	-5600
を記録し	-5601
製造工程	-5602
と発表した	-5603
無人	-5604
環境が	-5605
世界的な	-5606
われ	-5607
苦痛	-5608
の一環	-5609
出席	-5610
尊重	-5611
末に	-5612
破損	-5613
高め	-5614
に入り	-5615
タバコ	-5616
事務所	-5617
▁専門家	-5618
フェース	-5619
ファンドの	-5620
が続いている	-5621
起亜自動車は	-5622
幸福	-5623
進入	-5624
部分の	-5625
電波	-5626
ですが	-5627
コイン	-5628
離れた	-5629
センターで	-5630
▁これと共に	-5631
お願いいたします	-5632
ヵ所	-5633
比べ	-5634
議員	-5635
の意味	-5636
呼吸器	-5637
来年の	-5638
考えた	-5639
1,000	-5640
されてきた	-5641
更新	-5642
自社	-5643
▁ソン	-5644
を下げ	-5645
工場を	-5646
期待感	-5647
披露した	-5648
確認した	-5649
32	-5650
の際	-5651
アマ	-5652
アリ	-5653
ダル	-5654
なくて	-5655
暖かい	-5656
基本的な	-5657
教育課程	-5658
たが	-5659
頭に	-5660
によく	-5661
形態の	-5662
していて	-5663
と言える	-5664
信頼性を	-5665
▁雇用労働	-5666
より詳しくは	-5667
」(	-5668
ひと	-5669
単に	-5670
の流れ	-5671
インチ	-5672
ロール	-5673
使用者	-5674
商品の	-5675
▁ス	-5676
満ち	-5677
総括	-5678
まともに	-5679
ライバル	-5680
コンテンツを	-5681
室の	-5682
消毒	-5683
学年度	-5684
予防接種	-5685
思う	-5686
時間は	-5687
理由だ	-5688
この日の	-5689
安定的に	-5690
が多かった	-5691
kg	-5692
に活用	-5693
オフィ	-5694
工場で	-5695
決めた	-5696
参考にして	-5697
を踏	-5698
店の	-5699
算定	-5700
に拡大	-5701
される場合	-5702
となっている	-5703
恋愛	-5704
提示	-5705
お金を	-5706
に近い	-5707
期間を	-5708
まれている	-5709
フォルクスワーゲン	-5710
LO	-5711
、11	-5712
に多くの	-5713
安定的な	-5714
しながらも	-5715
担任の先生	-5716
呼ば	-5717
町の	-5718
、30	-5719
グァン	-5720
楽しく	-5721
効率的な	-5722
▁6	-5723
しゃ	-5724
の発	-5725
度と	-5726
電線	-5727
ドルの	-5728
連続で	-5729
保護者様の	-5730
▁歌手	-5731
環境で	-5732
ot	-5733
指す	-5734
挨拶	-5735
、12	-5736
ンジン	-5737
多目的車	-5738
日発表した	-5739
プラスチック	-5740
伝説	-5741
入国	-5742
北西	-5743
会った	-5744
効率を	-5745
で構成されている	-5746
と呼ぶ	-5747
オイル	-5748
月まで	-5749
公正取引	-5750
割り当て	-5751
と見ている	-5752
に使われる	-5753
室で	-5754
接着	-5755
▁私が	-5756
に直接	-5757
があまり	-5758
アウト	-5759
技術と	-5760
ig	-5761
移送	-5762
世の中	-5763
唯一の	-5764
づけ	-5765
バレ	-5766
を持続	-5767
会社を	-5768
▁多くの	-5769
ることも	-5770
世論	-5771
人員	-5772
▁同じ	-5773
サムス	-5774
名前を	-5775
発見された	-5776
em	-5777
化が	-5778
化と	-5779
ナビゲ	-5780
を目	-5781
独占	-5782
うちに	-5783
アップル	-5784
コンサル	-5785
トレンド	-5786
こち	-5787
の本	-5788
出勤	-5789
収入	-5790
昔の	-5791
解約	-5792
誘電	-5793
運送	-5794
重症	-5795
取り消	-5796
部分は	-5797
2」	-5798
OT	-5799
ケミ	-5800
好む	-5801
ラボ	-5802
口を	-5803
才能	-5804
回路基板	-5805
車線	-5806
ファク	-5807
マーク	-5808
病院に	-5809
食べる	-5810
その他の	-5811
高かった	-5812
できる効果がある	-5813
ウク	-5814
地名	-5815
悩み	-5816
毎月	-5817
軍の	-5818
40%	-5819
労働者は	-5820
スポーツ用	-5821
製造方法に関するものである	-5822
PM	-5823
が発	-5824
用語	-5825
統一	-5826
配列	-5827
ユープラ	-5828
に着	-5829
の声	-5830
オル	-5831
単語	-5832
地で	-5833
地を	-5834
弱い	-5835
、2016	-5836
ミッション	-5837
中間	-5838
受給	-5839
有用	-5840
笑いを	-5841
デバイス	-5842
相互作用	-5843
を発表した	-5844
CN	-5845
ビニ	-5846
点で	-5847
香港	-5848
高麗	-5849
ent	-5850
視線を	-5851
電力を	-5852
▁京畿道	-5853
出している	-5854
今の	-5855
一人で	-5856
続いた	-5857
に乗って	-5858
無線通信	-5859
エピ	-5860
長い間	-5861
モデルは	-5862
が消	-5863
ギョ	-5864
いった	-5865
に出て	-5866
の核心	-5867
からなる	-5868
チャンバー	-5869
自体	-5870
郵便	-5871
間隔	-5872
の支援	-5873
を紹介	-5874
期間に	-5875
が可能で	-5876
したことを	-5877
マグ	-5878
家が	-5879
東西	-5880
符号	-5881
配布	-5882
ヨンの	-5883
表面に	-5884
の影響で	-5885
感染者の	-5886
ベーション	-5887
ボタ	-5888
道が	-5889
90%	-5890
▁過去	-5891
するの	-5892
キャピ	-5893
一定の	-5894
を控えて	-5895
ことができた	-5896
イク	-5897
掲示	-5898
警報	-5899
零細	-5900
金融危機	-5901
の水	-5902
87	-5903
オリ	-5904
部分を	-5905
関係を	-5906
の日	-5907
キン	-5908
前日	-5909
全国民	-5910
搭載した	-5911
を投	-5912
が一番	-5913
こんな	-5914
対象の	-5915
観点から	-5916
ゴルフ	-5917
治療剤	-5918
ナビゲーション	-5919
享受	-5920
保守	-5921
場が	-5922
平等	-5923
廃棄	-5924
の世界	-5925
を最小化	-5926
技術開発	-5927
次に	-5928
比率	-5929
適応	-5930
アルミニ	-5931
経緯がある	-5932
を上	-5933
テー	-5934
信じ	-5935
用途	-5936
各種の	-5937
アイドル	-5938
基本的に	-5939
することである	-5940
見つ	-5941
土台に	-5942
ざるを得	-5943
と同様に	-5944
を同時に	-5945
アルミニウム	-5946
正当	-5947
記号	-5948
非難	-5949
持続的な	-5950
にわたって	-5951
形成される	-5952
は約	-5953
▁雇用	-5954
非対面	-5955
ウォンの	-5956
ストリー	-5957
pp	-5958
ナス	-5959
前で	-5960
を反映	-5961
監督の	-5962
言って	-5963
しっかり	-5964
否定的な	-5965
が増えた	-5966
裁判所の	-5967
考えられる	-5968
下請け	-5969
かも	-5970
気を	-5971
あるが	-5972
ガスの	-5973
万人を	-5974
いていた	-5975
する際に	-5976
ユニット	-5977
開発された	-5978
姿勢	-5979
以外の	-5980
落ちた	-5981
ポルシェ	-5982
自転	-5983
貨物	-5984
韓国人	-5985
が出てくる	-5986
59	-5987
▁外	-5988
に加	-5989
下さ	-5990
手紙	-5991
飲み	-5992
発売される	-5993
ディスプレー	-5994
が不足	-5995
が拡大	-5996
の改善	-5997
▁すでに	-5998
▁既存の	-5999
輸送	-6000
ソンが	-6001
本部長は	-6002
快適	-6003
路の	-6004
伝貰	-6005
動員	-6006
焦点を	-6007
同日	-6008
安い	-6009
摂取	-6010
耐久	-6011
2.5	-6012
▁10	-6013
に基づき	-6014
チャット	-6015
スポーツ用多目的車	-6016
ad	-6017
なのに	-6018
しているという	-6019
狭い	-6020
現在は	-6021
姿で	-6022
牛乳	-6023
レイン	-6024
▁このうち	-6025
否定	-6026
書く	-6027
自発	-6028
送受信	-6029
二酸化炭素	-6030
生徒たちが	-6031
▁グローバル	-6032
が可能である	-6033
79	-6034
ドク	-6035
移住	-6036
が悪	-6037
アレ	-6038
一致	-6039
確立	-6040
道は	-6041
を可能	-6042
テクノ	-6043
北東	-6044
逆に	-6045
の高い	-6046
干渉	-6047
時間と	-6048
組み合わせ	-6049
正式	-6050
諮問	-6051
特有の	-6052
りながら	-6053
優れている	-6054
誇る	-6055
を通じ	-6056
時期に	-6057
スクール	-6058
がほとんど	-6059
▁三	-6060
写真を	-6061
時間制	-6062
があれば	-6063
する方式	-6064
デラック	-6065
公共機関	-6066
ほとんどが	-6067
遵守	-6068
4,	-6069
運命	-6070
を代表	-6071
残った	-6072
2014	-6073
集計された	-6074
ヴェ	-6075
圧迫	-6076
思考	-6077
繋が	-6078
面と	-6079
正しく	-6080
が少なく	-6081
アメリカの	-6082
キャデラック	-6083
ub	-6084
ロマ	-6085
好きな	-6086
ヒョンが	-6087
したいと思います	-6088
CR	-6089
位相	-6090
余波	-6091
機に	-6092
頻繁に	-6093
してもら	-6094
モニター	-6095
という点を	-6096
たちも	-6097
の第	-6098
を演	-6099
結核	-6100
タッチ	-6101
披露する	-6102
心の	-6103
開設	-6104
盛り込まれた	-6105
じゃ	-6106
共同で	-6107
構造が	-6108
無料で	-6109
ものとみられる	-6110
みた	-6111
告白	-6112
養成	-6113
今日の	-6114
が集まる	-6115
は非常に	-6116
コーティング	-6117
できるようになる	-6118
中毒	-6119
気温	-6120
低金利	-6121
▁これを	-6122
これ以上	-6123
エレクト	-6124
りと	-6125
変数	-6126
明け	-6127
来て	-6128
▁今日	-6129
が急増	-6130
を提示	-6131
明確な	-6132
を訪れた	-6133
メートル	-6134
を提供することを目的とする	-6135
ビア	-6136
主題	-6137
書の	-6138
税の	-6139
▁中央	-6140
っぱい	-6141
のパク	-6142
続けて	-6143
アセット	-6144
健康保険	-6145
ディスプレイパネル	-6146
利便	-6147
ストレ	-6148
伝統的な	-6149
雇用安定	-6150
可能性もある	-6151
に転	-6152
土壌	-6153
地震	-6154
当選	-6155
陣が	-6156
話した	-6157
日までに	-6158
を招	-6159
同僚	-6160
式で	-6161
アニメ	-6162
投資家が	-6163
描かれた	-6164
DS	-6165
南西	-6166
就任	-6167
ゲット	-6168
利用者	-6169
ティスト	-6170
であることが	-6171
新型コロナウィ	-6172
いろ	-6173
バイト	-6174
高齢者	-6175
ジャンル	-6176
キャピタル	-6177
反転	-6178
日が	-6179
皆が	-6180
郡の	-6181
ときに	-6182
ジェネシス	-6183
GI	-6184
オブ	-6185
付き	-6186
美術	-6187
聞こ	-6188
起訴	-6189
するので	-6190
るという	-6191
クラスの	-6192
を積極的に	-6193
士の	-6194
総理	-6195
練習	-6196
選任	-6197
▁AI	-6198
それは	-6199
ダイヤ	-6200
グレンジャー	-6201
▁現代自動車の	-6202
集会	-6203
ターボ	-6204
規模は	-6205
を簡単に	-6206
秩序	-6207
タリア	-6208
倍以上	-6209
部では	-6210
現場体験学習	-6211
▁X	-6212
件の	-6213
後援	-6214
慶北	-6215
連休	-6216
ソンは	-6217
の中で最も	-6218
されているが	-6219
分を	-6220
需給	-6221
ライド	-6222
と同時に	-6223
利用者の	-6224
▁大韓	-6225
4000	-6226
学校生活	-6227
▁これに先立って	-6228
86	-6229
EN	-6230
he	-6231
▁U	-6232
タカー	-6233
オーダー	-6234
コンデン	-6235
と判断した	-6236
社内	-6237
純粋	-6238
面を	-6239
ソンの	-6240
が形成された	-6241
められている	-6242
心に	-6243
感性	-6244
方々	-6245
を予防	-6246
ダイム	-6247
始まる	-6248
独自の	-6249
ブラウン	-6250
性のある	-6251
学生たちが	-6252
自動車産業	-6253
ファッション	-6254
ジャーナリズム	-6255
古い	-6256
アカデ	-6257
本部の	-6258
人余りが	-6259
、2020	-6260
になります	-6261
事実が	-6262
保護者の皆様の	-6263
公認	-6264
産物	-6265
バラエ	-6266
最高裁	-6267
誰でも	-6268
から抜け	-6269
と思った	-6270
サウンド	-6271
PR	-6272
TA	-6273
摘発	-6274
大学校	-6275
エス	-6276
ミス	-6277
斗山	-6278
食堂	-6279
事項を	-6280
役職員	-6281
ri	-6282
制約	-6283
成績	-6284
提示した	-6285
47	-6286
を開いた	-6287
お金	-6288
過度な	-6289
っていく	-6290
インスタ	-6291
▁光	-6292
主力	-6293
原油	-6294
がこの	-6295
活動の	-6296
デンティ	-6297
パラサイト	-6298
日公示した	-6299
しなければならないという	-6300
任意	-6301
圧倒	-6302
平和	-6303
は韓国	-6304
向き	-6305
血液	-6306
ボルト	-6307
初めに	-6308
プロモーション	-6309
みな	-6310
合計	-6311
DLF	-6312
需要が	-6313
放送では	-6314
を見つける	-6315
発生し	-6316
でもない	-6317
ドライビング	-6318
は大	-6319
なしで	-6320
マート	-6321
患者を	-6322
っていて	-6323
繰り返し	-6324
友人	-6325
渡し	-6326
インテ	-6327
挙げた	-6328
期間制	-6329
する方針だ	-6330
アイデンティ	-6331
▁上	-6332
九老	-6333
可変	-6334
▁ムン	-6335
▁ゲーム	-6336
接地	-6337
救済	-6338
磁石	-6339
もする	-6340
政策の	-6341
言葉を	-6342
会社側は	-6343
参加して	-6344
▁私たちの	-6345
企業である	-6346
を受けることができる	-6347
基調	-6348
道具	-6349
▁KB	-6350
があったが	-6351
に関係なく	-6352
シアナ航空	-6353
学生たちの	-6354
収容	-6355
...	-6356
だけだ	-6357
やすく	-6358
万人の	-6359
事業が	-6360
化され	-6361
空間の	-6362
ズは	-6363
区は	-6364
連係	-6365
するのか	-6366
ガイドライン	-6367
容易ではない	-6368
?」	-6369
堆積	-6370
宅配	-6371
リース	-6372
にあった	-6373
キャリア	-6374
パターンを	-6375
スポーツカー	-6376
農耕	-6377
巻き	-6378
推測	-6379
モデルを	-6380
iP	-6381
に通	-6382
遺跡	-6383
ヵ月間	-6384
信じて	-6385
内部に	-6386
を越えて	-6387
増加する	-6388
アカウント	-6389
プログラムを	-6390
の勢	-6391
ここで	-6392
と関係	-6393
過度に	-6394
を超えた	-6395
テキスト	-6396
好評	-6397
▁カン	-6398
を克服	-6399
ワイヤ	-6400
景気低迷	-6401
と呼ばれた	-6402
as	-6403
配慮	-6404
関節	-6405
ツール	-6406
を形成し	-6407
5,000	-6408
長所がある	-6409
出してください	-6410
が再び	-6411
看護師	-6412
を減らし	-6413
できるようになった	-6414
かし	-6415
を導	-6416
トイ	-6417
客観	-6418
山脈	-6419
でした	-6420
従事者	-6421
hone	-6422
が下	-6423
動向	-6424
受付	-6425
喫煙	-6426
埋め	-6427
高くなる	-6428
ることになった	-6429
弾性	-6430
慶南	-6431
摩擦	-6432
漫画	-6433
高等	-6434
ヶ月間	-6435
エネルギーを	-6436
88	-6437
に見	-6438
官は	-6439
ポップ	-6440
もう一度	-6441
▁あ	-6442
内燃	-6443
従業員	-6444
出された	-6445
、2019	-6446
に位置する	-6447
nt	-6448
学の	-6449
市中	-6450
料を	-6451
浴び	-6452
貯蔵	-6453
期間の	-6454
死角	-6455
秋夕	-6456
虚偽	-6457
視線	-6458
今年は	-6459
年前に	-6460
急激に	-6461
▁実	-6462
グン	-6463
ズの	-6464
南東	-6465
キット	-6466
夏休み	-6467
かどうか	-6468
もう少し	-6469
性が向上	-6470
私募ファンド	-6471
長と	-6472
を共有	-6473
であるが	-6474
集団感染	-6475
を避	-6476
物品	-6477
配送	-6478
に寄与	-6479
を下した	-6480
コリアが	-6481
と分析した	-6482
MS	-6483
何の	-6484
出版	-6485
救急	-6486
肯定	-6487
製薬	-6488
んです	-6489
セクハラ	-6490
▁それでも	-6491
為替レート	-6492
を引き起こす	-6493
新天地	-6494
望ましい	-6495
が作	-6496
先導	-6497
商店	-6498
敏感	-6499
▁シン	-6500
フリカ	-6501
施設の	-6502
損害保険	-6503
繰り広げられる	-6504
履歴	-6505
放熱	-6506
毎週	-6507
節約	-6508
血管	-6509
▁国民	-6510
を採用	-6511
2013	-6512
ファクシミ	-6513
ゼネ	-6514
ツー	-6515
ナラ	-6516
値が	-6517
そこで	-6518
健康な	-6519
▁半導体	-6520
oT	-6521
点に	-6522
の家族	-6523
べきだ	-6524
を育て	-6525
本考案	-6526
の有無	-6527
は現在	-6528
を基盤	-6529
カット	-6530
競争が	-6531
されるが	-6532
ほう	-6533
消耗	-6534
登山	-6535
が相次いで	-6536
を防止する	-6537
アイデンティティ	-6538
69	-6539
依頼	-6540
研究は	-6541
2008	-6542
話し	-6543
正社員	-6544
器を	-6545
した時	-6546
ターミ	-6547
フォト	-6548
EC	-6549
告発	-6550
条項	-6551
話す	-6552
たびに	-6553
ユーロ	-6554
従って	-6555
ワクチン	-6556
登場する	-6557
アーティスト	-6558
84	-6559
とう	-6560
密集	-6561
普遍	-6562
通行	-6563
の姿が	-6564
子会社	-6565
どれだけ	-6566
お互	-6567
内外	-6568
得る	-6569
白い	-6570
60%	-6571
懇談会	-6572
費用が	-6573
景観	-6574
正義	-6575
▁ユン	-6576
に連結	-6577
▁今年の	-6578
を備える	-6579
立っている	-6580
周年	-6581
案は	-6582
権の	-6583
額の	-6584
かつて	-6585
ものが	-6586
▁ボルボ	-6587
いました	-6588
のチョン	-6589
メリット	-6590
のが特徴だ	-6591
レンタカー	-6592
そば	-6593
ツイ	-6594
開閉	-6595
を高め	-6596
プログラムの	-6597
クレジットカード	-6598
▁産業	-6599
▁該当	-6600
広告の	-6601
当局の	-6602
はこの日	-6603
中小企業の	-6604
が可能になる	-6605
の一つである	-6606
コンサルティング	-6607
後ろ	-6608
わずか	-6609
直接雇用	-6610
もう一つの	-6611
製造方法を提供する	-6612
幼稚	-6613
配分	-6614
面が	-6615
を持た	-6616
人件費	-6617
水準に	-6618
かかった	-6619
苦労	-6620
▁放送	-6621
を展開	-6622
決して	-6623
▁実際に	-6624
された後	-6625
グリーン	-6626
▁私たちは	-6627
すら	-6628
の間の	-6629
会議で	-6630
携帯用	-6631
者たちが	-6632
なくなった	-6633
しないように	-6634
DM	-6635
独特	-6636
が最近	-6637
を製造	-6638
結果は	-6639
絶えず	-6640
化している	-6641
コーディング	-6642
増やす	-6643
オーダーメ	-6644
EU	-6645
拡充	-6646
メロ	-6647
時価	-6648
個人が	-6649
資料を	-6650
それほど	-6651
とは違って	-6652
64	-6653
度で	-6654
情熱	-6655
識別	-6656
とキム	-6657
ブリー	-6658
利点がある	-6659
クム	-6660
光の	-6661
国は	-6662
圧力	-6663
発掘	-6664
事業に	-6665
使える	-6666
認知症	-6667
、199	-6668
する過程で	-6669
として使用	-6670
アカデミー	-6671
したと発表した	-6672
すると発表した	-6673
es	-6674
マリ	-6675
関係が	-6676
このうち	-6677
搭乗	-6678
食べ物	-6679
チームの	-6680
はや	-6681
モノ	-6682
実務	-6683
ご案内いたします	-6684
スプ	-6685
経歴	-6686
音が	-6687
を始め	-6688
ロマンス	-6689
労働委員会	-6690
イノベーション	-6691
事件の	-6692
銀行と	-6693
いつでも	-6694
OP	-6695
国で	-6696
復元	-6697
過剰	-6698
が韓国	-6699
に伴う	-6700
携帯電話の	-6701
ダウンロード	-6702
注目を集めている	-6703
を買	-6704
極大	-6705
tvN	-6706
がその	-6707
ヒョク	-6708
保有した	-6709
バッ	-6710
協同	-6711
州の	-6712
着用	-6713
離脱	-6714
制度が	-6715
民主党	-6716
販売が	-6717
都市の	-6718
といった	-6719
勤労基準	-6720
▁メルセデス	-6721
先行	-6722
半島	-6723
地は	-6724
傾向が	-6725
を示している	-6726
学術	-6727
目は	-6728
アリー	-6729
外部の	-6730
消費者に	-6731
にし	-6732
塗布	-6733
帯び	-6734
韓米	-6735
をめぐ	-6736
安全網	-6737
金融持株	-6738
ターゲット	-6739
問い合わせ	-6740
67	-6741
QM	-6742
故障	-6743
法務	-6744
名前が	-6745
が続いた	-6746
地として	-6747
ウト	-6748
二つ	-6749
参入	-6750
様相	-6751
以前に	-6752
座り込	-6753
スイッチング	-6754
もり	-6755
仮定	-6756
伝染	-6757
固体	-6758
層が	-6759
を増や	-6760
ってきて	-6761
完成車メーカー	-6762
主労働組合総連盟	-6763
ノウ	-6764
南部	-6765
教員	-6766
痛み	-6767
の中小	-6768
の歴史	-6769
占める	-6770
したため	-6771
休憩	-6772
▁全国	-6773
が持つ	-6774
を検討	-6775
アプロ	-6776
上げる	-6777
いけない	-6778
シナジー	-6779
マスコミ	-6780
公開され	-6781
ation	-6782
、2015	-6783
を継続	-6784
ヨンは	-6785
政治的	-6786
江原道	-6787
ところで	-6788
オプション	-6789
搭載された	-6790
ゴム	-6791
庁は	-6792
▁トヨタ	-6793
が増える	-6794
販売する	-6795
えなければならない	-6796
ow	-6797
増進	-6798
慢性	-6799
立法	-6800
を得て	-6801
ーンを	-6802
クリエイ	-6803
一般的に	-6804
ないように	-6805
ことができなかった	-6806
CJ	-6807
カイ	-6808
残る	-6809
見解	-6810
軽減	-6811
適合	-6812
起こる	-6813
に役立つ	-6814
説明する	-6815
を受けられる	-6816
圏の	-6817
25%	-6818
かせた	-6819
に移動	-6820
の前に	-6821
幼稚園	-6822
利用する	-6823
死角地帯	-6824
▁COVID	-6825
役割を果たす	-6826
台と	-6827
快な	-6828
暫定	-6829
権限	-6830
効率が	-6831
売上高	-6832
教授が	-6833
相当な	-6834
推進する	-6835
エアバッグ	-6836
ベンチャー企業	-6837
搬送	-6838
課税	-6839
みよう	-6840
を連結	-6841
レース	-6842
認める	-6843
電磁波	-6844
が行われ	-6845
プリント	-6846
太陽電池	-6847
セラミック	-6848
構成された	-6849
ヘリ	-6850
ヨル	-6851
少女	-6852
良好な	-6853
電極の	-6854
を越える	-6855
可能性も	-6856
が始まった	-6857
アプローチ	-6858
牽引	-6859
超過	-6860
ブルー	-6861
急激な	-6862
グリッド	-6863
ージャー	-6864
センターは	-6865
陽性判定を受けた	-6866
エリ	-6867
奨励	-6868
これが	-6869
中でも	-6870
リモコン	-6871
保護者様	-6872
充実	-6873
切りに	-6874
を相手に	-6875
NH	-6876
に送	-6877
到達	-6878
日を	-6879
軍事	-6880
青瓦	-6881
額は	-6882
You	-6883
かけた	-6884
が完了	-6885
なくなる	-6886
に対しても	-6887
モデルである	-6888
を成す	-6889
を買収	-6890
人生の	-6891
指数が	-6892
を用いて	-6893
要求した	-6894
ネットフリ	-6895
ものと予想される	-6896
デイ	-6897
殺到	-6898
立た	-6899
の間で	-6900
上昇し	-6901
事態で	-6902
電子は	-6903
、100	-6904
あらゆる	-6905
努力する	-6906
社会福祉	-6907
したところ	-6908
っています	-6909
のためには	-6910
川と	-6911
起きた	-6912
するとき	-6913
りもした	-6914
主張した	-6915
少しずつ	-6916
適用される	-6917
脅威	-6918
トイレ	-6919
書を提	-6920
6000	-6921
クション	-6922
偏向	-6923
足を	-6924
黒い	-6925
いたい	-6926
のかを	-6927
目を引く	-6928
はならない	-6929
ラーニング	-6930
▁ハ	-6931
倫理	-6932
先制	-6933
妨害	-6934
セルト	-6935
レンタル	-6936
初等学校の	-6937
会話	-6938
向か	-6939
画質	-6940
の特性	-6941
通した	-6942
を見れば	-6943
当たりの	-6944
▁公開された	-6945
cc	-6946
やか	-6947
セダ	-6948
庶民	-6949
脂肪	-6950
価格を	-6951
語った	-6952
非正規	-6953
チャート	-6954
▁デジタル	-6955
がそれぞれ	-6956
作曲	-6957
分配	-6958
が良い	-6959
トレー	-6960
テレビの	-6961
2,000	-6962
▁日	-6963
期に	-6964
梨泰	-6965
筋肉	-6966
と韓国	-6967
ダブル	-6968
能力が	-6969
コンバー	-6970
をしながら	-6971
性を高める	-6972
を渡	-6973
不可能	-6974
副社長	-6975
労使が	-6976
見れば	-6977
7000	-6978
を提示した	-6979
を起こした	-6980
ことを特徴とする	-6981
に渡	-6982
を連	-6983
入札	-6984
既に	-6985
されず	-6986
場合に	-6987
業界が	-6988
男性が	-6989
自分を	-6990
近くの	-6991
シナリオ	-6992
発光素子	-6993
大気	-6994
選抜	-6995
環境を	-6996
を迎えた	-6997
タイヤの	-6998
度が高い	-6999
走行距離	-7000
77	-7001
オク	-7002
ャン	-7003
場は	-7004
女優	-7005
常時	-7006
キョン	-7007
ヘルス	-7008
回目の	-7009
が急速に	-7010
保健福祉	-7011
が形成されている	-7012
の再	-7013
ルト	-7014
かけて	-7015
を減少	-7016
テール	-7017
ピーク	-7018
ペット	-7019
強烈な	-7020
経営者	-7021
経済が	-7022
ag	-7023
溶接	-7024
直流	-7025
ギーの	-7026
健康と	-7027
の中では	-7028
事業者が	-7029
暗号通貨	-7030
▁この他にも	-7031
id	-7032
助言	-7033
応用	-7034
キュー	-7035
ジンが	-7036
呼び出し	-7037
生きている	-7038
しようとした	-7039
IB	-7040
わかる	-7041
に行って	-7042
忠清北道	-7043
最終的に	-7044
電話番号	-7045
かどうかを	-7046
▁オンライン	-7047
HO	-7048
免許	-7049
原価	-7050
スポー	-7051
沿いに	-7052
が生じる	-7053
われている	-7054
労働組合の	-7055
コンテンツの	-7056
LA	-7057
永久	-7058
税金	-7059
みんな	-7060
ウェー	-7061
ストン	-7062
前年比	-7063
対象は	-7064
関心を	-7065
的である	-7066
を適用した	-7067
フィールド	-7068
ピョン	-7069
感染症の	-7070
を構成する	-7071
という事実を	-7072
GS	-7073
PA	-7074
の出	-7075
信託	-7076
占有	-7077
新羅	-7078
模索	-7079
を突破	-7080
ウッド	-7081
シャー	-7082
時間帯	-7083
集まって	-7084
エンジンが	-7085
ct	-7086
妙な	-7087
に感染	-7088
方向の	-7089
もあった	-7090
変化する	-7091
スティング	-7092
システムに関するものである	-7093
を狙	-7094
取材	-7095
温室	-7096
読む	-7097
障壁	-7098
しくて	-7099
豊かな	-7100
ソウルの	-7101
確定した	-7102
起こした	-7103
が含まれた	-7104
有料	-7105
レンス	-7106
実施例	-7107
きながら	-7108
より一層	-7109
のおかげで	-7110
れなかった	-7111
現代自動車は	-7112
も同	-7113
僧侶	-7114
が良く	-7115
などと	-7116
の必要	-7117
ウェル	-7118
協力して	-7119
けど	-7120
真の	-7121
電荷	-7122
なれば	-7123
問題点	-7124
打ち明	-7125
輪駆動	-7126
チャネル	-7127
期待する	-7128
を設	-7129
演奏	-7130
録音	-7131
おらず	-7132
を装着	-7133
明るい	-7134
度の高い	-7135
としている	-7136
スチ	-7137
懲役	-7138
発源	-7139
知事	-7140
自殺	-7141
▁個人	-7142
たった	-7143
に力を	-7144
▁それは	-7145
アフリカ	-7146
ポスター	-7147
本発明によると	-7148
アの	-7149
愛情	-7150
回路の	-7151
成長した	-7152
サムスンの	-7153
くら	-7154
支店	-7155
の機会	-7156
を施行	-7157
目的で	-7158
自動化	-7159
また別の	-7160
ノウハウ	-7161
ウェハーの	-7162
未来アセット	-7163
デー	-7164
前後	-7165
減り	-7166
資金が	-7167
支援事業	-7168
のイメージ	-7169
せば	-7170
セミ	-7171
元の	-7172
沖積	-7173
照会	-7174
細菌	-7175
▁来年	-7176
まると	-7177
市民の	-7178
されたと	-7179
を迎える	-7180
下がった	-7181
使用者の	-7182
国内外の	-7183
社会的弱	-7184
とり	-7185
テム	-7186
ドー	-7187
大田	-7188
平坦	-7189
庁が	-7190
研磨	-7191
溢れる	-7192
確実に	-7193
▁従って	-7194
代案	-7195
在庫	-7196
発信	-7197
を中断	-7198
マップ	-7199
ドライブ	-7200
忠清南道	-7201
▁山	-7202
▁開	-7203
やむ	-7204
キロ	-7205
締め	-7206
事態が	-7207
管理する	-7208
モーターの	-7209
仕様	-7210
を遮断	-7211
住民の	-7212
減少する	-7213
偶然	-7214
家で	-7215
に苦し	-7216
適切に	-7217
時間が経	-7218
に参加する	-7219
大きくなる	-7220
PI	-7221
公益	-7222
宣告	-7223
急騰	-7224
▁第二	-7225
ッシング	-7226
万ウォンで	-7227
44	-7228
反論	-7229
外線	-7230
▁反面	-7231
に出た	-7232
を開く	-7233
放送で	-7234
迅速な	-7235
基準金利	-7236
として作用	-7237
コンデンサ	-7238
するようにする	-7239
us	-7240
が切	-7241
力量	-7242
進歩	-7243
部長	-7244
ギュン	-7245
海水浴	-7246
皮切りに	-7247
にならない	-7248
スと	-7249
厚さ	-7250
色を	-7251
▁従来	-7252
学校で	-7253
人余りの	-7254
報道した	-7255
浮上した	-7256
自営業者	-7257
▁私たちが	-7258
方法および	-7259
EL	-7260
▁企業	-7261
の減少	-7262
主義の	-7263
流動性	-7264
課題は	-7265
▁そんな	-7266
団体協約	-7267
ハウジング	-7268
▁そのような	-7269
!」	-7270
を呼	-7271
収録	-7272
生息	-7273
貨幣	-7274
の発売	-7275
しやすい	-7276
できます	-7277
▁何よりも	-7278
に関連する	-7279
ディーラー	-7280
サービスを提供	-7281
かれ	-7282
のを	-7283
化粧	-7284
学級	-7285
聞く	-7286
言論	-7287
音響	-7288
オール	-7289
中である	-7290
するようになった	-7291
ウが	-7292
円筒	-7293
手の	-7294
120	-7295
に流れ	-7296
の運営	-7297
時点で	-7298
通りに	-7299
ことなく	-7300
を起こす	-7301
気になる	-7302
経済成長	-7303
バッテリーの	-7304
補強	-7305
高温	-7306
▁検察	-7307
落した	-7308
部門で	-7309
コメディ	-7310
実態調査	-7311
▁すべての	-7312
前年同期比	-7313
天安	-7314
複数	-7315
バンテ	-7316
ファンが	-7317
あらかじめ	-7318
高まっている	-7319
インスタグラム	-7320
MO	-7321
離婚	-7322
▁業界	-7323
に注目	-7324
が大幅に	-7325
交通事故	-7326
してくれた	-7327
▁7	-7328
き来	-7329
一体	-7330
丈夫	-7331
策定	-7332
頃に	-7333
IoT	-7334
感性を	-7335
▁問題は	-7336
こういう	-7337
効果的な	-7338
大韓民国	-7339
性の高い	-7340
文化芸術	-7341
媒体	-7342
当事	-7343
が急激	-7344
年間に	-7345
全体的に	-7346
を使用した	-7347
エピソード	-7348
げて	-7349
有力	-7350
殺人	-7351
洗濯	-7352
250	-7353
▁18	-7354
の主な	-7355
電解液	-7356
ウエハー	-7357
デュアル	-7358
フロント	-7359
重要である	-7360
▁それだけでなく	-7361
パウ	-7362
元金	-7363
村が	-7364
講演	-7365
道徳	-7366
▁光州	-7367
空間に	-7368
けられる	-7369
に行った	-7370
メニュー	-7371
おば	-7372
交代	-7373
無視	-7374
疫学	-7375
を解消	-7376
愛する	-7377
減らす	-7378
特性が	-7379
設備の	-7380
2011	-7381
ウォンが	-7382
具体的に	-7383
を代表する	-7384
したりもした	-7385
ランドローバー	-7386
66	-7387
実用	-7388
車に	-7389
を遂行	-7390
2012	-7391
▁ベンツ	-7392
キャップ	-7393
マスター	-7394
コスダック	-7395
の全	-7396
コマ	-7397
ヘル	-7398
成形	-7399
法で	-7400
調理	-7401
ついに	-7402
純利益	-7403
議員は	-7404
タンパク	-7405
▁双龍自動車は	-7406
イー	-7407
座席	-7408
木の	-7409
受ける	-7410
固有の	-7411
基本給	-7412
学生が	-7413
電子の	-7414
2009	-7415
が現れた	-7416
日常生活	-7417
知らせた	-7418
の一環として	-7419
ハードウェア	-7420
OE	-7421
が重	-7422
を手	-7423
学問	-7424
真っ	-7425
部位	-7426
▁なぜ	-7427
バルブ	-7428
込んで	-7429
グレード	-7430
勝利	-7431
▁保険	-7432
が存在	-7433
目つき	-7434
する時に	-7435
できるだけ	-7436
iPhone	-7437
半導体装置の	-7438
が位置している	-7439
地と	-7440
速く	-7441
に突入	-7442
クロス	-7443
ニーズ	-7444
副会長	-7445
委員は	-7446
が難しく	-7447
を除いた	-7448
を披露した	-7449
▁サ	-7450
山市	-7451
抽出	-7452
電圧を	-7453
ところに	-7454
出てきた	-7455
防疫対策	-7456
が出演する	-7457
らなかった	-7458
同時	-7459
添加	-7460
に支障	-7461
最も多く	-7462
致します	-7463
城南	-7464
夏の	-7465
屋根	-7466
露光	-7467
低価格	-7468
理由に	-7469
発電機	-7470
に適した	-7471
を集める	-7472
という主張	-7473
することができた	-7474
地理	-7475
密に	-7476
岩が	-7477
方は	-7478
の利用	-7479
を拒否	-7480
公社の	-7481
視聴率	-7482
に位置した	-7483
新型コロナウィルス	-7484
変圧	-7485
奉仕	-7486
方だ	-7487
誤差	-7488
を誘発	-7489
レスト	-7490
そうです	-7491
大統領が	-7492
しなくても	-7493
見ることができる	-7494
プラズマディスプレイパネル	-7495
すご	-7496
に取り	-7497
を宣言	-7498
チュン	-7499
食べて	-7500
きました	-7501
人以上の	-7502
ニュースが	-7503
込んでいる	-7504
ファーウェイ	-7505
注目されている	-7506
しみ	-7507
任期	-7508
対処	-7509
専攻	-7510
はまた	-7511
を支給	-7512
ミスター	-7513
モデルが	-7514
事業者の	-7515
せよ	-7516
会館	-7517
目が	-7518
面は	-7519
ありが	-7520
道路が	-7521
▁一部の	-7522
出てくる	-7523
例外	-7524
招待	-7525
確信	-7526
の構造	-7527
を全て	-7528
8000	-7529
SO	-7530
マッ	-7531
用品	-7532
睡眠	-7533
鑑賞	-7534
高度	-7535
なさい	-7536
ヒット	-7537
ところだ	-7538
スタンド	-7539
海の	-7540
中学校	-7541
結果が	-7542
人である	-7543
SW	-7544
りは	-7545
利害	-7546
外観	-7547
多彩	-7548
競技	-7549
わした	-7550
協会の	-7551
死んだ	-7552
自己隔離	-7553
驚くべき	-7554
が必要だという	-7555
ご飯	-7556
の差	-7557
出産	-7558
愛の	-7559
業の	-7560
清浄	-7561
農村	-7562
が昨年	-7563
イング	-7564
メンタ	-7565
工場は	-7566
があると	-7567
なければなりません	-7568
43	-7569
妻の	-7570
路が	-7571
をつな	-7572
を変える	-7573
アナログ	-7574
コーヒー	-7575
▁これに先立ち	-7576
▁インターネット	-7577
CT	-7578
回避	-7579
後半	-7580
磁気	-7581
シミュ	-7582
企画財政	-7583
利用できる	-7584
が増えている	-7585
▁リ	-7586
ラの	-7587
色が	-7588
龍山	-7589
、18	-7590
にまで	-7591
商用化	-7592
感謝の	-7593
ウォンで	-7594
書き込み	-7595
期間中に	-7596
をそのまま	-7597
ことを意味する	-7598
に及ぼす	-7599
不可	-7600
関税	-7601
▁新韓	-7602
そらく	-7603
レッド	-7604
を楽しむ	-7605
▁業界では	-7606
から始まった	-7607
反騰	-7608
妥当	-7609
戦闘	-7610
▁彼が	-7611
に反映	-7612
されるため	-7613
変わらない	-7614
▁9	-7615
体重	-7616
止め	-7617
立体	-7618
組成	-7619
▁政府	-7620
いても	-7621
までも	-7622
ディア	-7623
年以降	-7624
症状が	-7625
長期化	-7626
ショップ	-7627
で行われた	-7628
明らかになり	-7629
コールセンター	-7630
主管	-7631
創作	-7632
できて	-7633
トルク	-7634
ボタン	-7635
付けて	-7636
▁カカオ	-7637
▁一般的に	-7638
ポー	-7639
再開	-7640
点の	-7641
集合	-7642
セラー	-7643
信号が	-7644
▁最後に	-7645
ガポール	-7646
最後まで	-7647
紹介した	-7648
すると同時に	-7649
を占めている	-7650
億ウォン規模の	-7651
、15	-7652
傘下の	-7653
意思決定	-7654
発見した	-7655
含む	-7656
現状	-7657
発足	-7658
西部	-7659
頂上	-7660
プリン	-7661
基準の	-7662
完璧な	-7663
生きる	-7664
目標に	-7665
賃金の	-7666
を進める	-7667
内燃機関	-7668
批判した	-7669
が含まれている	-7670
42	-7671
ケイ	-7672
色で	-7673
にいる	-7674
に変換	-7675
に達し	-7676
パケット	-7677
研究では	-7678
劇場	-7679
思想	-7680
音を	-7681
を主導	-7682
人間が	-7683
アクション	-7684
凍結	-7685
所を	-7686
に成功	-7687
の主要	-7688
会って	-7689
レベルで	-7690
に関連した	-7691
は何	-7692
ソプ	-7693
典型	-7694
各々	-7695
強度	-7696
画素	-7697
より高い	-7698
のではないかという	-7699
ネチ	-7700
密接	-7701
日と	-7702
DNA	-7703
実施した	-7704
設立した	-7705
▁民主労総	-7706
ピックアップ	-7707
の下で	-7708
ふれる	-7709
レット	-7710
外部に	-7711
観光客	-7712
認めた	-7713
を助ける	-7714
修練	-7715
受容	-7716
学ぶ	-7717
の自由	-7718
サンタ	-7719
ナーの	-7720
介して	-7721
年度の	-7722
市場での	-7723
示された	-7724
であっても	-7725
5,	-7726
延滞	-7727
是正	-7728
インの	-7729
ご協力を	-7730
側と	-7731
情緒	-7732
着信	-7733
貫通	-7734
ガスを	-7735
パクト	-7736
ポスト	-7737
曜日の	-7738
損害賠償	-7739
滞在	-7740
直後	-7741
を誘導	-7742
ファミ	-7743
文化財	-7744
温度を	-7745
経営陣	-7746
はっきり	-7747
製作した	-7748
という分析だ	-7749
アンケート調査	-7750
るが	-7751
グク	-7752
サル	-7753
喜び	-7754
庁舎	-7755
性も	-7756
春の	-7757
遠い	-7758
はまだ	-7759
を緩和	-7760
プロト	-7761
前から	-7762
施行令	-7763
▁チャン	-7764
ックスの	-7765
テクノロ	-7766
と評価した	-7767
主催	-7768
荷重	-7769
記載	-7770
熱処理	-7771
ゲームの	-7772
全体的な	-7773
実質的な	-7774
提案した	-7775
設けられた	-7776
やさ	-7777
下校	-7778
市内	-7779
清道	-7780
簡便	-7781
産業が	-7782
が始まる	-7783
ストレス	-7784
を提示する	-7785
今回が初めて	-7786
らせ	-7787
シグ	-7788
ダニ	-7789
突き	-7790
途中	-7791
を体験	-7792
問題の	-7793
状態の	-7794
のに続き	-7795
を活用し	-7796
ことである	-7797
予定である	-7798
スマートフォンの	-7799
82	-7800
od	-7801
▁ホ	-7802
免除	-7803
対決	-7804
であれ	-7805
ないと	-7806
アート	-7807
部から	-7808
とも呼ば	-7809
エアコン	-7810
シングル	-7811
をもたらす	-7812
パターンの	-7813
することもある	-7814
に座	-7815
ギア	-7816
博物	-7817
気象	-7818
めると	-7819
コピー	-7820
取り締	-7821
商品券	-7822
振り返	-7823
どこでも	-7824
課題とする	-7825
される予定だ	-7826
MA	-7827
US	-7828
メガ	-7829
家は	-7830
層を	-7831
部で	-7832
に供給	-7833
ックの	-7834
地上波	-7835
大学生	-7836
本校の	-7837
製品は	-7838
責任を負	-7839
サムスン電子の	-7840
を得ることができる	-7841
ウス	-7842
テロ	-7843
極端	-7844
系の	-7845
クライ	-7846
危険な	-7847
理由を	-7848
解決策	-7849
現在まで	-7850
に対する期待	-7851
注目を集めた	-7852
ことが確認された	-7853
台風	-7854
大手	-7855
真ん	-7856
身分	-7857
録画	-7858
いたが	-7859
に広が	-7860
▁本発明の目的は	-7861
化合	-7862
在宅	-7863
対外	-7864
政党	-7865
も同じ	-7866
労働者に	-7867
▁アメリカ	-7868
~3	-7869
を促	-7870
ムは	-7871
フロー	-7872
活発に	-7873
誰もが	-7874
合意した	-7875
ウェブトゥ	-7876
場合が多い	-7877
アップデート	-7878
▁最も	-7879
運転席	-7880
問題点を	-7881
フランスの	-7882
に上	-7883
先輩	-7884
没入	-7885
▁経済	-7886
を試み	-7887
ジュノ	-7888
装置が	-7889
ステージ	-7890
タイプの	-7891
合理的な	-7892
表現した	-7893
メディアは	-7894
ab	-7895
ロイ	-7896
村に	-7897
歩行	-7898
通報	-7899
してい	-7900
ダーの	-7901
大企業	-7902
放送の	-7903
活動が	-7904
読んで	-7905
食べ物を	-7906
キーワード	-7907
出来	-7908
採択	-7909
知る	-7910
窒素	-7911
音波	-7912
を完了	-7913
博物館	-7914
契約職	-7915
梨泰院	-7916
法違反	-7917
自転車	-7918
になれる	-7919
最初から	-7920
含まれている	-7921
あち	-7922
石炭	-7923
警戒	-7924
▁20	-7925
最小限	-7926
▁俳優の	-7927
▁グーグル	-7928
れていない	-7929
技術である	-7930
報酬	-7931
後続	-7932
毀損	-7933
症候	-7934
通帳	-7935
金泉	-7936
ワクチ	-7937
を求める	-7938
ソレント	-7939
マイナス	-7940
半導体素子	-7941
解釈される	-7942
年が	-7943
請願	-7944
エット	-7945
価値が	-7946
珍しい	-7947
資産の	-7948
電解質	-7949
▁米国の	-7950
これから	-7951
産業団地	-7952
考慮して	-7953
金融監督院	-7954
ネットフリックス	-7955
上映	-7956
学び	-7957
室に	-7958
密な	-7959
▁証券	-7960
場所に	-7961
工場が	-7962
ませんで	-7963
勤労時間	-7964
を減らすことができる	-7965
上限	-7966
山で	-7967
直径	-7968
を選定	-7969
空間を	-7970
越える	-7971
が急激に	-7972
に陥った	-7973
を行き来	-7974
サプライ	-7975
加入者が	-7976
走行性能	-7977
3」	-7978
率直	-7979
肥満	-7980
未払い	-7981
いずれも	-7982
契約を締結	-7983
認められる	-7984
アシアナ航空	-7985
モーターショーで	-7986
を払	-7987
メタ	-7988
光明	-7989
感想	-7990
財源	-7991
の際に	-7992
感じた	-7993
所定の	-7994
訪れた	-7995
イタリア	-7996
止まった	-7997
知られて	-7998
タイトル曲	-7999
させることで	-8000
ざるを得ない	-8001
手が	-8002
整列	-8003
が共に	-8004
国会議	-8005
過ごす	-8006
処遇	-8007
台湾	-8008
温度が	-8009
舞台に	-8010
を防止し	-8011
スカウト	-8012
業務協約	-8013
▁2019	-8014
することはできない	-8015
9.	-8016
切断	-8017
家を	-8018
以上に	-8019
便利に	-8020
えており	-8021
情報提供	-8022
させている	-8023
なかったが	-8024
販売台数が	-8025
が大きくなる	-8026
体積	-8027
捕ま	-8028
数千	-8029
減る	-8030
疲労	-8031
きたい	-8032
に合う	-8033
技術で	-8034
続ける	-8035
きれいな	-8036
ファクシミリ	-8037
特別関係者の持分率が	-8038
お茶	-8039
あれば	-8040
状態が	-8041
長時間	-8042
おかげで	-8043
は大きく	-8044
フィード	-8045
資金調達	-8046
が出てきた	-8047
亡くなった	-8048
放課後学校	-8049
ミュージックビデオ	-8050
68	-8051
ウの	-8052
冷蔵	-8053
出資	-8054
目的がある	-8055
HD	-8056
お客	-8057
ンドン	-8058
我々の	-8059
が流れる	-8060
疫学調査	-8061
日に放送された	-8062
到来	-8063
新曲	-8064
歌詞	-8065
糖尿	-8066
触媒	-8067
▁朝鮮	-8068
ポンプ	-8069
他人の	-8070
イシュー	-8071
方法及び	-8072
販売台数は	-8073
委は	-8074
案が	-8075
沿岸	-8076
物量	-8077
しかも	-8078
どころ	-8079
収益率	-8080
最適な	-8081
自社の	-8082
含まれた	-8083
大韓航空	-8084
金融会社	-8085
集まった	-8086
ニュースを	-8087
する可能性がある	-8088
▁海	-8089
。」	-8090
に当	-8091
有意	-8092
線形	-8093
解析	-8094
軽い	-8095
カスタ	-8096
加えて	-8097
最近は	-8098
江南区	-8099
膨大な	-8100
びっくり	-8101
徹底的に	-8102
▁国土交通	-8103
適用された	-8104
▁t	-8105
ハム	-8106
妊娠	-8107
旅客	-8108
演劇	-8109
を変更	-8110
を成し遂	-8111
が公開された	-8112
リチウムイオン電池	-8113
57	-8114
安価	-8115
書に	-8116
本人	-8117
漏れ	-8118
演算	-8119
の中国	-8120
ウォル	-8121
飲食店	-8122
ることで	-8123
ことはできない	-8124
川市	-8125
性的	-8126
解像	-8127
誰が	-8128
賛成	-8129
影響で	-8130
支援を	-8131
山に	-8132
温泉	-8133
相場	-8134
加盟店	-8135
ウンサー	-8136
を備えている	-8137
印加	-8138
合金	-8139
犠牲	-8140
譲渡	-8141
走る	-8142
を訪ね	-8143
事例が	-8144
疑いで	-8145
資金の	-8146
を上げた	-8147
大学病院	-8148
ができない	-8149
を防止できる	-8150
エネルギーの	-8151
グラフィック	-8152
6,	-8153
RS	-8154
▁セ	-8155
放置	-8156
浮き	-8157
閉じ	-8158
ハング	-8159
ブース	-8160
リーの	-8161
投資を	-8162
政策が	-8163
本来の	-8164
物質を	-8165
莫大な	-8166
とすれば	-8167
を除いて	-8168
アクティブ	-8169
ティーザー	-8170
フェスティ	-8171
CA	-8172
を飲	-8173
変身	-8174
実情	-8175
花崗	-8176
重ね	-8177
に追い	-8178
の安全	-8179
ントン	-8180
消えた	-8181
長期間	-8182
アイテム	-8183
収益率が	-8184
支援金を	-8185
生まれた	-8186
電子機器	-8187
ようになり	-8188
フォーラム	-8189
フリーラン	-8190
認められた	-8191
ズが	-8192
不明	-8193
強み	-8194
私を	-8195
論議	-8196
▁国際	-8197
シック	-8198
事件を	-8199
豊富な	-8200
釜山市	-8201
を失った	-8202
継続的に	-8203
共存	-8204
氏と	-8205
特例	-8206
防御	-8207
麗な	-8208
初期の	-8209
グラフィ	-8210
が必要だと	-8211
という点も	-8212
コンセント	-8213
与えられた	-8214
人を対象に	-8215
フェスティバル	-8216
ショッピングモール	-8217
3~	-8218
ax	-8219
ut	-8220
に一	-8221
カラ	-8222
全額	-8223
実証	-8224
慣行	-8225
条例	-8226
洞窟	-8227
血圧	-8228
900	-8229
著作権	-8230
越した	-8231
取り消し	-8232
乗客	-8233
力学	-8234
均衡	-8235
法と	-8236
警備	-8237
路線	-8238
阻止	-8239
バート	-8240
型電池	-8241
程度が	-8242
簡単で	-8243
はすでに	-8244
を含めた	-8245
方法に関するもので	-8246
包装	-8247
層と	-8248
日付	-8249
秋の	-8250
風景	-8251
▁当初	-8252
世代の	-8253
株式を	-8254
空売り	-8255
人たちは	-8256
になることを	-8257
を受け取った	-8258
指揮	-8259
通商	-8260
▁以前	-8261
そうな	-8262
は先月	-8263
ディズ	-8264
ブルの	-8265
側から	-8266
ターミナル	-8267
モータースポーツ	-8268
eb	-8269
ごろ	-8270
ぶり	-8271
道に	-8272
高圧	-8273
とって	-8274
と話し	-8275
を控え	-8276
フンが	-8277
だけでは	-8278
大きくなった	-8279
団が	-8280
士が	-8281
軽量	-8282
問題で	-8283
技術的	-8284
に切り替	-8285
を迎えて	-8286
人たちの	-8287
楽しめる	-8288
自動車保険	-8289
込められた	-8290
リが	-8291
原作	-8292
死ぬ	-8293
重複	-8294
と連携	-8295
ストア	-8296
基準を	-8297
高周波	-8298
会社側の	-8299
全世界の	-8300
▁一部では	-8301
調査された	-8302
使われている	-8303
付けられた名前だ	-8304
ダの	-8305
継承	-8306
講座	-8307
180	-8308
▁国家	-8309
を守る	-8310
完全な	-8311
教育を	-8312
ハッキング	-8313
半導体装置	-8314
明らかにし	-8315
ませんでした	-8316
運営している	-8317
オーダーメード	-8318
II	-8319
oc	-8320
▁非	-8321
ラは	-8322
ヴァ	-8323
密着	-8324
山城	-8325
▁銀行	-8326
引っ張	-8327
被害者	-8328
販売された	-8329
インターフェース	-8330
DB	-8331
ワシ	-8332
施工	-8333
表記	-8334
▁我が	-8335
が今年	-8336
ソング	-8337
教職員	-8338
全羅南道	-8339
▁ネイバー	-8340
の可能性が	-8341
反映された	-8342
▁0	-8343
ラグ	-8344
完治	-8345
待ち	-8346
▁彼の	-8347
テープ	-8348
ネシア	-8349
患者に	-8350
を控えた	-8351
を適用し	-8352
性を確保	-8353
措置を取	-8354
とは異なる	-8355
これを利用した	-8356
事が	-8357
方を	-8358
里に	-8359
を備え	-8360
ブーム	-8361
回った	-8362
チケット	-8363
フレキシ	-8364
エンジンは	-8365
ストラリア	-8366
アップグレード	-8367
クタ	-8368
合わ	-8369
支流	-8370
適当	-8371
を発揮	-8372
商品は	-8373
緊張感	-8374
車種の	-8375
を決めた	-8376
専門家の	-8377
を担当する	-8378
与えられる	-8379
帰ってきた	-8380
する効果がある	-8381
オーストラリア	-8382
かなければならない	-8383
63	-8384
ビリ	-8385
あって	-8386
の概念	-8387
円滑な	-8388
建物の	-8389
生じる	-8390
してこそ	-8391
延長勤労	-8392
選定された	-8393
に使用される	-8394
ul	-8395
▁ミ	-8396
公衆	-8397
性向	-8398
漢江	-8399
病床	-8400
精算	-8401
らせる	-8402
を完成	-8403
ウディ	-8404
単位で	-8405
症候群	-8406
電気的	-8407
いかなる	-8408
を訪れる	-8409
見えない	-8410
を受け取る	-8411
行使	-8412
15%	-8413
、50	-8414
が続き	-8415
ワイト	-8416
全体が	-8417
▁第二に	-8418
ディープ	-8419
半導体の	-8420
に突入した	-8421
ができるように	-8422
が広がっている	-8423
EX	-8424
とか	-8425
合格	-8426
国債	-8427
LPG	-8428
の下に	-8429
人々に	-8430
経営権	-8431
▁中国の	-8432
を決める	-8433
フィング	-8434
使われた	-8435
▁グループ	-8436
スペシャル	-8437
▁ノ	-8438
おう	-8439
優勝	-8440
加害	-8441
大賞	-8442
繊細	-8443
薄い	-8444
に出る	-8445
の危機	-8446
ネチズ	-8447
金額が	-8448
集まり	-8449
を結んだ	-8450
大統領は	-8451
フレキシブル	-8452
したことがある	-8453
キャスティング	-8454
ピア	-8455
ムが	-8456
ラブ	-8457
倉庫	-8458
選好	-8459
▁全羅	-8460
の立場	-8461
正常化	-8462
段階で	-8463
流れて	-8464
あなたが	-8465
ジュアル	-8466
保育教室	-8467
ことになり	-8468
妥結	-8469
に設置	-8470
を結ぶ	-8471
の一部を	-8472
という名前	-8473
についても	-8474
は今	-8475
好み	-8476
短く	-8477
▁まだ	-8478
に流入	-8479
ばかり	-8480
万人が	-8481
パワハラ	-8482
側にある	-8483
根本的な	-8484
▁科学技術情報通信	-8485
ラが	-8486
リス	-8487
一貫	-8488
再編	-8489
志願	-8490
最悪	-8491
者も	-8492
誤解	-8493
かける	-8494
メキシ	-8495
イギリス	-8496
▁2016	-8497
トラフィック	-8498
きら	-8499
任命	-8500
法定	-8501
▁労働	-8502
▁済州	-8503
ものは	-8504
ジンの	-8505
学期の	-8506
生活を	-8507
程度を	-8508
質問に	-8509
パワート	-8510
生きていく	-8511
させるための	-8512
再現	-8513
新興	-8514
服用	-8515
麗水	-8516
部には	-8517
ずにいる	-8518
を用いた	-8519
ウィンド	-8520
ジャガー	-8521
可能性は	-8522
消費者は	-8523
貯蓄銀行	-8524
かのように	-8525
シンガポール	-8526
する予定である	-8527
▁J	-8528
いち	-8529
優位	-8530
折り	-8531
残高	-8532
積立	-8533
進む	-8534
AMG	-8535
の前で	-8536
テッド	-8537
ラップ	-8538
共同体	-8539
機械的	-8540
韓国で	-8541
ティック	-8542
労働者を	-8543
ハリウッド	-8544
アナウンサー	-8545
インドネシア	-8546
トランジスタの	-8547
SI	-8548
▁シ	-8549
知的	-8550
署名	-8551
に反対	-8552
▁2017	-8553
ポジ	-8554
モデ	-8555
作る	-8556
採取	-8557
洞は	-8558
浦項	-8559
しさを	-8560
ハンファ	-8561
メキシコ	-8562
雰囲気を	-8563
▁裁判所は	-8564
分かち合い	-8565
少なくない	-8566
に変動したと公示した	-8567
パル	-8568
成立	-8569
瑞草	-8570
給付	-8571
陰性	-8572
国内外	-8573
機関は	-8574
が過ぎた	-8575
を利用し	-8576
スチール	-8577
強調する	-8578
者を対象に	-8579
などに対する	-8580
CI	-8581
しさ	-8582
三角	-8583
料の	-8584
窓口	-8585
費が	-8586
の予防	-8587
の重要	-8588
冷たい	-8589
売上が	-8590
忙しい	-8591
現象を	-8592
補助金	-8593
製品が	-8594
言い換	-8595
お互いに	-8596
適用した	-8597
労働組合は	-8598
かの	-8599
光学	-8600
可視	-8601
女の	-8602
私に	-8603
経過	-8604
退院	-8605
青少	-8606
、16	-8607
行って	-8608
温室効果	-8609
されています	-8610
を歌	-8611
内訳	-8612
別な	-8613
就業	-8614
液体	-8615
▁大邱	-8616
大切な	-8617
我々は	-8618
描いた	-8619
登場し	-8620
ショート	-8621
加入者の	-8622
したことで	-8623
発表された	-8624
合弁	-8625
歩き	-8626
法廷	-8627
エッジ	-8628
してみる	-8629
輸出規制	-8630
追求する	-8631
日で	-8632
、17	-8633
を調整	-8634
フィリ	-8635
ポスコ	-8636
事故で	-8637
厳しく	-8638
方式は	-8639
時間で	-8640
物質が	-8641
▁同時に	-8642
やさしい	-8643
トランク	-8644
こともあり	-8645
エレクトロ	-8646
ur	-8647
クァ	-8648
中堅	-8649
主体	-8650
事を	-8651
公的	-8652
労務	-8653
将来	-8654
清州	-8655
▁今月	-8656
をもら	-8657
教えて	-8658
テーブル	-8659
として利用	-8660
下位	-8661
何も	-8662
加重	-8663
大門	-8664
媒介	-8665
憲法	-8666
校内	-8667
減免	-8668
遺族	-8669
▁通常	-8670
ベット	-8671
価格で	-8672
現象が	-8673
が生じた	-8674
認められ	-8675
▁2018	-8676
度を高める	-8677
限界がある	-8678
高くなった	-8679
永遠	-8680
牧師	-8681
難い	-8682
ことと	-8683
ラリー	-8684
米国で	-8685
装置で	-8686
長官は	-8687
からない	-8688
変わらず	-8689
を作り出す	-8690
を得ている	-8691
があまりにも	-8692
ce	-8693
im	-8694
どん	-8695
に重	-8696
国に	-8697
大橋	-8698
流域	-8699
育つ	-8700
膨張	-8701
転送	-8702
フード	-8703
出入り	-8704
学生は	-8705
安定化	-8706
発売する	-8707
直接的な	-8708
するところ	-8709
56	-8710
▁二	-8711
並行	-8712
法令	-8713
物と	-8714
を再び	-8715
セード	-8716
公社が	-8717
半地下	-8718
アバンテ	-8719
に基づいた	-8720
カカオトーク	-8721
TF	-8722
カナ	-8723
同月	-8724
近代	-8725
送金	-8726
避難	-8727
.9%	-8728
▁海外	-8729
やかに	-8730
レーン	-8731
人から	-8732
人材の	-8733
暮らす	-8734
が少ない	-8735
を増やす	-8736
を大きく	-8737
安全保健	-8738
赤ちゃん	-8739
に対する関心	-8740
現代モービス	-8741
賞を受賞した	-8742
することを防止	-8743
プロデューサー	-8744
さわ	-8745
を隠	-8746
咲く	-8747
有給	-8748
わたり	-8749
ジスト	-8750
作業を	-8751
最初は	-8752
枠組み	-8753
マスクの	-8754
ンジュン	-8755
▁アウディ	-8756
を持続的に	-8757
チューニング	-8758
新鮮	-8759
時計	-8760
現れ	-8761
の症状	-8762
出する	-8763
均一な	-8764
多彩な	-8765
番目に	-8766
▁ウリィ	-8767
に対応する	-8768
サンタフェ	-8769
タンパク質	-8770
、『	-8771
包括	-8772
書は	-8773
線と	-8774
規格	-8775
話は	-8776
.4%	-8777
まれて	-8778
を通り	-8779
先月の	-8780
団体の	-8781
それだけ	-8782
典型的な	-8783
という理由で	-8784
オンラインで	-8785
ミの	-8786
下部	-8787
入学	-8788
爆弾	-8789
真剣	-8790
文化の	-8791
を含めて	-8792
付加価値	-8793
カムバック	-8794
似たような	-8795
ブリーフィング	-8796
RE	-8797
おく	-8798
を収	-8799
カ月	-8800
遅く	-8801
▁今は	-8802
き出す	-8803
に依存	-8804
を保障	-8805
ポーズ	-8806
住宅の	-8807
関係の	-8808
院長は	-8809
がたくさん	-8810
ことが明らかになった	-8811
らに	-8812
対照	-8813
板の	-8814
汝矣	-8815
を取得	-8816
広告は	-8817
戦略を	-8818
粒子状	-8819
させると	-8820
健康管理	-8821
▁後	-8822
を覆	-8823
事に	-8824
実習	-8825
引用	-8826
撤回	-8827
欲求	-8828
▁日産	-8829
うえに	-8830
の形で	-8831
も多い	-8832
オリジ	-8833
便利な	-8834
学校に	-8835
安全で	-8836
教師の	-8837
考慮し	-8838
装備の	-8839
コンソー	-8840
ことが分かる	-8841
コンソーシア	-8842
▁これを通じて	-8843
ホイールベース	-8844
MP	-8845
かせ	-8846
の名	-8847
信徒	-8848
復職	-8849
数と	-8850
父母	-8851
費は	-8852
しつつ	-8853
を獲得	-8854
ハウス	-8855
監督は	-8856
自身が	-8857
オーナー	-8858
世界的に	-8859
気候変動	-8860
取り締まり	-8861
74	-8862
をご	-8863
侵入	-8864
▁NH	-8865
▁仁川	-8866
かせる	-8867
が現れ	-8868
プール	-8869
余波で	-8870
円滑に	-8871
期間中	-8872
食べた	-8873
学年度の	-8874
希望退職	-8875
ためである	-8876
パリセード	-8877
伝えられている	-8878
悪な	-8879
時々	-8880
暴露	-8881
かかり	-8882
がいる	-8883
化粧品	-8884
知った	-8885
▁労組は	-8886
クロック	-8887
副会長が	-8888
ことを願う	-8889
プラットフォームの	-8890
DP	-8891
森林	-8892
代表の	-8893
労使は	-8894
職場内	-8895
をかけて	-8896
株主総会	-8897
「2020	-8898
を皮切りに	-8899
増加している	-8900
テイ	-8901
体感	-8902
成人	-8903
掌握	-8904
競合	-8905
防衛	-8906
協議会	-8907
定めた	-8908
速度で	-8909
だろうが	-8910
に属する	-8911
を超えて	-8912
雇用創出	-8913
という趣旨	-8914
▁ロ	-8915
一歩	-8916
分担	-8917
名の	-8918
順次	-8919
家庭の	-8920
書いて	-8921
じゃない	-8922
との間の	-8923
含まれる	-8924
用意した	-8925
雰囲気が	-8926
次のような	-8927
器は	-8928
浸透	-8929
購読	-8930
長に	-8931
を多く	-8932
完璧に	-8933
陰極線管	-8934
障害者の	-8935
で発生する	-8936
を運営する	-8937
自動運転車	-8938
という意味で	-8939
▁昔	-8940
を強	-8941
受注	-8942
手で	-8943
権力	-8944
正極	-8945
素敵	-8946
群山	-8947
黄色	-8948
▁地域	-8949
コック	-8950
効果は	-8951
だと思う	-8952
アルファ	-8953
フェラー	-8954
成長する	-8955
生産する	-8956
発光ダイオード	-8957
ir	-8958
と大	-8959
リは	-8960
単価	-8961
各自	-8962
合同	-8963
理想	-8964
を設定	-8965
人生を	-8966
容量の	-8967
正常に	-8968
環境の	-8969
自動で	-8970
を大幅に	-8971
フォリオ	-8972
最低賃金の引き上げ	-8973
72	-8974
含有	-8975
猛暑	-8976
試合	-8977
釣り	-8978
自由な	-8979
に位置し	-8980
スクリー	-8981
ベンツの	-8982
的だった	-8983
革新的な	-8984
に成功した	-8985
ソーシャルメディア	-8986
を被	-8987
夜間	-8988
探索	-8989
故郷	-8990
画期	-8991
相関	-8992
納品	-8993
野球	-8994
面接	-8995
切って	-8996
調べる	-8997
から除外	-8998
役に立つ	-8999
多くの人が	-9000
ように見える	-9001
創立	-9002
堤防	-9003
歌謡	-9004
溶液	-9005
状の	-9006
盆唐	-9007
首相	-9008
政策を	-9009
満ちた	-9010
が異なる	-9011
コンビニ	-9012
地である	-9013
ねじ	-9014
方で	-9015
波動	-9016
ドラマの	-9017
育児休職	-9018
表現する	-9019
um	-9020
ママ	-9021
信仰	-9022
区庁	-9023
始興	-9024
番の	-9025
発給	-9026
跳躍	-9027
軍が	-9028
迎え	-9029
過熱	-9030
飲酒	-9031
が加わ	-9032
ルール	-9033
力量を	-9034
南側に	-9035
興味深い	-9036
選別診療	-9037
されました	-9038
を実施する	-9039
ロボットが	-9040
みて	-9041
市街	-9042
積載	-9043
膜を	-9044
もはや	-9045
本人の	-9046
9000	-9047
▁199	-9048
々とした	-9049
クリック	-9050
雇用労働部	-9051
ナイ	-9052
発振	-9053
補充	-9054
▁新型	-9055
▁私の	-9056
を要請	-9057
以下に	-9058
キャスト	-9059
方が良い	-9060
を披露する	-9061
ポートフォリオ	-9062
▁新型コロナウイルス	-9063
▁人	-9064
つけ	-9065
アス	-9066
京釜	-9067
守る	-9068
氾濫	-9069
龍仁	-9070
▁イン	-9071
が一つ	-9072
に従う	-9073
年代に	-9074
患者と	-9075
テーション	-9076
影響を及ぼした	-9077
58	-9078
78	-9079
定年	-9080
対称	-9081
層に	-9082
贈与	-9083
雨が	-9084
公社は	-9085
柔らか	-9086
空間で	-9087
ではないが	-9088
ヘルスケア	-9089
難しかった	-9090
を次のように	-9091
することもできる	-9092
「1	-9093
編入	-9094
の特徴	-9095
言えば	-9096
近づく	-9097
の過程で	-9098
ウォール	-9099
ホワイト	-9100
はほとんど	-9101
打ち明けた	-9102
に関する法律	-9103
ではありません	-9104
噴射	-9105
娘の	-9106
実な	-9107
忠州	-9108
清掃	-9109
直線	-9110
調停	-9111
風邪	-9112
お祈り	-9113
の持分	-9114
もあり	-9115
的かつ	-9116
立って	-9117
述した	-9118
過程が	-9119
に基づく	-9120
ボンディング	-9121
GT	-9122
具備	-9123
前提	-9124
干潟	-9125
激励	-9126
マウル	-9127
前には	-9128
時まで	-9129
▁そこで	-9130
めていた	-9131
社会的な	-9132
金融機関	-9133
41	-9134
▁小	-9135
ドウ	-9136
不要	-9137
処方	-9138
思議	-9139
水原	-9140
者や	-9141
を一つ	-9142
を中心	-9143
データが	-9144
合わせる	-9145
拡大する	-9146
ダイナミックな	-9147
ポータルサイト	-9148
マルチメディア	-9149
公約	-9150
地盤	-9151
▁第一	-9152
変化を	-9153
映画が	-9154
を置いて	-9155
排出ガス	-9156
っているが	-9157
ものだった	-9158
役割をする	-9159
状況である	-9160
パワートレイン	-9161
ジル	-9162
主演	-9163
海辺	-9164
HEV	-9165
▁科学	-9166
の動き	-9167
の成長	-9168
スペン	-9169
ドキュ	-9170
バリー	-9171
割合が	-9172
商店街	-9173
急いで	-9174
特別市	-9175
特性の	-9176
雇用の	-9177
電動機	-9178
面から	-9179
をすべて	-9180
コーナー	-9181
ヒョンは	-9182
リストラ	-9183
していたが	-9184
が注目される	-9185
言い換えれば	-9186
ピク	-9187
個体	-9188
先週	-9189
土台	-9190
大陸	-9191
寄せ	-9192
新入	-9193
正月	-9194
点灯	-9195
賃借	-9196
安全性	-9197
工程を	-9198
必要だ	-9199
面には	-9200
顧客は	-9201
カリフォル	-9202
システムと	-9203
of	-9204
を破	-9205
年と	-9206
惑星	-9207
簡易	-9208
解説	-9209
▁電子	-9210
ときは	-9211
に挑戦	-9212
チング	-9213
取引所	-9214
あなたの	-9215
と関連し	-9216
ユニーク	-9217
使用できる	-9218
シミュレーション	-9219
XM	-9220
そび	-9221
をな	-9222
増資	-9223
東莱	-9224
相続	-9225
論争	-9226
重い	-9227
ゲスト	-9228
▁日本の	-9229
すために	-9230
メーカーが	-9231
時間を短縮	-9232
用意された	-9233
カリフォルニア	-9234
中小ベンチャー企業	-9235
SA	-9236
▁キ	-9237
ミが	-9238
事案	-9239
本質	-9240
確率	-9241
雑誌	-9242
スーパ	-9243
トロー	-9244
場所で	-9245
期間は	-9246
セダンの	-9247
を効果的に	-9248
中貿易紛争	-9249
が適用された	-9250
が決	-9251
カニ	-9252
共和	-9253
点も	-9254
私も	-9255
致命	-9256
にくい	-9257
に変更	-9258
代理店	-9259
思った	-9260
落ち着	-9261
をリード	-9262
タイヤは	-9263
表示装置	-9264
プログラムは	-9265
をお願いします	-9266
.0	-9267
ホが	-9268
水産	-9269
つもり	-9270
を具現	-9271
下がる	-9272
制度だ	-9273
韓国は	-9274
領域の	-9275
に向かう	-9276
コランド	-9277
委員長が	-9278
販売台数	-9279
エンジンと	-9280
半導体製造	-9281
要求される	-9282
する方法に関するものである	-9283
BN	-9284
▁月	-9285
▁韓	-9286
バク	-9287
態度	-9288
指向	-9289
構想	-9290
火山	-9291
などだ	-9292
ぶりの	-9293
北側に	-9294
向かい	-9295
次元で	-9296
現場に	-9297
経験を	-9298
ヒーター	-9299
ものであり	-9300
アルバイト	-9301
にご	-9302
ッパ	-9303
分け	-9304
多角	-9305
太平	-9306
急減	-9307
液晶	-9308
防ぐ	-9309
CGI	-9310
冷蔵庫	-9311
好奇心	-9312
彼女の	-9313
所得が	-9314
本発明の	-9315
ことがない	-9316
と見通した	-9317
に遭	-9318
回り	-9319
科の	-9320
が主管	-9321
ていた	-9322
を着用	-9323
誘電体	-9324
コンセプトカー	-9325
ap	-9326
を固	-9327
幸い	-9328
KAL	-9329
らしく	-9330
点を置	-9331
化できる	-9332
というのは	-9333
▁それと共に	-9334
が大きかった	-9335
に接	-9336
ガラ	-9337
動機	-9338
岩の	-9339
翻訳	-9340
を制限	-9341
を対象	-9342
シーン	-9343
マージ	-9344
一人の	-9345
医療院	-9346
早期に	-9347
本考案は	-9348
受け取った	-9349
欲望	-9350
洞と	-9351
and	-9352
が中断	-9353
を製作	-9354
サーチ	-9355
以後に	-9356
情報は	-9357
誤った	-9358
からです	-9359
を公開し	-9360
を基準に	-9361
国土交通	-9362
歳以上の	-9363
代表取締役	-9364
しが	-9365
団は	-9366
夕方	-9367
新薬	-9368
0.0	-9369
に影響	-9370
ミンが	-9371
訴えた	-9372
まもなく	-9373
カードの	-9374
ドライバーの	-9375
を断	-9376
サギ	-9377
声明	-9378
川は	-9379
数回	-9380
海上	-9381
見せ	-9382
が国内	-9383
努力が	-9384
封切り	-9385
席した	-9386
映画は	-9387
調べて	-9388
警察署	-9389
金利の	-9390
が起こる	-9391
する一方	-9392
をもとに	-9393
レクサス	-9394
▁起亜自動車の	-9395
ことができます	-9396
アニメーション	-9397
DR	-9398
主の	-9399
安東	-9400
重な	-9401
▁公共	-9402
トリム	-9403
レータ	-9404
年間で	-9405
有利な	-9406
水準で	-9407
相当の	-9408
ましょう	-9409
ファレンス	-9410
双龍自動車	-9411
8,	-9412
ヒが	-9413
夫の	-9414
得た	-9415
恐ろ	-9416
気筒	-9417
竣工	-9418
見え	-9419
雇い	-9420
Tub	-9421
に貢献	-9422
ロイド	-9423
世界で	-9424
容量を	-9425
展望だ	-9426
ましたが	-9427
を正確に	-9428
合流する	-9429
地域では	-9430
サービス業	-9431
ツイッター	-9432
差別化された	-9433
▁これによって	-9434
を離	-9435
岩石	-9436
権威	-9437
若干	-9438
工程で	-9439
産業は	-9440
界では	-9441
ストーリーテ	-9442
を形成している	-9443
の先	-9444
テゴ	-9445
主が	-9446
及ば	-9447
口腔	-9448
生徒は	-9449
電話機の	-9450
3,000	-9451
してみると	-9452
オリジナル	-9453
OM	-9454
の強	-9455
休養	-9456
子は	-9457
常務	-9458
サンド	-9459
主要な	-9460
明した	-9461
ボタンを	-9462
四半期に	-9463
疑われる	-9464
73	-9465
やく	-9466
ニョ	-9467
寺の	-9468
用役	-9469
赤い	-9470
載せ	-9471
透過	-9472
ver	-9473
会社で	-9474
大株主	-9475
に分けて	-9476
安全事故	-9477
特殊雇用	-9478
が行われている	-9479
回路に関するものである	-9480
亀尾	-9481
切れ	-9482
十字	-9483
OST	-9484
はずだ	-9485
ブラシ	-9486
ミラー	-9487
割合は	-9488
尋ねた	-9489
言える	-9490
する前に	-9491
を聞いて	-9492
を集めて	-9493
がなければ	-9494
億ウォンが	-9495
ミは	-9496
全域	-9497
列車	-9498
歪曲	-9499
示唆	-9500
野菜	-9501
ゴール	-9502
展示会	-9503
行為を	-9504
OLED	-9505
インバー	-9506
オフィス	-9507
と推定される	-9508
に位置している	-9509
▁無	-9510
交替	-9511
休息	-9512
歩く	-9513
線は	-9514
リーは	-9515
一種の	-9516
本人が	-9517
▁自分の	-9518
外国人が	-9519
外国人の	-9520
させるために	-9521
に適用される	-9522
のス	-9523
光が	-9524
名義	-9525
権益	-9526
農民	-9527
随時	-9528
残念な	-9529
を一緒に	-9530
団体交渉	-9531
ようだった	-9532
かえ	-9533
オペ	-9534
可愛	-9535
月火	-9536
が本格	-9537
と見る	-9538
の範囲	-9539
下がり	-9540
規模で	-9541
に大きく	-9542
やむを得	-9543
をつけて	-9544
ッティング	-9545
労働組合が	-9546
YouTub	-9547
が可能であり	-9548
していただき	-9549
を続けている	-9550
を防ぐために	-9551
関心が集まっている	-9552
ルと	-9553
城郡	-9554
方程	-9555
.8%	-9556
から脱	-9557
ついた	-9558
ベート	-9559
航空機	-9560
フラッグ	-9561
言及した	-9562
運転者の	-9563
に選ばれた	-9564
バラエティ	-9565
フィードバック	-9566
▁数	-9567
ヤキ	-9568
万件	-9569
中旬	-9570
薬物	-9571
階の	-9572
▁広告	-9573
たとえ	-9574
を測定	-9575
人たち	-9576
合って	-9577
女性は	-9578
工程の	-9579
決める	-9580
観客の	-9581
をつなぐ	-9582
を繰り返	-9583
研究結果	-9584
確認され	-9585
▁疾病管理本部は	-9586
アシ	-9587
彼を	-9588
簡素	-9589
連の	-9590
.2%	-9591
別では	-9592
形態で	-9593
後には	-9594
映像の	-9595
も一緒に	-9596
一時的に	-9597
込まれた	-9598
を形成して	-9599
システムに	-9600
仕事をする	-9601
引き上げる	-9602
運営される	-9603
になるように	-9604
を受け入れる	-9605
テクノロジー	-9606
性を向上させる	-9607
をしなければならない	-9608
CB	-9609
分岐	-9610
炎症	-9611
腐食	-9612
を共に	-9613
分析し	-9614
性能が	-9615
ますので	-9616
ギャップ	-9617
ファクト	-9618
ことはない	-9619
を予告した	-9620
イメージを	-9621
?"	-9622
あの	-9623
制動	-9624
大戦	-9625
法上	-9626
自慢	-9627
▁同日	-9628
アンは	-9629
戦略的	-9630
画面の	-9631
ラインの	-9632
上半期の	-9633
のだろうか	-9634
が期待される	-9635
ブロックチェーンの	-9636
RF	-9637
人だ	-9638
暗い	-9639
歯科	-9640
洗練	-9641
空白	-9642
鈍化	-9643
.7%	-9644
350	-9645
▁第三	-9646
しかね	-9647
と見な	-9648
に困難	-9649
の一般	-9650
ブラン	-9651
マイク	-9652
物理的	-9653
するまで	-9654
に入ると	-9655
より良い	-9656
研究所の	-9657
▁このために	-9658
活動を通じて	-9659
移動通信端末機の	-9660
▁不	-9661
を打	-9662
冬季	-9663
国籍	-9664
つける	-9665
号線と	-9666
拡大し	-9667
施設が	-9668
確認し	-9669
面白い	-9670
を支援し	-9671
の可能性を	-9672
を提起した	-9673
ビジュアル	-9674
自分だけの	-9675
ソロ	-9676
備え	-9677
専務	-9678
廃業	-9679
手動	-9680
重量	-9681
LCD	-9682
を除く	-9683
ケヤキ	-9684
バーグ	-9685
山から	-9686
条件が	-9687
格付け	-9688
的にも	-9689
できると	-9690
を務めた	-9691
事務所の	-9692
終わった	-9693
ビタ	-9694
優遇	-9695
元気	-9696
市と	-9697
検事	-9698
疎外	-9699
運輸	-9700
限度	-9701
.3%	-9702
ヶ所の	-9703
状況は	-9704
部分に	-9705
が終わる	-9706
有機電界	-9707
要求する	-9708
はなかった	-9709
フリーランサー	-9710
中東	-9711
次期	-9712
▁子供	-9713
、40	-9714
を示し	-9715
低くなる	-9716
調査結果	-9717
賃金交渉	-9718
、2010	-9719
するかどう	-9720
を考慮して	-9721
ファンドは	-9722
半導体パッケージ	-9723
コナ	-9724
スル	-9725
成り	-9726
技法	-9727
武器	-9728
老朽	-9729
おいた	-9730
ですか	-9731
の種類	-9732
事実だ	-9733
家族が	-9734
涙を流	-9735
1500	-9736
されても	-9737
続けている	-9738
造成された	-9739
最善を尽くす	-9740
が大きくなった	-9741
76	-9742
IR	-9743
ゲン	-9744
今も	-9745
共振	-9746
官が	-9747
港湾	-9748
馬力	-9749
さえも	-9750
タンク	-9751
チョウ	-9752
余りに	-9753
通信網	-9754
あふれる	-9755
問題解決	-9756
在宅勤務	-9757
よりはるかに	-9758
ことがあります	-9759
▁8	-9760
▁レ	-9761
を脱	-9762
成熟	-9763
錦湖	-9764
を発生	-9765
追加の	-9766
を実施し	-9767
クリート	-9768
ヒョンの	-9769
上がって	-9770
大きさを	-9771
投資した	-9772
買い入れ	-9773
を開始した	-9774
具体的には	-9775
ストリーミング	-9776
およびその製造方法	-9777
停滞	-9778
化石	-9779
姿は	-9780
放棄	-9781
昇進	-9782
くない	-9783
と診断	-9784
セルの	-9785
くださる	-9786
を容易に	-9787
カメラの	-9788
実施する	-9789
につながり	-9790
コンパクト	-9791
フラッシュ	-9792
が避けられない	-9793
ネットワークの	-9794
司法	-9795
幾何	-9796
忘れ	-9797
抗生	-9798
線で	-9799
退勤	-9800
還元	-9801
みたい	-9802
ナルド	-9803
をお祈り	-9804
経済社会	-9805
最も重要な	-9806
食品医薬品	-9807
いき	-9808
かわ	-9809
どち	-9810
ゼン	-9811
ーフ	-9812
一生	-9813
人格	-9814
会い	-9815
声で	-9816
妻が	-9817
扱い	-9818
中には	-9819
行動を	-9820
見えた	-9821
部品を	-9822
の自動車	-9823
セラティ	-9824
デパート	-9825
分かった	-9826
労働時間	-9827
周辺には	-9828
と思われる	-9829
を見ながら	-9830
考慮すれば	-9831
製作された	-9832
フラッグシップ	-9833
コンピューティング	-9834
EB	-9835
台は	-9836
平面	-9837
株の	-9838
短所	-9839
防弾	-9840
材料の	-9841
粒子の	-9842
きている	-9843
を避ける	-9844
セミナー	-9845
公開する	-9846
▁果たして	-9847
メンバーの	-9848
必要とする	-9849
国政	-9850
果敢	-9851
洗い	-9852
PCB	-9853
、13	-9854
ジンは	-9855
働いた	-9856
快適な	-9857
目立つ	-9858
装置と	-9859
の中から	-9860
を見つけ	-9861
スペクト	-9862
社会貢献	-9863
を要求する	-9864
設立された	-9865
ウェブサイト	-9866
チャンネルの	-9867
データベース	-9868
を抜	-9869
下り	-9870
立地	-9871
能動	-9872
負傷	-9873
ときめ	-9874
をなく	-9875
オンの	-9876
掲げた	-9877
それでも	-9878
インシュ	-9879
仮想通貨	-9880
派生結合	-9881
▁この場合	-9882
小商工人の	-9883
求められる	-9884
に関することだ	-9885
53	-9886
RI	-9887
を眺	-9888
余地	-9889
全州	-9890
声が	-9891
抽選	-9892
男の	-9893
話だ	-9894
日間の	-9895
の主人公	-9896
チェーン	-9897
を控えている	-9898
個人情報保護	-9899
現代自動車が	-9900
のある関係者は	-9901
を待	-9902
協定	-9903
在職	-9904
平安	-9905
来週	-9906
欠か	-9907
の大型	-9908
ようで	-9909
を支持	-9910
グラン	-9911
人材を	-9912
以上を	-9913
搭載し	-9914
相手の	-9915
自然の	-9916
いてきた	-9917
を使った	-9918
主張する	-9919
勤労者が	-9920
日の午後	-9921
臨床試験	-9922
という点が	-9923
地方自治体	-9924
サムスン電子が	-9925
ストーリーテリング	-9926
全国民主労働組合総連盟	-9927
チボ	-9928
加え	-9929
味わ	-9930
源泉	-9931
に装着	-9932
の製作	-9933
カテゴ	-9934
並んで	-9935
保健所	-9936
投資の	-9937
導入した	-9938
確保した	-9939
証券市場	-9940
半地下の家族	-9941
の東	-9942
ネズ	-9943
全身	-9944
原料	-9945
当分	-9946
気分	-9947
進化	-9948
を解決	-9949
ウィン	-9950
マニュ	-9951
リレー	-9952
全員が	-9953
国民が	-9954
対策を	-9955
予定です	-9956
約束した	-9957
考えると	-9958
支給される	-9959
東南アジア	-9960
に指定された	-9961
コンクリート	-9962
51	-9963
可決	-9964
本来	-9965
.1%	-9966
分かる	-9967
年代の	-9968
年内に	-9969
を介して	-9970
プロセッ	-9971
優先的に	-9972
位を占めた	-9973
「5	-9974
ムー	-9975
同伴	-9976
固有	-9977
層は	-9978
消化	-9979
火事	-9980
順に	-9981
1、2	-9982
▁CJ	-9983
に変身	-9984
交差点	-9985
団地の	-9986
がとても	-9987
を訪問し	-9988
という批判	-9989
サービスだ	-9990
非正規職の	-9991
▁本発明では	-9992
からといって	-9993
7,	-9994
TC	-9995
変調	-9996
大使	-9997
引く	-9998
の方向	-9999
ニッケ	-10000
ブログ	-10001
ボディ	-10002
求める	-10003
の大きさ	-10004
を発表し	-10005
ースター	-10006
該当する	-10007
これにより	-10008
受け入れる	-10009
ッタ	-10010
ナが	-10011
伸ば	-10012
急に	-10013
掃除	-10014
注射	-10015
界は	-10016
アレル	-10017
ジョー	-10018
バレー	-10019
単純に	-10020
病院は	-10021
管理の	-10022
素早く	-10023
を初めて	-10024
バランス	-10025
メモリー	-10026
度が高く	-10027
集中的に	-10028
、2000	-10029
という立場だ	-10030
ne	-10031
▁パ	-10032
堅固	-10033
外貨	-10034
細部	-10035
議会	-10036
車と	-10037
青い	-10038
駆け	-10039
麻浦	-10040
が低い	-10041
それに	-10042
を占め	-10043
ゾーン	-10044
内外の	-10045
向けの	-10046
段階の	-10047
絶対に	-10048
魅力が	-10049
ディスク	-10050
判断した	-10051
支援金の	-10052
書を作成	-10053
がある場合	-10054
建てられた	-10055
を負	-10056
タダ	-10057
ベク	-10058
冬の	-10059
実は	-10060
小幅	-10061
屋外	-10062
微笑	-10063
曖昧	-10064
短絡	-10065
を低減	-10066
コラボ	-10067
側面で	-10068
糖尿病	-10069
わたって	-10070
を与えて	-10071
スキャン	-10072
ドローン	-10073
ライダー	-10074
ジュールの	-10075
リンピック	-10076
を持っていた	-10077
システムおよび	-10078
1〜	-10079
おじ	-10080
を問	-10081
並列	-10082
人的	-10083
利得	-10084
形が	-10085
急速	-10086
納入	-10087
総裁	-10088
院長	-10089
.6%	-10090
ひどい	-10091
意味で	-10092
扱った	-10093
温かい	-10094
爆発的な	-10095
ングループ	-10096
に挙げられる	-10097
スペンション	-10098
▁道	-10099
スキ	-10100
マジ	-10101
幽霊	-10102
▁普段	-10103
、24	-10104
が制限	-10105
どおり	-10106
地域が	-10107
法人の	-10108
距離が	-10109
への転換	-10110
もあるが	-10111
刺激する	-10112
力を発揮	-10113
性が高い	-10114
証券会社	-10115
が集まって	-10116
の一つとして	-10117
を防止することができる	-10118
ッキ	-10119
信念	-10120
博覧	-10121
原告	-10122
実体	-10123
年型	-10124
復活	-10125
感と	-10126
植民	-10127
に違反	-10128
を建て	-10129
ロマン	-10130
時代が	-10131
発表会	-10132
進める	-10133
▁以下の	-10134
▁政府の	-10135
人として	-10136
早ければ	-10137
運転者が	-10138
自分たちの	-10139
を繰り広げる	-10140
~6	-10141
女王	-10142
接点	-10143
模様	-10144
漢字	-10145
破産	-10146
踏み	-10147
通る	-10148
地球の	-10149
新車を	-10150
発明は	-10151
税金を	-10152
端末の	-10153
金額は	-10154
▁これら	-10155
▁彼らの	-10156
してくれ	-10157
ステップ	-10158
人だった	-10159
を発売した	-10160
金融会社の	-10161
双龍自動車の	-10162
71	-10163
ニク	-10164
大半	-10165
密度	-10166
少数	-10167
所要	-10168
有望	-10169
熱演	-10170
青春	-10171
に保存	-10172
を禁止	-10173
交換機	-10174
南側の	-10175
報じた	-10176
残した	-10177
過ぎた	-10178
領域を	-10179
ゆっくり	-10180
を始める	-10181
ジェソク	-10182
ポリマー	-10183
事業場の	-10184
作られる	-10185
自動車用	-10186
金融支援	-10187
で行われる	-10188
特徴である	-10189
.3	-10190
を整	-10191
ガプ	-10192
ナの	-10193
事後	-10194
巨大	-10195
標高	-10196
職の	-10197
、14	-10198
くると	-10199
グッド	-10200
ツアー	-10201
機関に	-10202
状況に	-10203
車両を	-10204
のせいで	-10205
交通安全	-10206
魅力的な	-10207
されるなど	-10208
されるという	-10209
ドキュメンタ	-10210
ご案内しますので	-10211
▁ウ	-10212
べる	-10213
ペー	-10214
描写	-10215
日帝	-10216
時も	-10217
有償	-10218
水分	-10219
重視	-10220
に対抗	-10221
太平洋	-10222
市民が	-10223
画面に	-10224
病院が	-10225
できるが	-10226
、2008	-10227
センターが	-10228
指定された	-10229
分に放送される	-10230
マク	-10231
優れ	-10232
告知	-10233
年次	-10234
彫刻	-10235
復旧	-10236
窒化	-10237
▁電気	-10238
に住む	-10239
インが	-10240
一帯の	-10241
現地の	-10242
相次ぐ	-10243
領域で	-10244
スポット	-10245
連邦準備	-10246
続いている	-10247
してはならない	-10248
パラサイト半地下の家族	-10249
低温	-10250
別れ	-10251
審で	-10252
起動	-10253
鍾路	-10254
黒字	-10255
ore	-10256
で生産	-10257
で開催	-10258
人間は	-10259
作って	-10260
正常な	-10261
開発の	-10262
高分子	-10263
が目立つ	-10264
フィルタ	-10265
プログラ	-10266
急増した	-10267
自主的に	-10268
意味がある	-10269
トランスミッション	-10270
上手	-10271
優雅	-10272
契機	-10273
有益	-10274
無駄	-10275
続け	-10276
逮捕	-10277
陣は	-10278
ell	-10279
▁市は	-10280
の構成	-10281
下落し	-10282
実績が	-10283
駐車場	-10284
▁ニュー	-10285
サッカー	-10286
ブロード	-10287
処理する	-10288
教育支援	-10289
るようになった	-10290
のインターネット	-10291
IF	-10292
UN	-10293
たま	-10294
つは	-10295
与信	-10296
学者	-10297
幼児	-10298
投稿	-10299
ETF	-10300
を期待	-10301
ジェン	-10302
バスの	-10303
分けて	-10304
助けて	-10305
意見が	-10306
2007	-10307
が不可能	-10308
でなければ	-10309
キャッシュ	-10310
コントロー	-10311
パーセント	-10312
ものではない	-10313
LC	-10314
をと	-10315
開幕	-10316
OTT	-10317
が一般	-10318
が現実	-10319
センス	-10320
前後の	-10321
国家の	-10322
専用の	-10323
活発な	-10324
目的に	-10325
▁しかも	-10326
と語った	-10327
ソケット	-10328
パーティ	-10329
変動性が	-10330
性がある	-10331
払い戻し	-10332
においても	-10333
らと	-10334
東部	-10335
葬儀	-10336
記述	-10337
階段	-10338
が追加	-10339
に着手	-10340
出会い	-10341
導電性	-10342
文化を	-10343
業務の	-10344
過ぎて	-10345
▁すると	-10346
が高まり	-10347
との間に	-10348
を描いた	-10349
トリック	-10350
勘案すれば	-10351
わる	-10352
を押	-10353
シネ	-10354
実感	-10355
手順	-10356
水に	-10357
失業者	-10358
授賞式	-10359
教会の	-10360
超える	-10361
道路の	-10362
位置づけ	-10363
▁スマート	-10364
釜山広域市	-10365
ライム資産運用	-10366
つく	-10367
の初	-10368
ピョ	-10369
命を	-10370
機張	-10371
物に	-10372
端に	-10373
管轄	-10374
解放	-10375
鉄鋼	-10376
っしゃ	-10377
を追い	-10378
インダ	-10379
ジヨン	-10380
方法が	-10381
普通の	-10382
欲しい	-10383
男性の	-10384
研究の	-10385
に焦点を	-10386
ドリーム	-10387
出ている	-10388
で発生した	-10389
を生産する	-10390
ファミリー	-10391
しなければならなかった	-10392
▁公	-10393
ボク	-10394
三星	-10395
徴収	-10396
筆頭	-10397
の可否	-10398
問題だ	-10399
持って	-10400
明るく	-10401
水準だ	-10402
純粋な	-10403
総選挙	-10404
車両が	-10405
全羅北道	-10406
外国為替	-10407
比較的に	-10408
されるので	-10409
インテリア	-10410
社会安全網	-10411
に包	-10412
ハブ	-10413
上海	-10414
争議	-10415
罰金	-10416
1.5	-10417
▁統計	-10418
コスピ	-10419
品質の	-10420
基板を	-10421
説明会	-10422
▁ルノー	-10423
ができた	-10424
ならでは	-10425
に備えて	-10426
ウォンは	-10427
思い浮か	-10428
放送通信	-10429
に参加して	-10430
センターに	-10431
th	-10432
再発	-10433
愛を	-10434
案件	-10435
祭祀	-10436
電算	-10437
魅了	-10438
められ	-10439
所得税	-10440
条件で	-10441
証券の	-10442
調査で	-10443
賃金を	-10444
金融の	-10445
ショット	-10446
ニックス	-10447
法改正案	-10448
知れない	-10449
伝えられる	-10450
を高めている	-10451
知らなかった	-10452
被害を受けた	-10453
コロナウイルス	-10454
Hz	-10455
が約	-10456
ドロ	-10457
人民	-10458
古典	-10459
平凡	-10460
年俸	-10461
滞納	-10462
直列	-10463
貸付	-10464
は主に	-10465
パイプ	-10466
ヵ所の	-10467
以外に	-10468
感情を	-10469
振興院	-10470
金額を	-10471
展望した	-10472
に至るまで	-10473
▁p	-10474
さは	-10475
仮説	-10476
▁ホン	-10477
上げて	-10478
前まで	-10479
と比べて	-10480
を終えて	-10481
確認する	-10482
良かった	-10483
評価する	-10484
誕生した	-10485
▁この中で	-10486
センティブ	-10487
FM	-10488
もら	-10489
模型	-10490
を出し	-10491
アセン	-10492
リック	-10493
超音波	-10494
した後に	-10495
ないため	-10496
をつけた	-10497
デザインと	-10498
の裏	-10499
エム	-10500
体温	-10501
外交	-10502
安山	-10503
橋梁	-10504
隊員	-10505
ソンウ	-10506
国会で	-10507
年以後	-10508
意味を	-10509
映像が	-10510
見せて	-10511
大統領の	-10512
拡大した	-10513
金融会社が	-10514
予想している	-10515
▁専門家たちは	-10516
モル	-10517
上流	-10518
手軽	-10519
衣装	-10520
起因	-10521
と見た	-10522
を調査	-10523
シャン	-10524
パウチ	-10525
均一に	-10526
業者は	-10527
まとめた	-10528
をベース	-10529
を続けて	-10530
を送って	-10531
感染者は	-10532
がなくても	-10533
強化された	-10534
が適用される	-10535
マネージャー	-10536
▁言い換えれば	-10537
スム	-10538
ノキ	-10539
上部	-10540
好調	-10541
山林	-10542
質が	-10543
類の	-10544
いれば	-10545
を集め	-10546
エンド	-10547
冬休み	-10548
本部長	-10549
構造で	-10550
結婚式	-10551
何よりも	-10552
作用する	-10553
民主主義	-10554
スプリング	-10555
レーシング	-10556
計画を立て	-10557
を可能にする	-10558
する計画である	-10559
最低賃金引き上げ	-10560
という指摘が出ている	-10561
GB	-10562
なん	-10563
リハ	-10564
作戦	-10565
本は	-10566
板に	-10567
▁文化	-10568
と協力	-10569
カウン	-10570
原子力	-10571
年前の	-10572
指数は	-10573
活動に	-10574
過去に	-10575
里には	-10576
完全販売	-10577
金融商品	-10578
者に対する	-10579
▁長	-10580
剤の	-10581
始動	-10582
異例	-10583
類型	-10584
いつの	-10585
フィー	-10586
拍車を	-10587
機能の	-10588
被害が	-10589
を送った	-10590
ラグジュ	-10591
少しでも	-10592
投資する	-10593
長期的な	-10594
▁なぜなら	-10595
をめぐって	-10596
ディズニー	-10597
構成される	-10598
モジュールの	-10599
装置を開示する	-10600
61	-10601
MM	-10602
変異	-10603
指紋	-10604
操縦	-10605
art	-10606
フンの	-10607
基板に	-10608
息子の	-10609
楽しむ	-10610
治療薬	-10611
見込み	-10612
販売し	-10613
▁彼らが	-10614
るところ	-10615
立場では	-10616
遠隔授業	-10617
電源供給	-10618
ロボットの	-10619
相変わらず	-10620
お知らせします	-10621
ちょ	-10622
値は	-10623
投与	-10624
投機	-10625
ity	-10626
をいう	-10627
スポン	-10628
ッパー	-10629
各国の	-10630
生徒が	-10631
生産性	-10632
訪ねて	-10633
南側には	-10634
経済的な	-10635
決定される	-10636
でありながら	-10637
ミーティング	-10638
広がっている	-10639
フォルクスワーゲンの	-10640
アは	-10641
ニン	-10642
濃度	-10643
生体	-10644
モンド	-10645
今年第	-10646
性犯罪	-10647
支払う	-10648
科学的	-10649
alax	-10650
▁ファン	-10651
▁今年は	-10652
を基盤に	-10653
グランド	-10654
バレッジ	-10655
下半期に	-10656
研究院は	-10657
、2014	-10658
を実施した	-10659
クラスター	-10660
▁研究チームは	-10661
今回が初めてだ	-10662
保護者の方々の	-10663
HE	-10664
に耐	-10665
ヨプ	-10666
前月	-10667
容器	-10668
河東	-10669
蒸気	-10670
運ば	-10671
電撃	-10672
鮮明	-10673
かしい	-10674
が殺到	-10675
と見て	-10676
の代表	-10677
を入力	-10678
を巡る	-10679
を開設	-10680
ートゥ	-10681
作家の	-10682
格別な	-10683
率いる	-10684
現行の	-10685
良質の	-10686
考慮した	-10687
億ウォンと	-10688
が終わった後	-10689
で構成される	-10690
えることができる	-10691
量子コンピュータ	-10692
っし	-10693
急落	-10694
歓迎	-10695
隙間	-10696
いただ	-10697
センチ	-10698
勤労制	-10699
母親が	-10700
装置に	-10701
インフォ	-10702
ヘリョン	-10703
alaxy	-10704
▁ところで	-10705
が終わった	-10706
を要求した	-10707
を進めている	-10708
印刷回路基板	-10709
放課後学校の	-10710
ラグジュアリー	-10711
リーダーシップ	-10712
することを目的とする	-10713
54	-10714
が第	-10715
スパ	-10716
メイ	-10717
免税	-10718
海雲	-10719
野外	-10720
階級	-10721
ang	-10722
に向け	-10723
学年の	-10724
歌手の	-10725
活物質	-10726
▁むしろ	-10727
リリース	-10728
保険料を	-10729
副会長は	-10730
韓国労総	-10731
という考え	-10732
労働市場の	-10733
サスペンション	-10734
ものと分析される	-10735
▁文	-10736
下水	-10737
控訴	-10738
改良	-10739
波長	-10740
が広く	-10741
は他の	-10742
何度も	-10743
動物の	-10744
始めて	-10745
展示場	-10746
向上した	-10747
存在感を	-10748
▁中小企業	-10749
すれば良い	-10750
ec	-10751
ハヌ	-10752
内陸	-10753
批准	-10754
移植	-10755
粉末	-10756
自家	-10757
はじめ	-10758
化学的	-10759
協会は	-10760
広範囲	-10761
満足度	-10762
近隣の	-10763
ところは	-10764
と考える	-10765
を満たす	-10766
コマース	-10767
化させる	-10768
商工会議	-10769
マニュアル	-10770
がどのように	-10771
エンディング	-10772
ラインアップ	-10773
インセンティブ	-10774
モク	-10775
天気	-10776
燃焼	-10777
物件	-10778
でのみ	-10779
ラーの	-10780
団地が	-10781
契約を	-10782
映画館	-10783
極めて	-10784
酸化物	-10785
の一つだ	-10786
下落傾向	-10787
▁ギャラクシー	-10788
本発明によれば	-10789
吸着	-10790
器具	-10791
国土	-10792
国防	-10793
貧困	-10794
軽く	-10795
が拡散	-10796
北側の	-10797
終わる	-10798
美しく	-10799
を最小限	-10800
ジョージ	-10801
ゼネスト	-10802
保険料の	-10803
個人的な	-10804
書かれた	-10805
青少年の	-10806
されるだろう	-10807
をプレゼント	-10808
▁起亜自動車が	-10809
お願い致します	-10810
ということです	-10811
に過ぎなかった	-10812
システムにおいて	-10813
9,	-10814
OD	-10815
op	-10816
富川	-10817
急な	-10818
株を	-10819
残留	-10820
浮揚	-10821
祭り	-10822
英才	-10823
視野	-10824
▁住宅	-10825
つけた	-10826
を食べ	-10827
メカニ	-10828
住民が	-10829
困難な	-10830
家庭で	-10831
教授の	-10832
▁SBS	-10833
いながら	-10834
はないが	-10835
インスト	-10836
ショナル	-10837
高まった	-10838
を受け入れ	-10839
を引き受け	-10840
向上させた	-10841
これを通じて	-10842
起亜自動車が	-10843
みの	-10844
を吐	-10845
募金	-10846
半ば	-10847
引退	-10848
構図	-10849
濃い	-10850
BTS	-10851
が同じ	-10852
保育園	-10853
方修正	-10854
終わり	-10855
自然な	-10856
規制が	-10857
ある程度	-10858
がついた	-10859
のですが	-10860
まったく	-10861
を設置し	-10862
レーター	-10863
ロケット	-10864
としながら	-10865
をしていた	-10866
備えている	-10867
装置において	-10868
号の	-10869
洞に	-10870
自生	-10871
開通	-10872
119	-10873
と連結	-10874
ージュ	-10875
海外の	-10876
父親の	-10877
込めた	-10878
▁ドイツ	-10879
で作った	-10880
ストップ	-10881
マイナー	-10882
信用保証	-10883
▁2020	-10884
ウィンドウ	-10885
ロボットは	-10886
万ウォンに	-10887
ことができず	-10888
ござ	-10889
安く	-10890
性別	-10891
運航	-10892
を設立	-10893
ベッド	-10894
単位の	-10895
最先端	-10896
業者に	-10897
特性上	-10898
外部から	-10899
発表する	-10900
笑いを誘	-10901
表示する	-10902
と似ている	-10903
のは難しい	-10904
を開発した	-10905
引き上げた	-10906
最も大きな	-10907
をどのように	-10908
ベストセラー	-10909
83	-10910
li	-10911
に抑	-10912
カス	-10913
net	-10914
の中核	-10915
有用な	-10916
▁その上	-10917
キリスト	-10918
クルーズ	-10919
わなかった	-10920
する予定です	-10921
を解	-10922
保全	-10923
発火	-10924
かなか	-10925
が全て	-10926
の需要	-10927
れると	-10928
を挙げ	-10929
エンス	-10930
フェン	-10931
予定の	-10932
安全処	-10933
里から	-10934
モデルで	-10935
協同組合	-10936
年以内に	-10937
などにより	-10938
を効率的に	-10939
施行される	-10940
活用できる	-10941
が発生した場合	-10942
さらに詳しくは	-10943
バッテリーパック	-10944
62	-10945
うつ	-10946
と一	-10947
北部	-10948
インは	-10949
充電器	-10950
に当たる	-10951
を探して	-10952
ショック	-10953
リハビリ	-10954
出される	-10955
診断検査	-10956
▁ソウル市	-10957
が形成され	-10958
陰極線管の	-10959
しなければならず	-10960
▁ト	-10961
ノン	-10962
党は	-10963
大挙	-10964
群れ	-10965
豊か	-10966
顕著	-10967
飛ば	-10968
▁都市	-10969
シリン	-10970
個々の	-10971
年平均	-10972
準中型	-10973
父親が	-10974
CCTV	-10975
いていく	-10976
だからだ	-10977
と考えて	-10978
ファンは	-10979
ホルダー	-10980
レジャー	-10981
、2009	-10982
証券市場の	-10983
万ウォンまで	-10984
していることを	-10985
その目的がある	-10986
ロジ	-10987
中性	-10988
化は	-10989
家賃	-10990
強占	-10991
探求	-10992
松坡	-10993
残り	-10994
礼拝	-10995
運搬	-10996
くれて	-10997
なんと	-10998
にさら	-10999
に変化	-11000
を結び	-11001
デザイ	-11002
初期に	-11003
地域を	-11004
脆弱な	-11005
を披露し	-11006
コリアの	-11007
ドナルド	-11008
委員会で	-11009
という話だ	-11010
シリーズの	-11011
参加をお願いします	-11012
LE	-11013
St	-11014
ガイ	-11015
ナレ	-11016
延び	-11017
教え	-11018
時速	-11019
漁業	-11020
落と	-11021
逆転	-11022
面倒	-11023
頭を	-11024
あげる	-11025
今回は	-11026
情報と	-11027
確実な	-11028
誰かが	-11029
▁第三に	-11030
を越えた	-11031
世界大戦	-11032
以外にも	-11033
来年から	-11034
活用して	-11035
緊急災難	-11036
が提起された	-11037
キャラクターの	-11038
ホールディング	-11039
する可能性が高い	-11040
ということである	-11041
ra	-11042
ギガ	-11043
出荷	-11044
に分布	-11045
ブレイ	-11046
不思議	-11047
大学院	-11048
希望の	-11049
月平均	-11050
連れて	-11051
居住する	-11052
現実的な	-11053
、2012	-11054
パーティー	-11055
でなければならない	-11056
ob	-11057
に反	-11058
アダ	-11059
値の	-11060
兼ね	-11061
小売	-11062
局の	-11063
志向	-11064
が強い	-11065
放射線	-11066
検索語	-11067
消える	-11068
社員の	-11069
米国と	-11070
2005	-11071
に見える	-11072
支援対象	-11073
最も高い	-11074
込まれる	-11075
系列会社の	-11076
が形成される	-11077
しかなかった	-11078
万ウォンずつ	-11079
やつ	-11080
ブン	-11081
後輩	-11082
率も	-11083
病棟	-11084
麻薬	-11085
ドット	-11086
優しい	-11087
小型化	-11088
程度で	-11089
領域に	-11090
が入った	-11091
タワーク	-11092
ニッケル	-11093
自動車を	-11094
陽性判定	-11095
そうとする	-11096
通っている	-11097
けることができる	-11098
SS	-11099
にて	-11100
中区	-11101
北京	-11102
年は	-11103
広場	-11104
推算	-11105
文明	-11106
瑞山	-11107
ないが	-11108
を牽引	-11109
スパイ	-11110
ーンは	-11111
使った	-11112
健全な	-11113
国内に	-11114
電池は	-11115
がまさに	-11116
きれいに	-11117
上半期に	-11118
制度改善	-11119
話を交わ	-11120
資産管理	-11121
可能である	-11122
切な	-11123
外に	-11124
み出す	-11125
フェル	-11126
ーンが	-11127
全体を	-11128
昔から	-11129
費用の	-11130
金持ち	-11131
あなたは	-11132
かという	-11133
カーボン	-11134
リサーチ	-11135
不可能な	-11136
結果的に	-11137
長期的に	-11138
を希望する	-11139
登録された	-11140
万ウォンから	-11141
位置している	-11142
「3	-11143
らを	-11144
収縮	-11145
振る	-11146
毎回	-11147
渡り	-11148
照ら	-11149
置き	-11150
質を	-11151
車で	-11152
ちょう	-11153
に問題	-11154
ランク	-11155
劣悪な	-11156
子供を	-11157
限って	-11158
1990	-11159
が起きる	-11160
したのか	-11161
ゴールド	-11162
サークル	-11163
基板上に	-11164
憶ウォン	-11165
裁判所が	-11166
されていて	-11167
できません	-11168
消費者保護	-11169
が流れている	-11170
ることにした	-11171
オーディション	-11172
IV	-11173
PP	-11174
os	-11175
ヘン	-11176
国務	-11177
新作	-11178
王の	-11179
が開発	-11180
グラフ	-11181
ビジネ	-11182
フュー	-11183
メタル	-11184
人当り	-11185
分野に	-11186
最新の	-11187
育てる	-11188
金融圏	-11189
▁これで	-11190
▁不動産	-11191
したとき	-11192
に入れて	-11193
時価総額	-11194
通商資源	-11195
防弾少年	-11196
▁こうした	-11197
君の	-11198
模範	-11199
軍隊	-11200
サージ	-11201
下げる	-11202
分析だ	-11203
息子が	-11204
手を握	-11205
符号化	-11206
素敵な	-11207
車両用	-11208
海水浴場	-11209
率が高い	-11210
関係者が	-11211
られており	-11212
メカニズム	-11213
べきだという	-11214
半導体チップ	-11215
に関することで	-11216
▁花	-11217
ッズ	-11218
勝負	-11219
参照	-11220
収穫	-11221
達が	-11222
配偶	-11223
▁写真	-11224
、25	-11225
の中間	-11226
の懸念	-11227
を選ぶ	-11228
先進国	-11229
参加者	-11230
文化的	-11231
渡した	-11232
だければ	-11233
プラント	-11234
▁モバイル	-11235
に置かれた	-11236
に関連して	-11237
サービスで	-11238
スポンサー	-11239
ハク	-11240
位は	-11241
体で	-11242
外出	-11243
夫が	-11244
救助	-11245
様式	-11246
知恵	-11247
顔を	-11248
など計	-11249
を実行	-11250
を超え	-11251
ールの	-11252
乗り心	-11253
偉大な	-11254
構成員	-11255
細かく	-11256
詳しい	-11257
降りて	-11258
▁本校の	-11259
時代には	-11260
選定した	-11261
高速国道	-11262
に変わった	-11263
アレルギー	-11264
調査の結果	-11265
が残っている	-11266
だと明らかにした	-11267
GA	-11268
優良	-11269
官の	-11270
市長	-11271
掛け	-11272
雑音	-11273
願う	-11274
いっぱ	-11275
伝わる	-11276
愉快な	-11277
方式だ	-11278
▁他にも	-11279
との関係	-11280
を拡大し	-11281
セメント	-11282
事前契約	-11283
に達すると	-11284
▁本発明の課題は	-11285
を殺	-11286
事由	-11287
子孫	-11288
密閉	-11289
悪性	-11290
氏に	-11291
混雑	-11292
発注	-11293
金海	-11294
▁11	-11295
ほどだ	-11296
カーの	-11297
ネック	-11298
マイズ	-11299
中国で	-11300
化を図	-11301
学校は	-11302
市長は	-11303
数年間	-11304
西側の	-11305
資産を	-11306
▁ロッテ	-11307
性を持つ	-11308
気持ちで	-11309
由来した	-11310
被害者の	-11311
よりさらに	-11312
ユニークな	-11313
自動変速機	-11314
するようになる	-11315
であることが分かった	-11316
差益	-11317
平行	-11318
幻想	-11319
恥ず	-11320
慶州	-11321
放映	-11322
没頭	-11323
界が	-11324
精巧	-11325
リーが	-11326
再建築	-11327
機能は	-11328
適した	-11329
が高まる	-11330
を開発し	-11331
ニュート	-11332
4,000	-11333
ならではの	-11334
知っていた	-11335
特別延長勤労	-11336
うことができる	-11337
が集中している	-11338
オープンバンキング	-11339
1・	-11340
下で	-11341
悪質	-11342
材の	-11343
決め	-11344
潜伏	-11345
ステン	-11346
位置に	-11347
副総理	-11348
措置が	-11349
服を着	-11350
法改正	-11351
申し訳	-11352
▁警察は	-11353
を発売し	-11354
レーダー	-11355
ヒョンジュ	-11356
プロトコル	-11357
不確実性が	-11358
目を引いた	-11359
に対する理解	-11360
ゴミ	-11361
井戸	-11362
今週	-11363
有線	-11364
発病	-11365
請約	-11366
通路	-11367
▁彼女	-11368
の中古	-11369
構造は	-11370
車両は	-11371
輸出入	-11372
が同時に	-11373
ナンバー	-11374
保険会社	-11375
▁2015	-11376
苦しんでいる	-11377
▁金融監督院は	-11378
Si	-11379
Wh	-11380
フッ	-11381
偏差	-11382
反復	-11383
暴落	-11384
消滅	-11385
満了	-11386
特集	-11387
社と	-11388
▁In	-11389
世紀の	-11390
企業を	-11391
売上げ	-11392
大学が	-11393
家庭に	-11394
超小型	-11395
▁クォン	-11396
であって	-11397
シールド	-11398
パネルの	-11399
安全管理	-11400
系列会社	-11401
してきたが	-11402
を適用して	-11403
にとどまった	-11404
オリンピック	-11405
プログラムが	-11406
せい	-11407
ミネ	-11408
前面	-11409
強固	-11410
明示	-11411
網の	-11412
遮蔽	-11413
部隊	-11414
かせて	-11415
さんに	-11416
を研究	-11417
アント	-11418
不当な	-11419
何かを	-11420
備える	-11421
周囲の	-11422
方程式	-11423
代表的だ	-11424
を維持する	-11425
を作るために	-11426
方法を開示する	-11427
▁村	-11428
ご覧	-11429
ロゴ	-11430
不純	-11431
侵食	-11432
知覚	-11433
神秘	-11434
360	-11435
が受け	-11436
に従事	-11437
会長と	-11438
作品は	-11439
受信機	-11440
商用車	-11441
現象は	-11442
組織の	-11443
したのが	-11444
などから	-11445
を取り戻	-11446
市場への	-11447
と明かした	-11448
を防止して	-11449
と同じように	-11450
クリエイター	-11451
日に発表した	-11452
ヒは	-11453
均等	-11454
東区	-11455
西区	-11456
に維持	-11457
を置く	-11458
不要な	-11459
広がる	-11460
最適の	-11461
議員が	-11462
いっぱい	-11463
をすると	-11464
を聞いた	-11465
光を浴び	-11466
座り込み	-11467
情報技術	-11468
など様々な	-11469
ようとした	-11470
個人情報を	-11471
時間の短縮	-11472
月火ドラマ	-11473
話題になった	-11474
ee	-11475
に留	-11476
オム	-11477
円形	-11478
幅は	-11479
後で	-11480
案の	-11481
骨子	-11482
▁去る	-11483
うちの	-11484
に入院	-11485
を訪れ	-11486
タワー	-11487
教師が	-11488
機関と	-11489
KCGI	-11490
▁従来は	-11491
しないと	-11492
開示する	-11493
かけている	-11494
と批判した	-11495
アップルの	-11496
▁この過程で	-11497
▁ほとんどの	-11498
出して下さい	-11499
スマートシティ	-11500
先物	-11501
公告	-11502
受領	-11503
姿だ	-11504
整合	-11505
水木	-11506
理念	-11507
被告	-11508
鋭い	-11509
頑張	-11510
130	-11511
ERS	-11512
▁労組	-11513
もとも	-11514
シフト	-11515
ラーは	-11516
作品の	-11517
変圧器	-11518
大衆の	-11519
最適化	-11520
自分で	-11521
▁その時	-11522
と呼んだ	-11523
ントリー	-11524
使用した	-11525
子供たち	-11526
▁教育部は	-11527
ウェブトゥーン	-11528
SF	-11529
と名	-11530
又は	-11531
受験	-11532
墜落	-11533
年で	-11534
探査	-11535
線路	-11536
賛否	-11537
▁欧州	-11538
を発見	-11539
保険金	-11540
き出した	-11541
供給する	-11542
子どもの	-11543
撮影した	-11544
生涯教育	-11545
においては	-11546
するとともに	-11547
期待を集めている	-11548
関心を集めている	-11549
ご案内いたしますので	-11550
バナ	-11551
亀裂	-11552
仲裁	-11553
兆し	-11554
品目	-11555
席を	-11556
緑色	-11557
額を	-11558
マンが	-11559
事例は	-11560
周りの	-11561
広告を	-11562
本当の	-11563
浮き彫	-11564
おそらく	-11565
して以来	-11566
スムーズ	-11567
制御する	-11568
筆頭株主	-11569
遂行する	-11570
が存在する	-11571
が集まった	-11572
として活動	-11573
ようにして	-11574
ストリーム	-11575
ベアリング	-11576
住民たちが	-11577
▁起亜自動車	-11578
が入っている	-11579
バッテリーを	-11580
マイナーチェンジ	-11581
AW	-11582
▁天	-11583
ボイ	-11584
余暇	-11585
勢が	-11586
点数	-11587
190	-11588
gle	-11589
▁毎年	-11590
が他の	-11591
もたら	-11592
テージ	-11593
制度は	-11594
将来の	-11595
最小化	-11596
英国の	-11597
2021	-11598
しばしば	-11599
となって	-11600
準備した	-11601
えなかった	-11602
たくさんの	-11603
傾向がある	-11604
しなければなりません	-11605
なお	-11606
ミル	-11607
万個	-11608
告訴	-11609
撮像	-11610
日報	-11611
谷間	-11612
▁家族	-11613
が世界	-11614
アーム	-11615
営業店	-11616
母親の	-11617
選んだ	-11618
▁様々な	-11619
を残した	-11620
ランボル	-11621
人未満の	-11622
全般的な	-11623
勤労契約	-11624
北側には	-11625
最小限の	-11626
ファンドが	-11627
改善される	-11628
機関である	-11629
サービス提供	-11630
するのは難しい	-11631
食品医薬品安全処	-11632
車体	-11633
▁IT	-11634
▁クム	-11635
すぎる	-11636
を見守	-11637
フンは	-11638
リーグ	-11639
公正な	-11640
政府に	-11641
であろう	-11642
に優れた	-11643
を構築し	-11644
スライド	-11645
ダイヤル	-11646
取り上げ	-11647
決まった	-11648
発行した	-11649
国際映画祭	-11650
これに対する	-11651
ユープラスが	-11652
ランボルギー	-11653
全面ストライキ	-11654
オーダーメード型	-11655
かず	-11656
を誇	-11657
コリ	-11658
声援	-11659
本体	-11660
生が	-11661
省庁	-11662
茂朱	-11663
ine	-11664
が主催	-11665
ており	-11666
に同意	-11667
をつけ	-11668
ウンが	-11669
クァク	-11670
バシー	-11671
ホット	-11672
労使政	-11673
昨年末	-11674
河川の	-11675
載せた	-11676
高価な	-11677
だろうと	-11678
まとめて	-11679
をかけた	-11680
増加傾向	-11681
起訴された	-11682
と判断される	-11683
かねないという	-11684
リードフレーム	-11685
ものと期待される	-11686
ディープラーニング	-11687
▁下	-11688
昼食	-11689
混ぜ	-11690
耳を	-11691
マクロ	-11692
メッキ	-11693
別途に	-11694
成長の	-11695
知られ	-11696
2006	-11697
に先立ち	-11698
ひとまず	-11699
をつける	-11700
ックスは	-11701
充実した	-11702
定期的に	-11703
と言いながら	-11704
雇用労働部の	-11705
ることができない	-11706
新型コロナウイルス感染症の拡散	-11707
「2	-11708
らも	-11709
南に	-11710
学会	-11711
河口	-11712
、60	-11713
を設け	-11714
スロー	-11715
在韓米	-11716
基準が	-11717
成長し	-11718
技術だ	-11719
理解し	-11720
近くに	-11721
高まる	-11722
ことです	-11723
を選んだ	-11724
代表理事	-11725
協力会社	-11726
移動する	-11727
られていた	-11728
ブラウン管	-11729
という説明だ	-11730
プライバシー	-11731
浮上している	-11732
ランボルギーニ	-11733
ドキュメンタリー	-11734
95	-11735
ガル	-11736
古代	-11737
報復	-11738
比例	-11739
水と	-11740
築造	-11741
補修	-11742
▁主要	-11743
を誇る	-11744
レンチ	-11745
下げた	-11746
人乗り	-11747
商品が	-11748
身につ	-11749
飛行機	-11750
▁いつも	-11751
あちこち	-11752
データは	-11753
判断する	-11754
評価した	-11755
▁この他に	-11756
、2011	-11757
、2013	-11758
ことが多い	-11759
サービスと	-11760
タイミング	-11761
億ウォンに	-11762
は依然として	-11763
カスタマイズ	-11764
環境にやさしい	-11765
及びその製造方法	-11766
そろ	-11767
の道	-11768
の長	-11769
前方	-11770
剤を	-11771
曲げ	-11772
突起	-11773
結び	-11774
量と	-11775
2.0	-11776
すぎて	-11777
と指摘	-11778
の状況	-11779
健康に	-11780
年金の	-11781
所在の	-11782
抗がん	-11783
条件を	-11784
西側に	-11785
運転者	-11786
釜山の	-11787
アドバイ	-11788
ブリッジ	-11789
支えられ	-11790
視聴者を	-11791
ケーブルの	-11792
住んでいる	-11793
が大きくなり	-11794
▁当	-11795
光源	-11796
回数	-11797
強硬	-11798
新任	-11799
照射	-11800
複製	-11801
記入	-11802
が深刻	-11803
を促進	-11804
を通る	-11805
最優秀	-11806
速度は	-11807
驚いた	-11808
▁最初の	-11809
▁輸入車	-11810
に出演し	-11811
大きさが	-11812
購入した	-11813
がないため	-11814
アセンブリ	-11815
フォールド	-11816
が無	-11817
ブの	-11818
喪失	-11819
委の	-11820
幹部	-11821
膨ら	-11822
視点	-11823
軌道	-11824
LTE	-11825
事業で	-11826
付いた	-11827
強度を	-11828
慎重に	-11829
映画を	-11830
苦しい	-11831
も同様に	-11832
アマゾン	-11833
位置する	-11834
合わない	-11835
実質的に	-11836
を経験した	-11837
リサイクル	-11838
原子力発電	-11839
スケジュール	-11840
今年に入って	-11841
EM	-11842
NC	-11843
PB	-11844
VD	-11845
東海	-11846
横断	-11847
盛り	-11848
税制	-11849
衣類	-11850
▁高麗	-11851
を基に	-11852
ボイス	-11853
人々を	-11854
団体が	-11855
売れた	-11856
自然村	-11857
費用は	-11858
連合会	-11859
労働界の	-11860
者のうち	-11861
で開かれる	-11862
モーニング	-11863
ということが	-11864
ビットコイン	-11865
と第	-11866
体質	-11867
原稿	-11868
物体	-11869
ILO	-11870
やっと	-11871
マネー	-11872
向こう	-11873
変化が	-11874
酸化膜	-11875
を訪ねて	-11876
実際には	-11877
気づいた	-11878
研究院の	-11879
がいっぱい	-11880
ろうとする	-11881
チャレンジ	-11882
を盛り込んだ	-11883
エネルギーが	-11884
ドライバーが	-11885
▁現代モービス	-11886
インタビューで	-11887
に触	-11888
圧電	-11889
妥協	-11890
率と	-11891
稲作	-11892
表す	-11893
に利用	-11894
ウィル	-11895
サンス	-11896
リート	-11897
我々が	-11898
活動は	-11899
独特な	-11900
▁ジョン	-11901
国民年金	-11902
進行する	-11903
と関係なく	-11904
のメンバー	-11905
の場合には	-11906
より大きな	-11907
回路基板の	-11908
などの持分率が	-11909
という分析が出ている	-11910
Al	-11911
拠点	-11912
約定	-11913
見守	-11914
貸切	-11915
遅い	-11916
▁建設	-11917
と結合	-11918
の不良	-11919
われて	-11920
作品を	-11921
計画の	-11922
を強化し	-11923
oogle	-11924
という意見	-11925
持続可能な	-11926
洗練された	-11927
プライベート	-11928
業界の関係者は	-11929
XC	-11930
を回	-11931
オス	-11932
ベイ	-11933
事は	-11934
北に	-11935
整流	-11936
直撃	-11937
イエス	-11938
ウンの	-11939
クイズ	-11940
伝染病	-11941
教育は	-11942
起きる	-11943
電圧が	-11944
優先順位	-11945
期待した	-11946
来年度の	-11947
決定的な	-11948
祈ります	-11949
道路公社	-11950
そうだった	-11951
レストラン	-11952
手段として	-11953
保護者の皆様	-11954
方法に関する	-11955
自動運転車の	-11956
ることができた	-11957
システムを構築	-11958
付けられた名前	-11959
▁ルノーサムスン自動車は	-11960
▁ラ	-11961
の山	-11962
先日	-11963
帰宅	-11964
探し	-11965
▁イム	-11966
▁映像	-11967
かれて	-11968
を管理	-11969
を結合	-11970
キャプ	-11971
シェフ	-11972
研究で	-11973
行した	-11974
認識し	-11975
距離を	-11976
週間の	-11977
の一部が	-11978
を土台に	-11979
安定性を	-11980
デザインの	-11981
AC	-11982
セグ	-11983
授与	-11984
自制	-11985
贈呈	-11986
が一定	-11987
が調和	-11988
この時	-11989
にのみ	-11990
の形成	-11991
出力を	-11992
を進めた	-11993
恐ろしい	-11994
類似した	-11995
に含まれる	-11996
につながった	-11997
ステーション	-11998
を運営している	-11999
.6	-12000
81	-12001
代金	-12002
位を	-12003
入社	-12004
及ぶ	-12005
権が	-12006
決議	-12007
神の	-12008
西洋	-12009
集落	-12010
▁12	-12011
▁参加	-12012
▁市場	-12013
セール	-12014
ティン	-12015
事故の	-12016
会社員	-12017
教育と	-12018
時期を	-12019
株式の	-12020
pple	-12021
お茶の間	-12022
そのもの	-12023
プレゼン	-12024
を供給する	-12025
雇用保険の	-12026
▁c	-12027
▁他	-12028
を切	-12029
ナは	-12030
実物	-12031
往復	-12032
海抜	-12033
線に	-12034
聴取	-12035
腎臓	-12036
足が	-12037
に掲載	-12038
りする	-12039
を終え	-12040
エディ	-12041
人物が	-12042
機能と	-12043
貴重な	-12044
▁学校の	-12045
のに対し	-12046
住宅担保	-12047
そのように	-12048
アップルが	-12049
パスワード	-12050
知らされた	-12051
コンテンツが	-12052
.4	-12053
IA	-12054
▁s	-12055
バリ	-12056
将軍	-12057
川に	-12058
暖房	-12059
水は	-12060
積も	-12061
競売	-12062
自立	-12063
鬱陵	-12064
▁もう	-12065
▁医療	-12066
おばあ	-12067
に固定	-12068
の人気	-12069
を享受	-12070
を聞く	-12071
を超過	-12072
作業が	-12073
景気が	-12074
業界で	-12075
次元の	-12076
目標だ	-12077
背景に	-12078
送った	-12079
カードは	-12080
仮想現実	-12081
情報保護	-12082
月までに	-12083
経験した	-12084
▁合わせて	-12085
された場合	-12086
だったので	-12087
という懸念	-12088
インシュタ	-12089
考えている	-12090
脆弱階層に	-12091
を以下のように	-12092
▁これと関連して	-12093
で構成されており	-12094
▁ヒ	-12095
なさ	-12096
中途	-12097
分裂	-12098
同士	-12099
曲で	-12100
浄水	-12101
算出	-12102
道峰	-12103
を生成	-12104
を表す	-12105
月以降	-12106
頼んだ	-12107
ご家庭に	-12108
を目標に	-12109
受け取る	-12110
▁その中で	-12111
ホームショッピング	-12112
ミリ	-12113
代価	-12114
優勢	-12115
壬辰	-12116
多層	-12117
山里	-12118
開拓	-12119
館の	-12120
▁ネク	-12121
が開設	-12122
事態の	-12123
分野は	-12124
極端な	-12125
比率を	-12126
自体の	-12127
表面の	-12128
韓国語	-12129
と思えば	-12130
を感じる	-12131
カリスマ	-12132
ジェヨン	-12133
労働者と	-12134
追加的な	-12135
コンソーシアム	-12136
を提供することに	-12137
▁白	-12138
は第	-12139
ホの	-12140
帝国	-12141
ATM	-12142
CES	-12143
に出席	-12144
概して	-12145
熱心に	-12146
詳細な	-12147
貧しい	-12148
が容易で	-12149
する機会	-12150
分譲価格	-12151
国会議員	-12152
改善した	-12153
こともあった	-12154
を保有している	-12155
▁スマートフォン	-12156
確認することができる	-12157
AV	-12158
わざ	-12159
平沢	-12160
批評	-12161
破格	-12162
跳ね	-12163
返却	-12164
1~2	-12165
かして	-12166
が装着	-12167
にかか	-12168
を下す	-12169
リフト	-12170
位置を	-12171
大変な	-12172
微細な	-12173
感染が	-12174
方式を	-12175
時代を	-12176
が広がり	-12177
ちょうど	-12178
とは関係	-12179
なくなり	-12180
をすれば	-12181
を確認し	-12182
私たちに	-12183
行政安全	-12184
という判断	-12185
もしれない	-12186
計画である	-12187
することなく	-12188
構造に関するものである	-12189
分で	-12190
ter	-12191
▁環境	-12192
ウンは	-12193
合流し	-12194
圧力を	-12195
家に帰	-12196
料金制	-12197
日雇い	-12198
様子だ	-12199
買運動	-12200
▁過去の	-12201
かえって	-12202
クリスマ	-12203
伝えられ	-12204
勤労福祉	-12205
する場合は	-12206
ユーザーは	-12207
懸念される	-12208
などによって	-12209
時に発生する	-12210
検討している	-12211
造成されている	-12212
ことを明らかにした	-12213
さず	-12214
ノズ	-12215
根絶	-12216
混ざ	-12217
珍島	-12218
粉塵	-12219
脳の	-12220
金型	-12221
関数	-12222
KOS	-12223
の供給	-12224
の時間	-12225
プレス	-12226
ローマ	-12227
下さる	-12228
人口の	-12229
支援し	-12230
調べた	-12231
電子銃	-12232
低所得層	-12233
保険加入	-12234
をたくさん	-12235
情報を提供する	-12236
に提出してください	-12237
TM	-12238
断絶	-12239
新人	-12240
横に	-12241
水泳	-12242
腫瘍	-12243
が主導	-12244
ボリュ	-12245
壬辰倭	-12246
業種の	-12247
が変わる	-12248
ケミカル	-12249
ヒューズ	-12250
国内では	-12251
接触した	-12252
が開かれる	-12253
したものだ	-12254
を強化する	-12255
パイロット	-12256
乗り出した	-12257
表示される	-12258
と分析される	-12259
システムに関するものだ	-12260
中立	-12261
支部	-12262
昨日	-12263
村と	-12264
熟練	-12265
立派	-12266
脅迫	-12267
述べ	-12268
阻害	-12269
に設定	-12270
エレベ	-12271
パルス	-12272
任した	-12273
感染の	-12274
比率は	-12275
物体の	-12276
理事会	-12277
が新しい	-12278
保護者が	-12279
徹底した	-12280
によっては	-12281
の製造方法	-12282
になりました	-12283
を見ることができる	-12284
NM	-12285
労動	-12286
奨学	-12287
対抗	-12288
改造	-12289
演説	-12290
絶壁	-12291
遺産	-12292
順番	-12293
▁大型	-12294
そこに	-12295
を図る	-12296
を希望	-12297
を計画	-12298
ドゥル	-12299
プター	-12300
問題に	-12301
室長は	-12302
年連続	-12303
細胞の	-12304
課長は	-12305
▁多様な	-12306
が激しく	-12307
担当する	-12308
昨年より	-12309
暫定合意	-12310
どうやって	-12311
やむを得ず	-12312
子供たちに	-12313
提起された	-12314
生産ライン	-12315
ということで	-12316
自動車産業の	-12317
提起されている	-12318
を提供することである	-12319
アが	-12320
勝訴	-12321
寄生	-12322
専担	-12323
応急	-12324
懸案	-12325
氏を	-12326
素晴	-12327
聞き	-12328
舗装	-12329
も多く	-12330
を再開	-12331
内容だ	-12332
動かす	-12333
理由が	-12334
高齢化	-12335
その結果	-12336
と呼ばれ	-12337
にもっと	-12338
ワイヤー	-12339
世界中の	-12340
壬辰倭乱	-12341
さなかった	-12342
せなかった	-12343
という観測	-12344
の場	-12345
公職	-12346
席で	-12347
建議	-12348
後も	-12349
換え	-12350
昼間	-12351
東京	-12352
熱を	-12353
船が	-12354
要約	-12355
計器	-12356
連鎖	-12357
錦江	-12358
75%	-12359
▁電池	-12360
を発掘	-12361
ナイト	-12362
乗り越	-12363
人物の	-12364
本部が	-12365
給与の	-12366
能力の	-12367
集まる	-12368
公共交通	-12369
有償増資	-12370
▁慶尚北道	-12371
導入された	-12372
めることができる	-12373
ピル	-12374
久し	-12375
党が	-12376
封鎖	-12377
序盤	-12378
永登	-12379
税務	-12380
補佐	-12381
過失	-12382
から外	-12383
マンド	-12384
新鮮な	-12385
素材の	-12386
に向けて	-12387
を伝える	-12388
ラウンド	-12389
信用等級	-12390
成功的に	-12391
日以内に	-12392
自由韓国	-12393
ことだった	-12394
ボリューム	-12395
増加させる	-12396
進行された	-12397
だというのが	-12398
メッセージの	-12399
することを特徴とする	-12400
代が	-12401
取る	-12402
小児	-12403
捜索	-12404
探知	-12405
摩耗	-12406
横領	-12407
民の	-12408
流布	-12409
減速	-12410
隔壁	-12411
その他	-12412
はキム	-12413
ストの	-12414
ニティ	-12415
以内の	-12416
把握し	-12417
新車の	-12418
検査で	-12419
警察に	-12420
の役割を	-12421
電子部品	-12422
えるために	-12423
しておいた	-12424
を引き受けた	-12425
職場内いじめ	-12426
~5	-12427
先を	-12428
増の	-12429
応力	-12430
日々	-12431
私立	-12432
秘書	-12433
車輪	-12434
返還	-12435
で表現	-12436
と話す	-12437
に代わ	-12438
ひどく	-12439
まない	-12440
人には	-12441
永登浦	-12442
見せる	-12443
雨が降	-12444
▁ドラマ	-12445
▁下記の	-12446
▁現在の	-12447
をテーマ	-12448
ソンギュ	-12449
になりうる	-12450
スポーティ	-12451
ニュースの	-12452
設計された	-12453
繰り返される	-12454
92	-12455
FC	-12456
の家	-12457
マラ	-12458
全数	-12459
有権	-12460
検疫	-12461
野生	-12462
ack	-12463
が確定	-12464
でさえ	-12465
を失う	-12466
エリア	-12467
世界を	-12468
人以上	-12469
各社が	-12470
の不確実	-12471
全般的に	-12472
力のある	-12473
状況でも	-12474
できるので	-12475
のデザイン	-12476
証券市場が	-12477
非常に高い	-12478
アップロード	-12479
▁m	-12480
▁テ	-12481
▁木	-12482
まし	-12483
んぼ	-12484
ッシ	-12485
下流	-12486
中部	-12487
住む	-12488
入試	-12489
名簿	-12490
品の	-12491
山面	-12492
種が	-12493
総会	-12494
群落	-12495
2~3	-12496
の強化	-12497
ターン	-12498
ロング	-12499
ンジョ	-12500
信じる	-12501
化学は	-12502
取った	-12503
契機に	-12504
容疑で	-12505
幅広い	-12506
して使用	-12507
ビタミン	-12508
体験活動	-12509
が不可能な	-12510
して下さい	-12511
などがあり	-12512
最低賃金を	-12513
コネクテッド	-12514
のではないかと	-12515
SR	-12516
▁元	-12517
ウは	-12518
両方	-12519
代弁	-12520
住所	-12521
公平	-12522
出願	-12523
実効	-12524
敷地	-12525
歩道	-12526
究極	-12527
110	-12528
のチェ	-12529
られず	-12530
契約が	-12531
安定性	-12532
引いた	-12533
確かに	-12534
置いて	-12535
落ちて	-12536
▁TvN	-12537
ボーカル	-12538
モデルに	-12539
体系的な	-12540
圧倒的な	-12541
映像表示	-12542
を担当した	-12543
を減らして	-12544
メーカーは	-12545
時間がかかる	-12546
として位置づけ	-12547
形成されている	-12548
▁約	-12549
ミュ	-12550
好転	-12551
工具	-12552
湖南	-12553
発症	-12554
路と	-12555
配給	-12556
ber	-12557
▁TV	-12558
の導入	-12559
を建設	-12560
化合物	-12561
国会の	-12562
性能と	-12563
電圧の	-12564
を上げる	-12565
バスター	-12566
メンテナ	-12567
安全性を	-12568
完成した	-12569
日までの	-12570
物理的な	-12571
集積回路	-12572
を行います	-12573
ティリティ	-12574
理解できる	-12575
脚光を浴び	-12576
が発生すると	-12577
これによって	-12578
モノのインターネット	-12579
さの	-12580
りで	-12581
冒険	-12582
年第	-12583
探す	-12584
新生	-12585
板を	-12586
甘い	-12587
▁申請	-12588
とおり	-12589
の効率	-12590
カンパ	-12591
シトロ	-12592
件数が	-12593
双方向	-12594
役を演	-12595
華麗な	-12596
開発に	-12597
離れて	-12598
2004	-12599
ようです	-12600
フォトレ	-12601
乗り出す	-12602
価格上昇	-12603
ありがとう	-12604
オフロード	-12605
パラダイム	-12606
▁現代自動車が	-12607
▁低	-12608
▁年	-12609
健診	-12610
医院	-12611
収支	-12612
崩れ	-12613
帰国	-12614
特異	-12615
花が	-12616
々しい	-12617
づくり	-12618
のイム	-12619
イスラ	-12620
ソクが	-12621
作品で	-12622
去った	-12623
方式が	-12624
精神的	-12625
自治体	-12626
販売は	-12627
開発し	-12628
のためだ	-12629
元金損失	-12630
前年同月	-12631
段階的に	-12632
が開発した	-12633
に上がった	-12634
チーム長は	-12635
設置される	-12636
する可能性が	-12637
金融監督院の	-12638
えず	-12639
ゴー	-12640
任務	-12641
再度	-12642
劇の	-12643
常識	-12644
硬化	-12645
軽症	-12646
嬉しい	-12647
局長は	-12648
投資が	-12649
海雲台	-12650
疑惑で	-12651
社会で	-12652
職員は	-12653
西には	-12654
めており	-12655
高齢者の	-12656
7,000	-12657
アルコール	-12658
いと思います	-12659
ライフスタイル	-12660
新型コロナウイルス感染症で	-12661
og	-12662
たん	-12663
っぷ	-12664
わく	-12665
乗務	-12666
全南	-12667
商圏	-12668
時刻	-12669
曲の	-12670
東に	-12671
校の	-12672
発議	-12673
養殖	-12674
140	-12675
▁女性	-12676
楽しみ	-12677
研究が	-12678
電極と	-12679
ギリシャ	-12680
プジョー	-12681
学校では	-12682
学校運営	-12683
消費者を	-12684
隠された	-12685
バランスを	-12686
ご案内します	-12687
パートナーシップ	-12688
することができます	-12689
ピックアップトラック	-12690
人体	-12691
分泌	-12692
引張	-12693
操業	-12694
月と	-12695
武装	-12696
製鉄	-12697
解体	-12698
路は	-12699
▁国道	-12700
コレク	-12701
ドロー	-12702
厚さを	-12703
時期は	-12704
自分に	-12705
規模を	-12706
韓国が	-12707
2003	-12708
▁最近は	-12709
めながら	-12710
もともと	-12711
室内空間	-12712
紹介する	-12713
資本市場	-12714
遠隔制御	-12715
と比較して	-12716
に関することである	-12717
()	-12718
94	-12719
PU	-12720
▁ナ	-12721
を犯	-12722
サウ	-12723
再任	-12724
希少	-12725
角度	-12726
の参加	-12727
ふさわ	-12728
を中止	-12729
ウエハ	-12730
センサ	-12731
増幅器	-12732
方法と	-12733
絶縁膜	-12734
訴訟で	-12735
赤外線	-12736
関係は	-12737
▁現在は	-12738
に入れる	-12739
に変わる	-12740
を取って	-12741
カリキュ	-12742
勧告した	-12743
子会社の	-12744
イギリスの	-12745
低くなった	-12746
効果を持つ	-12747
最高経営者	-12748
現代重工業	-12749
賃金ピーク	-12750
という指摘だ	-12751
とも呼ばれる	-12752
EQ	-12753
In	-12754
LP	-12755
▁多	-12756
ノル	-12757
レオ	-12758
爆笑	-12759
神話	-12760
親戚	-12761
のチョ	-12762
借りた	-12763
借りて	-12764
場面が	-12765
情報化	-12766
撮った	-12767
支払い	-12768
立てた	-12769
とは別に	-12770
を変えた	-12771
エックス	-12772
生産性を	-12773
発源した	-12774
視聴者に	-12775
▁シボレー	-12776
必要に応じて	-12777
装置に関する	-12778
ユーティリティ	-12779
問題点があった	-12780
として挙げられる	-12781
および特別関係者の持分率が	-12782
1」	-12783
を握	-12784
在寅	-12785
月間	-12786
究明	-12787
管制	-12788
ook	-12789
の基準	-12790
の管理	-12791
を探し	-12792
事件は	-12793
法上の	-12794
社会が	-12795
途中で	-12796
を完全に	-12797
サイズの	-12798
基板処理	-12799
専門家が	-12800
芸能番組	-12801
に含まれた	-12802
に直面した	-12803
を確保した	-12804
を表わした	-12805
ストリート	-12806
供給される	-12807
を見せてくれる	-12808
されることを防止	-12809
▁地	-12810
▁春	-12811
セリ	-12812
出動	-12813
硫黄	-12814
が減り	-12815
ご参加	-12816
を新設	-12817
ミンは	-12818
ーバー	-12819
人材が	-12820
銀行に	-12821
開発者	-12822
青瓦台	-12823
がなくて	-12824
ゲームが	-12825
ブレット	-12826
沖積平野	-12827
したもので	-12828
できるため	-12829
を連結する	-12830
地域社会の	-12831
欠かせない	-12832
に分けられる	-12833
.9	-12834
EA	-12835
ak	-12836
の話	-12837
介護	-12838
大々	-12839
我慢	-12840
最長	-12841
渋滞	-12842
点火	-12843
矯正	-12844
美容	-12845
The	-12846
入り口	-12847
危機の	-12848
大丈夫	-12849
寿命を	-12850
正当な	-12851
者には	-12852
1980	-12853
が始まり	-12854
こうした	-12855
ウォッチ	-12856
ディール	-12857
副社長は	-12858
楽しさを	-12859
社会的距離	-12860
メッセンジャー	-12861
っそ	-12862
兵士	-12863
圏域	-12864
復号	-12865
念頭	-12866
英雄	-12867
選出	-12868
陽極	-12869
igh	-12870
、21	-12871
一度に	-12872
大量に	-12873
寿命が	-12874
悪材料	-12875
感じが	-12876
支援の	-12877
ガールズ	-12878
ポケット	-12879
インターン	-12880
インバータ	-12881
中小企業が	-12882
太陽光発電	-12883
を含んでいる	-12884
関係者である	-12885
▁業界関係者は	-12886
TO	-12887
▁メ	-12888
ぶつ	-12889
分間	-12890
急性	-12891
懸命	-12892
溶け	-12893
配電	-12894
▁水素	-12895
を取る	-12896
を調節	-12897
コムの	-12898
ビティ	-12899
一般の	-12900
取引が	-12901
著しく	-12902
規則を	-12903
が大きな	-12904
なかなか	-12905
にかけて	-12906
フリップ	-12907
低かった	-12908
失敗した	-12909
従事者の	-12910
を制御する	-12911
を訪問した	-12912
キーパッド	-12913
保険会社の	-12914
決定された	-12915
かも知れない	-12916
があるという	-12917
を利用すれば	-12918
推進している	-12919
韓国労働組合総連盟	-12920
嶺南	-12921
月給	-12922
痕跡	-12923
結成	-12924
繁殖	-12925
に発展	-12926
を踏み	-12927
カート	-12928
マイル	-12929
不利益	-12930
九老区	-12931
契約の	-12932
比重が	-12933
責任者	-12934
透明な	-12935
韓国に	-12936
ちょっと	-12937
にかかる	-12938
インドの	-12939
ドクター	-12940
ドンジュ	-12941
活用する	-12942
くださった	-12943
で作られた	-12944
ウォーター	-12945
ネットマー	-12946
正規職転換	-12947
解雇された	-12948
産業安全保健	-12949
資料によると	-12950
かもしれないが	-12951
したものである	-12952
ND	-12953
乗車	-12954
件で	-12955
完工	-12956
意外	-12957
枚の	-12958
産学	-12959
療法	-12960
策を	-12961
薬を	-12962
▁主に	-12963
▁交通	-12964
が急騰	-12965
の上昇	-12966
をつか	-12967
を付与	-12968
ハロー	-12969
ヒャン	-12970
少数の	-12971
心理が	-12972
成し遂	-12973
知能型	-12974
についた	-12975
に変える	-12976
イヤホン	-12977
フランク	-12978
伝達する	-12979
最高出力	-12980
韓国経済	-12981
キャンセル	-12982
▁本研究では	-12983
プログラムで	-12984
オンライン広告	-12985
KO	-12986
っぽ	-12987
延世	-12988
手伝	-12989
植え	-12990
模倣	-12991
特化	-12992
系統	-12993
金と	-12994
GDP	-12995
▁ウン	-12996
不安定	-12997
医師の	-12998
大学は	-12999
▁これが	-13000
▁データ	-13001
▁国内で	-13002
めてきた	-13003
アドレス	-13004
ゼネラル	-13005
ディスカ	-13006
信用評価	-13007
大部分の	-13008
自動車と	-13009
限られた	-13010
▁メディア	-13011
マッチング	-13012
斗山重工業	-13013
自営業者の	-13014
ことがわかる	-13015
ソウル特別市	-13016
▁雇用労働部は	-13017
パパ	-13018
偏見	-13019
別名	-13020
半径	-13021
安養	-13022
染み	-13023
路地	-13024
があふ	-13025
を越え	-13026
シウム	-13027
公開し	-13028
株価は	-13029
環境と	-13030
繊細な	-13031
花崗岩	-13032
電動化	-13033
高校の	-13034
事前予約	-13035
空気清浄	-13036
経済活動	-13037
資本主義	-13038
もなかった	-13039
個人情報の	-13040
南北方向に	-13041
追加された	-13042
▁開示された	-13043
梨泰院クラブ	-13044
▁ジ	-13045
いと	-13046
やる	-13047
グァ	-13048
マツ	-13049
勢力	-13050
法制	-13051
養育	-13052
▁アイ	-13053
▁無線	-13054
がれる	-13055
だけは	-13056
を比較	-13057
を無視	-13058
ホップ	-13059
要する	-13060
観覧客	-13061
風が吹	-13062
に応じた	-13063
まらない	-13064
も大きく	-13065
んできた	-13066
形成され	-13067
▁国内では	-13068
が起こった	-13069
にかかった	-13070
SJ	-13071
▁デ	-13072
がる	-13073
不利	-13074
国境	-13075
天井	-13076
性や	-13077
発散	-13078
組の	-13079
転移	-13080
降水	-13081
順序	-13082
ate	-13083
が予定	-13084
が重要	-13085
ボンド	-13086
伸びた	-13087
協会が	-13088
専門医	-13089
記念物	-13090
適当な	-13091
▁クムホ	-13092
▁本案は	-13093
すべてが	-13094
とは違う	-13095
を加えた	-13096
を改善し	-13097
ファーム	-13098
初めてだ	-13099
失業手当	-13100
安全対策	-13101
▁エンジン	-13102
きっかけに	-13103
で構成され	-13104
所属事務所	-13105
金融市場の	-13106
ということに	-13107
を取っている	-13108
ノートパソコン	-13109
フォトレジスト	-13110
▁週	-13111
お母	-13112
ごと	-13113
べく	-13114
モリ	-13115
不況	-13116
市道	-13117
愛と	-13118
未知	-13119
犯行	-13120
計測	-13121
静電	-13122
黒鉛	-13123
▁ジェ	-13124
に対処	-13125
の基本	-13126
の準備	-13127
今年も	-13128
回以上	-13129
田んぼ	-13130
紫外線	-13131
負担が	-13132
とにかく	-13133
どうして	-13134
など主要	-13135
日の午前	-13136
登校授業	-13137
者たちの	-13138
が主管する	-13139
何を	-13140
弁当	-13141
発の	-13142
紛失	-13143
食い	-13144
の向上	-13145
エクス	-13146
ヘッジ	-13147
ヶ月の	-13148
人など	-13149
博覧会	-13150
商取引	-13151
基金の	-13152
当初の	-13153
教える	-13154
空間が	-13155
▁本校は	-13156
が容易な	-13157
を構成し	-13158
ギョンが	-13159
労働市場	-13160
化石燃料	-13161
委員会に	-13162
プラグイン	-13163
建設された	-13164
構造を持つ	-13165
研究委員は	-13166
億ウォンから	-13167
分布している	-13168
if	-13169
▁チ	-13170
▁ベ	-13171
はい	-13172
コウ	-13173
厳格	-13174
夜に	-13175
家具	-13176
峠の	-13177
平板	-13178
当日	-13179
所定	-13180
曲線	-13181
税を	-13182
稜線	-13183
スクリ	-13184
マシン	-13185
分離膜	-13186
方々が	-13187
▁第一に	-13188
が多くて	-13189
したまま	-13190
を使用し	-13191
スウェー	-13192
教育庁の	-13193
注文した	-13194
市場シェア	-13195
施行された	-13196
保護者の方々	-13197
労働委員会の	-13198
示されている	-13199
キャンペーンを	-13200
ビハ	-13201
以内	-13202
名を	-13203
型で	-13204
声を	-13205
替え	-13206
欠席	-13207
食糧	-13208
ついて	-13209
と規定	-13210
ビンの	-13211
幼い頃	-13212
2022	-13213
▁まさに	-13214
は今回の	-13215
アルバムの	-13216
ディテール	-13217
水準である	-13218
姿が描かれた	-13219
NG	-13220
いざ	-13221
ヌリ	-13222
作詞	-13223
保持	-13224
山を	-13225
景品	-13226
石灰	-13227
薬局	-13228
財閥	-13229
麻痺	-13230
▁St	-13231
が流れ	-13232
を造成	-13233
キムチ	-13234
ヒップ	-13235
労組員	-13236
学んだ	-13237
措置を	-13238
疾患の	-13239
電流の	-13240
面では	-13241
を立てた	-13242
ブラジル	-13243
ライアン	-13244
地域内の	-13245
念頭に置	-13246
提起した	-13247
総合的に	-13248
▁人工知能	-13249
れるように	-13250
アイディア	-13251
信頼できる	-13252
バラエティー	-13253
上がっている	-13254
▁新型コロナウイルスの	-13255
修学	-13256
善戦	-13257
回目	-13258
感嘆	-13259
払う	-13260
新築	-13261
賞与	-13262
頭痛	-13263
さんと	-13264
のソン	-13265
ックは	-13266
企業も	-13267
使われ	-13268
南北に	-13269
収益を	-13270
団体は	-13271
東側に	-13272
行為が	-13273
車種は	-13274
しくない	-13275
を取り消	-13276
技術力を	-13277
本校では	-13278
を受けると	-13279
を引き出す	-13280
サービスに	-13281
ヶ月ぶりに	-13282
粒子状物質	-13283
という評価だ	-13284
互いに異なる	-13285
最適化された	-13286
それぞれ異なる	-13287
iv	-13288
▁龍	-13289
倍に	-13290
後方	-13291
性で	-13292
里で	-13293
▁小型	-13294
きます	-13295
らせた	-13296
を確定	-13297
を経た	-13298
アレイ	-13299
ミンの	-13300
付近の	-13301
発表し	-13302
説明し	-13303
▁複数の	-13304
が登場し	-13305
でもなく	-13306
られます	-13307
を問わず	-13308
を続ける	-13309
を考慮し	-13310
フラット	-13311
迅速かつ	-13312
音声認識	-13313
を確認した	-13314
入れている	-13315
特別関係者である	-13316
IG	-13317
▁ペ	-13318
▁農	-13319
しも	-13320
たた	-13321
勧め	-13322
四角	-13323
百済	-13324
税額	-13325
虐待	-13326
頭の	-13327
の状態	-13328
わせる	-13329
を送る	-13330
サイン	-13331
ヨング	-13332
夫婦が	-13333
日後に	-13334
有名だ	-13335
東には	-13336
歴史的	-13337
立場だ	-13338
負担を	-13339
静電気	-13340
韓国と	-13341
▁最近の	-13342
ができて	-13343
をしたり	-13344
分布する	-13345
期間内に	-13346
根本的に	-13347
武漢肺炎	-13348
高等学校	-13349
があるため	-13350
する方式で	-13351
プロセスを	-13352
時間が経つ	-13353
を繰り広げた	-13354
▁上記のような	-13355
することになりました	-13356
▁熱	-13357
モハ	-13358
外科	-13359
平衡	-13360
訪ね	-13361
誠実	-13362
負極	-13363
逸脱	-13364
音の	-13365
飽和	-13366
が違う	-13367
の申請	-13368
を投入	-13369
カナダ	-13370
ビンが	-13371
ミステ	-13372
先取り	-13373
新都市	-13374
標準化	-13375
痛みを	-13376
終えた	-13377
高まり	-13378
▁テレビ	-13379
▁全国民	-13380
が増加し	-13381
を開けて	-13382
発見され	-13383
不完全販売	-13384
製造された	-13385
システムである	-13386
リチウム二次電池	-13387
RO	-13388
ラジ	-13389
下ろ	-13390
東洋	-13391
鑑定	-13392
順で	-13393
650	-13394
DLS	-13395
▁先に	-13396
と比べ	-13397
ワイン	-13398
公団は	-13399
地方の	-13400
変化の	-13401
後押し	-13402
自体を	-13403
開かれ	-13404
高効率	-13405
お子様の	-13406
との接触	-13407
中だった	-13408
周波数の	-13409
我が国の	-13410
競争力が	-13411
6,000	-13412
8,000	-13413
と主張する	-13414
に乗り出し	-13415
見られない	-13416
を作ることができる	-13417
.8	-13418
共産	-13419
巻線	-13420
搾取	-13421
目撃	-13422
連日	-13423
この間	-13424
すごく	-13425
と推定	-13426
の公式	-13427
ヒンド	-13428
事実は	-13429
位置し	-13430
先送り	-13431
彼女が	-13432
心理的	-13433
方向を	-13434
計画が	-13435
▁KBS	-13436
ジュンが	-13437
勤労監督	-13438
警告した	-13439
に出演した	-13440
持分比率が	-13441
に直面している	-13442
を提供している	-13443
▁バ	-13444
もと	-13445
ギが	-13446
タブ	-13447
化門	-13448
南原	-13449
専属	-13450
延ば	-13451
慰め	-13452
楽に	-13453
然に	-13454
物や	-13455
磁性	-13456
肝臓	-13457
西に	-13458
除く	-13459
CPU	-13460
▁学生	-13461
そうと	-13462
ヒンジ	-13463
事件が	-13464
密接な	-13465
彼らを	-13466
悲しい	-13467
機能も	-13468
死んで	-13469
満期が	-13470
nter	-13471
のと同じ	-13472
の不動産	-13473
アプリで	-13474
シグナル	-13475
ポーター	-13476
中であり	-13477
乗用車の	-13478
例として	-13479
共にした	-13480
自発的に	-13481
致命的な	-13482
華やかな	-13483
起こった	-13484
ございます	-13485
人に対する	-13486
共に民主党	-13487
現れている	-13488
CH	-13489
かと	-13490
ケン	-13491
テラ	-13492
リゾ	-13493
北の	-13494
実力	-13495
密封	-13496
工作	-13497
推論	-13498
揺れ	-13499
有価	-13500
梗塞	-13501
標本	-13502
観念	-13503
高陽	-13504
ICE	-13505
▁逆に	-13506
ガスが	-13507
スカイ	-13508
ネーム	-13509
フライ	-13510
企業や	-13511
優雅な	-13512
取って	-13513
平凡な	-13514
月中に	-13515
特徴は	-13516
現場を	-13517
電池が	-13518
静かに	-13519
▁コロナ	-13520
する過程	-13521
ところが	-13522
ることに	-13523
カソード	-13524
現実的に	-13525
西側には	-13526
言えない	-13527
されてから	-13528
合っている	-13529
姿を見せた	-13530
としながらも	-13531
と考えられる	-13532
モデルとして	-13533
発展のために	-13534
が可能になった	-13535
しの	-13536
を患	-13537
を築	-13538
を追	-13539
んに	-13540
コレ	-13541
借入	-13542
共済	-13543
服務	-13544
漢陽	-13545
熱く	-13546
相殺	-13547
近接	-13548
驚き	-13549
▁次の	-13550
を停止	-13551
を変え	-13552
シンク	-13553
丘陵地	-13554
反応が	-13555
涼しい	-13556
通常の	-13557
してみた	-13558
の可能性	-13559
れてきた	-13560
カーナビ	-13561
クライス	-13562
教育庁は	-13563
海外旅行	-13564
で最も多く	-13565
はいけない	-13566
を宣言した	-13567
ジェヒョン	-13568
セグメント	-13569
俳優たちが	-13570
分析された	-13571
を与えている	-13572
ヨーロッパの	-13573
世界で初めて	-13574
話題を集めた	-13575
を高めることができる	-13576
を受けなければならない	-13577
FI	-13578
カ所	-13579
寺院	-13580
島は	-13581
年頃	-13582
後は	-13583
新年	-13584
発射	-13585
第三	-13586
耕作	-13587
顔が	-13588
LAN	-13589
▁関連	-13590
の上で	-13591
の成功	-13592
ろうと	-13593
ビール	-13594
リアム	-13595
両親の	-13596
作品が	-13597
信頼性	-13598
答える	-13599
ゲームを	-13600
ファンタ	-13601
年以上の	-13602
年連続で	-13603
組合員の	-13604
良くない	-13605
べきである	-13606
をそれぞれ	-13607
テレコムが	-13608
マセラティ	-13609
万ウォンが	-13610
が発生しない	-13611
されたという	-13612
エレベーター	-13613
停車	-13614
劣化	-13615
厚い	-13616
悲し	-13617
施術	-13618
民俗	-13619
約款	-13620
群の	-13621
蒸し	-13622
通勤	-13623
▁前日	-13624
▁金属	-13625
の形状	-13626
クルの	-13627
原子核	-13628
回では	-13629
適用し	-13630
▁自分が	-13631
への参加	-13632
ようやく	-13633
カードが	-13634
っていたが	-13635
サービスも	-13636
住んでいた	-13637
はこのような	-13638
を成している	-13639
不足している	-13640
視聴者たちの	-13641
に影響を及ぼす	-13642
むと	-13643
わい	-13644
予め	-13645
同盟	-13646
営利	-13647
峰の	-13648
検知	-13649
相反	-13650
親和	-13651
達の	-13652
▁ハナ	-13653
▁社会	-13654
に加え	-13655
一方で	-13656
就業者	-13657
政策は	-13658
部分だ	-13659
あったが	-13660
に乗り出	-13661
より低い	-13662
カップル	-13663
変わって	-13664
山があり	-13665
などによる	-13666
フェラーリ	-13667
ランニング	-13668
搭載される	-13669
ってください	-13670
トレーニング	-13671
を吸	-13672
充填	-13673
合算	-13674
国税	-13675
字幕	-13676
店で	-13677
悪魔	-13678
波及	-13679
菩薩	-13680
補填	-13681
重力	-13682
風水	-13683
160	-13684
450	-13685
WHO	-13686
▁GS	-13687
▁蔚山	-13688
▁道路	-13689
に伴い	-13690
ベール	-13691
世帯の	-13692
保険は	-13693
原材料	-13694
持分を	-13695
敏感な	-13696
教室の	-13697
目標は	-13698
続けた	-13699
調査は	-13700
とチョン	-13701
アイコン	-13702
リモート	-13703
過ごした	-13704
▁こういう	-13705
を提供した	-13706
ウイルスが	-13707
投入される	-13708
られるように	-13709
有機電界発光	-13710
サービスである	-13711
4」	-13712
啓発	-13713
狭く	-13714
禁煙	-13715
紙の	-13716
を発行	-13717
ソンス	-13718
人口が	-13719
以後の	-13720
分ける	-13721
実情だ	-13722
形式で	-13723
放送を	-13724
文化が	-13725
最高値	-13726
項目を	-13727
▁かつて	-13728
に満ちた	-13729
時間制の	-13730
現場では	-13731
電動機の	-13732
が高かった	-13733
するなどの	-13734
のが難しい	-13735
イベントは	-13736
クラシック	-13737
問題がある	-13738
業者である	-13739
素晴らしい	-13740
話を聞いて	-13741
から発生する	-13742
こともできる	-13743
してほしいと	-13744
メンテナンス	-13745
サービスセンター	-13746
したことが分かった	-13747
-1	-13748
のア	-13749
中核	-13750
令状	-13751
厚生	-13752
心と	-13753
忠北	-13754
機が	-13755
真理	-13756
社に	-13757
農家	-13758
返す	-13759
黄金	-13760
▁of	-13761
▁より	-13762
に入力	-13763
ぶつか	-13764
を固定	-13765
多文化	-13766
暗号化	-13767
目標を	-13768
直後に	-13769
細胞が	-13770
読んだ	-13771
販売の	-13772
IPTV	-13773
とは違い	-13774
に拍車を	-13775
ハングル	-13776
退職年金	-13777
、2007	-13778
「2018	-13779
が高まった	-13780
を知らせる	-13781
ソウル大学	-13782
連結される	-13783
ミニアルバム	-13784
するのではなく	-13785
▁サムスン電子は	-13786
出入	-13787
出庫	-13788
効能	-13789
子宮	-13790
焼き	-13791
王が	-13792
翌日	-13793
首脳	-13794
▁先日	-13795
▁経営	-13796
で使用	-13797
のだが	-13798
ニウム	-13799
ニーの	-13800
人類の	-13801
一時的な	-13802
初めから	-13803
独立した	-13804
間違った	-13805
しかねない	-13806
したためだ	-13807
ったという	-13808
という概念	-13809
ワーキング	-13810
支援センター	-13811
メーカーである	-13812
装置およびその	-13813
▁ダ	-13814
妊婦	-13815
局面	-13816
推移	-13817
支え	-13818
習得	-13819
裏に	-13820
谷の	-13821
▁アル	-13822
に従い	-13823
に進入	-13824
ノール	-13825
保証金	-13826
向かう	-13827
微生物	-13828
汝矣島	-13829
ほしいと	-13830
を一つの	-13831
ウォンに	-13832
ジャック	-13833
裁判所に	-13834
視聴者が	-13835
のではない	-13836
デバイスの	-13837
に及ぼす影響	-13838
日に明らかにした	-13839
Fi	-13840
を期	-13841
キス	-13842
ドキ	-13843
ハル	-13844
平地	-13845
掲げ	-13846
数も	-13847
無効	-13848
矛盾	-13849
込め	-13850
のほか	-13851
の末に	-13852
ましい	-13853
やいな	-13854
れたり	-13855
スリム	-13856
両親が	-13857
以上で	-13858
作家が	-13859
結果だ	-13860
要素が	-13861
計画は	-13862
2002	-13863
▁昨年の	-13864
が広がる	-13865
ッキング	-13866
分野では	-13867
回答者の	-13868
地域経済	-13869
大学校の	-13870
輸入車の	-13871
▁それぞれ	-13872
を搭載した	-13873
性に優れた	-13874
期待できる	-13875
多くの関心と	-13876
▁親	-13877
に帰	-13878
一杯	-13879
人や	-13880
参観	-13881
幸運	-13882
暴言	-13883
梁山	-13884
業況	-13885
極右	-13886
水で	-13887
総長	-13888
重点	-13889
ain	-13890
hin	-13891
うつ病	-13892
クリー	-13893
タウン	-13894
チボリ	-13895
バイク	-13896
仮処分	-13897
使って	-13898
憩いの	-13899
成長を	-13900
措置だ	-13901
記録を	-13902
ネージュ	-13903
会社側が	-13904
聞こえる	-13905
されるよう	-13906
タブレット	-13907
ユープラス	-13908
保険会社が	-13909
電子メール	-13910
が起きている	-13911
ハイニックス	-13912
ヒの	-13913
出張	-13914
団員	-13915
当期	-13916
悩む	-13917
突出	-13918
顕微	-13919
とみな	-13920
の決定	-13921
加える	-13922
品質を	-13923
大学で	-13924
差別化	-13925
料金を	-13926
生じた	-13927
自宅で	-13928
覚えて	-13929
長距離	-13930
に初めて	-13931
を確保し	-13932
チョンセ	-13933
取り引き	-13934
▁最近では	-13935
かなかった	-13936
意味のある	-13937
関心を持って	-13938
上下	-13939
母の	-13940
配信	-13941
電球	-13942
▁自然	-13943
ります	-13944
労組と	-13945
単純化	-13946
台数は	-13947
新製品	-13948
時的に	-13949
暴力の	-13950
満足感	-13951
現した	-13952
研究員	-13953
行為は	-13954
顕微鏡	-13955
▁検察は	-13956
トリウム	-13957
マスクを	-13958
時代から	-13959
を開催した	-13960
ビハインド	-13961
と伝えられた	-13962
▁学	-13963
の幅	-13964
ルノ	-13965
地質	-13966
天才	-13967
文句	-13968
料が	-13969
晋州	-13970
段の	-13971
深層	-13972
緑の	-13973
身元	-13974
API	-13975
が便利	-13976
入った	-13977
利益を	-13978
可能で	-13979
地から	-13980
映像は	-13981
次々と	-13982
言葉は	-13983
警察が	-13984
▁MBC	-13985
▁同日の	-13986
うために	-13987
の特性を	-13988
スペイン	-13989
副社長が	-13990
被害者が	-13991
裁判部は	-13992
が必要です	-13993
が繰り広げ	-13994
を見ている	-13995
協力会社の	-13996
通りである	-13997
に影響を与える	-13998
が繰り広げられる	-13999
することができない	-14000
KI	-14001
▁劇	-14002
加算	-14003
南海	-14004
売る	-14005
後退	-14006
水営	-14007
畜産	-14008
~30	-14009
▁コン	-14010
と助言	-14011
を浴び	-14012
ウォー	-14013
エルの	-14014
心から	-14015
改めて	-14016
開発と	-14017
▁どんな	-14018
▁イギリ	-14019
やいなや	-14020
ようにし	-14021
を起こし	-14022
売り越し	-14023
電気的に	-14024
摘発された	-14025
るようになる	-14026
することは難しい	-14027
減らすことができる	-14028
お前	-14029
に値	-14030
ピュ	-14031
ラド	-14032
合法	-14033
壁に	-14034
娘が	-14035
教材	-14036
散在	-14037
肝炎	-14038
証言	-14039
量的	-14040
順天	-14041
lay	-14042
▁全体	-14043
が持続	-14044
の内部	-14045
事例だ	-14046
作品だ	-14047
動力を	-14048
放送局	-14049
活力を	-14050
社会に	-14051
込めて	-14052
できるか	-14053
引き受け	-14054
永久磁石	-14055
物価上昇	-14056
賛否投票	-14057
と共にする	-14058
になるよう	-14059
を締結した	-14060
久しぶりに	-14061
設定された	-14062
だという指摘	-14063
外国人労働者	-14064
疾病管理本部	-14065
ギャラクシーノート	-14066
▁ヨ	-14067
むや	-14068
台詞	-14069
君が	-14070
水道	-14071
衰退	-14072
順調	-14073
高位	-14074
ech	-14075
▁国立	-14076
いたり	-14077
と呼び	-14078
と教育	-14079
の価値	-14080
人間と	-14081
同様の	-14082
増えて	-14083
広がり	-14084
態度を	-14085
教科書	-14086
月中旬	-14087
朝鮮の	-14088
条件に	-14089
番組の	-14090
芸術家	-14091
言葉が	-14092
作動する	-14093
億ドルの	-14094
収益性が	-14095
小規模の	-14096
状況では	-14097
メディアが	-14098
信用格付け	-14099
販売される	-14100
努力している	-14101
所属事務所の	-14102
明らかにする	-14103
役割を果たした	-14104
▁ボ	-14105
アム	-14106
ヒル	-14107
乱用	-14108
姿に	-14109
小の	-14110
郵政	-14111
220	-14112
が予想	-14113
ここの	-14114
は同じ	-14115
を捕ま	-14116
経験と	-14117
訴える	-14118
タイヤが	-14119
ツーソン	-14120
フォース	-14121
プローブ	-14122
共有する	-14123
報告書は	-14124
浮き彫り	-14125
から始まる	-14126
デザイナー	-14127
生産される	-14128
電子ビーム	-14129
▁その他にも	-14130
ip	-14131
の末	-14132
受像	-14133
受託	-14134
執筆	-14135
果樹	-14136
殺菌	-14137
泣き	-14138
課徴	-14139
▁17	-14140
▁通信	-14141
ならず	-14142
の過程	-14143
を描く	-14144
サラン	-14145
体系の	-14146
式には	-14147
構造物	-14148
警察の	-14149
金額の	-14150
べきだと	-14151
をしない	-14152
を除けば	-14153
バンクの	-14154
全国的に	-14155
積み立て	-14156
▁しばらく	-14157
していただ	-14158
サーキット	-14159
高速道路の	-14160
が公開される	-14161
が必要だった	-14162
ことではない	-14163
マイクロソフト	-14164
ia	-14165
あい	-14166
公害	-14167
抗議	-14168
智異	-14169
用水	-14170
足の	-14171
、28	-14172
オーケ	-14173
ゲージ	-14174
公募展	-14175
地域と	-14176
変化は	-14177
多様に	-14178
性暴行	-14179
映画で	-14180
有益な	-14181
2030	-14182
から出た	-14183
それなり	-14184
であるか	-14185
にわたり	-14186
ゲームは	-14187
モデルだ	-14188
ランダム	-14189
出演した	-14190
前年より	-14191
感染者と	-14192
改善され	-14193
を突破した	-14194
成長している	-14195
が不足している	-14196
するというのが	-14197
ジャーナリスト	-14198
を行うことができる	-14199
〜3	-14200
カロ	-14201
ブロ	-14202
吐露	-14203
昆虫	-14204
法規	-14205
第二	-14206
迂回	-14207
逃げ	-14208
あげた	-14209
が行わ	-14210
ことの	-14211
ご参考	-14212
ビート	-14213
主張だ	-14214
先生の	-14215
増やし	-14216
山地の	-14217
強度が	-14218
演技で	-14219
科学者	-14220
証明書	-14221
さらには	-14222
の手続き	-14223
を取った	-14224
アワード	-14225
一部では	-14226
公共部門	-14227
環境改善	-14228
緊張感を	-14229
があるのか	-14230
を提案した	-14231
を自動的に	-14232
二次電池の	-14233
場合もある	-14234
最大規模の	-14235
が相次いでいる	-14236
争点	-14237
子と	-14238
差が	-14239
師が	-14240
待遇	-14241
文が	-14242
細分	-14243
電機	-14244
EBS	-14245
ELS	-14246
▁チャ	-14247
▁地球	-14248
を感知	-14249
サンプ	-14250
シネマ	-14251
仕上げ	-14252
委員の	-14253
社長の	-14254
▁SUV	-14255
ときめき	-14256
トレイル	-14257
上昇する	-14258
分割払い	-14259
提示する	-14260
東側には	-14261
活用した	-14262
装置である	-14263
に入っている	-14264
エンターテイ	-14265
を維持している	-14266
サービスを利用	-14267
を提供することを課題とする	-14268
BI	-14269
SC	-14270
イナ	-14271
主流	-14272
安着	-14273
悪用	-14274
温暖	-14275
炭酸	-14276
留意	-14277
砂漠	-14278
胸が	-14279
が一層	-14280
を巡り	-14281
ソール	-14282
ルート	-14283
別には	-14284
場所を	-14285
尋ねる	-14286
景気の	-14287
最善の	-14288
極大化	-14289
澄んだ	-14290
繋がる	-14291
そのうち	-14292
にさらに	-14293
をかける	-14294
んでおり	-14295
人がいる	-14296
平野地帯	-14297
拡散防止	-14298
支配構造	-14299
▁慶尚南道	-14300
▁最低賃金	-14301
を合わせて	-14302
ゴールデン	-14303
強化される	-14304
捉えられた	-14305
に対する認識	-14306
サポートする	-14307
に関心が集まっている	-14308
Li	-14309
めに	-14310
ソリ	-14311
人種	-14312
停電	-14313
内科	-14314
土曜	-14315
富平	-14316
審判	-14317
民政	-14318
議題	-14319
面談	-14320
、22	-14321
に挙げ	-14322
に比例	-14323
の発行	-14324
住宅を	-14325
側面に	-14326
光化門	-14327
判断し	-14328
旧正月	-14329
減らし	-14330
職員に	-14331
自らの	-14332
途中に	-14333
から出発	-14334
とは全く	-14335
バッファ	-14336
国立公園	-14337
技術的な	-14338
があるので	-14339
を達成した	-14340
ワシントン	-14341
大韓民国の	-14342
だと説明した	-14343
テーマパーク	-14344
本発明による	-14345
万ウォン以下の	-14346
.7	-14347
lu	-14348
ヒト	-14349
個性	-14350
充足	-14351
利点	-14352
描く	-14353
撤去	-14354
樹木	-14355
治癒	-14356
片麻	-14357
登記	-14358
質量	-14359
PEF	-14360
VIP	-14361
▁常に	-14362
がまだ	-14363
の舞台	-14364
カーニ	-14365
ゾンビ	-14366
回路は	-14367
速度の	-14368
違った	-14369
MERS	-14370
の一つは	-14371
を事前に	-14372
ジェクト	-14373
地域には	-14374
補正予算	-14375
だけだった	-14376
に関しては	-14377
まっていた	-14378
世界最大の	-14379
証券会社の	-14380
問題があった	-14381
子会社である	-14382
などが参加した	-14383
ファンディング	-14384
そそ	-14385
互換	-14386
先の	-14387
友情	-14388
奇跡	-14389
寄贈	-14390
新婚	-14391
溶融	-14392
病原	-14393
耐え	-14394
脊椎	-14395
被覆	-14396
、23	-14397
、27	-14398
に制限	-14399
るとき	-14400
を募集	-14401
オルム	-14402
余りが	-14403
内での	-14404
定める	-14405
戦略だ	-14406
日の夜	-14407
最悪の	-14408
物量を	-14409
関係で	-14410
電池を	-14411
が一つの	-14412
を維持し	-14413
ジェンド	-14414
ジニョン	-14415
チャック	-14416
学校教育	-14417
学校暴力	-14418
せるように	-14419
データ伝送	-14420
ブランドが	-14421
大きくなり	-14422
ができるよう	-14423
それによって	-14424
という事実が	-14425
を出している	-14426
AA	-14427
を奪	-14428
ラマ	-14429
原発	-14430
友好	-14431
妻は	-14432
暑い	-14433
樹齢	-14434
特約	-14435
砂利	-14436
社外	-14437
職種	-14438
輝度	-14439
に備え	-14440
オーク	-14441
事項は	-14442
免税店	-14443
惜しま	-14444
意味だ	-14445
時にも	-14446
現実を	-14447
ってから	-14448
参加者の	-14449
思われる	-14450
理事長は	-14451
イオン注入	-14452
ヵ月ぶりに	-14453
進行される	-14454
オーケストラ	-14455
▁疾病管理本部	-14456
が深	-14457
に慣	-14458
は計	-14459
を脅	-14460
ゴリ	-14461
式は	-14462
投げ	-14463
浸水	-14464
漏洩	-14465
無断	-14466
裁量	-14467
に起因	-14468
の内容	-14469
の存在	-14470
ほうが	-14471
まして	-14472
ソヨン	-14473
フィア	-14474
学校が	-14475
対象者	-14476
広告が	-14477
成分が	-14478
投資は	-14479
止める	-14480
消えて	-14481
義務を	-14482
電力の	-14483
したもの	-14484
を理由に	-14485
セルトス	-14486
全くない	-14487
前年対比	-14488
背景には	-14489
設計した	-14490
販売され	-14491
があっても	-14492
そうでない	-14493
モーターズ	-14494
大統領選挙	-14495
維持される	-14496
Galaxy	-14497
センター長は	-14498
防疫対策本部は	-14499
が大きくなっている	-14500
▁神	-14501
側で	-14502
寒い	-14503
建立	-14504
散ら	-14505
村を	-14506
波の	-14507
遅れ	-14508
でよく	-14509
にあり	-14510
新技術	-14511
遅れて	-14512
に続いて	-14513
人が多い	-14514
強化した	-14515
を維持した	-14516
自動車業界	-14517
を行き来する	-14518
専門家たちは	-14519
新型コロナウィルス感染症	-14520
しき	-14521
ちな	-14522
制は	-14523
明日	-14524
未成	-14525
社屋	-14526
絶滅	-14527
聴覚	-14528
船の	-14529
買う	-14530
賢い	-14531
適格	-14532
酷な	-14533
風の	-14534
を行使	-14535
ボーイ	-14536
全てが	-14537
写真が	-14538
属する	-14539
幹細胞	-14540
理論は	-14541
産業を	-14542
知識を	-14543
いろいろ	-14544
くなって	-14545
全面的に	-14546
北朝鮮の	-14547
安全資産	-14548
強化する	-14549
思います	-14550
画期的に	-14551
発達した	-14552
これまでの	-14553
ウンギョン	-14554
重要なのは	-14555
になるという	-14556
ることはできない	-14557
を提供することができる	-14558
スロ	-14559
今や	-14560
体力	-14561
呼ぶ	-14562
和順	-14563
姉妹	-14564
故意	-14565
朝の	-14566
正面	-14567
気圧	-14568
波紋	-14569
を予測	-14570
一つは	-14571
切ない	-14572
歩いて	-14573
特殊な	-14574
OECD	-14575
▁韓国は	-14576
への関心	-14577
ほぼ同じ	-14578
を通って	-14579
クリーン	-14580
メーター	-14581
リゾート	-14582
候補者の	-14583
勤労者に	-14584
周波数を	-14585
時間勤務	-14586
測定する	-14587
競争力の	-14588
経済危機	-14589
▁本考案の	-14590
したりする	-14591
ってくれる	-14592
と診断した	-14593
コスト削減	-14594
企業に対する	-14595
発生している	-14596
が強	-14597
と無	-14598
わす	-14599
キル	-14600
出血	-14601
勤続	-14602
意義	-14603
排水	-14604
整形	-14605
洞察	-14606
清算	-14607
盆地	-14608
MOU	-14609
▁国土	-14610
に結合	-14611
を防ぎ	-14612
ジュネ	-14613
一連の	-14614
公団の	-14615
南には	-14616
超高速	-14617
間にか	-14618
コントラ	-14619
性を高め	-14620
採用した	-14621
気持ちを	-14622
近づいて	-14623
▁これらは	-14624
▁代表的な	-14625
が出席した	-14626
これを含む	-14627
カーニバル	-14628
ファースト	-14629
に形成された	-14630
暮らしている	-14631
スマートフォンで	-14632
93	-14633
OO	-14634
SP	-14635
▁生	-14636
ぜい	-14637
ぜひ	-14638
ノク	-14639
バマ	-14640
分頃	-14641
大勢	-14642
棄却	-14643
痛い	-14644
石の	-14645
絡み	-14646
賞は	-14647
ure	-14648
と解釈	-14649
に分離	-14650
を調べ	-14651
ディン	-14652
事業所	-14653
気温が	-14654
男性は	-14655
監督と	-14656
資源の	-14657
▁人々は	-14658
▁今まで	-14659
であるイ	-14660
バリュー	-14661
知りたい	-14662
が適用され	-14663
ではあるが	-14664
キリスト教	-14665
コンバータ	-14666
メートルの	-14667
ることもある	-14668
シェアリング	-14669
スポーテージ	-14670
ブラウン管の	-14671
に参加している	-14672
が残	-14673
休日	-14674
器が	-14675
団結	-14676
増殖	-14677
安郡	-14678
疲れ	-14679
脱出	-14680
華城	-14681
邑の	-14682
陳情	-14683
▁次に	-14684
に到着	-14685
に区分	-14686
まらず	-14687
を送り	-14688
パブリ	-14689
マンの	-14690
事件で	-14691
今月の	-14692
件数は	-14693
率直な	-14694
登下校	-14695
端子の	-14696
能力と	-14697
該当の	-14698
週間に	-14699
違いは	-14700
郵便局	-14701
を理解し	-14702
インチの	-14703
今年から	-14704
訪問した	-14705
買収合併	-14706
かによって	-14707
するためだ	-14708
キャンパス	-14709
公共機関の	-14710
感じられた	-14711
携帯端末機	-14712
があることを	-14713
のはもちろん	-14714
するものである	-14715
運営されている	-14716
として知られている	-14717
プレゼンテーション	-14718
RA	-14719
▁Q	-14720
▁Y	-14721
▁ヘ	-14722
▁法	-14723
ジグ	-14724
干拓	-14725
父の	-14726
福利	-14727
私設	-14728
統治	-14729
腐敗	-14730
評論	-14731
飲料	-14732
ers	-14733
に提出	-14734
に関与	-14735
の発展	-14736
を進め	-14737
を開拓	-14738
ダクト	-14739
事業だ	-14740
候補者	-14741
単なる	-14742
号線の	-14743
彼女は	-14744
感じて	-14745
適時に	-14746
いでいる	-14747
に備えた	-14748
に新しい	-14749
インフィ	-14750
先制的に	-14751
共同研究	-14752
処遇改善	-14753
勤労制の	-14754
自分自身	-14755
観光客が	-14756
誰なのか	-14757
が本格的に	-14758
これによる	-14759
を考慮した	-14760
カンパニー	-14761
テレグラム	-14762
保険に加入	-14763
であるという	-14764
人気を集めている	-14765
させることによって	-14766
リョ	-14767
人為	-14768
勇気	-14769
家事	-14770
条約	-14771
海運	-14772
減衰	-14773
異議	-14774
破棄	-14775
租税	-14776
脈絡	-14777
資材	-14778
風に	-14779
▁IB	-14780
が一部	-14781
の治療	-14782
わずに	-14783
を組み	-14784
バード	-14785
フェイ	-14786
分かり	-14787
周りに	-14788
場合も	-14789
女性を	-14790
建てた	-14791
成長率	-14792
時間も	-14793
正式に	-14794
物質は	-14795
経営難	-14796
行事は	-14797
信号処理	-14798
大きさの	-14799
失業給付	-14800
描かれる	-14801
確認して	-14802
という点は	-14803
と予想した	-14804
連結された	-14805
YouTube	-14806
ブロードバンド	-14807
FT	-14808
~」	-14809
一次	-14810
夜の	-14811
尊敬	-14812
微小	-14813
抽象	-14814
次官	-14815
気体	-14816
独歩	-14817
GPS	-14818
と考え	-14819
を守り	-14820
スキー	-14821
ネズミ	-14822
先頭に	-14823
日平均	-14824
高血圧	-14825
2025	-14826
▁一つの	-14827
クリップ	-14828
大部分が	-14829
雰囲気だ	-14830
願います	-14831
▁全羅南道	-14832
を拡大する	-14833
デザインは	-14834
と解釈される	-14835
分譲価格上限	-14836
保護者の皆様に	-14837
させることができ	-14838
方法が開示される	-14839
96	-14840
nd	-14841
▁松	-14842
がお	-14843
とど	-14844
切る	-14845
収拾	-14846
宅地	-14847
安保	-14848
年中	-14849
最多	-14850
省略	-14851
語る	-14852
醸し	-14853
防水	-14854
院内	-14855
POP	-14856
が主な	-14857
と似た	-14858
に配置	-14859
ポッド	-14860
リンゴ	-14861
成果給	-14862
所得の	-14863
頻繁な	-14864
を設ける	-14865
シャドウ	-14866
上昇傾向	-14867
労働界は	-14868
市民団体	-14869
性の向上	-14870
を活用する	-14871
ヒーリング	-14872
ブランドは	-14873
把握された	-14874
近いうちに	-14875
だったという	-14876
万ウォン以上	-14877
億ウォン以上の	-14878
によって発生する	-14879
タグ	-14880
ドミ	-14881
人力	-14882
休む	-14883
修行	-14884
助手	-14885
注力	-14886
漁村	-14887
画報	-14888
皇帝	-14889
陰圧	-14890
HDC	-14891
が結合	-14892
の製造	-14893
やかで	-14894
キック	-14895
万人に	-14896
北には	-14897
区間の	-14898
放送は	-14899
映像で	-14900
観客が	-14901
評価で	-14902
▁テスラ	-14903
など他の	-14904
に乗った	-14905
を最大限	-14906
上がれば	-14907
分析する	-14908
利用して	-14909
参加者が	-14910
民主党の	-14911
決定する	-14912
活動する	-14913
肯定的に	-14914
象徴する	-14915
ストレージ	-14916
存在しない	-14917
支援される	-14918
エネルギーは	-14919
位を記録した	-14920
コラボレーション	-14921
ご協力をお願いします	-14922
)「	-14923
97	-14924
BB	-14925
NK	-14926
の味	-14927
の熱	-14928
ばか	-14929
ゲー	-14930
ヶの	-14931
三菱	-14932
仏像	-14933
合唱	-14934
合致	-14935
学界	-14936
彼に	-14937
発送	-14938
葉が	-14939
農場	-14940
面貌	-14941
~10	-14942
がつく	-14943
もとに	-14944
クター	-14945
ザーの	-14946
ランの	-14947
ロイヤ	-14948
今後は	-14949
前面に	-14950
方法だ	-14951
日程を	-14952
未然に	-14953
止まる	-14954
設けた	-14955
部門は	-14956
金利は	-14957
だったり	-14958
れません	-14959
エーター	-14960
人材養成	-14961
位置した	-14962
低コスト	-14963
安心して	-14964
従業員の	-14965
生命科学	-14966
自発的な	-14967
、2021	-14968
とみられる	-14969
ダイムラー	-14970
パターンが	-14971
フォーカス	-14972
▁この発明は	-14973
などについて	-14974
エディション	-14975
ユープラスは	-14976
が形成されており	-14977
を防止するための	-14978
ブリーフィングで	-14979
▁清	-14980
アフ	-14981
カプ	-14982
世を	-14983
偽装	-14984
創建	-14985
定め	-14986
気配	-14987
洪水	-14988
直前	-14989
輝く	-14990
韓銀	-14991
ONE	-14992
が長く	-14993
を削減	-14994
を指す	-14995
コーン	-14996
ステル	-14997
マトリ	-14998
一度も	-14999
人間に	-15000
企業で	-15001
多様で	-15002
強化し	-15003
接する	-15004
植民地	-15005
高危険	-15006
を続けた	-15007
事業主が	-15008
反論した	-15009
四輪駆動	-15010
大量生産	-15011
影響力を	-15012
早くから	-15013
継続して	-15014
緩やかな	-15015
雇用支援	-15016
▁会社側は	-15017
ことがあり	-15018
してしまう	-15019
に支えられ	-15020
ファウンド	-15021
感謝します	-15022
▁国土交通部は	-15023
ハイブリッドカー	-15024
UV	-15025
~8	-15026
▁ブ	-15027
エジ	-15028
クワ	-15029
クン	-15030
ゲル	-15031
制が	-15032
古く	-15033
年目	-15034
庁に	-15035
直結	-15036
秘訣	-15037
0.5	-15038
あえて	-15039
が減る	-15040
の判決	-15041
を連想	-15042
ピンク	-15043
中国が	-15044
元請け	-15045
加わり	-15046
大量の	-15047
感情が	-15048
楽しさ	-15049
管理が	-15050
複雑で	-15051
議決権	-15052
超えた	-15053
部座席	-15054
電源を	-15055
▁人間の	-15056
つながる	-15057
と思って	-15058
らっしゃ	-15059
ウォンテ	-15060
ヨンジュ	-15061
ログイン	-15062
労使関係	-15063
医療機器	-15064
造成され	-15065
連続的に	-15066
選択的に	-15067
、1990	-15068
ことのない	-15069
を受け取り	-15070
ダイエット	-15071
子供たちは	-15072
カリキュラム	-15073
フォルダブル	-15074
キャラクターを	-15075
プログラミング	-15076
▁サムスン電子が	-15077
まなければならない	-15078
Ch	-15079
くく	-15080
と水	-15081
ミナ	-15082
世の	-15083
亜鉛	-15084
似て	-15085
告示	-15086
商売	-15087
心で	-15088
村だ	-15089
格安	-15090
法に	-15091
行進	-15092
言で	-15093
高霊	-15094
が減少	-15095
こちに	-15096
の後ろ	-15097
ますが	-15098
ランダ	-15099
児童の	-15100
各自の	-15101
有意義	-15102
AIST	-15103
しやすく	-15104
世界初の	-15105
事業者に	-15106
人当たり	-15107
委員長の	-15108
就職支援	-15109
真ん中に	-15110
資金支援	-15111
を推進する	-15112
アンテナの	-15113
ウエハーの	-15114
ジャンルの	-15115
メーション	-15116
▁そのために	-15117
ローディング	-15118
温室効果ガス	-15119
MW	-15120
は水	-15121
ミレ	-15122
功労	-15123
北区	-15124
怪我	-15125
指し	-15126
文脈	-15127
津江	-15128
海に	-15129
至る	-15130
薬剤	-15131
走り	-15132
通学	-15133
関与	-15134
駅の	-15135
騒ぎ	-15136
for	-15137
と思い	-15138
モハベ	-15139
リット	-15140
万台の	-15141
基準は	-15142
夫婦の	-15143
広帯域	-15144
強調し	-15145
政治家	-15146
誤って	-15147
財産権	-15148
険しい	-15149
に会って	-15150
に言った	-15151
ロンドン	-15152
努力した	-15153
対応する	-15154
現代産業	-15155
立証した	-15156
紛争調停	-15157
記録した	-15158
高速走行	-15159
が登場する	-15160
したものと	-15161
する方式だ	-15162
だと思った	-15163
を誘発する	-15164
ジャーナル	-15165
してしまった	-15166
産業通商資源	-15167
連邦準備制度	-15168
教育プログラム	-15169
▁この日の放送では	-15170
ユーチューブチャンネル	-15171
で覆	-15172
オケ	-15173
ギは	-15174
ヴォ	-15175
人数	-15176
培養	-15177
悲劇	-15178
椅子	-15179
注ぐ	-15180
美味	-15181
聴衆	-15182
進展	-15183
()@	-15184
ork	-15185
▁16	-15186
▁実は	-15187
しくは	-15188
の上流	-15189
の登場	-15190
リーブ	-15191
レール	-15192
事務室	-15193
無理な	-15194
現代の	-15195
部分で	-15196
重大な	-15197
開発が	-15198
1970	-15199
ジョンが	-15200
スロット	-15201
ローラー	-15202
不当解雇	-15203
不買運動	-15204
向かって	-15205
売り上げ	-15206
新車発売	-15207
韓国映画	-15208
▁2010	-15209
に使用する	-15210
ジュネーブ	-15211
ネイティブ	-15212
を最小限に抑	-15213
メッセージが	-15214
現代自動車と	-15215
電気モーター	-15216
を提供することだ	-15217
コンタクトホール	-15218
▁このような状況で	-15219
協力をお願いします	-15220
っこ	-15221
アト	-15222
ロス	-15223
反省	-15224
回帰	-15225
岩は	-15226
民事	-15227
消え	-15228
開口	-15229
館で	-15230
▁15	-15231
に期待	-15232
の効果	-15233
の恩恵	-15234
を増大	-15235
クムホ	-15236
テント	-15237
モデム	-15238
代金を	-15239
価値の	-15240
前後に	-15241
回路を	-15242
大容量	-15243
工程が	-15244
政策と	-15245
確率が	-15246
立派な	-15247
が出した	-15248
の余波で	-15249
をもって	-15250
を前面に	-15251
を十分に	-15252
ビニール	-15253
プライド	-15254
微細粉塵	-15255
普遍的な	-15256
かどうかは	-15257
されたのは	-15258
営業利益が	-15259
自動車生産	-15260
が与えられる	-15261
ジョンウォン	-15262
ヒップホップ	-15263
下記のように	-15264
によって異なる	-15265
盛り込まれている	-15266
プラットフォームである	-15267
HS	-15268
Wi	-15269
▁空	-15270
ダヤ	-15271
一括	-15272
仕方	-15273
司令	-15274
宣伝	-15275
密陽	-15276
忠南	-15277
挙動	-15278
日夜	-15279
更に	-15280
沿い	-15281
法第	-15282
王は	-15283
贈り	-15284
趣味	-15285
ESS	-15286
▁ブル	-15287
▁技術	-15288
だけど	-15289
に入れ	-15290
に最も	-15291
に移転	-15292
の不便	-15293
アンが	-15294
世帯が	-15295
可愛い	-15296
委員が	-15297
容量が	-15298
強度の	-15299
有無を	-15300
肺がん	-15301
に会った	-15302
のチャン	-15303
はすべて	-15304
チップの	-15305
性が高く	-15306
暗号貨幣	-15307
火力発電	-15308
▁これから	-15309
が開かれた	-15310
したように	-15311
されておらず	-15312
システムに関するもので	-15313
を挟	-15314
互い	-15315
大人	-15316
嫌悪	-15317
実在	-15318
段差	-15319
海底	-15320
端の	-15321
等が	-15322
内には	-15323
外国語	-15324
次官は	-15325
間には	-15326
間違い	-15327
1200	-15328
から来た	-15329
を変えて	-15330
コーロン	-15331
下半期の	-15332
力を持つ	-15333
年ぶりの	-15334
広がった	-15335
詳細には	-15336
▁公正取引	-15337
がなくなる	-15338
ことによる	-15339
に出てくる	-15340
を形成した	-15341
ウェハーを	-15342
働いている	-15343
方法である	-15344
に陥っている	-15345
フォーマット	-15346
▁公開された写真	-15347
内容を参考にして	-15348
であるにもかかわらず	-15349
NO	-15350
VC	-15351
▁d	-15352
▁車	-15353
動揺	-15354
受動	-15355
可動	-15356
国を	-15357
川辺	-15358
格子	-15359
決心	-15360
糾弾	-15361
終映	-15362
に関し	-15363
に露出	-15364
をきた	-15365
ボート	-15366
低賃金	-15367
喜んで	-15368
地形が	-15369
当時に	-15370
支える	-15371
範囲を	-15372
訪問し	-15373
違いを	-15374
選択肢	-15375
PHEV	-15376
すっきり	-15377
に至った	-15378
に過ぎず	-15379
トレンチ	-15380
メリッツ	-15381
中古車の	-15382
再生可能	-15383
掲載した	-15384
製造業の	-15385
面白さを	-15386
が出演した	-15387
が増加する	-15388
はそれぞれ	-15389
を申請した	-15390
カルシウム	-15391
リネージュ	-15392
社会的対話	-15393
証券会社が	-15394
アンドロイド	-15395
ご協力ください	-15396
トレイルブレイ	-15397
会社側の説明だ	-15398
薄膜トランジスタ	-15399
される可能性がある	-15400
▁モ	-15401
そも	-15402
を掘	-15403
ペダ	-15404
ロボ	-15405
兄妹	-15406
匿名	-15407
奴隷	-15408
意向	-15409
移民	-15410
行列	-15411
躍動	-15412
陳述	-15413
ぐらい	-15414
その時	-15415
の進行	-15416
ピール	-15417
ルーフ	-15418
博士は	-15419
咲く頃	-15420
応じて	-15421
業者と	-15422
生命の	-15423
立場を	-15424
金属の	-15425
が完全に	-15426
を呼んだ	-15427
体育観光	-15428
対象者の	-15429
悪化した	-15430
感染経路	-15431
懇談会で	-15432
提出した	-15433
韓国では	-15434
がますます	-15435
型ファンド	-15436
いつの間にか	-15437
をもたらした	-15438
ヘッドランプ	-15439
人余りが参加した	-15440
しなければならないが	-15441
▁ご	-15442
に再	-15443
パナ	-15444
ビョ	-15445
化で	-15446
呼応	-15447
導く	-15448
慌て	-15449
提川	-15450
東の	-15451
煩わ	-15452
現像	-15453
ock	-15454
▁安全	-15455
キッチ	-15456
合併症	-15457
圧力が	-15458
当時は	-15459
理事長	-15460
経済学	-15461
行する	-15462
規制の	-15463
限度を	-15464
静かな	-15465
ment	-15466
への支援	-15467
ジュンの	-15468
尋ねると	-15469
特化した	-15470
税額控除	-15471
経験する	-15472
ほとんどは	-15473
インダクタ	-15474
サプライズ	-15475
ることになり	-15476
ショーケース	-15477
自動車市場の	-15478
▁双龍自動車の	-15479
▁本発明は半導体	-15480
億ウォンに達する	-15481
la	-15482
▁タ	-15483
を飾	-15484
アベ	-15485
人命	-15486
冷凍	-15487
必然	-15488
本が	-15489
笑顔	-15490
耐熱	-15491
▁国産	-15492
▁大学	-15493
▁生産	-15494
に再び	-15495
の良い	-15496
を提出	-15497
を記念	-15498
スタイ	-15499
ンスが	-15500
各社は	-15501
国では	-15502
存在感	-15503
教育に	-15504
植物の	-15505
椿の花	-15506
概念の	-15507
考えを	-15508
追いつ	-15509
高電圧	-15510
コロラド	-15511
取り付け	-15512
昨年から	-15513
行事には	-15514
が下された	-15515
にあたって	-15516
予定された	-15517
アインシュタ	-15518
されているため	-15519
するのが難しい	-15520
に置かれている	-15521
カンファレンス	-15522
されるようにする	-15523
MD	-15524
▁市	-15525
ひた	-15526
わが	-15527
上級	-15528
国連	-15529
座標	-15530
換算	-15531
撤廃	-15532
曲だ	-15533
材質	-15534
要員	-15535
過ち	-15536
1.6	-15537
▁国会	-15538
と言及	-15539
に巻き	-15540
まとめ	-15541
を望む	-15542
ソニー	-15543
人未満	-15544
対象だ	-15545
成長と	-15546
最優先	-15547
瞬間に	-15548
短期間	-15549
組織が	-15550
電流を	-15551
めぐって	-15552
アクセサ	-15553
カラオケ	-15554
体系的に	-15555
労使間の	-15556
向上する	-15557
色を帯び	-15558
造船海洋	-15559
を強調した	-15560
を考慮すれば	-15561
パーティクル	-15562
マンションの	-15563
として使われる	-15564
は避けられない	-15565
治療を受けている	-15566
▁全国民主労働組合総連盟	-15567
装置及び方法に関するものである	-15568
▁石	-15569
せつ	-15570
マガ	-15571
ユル	-15572
一回	-15573
少な	-15574
抜き	-15575
斜面	-15576
番目	-15577
街の	-15578
ard	-15579
の多い	-15580
の被害	-15581
俳優が	-15582
傾ける	-15583
安価な	-15584
施設を	-15585
日にも	-15586
配線の	-15587
長さが	-15588
保有する	-15589
実施例は	-15590
時間以上	-15591
▁大韓航空	-15592
、2005	-15593
お茶の間劇	-15594
を保護する	-15595
を用意した	-15596
ウリィ銀行	-15597
カテゴリー	-15598
保護者様は	-15599
性を高めた	-15600
状態である	-15601
考慮すると	-15602
責任を負う	-15603
に提出して下さい	-15604
スクールバンキング	-15605
▁ム	-15606
は無	-15607
ひき	-15608
チル	-15609
主は	-15610
分が	-15611
動脈	-15612
器と	-15613
局長	-15614
島で	-15615
直営	-15616
背面	-15617
退社	-15618
顧問	-15619
ong	-15620
▁会社	-15621
▁支援	-15622
が用意	-15623
が開催	-15624
しまい	-15625
すごい	-15626
の技術	-15627
の確保	-15628
ややも	-15629
ズーム	-15630
ヒート	-15631
マンは	-15632
リジェ	-15633
先生が	-15634
台から	-15635
突然の	-15636
が位置し	-15637
に変わり	-15638
インピー	-15639
カメラが	-15640
ハナ銀行	-15641
健康診断	-15642
得られた	-15643
投資家に	-15644
書を提出	-15645
発展した	-15646
継続的な	-15647
間接的に	-15648
▁それから	-15649
セッション	-15650
ミステリー	-15651
が容易ではない	-15652
韓進グループの	-15653
について開示する	-15654
おい	-15655
わか	-15656
セイ	-15657
上司	-15658
丸い	-15659
会談	-15660
意欲	-15661
水面	-15662
用紙	-15663
異見	-15664
薄く	-15665
隣の	-15666
の収益	-15667
アーク	-15668
サーバ	-15669
テルの	-15670
モータ	-15671
引上げ	-15672
済州道	-15673
滑らか	-15674
裁判に	-15675
記者が	-15676
賃貸料	-15677
、300	-15678
と判断し	-15679
を加える	-15680
必ずしも	-15681
構成する	-15682
産業銀行	-15683
見どころ	-15684
カトリック	-15685
スイッチの	-15686
利用される	-15687
株主総会で	-15688
が可能になり	-15689
非常に重要な	-15690
インフィニティ	-15691
エレクトロニク	-15692
雇用維持支援金	-15693
両極	-15694
主観	-15695
仲間	-15696
公表	-15697
年後	-15698
所見	-15699
機は	-15700
自我	-15701
財布	-15702
返信	-15703
遊ぶ	-15704
選考	-15705
髪の	-15706
▁青年	-15707
それで	-15708
だと言	-15709
の発達	-15710
シェル	-15711
マニア	-15712
ラブル	-15713
大邱市	-15714
本体の	-15715
東側の	-15716
結局は	-15717
者など	-15718
資産が	-15719
車両に	-15720
関心事	-15721
▁ENM	-15722
ご関心と	-15723
つつある	-15724
と違って	-15725
の内部に	-15726
スティー	-15727
低くなり	-15728
発売され	-15729
通常賃金	-15730
選択した	-15731
に流れ込む	-15732
シリンダー	-15733
レジェンド	-15734
予定であり	-15735
▁電気自動車	-15736
を成し遂げた	-15737
を提供できる	-15738
MB	-15739
いや	-15740
は不	-15741
クイ	-15742
ネジ	-15743
傘下	-15744
奮闘	-15745
官僚	-15746
年も	-15747
年式	-15748
応募	-15749
担う	-15750
斉に	-15751
明な	-15752
月が	-15753
標的	-15754
誘惑	-15755
谷里	-15756
3.0	-15757
IMF	-15758
が長期	-15759
に興味	-15760
バース	-15761
ワゴン	-15762
与えた	-15763
予告編	-15764
危機に	-15765
地域だ	-15766
画面を	-15767
空間は	-15768
誕生日	-15769
部位に	-15770
DRAM	-15771
こんなに	-15772
を新たに	-15773
川が流れ	-15774
▁全羅北道	-15775
が含まれる	-15776
センサーが	-15777
Google	-15778
オープンした	-15779
情報通信技術	-15780
▁双龍自動車が	-15781
エンジニアリング	-15782
未来アセット大宇	-15783
▁万	-15784
「4	-15785
さで	-15786
に頼	-15787
のぼ	-15788
トム	-15789
代謝	-15790
地獄	-15791
売れ	-15792
換気	-15793
正門	-15794
添付	-15795
着脱	-15796
硬直	-15797
軍は	-15798
馬山	-15799
、26	-15800
に適応	-15801
を販売	-15802
を避け	-15803
バトル	-15804
仕組み	-15805
内部で	-15806
基盤に	-15807
年目の	-15808
披露し	-15809
接着剤	-15810
掲示板	-15811
行動が	-15812
評価は	-15813
詳細に	-15814
金融は	-15815
集めた	-15816
▁歌手の	-15817
アクチュ	-15818
チーム長	-15819
バラード	-15820
及ばない	-15821
株式会社	-15822
を合わせた	-15823
を提案する	-15824
を決定する	-15825
本発明では	-15826
だけではなく	-15827
フィッシング	-15828
問題点を解決	-15829
関心を集めた	-15830
ネットマーブル	-15831
システムにおける	-15832
派生結合ファンド	-15833
ディーゼルエンジン	-15834
現代自動車グループの	-15835
していることが分かった	-15836
ly	-15837
と非	-15838
に火	-15839
の重	-15840
ボラ	-15841
委任	-15842
守り	-15843
張り	-15844
直観	-15845
配管	-15846
野党	-15847
金土	-15848
が主に	-15849
ませた	-15850
を刺激	-15851
ローム	-15852
初放送	-15853
大会で	-15854
導入し	-15855
忘れて	-15856
根拠に	-15857
細かい	-15858
買った	-15859
が激しい	-15860
が続くと	-15861
は新しい	-15862
を挙げた	-15863
アラーム	-15864
公務員の	-15865
報告書を	-15866
日常的な	-15867
賃貸住宅	-15868
、2006	-15869
すればよい	-15870
という理由	-15871
を公開する	-15872
を確定した	-15873
を設置して	-15874
ポジション	-15875
作り出した	-15876
技術を開発	-15877
方針である	-15878
と集計された	-15879
オブジェクト	-15880
可能性のある	-15881
こともありうる	-15882
クロスオーバー	-15883
ブランドである	-15884
グローバル金融危機	-15885
が来	-15886
を閉	-15887
コス	-15888
ベー	-15889
値段	-15890
原審	-15891
品を	-15892
孤立	-15893
履修	-15894
方策	-15895
渡す	-15896
点と	-15897
進め	-15898
電装	-15899
AIL	-15900
▁ハイ	-15901
に復帰	-15902
を主張	-15903
中長期	-15904
促した	-15905
円筒形	-15906
化学の	-15907
向上し	-15908
投資し	-15909
株主の	-15910
機器を	-15911
眺める	-15912
いており	-15913
ノーベル	-15914
住民登録	-15915
初期には	-15916
制御装置	-15917
化学物質	-15918
専門的な	-15919
指定した	-15920
潜在的な	-15921
種である	-15922
するときは	-15923
だったため	-15924
センサーの	-15925
実施される	-15926
性に対する	-15927
離れている	-15928
されないように	-15929
スタートアップの	-15930
経済社会労働委員会	-15931
インフォテインメント	-15932
io	-15933
▁朝	-15934
▁現	-15935
バウ	-15936
体格	-15937
倒産	-15938
娯楽	-15939
幅の	-15940
推奨	-15941
曲を	-15942
歩み	-15943
母が	-15944
発現	-15945
硬い	-15946
話の	-15947
誇張	-15948
▁サン	-15949
たまに	-15950
に到達	-15951
ジェイ	-15952
取引日	-15953
場所の	-15954
怒りを	-15955
戦略は	-15956
未成年	-15957
経験が	-15958
表情で	-15959
電極を	-15960
すべきだ	-15961
としない	-15962
を合わせ	-15963
トヨタの	-15964
フィット	-15965
ランドの	-15966
レビュー	-15967
指示した	-15968
最も多い	-15969
生活安定	-15970
良い機会	-15971
ふさわしい	-15972
グラウンド	-15973
ソウル江南	-15974
ボンネット	-15975
少なかった	-15976
理由として	-15977
説明できる	-15978
保護者の方の	-15979
明らかになる	-15980
賃金引き上げ	-15981
レンジローバー	-15982
訴訟を起こした	-15983
カリフォルニア州	-15984
くじ	-15985
テオ	-15986
マニ	-15987
問う	-15988
室長	-15989
峰が	-15990
役所	-15991
撤退	-15992
教保	-15993
試演	-15994
陽川	-15995
青松	-15996
MOS	-15997
▁お子	-15998
▁どう	-15999
▁室内	-16000
▁開発	-16001
なんて	-16002
を一定	-16003
レスを	-16004
代表と	-16005
前日の	-16006
収納員	-16007
子供に	-16008
手洗い	-16009
拡散で	-16010
村には	-16011
死亡し	-16012
綿密に	-16013
話では	-16014
が出演し	-16015
むやみに	-16016
を置いた	-16017
シャーシ	-16018
セマウル	-16019
内部統制	-16020
国際空港	-16021
日帝強占	-16022
景気浮揚	-16023
特殊形態	-16024
発電機の	-16025
認識する	-16026
隣接した	-16027
▁このほか	-16028
に先立って	-16029
の中小企業	-16030
を知らせた	-16031
俳優たちの	-16032
変更された	-16033
しようという	-16034
ポリシリコン	-16035
分析した結果	-16036
2、	-16037
AB	-16038
▁双	-16039
▁夏	-16040
因果	-16041
検体	-16042
母は	-16043
消極	-16044
皆を	-16045
稼ぐ	-16046
規範	-16047
酵素	-16048
ARS	-16049
ist	-16050
▁よく	-16051
▁英国	-16052
いては	-16053
が増幅	-16054
を成し	-16055
を許可	-16056
んだり	-16057
ターは	-16058
リトル	-16059
一人が	-16060
世界に	-16061
者らが	-16062
誤動作	-16063
道路で	-16064
アプリの	-16065
ダイアナ	-16066
反映した	-16067
性および	-16068
販売実績	-16069
買収した	-16070
と言っても	-16071
を受けたが	-16072
を要請した	-16073
住宅価格が	-16074
可能にする	-16075
子供たちを	-16076
座り込みを	-16077
引き受けた	-16078
機能を持つ	-16079
生産された	-16080
を中心とした	-16081
ファクトリー	-16082
位に上がった	-16083
移動通信端末	-16084
笑いを誘った	-16085
▁金融委員会は	-16086
ということから	-16087
を受けることになる	-16088
(5	-16089
CS	-16090
▁ザ	-16091
エキ	-16092
内在	-16093
地元	-16094
大腸	-16095
委嘱	-16096
学童	-16097
所持	-16098
明細	-16099
民衆	-16100
父が	-16101
相応	-16102
経費	-16103
考察	-16104
背中	-16105
走査	-16106
送る	-16107
3~4	-16108
▁最高	-16109
と連動	-16110
を作動	-16111
んでも	-16112
ソクの	-16113
ソナル	-16114
ハッチ	-16115
一気に	-16116
原子の	-16117
村の裏	-16118
歌を歌	-16119
粒子が	-16120
職員を	-16121
顕著に	-16122
顧客と	-16123
マチック	-16124
受賞した	-16125
引き出し	-16126
強制的に	-16127
法施行令	-16128
調整する	-16129
▁おそらく	-16130
が運営する	-16131
という認識	-16132
に似ている	-16133
を訪問して	-16134
を適用する	-16135
ボタンを押	-16136
働いていた	-16137
プログラムだ	-16138
プロデュース	-16139
ラジオスター	-16140
分かるように	-16141
時に放送される	-16142
▁それにもかかわらず	-16143
DD	-16144
MG	-16145
づく	-16146
ッカ	-16147
ビザ	-16148
了承	-16149
器で	-16150
回も	-16151
夢と	-16152
案も	-16153
歌う	-16154
汎用	-16155
▁ヨン	-16156
が建設	-16157
に置き	-16158
のハン	-16159
セーフ	-16160
デルタ	-16161
バーの	-16162
二人が	-16163
会議は	-16164
向上と	-16165
年後に	-16166
日以降	-16167
発売し	-16168
行動は	-16169
言葉に	-16170
1999	-16171
いないが	-16172
をえない	-16173
を運営し	-16174
ミックス	-16175
国政監査	-16176
大統領府	-16177
曜日の夜	-16178
負担する	-16179
かと思えば	-16180
が作られる	-16181
が登場した	-16182
という名称	-16183
などの症状	-16184
を反映した	-16185
管理システム	-16186
込められている	-16187
を支援するために	-16188
エミ	-16189
同年	-16190
尋常	-16191
峠は	-16192
弟子	-16193
男子	-16194
真相	-16195
腹が	-16196
請負	-16197
鳥の	-16198
々たる	-16199
およそ	-16200
光州型	-16201
反応は	-16202
戦争の	-16203
米国が	-16204
舞台で	-16205
超大型	-16206
▁彼女は	-16207
が自分の	-16208
に流れる	-16209
の特性上	-16210
ジョンの	-16211
フレンド	-16212
ヨンジン	-16213
分かち合	-16214
私たちを	-16215
という見方	-16216
より大きい	-16217
持っていた	-16218
と打ち明けた	-16219
を減らすために	-16220
PL	-16221
SE	-16222
ex	-16223
up	-16224
かで	-16225
スワ	-16226
優待	-16227
北省	-16228
名が	-16229
実損	-16230
敗訴	-16231
文献	-16232
松林	-16233
果て	-16234
熟知	-16235
田舎	-16236
白色	-16237
表彰	-16238
話で	-16239
谷は	-16240
とそれ	-16241
に戻る	-16242
の事例	-16243
を好む	-16244
を義務	-16245
アマゾ	-16246
ッキー	-16247
交渉の	-16248
堂々と	-16249
成果を	-16250
文章を	-16251
施設と	-16252
柔軟な	-16253
見せた	-16254
っという	-16255
と同様の	-16256
スターの	-16257
ヒーロー	-16258
個別消費	-16259
分析して	-16260
感染した	-16261
段階から	-16262
米中貿易	-16263
航空会社	-16264
購入する	-16265
高くなり	-16266
に流入する	-16267
ソウル市の	-16268
ナショナル	-16269
ブラケット	-16270
マグネット	-16271
内蔵された	-16272
待っている	-16273
特徴がある	-16274
貯蓄銀行の	-16275
を持っており	-16276
労働者たちの	-16277
拡大している	-16278
エンターテイメント	-16279
ファンミーティング	-16280
オンラインコミュニティ	-16281
OF	-16282
UR	-16283
低調	-16284
南側	-16285
回生	-16286
失う	-16287
宿舎	-16288
島と	-16289
文の	-16290
死に	-16291
海域	-16292
訪れ	-16293
集め	-16294
風化	-16295
食料	-16296
鬱蒼	-16297
95%	-16298
めない	-16299
もしか	-16300
を卒業	-16301
を投げ	-16302
メータ	-16303
リウム	-16304
休養林	-16305
共感を	-16306
原因は	-16307
変える	-16308
夢見る	-16309
小学校	-16310
親しい	-16311
運動の	-16312
過程は	-16313
2500	-16314
と考えた	-16315
の中古車	-16316
ゆったり	-16317
わかった	-16318
を終える	-16319
アピール	-16320
ソニック	-16321
ランプの	-16322
保険料が	-16323
出演する	-16324
方がいい	-16325
暮らしの	-16326
風力発電	-16327
しようと思う	-16328
と予想される	-16329
顧客を対象に	-16330
をお祈りします	-16331
を記録している	-16332
オープンソース	-16333
知ることができる	-16334
ギャラクシーフォールド	-16335
3・	-16336
iz	-16337
こだ	-16338
先祖	-16339
勝ち	-16340
増設	-16341
書院	-16342
有限	-16343
直す	-16344
真似	-16345
砂浜	-16346
装飾	-16347
郡は	-16348
▁宇宙	-16349
▁年間	-16350
おかげ	-16351
を必ず	-16352
クァン	-16353
トレイ	-16354
基板と	-16355
生物の	-16356
相次ぎ	-16357
製品と	-16358
豊富で	-16359
随所に	-16360
集めて	-16361
させたり	-16362
そんなに	-16363
などでは	-16364
デミック	-16365
合流した	-16366
申請した	-16367
設定した	-16368
が公開され	-16369
だと言った	-16370
テルライド	-16371
テレコムは	-16372
買い入れた	-16373
すると予想される	-16374
感謝申し上げます	-16375
話題になっている	-16376
プラグインハイブリッド	-16377
CK	-16378
伴侶	-16379
咲き	-16380
定例	-16381
後日	-16382
恐竜	-16383
橋の	-16384
石が	-16385
量も	-16386
陣の	-16387
韓流	-16388
170	-16389
▁未来	-16390
えます	-16391
きちん	-16392
の勢い	-16393
を続け	-16394
スペー	-16395
バスが	-16396
ヘジン	-16397
何でも	-16398
危機が	-16399
友人の	-16400
大部分	-16401
幾何学	-16402
月末に	-16403
機関で	-16404
記事を	-16405
週間で	-16406
音楽を	-16407
が作った	-16408
を提示し	-16409
を設けた	-16410
カードを	-16411
昨年同期	-16412
▁2000	-16413
▁JTBC	-16414
にアクセス	-16415
を紹介する	-16416
万ウォンだ	-16417
事業である	-16418
が発生すれば	-16419
する見通しだ	-16420
れないように	-16421
を引き出した	-16422
安全のために	-16423
雇用労働部が	-16424
ことを示している	-16425
ガソリンスタンド	-16426
ルノーサムスンの	-16427
自動車メーカーの	-16428
ポーズを取っている	-16429
装置を提供することにある	-16430
FO	-16431
ry	-16432
を産	-16433
ホは	-16434
メー	-16435
小額	-16436
待つ	-16437
斡旋	-16438
沈滞	-16439
発刊	-16440
肥沃	-16441
試料	-16442
誤り	-16443
返事	-16444
飲む	-16445
12%	-16446
▁国税	-16447
ご確認	-16448
そばに	-16449
に適合	-16450
に飛び	-16451
は次の	-16452
を回復	-16453
を最大	-16454
ソクは	-16455
単一の	-16456
取引の	-16457
幅広く	-16458
授業の	-16459
構造と	-16460
活用し	-16461
物量が	-16462
産業と	-16463
疲れた	-16464
章では	-16465
能力は	-16466
言葉で	-16467
議政府	-16468
貸出の	-16469
高集積	-16470
が消えた	-16471
の間には	-16472
より多く	-16473
ローター	-16474
危機克服	-16475
定着した	-16476
市中銀行	-16477
見通した	-16478
規制緩和	-16479
2019」	-16480
Apple	-16481
という用語	-16482
パーソナル	-16483
レバレッジ	-16484
人に増えた	-16485
投入された	-16486
予防のために	-16487
億ウォン以上	-16488
金融監督院が	-16489
に集中している	-16490
オンライン始業	-16491
クリエイティブ	-16492
▁Z	-16493
▁城	-16494
の底	-16495
を埋	-16496
ネン	-16497
倍も	-16498
処置	-16499
占拠	-16500
場と	-16501
役は	-16502
揮発	-16503
木材	-16504
根幹	-16505
牙山	-16506
老後	-16507
誘引	-16508
路面	-16509
身を	-16510
飛ぶ	-16511
▁13	-16512
▁鉄道	-16513
の買収	-16514
を許容	-16515
を通知	-16516
事故は	-16517
仏教の	-16518
生物学	-16519
知識と	-16520
選ばれ	-16521
▁アンは	-16522
▁世界の	-16523
▁企業の	-16524
▁顧客が	-16525
が見える	-16526
なるべく	-16527
ひたすら	-16528
を加えて	-16529
チャンス	-16530
基礎生活	-16531
差がある	-16532
市場でも	-16533
買い戻し	-16534
と展望した	-16535
になったが	-16536
カード会社	-16537
ームバーグ	-16538
▁これを受け	-16539
の役割をする	-16540
金融グループ	-16541
していなかった	-16542
メンバーシップ	-16543
が提起されている	-16544
を提供するための	-16545
▁ルノーサムスンは	-16546
▁ル	-16547
▁近	-16548
あた	-16549
こた	-16550
ジヘ	-16551
兆候	-16552
外注	-16553
正直	-16554
決断	-16555
浪費	-16556
混じ	-16557
湿地	-16558
白頭	-16559
静粛	-16560
240	-16561
KTX	-16562
▁実験	-16563
と接触	-16564
の境界	-16565
を宣告	-16566
トンの	-16567
体系を	-16568
公園の	-16569
措置は	-16570
業者を	-16571
番部屋	-16572
線鉄道	-16573
者から	-16574
2001	-16575
ジェット	-16576
ヒョクが	-16577
大々的な	-16578
大規模の	-16579
宣言した	-16580
年前から	-16581
日ソウル	-16582
補助金を	-16583
適用され	-16584
を改善して	-16585
ナトリウム	-16586
朝鮮時代の	-16587
状態だった	-16588
メディアンの	-16589
▁フェイスブック	-16590
を提供するために	-16591
カーシェアリング	-16592
3、	-16593
こも	-16594
とお	-16595
を祈	-16596
制を	-16597
力に	-16598
否認	-16599
失望	-16600
層間	-16601
必需	-16602
振替	-16603
無罪	-16604
着陸	-16605
聖母	-16606
賞の	-16607
運ぶ	-16608
電位	-16609
頭が	-16610
骨格	-16611
ive	-16612
がかか	-16613
の下の	-16614
わせた	-16615
ウラン	-16616
一部は	-16617
事業体	-16618
作業の	-16619
合わさ	-16620
建物を	-16621
教育監	-16622
日差し	-16623
特別に	-16624
笑みを	-16625
育った	-16626
要素を	-16627
その中で	-16628
それとも	-16629
を収めた	-16630
ジュンは	-16631
ラインド	-16632
予告した	-16633
人たちに	-16634
投資家は	-16635
気がした	-16636
決定した	-16637
部分的に	-16638
すればいい	-16639
を選択した	-16640
フォードの	-16641
地域である	-16642
生徒たちは	-16643
競争力強化	-16644
電子商取引	-16645
を受けてきた	-16646
水素燃料電池	-16647
つながっている	-16648
へと変動したと	-16649
エンジンオイル	-16650
キャラクターが	-16651
▁現代自動車グループは	-16652
する方法に関するものだ	-16653
bp	-16654
を横	-16655
ロコ	-16656
傾き	-16657
入場	-16658
営む	-16659
急変	-16660
民が	-16661
男が	-16662
石塔	-16663
西欧	-16664
都合	-16665
10~	-16666
▁本当	-16667
とパク	-16668
にもう	-16669
をかけ	-16670
を促す	-16671
を分離	-16672
を過ご	-16673
ストは	-16674
ミッド	-16675
中央会	-16676
労使の	-16677
多くは	-16678
建設が	-16679
心より	-16680
教育が	-16681
皆さん	-16682
組んで	-16683
評価の	-16684
議論が	-16685
運動を	-16686
避ける	-16687
▁この間	-16688
お互いを	-16689
すべてを	-16690
にわたる	-16691
への懸念	-16692
をもっと	-16693
大企業の	-16694
機械学習	-16695
に反対する	-16696
アナリスト	-16697
テレコムの	-16698
ミンジョン	-16699
メンバーが	-16700
リアリティ	-16701
会議を開き	-16702
生成された	-16703
関心のある	-16704
がないように	-16705
ダイヤモンド	-16706
をはじめとして	-16707
製造方法に関するもので	-16708
ew	-16709
▁ド	-16710
ガム	-16711
ソム	-16712
三陟	-16713
付く	-16714
台頭	-16715
差は	-16716
常任	-16717
慣れ	-16718
極限	-16719
物で	-16720
訂正	-16721
陣営	-16722
の不安	-16723
みれば	-16724
を先に	-16725
を加え	-16726
同士の	-16727
型肝炎	-16728
支援と	-16729
支援策	-16730
産業用	-16731
▁たとえ	-16732
▁ウォン	-16733
に値する	-16734
伝送する	-16735
健康状態	-16736
量子力学	-16737
▁雇用部は	-16738
を確認する	-16739
メロディー	-16740
必要である	-16741
必要はない	-16742
最大トルク	-16743
水木ドラマ	-16744
賃金未払い	-16745
選別診療所	-16746
に分類される	-16747
に設置された	-16748
を高めるために	-16749
までに担任の先生	-16750
フォルクスワーゲンは	-16751
を提供することにその目的がある	-16752
ha	-16753
▁b	-16754
に迫	-16755
ぱく	-16756
まっ	-16757
万枚	-16758
傷害	-16759
冷え	-16760
南米	-16761
外装	-16762
外見	-16763
大胆	-16764
寄り	-16765
正統	-16766
納税	-16767
緩衝	-16768
課金	-16769
est	-16770
あたり	-16771
が急減	-16772
が防止	-16773
この頃	-16774
の原則	-16775
を含み	-16776
を決め	-16777
を着て	-16778
スピン	-16779
ブラウ	-16780
レージ	-16781
大小の	-16782
決まる	-16783
直撃弾	-16784
賃金は	-16785
金利を	-16786
▁まるで	-16787
えていた	-16788
が加わり	-16789
ているが	-16790
の下には	-16791
アンダー	-16792
モードで	-16793
専門家は	-16794
構成した	-16795
育児休業	-16796
金融市場	-16797
驚かせた	-16798
がどれほど	-16799
しましょう	-16800
をきちんと	-16801
特性を持つ	-16802
を対象にした	-16803
部の関係者は	-16804
万ウォン相当の	-16805
ようお願いします	-16806
▁主	-16807
▁内	-16808
ウマ	-16809
デリ	-16810
ビッ	-16811
ブは	-16812
ーナ	-16813
包み	-16814
南の	-16815
同行	-16816
宮殿	-16817
心は	-16818
情況	-16819
捕捉	-16820
星の	-16821
臓器	-16822
.0%	-16823
▁製作	-16824
おいて	-16825
お互い	-16826
に来た	-16827
の後に	-16828
わかり	-16829
を使い	-16830
を務め	-16831
を打ち	-16832
アンの	-16833
キッズ	-16834
セルフ	-16835
ピッチ	-16836
ボジア	-16837
ポーツ	-16838
ユジン	-16839
ンスは	-16840
人ずつ	-16841
子供は	-16842
方向で	-16843
日本で	-16844
評価し	-16845
長さは	-16846
えてきた	-16847
お互いの	-16848
かなりの	-16849
を開催し	-16850
プライム	-16851
ヨンジャ	-16852
授賞式で	-16853
牛乳給食	-16854
精神健康	-16855
経営者総	-16856
誰よりも	-16857
金利連携	-16858
、2003	-16859
した状態で	-16860
クリスマス	-16861
表現の自由	-16862
進められる	-16863
金融委員会	-16864
電子タバコ	-16865
に行ってきた	-16866
労働者たちは	-16867
する恐れがある	-16868
プラットフォームで	-16869
ようにしたものである	-16870
98	-16871
のリ	-16872
ジが	-16873
委が	-16874
学院	-16875
復讐	-16876
湧き	-16877
示し	-16878
翌年	-16879
▁一番	-16880
こっそ	-16881
のシン	-16882
ほかに	-16883
を差し	-16884
タイト	-16885
上回る	-16886
不平等	-16887
中区の	-16888
困難を	-16889
彼らに	-16890
急速な	-16891
準大型	-16892
生活に	-16893
管理を	-16894
連絡が	-16895
に備える	-16896
を目的に	-16897
テックは	-16898
予測した	-16899
事業者は	-16900
副会長の	-16901
学校給食	-16902
証明した	-16903
▁2008	-16904
が提供する	-16905
してみよう	-16906
を引き起こ	-16907
を抑制する	-16908
を紹介した	-16909
悩んでいる	-16910
意味を持つ	-16911
検査の結果	-16912
生徒たちに	-16913
▁金融監督院	-16914
っという間に	-16915
影響を受ける	-16916
暮らしていた	-16917
ものと推定される	-16918
装置が開示される	-16919
se	-16920
一緒	-16921
前作	-16922
剥離	-16923
割れ	-16924
和合	-16925
型は	-16926
多孔	-16927
大の	-16928
太白	-16929
弾圧	-16930
空き	-16931
籠城	-16932
語で	-16933
躊躇	-16934
遊園	-16935
に乗る	-16936
に伝達	-16937
に反応	-16938
に陥る	-16939
ぶりだ	-16940
を交わ	-16941
コーダ	-16942
ベクト	-16943
ホンの	-16944
会長に	-16945
出演し	-16946
医師が	-16947
危機を	-16948
収益性	-16949
叫んだ	-16950
名前で	-16951
対象を	-16952
慎重な	-16953
民間の	-16954
湖北省	-16955
直前の	-16956
計器盤	-16957
運動は	-16958
1960	-16959
に加えて	-16960
わいせつ	-16961
を開いて	-16962
カセット	-16963
シャット	-16964
拡張現実	-16965
、1980	-16966
がより一層	-16967
ご家庭でも	-16968
であるキム	-16969
に重点を置	-16970
並んでいる	-16971
判断される	-16972
注目すべき	-16973
生きてきた	-16974
進めている	-16975
できるだろう	-16976
を作り出した	-16977
システム及び	-16978
労働者たちが	-16979
ホームページで	-16980
と新	-16981
に劣	-16982
を主	-16983
ギの	-16984
予期	-16985
共用	-16986
君は	-16987
基幹	-16988
天候	-16989
損益	-16990
橋は	-16991
献血	-16992
経て	-16993
要領	-16994
質疑	-16995
閲覧	-16996
類が	-16997
ont	-16998
▁民間	-16999
が生成	-17000
につく	-17001
に使う	-17002
もこの	-17003
も受け	-17004
を主題	-17005
を吸収	-17006
ウンジ	-17007
カルの	-17008
失った	-17009
奇妙な	-17010
感染病	-17011
抜けて	-17012
描かれ	-17013
無償で	-17014
独特の	-17015
現代車	-17016
真剣に	-17017
者数が	-17018
評価だ	-17019
▁最高裁	-17020
コンテナ	-17021
ファイン	-17022
フォール	-17023
マヒンド	-17024
信用情報	-17025
形成方法	-17026
成長率が	-17027
申込書を	-17028
療養病院	-17029
速やかに	-17030
重視する	-17031
▁1990	-17032
▁代わりに	-17033
という憂慮	-17034
を受けた後	-17035
を通過する	-17036
ギルバート	-17037
チューナー	-17038
プロセッサ	-17039
備えられた	-17040
市場である	-17041
繰り広げる	-17042
障害者雇用	-17043
できなければ	-17044
に住んでいる	-17045
インテリジェ	-17046
シートベルト	-17047
ースター航空	-17048
可能性があり	-17049
影響を与えた	-17050
効果を提供する	-17051
記者会見を行い	-17052
なければならないという	-17053
お父	-17054
すす	-17055
ケル	-17056
判別	-17057
有罪	-17058
波が	-17059
率で	-17060
看板	-17061
賭博	-17062
1・2	-17063
▁外国	-17064
▁新規	-17065
が爆発	-17066
が米国	-17067
の適用	-17068
はこれ	-17069
ガイン	-17070
ガーの	-17071
ビック	-17072
中国は	-17073
価格と	-17074
化学と	-17075
小学生	-17076
建物が	-17077
止めた	-17078
残りは	-17079
河川が	-17080
要因が	-17081
賃金が	-17082
退職金	-17083
重なり	-17084
高めて	-17085
麻浦区	-17086
▁保護者	-17087
うまくい	-17088
したうえ	-17089
どころか	-17090
を活性化	-17091
スタック	-17092
ハイマー	-17093
世の中に	-17094
役職員の	-17095
提供した	-17096
独歩的な	-17097
絶えない	-17098
から見ると	-17099
などである	-17100
ほかはない	-17101
を選択して	-17102
インベスト	-17103
営業利益は	-17104
申し訳ない	-17105
違いがある	-17106
▁ソウル市は	-17107
から抜け出す	-17108
しているのか	-17109
保護者の方は	-17110
機能を有する	-17111
大きくなっている	-17112
1、	-17113
▁@	-17114
▁『	-17115
せん	-17116
の端	-17117
を向	-17118
を消	-17119
コの	-17120
ヌン	-17121
万全	-17122
二人	-17123
出生	-17124
南区	-17125
書籍	-17126
節理	-17127
製紙	-17128
角形	-17129
青銅	-17130
領土	-17131
ant	-17132
になら	-17133
を送信	-17134
エータ	-17135
フィラ	-17136
マナー	-17137
会議の	-17138
全体に	-17139
共有し	-17140
勤める	-17141
区間は	-17142
地区の	-17143
年にも	-17144
歌った	-17145
永遠に	-17146
状況と	-17147
を入れて	-17148
モデルと	-17149
保護者は	-17150
執行猶予	-17151
施行する	-17152
相反する	-17153
絶対的な	-17154
都市鉄道	-17155
▁2009	-17156
お申し込み	-17157
これからは	-17158
している中	-17159
してもらう	-17160
を受けない	-17161
を見つけた	-17162
ウイルスの	-17163
コンソール	-17164
必ず必要な	-17165
自分たちが	-17166
▁その中でも	-17167
する場合には	-17168
とは関係なく	-17169
ミョンファン	-17170
化されている	-17171
を分析した結果	-17172
プロジェクトの	-17173
ということだった	-17174
回路に関するものだ	-17175
エンターテインメントは	-17176
▁ポ	-17177
些細	-17178
夢を	-17179
学業	-17180
家畜	-17181
従属	-17182
感光	-17183
探訪	-17184
断層	-17185
自尊	-17186
自負	-17187
選ぶ	-17188
金銭	-17189
首を	-17190
CGV	-17191
▁第四	-17192
が流入	-17193
ご了承	-17194
の後続	-17195
よって	-17196
を実践	-17197
ジョブ	-17198
他人に	-17199
付近で	-17200
代わり	-17201
任意の	-17202
惜しみ	-17203
施設は	-17204
法人が	-17205
濃度が	-17206
見ても	-17207
遮断器	-17208
頭取は	-17209
がないと	-17210
を要求し	-17211
ウォンと	-17212
シャトル	-17213
ソンジェ	-17214
ホテルで	-17215
ローンの	-17216
囲まれた	-17217
弁護士は	-17218
憩いの場	-17219
提供され	-17220
改正案が	-17221
物として	-17222
維持する	-17223
金融当局	-17224
9,000	-17225
▁トヨタは	-17226
ありがたい	-17227
ってくれた	-17228
ベンション	-17229
マッサージ	-17230
ランキング	-17231
流れている	-17232
▁今年に入って	-17233
を受け取ることができる	-17234
HP	-17235
▁李	-17236
の手	-17237
カブ	-17238
任せ	-17239
出捐	-17240
届け	-17241
拍手	-17242
正解	-17243
神が	-17244
科目	-17245
赤色	-17246
返し	-17247
金庫	-17248
離れ	-17249
IPO	-17250
USB	-17251
▁本来	-17252
が終了	-17253
に限定	-17254
の上の	-17255
ギャグ	-17256
以前は	-17257
契約書	-17258
密度が	-17259
時期が	-17260
構造だ	-17261
海外で	-17262
発見し	-17263
組立体	-17264
財団の	-17265
財団は	-17266
通信は	-17267
の疑いで	-17268
を把握し	-17269
出力する	-17270
的であり	-17271
が出てきて	-17272
と助言した	-17273
コーウェイ	-17274
サイエンス	-17275
ナンシャル	-17276
フィリピン	-17277
対象である	-17278
業界によると	-17279
装置及びその	-17280
に含まれている	-17281
訴訟を提起した	-17282
ナンバープレート	-17283
内容を盛り込んだ	-17284
基準金利引き下げ	-17285
自動車メーカーが	-17286
nm	-17287
▁広	-17288
ツツ	-17289
刑務	-17290
北極	-17291
商標	-17292
孤独	-17293
家と	-17294
戦う	-17295
楽器	-17296
注視	-17297
浄化	-17298
混在	-17299
特技	-17300
皮肉	-17301
祝い	-17302
編の	-17303
脱落	-17304
蒸発	-17305
訴え	-17306
金井	-17307
を駆動	-17308
シーク	-17309
ハンマ	-17310
互いの	-17311
再開発	-17312
切った	-17313
商品だ	-17314
山地が	-17315
戦略が	-17316
放射性	-17317
日付で	-17318
製品で	-17319
講師の	-17320
近距離	-17321
遅れた	-17322
開いた	-17323
▁今日の	-17324
への投資	-17325
ることだ	-17326
スケール	-17327
ダッシュ	-17328
世の中の	-17329
加入した	-17330
基礎資産	-17331
完成度を	-17332
知らせて	-17333
自己資本	-17334
議論する	-17335
▁ここには	-17336
が発生して	-17337
をベースに	-17338
を準備する	-17339
ダイレクト	-17340
当期純利益	-17341
技術の発展	-17342
部によると	-17343
しているので	-17344
勤労時間短縮	-17345
サービスの提供	-17346
インターネットの	-17347
サラ	-17348
三叉	-17349
件が	-17350
冗談	-17351
前は	-17352
含め	-17353
属性	-17354
島に	-17355
平ら	-17356
抗体	-17357
汽車	-17358
献身	-17359
耳目	-17360
費と	-17361
退屈	-17362
▁CN	-17363
の国内	-17364
の最終	-17365
は毎週	-17366
を依頼	-17367
ケイ素	-17368
ピオン	-17369
リンの	-17370
一帯は	-17371
事業部	-17372
内容と	-17373
場所は	-17374
揺れる	-17375
社会は	-17376
空間と	-17377
笑った	-17378
芸能人	-17379
隠れた	-17380
高さが	-17381
aceb	-17382
使用者に	-17383
創意的な	-17384
収益率を	-17385
小さくて	-17386
成り行き	-17387
文字通り	-17388
衝撃的な	-17389
適用する	-17390
▁ここでは	-17391
をしっかり	-17392
を装着した	-17393
定められた	-17394
お祈りします	-17395
とんでもない	-17396
ハッチバック	-17397
業界関係者は	-17398
が保有している	-17399
する方法および	-17400
と考えています	-17401
タワークレーン	-17402
プログラムである	-17403
が盛	-17404
っち	-17405
モチ	-17406
係数	-17407
出口	-17408
外郭	-17409
所だ	-17410
校長	-17411
歌唱	-17412
確か	-17413
競演	-17414
財界	-17415
還付	-17416
金で	-17417
霊岩	-17418
預託	-17419
▁来月	-17420
が設置	-17421
そうに	-17422
のかは	-17423
の大半	-17424
はんだ	-17425
アスダ	-17426
ピンの	-17427
ヨンス	-17428
以下で	-17429
伝導性	-17430
個別に	-17431
名前は	-17432
対話を	-17433
日以上	-17434
暖かく	-17435
警察は	-17436
速度と	-17437
関心が	-17438
▁以前は	-17439
かったが	-17440
から出る	-17441
つ以上の	-17442
クラッチ	-17443
ベルリン	-17444
乗り心地	-17445
ORAIL	-17446
▁忠清南道	-17447
えるように	-17448
しない場合	-17449
を通過した	-17450
アイフォン	-17451
勤労基準法	-17452
激しくなる	-17453
自動車販売	-17454
記録された	-17455
が発見された	-17456
プラズマ処理	-17457
人気を集めた	-17458
描かれている	-17459
治療を受けて	-17460
電気自動車は	-17461
を準備している	-17462
事故が発生した	-17463
確診判定を受けた	-17464
トレイルブレイザー	-17465
役割を果たしている	-17466
▁旧	-17467
むか	-17468
ボサ	-17469
利息	-17470
夫は	-17471
幅を	-17472
文で	-17473
殺害	-17474
派の	-17475
漂う	-17476
発想	-17477
転売	-17478
age	-17479
ice	-17480
▁ヤン	-17481
▁株式	-17482
▁町の	-17483
▁高い	-17484
ですね	-17485
の意志	-17486
フルト	-17487
リッツ	-17488
世界各	-17489
制度的	-17490
参考に	-17491
手軽に	-17492
方法論	-17493
生き残	-17494
確保し	-17495
肯定的	-17496
親しく	-17497
電子式	-17498
面所在	-17499
きれいで	-17500
りもする	-17501
シャフト	-17502
セクシー	-17503
作成した	-17504
保障する	-17505
勤労者と	-17506
化学反応	-17507
従業員が	-17508
手数料を	-17509
教育福祉	-17510
理事会の	-17511
▁フランス	-17512
が生まれた	-17513
しっかりと	-17514
する方法を	-17515
に加入した	-17516
を開始する	-17517
を開発する	-17518
キーボード	-17519
スタッフが	-17520
入力される	-17521
台を販売し	-17522
展開される	-17523
検出された	-17524
が少なくない	-17525
が現れている	-17526
が込められた	-17527
と比較すると	-17528
に適用された	-17529
をあらかじめ	-17530
デビューした	-17531
プロセッサー	-17532
間違っている	-17533
acebook	-17534
することにある	-17535
感染者が発生した	-17536
システムおよびその	-17537
するものと予想される	-17538
BO	-17539
Co	-17540
FA	-17541
RC	-17542
イは	-17543
ジム	-17544
ミド	-17545
冠岳	-17546
切削	-17547
大事	-17548
客室	-17549
師匠	-17550
形だ	-17551
恋人	-17552
産婦	-17553
種目	-17554
納得	-17555
軽油	-17556
響き	-17557
old	-17558
▁ウィ	-17559
▁調査	-17560
が強く	-17561
が生息	-17562
ほどに	-17563
を前提	-17564
を扱う	-17565
不足で	-17566
交通の	-17567
動画を	-17568
新世界	-17569
特性と	-17570
経った	-17571
蟾津江	-17572
面白さ	-17573
▁実際の	-17574
いません	-17575
がどんな	-17576
たんぱく	-17577
で新しい	-17578
を出して	-17579
モンゴル	-17580
全数調査	-17581
国である	-17582
姿を見せ	-17583
就業規則	-17584
年生まれ	-17585
移動手段	-17586
議論した	-17587
できる機会	-17588
に合わせた	-17589
価格の上昇	-17590
になっていた	-17591
アクセサリー	-17592
リーディング	-17593
に対する期待感	-17594
アクチュエータ	-17595
日本の輸出規制	-17596
くっ	-17597
を率	-17598
シス	-17599
ビが	-17600
モの	-17601
不快	-17602
与党	-17603
倍の	-17604
山間	-17605
機を	-17606
歳で	-17607
興奮	-17608
葉樹	-17609
触発	-17610
起業	-17611
送出	-17612
FTA	-17613
▁主な	-17614
▁新車	-17615
と定義	-17616
に会う	-17617
わせて	-17618
ジウン	-17619
ヶ月に	-17620
人物だ	-17621
価格も	-17622
場所だ	-17623
悩みを	-17624
成分の	-17625
指数の	-17626
産業界	-17627
規定を	-17628
ight	-17629
シャワー	-17630
セールス	-17631
交換機の	-17632
例のない	-17633
基本所得	-17634
月基準で	-17635
有給休暇	-17636
来月から	-17637
物である	-17638
▁2014	-17639
が高くなる	-17640
しましたが	-17641
を購入した	-17642
バランスの	-17643
報告された	-17644
東西方向に	-17645
に対する懸念	-17646
発達している	-17647
提出してください	-17648
しなければならないと	-17649
QR	-17650
RV	-17651
▁[	-17652
うわ	-17653
とス	-17654
並み	-17655
効力	-17656
叫び	-17657
地裁	-17658
大乱	-17659
安城	-17660
常用	-17661
怒り	-17662
本で	-17663
無期	-17664
物資	-17665
空の	-17666
の表面	-17667
を思い	-17668
保護樹	-17669
可否を	-17670
問題も	-17671
年以来	-17672
改善し	-17673
期には	-17674
本社の	-17675
概念を	-17676
構造的	-17677
海岸の	-17678
産業に	-17679
競争で	-17680
英語の	-17681
製品群	-17682
規模な	-17683
観客に	-17684
解像度	-17685
警察庁	-17686
農産物	-17687
長官が	-17688
、500	-17689
が重要な	-17690
そのため	-17691
をしても	-17692
シャープ	-17693
ピクセル	-17694
一生懸命	-17695
保健医療	-17696
吐露した	-17697
家庭でも	-17698
形成して	-17699
持ちこた	-17700
最高経営	-17701
死亡者が	-17702
画期的な	-17703
需要調査	-17704
いろいろな	-17705
が変わった	-17706
だと言って	-17707
を実現する	-17708
を最小化し	-17709
カカオペイ	-17710
シリーズは	-17711
ハンコック	-17712
フォードは	-17713
ブラインド	-17714
ワクチンの	-17715
提示された	-17716
未然に防止	-17717
民主労総の	-17718
社会的弱者	-17719
過程を経て	-17720
が反映された	-17721
に対する信頼	-17722
クライスラー	-17723
マトリックス	-17724
フランクフルト	-17725
に乗り出している	-17726
ルノーサムスン自動車の	-17727
ずら	-17728
に努	-17729
ペル	-17730
不在	-17731
公立	-17732
善良	-17733
差等	-17734
沈黙	-17735
熱愛	-17736
燃や	-17737
皆の	-17738
磨き	-17739
道で	-17740
類は	-17741
▁投資	-17742
きれい	-17743
っしり	-17744
と一致	-17745
と社会	-17746
グォン	-17747
供給が	-17748
公園は	-17749
台まで	-17750
国民に	-17751
学生と	-17752
実力を	-17753
年末に	-17754
座って	-17755
意思を	-17756
文在寅	-17757
本社で	-17758
直前に	-17759
第一歩	-17760
非公開	-17761
韓国型	-17762
飛んで	-17763
▁子供の	-17764
▁最初は	-17765
いますが	-17766
が占める	-17767
しないで	-17768
ちゃんと	-17769
と言えば	-17770
に遭った	-17771
の一部の	-17772
リセット	-17773
予想され	-17774
作り出す	-17775
収集した	-17776
告白した	-17777
新規採用	-17778
発行する	-17779
▁そのうち	-17780
として認識	-17781
高速道路が	-17782
▁そのように	-17783
そうではない	-17784
であるためだ	-17785
キックボード	-17786
理解できない	-17787
ワークショップ	-17788
川が流れている	-17789
ものと期待している	-17790
-2	-17791
に次	-17792
シワ	-17793
交互	-17794
偽造	-17795
初心	-17796
包容	-17797
名声	-17798
奇岩	-17799
実名	-17800
暖か	-17801
有し	-17802
溶媒	-17803
独創	-17804
若年	-17805
を設計	-17806
アイオ	-17807
グリル	-17808
ハート	-17809
バルト	-17810
ユダヤ	-17811
不安感	-17812
作業は	-17813
健全性	-17814
悩んだ	-17815
果敢な	-17816
歳以上	-17817
者たち	-17818
葛藤が	-17819
▁二つの	-17820
が互いに	-17821
としたら	-17822
を分析し	-17823
クワトロ	-17824
チョルが	-17825
以前から	-17826
企業銀行	-17827
分かれる	-17828
動作する	-17829
国内でも	-17830
海外進出	-17831
渡された	-17832
無償点検	-17833
秋夕連休	-17834
ことを受け	-17835
したときに	-17836
に分かれる	-17837
を与えない	-17838
を主導した	-17839
エーション	-17840
データ分析	-17841
ヴェニュー	-17842
偏向ヨーク	-17843
固定された	-17844
対象にした	-17845
活用される	-17846
総合不動産	-17847
行っている	-17848
などによると	-17849
インストール	-17850
物流センター	-17851
に関心を持って	-17852
使用されている	-17853
構成されている	-17854
できるようになり	-17855
プラットフォームは	-17856
々が	-17857
ずる	-17858
プン	-17859
伝授	-17860
唐辛	-17861
席の	-17862
悪口	-17863
意気	-17864
憂鬱	-17865
月は	-17866
死の	-17867
質的	-17868
避暑	-17869
量に	-17870
KEB	-17871
all	-17872
が実現	-17873
で運営	-17874
ないし	-17875
べきか	-17876
を一部	-17877
を請求	-17878
似合う	-17879
収集し	-17880
提供し	-17881
月にも	-17882
水準が	-17883
程度だ	-17884
空気が	-17885
農耕地	-17886
選定し	-17887
黄色い	-17888
1998	-17889
orea	-17890
の一つが	-17891
を狙った	-17892
コーダー	-17893
働き口の	-17894
日ぶりに	-17895
普段から	-17896
理想的な	-17897
部門では	-17898
学生たちに	-17899
になっており	-17900
地方自治体の	-17901
排除できない	-17902
よく知っている	-17903
▁このような構成	-17904
ボランティア活動	-17905
ようお願いいたします	-17906
まね	-17907
アセ	-17908
グム	-17909
国策	-17910
垂れ	-17911
士は	-17912
川郡	-17913
工芸	-17914
攻勢	-17915
橋が	-17916
直感	-17917
落下	-17918
薬の	-17919
13%	-17920
ADA	-17921
act	-17922
▁21	-17923
どこに	-17924
に見舞	-17925
まとも	-17926
カール	-17927
タスク	-17928
バイン	-17929
ベンチ	-17930
ロビー	-17931
世帯に	-17932
中小型	-17933
余力が	-17934
価値は	-17935
動きが	-17936
同じだ	-17937
回数が	-17938
教師は	-17939
有力な	-17940
植物が	-17941
無制限	-17942
無限の	-17943
程度に	-17944
精密な	-17945
議員の	-17946
進めた	-17947
過負荷	-17948
道徳的	-17949
ものだと	-17950
イスラム	-17951
クーポン	-17952
古くから	-17953
役職員が	-17954
技術革新	-17955
攻撃的な	-17956
日基準で	-17957
生き生き	-17958
生態系の	-17959
立たない	-17960
自宅隔離	-17961
買い越し	-17962
運ばれた	-17963
KOSPI	-17964
が位置する	-17965
この過程で	-17966
するときに	-17967
といっても	-17968
スタッフは	-17969
ユーザーに	-17970
発見される	-17971
開催される	-17972
したとすれば	-17973
ジェネシスの	-17974
アプリを通じて	-17975
が開示されている	-17976
ありがとうございます	-17977
WD	-17978
▁雲	-17979
ぐら	-17980
つな	-17981
トス	-17982
ハニ	-17983
レッ	-17984
京仁	-17985
市に	-17986
明白	-17987
時頃	-17988
枯渇	-17989
観戦	-17990
陸上	-17991
▁先週	-17992
に立ち	-17993
の規模	-17994
を統合	-17995
を買う	-17996
アラム	-17997
エコノ	-17998
ジウム	-17999
ムード	-18000
世代が	-18001
事故が	-18002
労働の	-18003
半島の	-18004
大衆に	-18005
崩れる	-18006
市場と	-18007
強力に	-18008
悲しみ	-18009
無期限	-18010
瑞草区	-18011
番号を	-18012
相手が	-18013
行為の	-18014
訪問客	-18015
認めて	-18016
越えた	-18017
▁外国人	-18018
マックス	-18019
保険金を	-18020
勤務する	-18021
地域住民	-18022
場合にも	-18023
増加させ	-18024
有価証券	-18025
柔らかい	-18026
金属配線	-18027
インタラク	-18028
働き口創出	-18029
場合がある	-18030
年が過ぎた	-18031
費用を節減	-18032
いただければ	-18033
がなくなった	-18034
向上のために	-18035
販売している	-18036
に熱	-18037
はイ	-18038
ロク	-18039
命名	-18040
定員	-18041
対価	-18042
愉快	-18043
感受	-18044
成就	-18045
欠点	-18046
漢拏	-18047
生理	-18048
買入	-18049
起源	-18050
▁芸術	-18051
つけて	-18052
に感謝	-18053
に挿入	-18054
に移送	-18055
ガバナ	-18056
シクは	-18057
ドラム	-18058
ビルの	-18059
ピアノ	-18060
仕事の	-18061
売上の	-18062
大学と	-18063
密度を	-18064
日本が	-18065
材料を	-18066
若干の	-18067
行けば	-18068
表現し	-18069
製品に	-18070
込まれ	-18071
食中毒	-18072
にもなる	-18073
を契機に	-18074
人であり	-18075
利用した	-18076
効率性を	-18077
隣接する	-18078
▁忠清北道	-18079
に投資する	-18080
を共有する	-18081
価値がある	-18082
振り返って	-18083
金土ドラマ	-18084
これといった	-18085
と関連がある	-18086
に焦点を当て	-18087
したというのが	-18088
エレクトリック	-18089
モールディング	-18090
参加を希望する	-18091
らう	-18092
半月	-18093
因子	-18094
学歴	-18095
才の	-18096
数え	-18097
族の	-18098
泥棒	-18099
用い	-18100
目覚	-18101
章で	-18102
達は	-18103
OCN	-18104
ort	-18105
▁14	-18106
▁チュ	-18107
さずに	-18108
にだけ	-18109
を帯び	-18110
を捨て	-18111
一帯に	-18112
備えて	-18113
経済は	-18114
討論会	-18115
資料の	-18116
酒を飲	-18117
金融が	-18118
▁本論文	-18119
かわいい	-18120
する段階	-18121
とされる	-18122
に戻った	-18123
を抜いて	-18124
を育てる	-18125
リンカー	-18126
ロシアの	-18127
上がると	-18128
公認認証	-18129
卓越した	-18130
反映して	-18131
回転する	-18132
検査結果	-18133
汝矣島の	-18134
紛争調整	-18135
訪問して	-18136
▁それでは	-18137
▁スポーツ	-18138
▁一般的な	-18139
、2004	-18140
が終われば	-18141
を購入する	-18142
ソウル鍾路	-18143
万ウォンと	-18144
導入される	-18145
感染症予防	-18146
憂慮される	-18147
環境の変化	-18148
スタートした	-18149
ロマンチック	-18150
見せてくれる	-18151
金融サービス	-18152
関心が集まる	-18153
コンベンション	-18154
ホームページに	-18155
水素電気自動車	-18156
を繰り広げている	-18157
~4	-18158
▁冬	-18159
▁次	-18160
カギ	-18161
ニコ	-18162
リブ	-18163
古墳	-18164
司会	-18165
役の	-18166
慰労	-18167
捕ら	-18168
梅雨	-18169
決算	-18170
眠り	-18171
至急	-18172
近況	-18173
3.5	-18174
▁GT	-18175
▁京畿	-18176
いるが	-18177
に分け	-18178
に分散	-18179
の中型	-18180
の女王	-18181
の限界	-18182
タング	-18183
ットは	-18184
レバー	-18185
争って	-18186
体制の	-18187
公式に	-18188
国家が	-18189
多数が	-18190
専門の	-18191
戦略の	-18192
抗生剤	-18193
施設で	-18194
昨年は	-18195
活動で	-18196
管理者	-18197
角度を	-18198
需要の	-18199
馬力の	-18200
1997	-18201
▁Pro	-18202
▁大統領	-18203
がすべて	-18204
と異なる	-18205
なのかを	-18206
の勢いが	-18207
を背景に	-18208
アシスト	-18209
ウォンを	-18210
データと	-18211
トリップ	-18212
レーシア	-18213
低下する	-18214
共同体の	-18215
写真を撮	-18216
切り替え	-18217
勤労者は	-18218
場合でも	-18219
安全保障	-18220
最近では	-18221
有意義な	-18222
生活習慣	-18223
▁ドイツの	-18224
したことは	-18225
に集中する	-18226
カンボジア	-18227
問題になる	-18228
時間を過ご	-18229
▁専門家らは	-18230
に関する研究	-18231
を行った結果	-18232
ユープラスの	-18233
信頼性の高い	-18234
回にわたって	-18235
契約を結んだ	-18236
だということを	-18237
ポッドキャスト	-18238
が今	-18239
に役	-18240
を移	-18241
受益	-18242
家屋	-18243
拒絶	-18244
攻防	-18245
数日	-18246
殿堂	-18247
漏電	-18248
漢方	-18249
牽制	-18250
犬の	-18251
臨界	-18252
課長	-18253
TOP	-18254
ide	-18255
▁Ch	-18256
が変わ	-18257
と健康	-18258
の背景	-18259
エージ	-18260
マーの	-18261
充放電	-18262
化学が	-18263
反対の	-18264
接種の	-18265
接触者	-18266
材料は	-18267
権利を	-18268
権力を	-18269
空気圧	-18270
競合他	-18271
証券は	-18272
除いた	-18273
しません	-18274
できれば	-18275
に座って	-18276
の割合が	-18277
を一度に	-18278
テスラの	-18279
保護者に	-18280
客観的な	-18281
改善する	-18282
減少傾向	-18283
隔離解除	-18284
非常事態	-18285
そのものが	-18286
になっても	-18287
の重要性を	-18288
を発売する	-18289
イベントで	-18290
保健当局は	-18291
問題として	-18292
回っている	-18293
課題として	-18294
しております	-18295
というよりは	-18296
ハンドリング	-18297
機能を備えた	-18298
わけではないが	-18299
モバイルゲーム	-18300
効果が得られる	-18301
されることを特徴とする	-18302
3〜	-18303
AG	-18304
DJ	-18305
だめ	-18306
ツバ	-18307
丁寧	-18308
主婦	-18309
初頭	-18310
同調	-18311
外来	-18312
師の	-18313
引受	-18314
往来	-18315
心境	-18316
木が	-18317
楽観	-18318
産卵	-18319
病室	-18320
着工	-18321
継ぎ	-18322
航海	-18323
豪雨	-18324
CMP	-18325
Int	-18326
▁彼ら	-18327
▁江陵	-18328
ていく	-18329
の大衆	-18330
の確認	-18331
を攻撃	-18332
キーの	-18333
世界観	-18334
交渉が	-18335
個別の	-18336
市場も	-18337
損失を	-18338
曲がり	-18339
条件は	-18340
法案が	-18341
点検し	-18342
物量の	-18343
疑惑が	-18344
製品だ	-18345
豊かに	-18346
部材の	-18347
顧客を	-18348
▁ある日	-18349
させた後	-18350
ばかりの	-18351
を作成し	-18352
ジェガプ	-18353
万ドルの	-18354
人が多く	-18355
後部座席	-18356
悪化する	-18357
憂慮した	-18358
知らずに	-18359
をテーマに	-18360
ファックス	-18361
満足できる	-18362
販売台数の	-18363
を作っていく	-18364
チャンピオン	-18365
支援システム	-18366
研究チームが	-18367
自動車業界の	-18368
インピーダンス	-18369
バラエティ番組	-18370
させることにより	-18371
回路に関するもので	-18372
5」	-18373
Ah	-18374
スミ	-18375
位圏	-18376
光陽	-18377
出現	-18378
出金	-18379
国と	-18380
帰浦	-18381
松亭	-18382
気流	-18383
水深	-18384
現職	-18385
管内	-18386
製の	-18387
西の	-18388
進学	-18389
院で	-18390
270	-18391
▁日帝	-18392
が開通	-18393
も可能	-18394
を主に	-18395
を交換	-18396
を増幅	-18397
シャツ	-18398
チョコ	-18399
プロー	-18400
中にも	-18401
家族と	-18402
山の麓	-18403
振り込	-18404
起こり	-18405
Mnet	-18406
ance	-18407
に合わせ	-18408
の内容を	-18409
まで続く	-18410
をしたが	-18411
ファンと	-18412
ロイヤル	-18413
号である	-18414
法の改正	-18415
研究院が	-18416
突破した	-18417
表わした	-18418
通過する	-18419
が疑われる	-18420
を除いては	-18421
ライセンス	-18422
参加できる	-18423
足を引っ張	-18424
などのような	-18425
日に開かれた	-18426
ことになります	-18427
プロジェクトは	-18428
いたいと思います	-18429
インターチェンジ	-18430
とのインタビューで	-18431
qu	-18432
ああ	-18433
人中	-18434
屏風	-18435
日も	-18436
時給	-18437
植生	-18438
横ば	-18439
深化	-18440
状に	-18441
空調	-18442
行方	-18443
難航	-18444
▁"「	-18445
▁女優	-18446
が一致	-18447
が不便	-18448
の判断	-18449
の性能	-18450
を意味	-18451
を言い	-18452
アンチ	-18453
エルが	-18454
エント	-18455
オペラ	-18456
シクが	-18457
ソンと	-18458
ッシブ	-18459
トロン	-18460
プレッ	-18461
全力を	-18462
効果も	-18463
大いに	-18464
廃棄物	-18465
形式の	-18466
形状の	-18467
教育部	-18468
数学的	-18469
画面が	-18470
真っ最	-18471
製品や	-18472
配置し	-18473
間隔で	-18474
関節炎	-18475
電線の	-18476
NAND	-18477
▁いくら	-18478
など各種	-18479
を導入し	-18480
を選んで	-18481
事業部門	-18482
労使民政	-18483
労働界が	-18484
同クラス	-18485
支給した	-18486
明らかな	-18487
月までの	-18488
有機発光	-18489
置かれた	-18490
角型電池	-18491
▁企画財政	-18492
ことを防止	-18493
だと考える	-18494
どれくらい	-18495
を支持する	-18496
人気が高い	-18497
企業として	-18498
公共部門の	-18499
実施された	-18500
戻ってきた	-18501
燃料電池の	-18502
評価される	-18503
ビューティー	-18504
インターナショナル	-18505
2「	-18506
カレ	-18507
会合	-18508
北側	-18509
喧嘩	-18510
塗装	-18511
夕食	-18512
所蔵	-18513
政務	-18514
救命	-18515
気の	-18516
液の	-18517
給料	-18518
見慣	-18519
覚悟	-18520
角を	-18521
造形	-18522
郡道	-18523
APP	-18524
▁車両	-18525
が不要	-18526
だとし	-18527
の投資	-18528
を招く	-18529
ダード	-18530
マット	-18531
ラッチ	-18532
付いて	-18533
公団が	-18534
出会う	-18535
当然の	-18536
料金の	-18537
画像を	-18538
真実を	-18539
補佐官	-18540
設ける	-18541
銀行圏	-18542
項目の	-18543
が起こり	-18544
アフター	-18545
ジョンは	-18546
ホテルの	-18547
リソース	-18548
核心的な	-18549
測定した	-18550
相関関係	-18551
が広がった	-18552
でもあった	-18553
を採用した	-18554
を獲得した	-18555
を開催する	-18556
前年同月比	-18557
支給された	-18558
改正された	-18559
決められた	-18560
人が参加した	-18561
呼吸器症候群	-18562
特別雇用支援	-18563
シャットダウン	-18564
ディスカバリー	-18565
製造方法に関するものだ	-18566
制御方法に関するものである	-18567
SB	-18568
と接	-18569
に格	-18570
を救	-18571
ビの	-18572
会場	-18573
伽倻	-18574
入る	-18575
市で	-18576
様は	-18577
焼成	-18578
熱電	-18579
監察	-18580
種で	-18581
絶望	-18582
繁栄	-18583
色彩	-18584
転職	-18585
金浦	-18586
PDP	-18587
ung	-18588
々しく	-18589
が入る	-18590
の半分	-18591
の変更	-18592
の憂慮	-18593
の関係	-18594
ませる	-18595
パレス	-18596
ワイド	-18597
付近に	-18598
周辺で	-18599
季節に	-18600
展示館	-18601
痛みが	-18602
発電所	-18603
軍奮闘	-18604
魅力で	-18605
▁特定の	-18606
で有名な	-18607
を増やし	-18608
を感じた	-18609
スパーク	-18610
判決した	-18611
勤労者を	-18612
増えると	-18613
感のある	-18614
放送受信	-18615
経済的に	-18616
都市計画	-18617
金融取引	-18618
▁ハンファ	-18619
させられる	-18620
天然記念物	-18621
惜しまない	-18622
次世界大戦	-18623
説明である	-18624
が必要であり	-18625
したりもする	-18626
などに関する	-18627
キャプチャー	-18628
セッティング	-18629
かもしれません	-18630
サムスン電子は	-18631
することが可能な	-18632
脚光を浴びている	-18633
LB	-18634
TR	-18635
せっ	-18636
ニロ	-18637
力も	-18638
卸売	-18639
国庫	-18640
変位	-18641
昇降	-18642
波形	-18643
議長	-18644
路を	-18645
▁ポン	-18646
が共同	-18647
が延期	-18648
の不振	-18649
の現場	-18650
はなく	-18651
を経由	-18652
ダムの	-18653
バリア	-18654
パッチ	-18655
原子炉	-18656
地位を	-18657
山には	-18658
市街地	-18659
息子を	-18660
成長が	-18661
排気量	-18662
文書を	-18663
運転の	-18664
道内の	-18665
電話で	-18666
▁ここは	-18667
いちいち	-18668
が発達し	-18669
ひっくり	-18670
をめぐる	-18671
シンボル	-18672
スタント	-18673
スリラー	-18674
年からは	-18675
支援金は	-18676
だと言える	-18677
にとっては	-18678
を除去する	-18679
ベントレー	-18680
学生たちは	-18681
発生させる	-18682
パンデミック	-18683
国内で初めて	-18684
地方自治体が	-18685
置かれている	-18686
集中している	-18687
ことを願います	-18688
お願い申し上げます	-18689
いかなければならない	-18690
)・	-18691
2-	-18692
91	-18693
AD	-18694
PF	-18695
TI	-18696
WM	-18697
▁<	-18698
▁江	-18699
で一	-18700
ゲノ	-18701
不信	-18702
千人	-18703
姿と	-18704
忠誠	-18705
政界	-18706
熱帯	-18707
笑う	-18708
譲歩	-18709
跳び	-18710
▁職場	-18711
ある日	-18712
お金が	-18713
から約	-18714
の発表	-18715
をかぶ	-18716
を観察	-18717
を説明	-18718
ドンウ	-18719
バスを	-18720
ヒョナ	-18721
メイク	-18722
ヨンと	-18723
乳幼児	-18724
対策が	-18725
減って	-18726
管内の	-18727
者らは	-18728
記録簿	-18729
過電流	-18730
部署の	-18731
▁私たち	-18732
という名	-18733
エリート	-18734
カメラで	-18735
ジャング	-18736
ノクドゥ	-18737
加入者は	-18738
取引所の	-18739
営業損失	-18740
審査委員	-18741
案内する	-18742
知られる	-18743
自動車に	-18744
1,500	-18745
▁おかげで	-18746
▁市場では	-18747
モデリング	-18748
ンジャーズ	-18749
低下させる	-18750
同じように	-18751
排出される	-18752
推進される	-18753
残念ながら	-18754
特殊雇用職	-18755
目的を達成	-18756
表示装置の	-18757
▁これまでは	-18758
パートナーズ	-18759
申し上げたい	-18760
裁判所の判決	-18761
チャットボット	-18762
兆ウォン規模の	-18763
活性化のために	-18764
することを決めた	-18765
[...]
