. 1345701
, 587888
▁수 206689
▁있다 205307
의 165762
▁' 159903
에 152773
' 147437
▁" 127395
이 118422
을 112706
▁있는 106460
은 103503
" 101047
과 93572
일 88453
가 86140
도 84904
는 83464
에서 82057
▁이 77036
· 76444
▁본 76051
▁등 75447
고 74225
로 74024
( 73969
▁것이다 73519
를 72513
한 69841
▁및 69634
) 68120
으로 66457
년 64382
인 63094
와 60931
▁1 60003
하는 59001
▁한 57309
하고 56447
▁것으로 55272
할 52857
만 51983
▁그 51637
해 49291
월 48163
▁대한 48020
▁2 45849
▁한다 45641
▁관한 45567
▁3 43733
지 43704
▁발명은 42174
▁위해 41663
▁통해 40082
했다 39645
기 39560
이다 35238
▁중 35196
된 34535
자 33964
▁따라 33555
▁ 33363
▁5 33288
▁위한 33270
에는 33265
다 33123
▁더 32879
▁4 32788
대 32359
시 32156
▁전 30591
한다 30348
▁하는 30339
나 30080
까지 29347
▁같은 28648
▁지난 28454
적 28159
며 27766
▁경우 27541
하여 27466
들이 27231
▁할 27119
." 26658
하게 26624
▁10 26574
▁했다 26424
▁함께 26168
사 26080
성 26001
▁것이 25980
▁때 25896
▁밝혔다 25864
이나 25698
▁다른 25438
▁것을 25089
에서는 24618
▁두 24392
리 24037
수 23865
▁6 23711
▁후 23667
▁특히 23543
개 23478
▁시 23451
▁가장 23434
▁있도록 23125
▁내 23072
▁제 22865
하기 22861
▁많은 22839
▁것 22626
이라고 22544
▁또 22489
▁국내 22200
▁때문에 22188
하지 21960
▁말했다 21906
▁또한 21842
서 21685
▁등을 21652
▁것은 21468
되는 20976
- 20681
차 20674
▁큰 20669
형 20615
적인 20539
19 20512
주 20361
화 20330
▁코로나 20125
용 19987
스 19922
부 19757
하며 19730
▁다양한 19657
▁자동차 19573
▁주 19523
▁7 19025
▁이후 18947
원 18917
면 18608
▁지 18488
장 18354
▁된다 18173
▁있어 18081
동 17998
▁한국 17859
▁등이 17613
▁대해 17574
▁약 17554
2 17452
▁하지만 17424
▁이를 17390
▁정 17379
보다 17373
▁8 17261
어 17150
산 17086
비 16915
▁기 16865
상 16711
진 16651
▁9 16614
에도 16532
적으로 16519
▁고 16507
세 16393
명 16329
▁이에 16316
라는 16239
해야 16185
▁해 16182
▁등의 16181
▁있다는 16174
라고 16140
▁사 16104
에게 16097
▁있으며 16062
▁일 15992
제 15978
▁안 15888
▁최근 15814
▁이상 15744
▁관련 15718
▁없는 15691
▁모든 15675
조 15666
▁이번 15597
▁가운데 15539
라 15354
▁때문이다 15323
전 15305
▁원 15290
▁높은 15269
▁대 15245
되어 15233
▁새로운 15201
소 15171
▁아니라 15162
▁있고 15038
하면서 15021
▁비 14984
▁지난해 14970
아 14945
게 14935
▁모두 14737
▁그러나 14672
▁총 14558
▁잘 14509
될 14503
구 14496
▁다 14441
▁게 14406
▁그리고 14386
들은 14364
▁가 14353
▁이어 14349
▁따르면 14321
이라는 14298
정 14268
들을 14242
선 14211
▁미국 14132
천 14084
▁조 14059
▁유 14052
하면 14037
▁A 13899
▁하고 13874
▁올해 13860
▁서울 13846
▁없다 13785
▁될 13783
▁신 13780
▁부 13778
▁소 13764
▁현재 13694
여 13667
▁미 13586
▁세 13563
▁연 13490
▁하 13454
들의 13433
▁데 13404
▁따른 13385
회 13380
된다 13346
▁있었다 13333
▁20 13269
▁따라서 13259
▁이날 13159
자가 13141
▁많이 13054
미 13046
▁각 13038
▁또는 12971
됐다 12938
치 12921
▁반도체 12899
단 12856
▁12 12841
되고 12780
기를 12644
3 12560
성을 12559
1 12467
▁오 12444
▁단 12374
▁11 12343
▁서 12289
▁상 12231
▁공 12078
들 12058
▁자 12048
▁직접 12011
▁이런 11931
부터 11899
▁도 11886
▁장 11871
트 11774
▁다시 11746
신 11744
보 11731
식 11701
▁우리 11698
▁동 11652
▁구 11625
▁서비스 11614
▁않고 11606
▁지원 11529
▁있습니다 11515
마 11482
우 11447
▁재 11435
▁보 11419
▁교육 11417
m 11388
▁더욱 11321
야 11310
▁어떤 11254
▁중국 11250
▁세계 11233
▁그는 11193
▁선 11133
▁첫 11106
▁같이 11087
▁이러한 11084
당 11078
성이 11034
위 11029
▁김 11028
▁제공한다 10968
돼 10953
▁않은 10942
▁여러 10929
▁인 10910
면서 10888
▁강 10877
▁지역 10869
기에 10825
▁열 10817
▁기업 10806
▁있을 10797
▁바랍니다 10737
G 10677
지는 10653
▁판매 10636
▁30 10589
▁간 10543
▁말 10509
에서도 10493
▁산 10486
처럼 10452
재 10296
다는 10295
▁최대 10265
억 10253
▁관계자는 10228
▁뒤 10196
호 10141
▁글로벌 10140
분 10122
▁의해 10121
명이 10101
▁금융 10100
▁만큼 10092
드 10079
▁볼 10072
▁아 10071
금 10069
법 10061
공 10020
연 10007
▁사업 9999
▁성 9989
▁기존 9952
하 9940
실 9939
▁차 9909
▁된 9908
물 9876
▁진 9856
▁연구 9853
▁결과 9851
▁알 9834
▁합니다 9805
▁기술 9793
중 9785
▁양 9776
계 9767
오 9760
▁해당 9757
하였다 9746
던 9735
모 9645
▁반 9629
▁한편 9618
▁무 9559
▁동안 9547
6 9514
지를 9508
▁투자 9500
▁생산 9499
▁모 9474
질 9444
▁크게 9431
▁사용 9420
기가 9417
관 9394
▁않는 9380
5 9373
요 9357
▁바 9351
▁초 9342
▁제조 9320
▁LG 9288
▁주요 9266
경 9248
유 9220
했던 9210
▁새 9187
▁나 9180
▁마을 9146
▁있다고 9126
자의 9115
▁상기 9099
▁학교 9098
▁일부 9057
▁보고 9055
▁시장 9013
▁저 9002
▁설명했다 9000
하다 8991
▁예정이다 8945
▁개발 8934
지만 8902
▁없이 8894
▁불 8882
자는 8867
▁영화 8856
▁마 8852
내 8813
▁노 8801
▁효과가 8780
되지 8758
영 8750
▁피 8739
리는 8739
▁오는 8716
▁입 8705
▁남 8699
▁이는 8696
▁가능한 8693
배 8690
▁방법에 8679
다고 8669
▁15 8643
방 8643
파 8623
자를 8612
안 8592
권 8581
▁개 8575
▁경 8575
▁광 8569
▁필요한 8569
▁온라인 8545
▁디지털 8543
▁박 8537
무 8535
▁배우 8532
▁보인다 8517
▁배 8510
▁있게 8484
▁물론 8472
이며 8462
4 8457
▁영향을 8456
▁대상으로 8455
▁제공하는 8407
▁운영 8393
▁역시 8374
간 8318
▁문 8313
▁여 8307
▁서비스를 8302
▁달 8269
▁등에 8264
체 8208
▁차량 8187
▁대비 8146
▁들어 8122
▁고용 8083
현 8071
▁매우 8069
▁되는 8041
7 8007
▁전체 7999
억원 7991
▁물 7990
C 7959
▁당시 7958
▁건 7955
되었다 7954
▁경제 7897
였다 7896
감 7892
▁추가 7886
▁가능성이 7884
▁자신의 7863
군 7863
▁100 7859
국 7835
▁분 7826
니 7790
문 7767
▁산업 7755
▁이동 7753
▁발생 7744
▁심 7714
▁고안은 7695
▁동시에 7692
▁줄 7690
▁SUV 7687
▁이용 7677
▁사람이 7671
A 7667
▁파 7655
▁전기 7653
석 7645
▁가지 7639
사가 7636
▁온 7634
▁앞서 7625
시간 7618
▁18 7588
포 7586
교 7575
▁교 7570
▁위 7559
기는 7557
했고 7539
D 7529
▁발명에 7528
▁화 7490
8 7488
▁좋은 7481
▁어 7473
▁이미 7471
히 7469
▁보다 7458
하도록 7455
▁인해 7452
▁일본 7431
▁신종 7420
▁통신 7401
▁매 7398
러 7370
▁전자 7365
디 7362
▁각각 7359
▁방송 7353
이었다 7336
▁등으로 7334
지가 7317
▁게임 7309
▁명 7309
▁바로 7299
▁관리 7284
▁실제 7272
▁의 7272
▁일반 7270
강 7267
▁외 7221
▁지난달 7219
했다고 7218
▁해외 7216
별 7180
▁수도 7164
▁부산 7160
▁정보를 7145
▁데이터 7140
이라 7128
점 7104
▁19 7088
민 7078
▁있지만 7038
거나 7037
▁감 7025
▁진행 7023
▁13 7010
하거나 6993
▁안전 6985
▁속 6977
▁거 6966
▁16 6955
▁실 6933
▁S 6930
티 6928
', 6918
▁정부가 6918
기도 6906
그 6899
▁개인 6843
S 6826
양 6816
▁국가 6805
되면서 6792
▁용 6780
란 6772
▁만 6766
학 6758
이고 6745
일부터 6740
▁됐다 6735
터 6735
▁리 6732
대로 6725
토 6725
▁중심으로 6718
장이 6712
원이 6691
수가 6681
▁손 6676
P 6669
▁방 6667
한다는 6664
▁다만 6662
종 6661
기의 6660
심 6637
▁이와 6627
크 6601
만원 6598
▁현대 6595
▁올 6594
입니다 6594
▁14 6592
들과 6569
▁B 6557
급 6549
▁우 6542
도가 6535
엔 6526
▁방법을 6514
도를 6507
▁나온다 6500
▁중요한 6500
M 6498
려 6496
▁17 6479
▁정보 6478
▁만들어 6476
▁호 6476
▁공급 6457
▁금 6452
력 6450
▁즉 6449
▁계속 6439
데 6431
해서 6431
▁정부 6430
9 6421
▁50 6417
▁아닌 6417
▁경영 6413
▁보면 6410
▁기준 6406
▁처리 6404
▁이용한 6402
▁시스템 6391
▁있어서 6385
▁먼저 6376
▁않았다 6373
▁보호 6372
▁C 6370
었다 6367
▁전국 6356
업 6349
▁노동 6342
▁코 6340
▁날 6335
▁계획이다 6319
기로 6315
▁받은 6314
장을 6312
▁광고 6295
리의 6295
린 6263
▁발 6256
레 6248
타 6245
▁이용하여 6232
사의 6212
▁참여 6196
발 6189
코 6185
▁비해 6184
▁역할을 6177
▁시간 6175
▁포 6172
▁하여 6172
개의 6157
성과 6153
함으로써 6142
▁M 6129
▁번 6125
력을 6119
사를 6115
▁사회 6114
박 6110
노 6108
▁임 6100
▁나타났다 6097
▁채 6060
화를 6057
인이 6043
▁최 6040
▁제작 6037
▁BMW 6027
암 6027
▁전했다 6022
피 6005
자와 6004
거 5998
▁타 5993
불 5986
▁가능하다 5976
곡 5964
초 5964
수를 5954
▁영 5952
▁의한 5952
▁문제가 5945
장은 5938
▁각종 5921
▁전문 5921
▁월 5914
▁평균 5909
▁편 5897
▁못 5891
리를 5881
명의 5876
합니다 5866
▁영상 5864
▁인한 5864
▁되어 5853
층 5842
리가 5835
▁들 5832
▁것도 5824
▁받고 5822
O 5821
되면 5809
스는 5801
르 5799
▁어떻게 5797
더 5793
생 5792
▁변 5787
▁있기 5781
▁삼 5768
자로 5762
온 5758
▁작은 5755
▁적용 5753
▁생활 5746
▁전기차 5743
▁제어 5743
▁주행 5733
e 5731
운 5713
스가 5708
에서의 5707
▁오후 5705
▁25 5691
카 5683
직 5679
프 5677
씨 5676
판 5674
▁천 5666
행 5666
▁만에 5665
▁백 5665
▁되었다 5663
바 5661
▁기간 5644
림 5642
▁송 5640
매 5632
▁걸 5625
원의 5624
류 5621
▁어느 5619
L 5617
▁학 5608
▁한다는 5589
태 5589
▁대출 5582
개월 5580
▁기술을 5578
▁대형 5577
▁모바일 5573
▁과정에서 5572
▁24 5567
과의 5567
▁당 5566
▁달리 5558
▁방법 5557
▁K 5546
B 5542
증 5527
지에 5523
▁않는다 5513
▁가지고 5511
▁사회적 5511
는데 5508
▁결정 5502
▁집 5491
▁고객 5490
▁인터넷 5490
▁현 5486
▁서로 5475
원을 5474
▁위하여 5470
가는 5469
했지만 5462
▁전지 5452
▁예 5451
▁기능을 5450
하기로 5446
청 5443
두 5437
▁낮은 5434
▁있는데 5434
▁모습이 5432
▁군 5422
년에 5422
R 5420
▁사람들이 5420
사업 5411
▁다음 5408
▁자기 5407
▁결국 5398
▁감염 5391
봉 5390
▁경기 5382
▁정도 5377
명을 5375
되며 5370
▁문제 5366
광 5365
시키는 5357
열 5357
▁AI 5351
▁쉽게 5351
▁신규 5351
▁살 5347
반 5345
▁과 5327
▁개선 5326
▁대표 5324
▁받을 5322
▁황 5320
▁스 5317
길 5299
▁확대 5297
▁환경 5296
주의 5270
▁그의 5267
로부터 5266
건 5265
▁자연 5263
▁국제 5258
장치에 5253
▁최고 5251
▁건설 5250
부의 5248
저 5246
들에게 5240
통 5237
K 5233
▁그런 5207
대를 5204
▁21 5201
▁은행 5199
하고자 5194
▁조사 5193
▁우선 5192
▁반면 5190
▁증가 5184
한다고 5180
사는 5178
▁모습을 5177
▁가진 5169
T 5166
▁스마트 5163
자들이 5150
▁중인 5149
관리 5146
▁활동 5131
▁아니다 5128
투 5127
▁내용을 5120
▁암 5111
▁신청 5105
▁브랜드 5102
▁형성 5093
▁거래 5088
▁P 5079
▁거의 5078
▁근로자 5071
▁핵심 5066
▁성장 5058
▁통한 5058
▁회사 5057
▁SK 5053
시킬 5048
▁점 5047
▁난 5035
일까지 5035
▁식 5032
▁통 5032
▁장치 5030
제를 5027
이라며 5019
▁직 5018
▁제공 5000
▁부품 4997
로서 4996
남 4994
E 4993
했다는 4988
로는 4983
▁시작 4975
부가 4969
인의 4968
집 4968
▁지급 4961
F 4951
부를 4951
/ 4942
병 4940
▁경쟁 4936
스를 4935
▁받았다 4927
목 4927
▁관심을 4924
▁청 4919
역 4918
▁전환 4912
▁주시기 4910
▁관심이 4909
화가 4898
▁관 4897
▁이상의 4897
▁주로 4897
평 4893
▁않을 4884
km 4882
▁갖는 4880
▁학생 4880
력이 4866
▁시간이 4861
▁확인 4859
▁의료 4847
▁23 4841
량 4841
▁노조 4840
▁코로나바이러스 4837
금을 4837
리에 4836
입 4834
▁갖고 4833
▁고정 4828
▁삼성 4826
대가 4824
교육 4819
▁22 4815
▁앞으로 4815
▁발전 4814
▁치 4809
▁일이 4805
N 4794
▁처음 4787
▁유지 4785
철 4784
준 4782
▁토 4779
▁문화 4778
▁효과를 4778
▁모델 4771
서를 4771
후 4768
상을 4763
)' 4762
▁몇 4760
번 4757
▁복 4755
물을 4749
하지만 4735
▁허 4725
▁2017 4722
▁하지 4721
▁연결 4720
▁요 4719
▁D 4716
▁계 4716
▁적 4708
▁대상 4707
▁않다 4706
▁임금 4690
출 4688
▁강조했다 4687
▁장치에 4686
스의 4684
절 4684
즈 4682
▁이렇게 4681
▁40 4677
복 4677
시켜 4677
▁최저임금 4676
▁필요하다 4669
▁위해서는 4668
▁수가 4665
▁특정 4656
▁감소 4652
▁버 4652
▁순 4641
승 4641
▁생 4640
▁정도로 4640
리와 4640
▁어려운 4637
금융 4637
▁정책 4635
▁하나의 4630
지원 4630
설 4622
▁보험 4621
▁제품 4619
하던 4614
▁구매 4611
▁카 4610
▁찾아 4609
▁권 4591
▁의하면 4589
▁공동 4588
라며 4588
등 4585
부에 4583
▁활용 4582
▁주는 4580
씨는 4579
▁프로그램 4571
▁향후 4571
▁2018 4570
▁무선 4559
▁T 4548
▁같다 4546
▁업무 4539
▁분석 4536
약 4535
사와 4534
▁평가 4533
희 4533
▁법 4528
속 4527
▁금속 4525
▁하루 4523
음 4521
이는 4521
▁디스플레이 4518
▁필요가 4506
위를 4506
▁추진 4503
▁검사 4502
▁많다 4501
상의 4500
예 4500
▁피해 4499
▁중앙 4498
하는데 4496
▁내년 4495
도는 4494
▁외부 4489
▁다음과 4486
▁27 4483
▁만들 4483
도록 4482
▁수출 4473
▁시간을 4473
▁국 4472
▁하나 4471
망 4469
원은 4469
으며 4468
부는 4467
▁도시 4465
▁아래 4464
각 4463
져 4462
버 4461
▁막 4459
▁발명의 4456
▁‘ 4444
▁미래 4443
’ 4436
▁윤 4436
▁점을 4431
▁구성 4429
▁농 4419
▁열린 4419
V 4418
지로 4402
주는 4400
임 4395
▁사람 4393
▁자동 4390
색 4386
▁않아 4385
▁두고 4379
년간 4378
▁시행 4375
▁상황에서 4374
▁추 4373
근 4369
▁오전 4368
▁문제를 4367
지의 4367
▁회 4363
▁태 4362
▁26 4360
▁공정 4351
▁TV 4347
▁치료 4341
▁받아 4339
으로부터 4335
권을 4327
워 4324
물이 4322
창 4322
▁확산 4321
도의 4321
▁너무 4320
▁작업 4320
▁수신 4319
하기도 4316
▁대신 4315
으면 4315
▁여성 4308
▁상품 4307
▁충전 4303
막 4302
▁유럽 4300
▁아직 4297
▁평 4297
▁발생하는 4292
▁체 4292
▁플랫폼 4292
산업 4292
▁사용하는 4288
▁하면 4288
▁데이터를 4287
▁역 4287
▁N 4284
본 4282
▁제대로 4281
씨가 4277
▁경우가 4276
▁병 4276
▁번째 4275
▁가입 4274
▁가족 4269
▁소형 4268
▁집중 4268
▁앞 4264
? 4261
▁통합 4257
▁있던 4251
▁조정 4251
기와 4250
▁활동을 4247
▁애 4245
루 4238
▁이들 4236
▁28 4235
▁로 4220
▁내부 4217
▁대부분 4214
▁여기에 4211
▁알고 4210
▁없었다 4210
▁받는 4206
▁돌 4205
▁되고 4202
▁만든 4202
▁학습 4202
▁사이에 4199
▁것이라는 4198
▁부동산 4191
▁표시 4183
서는 4179
래 4176
기업 4168
학년 4168
장치 4163
▁사실을 4162
▁노사 4161
▁환자 4161
들도 4159
▁뉴 4156
▁G 4151
▁엔진 4151
▁강화 4147
네 4141
덕 4137
환 4135
▁그런데 4129
으로는 4123
분기 4122
변 4120
▁전망이다 4097
▁설 4096
▁여전히 4095
▁시스템을 4094
▁못한 4090
X 4089
▁종 4089
트를 4087
▁정부는 4085
▁전송 4082
▁목적으로 4079
▁사용할 4079
링 4077
▁구조 4072
▁출시 4066
▁계획 4065
브 4062
든 4060
제가 4057
년부터 4055
골 4047
▁현장 4044
서비스 4044
퍼 4041
지도 4036
외 4032
키 4026
▁보는 4025
▁안내 4025
▁상황 4023
▁기반 4022
▁그래서 4018
▁V 4017
되기 4017
▁29 4015
▁길 4010
▁홍 4008
백 4008
도로 4001
▁상승 3996
▁질 3993
체를 3993
▁자신이 3991
H 3990
▁R 3988
▁신차 3988
▁알려졌다 3988
▁수밖에 3987
▁갈 3985
▁규제 3984
▁독 3983
▁설치 3982
▁현대차 3979
▁과거 3978
▁E 3971
▁우리가 3966
▁이동통신 3966
규 3965
▁부탁드립니다 3964
▁에 3959
▁노동자 3956
▁기본 3955
감을 3954
▁도입 3951
별로 3945
▁변화 3944
▁밤 3941
▁대구 3936
▁교통 3935
▁2019 3934
▁방향으로 3930
▁접속 3924
& 3919
편 3916
▁계약 3913
▁나왔다 3908
스트 3905
사에 3903
▁나는 3902
▁아울러 3901
▁결 3899
▁대응 3899
▁영업 3899
▁창 3899
▁사이 3898
▁절 3895
▁내가 3894
성에 3893
▁참가 3888
지고 3887
식을 3884
릴 3879
비를 3878
▁환자가 3870
▁콘텐츠 3868
▁2016 3864
▁주택 3859
▁정부의 3858
▁공개 3857
▁일정 3856
▁에너지 3853
▁것이라고 3850
액 3850
▁결과를 3849
▁국민 3842
▁철 3842
▁장치를 3838
▁스마트폰 3834
▁그룹 3832
▁회전 3831
▁극 3829
▁선택 3826
▁소비 3824
명으로 3814
▁사고 3808
▁원하는 3807
선을 3797
▁제한 3792
▁행정 3789
I 3788
▁확진 3788
함을 3783
▁사실 3780
∼ 3776
▁F 3776
시장 3771
▁민 3769
점을 3766
항 3765
▁건강 3763
▁취 3763
▁협력 3760
▁자율주행 3759
▁주식 3758
▁방식으로 3756
▁생각 3752
▁팔 3745
▁설계 3743
장의 3741
▁디 3739
▁측은 3738
▁최종 3737
10 3736
대의 3732
자에 3729
▁연기 3726
▁특별 3723
량이 3720
시에 3720
▁않도록 3719
처 3718
▁전력 3717
들에 3711
▁공식 3710
▁관계 3710
▁특성을 3705
▁때는 3703
▁적극 3703
작 3703
▁가격 3701
▁주변 3700
지와 3696
▁실제로 3689
▁만드는 3681
▁준비 3677
▁것으로서 3676
센터 3669
▁없어 3667
▁목 3663
지역 3663
월부터 3662
▁체험 3658
다가 3654
▁덧붙였다 3652
비가 3651
결 3649
▁드라마 3647
▁공공 3646
▁그동안 3644
▁배터리 3643
▁해야 3638
▁근무 3637
▁측정 3632
▁발생한 3630
▁공유 3627
▁바탕으로 3626
▁업체 3625
▁일자리 3623
이를 3619
▁아이 3617
▁방문 3613
화된 3613
▁빠르게 3611
합 3609
▁지방 3604
성은 3601
▁감염증 3599
▁그대로 3598
▁레 3596
▁증 3595
인을 3595
드는 3594
▁기록 3593
원으로 3591
▁행 3583
▁북 3577
▁일을 3577
락 3577
도에 3576
20 3573
▁하며 3571
▁시장에서 3569
▁풍 3564
▁석 3561
▁음 3558
갈 3557
▁장기 3551
▁누 3549
이가 3549
수의 3545
정보 3541
론 3538
사로 3536
했으며 3536
▁31 3534
순 3534
▁네 3532
▁최초로 3526
인데 3526
▁도로 3519
이자 3518
▁해도 3517
▁출력 3514
장과 3511
품 3509
▁인식 3508
▁가수 3506
▁미디어 3506
% 3505
▁병원 3504
▁조선 3497
선이 3497
▁위치 3492
자에게 3491
▁2020 3488
▁결합 3487
▁스포츠 3483
▁축 3482
격 3481
▁은 3480
▁필요 3470
▁하기 3470
▁기업이 3468
날 3466
▁사업을 3465
TV 3464
▁방지 3464
▁비롯해 3460
i 3458
부와 3457
▁대학 3454
울 3453
▁정치 3450
▁요구 3446
▁발표 3444
▁왕 3442
▁인상 3438
▁확인할 3432
▁입력 3429
▁합 3428
기술 3428
정이 3428
졌다 3426
▁60 3425
표 3425
원에 3423
▁불법 3421
▁뿐 3420
▁형성된 3420
mm 3417
▁구동 3417
▁표 3414
성의 3414
▁조직 3413
▁변경 3412
▁소비자 3410
체의 3409
▁전달 3408
▁시작했다 3407
▁것에 3406
▁독일 3405
▁참 3404
수는 3404
으로서 3403
자들은 3403
억원을 3396
그룹 3391
▁존재 3390
장치를 3387
▁항상 3385
화에 3384
▁거쳐 3382
하자 3382
▁이제 3380
임을 3380
▁학부모 3379
▁높다 3378
▁자금 3374
도와 3374
▁우리는 3373
▁외국인 3370
▁조성 3368
▁벌 3367
▁공장 3366
▁보여 3366
▁연속 3360
▁중단 3359
했을 3359
▁소속 3358
▁중이다 3352
난 3351
▁사람의 3350
년대 3348
시는 3345
▁음성 3343
▁승 3342
▁정상 3342
▁것과 3341
▁형 3339
소가 3338
o 3337
소를 3337
▁그가 3336
▁중심 3330
스와 3329
와의 3329
▁말을 3310
▁표현 3310
▁처 3309
▁수는 3304
립 3303
령 3301
▁아주 3299
천이 3299
▁기준으로 3298
▁프로그램을 3297
▁하였다 3296
▁담 3295
▁사람은 3295
▁전에 3293
정을 3293
연구 3292
축 3288
마다 3287
▁직원 3286
▁없다는 3282
▁수행 3280
▁디자인 3278
), 3276
▁L 3275
▁오늘 3275
▁풀 3275
▁봉 3271
▁보안 3269
▁이야기를 3269
▁접촉 3265
▁향상 3265
▁촬영 3262
▁판 3259
상에 3258
송 3257
▁이유로 3255
리고 3255
▁스스로 3254
인은 3254
▁방지할 3253
▁200 3250
▁KT 3250
추 3250
▁개의 3249
치를 3249
보다는 3248
율 3248
▁되면 3247
▁등록 3247
▁시장에 3247
▁전원 3247
이지만 3247
▁좀 3246
▁힘을 3246
▁망 3245
▁죽 3245
▁학생들의 3243
적이고 3242
▁자체 3241
▁기능 3237
세를 3234
회를 3231
▁청년 3229
위에 3226
장에 3226
▁대규모 3225
▁수입 3223
▁인간 3222
▁기술이 3220
▁오히려 3219
▁우려가 3218
가가 3218
▁실시 3216
▁연간 3216
음을 3214
▁비롯한 3212
에선 3210
애 3208
채 3206
▁점에서 3202
▁지도 3202
치는 3195
▁이달 3193
▁기대 3192
▁음악 3191
s 3186
▁가정 3184
▁관련된 3184
말 3184
▁속에서 3183
80 3181
▁운동 3180
▁매년 3179
▁이들은 3177
▁채널 3175
▁폐 3172
▁대해서는 3170
드를 3167
금이 3165
▁구조를 3163
▁못하고 3163
는다 3160
▁기반으로 3159
▁한다고 3159
▁키 3157
▁기업의 3155
달 3152
하다는 3152
▁왜 3151
▁신호 3148
▁아파트 3148
▁공간 3147
▁면 3147
랑 3147
▁늘 3145
▁상황이 3144
▁판단 3140
▁혹은 3140
▁이처럼 3137
▁화학 3136
없이 3134
▁눈 3133
▁0 3127
▁긴급 3127
▁확진자가 3122
▁소재 3121
가를 3119
병원 3119
▁예방 3118
▁등은 3117
▁과정을 3115
▁이전 3114
▁GM 3113
▁넘는 3108
이기 3105
산이 3104
▁알려 3103
▁2015 3100
▁남아 3100
▁민간 3100
▁지지 3099
▁안에 3098
▁잡 3098
▁선정 3096
드의 3092
원과 3091
▁더불어 3088
▁뿐만 3081
가지 3078
▁지나 3077
▁커 3074
a 3073
▁꼭 3072
담 3072
세대 3072
보험 3071
▁되 3070
▁이해 3069
▁패 3069
차를 3069
▁도움이 3067
▁내려 3065
노동 3060
▁마음을 3058
▁넘어 3052
▁처음으로 3051
▁위험 3049
▁채용 3049
▁해결 3049
었던 3049
▁종합 3046
▁300 3045
▁구축 3041
년까지 3041
▁상담 3040
▁확보 3040
▁자리 3038
자들의 3038
투자 3038
▁지속 3037
▁폭 3037
▁보이는 3036
대에 3034
▁부분 3033
▁출 3033
너 3032
▁포함한 3027
위원회 3027
▁귀 3026
▁하이브리드 3023
문화 3023
알 3023
▁상대적으로 3016
▁급 3015
▁지정 3015
촌 3015
▁전화 3014
W 3013
▁지금 3010
▁설명 3008
▁통과 3008
▁분야 3007
▁업계 3007
언 3007
량을 3005
▁발광 3003
함 3002
손 2997
▁말한다 2995
▁이유는 2995
▁인수 2995
살 2995
▁몸 2994
시설 2994
▁우수한 2988
개발 2985
▁과학 2982
면에 2981
▁영국 2980
▁기존의 2979
▁예상 2975
▁로봇 2974
트의 2974
▁상황을 2973
▁조립 2970
▁H 2969
▁혁신 2968
드가 2968
▁준 2965
▁책임 2964
▁성공 2962
리로 2962
▁보였다 2961
향 2961
▁전혀 2960
▁경우에는 2959
▁전용 2959
▁전시 2955
범 2955
충 2952
극 2946
자동차 2946
▁의미 2944
▁카드 2940
▁사진 2938
▁지원을 2938
▁훨씬 2938
북 2937
뿐 2934
점이 2929
▁긴 2926
▁작 2921
▁많아 2918
▁지적했다 2913
학년도 2913
▁향상시킬 2912
▁완성차 2909
▁항 2909
▁안정 2905
률이 2904
업체 2903
▁컴퓨터 2902
▁맞 2900
▁얼마나 2898
▁유통 2895
뿐만 2893
▁반드시 2892
▁악 2892
▁지속적으로 2892
▁먹 2891
▁블록체인 2891
▁어려움을 2890
▁둔 2886
주가 2886
전자 2884
▁부담 2882
▁운용 2882
▁형태로 2879
▁포함하는 2878
습니다 2877
▁나온 2872
▁보내 2872
▁사용되는 2872
▁자유 2872
▁사전 2871
er 2870
▁개시한다 2869
▁설명이다 2867
▁인정 2866
▁부족 2864
p 2863
▁인력 2863
▁규모의 2861
안을 2860
▁왔다 2856
▁고려 2855
▁접 2855
▁범 2854
▁전년 2854
▁기판 2853
테 2852
▁이용해 2851
▁사용자가 2850
▁진단 2850
만을 2850
라도 2848
t 2847
▁탈 2844
▁초기 2842
▁마케팅 2841
▁수요가 2839
자인 2839
착 2839
독 2836
▁옥 2835
탄 2835
코로나 2834
▁차단 2831
경제 2831
체가 2830
지면서 2826
▁예상된다 2824
레이 2823
▁대체 2820
▁방안을 2820
▁마련 2818
▁의견을 2818
▁길이 2815
▁못하는 2815
▁비정규직 2815
▁수용 2815
U 2811
료 2811
탈 2810
▁해고 2807
▁셈이다 2804
▁확장 2804
션 2802
▁내에 2801
기관 2798
새 2798
줄 2797
지지 2797
▁통하여 2793
▁1, 2791
왕 2791
▁충분히 2789
▁사망 2788
▁수요 2788
▁수입차 2788
▁인증 2788
▁상황이다 2786
▁환 2786
▁방침이다 2785
▁학생들이 2783
돌 2782
이란 2782
▁것처럼 2777
▁전극 2777
y 2776
▁시험 2776
▁그렇게 2775
▁반응 2775
▁하락 2774
▁것입니다 2773
▁교수 2771
▁인공지능 2771
▁연장 2770
씩 2768
▁만나 2765
▁통화 2765
하려는 2764
▁단축 2763
▁사랑 2763
▁소득 2763
▁실험 2762
▁집단 2762
▁넓은 2761
일에 2761
▁마스크 2759
메 2759
▁함 2758
▁예술 2757
인지 2757
▁가는 2756
월에 2756
▁메 2755
▁증상이 2754
▁금리 2753
스에 2753
전을 2753
▁변화를 2752
리지 2751
학교 2751
머 2749
▁취약계층 2748
50 2746
▁희망 2746
필 2746
상이 2745
▁홍보 2744
▁우리나라 2743
▁크다 2743
▁별 2742
▁공시했다 2741
▁예를 2741
구를 2741
▁맞춰 2740
▁발견 2734
찬 2733
긴 2732
▁노조는 2731
▁웨이퍼 2731
관이 2730
진다 2730
▁적극적으로 2727
▁돼 2726
회의 2722
▁기관 2721
▁대표는 2721
▁발표했다 2721
▁시스템에 2718
▁간의 2713
▁관련해 2712
▁여행 2711
커 2711
▁육 2709
▁전면 2706
」 2706
▁앞두고 2705
▁야 2705
▁라 2704
▁신고 2704
▁차이가 2703
▁판정을 2702
▁네트워크 2701
시가 2701
▁발표한 2700
회가 2700
▁있었던 2696
▁작동 2693
스타 2691
▁분리 2690
▁못했다 2687
▁격 2686
▁좋아 2685
d 2682
▁운전 2682
▁이야기 2682
쳐 2682
▁비교 2681
▁울 2680
h 2677
▁상호 2677
▁상태 2675
▁52 2674
▁광주 2671
▁유기 2670
▁중소기업 2670
팅 2670
▁논 2669
▁곡 2668
되도록 2666
▁비교적 2665
▁피해를 2663
▁2000 2662
▁지역의 2662
▁강한 2661
과는 2660
해도 2659
▁기계 2657
▁「 2656
▁수업 2655
▁출연 2654
l 2652
▁활성화 2650
▁동작 2649
싱 2649
▁교환 2648
▁결제 2646
▁마지막 2646
농 2646
▁리튬 2644
▁해서 2642
았다 2641
▁공개된 2640
▁다소 2640
▁사실상 2639
하다고 2639
▁보유한 2637
▁뇌 2636
▁밀 2635
▁위치한 2634
n 2632
▁IT 2630
김 2629
▁사이의 2628
▁신형 2627
▁보유 2625
▁검색 2620
▁설정 2619
▁주장했다 2616
▁미국의 2615
세가 2609
▁미리 2608
시의 2607
▁속에 2603
▁국도 2602
▁제거 2601
간의 2601
은행 2601
율이 2600
▁의심 2599
▁필 2599
▁가격이 2598
60 2597
훈 2597
겠다는 2596
면을 2595
▁가동 2591
▁자산 2591
친 2590
c 2589
문을 2588
▁새롭게 2587
취 2587
▁완전히 2586
▁제도 2586
▁사람들은 2584
법을 2584
▁규모가 2583
▁빠른 2583
▁채권 2581
▁불구하고 2580
볼 2579
▁개발한 2577
▁고속 2577
▁동기 2576
만이 2575
▁500 2572
▁회복 2571
▁예측 2564
▁제공할 2564
▁정의 2562
▁하다 2562
▁프리미엄 2560
▁이용할 2557
트가 2556
▁향 2554
위는 2553
▁반대 2551
페 2551
▁높이 2549
▁위반 2547
압 2546
장으로 2544
시스템 2543
▁시장이 2541
▁시장을 2540
플 2536
▁소자의 2535
▁사용자 2533
▁설립 2532
▁시장의 2532
올 2532
로가 2531
▁순간 2530
▁정규직 2530
▁이때 2529
▁완화 2528
▁저장 2527
▁투 2525
▁특징이다 2524
구가 2523
▁담당 2522
30 2520
▁휴 2520
▁작품 2519
▁중에 2519
▁펀드 2519
▁공개했다 2516
: 2515
▁눈길을 2515
▁여부를 2515
▁상황에 2513
물의 2513
▁않으면 2512
▁활용해 2512
구의 2512
▁이들의 2510
▁자동으로 2510
▁기아차 2509
▁경기도 2508
▁비슷한 2508
명은 2507
베 2507
▁이온 2504
년이 2502
▁수소 2501
료를 2501
함에 2500
▁나섰다 2495
▁이들이 2495
▁관심 2494
만원을 2494
▁개별 2493
▁고객이 2493
▁이름을 2492
▁용이하게 2489
▁항공 2489
▁보니 2488
▁받지 2486
▁실내 2485
호선이 2485
윤 2484
▁현지 2481
▁곳 2480
대는 2480
▁매각 2479
▁타이어 2478
읍 2477
산의 2476
▁특 2475
▁기회를 2474
나무 2474
▁없을 2469
▁추가로 2469
▁뉴스 2466
감이 2466
▁공연 2462
▁인하 2462
일이 2462
▁기록했다 2461
▁동일한 2460
▁녹 2458
▁자주 2458
▁베 2457
▁위에 2457
▁직장 2457
낸 2456
시킨 2452
▁보장 2451
▁우수 2451
사들이 2451
▁와 2450
▁문제는 2449
r 2448
▁논의 2447
▁발생할 2447
▁비용 2446
력과 2446
일을 2445
평가 2445
하겠다 2445
▁형성되어 2442
식이 2442
▁시작한 2441
인과 2440
▁얻을 2439
금은 2439
슬 2437
▁목표 2436
▁사는 2436
▁발행 2435
시키고 2434
▁퍼 2433
▁기획 2432
▁지원하는 2430
▁SNS 2429
▁전파 2429
률 2429
▁도전 2428
▁배출 2424
풍 2424
00 2421
▁색 2420
▁삼성전자 2419
악 2417
▁고용보험 2413
▁특징으로 2413
▁스타 2411
▁대기 2410
▁강력한 2408
▁연료 2405
▁보조 2402
▁이하 2401
▁깊은 2398
▁마을이 2398
고용 2398
▁정확한 2397
▁온도 2395
▁끝 2394
▁다수의 2394
▁위기 2394
▁걸쳐 2393
▁조작 2392
▁탄 2390
▁시설 2389
▁되지 2388
▁특별한 2388
▁사건 2387
▁표준 2387
전이 2387
▁나오는 2386
관을 2385
▁적은 2383
보는 2382
층을 2382
처리 2380
▁KB 2378
▁행사 2378
계의 2377
클 2376
트로 2376
▁전략 2372
▁근 2371
▁새로 2371
▁없고 2371
▁앞에서 2369
▁앱 2367
황 2367
▁관찰 2365
▁유튜브 2365
▁파업 2365
▁등에서 2364
고를 2362
삼 2361
체에 2361
▁이름 2360
▁전해 2360
지면 2360
폭 2360
▁높아 2357
▁인사 2356
▁이미지 2355
였던 2355
▁글 2354
렸다 2354
▁허용 2353
회사 2353
▁성능을 2352
▁예정 2352
진이 2351
밀 2348
▁돈을 2347
▁수상 2347
환경 2347
▁예능 2345
▁올라 2344
▁침 2343
▁운행 2342
▁있음을 2342
▁취업 2340
▁대부분의 2339
장에서 2339
면의 2338
계를 2336
▁지금까지 2331
주를 2331
▁할인 2330
▁적극적인 2329
▁현대차는 2328
▁혜택을 2328
▁확정 2328
었고 2327
▁결혼 2326
▁나서 2326
▁매출 2325
하겠다는 2325
▁잔 2324
선의 2323
▁마치 2322
검 2322
▁염 2321
▁합의 2321
숙 2320
▁상반기 2319
▁MBC 2318
▁이용하는 2318
빈 2318
에만 2318
▁I 2317
▁계산 2317
▁감염병 2315
▁조금 2315
▁하는데 2315
▁수많은 2313
제로 2313
기간 2312
▁담긴 2311
▁아니 2311
▁플라즈마 2311
패 2311
아이 2309
▁수익 2307
제의 2306
블 2304
▁어렵다 2303
제는 2299
▁쉽지 2298
▁책 2297
움 2296
▁가공 2295
▁어린이 2295
▁적이 2292
트는 2292
▁제조방법에 2290
글 2289
▁점검 2288
▁행동 2288
있는 2285
산을 2282
▁찾는 2281
▁클라우드 2281
▁대화 2278
▁접근 2275
▁주고 2275
▁디젤 2274
▁덕 2273
▁드 2273
40 2272
▁포함 2272
▁복지 2271
▁좋다 2270
▁조절 2269
▁신경 2268
측 2268
▁협조 2267
▁운 2266
적이 2266
▁도움을 2265
킹 2265
g 2263
▁완 2263
▁맞아 2262
까 2262
어를 2261
▁빈 2260
▁대하여 2259
▁상세하게는 2259
▁소유 2259
▁영상을 2259
▁교수는 2258
보고 2257
▁표면 2256
어야 2256
▁대폭 2255
▁있지 2255
▁인도 2252
▁관광 2251
안전 2251
▁기억 2250
▁꾸준히 2250
▁년 2250
방송 2249
▁지분율이 2248
▁실적 2247
기에서 2247
▁위해서 2245
▁회장이 2245
▁경험 2244
▁미치는 2244
▁비중이 2243
▁PC 2242
▁기초 2241
▁방법이 2241
한다면 2239
협 2239
~ 2237
▁지구 2237
▁최소 2236
▁KBS 2234
▁수준의 2233
차가 2233
▁친환경 2232
▁인간의 2231
회는 2231
▁등과 2230
▁우주 2230
▁프로 2227
▁방역 2225
▁체결 2225
▁회장 2225
▁관심과 2224
했는데 2224
▁운영하는 2222
▁점점 2220
율을 2217
염 2216
▁전망 2214
▁지분 2213
어가 2213
▁중요 2212
심을 2212
▁국회 2211
▁명의 2211
▁액 2210
▁가치 2208
▁제시 2208
▁축소 2207
▁구성된 2206
▁제출 2206
▁활용한 2206
년에는 2206
▁감독 2205
▁갖춘 2205
▁겸 2205
▁자리를 2205
▁있으나 2204
▁회로 2204
치가 2204
▁이유 2203
▁시대 2202
균 2202
▁쓰 2201
▁주민 2201
▁준다 2200
딩 2199
만의 2199
▁1000 2198
▁검토 2198
라면 2198
노조 2197
▁아래와 2195
▁전날 2195
겠다 2193
방법에 2193
수로 2193
▁내에서 2191
앤 2191
▁투입 2190
액이 2190
▁점이 2189
▁대표적인 2188
▁특허 2188
했습니다 2187
▁제품을 2185
▁시청 2184
책 2183
▁줄일 2181
▁반복 2179
▁측 2179
록 2179
했 2178
▁조치 2177
▁의하여 2176
▁듯 2173
▁아동 2173
▁지연 2173
▁가까운 2168
츠 2167
▁혼 2165
▁점차 2164
▁실시간 2162
▁폭발 2162
통신 2162
▁2, 2161
▁별도의 2161
▁보이고 2161
▁터 2160
▁있 2159
▁맞는 2158
과학 2157
인들이 2156
▁사례가 2154
▁X 2153
▁중요하다 2153
▁단체 2151
▁시도 2151
▁제주 2150
팀 2150
▁중고차 2148
▁가능 2147
▁부문 2147
▁대중 2143
▁모여 2143
▁변화가 2143
구는 2143
▁따 2141
▁사례 2141
▁알려져 2141
▁곧 2140
▁응 2140
▁등교 2139
▁절연 2138
원에서 2138
▁열고 2135
▁구입 2134
어서 2134
▁가치를 2133
▁언론 2133
▁해석 2133
라이 2132
상으로 2132
▁이중 2130
▁좌 2130
▁증권 2129
대학교 2128
▁뒷 2127
▁차별 2127
▁통계 2126
수록 2126
름 2125
▁흘러 2124
▁분류 2123
▁롯데 2121
▁셀 2121
▁운전자 2121
▁놓고 2119
▁변동했다고 2116
렌 2115
▁소상공인 2114
▁U 2111
▁보통 2111
▁악화 2111
▁현실 2111
▁금지 2110
▁친 2109
▁많았다 2108
▁숨 2108
동의 2108
▁인기 2107
▁첨단 2107
▁카메라 2107
▁형태의 2107
▁전문가 2106
▁손실 2104
▁의미를 2104
▁갤럭시 2102
▁수준 2101
▁장착 2101
▁점이다 2100
▁모델을 2099
에게는 2099
▁가솔린 2098
▁격리 2097
▁인천 2097
▁넘 2095
들로 2094
습 2094
%, 2093
▁구조조정 2092
90 2091
GM 2091
술 2087
▁됩니다 2086
지며 2086
국의 2083
비는 2083
▁그리 2081
▁반영 2080
▁콘텐츠를 2079
▁냉각 2078
▁충 2077
포인트 2077
▁이것은 2076
지게 2075
▁명이 2073
▁숙 2073
▁검사를 2072
▁커지고 2072
▁자녀 2071
▁낙 2070
시켰다 2070
총 2070
▁최초 2069
▁이상이 2067
지기 2066
택 2066
▁눈에 2065
분의 2064
▁곳에 2063
▁동의 2062
서가 2061
▁원격 2059
▁저항 2059
린다 2059
▁기념 2058
▁사실이 2058
▁계획을 2057
층의 2057
화와 2056
▁업무를 2055
▁젊은 2052
▁물이 2051
▁세단 2048
▁신용 2048
▁전압 2048
수와 2047
정책 2047
▁앨범 2046
생활 2046
완 2046
로를 2045
석이 2045
▁재난 2044
명에 2044
▁골 2043
률을 2043
▁외에도 2042
▁개정 2041
▁더해 2041
▁낸 2040
구조 2040
▁변환 2039
▁입장을 2039
▁장애 2039
▁해안 2038
거리 2037
▁가능성을 2036
▁루 2036
▁양성 2036
▁지금은 2036
▁노출 2034
▁의사 2034
▁트 2034
▁한국의 2034
▁자체가 2033
거래 2033
▁친구 2032
조사 2032
▁70 2031
▁상태를 2031
▁울산 2031
▁크 2031
▁소프트웨어 2030
▁가능하게 2029
▁지역에 2029
▁탄소 2029
위로 2029
하면서도 2029
▁비용을 2027
▁싶은 2027
는지 2027
▁가지는 2026
▁캐릭터 2026
▁유명 2025
했기 2025
▁씨 2023
▁꽃 2022
▁완성 2020
AI 2019
▁어린 2019
▁진동 2019
카드 2019
▁공기 2018
▁구현 2018
▁알아 2018
케 2018
해진 2018
혜 2018
▁보상 2017
▁출신 2017
▁기대된다 2016
▁일반적으로 2016
▁차량을 2016
▁우리의 2015
▁인기를 2015
옥 2015
▁결과가 2014
▁가속 2013
▁놓 2013
▁모빌리티 2013
▁오랜 2013
량의 2011
▁나선 2010
▁마무리 2010
▁누적 2009
▁손을 2009
▁시민 2009
▁없다고 2007
력은 2006
징 2006
▁오픈 2005
▁재생 2003
로의 2003
▁배치 2001
동을 2000
▁스타트업 1999
냐 1999
받은 1997
▁시즌 1995
▁모집 1994
단의 1994
리스 1993
내는 1992
▁만족 1991
▁성능 1991
위가 1991
효 1989
▁논란이 1988
더라도 1988
했으나 1988
님 1987
▁조합 1986
형의 1986
▁중간 1985
▁치료를 1985
낼 1984
회에 1984
다면 1983
려고 1983
었지만 1983
▁청소년 1981
월까지 1981
▁방식을 1979
▁서비스가 1979
▁정비 1979
▁감정 1978
억원으로 1977
상은 1976
▁단순 1974
▁신호를 1974
▁복합 1973
력의 1973
▁감사 1972
▁만들었다 1972
서에 1972
▁학부모님 1971
증권 1969
▁수집 1968
▁타고 1968
▁양산 1967
▁한번 1966
스로 1966
게임 1965
▁기능이 1964
▁있는지 1963
이트 1963
활동 1963
터를 1961
▁유리 1960
▁있으므로 1960
▁절반 1960
정에 1960
▁안전한 1959
▁있어야 1958
▁데뷔 1957
▁민주노총 1957
▁사용하여 1957
이면 1957
▁돌아 1956
▁늘어난 1954
▁프랑스 1954
▁수준으로 1953
력에 1953
▁헤 1952
▁있다면 1950
례 1950
> 1949
▁내용이 1949
▁마음 1949
▁확진자 1949
▁근로 1948
▁나무 1948
▁쓸 1947
▁낮 1946
▁만약 1945
정의 1945
만큼 1942
▁2014 1941
수에 1941
▁검출 1940
나는 1940
진을 1940
12 1939
ing 1939
al 1938
▁보증 1938
▁오른 1938
왔다 1938
▁국내외 1937
▁관계를 1936
▁아시아 1936
▁홈 1935
▁팀 1934
▁선거 1933
▁이뤄 1933
▁효과적으로 1933
국이 1931
대상 1930
▁평가를 1928
권이 1928
▁회장은 1927
톤 1927
▁프로젝트 1925
면서도 1924
스터 1923
▁2010 1922
▁강남 1920
▁늘었다 1919
드와 1919
▁규모 1918
▁보완 1918
▁팬 1918
단을 1918
▁경찰 1917
▁때까지 1917
! 1916
계가 1916
▁비상 1915
▁가스 1914
▁생성 1913
▁SBS 1912
드에 1912
▁2008 1911
함과 1911
▁배달 1910
학과 1910
▁완료 1908
폰 1908
▁협 1906
제도 1906
▁기타 1905
실을 1904
▁업 1903
▁잠 1903
▁동물 1902
▁노래 1901
▁차량의 1899
▁최고의 1899
폐 1899
』 1898
▁공모 1897
재가 1897
▁시각 1896
▁양자 1896
▁지적이 1896
사인 1896
▁앞에 1895
▁편의 1895
▁사람을 1894
▁사상 1894
70 1893
아가 1893
▁자본 1892
막을 1890
▁전개 1889
트에 1889
▁80 1888
▁싸 1888
▁장애인 1887
▁지적 1886
▁효율 1886
맨 1886
▁과정 1885
▁말이 1885
단체 1885
▁승용차 1884
씨의 1884
침 1884
▁음식 1882
▁투자를 1882
▁교체 1881
칭 1880
▁국내에서 1877
▁영어 1877
b 1876
▁것이란 1876
▁주거 1876
보호 1875
엠 1875
▁취소 1874
▁활용할 1874
▁폐쇄 1873
▁한층 1873
▁< 1872
근로 1872
벌 1872
▁탑재 1871
몰 1871
업계 1870
홍 1870
조차 1869
▁W 1868
▁대책 1868
▁독립 1868
▁효율적으로 1868
▁본격 1867
▁없 1867
▁페 1867
▁10% 1866
영화 1866
▁『 1865
▁높이는 1865
▁발달 1865
▁시스템의 1865
▁입원 1865
가의 1865
시를 1865
판을 1865
▁웹 1864
▁무엇보다 1863
▁상대 1863
▁거주 1862
▁담은 1862
런 1862
▁메모리 1861
▁임시 1861
500 1860
▁이루고 1860
▁높일 1859
하므로 1859
▁케이블 1858
▁고령 1856
▁법률 1854
▁섬 1854
▁하나로 1853
▁본교 1851
▁대기업 1849
▁뛰어난 1846
위의 1846
익 1846
▁작성 1844
개를 1844
회에서 1844
▁나아가 1843
▁있으면 1843
▁우려 1842
협회 1842
▁나오고 1841
액을 1841
▁개최 1840
▁메르세데스 1839
▁목적은 1839
▁벤츠 1839
려는 1839
▁교육을 1836
▁게이트 1835
학적 1835
▁O 1834
▁이송 1834
▁파괴 1834
하겠다고 1834
세기 1833
우는 1833
▁이미지를 1832
▁이번에 1832
쉬 1832
▁고성능 1830
가에 1830
▁진료 1828
▁하면서 1828
▁등장 1827
▁분야에서 1825
만으로 1825
품을 1825
귀 1824
족 1824
▁테 1823
▁아름다운 1822
▁창업 1822
군의 1822
▁힘 1821
▁속도를 1820
▁의무 1820
▁잡고 1820
▁재정 1820
▁연계 1819
▁작용 1819
이어서 1819
조원 1819
▁건물 1818
▁내용 1818
▁단계 1817
▁상품을 1817
▁50% 1816
핑 1815
▁나머지 1814
▁중에서 1814
장치의 1814
까지는 1812
라인 1812
산과 1811
▁그림 1810
▁연출 1810
▁오래 1810
사회 1810
▁발열 1809
소의 1809
▁평소 1808
체는 1808
▁품질 1807
▁알게 1806
▁장치의 1806
▁나와 1805
계에 1805
▁걱정 1804
만대 1804
▁보건 1803
리기 1803
화의 1803
.5% 1802
▁여름 1802
▁찬 1802
▁외에 1800
버스 1798
▁제외한 1797
▁모터 1796
우가 1796
주택 1796
쿠 1796
▁2013 1795
됩니다 1795
▁사람들의 1794
▁송신 1794
▁안정적인 1792
▁현상이 1792
▁공격 1791
화하는 1791
▁규정 1790
▁협의 1790
견 1790
단에 1790
동이 1790
▁궁금증을 1789
▁바이러스 1789
▁메시지를 1788
어진 1787
우리 1787
제어 1787
하려면 1787
▁증가했다 1786
▁했지만 1786
▁겪고 1785
▁버스 1784
▁창출 1784
쪽 1784
▁게다가 1783
▁근로시간 1783
▁기아차는 1783
▁정확하게 1783
▁남성 1782
▁계약을 1781
▁높이고 1781
▁주력 1781
접 1781
▁맛 1779
▁전통 1779
법이 1779
산은 1779
회로 1779
▁넓 1776
▁의미가 1775
▁인공 1775
신을 1775
▁포함해 1774
▁20% 1773
▁굴 1773
마을 1773
은행이 1773
0 1772
시킨다 1771
▁달러 1770
▁장비 1770
▁담겨 1769
▁공간을 1768
▁기부 1768
▁추천 1768
▁의견 1767
▁부착 1766
▁이어지는 1766
▁흐르는 1766
▁고민 1765
▁바이오 1765
▁태양 1765
▁기업들이 1764
▁않게 1764
슨 1764
▁개편 1763
▁멤버 1763
▁소자 1763
▁요청 1763
됨에 1763
증을 1763
▁생각이 1762
▁화면 1762
소는 1762
11 1761
▁만한 1761
▁방식 1761
▁점도 1761
▁학부모님의 1761
▁늘고 1760
▁하게 1760
▁사용한 1759
▁소개 1759
▁작년 1758
▁해소 1758
됐고 1758
리에서 1758
법에 1758
분을 1758
칠 1758
▁제기 1757
▁전문가들은 1756
▁최대한 1756
냈다 1756
▁경험을 1755
▁엄 1755
▁시장은 1754
▁전류 1754
▁제가 1754
▁특수 1754
▁활동에 1754
르는 1754
▁상장 1753
▁인지 1753
▁장점이 1753
▁방법으로 1752
▁올랐다 1752
른 1752
호가 1752
▁제안 1751
u 1750
▁냉 1750
▁혈 1750
재를 1750
▁개시된다 1749
니다 1749
받을 1749
셀 1749
▁알려진 1748
▁여기서 1747
▁마이크로 1746
▁티 1746
▁회의 1746
▁과연 1745
▁지켜 1745
경영 1745
계는 1745
닝 1745
▁본교에서는 1744
▁마찬가지로 1742
▁불리는 1742
▁상태에서 1742
.5 1741
▁달라 1741
▁밝혀 1741
▁상대로 1741
▁실리콘 1740
▁지원한다 1740
▁환경을 1740
화로 1740
등의 1739
이기도 1739
▁위험이 1738
관계 1738
상품 1737
▁혐의로 1736
코리아 1736
▁테스트 1735
존 1735
▁기대를 1734
▁현상을 1734
▁35 1733
▁슈퍼 1733
▁일본의 1733
▁절감 1733
▁참석 1733
단이 1732
당이 1732
▁차종 1731
이번 1731
발전 1730
▁고급 1729
▁때마다 1729
▁구글 1728
▁그때 1728
▁의미한다 1728
▁방법은 1727
▁휴대폰 1727
▁능력을 1726
▁개설 1725
▁강조 1724
▁분석했다 1723
▁실행 1723
▁부과 1722
▁돈 1721
▁매일 1721
▁심각한 1720
▁부담이 1719
▁2009 1718
▁검 1718
▁경북 1718
▁딸 1718
▁모두가 1718
▁제공하고 1718
서의 1718
시간을 1718
▁그에 1717
.1 1716
▁대통령 1715
▁제공된다 1715
사에서 1712
시키기 1712
▁성과를 1711
▁충돌 1711
▁하천 1710
함이 1710
제에 1709
cm 1708
▁상당히 1708
형으로 1708
▁30% 1706
으면서 1706
콘 1706
▁부여 1705
▁정말 1705
▁특성 1705
본부 1705
차는 1705
▁중국의 1701
▁했던 1701
.9% 1700
▁마음이 1700
▁수술 1700
▁욕 1700
▁파악 1700
진의 1698
▁연구원은 1697
력으로 1697
▁가까이 1696
▁뜨거운 1696
▁불안 1695
▁익 1695
.4% 1694
▁경계 1694
▁나타나 1694
▁인구 1694
받 1694
▁단위 1693
▁보급 1693
로운 1693
▁주장 1692
▁흡수 1692
▁다중 1691
오는 1691
▁구분 1690
▁나올 1690
▁자율 1690
.2% 1689
▁정지 1689
▁호텔 1688
▁시청자들의 1687
▁증가한 1687
공장 1687
소에서 1687
▁붙 1685
▁요소 1685
▁집행 1685
선에 1685
▁간단한 1684
▁들어가 1684
▁베트남 1684
▁주목 1684
개가 1684
갑 1683
▁전세 1682
▁범죄 1681
맥 1681
▁가입자 1680
▁국립 1679
▁네이버 1679
▁본격적인 1679
▁인근 1678
▁주파수 1678
률은 1678
받는 1678
▁어려워 1675
▁퇴 1675
이지 1675
▁MC 1673
▁속도 1673
▁적절한 1672
▁조치를 1672
▁반응을 1671
▁자신을 1671
물에 1671
▁이루어진 1667
▁진출 1667
구에 1667
▁경우에 1666
관은 1666
물로 1666
▁2011 1665
▁빌 1665
▁작업을 1665
▁차례 1665
▁단지 1664
▁실업 1664
▁2012 1663
▁놀 1663
방을 1663
▁자료 1662
▁하반기 1662
▁최소화 1660
▁지식 1659
▁해당하는 1659
▁회사가 1659
▁휴대 1658
▁조기 1657
안이 1656
적으로는 1655
▁안에서 1654
혀 1654
▁유도 1653
▁응답 1653
▁폴 1653
▁주차 1650
의료 1650
▁달하는 1649
▁하이 1648
▁깨 1647
▁들었다 1647
▁비디오 1647
▁이어질 1645
▁이루어 1644
▁증가하고 1644
신이 1644
+ 1643
▁노력 1643
▁듣고 1642
▁정도의 1642
▁차지했다 1642
화할 1642
▁멀티 1641
▁서울시 1641
▁제품의 1641
터의 1641
▁경우는 1640
▁빅데이터 1639
▁지방도 1639
▁생긴 1638
▁차세대 1638
▁초과 1638
듯 1638
대와 1637
▁필수 1636
▁노인 1635
▁증폭 1635
량은 1635
▁36 1634
▁방향 1634
▁웃음을 1634
▁추정 1634
물은 1634
ar 1633
▁낼 1633
었 1633
▁변동 1632
▁부족한 1631
▁저녁 1631
화한 1631
Y 1630
▁후보 1630
으나 1630
전에 1630
▁가구 1629
▁통해서 1629
되 1629
었는데 1629
▁미만 1628
엘 1628
▁사랑을 1627
뉴 1627
▁'2019 1626
▁살아 1625
므로 1624
▁등도 1623
체와 1623
▁행복 1622
센 1622
▁만들고 1621
▁주가 1621
이의 1621
▁e 1620
▁프 1620
▁학부모님들의 1619
▁유출 1618
▁갑자기 1617
▁사태 1616
▁조건 1616
형이 1615
홀 1615
▁부담을 1614
▁사태가 1614
▁상위 1614
▁임원 1614
▁판매가 1614
려면 1614
행을 1614
▁전해졌다 1613
▁대해서도 1612
▁짧은 1612
▁통제 1612
▁문을 1611
▁주가가 1611
▁빛 1610
▁오염 1610
▁자금을 1610
▁상태다 1608
▁조달 1607
한국 1607
▁철도 1606
▁개발에 1605
▁거듭 1605
▁연구를 1605
됐다고 1605
▁내는 1604
▁맞춤형 1604
▁수정 1604
▁언급 1604
▁효율을 1604
▁400 1602
▁내수 1602
▁자료를 1602
업이 1602
5% 1601
▁칩 1601
자금 1601
▁고려해 1600
▁습 1600
▁100% 1599
▁노력을 1599
▁문재인 1598
▁현금 1598
명과 1598
.4 1596
▁기회가 1596
▁역사 1596
▁원인 1596
▁효과 1596
분이 1596
▁경제적 1595
▁괴 1595
▁시선을 1595
▁가득 1594
혼 1594
° 1593
▁45 1593
▁곳이 1593
▁봄 1593
▁전지를 1593
걸 1593
▁빨리 1592
▁상태로 1592
▁유입 1592
▁단기 1590
▁휘 1589
되어야 1589
룡 1589
▁충족 1588
점은 1588
▁지역사회 1587
겠다고 1587
쪽으로 1587
▁환자의 1586
▁33 1585
판매 1585
▁경쟁력을 1583
면이 1583
▁동일 1582
▁레이저 1582
▁SM 1581
▁경우도 1581
▁시기 1581
빙 1581
▁방전 1580
▁예고 1580
▁기준을 1579
▁옮겨 1579
니까 1579
펀드 1578
▁검증 1577
▁대로 1577
▁아침 1577
▁종료 1577
▁지역에서 1577
▁참여한 1577
내고 1577
해주는 1577
.7% 1576
▁생존 1576
▁LED 1574
▁가능하도록 1573
▁수사 1573
▁쓴 1573
▁커뮤니케이션 1572
정한 1572
in 1571
▁당초 1571
▁선보인 1571
▁이름이다 1571
▁차지하는 1571
▁패턴 1571
트와 1571
▁노조가 1570
▁이르는 1570
▁책임을 1570
▁현상 1570
대책 1570
섭 1570
업을 1569
곳 1568
▁페이 1567
.3% 1566
▁길을 1566
▁내고 1566
▁이로 1566
능 1565
된다는 1565
▁이야기가 1564
.2 1562
▁감시 1562
▁적합한 1562
.7 1561
▁여파로 1561
▁즉시 1561
▁기원합니다 1560
▁목표로 1560
▁최초의 1560
▁부분이 1559
▁사진을 1559
▁아우디 1559
▁나라 1557
망을 1557
터가 1557
▁공사 1556
▁높였다 1555
▁좋 1555
▁사장 1554
▁운영하고 1554
▁적지 1554
▁초등학교 1554
▁충분한 1554
소에 1554
▁덕분에 1553
▁지배 1553
▁그것은 1552
▁실현 1552
▁영역 1552
▁예비 1552
표를 1552
형을 1552
15 1551
▁밝힌 1551
▁향해 1551
턴 1551
▁비율이 1550
▁현장에서 1550
.6 1549
] 1549
▁끝에 1549
▁북미 1549
▁중심의 1549
▁즐길 1549
전문 1549
화하고 1549
▁분산 1548
▁클 1548
▁풀이된다 1548
▁가져 1547
▁대전 1547
▁캐 1547
▁기반의 1546
▁그러면서 1545
▁주문 1545
웠다 1545
▁구체적인 1544
해주 1544
▁매매 1543
졌고 1543
층이 1541
▁브레이크 1540
▁차원에서 1540
▁회원 1540
되자 1540
석을 1540
▁옛 1539
재로 1539
▁고용노동부 1538
▁밖에 1538
▁융합 1536
▁휠 1536
녀 1536
와는 1536
▁참여할 1535
▁너 1533
동에 1533
▁3, 1532
▁패널 1532
보면 1532
혈 1532
▁원래 1531
어요 1531
▁둘 1530
▁납부 1529
▁대거 1529
▁했 1529
▁회사의 1529
지에서 1529
▁오늘날 1528
▁크고 1527
누 1527
▁최신 1526
▁판매를 1526
▁활 1526
▁CJ 1525
▁관련한 1525
▁받는다 1524
or 1523
▁실천 1523
▁플레이 1523
굴 1523
▁곳이다 1522
▁나가 1522
▁시작으로 1522
시장에서 1522
화는 1521
▁높고 1520
▁사용자의 1520
부문 1520
▁근로자의 1519
▁안내해 1519
▁흑 1519
▁것이었다 1518
▁특징 1518
이라도 1518
▁마을의 1517
▁생명 1517
▁수강 1516
.9 1515
▁콜 1515
제와 1515
▁다수 1514
▁벽 1514
▁가치가 1513
▁점은 1513
▁현재까지 1513
억원의 1513
▁물질 1512
▁본다 1512
▁수학 1512
▁스티어링 1512
▁전쟁 1512
▁지닌 1512
▁참여하는 1512
정은 1512
▁상당 1511
▁종래의 1511
▁누구나 1510
▁모듈 1510
▁유행 1510
▁질병 1510
의를 1510
▁분석이다 1509
▁주주 1509
고가 1509
련 1509
▁이름이 1508
곤 1508
공사 1508
점으로 1508
▁확 1507
년의 1507
단계 1507
리아 1507
▁벗어나 1506
▁쓰는 1506
섬 1506
스러운 1506
적이다 1506
▁개인정보 1505
사고 1505
없는 1505
역을 1505
질을 1505
틀 1505
13 1504
이에 1504
▁프리 1503
▁머 1501
▁목소리가 1501
▁측면에서 1501
이라면 1501
▁전략을 1500
▁향한 1500
초등학교 1500
f 1499
▁경남 1499
▁택시 1499
랩 1499
▁각각의 1498
▁안테나 1498
▁들고 1497
▁에너지를 1497
▁적응 1497
▁매입 1496
▁본격적으로 1495
▁원자 1495
▁화상 1495
차의 1495
▁삽입 1494
랜드 1494
하였고 1494
▁억제 1493
▁후에 1493
소득 1493
쪽에 1493
▁글을 1492
▁수평 1492
▁견 1491
돈 1491
육 1491
▁모습 1490
▁법정 1490
▁출근 1490
▁정보가 1489
▁산화 1488
▁속도가 1488
▁인쇄 1488
운동 1488
▁신설 1487
류가 1487
.8% 1486
▁가을 1486
▁개방 1486
▁모니터링 1486
▁부정 1486
안에 1486
▁사태로 1485
학을 1485
▁당장 1484
심이 1484
▁대상이 1483
▁떨어진 1483
미가 1483
.6% 1482
▁북한 1482
일로 1482
▁경고 1481
▁바란다 1481
▁수직 1481
▁예산 1481
어는 1481
▁32 1480
▁모아 1480
▁효 1480
.1% 1479
▁불과 1479
▁확인됐다 1479
기준 1479
▁보이지 1478
▁분석이 1478
▁라인 1477
▁쏟아 1477
▁연령 1477
▁피해가 1476
부에서 1476
▁있을지 1475
▁단일 1474
▁이어지고 1474
▁르노 1473
▁상징 1473
▁줄여 1473
국민 1473
▁나노 1472
▁떠나 1472
▁삶의 1471
겨 1471
17 1470
▁느낄 1470
▁조명 1470
▁품 1470
▁반사 1469
가고 1469
▁법적 1468
치고 1468
▁말해 1467
▁재배 1467
▁희 1467
▁1,000 1466
만명 1466
▁건강한 1465
계획 1465
돼야 1465
▁맡 1464
▁애플 1464
벽 1464
le 1463
▁개발을 1463
▁핵 1463
연이 1463
▁커뮤니티 1462
▁능 1461
▁신뢰 1461
▁거리 1460
▁위치를 1460
▁자가 1460
▁정책을 1460
어도 1460
▁기울 1459
▁무역 1459
▁변화에 1459
▁저하 1459
신호 1459
▁매력을 1458
▁정확히 1458
▁수립 1457
▁시간에 1456
▁업체가 1456
▁처음이다 1456
캐 1456
▁외국 1455
▁청구 1455
나가 1455
지자 1455
허 1455
▁선호 1454
▁일자리를 1454
년을 1454
세로 1454
▁그를 1453
▁만들기 1453
▁삶을 1453
▁침해 1453
소와 1453
▁tvN 1452
▁그린 1452
▁변형 1452
▁이상을 1452
▁인물 1451
군이 1451
종의 1451
▁교사 1450
▁데다 1450
▁둘째 1450
▁세상을 1450
▁일은 1450
콜 1450
▁겪는 1449
▁그려 1449
▁배선 1449
▁출발 1449
▁현재는 1449
하려고 1449
▁무료 1448
▁미세 1448
▁형태 1448
복지 1448
탑 1448
▁정신 1447
▁플랫폼을 1447
▁니 1446
▁카카오 1446
억원에 1446
▁상환 1445
▁정착 1445
율은 1445
해질 1445
흥 1445
▁힘든 1444
쳤다 1444
해왔다 1444
힌 1444
it 1443
▁정당 1443
단은 1443
▁생각을 1442
▁행위 1442
었다고 1442
▁말이다 1441
안정 1441
▁부분을 1440
▁사무 1440
'( 1438
▁그들의 1438
▁뮤지컬 1438
▁붙여진 1438
▁최선을 1438
▁폭스바겐 1438
상과 1438
.3 1437
▁비용이 1437
▁암호화폐 1437
▁연결하는 1437
▁집에 1437
팔 1437
▁않아도 1436
▁영향으로 1436
▁일단 1436
▁중형 1436
▁참여해 1435
자들을 1435
▁센서 1434
▁재료 1434
부품 1434
어의 1434
▁건축 1432
▁권고 1432
▁슬 1432
▁주도 1432
SUV 1431
▁높 1431
▁단말 1431
▁답 1431
▁센터 1431
여명이 1431
학생 1431
▁성장을 1430
성으로 1430
텍 1430
▁불러 1429
▁시작된 1429
▁압축 1429
계약 1429
▁곳으로 1428
▁틀 1428
▁홀 1428
▁높아지고 1426
▁따뜻한 1426
▁사이버 1426
실에 1426
척 1425
확 1425
▁복수의 1424
▁편집 1423
조정 1423
▁기업에 1422
▁들어서 1422
▁도심 1421
▁복잡한 1421
문이 1421
▁나타나는 1420
▁마스크를 1420
▁진행된 1420
▁최근에는 1420
자들에게 1420
특 1420
▁방송된 1418
▁비즈니스 1418
▁현재의 1418
쇼 1418
수당 1418
진은 1418
▁끊 1417
정부 1417
▁많 1416
▁이끌어 1416
▁정기 1416
현이 1416
▁건조 1415
▁방과후학교 1415
위원 1415
▁마을로 1414
검사 1414
때 1414
리며 1414
▁게시 1413
▁수익을 1413
▁언 1413
▁대한민국 1412
등급 1412
부로 1412
하나 1412
▁떨어져 1411
▁언제 1411
▁지하 1411
대학 1411
▁감독이 1410
▁사이에서 1410
▁생각한다 1410
▁숲 1410
▁얼마 1410
액은 1410
▁계곡 1409
▁과제로 1409
▁뉴욕 1409
▁도로가 1409
▁위축 1409
응 1409
0% 1408
an 1408
▁끼 1408
▁대해서 1408
▁줄어들 1408
좌 1408
호선 1408
▁신청을 1407
달러 1407
활동을 1407
선은 1406
▁레이 1405
▁수급 1405
▁적어도 1405
▁진입 1405
▁찾 1405
▁막기 1404
▁목적이 1404
▁불가능 1404
▁면역 1403
▁열어 1403
▁참여를 1403
자산 1403
▁겨울 1402
▁업종 1402
▁일반적인 1402
▁이익 1401
서울 1401
영이 1401
일과 1401
혁 1401
▁컨 1400
▁탄생 1400
▁상상 1399
액의 1399
▁엔진을 1398
경이 1398
▁맥 1397
▁솔루션 1397
람 1397
모델 1397
▁현행 1396
▁혼자 1396
대표 1396
.0 1395
18 1395
▁마주 1395
▁빠 1395
▁접수 1394
▁중소 1394
7% 1393
▁다음달 1392
▁보관 1392
솔 1392
▁38 1391
▁대표가 1391
▁모습으로 1391
갔다 1391
실에서 1391
▁생각하는 1390
▁전망이 1390
▁주제로 1390
주에 1390
방법 1389
정보를 1389
▁발생했다 1388
▁힘이 1388
k 1387
▁강의 1387
▁발급 1387
?" 1386
▁식품 1386
▁절대 1386
권의 1386
▁금리가 1385
▁열리는 1385
▁보도했다 1384
▁주목된다 1384
▁핀테크 1384
슈 1384
▁무인 1383
▁문제로 1383
▁90 1382
▁덜 1382
▁예약 1382
점에 1382
질환 1382
▁개입 1381
▁그것을 1381
▁나선다 1381
▁달성 1381
▁소비자가 1381
료가 1381
상에서 1381
먼 1380
▁차를 1379
▁핀 1379
신호를 1379
업에 1379
▁널리 1378
▁방향을 1378
▁포함된 1378
▁단순히 1377
▁문자 1377
▁물을 1377
▁방송을 1377
▁심사 1377
▁드립니다 1376
▁사업장 1376
체로 1376
▁설득 1375
▁참석해 1375
되었고 1375
.8 1374
ic 1374
▁지역은 1374
십 1374
▁감지 1373
▁시절 1373
관에 1373
하였으며 1373
▁발생되는 1372
▁기술의 1371
▁다양 1371
▁이것이 1371
연구원 1371
해지고 1371
▁남쪽 1370
▁사고가 1370
▁제공하기 1370
자들 1370
▁사모펀드 1369
겠지만 1369
▁때도 1368
▁몰 1368
▁위로 1368
▁장소 1368
시장에 1368
인으로 1368
200 1367
▁개봉 1367
▁진공 1367
25 1366
▁양극 1366
▁이론 1366
▁입주 1366
∼2 1365
▁위원 1365
▁강제 1364
▁경쟁이 1363
▁급격히 1363
비용 1363
일은 1363
권에 1362
나라 1360
죠 1359
닉 1358
kg 1357
▁끌어 1357
▁존 1357
학기 1357
▁경험이 1356
▁나타난다 1356
▁소규모 1356
▁착용 1356
▁그만큼 1355
▁기판의 1355
▁잡아 1355
▁것인지 1354
▁기대가 1354
▁땅 1353
▁일정한 1353
▁주변에 1353
▁갖는다 1352
▁못할 1352
▁묘 1352
▁저감 1352
▁지나고 1352
관의 1352
었을 1352
재는 1352
▁살고 1351
▁여자 1351
일의 1351
▁함으로써 1350
아야 1350
▁전망된다 1349
서도 1349
헌 1349
▁믿 1348
▁회장의 1348
식은 1348
CC 1347
▁주말 1347
▁보기 1346
▁오토 1346
▁자동차의 1346
욱 1346
천의 1346
▁이른바 1345
▁이사 1345
크를 1345
▁요구하는 1344
▁필요하다는 1344
실로 1343
▁혼합 1342
▁곳에서 1341
▁블 1341
▁적용해 1341
끼 1341
혁신 1341
▁직업 1340
▁커버 1340
▁“ 1338
생을 1338
▁게임을 1337
▁내용은 1337
▁세포 1337
▁내비게이션 1335
▁선임 1335
▁시대에 1335
▁엔 1335
으로써 1335
학습 1335
▁가능성도 1334
▁내부에 1334
운영 1334
춘 1334
▁소통 1333
▁역대 1333
▁서쪽 1332
객 1332
▁다가 1331
▁공시 1330
▁제외 1330
▁출범 1330
가량 1330
페이 1330
해를 1330
IT 1329
▁유사한 1329
▁노동자의 1328
▁된다는 1328
▁싶다 1328
▁영향이 1328
▁줄었다 1328
지방 1328
▁쌓 1327
▁자신 1327
사들은 1327
증이 1327
▁수십 1326
▁아이폰 1326
리게 1326
벤츠 1325
▁성과 1324
▁요즘 1324
선과 1324
▁달려 1323
▁떨어 1323
▁분야의 1323
▁150 1322
▁기업은 1322
▁동반 1322
▁진행하고 1321
있 1321
종이 1321
음이 1320
▁떠 1319
▁분위기를 1319
▁않 1319
▁조사를 1319
▁해양 1319
식에 1319
죽 1319
금리 1318
동은 1318
▁임상 1317
▁증명 1316
▁측이 1316
▁케이 1316
4% 1315
▁대부분이 1315
물질 1315
▁수준을 1314
대출 1314
으 1314
은행의 1314
▁같 1313
▁부가 1313
▁분할 1313
▁고객의 1312
▁발명 1312
▁시스템에서 1312
조선 1312
▁가정에 1311
▁쌍용차 1311
께 1311
꽃 1311
▁받게 1310
빛 1310
터에 1310
▁기대감을 1309
▁압 1309
▁기술은 1308
▁입증 1308
▁실패 1307
월에는 1307
은행은 1307
주고 1307
▁단말기의 1305
▁언어 1305
치의 1305
학의 1305
▁생각해 1304
▁전지의 1304
겠 1304
센터에서 1304
▁부처 1303
▁연구개발 1303
▁조합원 1303
약을 1303
▁넘치는 1302
▁만들어진 1302
▁설비 1302
▁이루어져 1302
▁존재하는 1302
히는 1302
▁히 1301
▁단말기 1300
▁생겨 1300
▁얼굴 1300
▁피부 1300
▁전망했다 1299
▁가열 1298
▁그간 1298
▁인하여 1298
▁자동차를 1298
▁행사를 1298
on 1297
▁근거 1297
▁늘어 1297
▁일하는 1297
▁환자는 1297
▁볼보 1296
▁쉐보레 1295
▁임대 1295
▁제조업 1295
법은 1295
▁늘어날 1294
▁깜짝 1293
▁지속적인 1293
▁발병 1292
▁유발 1292
▁입장 1292
소로 1292
▁J 1291
▁건너 1291
▁대출을 1291
▁보존 1291
▁쉬 1291
▁오디오 1291
▁페이스북 1291
▁한정 1291
되었으며 1291
일에는 1291
16 1290
▁꿈 1290
▁뜻 1290
▁사용한다 1290
▁보험료 1289
▁차지 1289
▁합성 1289
분에 1289
▁이용자 1288
▁휴대용 1288
▁발매 1287
분야 1287
으니 1287
▁방안 1286
▁증대 1286
▁측면 1286
았던 1286
▁구비한 1284
▁그들은 1284
▁이웃 1284
해온 1284
▁아래의 1283
▁취득 1283
▁폐렴 1283
▁높여 1282
▁특유의 1282
기기 1282
▁꺼 1281
▁들어간 1281
▁별도로 1281
▁보유하고 1281
▁컨트롤 1281
▁퇴직 1281
▁서버 1279
▁정리 1279
▁포함한다 1279
데이터 1279
물과 1279
▁손실을 1278
▁유치 1278
▁질환 1278
▁상태가 1277
▁이벤트 1277
▁탑승 1277
▁JTBC 1276
▁눈을 1276
▁불량 1276
▁집을 1276
잡 1276
▁가로 1275
▁거부 1275
▁규 1275
▁낮아 1275
티브 1275
화학 1275
▁( 1274
▁시스템은 1274
▁찾을 1274
▁특별관계자의 1274
▁수를 1273
▁가상 1272
면으로 1272
▁남북 1271
▁단순한 1271
▁비판 1271
▁자녀의 1271
됐던 1271
류를 1270
▁내놓은 1269
▁상생 1269
▁설치된 1269
▁술 1269
▁실시간으로 1269
▁안전하게 1269
얼 1269
▁일상 1268
▁나갈 1267
▁발굴 1267
▁학생의 1267
분석 1267
식과 1267
8% 1266
▁계열 1266
▁태양광 1266
법인 1266
역이 1266
▁공감 1265
▁아이들이 1265
▁않기 1265
▁줄어든 1265
도시 1265
▁공정을 1264
▁세정 1263
▁수수료 1263
▁자유롭게 1263
▁지표 1263
젠 1263
핀 1263
▁경쟁력 1262
▁영양 1262
▁위협 1262
▁잘못 1262
▁특성이 1262
하더라도 1262
▁미국에서 1261
▁북쪽 1261
▁프레임 1261
▁개인의 1260
▁맡은 1260
▁않는다는 1260
▁육성 1260
▁투자자 1260
▁시범 1259
▁안전을 1259
▁쿠페 1259
류의 1259
받아 1259
▁나눠 1258
▁올해는 1258
▁한계가 1258
코리아는 1258
▁구성되어 1257
▁사장은 1257
▁에어 1257
름이 1257
▁꾸 1256
▁이유다 1256
▁일이다 1256
경을 1256
▁보도 1255
▁블랙 1255
▁인가 1255
▁장관 1255
되기도 1255
들어 1255
컨 1255
테크 1255
▁스크린 1254
▁앤 1254
되거나 1254
휴 1254
at 1253
▁급여 1253
▁동영상 1253
▁회사는 1253
납 1253
▁첫째 1252
▁본인 1251
▁브 1251
▁동료 1250
▁산업의 1250
▁잠시 1250
장애 1250
▁70% 1249
더니 1249
▁건립 1248
▁관객 1248
▁대처 1248
▁미니 1248
▁비교해 1248
▁일어나 1248
동과 1248
점에서 1248
제품 1248
▁내다봤다 1247
▁동참 1247
▁수영 1247
▁협약 1247
일간 1247
쯤 1247
▁상업 1246
▁시스템이 1246
▁적용한 1246
보가 1246
▁않습니다 1244
억원이 1244
위원회가 1244
▁상당한 1243
▁올려 1243
▁행복한 1243
▁받 1242
▁흐르고 1242
▁말하는 1241
▁알루미늄 1241
사랑 1241
전의 1241
하라 1241
번째 1240
▁출연해 1239
면과 1239
▁높게 1238
▁라디오 1238
▁부하 1238
▁직후 1238
▁현대자동차 1238
▁사업에 1237
▁충격 1237
직을 1237
▁만든다 1236
▁척 1236
▁낙동강 1235
▁메인 1235
▁제약 1235
▁안정적으로 1234
▁진행하는 1234
▁쿠 1234
어로 1234
▁극복 1233
▁파워 1233
▁많고 1232
▁투표 1232
프로 1232
▁도출 1231
▁웨이퍼의 1231
최 1231
재의 1230
▁러시아 1229
▁발전을 1229
▁사과 1229
▁입장이다 1229
▁재개 1229
▁종교 1229
▁후속 1229
르고 1229
먹 1229
힐 1229
x 1228
▁깊이 1228
▁무급휴직 1228
▁종사 1228
미터 1228
차에 1228
치료 1228
▁동쪽 1227
▁방식이다 1227
▁선보였다 1227
▁유지할 1227
52 1226
▁뒤에 1226
▁세부 1226
방법을 1226
사용 1226
움을 1226
▁트럼프 1225
▁파견 1225
기능 1225
▁카페 1224
라가 1224
▁냈다 1223
▁인프라 1223
풀 1223
▁2007 1222
▁건강보험 1222
▁이제는 1222
▁코스닥 1222
▁소리 1221
▁엄마 1221
▁휴업 1221
▁구성하는 1220
▁박막 1220
해졌다 1220
▁맞게 1219
▁유전자 1219
원들이 1219
▁못해 1218
▁연결된 1218
▁영향 1218
방지 1218
전극 1218
해지는 1218
▁생산하는 1217
▁얼 1217
▁체계 1217
건강 1217
됐다는 1217
▁유동 1216
▁형성하는 1216
Q 1215
▁계절 1215
[ 1214
▁곳은 1214
▁방지하는 1214
▁차량이 1214
▁투명 1214
▁연구가 1213
▁이유가 1213
건의 1213
군은 1213
등을 1213
질이 1213
하려 1213
▁유사 1212
▁정부와 1212
▁하오니 1212
▁반대로 1211
▁의존 1211
어져 1211
전자가 1211
▁국산 1210
▁르노삼성 1210
▁만난 1210
드로 1210
▁34 1209
▁흥 1209
상담 1209
▁결정을 1208
▁방식의 1208
▁포인트 1208
▁한국노총 1208
졌다는 1208
▁감소했다 1207
▁그것이 1207
▁농업 1207
▁신문 1207
▁주의 1207
▁층 1207
▁경우에도 1206
▁관계가 1206
▁노동조합 1206
▁사전에 1205
▁완전 1205
▁재판부는 1205
▁모습이다 1204
▁스위치 1204
▁취약 1204
생이 1204
▁갈수록 1203
▁법인 1203
▁이래 1203
해가 1203
▁개선을 1202
▁선물 1202
▁심리 1202
▁위탁 1202
▁주지 1202
▁창의 1202
준다 1202
짐 1202
▁쇼 1201
▁얻 1201
▁참석했다 1201
▁크기 1201
▁한국인 1201
홈 1201
▁기술과 1200
▁다르게 1200
▁보수 1200
▁영화를 1200
주로 1200
▁1990 1199
▁배당 1199
▁위기에 1199
▁이주 1199
감과 1199
민이 1199
째 1199
▁공공기관 1198
대에서 1198
▁결과에 1197
▁내용의 1197
▁넘게 1197
▁선보일 1197
▁진행한다 1197
3% 1196
▁돌려 1196
▁시점 1196
▁위기를 1196
▁위치하고 1196
이스 1196
틴 1196
▁내지 1195
▁미칠 1195
▁이들을 1195
▁참석한 1195
▁환경에서 1195
▁관측 1194
▁남은 1194
▁수행할 1194
▁유전 1194
▁판결 1194
주기 1194
차량 1194
▁연결되어 1193
▁출입 1193
▁목표를 1192
▁소송을 1192
▁책을 1192
장비 1192
▁시승 1190
▁지하철 1190
2% 1189
▁따로 1189
▁수행하는 1189
▁절차를 1189
생산 1189
엽 1189
이드 1189
▁PD 1188
▁때문 1188
▁합병 1188
교육을 1188
밍 1188
▁가능해 1187
▁그럼에도 1187
▁왔 1187
▁입은 1187
득 1187
보를 1187
▁나타난 1186
▁듯한 1186
▁미국과 1186
채널 1186
▁근로자가 1185
▁둘러싼 1185
▁밑 1185
▁빛을 1185
▁선언 1185
▁여기 1185
▁적정 1185
▁준수 1185
▁중계 1185
re 1184
▁불교 1184
▁불편 1184
▁신뢰성을 1184
▁신청서를 1184
됐지만 1184
림을 1184
폴 1184
▁거대한 1183
▁고통 1183
▁어려움이 1183
느냐 1183
6% 1182
▁교섭 1182
▁남자 1182
▁무슨 1182
▁적층 1182
J 1181
▁사용하지 1181
▁필요하다고 1181
▁담겼다 1180
▁사용하고 1180
▁우한 1180
하기에 1180
▁졸업 1179
▁키워 1179
▁패키지 1179
사들의 1179
플레이 1179
▁막을 1178
▁읽 1178
▁적용할 1178
▁지역을 1178
막의 1178
서비스를 1178
▁37 1177
▁노조의 1177
▁대책을 1177
▁방송된다 1177
▁전부 1177
▁줄이고 1177
▁행동을 1177
보증 1177
ol 1176
▁자극 1176
▁자회사 1176
산에 1176
▁55 1175
▁응용 1175
▁마을은 1174
▁빼 1174
▁어떠한 1174
▁입을 1174
▁진짜 1174
▁깊 1173
▁마을을 1173
▁목적 1173
1% 1172
▁꼽힌다 1172
▁말씀 1172
▁사용이 1172
▁시리즈 1172
서와 1172
시와 1172
▁승인 1171
▁이루어지는 1171
면에서 1171
었습니다 1171
▁써 1170
림이 1170
▁발생한다 1169
▁수리 1169
▁최저 1169
▁훈련 1169
▁기대하고 1168
▁다르다 1168
▁들이 1168
▁국내에 1167
▁기기 1167
▁옷 1167
종을 1167
회로에 1167
▁바이 1166
▁접합 1166
▁가능하며 1165
▁구속 1165
▁손상 1165
▁이내 1165
▁힘들 1165
았 1165
▁되면서 1164
▁직원이 1164
▁부모 1163
24 1162
▁중증 1162
▁민주 1161
궁 1161
만원으로 1161
실이 1161
▁사항을 1160
▁신한 1160
▁연말 1160
▁트럭 1160
▁p 1159
▁값 1159
▁삼성전자가 1159
스에서 1159
▁모른다 1158
▁산하 1158
▁칠 1158
감독 1158
공간 1158
시간이 1158
예방 1158
▁담아 1157
관과 1157
컬 1157
MS 1156
▁나설 1156
▁상에 1156
만원의 1156
▁재판 1155
▁추출 1155
값 1155
케이 1155
▁늦 1154
▁메시지 1154
▁홍콩 1154
▁토대로 1153
자도 1153
▁향상을 1152
▁화재 1152
리면서 1152
차원 1152
▁자연스럽게 1151
큐 1151
▁무대 1150
무를 1150
5000 1149
▁매출이 1149
▁설문 1149
▁연락 1149
▁질문 1149
▁회수 1149
세포 1149
컴 1149
▁북서 1148
▁접착 1148
▁사용된다 1147
넷 1147
미는 1147
으므로 1147
▁주인공 1146
▁최적의 1146
건이 1146
롱 1146
▁NH 1145
▁물류 1145
▁상용 1145
▁없기 1145
▁영역을 1145
벨 1145
▁계기로 1144
▁재무 1144
▁판단했다 1144
국에 1144
밖에 1144
▁IP 1143
▁선발 1143
▁제일 1143
칸 1143
▁먹고 1142
▁봤다 1142
▁엘 1142
▁48 1141
▁5000 1141
▁섭취 1141
▁웃 1141
▁작품을 1141
웨이 1141
차로 1141
▁되었습니다 1140
▁이상으로 1140
▁적합 1140
▁지역으로 1140
건설 1140
쓰 1140
체험 1140
▁공장을 1139
▁구조에 1139
▁벌어 1139
▁신체 1139
▁좋지 1139
간다 1139
건을 1139
길이 1139
▁복잡 1138
▁스피커 1138
▁업계의 1138
▁역할 1138
▁창원 1138
셔 1138
▁방학 1137
▁이용자가 1137
▁있었지만 1137
▁평가했다 1137
▁경로 1136
구와 1136
밤 1136
▁80% 1135
▁공포 1135
▁도착 1135
▁보여주는 1135
▁지원이 1135
▁구조가 1134
▁선생님 1134
▁채택 1134
▁평야 1134
락을 1134
엄 1134
▁개념 1133
▁분포 1133
▁사건이 1133
▁신속하게 1133
▁학생은 1133
주시 1133
▁약속 1131
공원 1131
내에 1131
▁물리 1130
▁방송되는 1130
받고 1130
14 1129
▁65 1129
▁내린 1129
▁장르 1129
▁조건을 1129
▁강릉 1128
▁리콜 1128
▁이외에도 1128
▁흔들 1128
광고 1128
우고 1128
▁먼 1127
▁무대를 1127
▁레벨 1126
▁모르는 1126
▁적용된 1126
▁차이를 1126
격을 1126
년도 1126
Z 1125
▁누가 1125
그룹이 1125
▁복귀 1124
▁아무리 1124
▁에이 1124
▁이유를 1124
▁제도를 1124
▁파업을 1123
▁하나는 1123
성도 1123
▁영세 1122
▁출시한 1122
었으나 1122
진과 1122
텐 1122
▁별도 1121
▁응급 1121
▁일부를 1121
개로 1121
국을 1121
체인 1121
▁식각 1120
▁유래 1120
▁포털 1120
마저 1120
▁하더라도 1119
여서 1119
틱 1119
▁떨어지는 1118
▁세계적으로 1118
▁택 1118
▁활동이 1118
시장이 1118
▁결과는 1117
▁덮 1117
▁방출 1116
▁어려울 1116
▁정해 1116
▁했다고 1116
▁움직이는 1115
▁정밀 1115
안의 1115
하였습니다 1115
▁4, 1114
▁마이 1114
▁획득 1114
바이 1114
종합 1114
활 1114
▁GS 1113
▁도요타 1113
▁갖게 1112
▁다섯 1112
▁대화를 1112
▁소송 1112
▁실시한 1112
▁특징을 1112
하여야 1112
▁갖추고 1111
▁이차 1111
▁집에서 1111
공급 1111
재단 1111
w 1110
▁연구는 1110
▁착 1110
자본 1110
희가 1110
▁감소한 1109
▁대통령이 1109
▁빠져 1109
▁연동 1109
▁필요로 1109
색을 1109
시리즈 1109
식의 1109
▁관점에서 1108
▁모델로 1108
▁전부터 1108
▁정도가 1108
▁오프라인 1107
▁이루는 1107
▁탓에 1107
▁토론 1107
기생충 1107
보건 1107
▁형성하여 1106
되므로 1106
씨를 1106
인치 1106
푸 1106
▁구조의 1105
▁능력 1105
▁발휘 1105
▁움직 1105
어나 1105
위원회는 1105
조합 1105
▁파업에 1104
▁도달 1103
▁뿐이다 1103
▁석유 1103
▁쇼핑 1103
▁개학 1102
▁서비스는 1102
▁소셜 1102
▁통상 1102
▁편이다 1102
▁생각했다 1101
▁시기에 1101
주와 1101
칼 1101
▁나타내는 1100
▁열심히 1100
▁장면 1100
▁전체의 1100
▁주기 1100
▁학생이 1100
▁화제를 1100
잔 1099
중인 1099
en 1098
▁아무 1098
▁올렸다 1098
▁운전자가 1098
▁위원장은 1098
▁있었고 1098
▁생태 1097
▁쏘나타 1097
▁종목 1097
▁통보 1097
시장의 1097
▁가질 1096
▁이탈 1096
▁편리하게 1096
▁푸 1096
▁Q 1095
▁교류 1095
▁끌었다 1095
▁발생을 1095
▁블록 1095
▁없지만 1095
▁초점을 1095
공단 1095
▁부품을 1094
▁환경에 1094
▁단말기에 1093
▁멀리 1093
▁않다는 1093
▁정치적 1093
▁제네시스 1093
▁증착 1093
미를 1093
▁기사 1092
▁마지막으로 1092
▁비대면 1092
▁포르쉐 1092
▁긍정적인 1091
▁발생하고 1091
▁사업은 1091
▁없었던 1091
개월간 1091
회와 1091
▁라이 1090
▁바꾸 1090
▁표면에 1090
▁확보할 1090
둥 1090
PC 1089
▁기재 1089
▁부채 1089
▁진행할 1089
▁포드 1089
▁활용하는 1089
데이 1089
판에 1089
▁기여 1088
▁보일 1088
▁아니냐는 1088
▁없도록 1088
▁이행 1088
비와 1088
우의 1088
▁가격을 1087
▁기대한다 1087
▁사업이 1087
▁산정 1087
▁종류의 1087
국에서 1087
도에서 1087
▁i 1086
▁기간이 1086
▁높이기 1086
▁닛산 1086
▁몸을 1086
▁사람에게 1086
▁수도권 1086
▁쉬운 1086
▁형광 1086
제한 1086
▁공개됐다 1085
▁디자인을 1085
▁미세먼지 1085
▁좌우 1085
▁학교에서 1085
님이 1085
▁농촌 1084
▁독특한 1084
▁사고를 1084
▁지형 1084
▁내렸다 1083
▁방문해 1083
▁세계적인 1083
▁신곡 1083
▁입고 1083
시킴으로써 1083
▁되도록 1082
▁목소리를 1082
▁환자를 1082
▁과정이 1081
▁등급 1081
▁발생하지 1081
▁역량을 1081
2' 1080
99 1080
▁소방 1080
▁앞둔 1080
▁지출 1080
▁멀 1079
▁세대 1079
▁유명한 1079
▁지점 1079
상태 1079
▁슈 1078
▁길게 1077
▁들어가는 1077
▁배열 1077
▁지원하고 1077
금으로 1077
▁기술에 1076
▁이익을 1076
▁이자 1076
▁환경이 1076
치에 1076
▁고객에게 1075
▁내장 1075
▁도서 1075
▁저는 1075
▁진행한 1075
IP 1074
▁기간제 1074
▁사람들에게 1074
▁소비자의 1074
▁심각 1074
▁의견이 1074
▁분기 1073
▁주변의 1073
천과 1073
▁스포츠카 1072
▁이해할 1072
구조를 1072
오고 1072
▁노후 1071
▁돌봄 1071
▁매수 1071
▁분해 1071
▁범위 1070
▁학부모님께 1070
▁흥행 1070
▁뛰어 1069
▁문제점을 1069
▁사내 1069
▁올바른 1069
▁음극 1069
▁의결 1069
▁징 1069
내가 1069
▁m 1068
▁기업과 1068
▁묻 1068
▁반응이 1068
▁형성하고 1068
방이 1068
▁담임선생님께 1067
▁사람들 1067
▁솔 1067
▁아들 1067
▁이어졌다 1067
산화 1067
OS 1066
▁2006 1066
▁공통 1066
▁기후 1066
노동자 1066
청이 1066
.0% 1065
▁방식이 1065
▁여부 1065
▁용이 1065
▁자금이 1065
시기 1065
▁고객을 1064
겐 1064
▁규제를 1063
▁무한 1063
▁소속사 1063
▁주식을 1063
▁협상 1063
화될 1063
▁것이며 1062
▁그러므로 1062
▁대법원 1062
▁부실 1062
▁진행되는 1062
▁추적 1062
크의 1062
▁3000 1061
▁납 1061
▁되기 1060
▁애니메이션 1060
▁캐딜락 1060
▁후원 1060
씨와 1060
▁고속도로 1059
▁급등 1059
▁늘어나 1059
▁엄청난 1059
▁진로 1059
▁분야에 1058
▁생기는 1058
▁의해서 1058
참 1058
▁가변 1057
▁교과 1057
▁구체적으로 1057
▁느끼는 1057
▁달한다 1057
▁업계에서는 1057
▁엑 1057
▁벨 1056
▁시대의 1056
▁증가하는 1056
▁찍 1056
▁나타나고 1055
▁대리 1055
▁스트 1055
▁지불 1055
▁형태를 1055
▁에스 1054
▁지분을 1054
▁확산으로 1054
공정 1054
한테 1054
▁모델이 1053
▁모으고 1053
▁실적이 1053
▁인간이 1053
▁자랑 1053
▁클럽 1053
▁폭이 1053
▁플라스틱 1053
▁2005 1052
▁유효 1052
▁자사 1052
▁진정 1052
▁능력이 1051
▁못한다 1051
▁세계에서 1051
▁손쉽게 1051
링을 1051
웅 1051
▁줄이는 1050
▁펼쳐 1050
부터는 1050
▁쓰고 1049
▁얻고 1049
▁쟁 1049
▁처벌 1049
급여 1049
당은 1049
수익 1049
책을 1049
▁갈등 1048
▁끝난 1048
▁대량 1048
▁돌아가 1048
▁라이브 1048
▁바뀌 1048
화되고 1048
▁40% 1047
▁CEO 1047
▁끌고 1047
▁드러나 1047
▁비행 1047
▁선박 1047
▁호출 1047
각을 1047
▁살펴보면 1046
▁생활을 1046
▁자동차보험 1046
100 1045
▁공개한 1045
▁수백 1045
▁풀어 1045
사업을 1045
션을 1045
시험 1045
리면 1044
▁관람 1043
▁독서 1043
▁매주 1043
▁헤드 1043
있다 1043
점과 1043
▁사례를 1042
▁잇따라 1042
터는 1042
IC 1041
▁가격은 1041
▁형성되는 1041
대한 1041
▁1% 1040
▁임직원 1040
기구 1040
크로 1040
협의 1040
▁고도 1039
▁공무원 1039
▁쪽으로 1039
▁폐지 1039
▁학부모님께서는 1039
체계 1039
▁칸 1038
▁효율적인 1038
방향 1038
움이 1038
▁강사 1037
▁개선된 1037
▁규모는 1037
▁임금을 1037
▁제시한 1037
▁참고 1037
▁채널을 1037
▁흔히 1037
▁남쪽으로 1036
▁내연기관 1036
▁맞은 1036
▁없습니다 1036
킨 1036
항공 1036
▁규모를 1035
▁말할 1035
▁문제에 1035
▁뭐 1035
▁싶 1035
받지 1035
차와 1035
▁뜻을 1034
▁북동 1034
매를 1034
별로는 1034
셨 1034
▁90% 1033
▁방열 1033
▁올린 1033
▁조회 1033
렉 1033
▁사건을 1032
등록 1032
선으로 1032
호를 1032
▁그랜저 1031
▁방송에서는 1031
▁송수신 1031
▁신천지 1031
▁운송 1031
▁트랜지스터 1031
렁 1031
▁높았다 1030
▁조사됐다 1030
▁투쟁 1030
▁하늘 1030
임이 1030
▁감축 1029
▁들어갔다 1029
▁이전에 1029
▁인기가 1029
▁저렴한 1029
▁파트너 1029
인당 1029
AR 1028
▁있었 1028
밭 1028
▁그러한 1027
▁리드 1027
▁발명에서는 1027
▁백신 1027
▁순환 1027
▁등이다 1026
▁보여준다 1026
▁존중 1026
석의 1026
할지 1026
▁이목을 1025
▁전동 1025
금의 1025
▁감안하면 1024
▁기다 1024
▁않지만 1024
▁연금 1024
▁쥐 1024
▁분석을 1023
관에서 1023
용으로 1023
층에 1023
▁개통 1022
▁만기 1022
▁수납 1022
▁아마존 1022
▁전남 1022
▁터보 1022
▁혼다 1022
럼 1022
렬 1022
▁공부 1020
▁유의 1020
▁지원할 1020
목을 1020
▁관리를 1019
▁기존에 1019
▁분명 1019
▁없게 1019
▁쪽 1019
▁콘 1019
망이 1019
▁도와 1018
▁때에는 1018
▁패턴을 1018
으로도 1018
▁고온 1017
▁대체로 1017
▁여성이 1017
▁유일한 1017
질의 1017
▁모양 1016
▁속도로 1016
▁했고 1016
▁향상시키는 1016
▁빚 1015
▁사기 1015
▁원인이 1015
▁정해진 1015
지인 1015
펜 1015
▁과도한 1014
▁마련했다 1014
▁선도 1014
▁제고 1014
▁홈페이지 1014
탕 1014
▁결정했다 1013
▁데이터의 1013
▁이사회 1013
건으로 1013
론을 1013
임금 1013
9% 1012
▁앱을 1012
▁이해하고 1012
▁일환으로 1012
▁전담 1012
▁괴롭힘 1011
▁순수 1011
▁스포츠유틸리티차량 1011
▁총괄 1011
롤 1011
▁강하게 1010
▁양호한 1010
호의 1010
가능 1009
▁내의 1008
▁지금의 1008
▁코팅 1008
▁팩 1008
값을 1008
▁산림 1007
▁선택할 1007
▁장관은 1007
▁주입 1007
▁탐 1007
▁편성 1007
국은 1007
났다 1007
▁무료로 1006
▁의원 1006
▁이어진 1006
▁커질 1006
나무가 1006
램 1006
룸 1006
▁거리를 1005
▁그렇지 1005
▁노사가 1005
▁답했다 1005
▁링 1005
▁바닥 1005
▁삭제 1005
▁실적을 1005
▁자격 1005
▁자원 1005
▁취급 1005
었기 1005
▁수업을 1004
▁압박 1004
▁이번이 1004
▁좋아하는 1004
▁증거 1004
▁가슴 1003
▁꼽 1003
▁남편 1003
▁모델은 1003
▁앉아 1003
▁치매 1003
만여 1003
청은 1003
▁경향이 1002
▁끈다 1002
▁노력이 1002
▁배경 1002
▁작업이 1002
▁투자가 1002
▁현대차의 1002
▁계좌 1001
▁기대감이 1001
▁작가 1001
▁제재 1001
▁판매량이 1001
이용 1001
▁기록한 1000
▁라임 1000
▁소식이 1000
▁어렵다는 1000
▁칼 1000
▁필름 1000
▁흐름을 1000
고객 1000
안은 1000
에스 1000
협력 1000
▁범위를 999
▁쌍 999
판이 999
▁대우 998
▁매체 998
▁반발 998
▁포장 998
결과 998
꾼 998
었다는 998
▁드러났다 997
▁명령 997
▁창조 997
▁캠페인 997
로로 997
식으로 997
▁약간 996
결제 996
▁기준이 995
▁모드 995
▁모래 995
▁부탁 995
교가 995
▁2021 994
▁구독 994
▁기간을 994
▁누구 994
▁산출 994
연합 994
▁격려 993
▁당부했다 993
▁되며 993
▁무렵 993
▁오랫동안 993
▁직전 993
▁진행되고 993
억달러 993
▁고개 992
▁늘려 992
▁일어나는 992
▁청와대 992
군을 992
35 991
▁거래가 991
▁사람들을 991
▁심지어 991
▁아티스트 991
▁제정 991
▁협업 991
석은 991
▁공급하는 990
▁물론이고 990
▁체크 990
▁충격을 990
스포츠 990
았고 990
었으며 990
▁닫 989
▁맡아 989
▁의료기관 989
▁인권 989
▁창작 989
국과 989
됐으며 989
탁 989
ed 988
▁명시 988
▁소중한 988
▁원칙 988
▁인생 988
▁재산 988
MA 987
▁소화 987
▁유형 987
▁있었는데 987
▁자아 987
구로 987
▁가정에서 986
▁극대화 986
▁심한 986
▁즐거운 986
山 986
▁EV 985
▁끌 985
▁풍부한 985
시대 985
▁갑 984
▁바람 984
▁음식을 984
▁조각 984
산에서 984
코리아가 984
혔다 984
▁명예 983
▁빅 983
▁음원 983
▁지금도 983
기고 983
전기 983
▁변속 982
▁스튜디오 982
▁자아냈다 982
▁정전 982
연을 982
▁개인이 981
▁관련이 981
▁나의 981
▁성형 981
된다고 981
막이 981
세는 981
▁머리 980
▁수준이 980
▁이하의 980
▁건강과 979
▁남동 979
▁물리학 979
▁부분에 979
▁이재 979
▁진행했다 979
▁한계 979
리스트 979
천을 979
▁나오 978
▁세라믹 978
▁옛날 978
▁탄성 978
▁펼쳐져 978
이게 978
ro 977
▁담보 977
▁출시를 977
갔 977
길을 976
멸 975
예술 975
▁규칙 974
▁금융권 974
▁단속 974
▁방지하기 974
▁수준에 974
▁원을 974
▁셋째 973
▁트랙 973
같이 973
사항 973
▁1980 972
▁가해 972
▁기술이다 972
▁바꿔 972
▁퇴적 972
▁해결하기 972
셜 972
▁강렬한 971
▁억 971
▁연합 971
목이 971
하기가 971
회에서는 971
▁이루 970
▁짜 970
▁취약계층을 970
▁흡 970
PS 969
▁관계없이 969
▁관해 969
▁적용되는 969
▁하나가 969
▁분위기가 968
만한 968
식품 968
▁뒤를 967
▁모습은 967
▁실무 967
찰 967
하기는 967
▁광고를 966
▁기술로 966
▁벤처 966
▁부진 966
▁얻은 966
▁46 965
▁과학기술 965
▁기관이 965
▁돌파 965
▁말에 965
▁밭 965
▁차이 965
▁헌 965
▁협조를 965
럭 965
심의 965
▁물리적 964
▁학생들에게 964
가스 964
▁가량 963
▁김영 963
▁스위칭 963
▁유동성 963
가격 963
▁북쪽으로 962
▁시는 962
▁이의 962
가로 962
명한 962
▁붕괴 961
금과 961
벤 961
인들의 961
전략 961
▁감정을 960
▁동시 960
▁매달 960
▁시간과 960
▁코스피 960
▁확인하고 960
▁훼손 960
계약을 960
하다가 960
해진다 960
▁39 959
▁연결되는 959
▁이탈리아 959
▁장치가 959
▁평생 959
랜 959
전압 959
▁관련하여 958
▁뜻이다 958
▁포토 958
연은 958
▁그냥 957
▁도포 957
▁떨 957
▁생산을 957
▁확대를 957
▁감독의 956
▁제시했다 956
▁촉진 956
룩 956
시키 956
싸 956
▁브랜드의 955
▁아예 955
▁초반 955
적을 955
▁기업을 954
▁배정 954
▁선보인다 954
▁집계됐다 954
▁크기가 954
모가 954
자나 954
▁사실이다 953
▁앞으로도 953
▁종이 953
▁터널 953
내기 953
비의 953
▁○○ 952
▁가능할 952
▁가중 952
▁느낌 952
▁배제 952
▁아는 952
▁않았 952
▁참여했다 952
론이 952
릿 952
욕 952
▁2,000 951
▁회사채 951
간에 951
개선 951
빌 951
아는 951
인에게 951
▁QM 950
▁금융기관 950
▁기업들의 950
▁얘기 950
▁조성되어 950
▁패션 950
중에 950
▁급증 949
▁배송 949
▁애플리케이션 949
▁위치에 949
▁코로나바이러스감염증 949
▁크기를 949
수도 949
TS 948
▁가야 948
▁유니 948
▁전력을 948
▁전후 948
▁회로를 948
법상 948
양을 948
▁600 947
▁부분은 947
경찰 947
▁모니터 946
▁시대를 946
▁의미다 946
▁캠 946
▁램프 945
▁문제점이 945
▁업계는 945
▁운영을 945
▁입국 945
논 945
로서의 945
톡 945
▁권리 944
▁사라 944
▁생길 944
▁요금 944
▁지급하는 944
▁촉 944
미디어 944
▁5% 943
▁디바이스 943
▁몰려 943
▁옆 943
▁희망하는 943
최근 943
▁불가 942
▁세워 942
▁아이들의 942
크가 942
▁VR 941
▁걸어 941
▁느껴 941
▁이같은 941
▁이같이 941
▁평가가 941
업무 941
전화 941
즈가 941
is 940
▁것이고 940
▁그들이 940
▁까 940
▁세종 940
▁소리를 940
▁이끌 940
▁지역이 940
▁급식 939
▁녹색 939
▁분석한 939
▁블루 939
▁접지 939
▁학교에 939
기지 939
아의 939
cc 938
▁감성을 938
▁비율 938
▁커다란 938
▁화려한 938
놀 938
바이오 938
스코 938
음에도 938
▁것보다 937
▁결코 937
▁바다 937
▁서비스에 937
▁식물 937
▁예정입니다 937
조건 937
▁개념을 936
▁얘기다 936
▁주관 936
▁해상 936
되게 936
보조 936
▁고스란히 935
▁그러 935
▁들려 935
▁열었다 935
▁차량에 935
▁충남 935
▁해제 935
민의 935
상황 935
IS 934
▁기술적 934
▁노동자들이 934
당한 934
▁나이 933
▁때가 933
▁충북 933
▁켜 933
시장은 933
▁겪 932
▁꼬 932
▁바위 932
▁뽑 932
▁센 932
▁손실이 932
▁심의 932
▁하나인 932
▁과정에 931
▁과제는 931
▁돈이 931
▁류 931
▁어디 931
▁유지하는 931
▁자리에 931
▁전도 931
▁존재한다 931
▁짓 931
▁천연 931
▁추정된다 931
▁콜센터 931
롭게 931
연구소 931
이터 931
▁교수가 930
▁맺 930
▁미래를 930
▁융 930
▁재미를 930
▁제어하는 930
륜 930
에너지 930
▁현장을 929
▁활약 929
였고 929
▁2003 928
▁고유 928
▁공동으로 928
▁이루어지고 928
기능을 928
▁꿈을 927
▁사업의 927
▁얻는 927
▁용량 927
르기 927
법의 927
세에 927
투자증권 927
▁경제가 926
▁쌀 926
▁우리나라의 926
▁추후 926
스토 926
▁아이가 925
▁역사를 925
▁필터 925
ot 924
▁가고 924
▁가족이 924
▁유지하고 924
▁질문에 924
▁추세 924
▁형사 924
▁공간이 923
▁늘어나는 923
▁대상을 923
▁먹는 923
▁무려 923
▁보정 923
▁예금 923
세계 923
장치는 923
▁재현 922
▁진행된다 922
탐 922
효과 922
▁모색 921
▁컸다 921
▁함께하는 921
류에 921
시스템을 921
▁42 920
▁동쪽으로 920
▁무게 920
▁별로 920
▁부당 920
▁선수 920
▁영화의 920
▁응원 920
▁일종의 920
▁정체 920
▁해결할 920
건에 920
내며 920
▁120 919
▁반등 919
▁아이돌 919
▁않으며 918
▁적립 918
▁제출하여 918
▁직원들이 918
▁프로그램에 918
키로 918
▁이승 917
기업의 917
니아 917
v 916
▁끊임없이 916
▁위험을 916
▁자녀가 916
▁지정된 916
국제 916
▁맨 915
▁비밀 915
▁사회의 915
기반 915
보니 915
절을 915
1, 914
▁받아야 914
▁소요 914
▁출시된 914
국가 914
러를 914
▁대립 913
▁가능하고 912
▁감각 912
▁리스크 912
▁예방을 912
▁의뢰 912
▁첨가 912
▁최적 912
기업이 912
▁값을 911
▁고주파 911
▁국민의 911
▁사용해 911
▁일치 911
▁크지 911
색의 911
300 910
▁60% 910
▁바깥 910
▁배가 910
▁특정한 910
글로벌 910
▁노광 909
▁비중을 909
▁시작한다 909
▁위에서 909
▁컴 909
▁흉 909
센터를 909
▁고가 908
▁고조 908
▁나를 908
▁성인 908
▁추진하고 908
▁친환경차 908
▁동네 907
▁싶어 907
▁인터 907
면은 907
▁간편하게 906
▁뿌 906
▁웹툰 906
▁제조방법을 906
톱 906
표시 906
▁저지 905
기술을 905
성장 905
▁마찰 904
▁아니면 904
▁치열한 904
▁트렁크 904
▁5, 903
▁감사드립니다 903
▁단독 903
▁사실은 903
▁완벽한 903
▁유연 903
▁증시 903
▁한국지엠 903
번호 903
▁가시 902
▁간에 902
▁나왔 902
▁담고 902
▁상태에 902
▁실험을 902
앱 902
▁밟 901
▁식으로 901
전은 901
▁SDI 900
▁고개를 900
▁맞이하여 900
▁뻗어 900
▁십 900
▁이것을 900
▁중국에서 900
▁코리아 900
듯이 900
로도 900
▁노동자들의 899
▁미중 899
▁방문한 899
▁버튼 899
▁원금 899
▁질병관리본부 899
▁징역 899
신의 899
운용 899
인력 899
처를 899
▁늘어나고 898
▁다니 898
▁배기 898
조직 898
DC 897
▁관리하는 897
▁전원을 897
▁청소 897
▁확충 897
▁힘입어 897
가입 897
관련 897
판의 897
▁가서 896
▁규모로 896
▁번호 896
▁아내 896
▁활용하여 896
영상 896
하라고 896
▁드러냈다 895
▁떠올 895
▁배터리를 895
▁수준이다 895
▁제공하는데 895
▁테마 895
▁학급 895
그룹의 895
하니 895
▁구조로 894
▁기호 894
▁다이 894
▁신용카드 894
▁연마 894
▁증가할 894
▁차지하고 894
▁휴대전화 894
들이다 894
시장을 894
▁밝 893
▁소개했다 893
▁종류 893
▁케 893
▁급격한 892
▁운동을 892
낸다 892
▁2004 891
▁가득한 891
▁긴장 891
▁돌봄교실 891
▁산지 891
▁심장 891
▁아이디어 891
▁이점이 891
▁좁은 891
감은 891
∼20 890
▁개시 890
▁근육 890
▁나누 890
▁배상 890
▁상관없이 890
니가 890
정과 890
▁소식을 889
▁풍부 889
▁하드웨어 889
둔 889
산으로 889
▁개발이 888
▁방식은 888
▁쌍용차는 888
▁의원은 888
▁평가다 888
시부터 888
▁고양 887
▁금액 887
▁느낌을 887
▁말고 887
▁배려 887
▁의지를 887
대회 887
ation 886
el 886
▁든 886
▁무상 886
▁무엇인지 886
▁민족 886
▁열을 886
▁이로써 886
▁주민들이 886
부산 886
행이 886
▁곳을 885
▁방사 885
▁베이스 885
▁이슈 885
▁전달하는 885
▁체육 885
위험 885
▁성분 884
▁이름으로 884
▁효과적인 884
가와 884
법으로 884
조에 884
회로를 884
근로자 883
이면서 883
DA 882
▁43 882
▁노동자가 882
▁산재 882
▁소비자들이 882
▁수동 882
▁팬들의 882
복을 882
쥐 882
환자 882
▁거리가 881
▁곧바로 881
▁구간 881
▁급락 881
▁맞이 881
▁문화를 881
▁물량 881
▁요구했다 881
▁이성 881
▁진정한 881
튼 881
▁드라이빙 880
▁사항 880
령을 880
써 880
▁선행 879
▁없으며 879
▁전투 879
▁조금씩 879
▁파손 879
▁활성 879
락이 879
토록 879
▁골프 878
그룹은 878
됐 878
▁아빠 877
▁이어져 877
▁자영업 877
▁지적이다 877
이라고도 877
졌던 877
▁씨는 876
▁지향 876
▁걷 875
▁위상 875
▁판매량 875
기에는 875
졌 875
▁기본급 874
▁미술 874
▁벼 874
▁사이트 874
▁수단 874
▁왜곡 874
▁주행을 874
▁타격을 874
노동조합 874
▁공개된다 873
▁길어 873
▁내부의 873
▁생태계 873
▁쉽고 873
라의 873
▁분양 872
▁비트 872
▁전주 872
▁전화를 872
▁하고자 872
에서만 872
이므로 872
▁남성이 871
▁대상은 871
▁실시하고자 871
▁이뤄질 871
▁장치는 871
교통 871
시티 871
장치가 871
▁경찰은 870
▁예외 870
▁파우치 870
럴 870
스마트 870
주간 870
중앙 870
st 869
▁2∼3 869
▁마을에 869
▁상향 869
▁시가 869
▁특성상 869
기록 869
팬 869
▁추석 868
▁프로그램이 868
하지는 868
▁개척 867
▁기반을 867
▁네트워크를 867
▁띄 867
▁은행이 867
레인 867
텔 867
▁불확실성이 866
과정 866
였 866
졌지만 866
휘 866
▁금리를 865
▁대표하는 865
▁매력 865
▁수령 865
▁의식 865
▁중에는 865
▁충적 865
▁했다는 865
▁행복이 865
구나 865
례를 865
▁빌려 864
▁식별 864
▁잘못된 864
권은 864
▁갖추 863
▁곳곳에 863
▁기자 863
▁추구 863
기판 863
자산운용 863
▁때문입니다 862
▁시사 862
▁역량 862
▁유해 862
▁했는데 862
하시기 862
현대 862
▁금융위 861
▁노사는 861
▁대역 861
▁만나는 861
▁방지하여 861
▁임신 861
▁태풍 861
▁합쳐 861
동안 861
여개 861
ST 860
▁건강을 860
▁경유 860
▁당일 860
▁와이어 860
▁이루어질 860
닥 860
영의 860
진흥 860
현의 860
▁궁금 859
▁단자 859
▁받기 859
▁상시 859
▁성격 859
▁있으니 859
▁자가격리 859
▁하부 859
▁행위를 859
속에 859
▁부르는 858
▁빠진 858
▁소설 858
▁아시아나항공 858
▁통일 858
▁함유 858
▁들여 857
▁상부 857
이었던 857
하신 857
▁달했다 856
▁인력을 856
▁찾고 856
▁찾기 856
▁철저히 856
et 855
▁공원 855
▁내놓 855
▁보인 855
▁설명할 855
▁예상되는 855
▁정식 855
▁직류 855
▁티저 855
▁학교의 855
까지의 855
신은 855
인터넷 855
편의 855
▁움직임 854
▁검찰 853
▁대통령은 853
▁딱 853
▁목적을 853
▁밖으로 853
▁소음 853
▁집으로 853
▁포기 853
▁필요할 853
▁회계 853
▁후반 853
졸 853
폭이 853
▁계기가 852
▁기본적인 852
▁동력 852
▁동서 852
▁많지 852
▁맹 852
▁보강 852
▁인상을 852
▁제공함에 852
▁호흡기 852
조사를 852
ch 851
▁갔다 851
▁기판을 851
▁보낸 851
▁소독 851
▁이벤트를 851
▁이틀 851
▁증상 851
전자는 851
▁사람과 850
▁서쪽으로 850
▁아날로그 850
▁알고리즘 850
▁재미 850
▁지나치게 850
▁학생들은 850
전지 850
▁것이라 849
▁듀얼 849
▁새벽 849
▁서비스의 849
▁취임 849
▁해발 849
저항 849
편이 849
▁반전 848
▁발언 848
▁방어 848
▁우유 848
▁이른다 848
▁자동차용 848
가족 848
놓고 848
소한 848
▁눈물을 847
▁동생 847
▁부상 847
▁양의 847
▁원고 847
▁세상 846
▁시중은행 846
▁이루어진다 846
▁자라 846
▁자리에서 846
▁직무 846
닌 846
샘 846
설을 846
▁고발 845
▁과제 845
▁관리가 845
▁기침 845
▁뒷받침 845
▁리더 845
▁성능이 845
▁스토 845
▁영상이 845
▁일어난 845
▁철학 845
▁축적 845
▁토요타 845
▁한해 845
캠 845
특별 845
▁낳 844
▁돕는 844
▁봐 844
▁생물 844
▁아니라는 844
▁펜 844
점의 844
800 843
▁Y 843
▁비난 843
▁아니었다 843
▁입체 843
▁전지가 843
되지만 843
암이 843
자원 843
효과를 843
▁196 842
▁가진다 842
▁간주 842
▁고체 842
▁바라 842
▁선별 842
▁우리은행 842
▁제품이 842
▁제휴 842
▁특별관계자인 842
▁포스코 842
대응 842
만원이 842
▁2002 841
▁물질을 841
▁일각에서는 841
▁제작한 841
▁진화 841
▁탑 841
미래 841
콘텐츠 841
퇴 841
▁강원 840
▁금호 840
▁숙박 840
금속 840
인다 840
훈이 840
▁감염이 839
▁그려졌다 839
▁등산 839
▁선보이는 839
▁야외 839
부담 839
am 838
▁사용되고 838
▁상영 838
▁세계를 838
▁소나무 838
▁손에 838
▁업체들이 838
▁연예 838
관광 838
당을 838
통을 838
▁180 837
▁노래를 837
▁연기를 837
▁있었다고 837
▁저소득 837
▁형성할 837
세요 837
졌다고 837
▁단위로 836
▁배출가스 836
▁사양 836
▁아카데미 836
▁위생 836
▁절차 836
▁화물 836
값이 836
몬 836
서로 836
오프 836
인가 836
▁경쟁을 835
▁산소 835
발생 835
시키지 835
팩 835
▁쏘렌토 834
▁원활한 834
▁전자기 834
▁캡 834
▁기상 833
▁당분간 833
▁독점 833
▁연관 833
▁유예 833
▁택배 833
▁플러그 833
▁하던 833
동으로 833
형은 833
▁구별 832
▁비슷 832
▁사장이 832
▁세균 832
▁시정 832
사항을 832
파크 832
▁구비 831
▁구직 831
▁나타날 831
▁내놨다 831
▁높다는 831
▁산업혁명 831
기간을 831
▁엠 830
▁영업이익 830
▁접종 830
괴 830
색이 830
▁- 829
▁개폐 829
▁고안 829
▁연구팀은 829
▁인구가 829
▁차가 829
▁취재 829
되는데 829
▁않았던 828
▁인재 828
스럽게 828
시스템에 828
조를 828
23 827
45 827
▁이혼 827
▁한화 827
규모 827
천은 827
하오니 827
▁군사 826
▁바람이 826
▁시대가 826
▁아니지만 826
▁일시 826
▁잡은 826
▁전기적 826
당의 826
▁GT 825
▁규제가 825
▁들면 825
▁전계 825
▁전체를 825
▁주장이 825
▁하겠다 825
▁흐름 825
중이 825
▁뮤직비디오 824
▁부인 824
▁불필요한 824
▁선출 824
▁초래 824
끼리 824
집을 824
▁계획이 823
▁국가의 823
▁돌입 823
▁모았다 823
▁믿고 823
▁상호작용 823
▁아버지 823
▁여겨 823
▁전북 823
▁지상 823
넥 823
리어 823
보드 823
플랫폼 823
PE 822
▁간섭 822
▁남부 822
▁부서 822
▁불이 822
▁빗 822
▁요인 822
▁혜택 822
▁c 821
▁경비 821
▁그중 821
▁매도 821
▁세금 821
▁소모 821
▁용접 821
▁진행될 821
밥 821
▁강화를 820
▁등장한 820
▁폭력 820
신문 820
▁간호 819
▁교차 819
▁당연히 819
▁대비해 819
▁적게 819
▁체계를 819
▁컬러 819
▁편입 819
▁44 818
관계를 818
로우 818
신용 818
층과 818
▁195 817
▁군산 817
▁부산광역시 817
▁의료진 817
▁자살 817
세의 817
▁GV 816
▁데이터가 816
▁연결된다 816
▁예정인 816
▁포착 816
▁하자 816
▁현대차가 816
▁혈액 816
프로그램 816
SA 815
▁건의 815
▁교육에 815
▁끈 815
▁무기 815
▁스마트폰을 815
▁않았지만 815
▁워 815
▁조치가 815
▁흐 815
겼다 815
론은 815
말을 815
멘 815
묘 815
설이 815
측에 815
” 814
▁사유 814
▁선진 814
소비 814
웠 814
이와 814
조의 814
▁결핵 813
▁김성 813
▁확인했다 813
고도 813
대병원 813
호텔 813
21 812
▁DNA 812
▁강화하고 812
▁아무런 812
▁읍 812
▁인터페이스 812
▁정규 812
▁차량용 812
자들과 812
ion 811
▁계열사 811
▁마음에 811
▁온도가 811
▁전기를 811
론의 811
400 810
▁n 810
▁나쁜 810
▁인사를 810
▁편리 810
왔 810
조치 810
짜 810
▁고전 809
▁씨가 809
▁운전자의 809
상태를 809
▁놓여 808
▁방송에서 808
▁봉사 808
▁사고로 808
▁업데이트 808
▁전체가 808
구조에 808
까지도 808
클럽 808
픽 808
▁말까지 807
▁언제나 807
▁징계 807
▁찾은 807
▁하거나 807
▁한때 807
분할 807
잠 807
질은 807
현재 807
▁대외 806
▁됐 806
▁사랑하는 806
▁집적 806
▁활성화를 806
머니 806
이상 806
▁ICT 805
▁세운 805
▁실장 805
▁업체의 805
▁이곳에 805
▁일관 805
미의 805
즈의 805
하가 805
▁대한항공 804
▁데는 804
▁법칙 804
▁분명히 804
▁운영에 804
▁죄 804
▁항목 804
롬 804
▁가이드 803
▁굳 803
▁렌 803
▁수렴 803
▁시내 803
▁입법 803
▁주목을 803
▁중구 803
▁차량은 803
쪽에는 803
∼4 802
▁계속해서 802
▁복원 802
것 802
BS 801
▁방과 801
▁제공해 801
▁캐릭터를 801
시민 801
음에 801
▁병행 800
▁아프리카 800
2000 799
▁관측이 799
▁논리 799
▁손해 799
▁전공 799
▁텔레비전 799
▁파악할 799
▁회사를 799
▁걸린 798
▁결정하는 798
▁나오지 798
▁대면 798
▁마친 798
▁분쟁 798
▁불가능한 798
▁시청률 798
▁종래 798
▁현장에 798
교를 798
뢰 798
았지만 798
▁막대한 797
▁비중은 797
▁소비자들의 797
▁영화는 797
만달러 797
주행 797
28 796
▁갔 796
▁800 795
▁교육부 795
▁남서 795
▁스타일 795
▁연휴 795
구에서 795
느 795
디지털 795
영은 795
▁기록을 794
▁성장할 794
▁코너 794
어와 794
에서부터 794
작업 794
행정 794
▁47 793
▁서식 793
▁온도를 793
▁자동차가 793
▁전지는 793
▁천안 793
위원회를 793
직한 793
화되는 793
▁가면 792
▁고려하면 792
▁보지 792
▁빨라 792
▁실업급여 792
즈는 792
▁기자회견을 791
▁노동시장 791
▁동해 791
▁못하게 791
▁분석해 791
▁이후에도 791
류는 791
▁가능성은 790
▁개혁 790
▁딜러 790
▁문의 790
▁밀려 790
▁배포 790
▁선정됐다 790
▁수천 790
▁인건비 790
▁제어할 790
▁패킷 790
만은 790
이즈 790
젤 790
폰을 790
▁갖췄다 789
▁무너 789
▁성공적으로 789
▁지능 789
▁혁신을 789
경북 789
기획 789
스카 789
칩 789
ID 788
▁250 788
▁바라보는 788
▁보이 788
▁비가 788
▁선고 788
▁현황 788
낙 788
뱅크 788
일자리 788
▁드릴 787
▁밥 787
▁여성의 787
▁자리하고 787
▁지시 787
▁출연하는 787
엑 787
BC 786
▁간편 786
▁대회 786
▁동남 786
▁두께 786
▁보호를 786
▁부정적인 786
▁투자하는 786
▁특성에 786
▁허위 786
▁고무 785
▁은행의 785
▁중독 785
▁호흡 785
감에 785
단과 785
덴 785
죄 785
▁구조조정을 784
▁넓게 784
▁라인업 784
▁부각 784
▁실용 784
▁적어 784
▁정렬 784
▁판매하는 784
▁회로에 784
조가 784
현은 784
▁방법이다 783
▁있어서다 783
수준 783
▁LPG 782
▁경주 782
▁부부 782
▁이어진다 782
▁투자자들이 782
든지 782
촉 782
▁1970 781
▁모델의 781
▁모터스포츠 781
▁안전하고 781
▁연애 781
▁완벽하게 781
▁이상인 781
▁정책이 781
▁지진 781
▁분당 780
▁아직도 780
▁일정을 780
▁정도를 780
▁허가 780
준이 780
회의를 780
▁DLF 779
▁t 779
▁강도 779
▁김동 779
▁내내 779
▁방해 779
▁옆에 779
▁웃음 779
▁이수 779
드라마 779
센터는 779
희는 779
▁공중 778
▁구릉 778
▁기판에 778
▁긴장감을 778
▁마스터 778
▁모은다 778
▁사업자 778
▁싱글 778
▁연극 778
▁장면이 778
▁효율이 778
생명 778
▁경계를 777
▁눈이 777
▁뒤로 777
▁부모님 777
▁안정된 777
▁얻어 777
▁이어가고 777
▁재발 777
▁전반에 777
▁흔 777
인에 777
크는 777
▁겹 776
▁의혹 776
▁중기 776
▁톱 776
행위 776
법과 775
심사 775
자료 775
▁193 774
▁IC 774
▁강남구 774
▁공간에 774
▁기회 774
▁동원 774
▁두산 774
▁들어와 774
▁떨어졌다 774
▁비례 774
▁앞으로는 774
충전 774
킷 774
▁상관 773
▁생계 773
▁와서 773
▁전까지 773
▁전류를 773
▁주었다 773
바이러스 773
퍼센트 773
▁가게 772
▁나은 772
▁마감 772
▁성희롱 772
▁실질적인 772
▁얼굴을 772
▁출시했다 772
영역 772
▁190 771
▁고백 771
▁동래 771
▁무대에 771
▁벗 771
▁수의 771
▁이정 771
▁입사 771
▁주간 771
▁Z 770
▁단행 770
▁바른 770
▁수면 770
▁전통적인 770
▁합류 770
청소년 770
▁194 769
▁대학생 769
▁물어 769
▁부르 769
▁비록 769
▁섬유 769
▁수원 769
▁실시하고 769
▁아이디어를 769
▁출자 769
▁칼라 769
▁커플 769
마켓 769
시간제 769
져서 769
▁공항 768
▁논의가 768
▁놓은 768
▁지자체 768
▁해지 768
전환 768
▁고압 767
▁나누어 767
▁내세 767
▁이뤄진 767
▁타이틀곡 767
부분 767
▁공장이 766
▁높아진 766
▁돋보이는 766
▁식당 766
▁여러분 766
▁연산 766
▁원작 766
▁청도 766
마가 766
모터 766
뷰 766
샤 766
▁고장 765
▁부정적 765
▁쏠 765
▁위주로 765
▁자동화 765
▁직접적인 765
릉 765
효율을 765
▁붉은 764
▁중복 764
▁차원의 764
▁채무 764
▁트렌 764
경의 764
딘 764
술을 764
이어 764
▁고유의 763
▁수치 763
▁장시간 763
▁적용된다 763
만에 763
방에 763
체계를 763
코드 763
▁그것 762
▁기간에 762
▁다루 762
▁부딪 762
▁원천 762
▁한계를 762
단말 762
▁강원도 761
▁궁 761
▁못했던 761
▁양도 761
▁중반 761
▁해킹 761
▁휠베이스 761
▁겁니다 760
▁균형 760
▁기본적으로 760
▁빙 760
▁어머니 760
▁전압을 760
▁정확 760
▁토양 760
로와 760
명에게 760
없 760
▁거치 759
▁공장에서 759
▁김수 759
▁높인다 759
▁사태를 759
▁중개 759
▁지적도 759
▁혐의 759
실의 759
헤 759
▁49 758
▁개발하고 758
▁날아 758
▁당사 758
▁않으 758
▁증상을 758
▁커졌다 758
▁하우징 758
▁협력을 758
리라 758
▁더욱이 757
▁맡았다 757
▁입학 757
▁코드 757
▁해당한다 757
뇌 757
배를 757
조절 757
▁걸려 756
▁모르 756
▁보자 756
▁줄이기 756
랄 756
매가 756
프를 756
29 755
▁간접 755
▁경기가 755
▁대변 755
▁던 755
▁신속한 755
▁요구를 755
▁요인이 755
▁전체적으로 755
▁지원에 755
겠습니다 755
왔던 755
EV 754
▁개발했다 754
▁데서 754
▁몰입 754
▁입장에서는 754
▁자율주행차 754
▁터미널 754
▁품질을 754
렛 754
생활을 754
져야 754
휴가 754
▁갈등이 753
▁넣 753
▁매장 753
▁분위기 753
▁서부 753
▁아이를 753
▁유전체 753
▁의사를 753
▁인터뷰 753
▁진보 753
▁플 753
연의 753
▁국토 752
▁때보다 752
▁발생해 752
▁비전 752
▁선사 752
▁아래로 752
▁환율 752
받았다 752
업체가 752
▁다양하게 751
▁돌출 751
▁몸에 751
▁무엇을 751
▁알리는 751
▁잠재 751
강의 751
름을 751
접속 751
하였 751
▁감성 750
▁넘어서 750
▁변신 750
▁사용을 750
▁신라 750
▁오르 750
▁원인을 750
▁적용했다 750
▁점에 750
▁중학교 750
▁그쳤다 749
▁목숨을 749
▁부른다 749
▁사찰 749
▁소득이 749
▁요양 749
▁일어날 749
▁학교에서는 749
되던 749
로봇 749
연한 749
▁5,000 748
▁같았다 748
▁균 748
▁바이러스가 748
▁사후 748
▁연주 748
▁오류 748
▁준비를 748
▁지목 748
▁컬 748
▁확산을 748
답 748
신청 748
AM 747
▁나타낸다 747
▁소녀 747
▁신호의 747
▁저축 747
데다 747
렸고 747
위원회의 747
▁고려한 746
▁공략 746
▁구성을 746
▁내년도 746
▁방지하고 746
▁삼성전자는 746
▁소비자에게 746
▁환불 746
나의 746
보안 746
잉 746
▁분석된다 745
▁움직임을 745
▁중고 745
〉 745
러스 745
▁59 744
▁교육과정 744
▁떼 744
▁역을 744
▁육아휴직 744
▁종래에는 744
▁지상파 744
▁진행됐다 744
다운 744
▁검은 743
▁고객들이 743
▁궁금증이 743
▁궤 743
▁만남 743
▁면제 743
▁보내는 743
▁본인이 743
▁세탁 743
소자 743
았다는 743
TC 742
▁겨울철 742
▁귀추가 742
▁나가는 742
▁소리가 742
▁시설이 742
▁전세계 742
▁폴리 742
고는 742
기통 742
ay 741
▁전환을 741
▁지반 741
▁측의 741
▁탐색 741
▁플래그십 741
▁휴식 741
유플러스 741
하기를 741
▁기여할 740
▁김태 740
▁물러 740
▁화웨이 740
▁확인하는 740
모를 740
주년을 740
▁발진 739
▁생산성을 739
▁식사 739
▁1∼2 738
▁75 738
▁교원 738
▁나아 738
▁삼각 738
▁속한 738
▁손님 738
▁솟아 738
▁에어컨 738
▁자전거 738
▁적재 738
▁침체 738
거리를 738
▁가전 737
▁담임 737
▁동부 737
▁때의 737
▁시행령 737
▁캐스팅 737
결합 737
계와 737
능력 737
열을 737
▁마음으로 736
▁서울대 736
▁초대 736
▁커피 736
경기 736
년과 736
인들은 736
프리 736
하라는 736
▁감안 735
▁교통사고 735
▁기계적 735
▁동급 735
▁물었다 735
▁아래에 735
▁위성 735
▁종종 735
▁차별화된 735
▁코미디 735
▁현실을 735
리에는 735
처가 735
▁국채 734
▁몇몇 734
▁모양의 734
▁박사 734
▁병원에서 734
▁연구에서는 734
▁전기자동차 734
▁전략적 734
마이 734
으로서의 734
짓 734
▁〈 733
▁넣어 733
▁대륙 733
▁드는 733
▁영화가 733
▁운반 733
▁유일하게 733
▁자체를 733
▁정도다 733
▁정보의 733
▁중성 733
▁출연한 733
▁포스터 733
▁흰 733
무가 733
임에도 733
지수 733
▁검토하고 732
▁딜 732
▁뛰 732
▁업체는 732
▁중에서도 732
▁패널의 732
힘 732
▁공급이 731
▁모델인 731
▁분배 731
▁연구에 731
▁전한다 731
▁점포 731
▁채워 731
▁타임 731
스포 731
▁바퀴 730
▁밴 730
▁불리 730
▁상기와 730
▁싱가포르 730
▁예상했다 730
▁요소를 730
▁전선 730
▁줄이 730
▁판매에 730
자치 730
▁갖춰 729
▁말씀은 729
▁말은 729
▁보며 729
▁웨이퍼를 729
▁학생들을 729
▁향상된 729
역에 729
였지만 729
위기 729
줘 729
▁2001 728
▁검찰은 728
▁관여 728
▁광학 728
▁대출이 728
▁오래된 728
▁즐기는 728
▁한국에서 728
▁휴가 728
형태 728
RS 727
▁본사 727
▁선을 727
▁여름철 727
▁이른 727
▁장기간 727
된다면 727
DI 726
▁다채로운 726
▁담당하는 726
▁때에 726
▁미래의 726
▁보여줄 726
▁서브 726
▁신작 726
▁않을까 726
▁의도 726
▁테슬라 726
▁트래픽 726
공개 726
명이다 726
비로 726
파를 726
하에 726
▁객 725
▁하위 725
경쟁 725
몽 725
2, 724
▁SW 724
▁국민연금 724
▁기어 724
▁기업들은 724
▁물질이 724
▁보여주고 724
▁비율은 724
▁손상을 724
▁음악을 724
▁춘 724
▁회사에 724
공학 724
회사가 724
▁근로자를 723
▁몰아 723
▁상용차 723
▁시간은 723
사이 723
즈를 723
합의 723
▁거론 722
▁교육의 722
▁된다고 722
▁막아 722
▁인식이 722
▁있을까 722
▁장비를 722
▁히트 722
물질을 722
배가 722
이던 722
클래스 722
▁AR 721
▁동백 721
▁미친 721
▁지원하기 721
▁코딩 721
기관이 721
니스 721
랭 721
700 720
▁가르 720
▁고용을 720
▁그렇다면 720
▁금감원 720
▁농협 720
▁등장하는 720
▁로봇이 720
▁잇는 720
▁자세한 720
▁판결을 720
▁학원 720
고속도로 720
념 720
에이 720
인승 720
▁개발된 719
▁빠져나 719
▁세계의 719
▁이후에 719
▁전월 719
▁추구하는 719
▁카메라를 719
▁커진 719
▁트림 719
▁파악하고 719
셨다 719
인증 719
플러스 719
▁AMG 718
▁가입자가 718
▁결과로 718
▁그만 718
▁근거로 718
▁소자를 718
▁움직임이 718
▁추진하는 718
단지 718
업계의 718
점검 718
채권 718
65 717
▁근무하는 717
▁대사 717
▁도내 717
▁드러 717
▁드리 717
▁멀티미디어 717
▁사람도 717
▁산업이 717
▁생각할 717
▁서로를 717
▁일대 717
▁일으키는 717
▁탄력근로제 717
▁한다면 717
▁한진칼 717
∼6 716
▁갖 716
▁마련해 716
▁묵 716
▁점유율 716
▁판매한 716
▁프로세 716
▁효율성을 716
소재 716
om 715
▁그럴 715
▁듣 715
▁안착 715
▁이룬다 715
▁캔 715
교실 715
스트를 715
에게도 715
지구 715
▁56 714
▁권리를 714
▁방침 714
▁병원에 714
▁신도 714
▁신임 714
▁정한 714
▁추측 714
▁확대해 714
교육청 714
둘 714
층은 714
▁가정에서도 713
▁교육부는 713
▁구성된다 713
▁그릴 713
▁납품 713
▁만일 713
▁민원 713
▁반송 713
▁적용하는 713
▁투자한 713
▁합작 713
교사 713
롭 713
차례 713
▁광명 712
▁노력하고 712
▁띠 712
▁병원을 712
▁요구하고 712
▁유닛 712
▁저축은행 712
▁조사한 712
▁중의 712
▁참고하시어 712
▁편리한 712
구역 712
국내 712
기간이 712
▁기대할 711
▁기지국 711
▁롤 711
▁맞춘 711
▁뼈 711
▁살인 711
▁에너지가 711
▁웅 711
▁유재 711
▁혜택이 711
▁후에는 711
객이 711
렸던 711
졌을 711
▁구미 710
▁둔화 710
▁마치고 710
▁모터의 710
▁받으 710
▁배경으로 710
▁상황은 710
▁이태원 710
▁졸 710
▁준공 710
반도체 710
졌기 710
회의에서 710
▁결론 709
▁경상 709
▁리모콘 709
▁삶 709
▁2022 708
▁3,000 708
▁가짜 708
▁당선 708
▁소수 708
▁시트 708
▁해주 708
▁했습니다 708
▁형상 708
▁화면을 708
박한 708
털 708
3, 707
▁더했다 707
▁발전에 707
▁불과하다 707
▁성공했다 707
▁절단 707
랐 707
역의 707
▁신청이 706
▁언급한 706
▁전방 706
▁정보통신 706
▁존재감을 706
▁트레이 706
▁확보를 706
ent 705
▁불참 705
▁석탄 705
▁액션 705
▁크기의 705
교환 705
수신 705
줬다 705
▁대상에 704
▁때부터 704
▁역할이 704
▁올라가 704
▁정작 704
▁프로그램은 704
생의 704
터와 704
▁거친 703
▁먹을 703
▁이태 703
▁치료제 703
부장 703
실은 703
하되 703
... 702
▁높아질 702
▁독자 702
▁동작을 702
▁어울 702
▁전지에 702
▁주제 702
▁차등 702
▁최저임금을 702
▁취약계층에 702
▁판단된다 702
▁포괄 702
결을 702
시고 702
▁개선이 701
▁견인 701
▁나면 701
▁받았 701
▁승차 701
▁엔진이 701
▁이것 701
▁작아 701
▁포항 701
문의 701
파이 701
▁구현할 700
▁보았다 700
▁상용화 700
▁세상에 700
▁신분 700
▁실정이다 700
▁일부가 700
▁채취 700
▁한쪽 700
기계 700
민주 700
팀이 700
파가 700
27 699
▁'2020 699
▁대여 699
▁듀 699
▁물건을 699
▁복용 699
▁빔 699
▁상하 699
▁스토리 699
▁신입 699
▁씻 699
▁용인 699
▁자세히 699
▁지식을 699
▁폐기 699
군에 699
▁그래픽 698
▁대응할 698
▁비율을 698
▁연방 698
▁출판 698
거리는 698
▁균일하게 697
▁금융위기 697
▁상담을 697
▁아니고 697
▁촉구했다 697
레스 697
히고 697
▁가동을 696
▁경사 696
▁나빠 696
▁녹음 696
▁명확히 696
▁벤 696
▁분노 696
▁선정된 696
▁시공 696
▁시에 696
▁시장에서는 696
▁잊 696
▁적발 696
▁조리 696
▁좋겠다 696
▁지어 696
▁차질이 696
▁혜 696
▁휴직 696
▁700 695
▁검진 695
▁물에 695
▁쇼핑몰 695
▁잠정 695
▁중순 695
▁회피 695
널 695
만원에 695
쌍 695
ER 694
▁거대 694
▁경영권 694
▁방치 694
▁집계 694
▁축하 694
기금 694
닐 694
직원 694
품이 694
▁긍정적 693
▁끌어올 693
▁머리를 693
▁본래 693
▁비롯 693
▁악성 693
▁알렸다 693
▁위의 693
▁이용이 693
▁향상되는 693
▁협조해 693
럽 693
편을 693
▁0% 692
▁58 692
▁노이즈 692
▁영혼 692
▁요청했다 692
▁제출해 692
▁직원들의 692
▁코일 692
▁확대하고 692
▁흡연 692
대우 692
들과의 692
로에 692
망의 692
맹 692
여명의 692
유가 692
▁공동체 691
▁느낌이 691
▁매월 691
▁무시 691
▁앉 691
▁이르기까지 691
▁추락 691
▁화장 691
봉이 691
자로서 691
프레 691
▁같아 690
▁고용안정 690
▁선택한 690
▁없으면 690
川 690
가치 690
등이 690
우며 690
▁굉장히 689
▁논문 689
▁등장했다 689
▁때문으로 689
▁르노삼성은 689
▁성적 689
▁용이한 689
▁인접 689
▁종사자 689
▁출현 689
▁코스 689
▁뚫 688
▁승객 688
▁시작해 688
▁신청할 688
▁요인으로 688
▁있으 688
▁주된 688
▁지각 688
▁질병관리본부는 688
▁할당 688
타임 688
▁64 687
▁나눔 687
▁나서는 687
▁부부가 687
▁여객 687
▁잡았다 687
만대를 687
프트 687
▁고위 686
▁공적 686
▁늘면서 686
▁드론 686
▁문화예술 686
▁약한 686
경은 686
르게 686
▁모두를 685
금리가 685
릭 685
▁감사의 684
▁곽 684
▁엔진과 684
▁여수 684
▁영역에서 684
▁조절할 684
▁중동 684
▁청주 684
▁케이스 684
마스크 684
▁개선할 683
▁놀이 683
▁미치지 683
▁발송 683
▁실증 683
▁예방접종 683
녹 683
량에 683
소자의 683
▁김천 682
▁매력이 682
▁수요를 682
▁어른 682
▁여유 682
▁전형적인 682
▁제도다 682
▁프로그램의 682
눈 682
문에 682
색으로 682
제작 682
폭을 682
▁결과다 681
▁유용한 681
▁일에 681
▁전반적으로 681
▁제품은 681
▁출고 681
▁출산 681
▁테크 681
▁피해자 681
▁확인된 681
▁희생 681
정부가 681
▁s 680
▁수익률이 680
▁안전성 680
▁요리 680
▁원활하게 680
▁치열 680
▁콘서트 680
▁학술 680
▁흘 680
같은 680
군과 680
까지만 680
짜리 680
▁마련됐다 679
▁생겼다 679
▁알려드립니다 679
▁제동 679
▁중국이 679
▁호소 679
▁경로를 678
▁들어갈 678
▁맡고 678
▁바닷 678
▁비롯하여 678
▁성공한 678
▁증권사 678
▁책정 678
▁튜닝 678
두고 678
밸 678
위에서 678
▁결함 677
▁공연을 677
▁기지 677
▁도어 677
▁등장해 677
▁멕시코 677
▁생각하고 677
▁완치 677
▁웰 677
▁주총 677
▁플러스 677
되었던 677
됨을 677
센터가 677
케이블 677
▁경제의 676
▁금강 676
▁꽤 676
▁대응하는 676
▁미국이 676
▁연습 676
넬 676
션이 676
오토 676
CA 675
▁균일한 675
▁내년부터 675
▁다녀 675
▁대응을 675
▁마련한 675
▁율 675
▁주어 675
▁톤 675
▁필요성이 675
따 675
연금 675
이라면서 675
▁기아자동차가 674
▁사이클 674
▁생겼 674
▁오르는 674
▁집합 674
▁짝 674
쇼핑 674
▁1960 673
▁감수 673
▁걸그룹 673
▁고등학교 673
▁그러면 673
▁달라고 673
▁대부분은 673
▁방법과 673
▁연료전지 673
▁위치해 673
▁이해하는 673
▁인도네시아 673
▁제품에 673
▁프로젝트를 673
계좌 673
놓 673
▁돌아왔다 672
▁에칭 672
▁열린다 672
▁전류가 672
▁주체 672
▁폭으로 672
비용을 672
웨어 672
음으로 672
!" 671
▁결과적으로 671
▁만날 671
▁실시하는 671
▁영역에 671
▁읽고 671
▁장식 671
▁착신 671
▁페르 671
관리를 671
사태 671
시켰 671
장애인 671
팝 671
▁감염된 670
▁금융투자 670
▁발신 670
▁비교하면 670
▁시스템과 670
▁압력 670
▁이끄는 670
▁전극을 670
▁학교를 670
▁혐의를 670
고개 670
놓은 670
랐다 670
아파트 670
윈 670
확인 670
LG 669
ou 669
▁닥 669
▁두드러 669
▁둘러 669
▁미국은 669
▁봐야 669
▁빛이 668
▁빨 668
▁사회복지 668
▁신기술 668
▁옳 668
▁우려를 668
▁입찰 668
▁질문을 668
▁향상시키고 668
님의 668
음은 668
쳤 668
풍이 668
▁가족의 667
▁공학 667
▁높인 667
▁듣는 667
▁명을 667
▁안정성을 667
▁자영업자 667
▁확실히 667
전도 667
청에 667
il 666
▁선택을 666
▁소외 666
▁수록 666
▁신축 666
▁야간 666
▁얻었다 666
▁원통형 666
▁유리한 666
▁처리를 666
공제 666
스테 666
킬 666
하를 666
핵 666
했다가 666
▁기준에 665
▁도는 665
▁무역분쟁 665
▁미래에셋 665
▁발생하면 665
▁싼타페 665
▁운영하고자 665
▁인력이 665
▁전수 665
위와 665
주식 665
해주시기 665
▁CCTV 664
▁감독은 664
▁도입을 664
▁랜드로버 664
▁맞춤 664
▁밀집 664
▁빛의 664
▁선호하는 664
▁않았고 664
▁엔진은 664
▁저작 664
▁확산에 664
년형 664
들었다 664
연대 664
▁번째로 663
▁상의 663
▁안전성을 663
▁이들에게 663
▁있었기 663
보다도 663
▁금감원은 662
▁이민 662
▁이용하고 662
▁자랑하는 662
▁전설 662
▁커지면서 662
▁텔레비젼 662
공업 662
소송 662
의가 662
▁몽 661
▁묘사 661
▁소정의 661
▁하나다 661
▁학교는 661
▁갈라 660
▁거주하는 660
▁그녀의 660
▁도모 660
▁비판했다 660
▁쇠 660
▁않았다는 660
▁카드를 660
위원장 660
▁고위험 659
▁구제 659
▁나란히 659
▁단계를 659
▁열렸다 659
▁예컨대 659
▁주사 659
벤처 659
삼성 659
시키며 659
어지는 659
호로 659
▁고려할 658
▁나중에 658
▁똑같은 658
▁방지를 658
▁벌이고 658
▁봤 658
▁사용자에게 658
▁수지 658
▁올리는 658
▁위험한 658
▁진료를 658
▁표기 658
들로부터 658
만명을 658
어지고 658
호는 658
환이 658
▁기아 657
▁붙인 657
▁서민 657
▁신한금융 657
▁연비 657
▁외환 657
▁자신들의 657
▁터치 657
▁화산 657
발을 657
성능 657
▁고용부 656
▁남다른 656
▁안산 656
▁없던 656
▁입장에서 656
▁제기됐다 656
▁처분 656
방향으로 656
브를 656
3' 655
▁57 655
▁다음으로 655
▁대표적이다 655
▁보험사 655
▁브랜드를 655
▁사이드 655
▁살아남 655
▁판단이 655
고등학교 655
덤 655
됐을 655
목으로 655
진단 655
▁놀라운 654
▁맞서 654
▁몸이 654
▁벌어지는 654
▁사용될 654
▁이내에 654
▁이번에는 654
▁전극의 654
▁차체 654
스트가 654
▁붙어 653
▁산이 653
▁스틸 653
▁안심 653
▁이뤄졌다 653
▁이어폰 653
▁저작권 653
▁제시한다 653
▁주관하는 653
▁형태가 653
▁확대될 653
티는 653
▁25% 652
▁공무 652
▁늘리는 652
▁소폭 652
▁왜냐하면 652
▁이하로 652
▁잃은 652
▁전염 652
▁컨셉 652
▁혼란 652
령이 652
석과 652
스크 652
여행 652
▁가계 651
▁공유하는 651
▁기원 651
▁대해선 651
▁라인업을 651
▁발산 651
▁변화는 651
▁스페셜 651
▁아들이 651
▁잎 651
▁차기 651
▁찾아가 651
▁호기심을 651
곳이 651
구청 651
러가 651
선에서 651
▁가능하다는 650
▁걸리는 650
▁고용부는 650
▁반영한 650
▁지수 650
▁피로 650
개혁 650
터로 650
ad 649
▁고수 649
▁관통 649
▁그렇지만 649
▁녹화 649
▁받았다고 649
▁사건의 649
▁우리금융 649
▁흥미 649
향을 649
26 648
▁41 648
▁개체 648
▁거절 648
▁그저 648
▁노동계 648
▁받아들여 648
▁변동성이 648
▁스프링 648
▁오를 648
▁요소가 648
교의 648
나갈 648
사람 648
스티 648
업체인 648
▁53 647
▁디즈니 647
▁떨어질 647
▁비판이 647
▁유료 647
▁잇 647
▁확보한 647
맛 647
셋 647
원들의 647
▁"20 646
▁과거의 646
▁구강 646
▁나타냈다 646
▁모인 646
▁양질의 646
▁있었으나 646
▁진심으로 646
그러 646
렸 646
천으로 646
화하여 646
CT 645
EC 645
▁2% 645
▁갈등을 645
▁강화하는 645
▁너무나 645
▁동일하게 645
▁보아 645
▁아버지가 645
▁여름방학 645
▁재고 645
▁컨소시엄 645
▁판매량은 645
됨으로써 645
실과 645
중의 645
커버 645
호선과 645
▁XM 644
▁고려하여 644
▁그렇다고 644
▁김종 644
▁꺾 644
▁밝은 644
▁방안이 644
▁빠르고 644
▁음향 644
▁투여 644
드리 644
사회적 644
심에서 644
▁가맹 643
▁국내에서는 643
▁급감 643
▁단백질 643
▁든다 643
▁문제의 643
▁부문에서 643
▁청춘 643
▁확대할 643
▁계획에 642
▁돌아온 642
▁붙여 642
▁예고했다 642
▁우려도 642
▁출석 642
제조 642
조로 642
캐피탈 642
효과가 642
MC 641
SI 641
▁간단 641
▁걸릴 641
▁고통을 641
▁그래 641
▁섹 641
▁신차를 641
▁유로 641
▁지나면 641
▁직원을 641
▁초청 641
▁출연한다 641
▁콩 641
▁홀로 641
년대에 641
담당 641
만으로도 641
본다 641
산업의 641
오늘 641
LS 640
▁개발하는 640
▁다를 640
▁돕기 640
▁보험료를 640
▁이용하면 640
▁정부에 640
▁즐 640
▁판정 640
▁포함하여 640
▁흙 640
층으로 640
친다 640
효율 640
CD 639
▁IoT 639
▁과학적 639
▁렉서스 639
▁사회에 639
▁서비스로 639
▁엔터테인먼트 639
▁인증을 639
▁자동차는 639
▁존재하지 639
▁청취 639
▁콘텐츠가 639
그리고 639
년으로 639
들고 639
시까지 639
움과 639
인식 639
ter 638
▁구리 638
▁디자인과 638
▁리츠 638
▁묶 638
▁성질을 638
▁시작됐다 638
▁여의도 638
▁웨 638
▁이뤄지지 638
▁줄어 638
▁추억 638
▁충분 638
브라 638
▁85 637
▁DS 637
▁개발해 637
▁모형 637
▁상하이 637
▁서서히 637
▁웨이 637
▁이곳에서 637
▁정보는 637
다리 637
쪽으로는 637
▁공간의 636
▁김민 636
▁노동자들은 636
▁분사 636
▁상품이 636
▁업그레이드 636
▁오버 636
▁임차 636
▁타결 636
▁통행 636
▁하도록 636
무역 636
지표 636
트리 636
CEO 635
▁국가가 635
▁분들이 635
▁입지 635
▁전반적인 635
▁침입 635
▁푸른 635
▁퓨 635
기관의 635
노조는 635
정으로 635
화되어 635
화해 635
PA 634
▁CP 634
▁EU 634
▁가졌다 634
▁개막 634
▁남긴 634
▁다운 634
▁민주주의 634
▁사용하면 634
▁없어서 634
▁전인 634
▁화성 634
실험 634
책임 634
▁금액을 633
▁말로 633
▁액티브 633
▁장기화 633
▁정규직으로 633
▁트로트 633
단으로 633
더라 633
재와 633
텔레콤 633
파의 633
▁OST 632
▁곱 632
▁깃 632
▁날이 632
▁삭감 632
▁상류 632
▁선형 632
▁시작하는 632
▁쏠리고 632
▁준비하고 632
▁포함되어 632
규제 632
병원에서 632
봤다 632
▁근접 631
▁꺼내 631
▁당황 631
▁들어간다 631
▁또다시 631
▁매니저 631
▁맺고 631
▁샤 631
▁스트리밍 631
▁시행하고 631
▁신뢰성 631
▁옮 631
▁있다며 631
▁침투 631
▁토지 631
▁현장의 631
▁화가 631
▁황금 631
▁휴게 631
능력을 631
레이션 631
재료 631
하시고 631
▁각형 630
▁안팎 630
▁야기 630
▁자문 630
▁제기한 630
▁조사에 630
▁즐거 630
▁지휘 630
▁추가적인 630
▁할머니 630
교는 630
어에 630
온다 630
회장 630
SNS 629
▁각자의 629
▁기업으로 629
▁논의를 629
▁방식에 629
▁밴드 629
▁순차적으로 629
▁치솟 629
▁컨설팅 629
▁확인한 629
공사가 629
▁규정을 628
▁모은 628
▁본교는 628
▁상품은 628
▁에어백 628
▁위해서다 628
▁카카오톡 628
스트는 628
▁54 627
▁동결 627
▁받으며 627
▁수시로 627
▁신뢰성이 627
▁장점을 627
▁장착된 627
▁하향 627
▁핸드폰 627
▁횡 627
▁광역 626
▁되는데 626
▁밀착 626
▁신약 626
▁컴백 626
러는 626
루가 626
텀 626
▁다루는 625
▁법원 625
▁실시할 625
▁아니라고 625
▁용량을 625
▁유력 625
▁전장 625
▁초고 625
▁추진한다 625
노총 625
리오 625
밀하게 625
방의 625
어질 625
하자는 625
회전 625
▁관내 624
▁다리 624
▁마침내 624
▁면에서 624
▁베이징 624
▁신장 624
▁신제품 624
▁어린이들이 624
▁의사가 624
▁전체적인 624
▁정책에 624
▁취약계층의 624
▁폴리머 624
▁한국에 624
량과 624
안으로 624
▁66 623
▁굿 623
▁꾸준한 623
▁되자 623
▁사라진 623
▁아반떼 623
▁자원을 623
▁창립 623
스턴 623
올해 623
전력 623
▁그래도 622
▁단말기를 622
▁디지탈 622
▁반납 622
▁복수 622
▁영국의 622
▁유급 622
▁중부 622
▁중요성을 622
▁현대중공업 622
600 621
▁1.5 621
▁6, 621
▁공간에서 621
▁관계자 621
▁불편을 621
▁속속 621
▁주장하는 621
▁증시가 621
▁한국을 621
▁한글 621
시스템의 621
앞으로도 621
유지 621
▁공익 620
▁교육이 620
▁근거가 620
▁동굴 620
▁마련된 620
▁생긴다 620
▁연구의 620
▁월드 620
▁이종 620
▁호주 620
박스 620
37 619
▁김해 619
▁별다른 619
▁뽐 619
▁서비스다 619
▁셋 619
▁원의 619
▁있었습니다 619
▁자칫 619
냈 619
러의 619
로워 619
비정규직 619
통합 619
▁2030 618
▁극장 618
▁꼽았다 618
▁수단으로 618
▁실시한다 618
▁전격 618
▁제도가 618
▁진도 618
되었을 618
신호의 618
씨에게 618
프는 618
▁각기 617
▁구성에 617
▁굽 617
▁동의를 617
▁렌터카 617
▁말하면 617
▁보여주 617
▁사업으로 617
▁설치하여 617
▁송출 617
▁이르 617
▁인스타그램 617
▁토크 617
개국 617
마력 617
", 616
95 616
▁구비하는 616
▁나서고 616
▁만성 616
▁메뉴 616
▁보여준 616
▁불렀다 616
▁아우 616
▁이해를 616
▁주목받고 616
▁커지는 616
▁현대모비스 616
양의 616
영화제 616
,000 615
▁2025 615
▁근로기준법 615
▁냈 615
▁말씀을 615
▁생산성 615
▁원가 615
▁자동차에 615
▁즉각 615
▁행사에 615
▁대장 614
▁발화 614
▁보이며 614
▁세웠다 614
▁수송 614
▁자아낸다 614
▁제기된다 614
▁하여금 614
▁확대하는 614
마의 614
▁4000 613
▁가이드라인 613
▁느껴지는 613
▁시세 613
▁연체 613
▁오일 613
▁주장을 613
▁찾았다 613
▁협약을 613
▁훌륭한 613
검사를 613
교회 613
▁가격에 612
▁감소시킬 612
▁갚 612
▁더불어민주당 612
▁들어오 612
▁배우들이 612
▁어렵게 612
▁언급했다 612
▁없다면 612
▁여부에 612
▁접목 612
▁최소화할 612
▁회의를 612
결정 612
▁63 611
▁거라고 611
▁놓인 611
▁도입한 611
▁모델이다 611
▁분야를 611
▁분자 611
▁세금을 611
▁신뢰를 611
▁실감 611
▁전액 611
▁중지 611
▁처한 611
건은 611
금지 611
모드 611
치로 611
했다면 611
▁공공부문 610
▁기준금리 610
▁내달 610
▁럭셔리 610
▁분위 610
▁상당의 610
▁옷을 610
▁육아 610
▁작곡 610
▁조건이 610
▁줄어드는 610
▁지주 610
▁직렬 610
▁탁 610
▁프로모션 610
조원을 610
▁가요 609
▁때문이었다 609
▁바와 609
▁있거나 609
▁지원해 609
▁포함됐다 609
▁필드 609
공정을 609
만명이 609
▁경우를 608
▁맞지 608
▁못하면 608
▁샘 608
▁속의 608
▁일으키 608
▁일자 608
▁일제 608
▁폰 608
▁프로토콜 608
▁헬 608
공공 608
마을은 608
봤 608
빠 608
상환 608
종으로 608
트라 608
▁1999 607
▁결론을 607
▁대응하기 607
▁보조금 607
▁보편 607
▁소정 607
▁쉽 607
▁아닐 607
▁위원장 607
심과 607
음과 607
음악 607
재에 607
▁결정할 606
▁고대 606
▁사례는 606
▁아무도 606
▁엔진의 606
▁잉 606
▁전하는 606
▁주장이다 606
엔터테인먼트 606
자리 606
진에 606
하셔서 606
해져 606
▁경찰에 605
▁경찰이 605
▁과정은 605
▁법안 605
▁이후에는 605
▁직면 605
▁타다 605
▁타이 605
▁했을 605
▁행사는 605
▁확보하고 605
견을 605
▁교실 604
▁목격 604
▁문학 604
▁자치 604
▁트위 604
▁합리적인 604
였다는 604
주시기 604
천시 604
휴직 604
▁거예요 603
▁공정거래 603
▁때로는 603
▁서류 603
▁선사했다 603
▁센서를 603
▁아웃 603
▁않고도 603
▁이르면 603
▁청약 603
▁포함된다 603
르지 603
▁67 602
▁들여다 602
▁들은 602
▁모양이 602
▁민주노총은 602
▁세계에 602
▁없애 602
▁인플루엔자 602
▁전에는 602
▁지붕 602
▁짓고 602
▁캐나다 602
▁평안 602
▁협력업체 602
권과 602
마를 602
브리 602
∼7 601
▁KCGI 601
▁그녀는 601
▁말한 601
▁설립한 601
▁솔루션을 601
▁애플이 601
▁외부로 601
▁제안했다 601
▁처리하는 601
▁출시할 601
▁플랜 601
겼 601
관으로 601
꾸 601
동에서 601
환경을 601
▁사로잡았다 600
▁읽어 600
▁전해질 600
▁주장한다 600
▁처우 600
▁흥미를 600
향이 600
▁거야 599
▁관광객 599
▁관세 599
▁구로 599
▁그랬 599
▁나타났 599
▁떠난 599
▁쌓아 599
▁예산을 599
▁우리에게 599
▁제작된 599
▁조언 599
▁출퇴근 599
▁취약한 599
▁평야가 599
▁협조하여 599
▁형식 599
▁활발한 599
방식 599
출을 599
▁f 598
▁금액이 598
▁금융회사 598
▁늘어났다 598
▁보전 598
▁성취 598
▁소감을 598
▁수준인 598
▁외화 598
▁장을 598
▁중장기 598
▁차는 598
▁최악의 598
▁트랜지스터의 598
▁하락했다 598
가며 598
되었습니다 598
배우 598
업종 598
융합 598
집이 598
하의 598
▁공정이 597
▁뚜렷한 597
▁많다는 597
▁약물 597
▁영향력을 597
▁인적 597
▁장면을 597
▁지니고 597
▁학생을 597
▁한창 597
▁험 597
▁효과는 597
공동 597
소리 597
VR 596
▁15% 596
▁74 596
▁[ 596
▁경과 596
▁기도 596
▁끝나 596
▁막는 596
▁방송인 596
▁삼성전자의 596
▁이뤄지는 596
▁제거하는 596
▁중도 596
▁추진할 596
▁협상을 596
▁확률이 596
▁확실하게 596
▁후에도 596
과정에서 596
되었 596
들에게는 596
리티 596
유럽 596
쟁 596
체육 596
칙 596
▁'1 595
▁김정 595
▁농성을 595
▁들을 595
▁방송에 595
▁비주얼 595
▁살펴 595
▁선배 595
▁성남 595
▁실태 595
▁액체 595
▁여섯 595
▁윗 595
▁의혹을 595
▁입구 595
▁저희 595
▁제외하고 595
▁지난주 595
▁처음에는 595
▁타당 595
▁피할 595
난다 595
담을 595
모바일 595
사무 595
삭 595
쇠 595
▁교육청 594
▁노동자를 594
▁노무 594
▁두려 594
▁로켓 594
▁방영 594
▁솔로 594
▁이곳 594
▁작고 594
▁제기했다 594
▁중국은 594
▁집중되고 594
▁찬성 594
▁투자에 594
▁해마다 594
▁환자와 594
르면 594
보자 594
봄 594
양이 594
∼3 593
▁가정의 593
▁게임이 593
▁독일의 593
▁보컬 593
▁비하여 593
▁수련 593
▁안전사고 593
▁자녀를 593
▁정류 593
▁제로 593
▁지속될 593
▁학교폭력 593
전압을 593
짐에 593
카메라 593
▁감동을 592
▁고안의 592
▁매립 592
▁물품 592
▁서산 592
▁소재로 592
▁수석 592
▁시기를 592
▁시상 592
▁신청한 592
▁예전 592
▁입자 592
▁좋을 592
▁퇴원 592
▁하므로 592
곡을 592
드립니다 592
연맹 592
요양 592
이노베이션 592
▁게재 591
▁기기를 591
▁무선통신 591
▁살펴보 591
▁안으로 591
▁외국인이 591
▁준비한 591
▁찌 591
▁학년 591
▁늘어나면서 590
▁데이타 590
▁도구 590
▁메이커 590
▁문화가 590
▁상승했다 590
▁증여 590
▁태도를 590
▁판단을 590
▁핸드 590
▁확립 590
▁확실한 590
냉 590
보장 590
빅 590
실적 590
역에서 590
이사 590
희의 590
22 589
▁"“ 589
▁답변 589
▁바꿀 589
▁상품의 589
▁요구되는 589
▁크다는 589
▁판결이 589
과도 589
내의 589
모듈 589
범죄 589
용품 589
조는 589
준비 589
켜 589
클래 589
∼1 588
▁가입한 588
▁검사가 588
▁공업 588
▁공지 588
▁나섰 588
▁모임 588
▁시설을 588
▁임명 588
▁있었다는 588
▁차종을 588
▁챔버 588
▁하나를 588
근무 588
면적 588
일수록 588
편에 588
▁관리할 587
▁맞추 587
▁봉준호 587
▁야생 587
▁올랐 587
▁은퇴 587
▁지키 587
▁할지 587
▁형상을 587
▁호흡을 587
셔서 587
치기 587
▁관리에 586
▁누설 586
▁매력적인 586
▁생산이 586
▁선보이며 586
▁스케 586
▁신흥 586
▁온라인으로 586
▁제주도 586
▁주시면 586
▁출력을 586
▁클릭 586
▁폭락 586
▁항암 586
▁회장과 586
도어 586
IN 585
▁남북으로 585
▁내야 585
▁병원으로 585
▁부활 585
▁성장이 585
▁수익률 585
▁심화 585
▁안내를 585
▁안정화 585
▁앞선 585
▁올리고 585
▁저금리 585
▁착수 585
▁프로그램으로 585
대비 585
포를 585
▁가까워 584
▁강경 584
▁나누는 584
▁내외 584
▁며칠 584
▁업무에 584
▁외교 584
▁제거할 584
▁죽은 584
▁지위를 584
▁최고경영자 584
▁추세다 584
▁특징이 584
수단을 584
적이며 584
제도를 584
지급 584
해양 584
허가 584
혹 584
▁b 583
▁각자 583
▁높아졌다 583
▁닿 583
▁메타 583
▁소식 583
▁열악한 583
▁참여하고 583
뜨 583
매매 583
시스템에서 583
은행과 583
▁그렇 582
▁근대 582
▁기하 582
▁낮고 582
▁도중 582
▁동북 582
▁상한 582
▁양대 582
▁연내 582
▁전기차를 582
▁지침 582
스러 582
았는데 582
전송 582
▁강요 581
▁길이가 581
▁납입 581
▁대가 581
▁보낼 581
▁보면서 581
▁빼앗 581
▁아마 581
▁없이도 581
▁연봉 581
▁외면 581
▁워낙 581
▁유포 581
▁의미로 581
▁환매 581
감염 581
산업이 581
스피 581
일지 581
▁고분자 580
▁그날 580
▁녹아 580
▁렌즈 580
▁박성 580
▁발달해 580
▁선택적으로 580
▁오리지널 580
▁원인으로 580
▁위기가 580
▁유선 580
▁인류 580
▁인텔 580
▁일주일 580
▁캠페인을 580
▁한은 580
▁혁신적인 580
봐야 580
앙 580
영업 580
▁그리스 579
▁김용 579
▁드라이버 579
▁보호하기 579
▁시점에 579
▁안내하오니 579
▁않았을 579
▁여행을 579
▁장악 579
▁재직 579
▁투자자들의 579
▁형성한 579
▁확률 579
가격이 579
역은 579
연계 579
▁가벼운 578
▁감면 578
▁느끼게 578
▁묻는 578
▁생산성이 578
▁설치되어 578
▁성동 578
▁쉽다 578
▁시간의 578
▁심사를 578
▁오프 578
▁임단협 578
▁자세 578
▁재해 578
리브 578
수사 578
여성 578
주년 578
하이 578
▁광고는 577
▁동쪽으로는 577
▁살아가는 577
▁소멸 577
▁자제 577
▁저널리즘 577
▁제시하는 577
▁제조하는 577
▁통신을 577
▁편향 577
▁표현할 577
▁할부 577
고자 577
꼬 577
지기도 577
페이스 577
DM 576
▁남겨 576
▁났다 576
▁누릴 576
▁변호사 576
▁비싸 576
▁산지가 576
▁쓰지 576
▁않으면서 576
▁오직 576
▁적용될 576
▁전해진다 576
▁좋고 576
▁화장품 576
▁희귀 576
또 576
통화 576
해지면서 576
AN 575
▁가려 575
▁고지 575
▁관할 575
▁균일 575
▁극히 575
▁매개 575
▁모터쇼 575
▁무엇이 575
▁바꾸는 575
▁손해배상 575
▁숨진 575
▁시중 575
▁쏘 575
▁양쪽 575
▁어렵고 575
▁운영할 575
▁조례 575
▁탑재된 575
▁협동 575
공장에서 575
깃 575
시설을 575
자기 575
콩 575
택시 575
▁강력 574
▁기름 574
▁대개 574
▁대상이다 574
▁뜨 574
▁반영해 574
▁인출 574
▁일괄 574
▁제출한 574
▁투자자가 574
▁특별히 574
▁공개돼 573
▁나도 573
▁다음의 573
▁될지 573
▁떨어뜨 573
▁분포하고 573
▁어제 573
▁정보와 573
▁차로 573
▁펄 573
▁평화 573
▁활발하게 573
면에는 573
시길 573
지금 573
▁거짓 572
▁계약직 572
▁낮추 572
▁놀라 572
▁대조 572
▁데에 572
▁배터리의 572
▁붓 572
▁수술을 572
▁시에는 572
▁업체에 572
▁일부는 572
▁정년 572
▁차이는 572
▁큐 572
▁혹 572
경에 572
비율 572
짝 572
▁가능성 571
▁그게 571
▁니켈 571
▁대책이 571
▁모델에 571
▁상속 571
▁수익성 571
▁스탠 571
▁시민들이 571
▁연대 571
▁옹 571
▁지점에 571
났 571
▁68 570
▁끝까지 570
▁느 570
▁당부 570
▁댐 570
▁발의 570
▁속에는 570
▁손잡고 570
▁지내 570
▁쾌 570
▁탑재한 570
▁펴 570
▁폭포 570
▁확신 570
월과 570
은이 570
하실 570
▁계약이 569
▁성격을 569
▁시나리오 569
▁억제할 569
▁연쇄 569
▁전반 569
▁절감할 569
▁탐지 569
▁특징은 569
▁폭행 569
순환 569
아버 569
유의 569
힌다 569
▁개선에 568
▁거래를 568
▁골목 568
▁공급할 568
▁기업인 568
▁논란 568
▁발을 568
▁수단을 568
▁않는다고 568
▁연수 568
시아 568
▁그나마 567
▁불편한 567
▁상처 567
▁세계적 567
▁아이템 567
▁자신에게 567
▁조심 567
▁취하고 567
▁측정할 567
▁흐른다 567
계획을 567
연과 567
5,000 566
ON 566
▁국민이 566
▁댓글 566
▁부회장이 566
▁선진국 566
▁아르바이트 566
▁절차가 566
▁제천 566
▁한국은 566
공을 566
망에 566
에너 566
절한 566
지거나 566
캡 566
SD 565
▁꾀 565
▁장관이 565
▁주어진 565
▁합의를 565
렸다고 565
마트 565
수지 565
연결 565
으로의 565
3000 564
CR 564
ap 564
▁가족과 564
▁겉 564
▁뜻한다 564
▁링크 564
▁마찬가지다 564
▁무관 564
▁시급 564
▁전달했다 564
▁주변에는 564
▁하니 564
곡이 564
먼트 564
본부장은 564
이익 564
▁값이 563
▁건강에 563
▁기사를 563
▁대만 563
▁사용하기 563
▁삭 563
▁소액 563
▁신인 563
▁원리를 563
▁확대에 563
변환 563
이오 563
▁0.0 562
▁1997 562
▁남녀 562
▁본인의 562
▁부천 562
▁붙은 562
▁사회가 562
▁성립 562
▁스크 562
▁스토리텔링 562
▁쓰이는 562
▁통상임금 562
산물 562
용이 562
운전 562
원들은 562
중국 562
as 561
es 561
▁공을 561
▁과거에 561
▁댁내 561
▁번에 561
▁불을 561
▁신용등급 561
▁양이 561
▁적용됐다 561
▁책임이 561
▁항공기 561
▁화제가 561
기아차는 561
봐 561
사업자 561
정지 561
회계 561
AS 560
▁같습니다 560
▁거두 560
▁공매도 560
▁공진 560
▁멋진 560
▁면접 560
▁물량이 560
▁아이의 560
▁어린이집 560
▁역사적 560
▁완공 560
▁유인 560
▁이해하기 560
▁있어도 560
▁작품이 560
▁전달할 560
▁정상적인 560
▁철회 560
▁해운대 560
뇨 560
실한 560
이로 560
행사 560
6000 559
▁러 559
▁런던 559
▁명절 559
▁사회를 559
▁선보 559
▁수상했다 559
▁신속히 559
▁이목이 559
▁자료에 559
기아 559
기용 559
끔 559
마케팅 559
불이 559
▁51 558
▁굳이 558
▁달아 558
▁미뤄 558
▁변화하는 558
▁짐 558
▁충주 558
▁표현하는 558
만족 558
명에서 558
지역의 558
특성을 558
NA 557
▁공급을 557
▁낮게 557
▁부품의 557
▁비싼 557
▁서로의 557
▁여가 557
금액 557
못 557
쇄 557
치지 557
▁기분 556
▁낮다 556
▁랩 556
▁산업에 556
▁실물 556
▁예정된 556
▁장난 556
▁평면 556
▁한꺼번에 556
았을 556
줘야 556
차단 556
하시 556
▁경쟁력이 555
▁과잉 555
▁구비된 555
▁문화적 555
▁사망한 555
▁소재를 555
▁어려움 555
▁일도 555
▁작용하는 555
▁한껏 555
거리가 555
모빌리티 555
부동산 555
스위 555
익을 555
▁김희 554
▁도래 554
▁순위 554
▁시트로엥 554
▁양자컴퓨터 554
▁외주 554
▁우리나라는 554
▁원장은 554
거든요 554
았다고 554
찌 554
▁가지가 553
▁기저 553
▁넘어가는 553
▁다음날 553
▁본딩 553
▁서쪽으로는 553
▁속에서도 553
▁스캔 553
▁승인을 553
▁안동 553
▁주소 553
▁지나는 553
▁하동 553
▁현장체험학습 553
동기 553
비에 553
철도 553
▁ES 552
▁기록하며 552
▁기아자동차 552
▁난다 552
▁능동 552
▁다니는 552
▁닦 552
▁래 552
▁보내고 552
▁부를 552
▁집중적으로 552
▁차폐 552
▁탄탄한 552
▁하락한 552
▁해주는 552
리카 552
마는 552
시간에 552
탄을 552
▁것들이 551
▁대답 551
▁만족도 551
▁배우는 551
▁사회공헌 551
▁상승세를 551
▁의약품 551
▁의지가 551
▁인쇄회로기판 551
▁적절히 551
▁챙 551
▁콘택 551
▁편의성을 551
▁한국과 551
▁현황을 551
관계가 551
낭 551
접촉 551
했는지 551
5, 550
▁개정안 550
▁결의 550
▁경력 550
▁내릴 550
▁노트북 550
▁성능과 550
▁영구 550
▁자리매김 550
▁자신만의 550
▁촉매 550
▁칭찬 550
신고 550
▁간단하게 549
▁감정이 549
▁경부 549
▁고객은 549
▁고안에 549
▁다름 549
▁담배 549
▁로드 549
▁열처리 549
▁자유로운 549
▁체감 549
▁폭발적인 549
▁표본 549
▁화강암 549
니는 549
도우 549
철이 549
▁강조한 548
▁끊이지 548
▁높아진다 548
▁뛰어나 548
▁받으면 548
▁베어링 548
▁보행 548
▁자산을 548
▁제이 548
▁확보에 548
디스플레이 548
방안을 548
▁노드 547
▁변호 547
▁보냈다 547
▁보호하는 547
▁선전 547
▁업계에 547
▁이동하는 547
▁이룬 547
▁제공되는 547
▁타입 547
▁판매는 547
▁편의를 547
▁학교생활을 547
가구 547
강이 547
곳에 547
민은 547
보상 547
아시아 547
았으며 547
업계는 547
해준다 547
▁거리에 546
▁근로자에게 546
▁본부장은 546
▁새끼 546
▁수익이 546
▁신기 546
▁어머니가 546
▁일본에서 546
▁전략이 546
▁즐거움을 546
▁할리우드 546
사업에 546
펠 546
훈련 546
1000 545
▁130 545
▁교육과 545
▁권장 545
▁도봉 545
▁맑은 545
▁이용되고 545
▁자생 545
▁조화를 545
▁주유 545
▁지니 545
강을 545
보기 545
치와 545
▁IS 544
▁계층 544
▁교통이 544
▁당신이 544
▁돌입했다 544
▁본격화 544
▁부사 544
▁부산의 544
▁수명을 544
▁쏠린다 544
▁안고 544
▁은행들이 544
▁일자리가 544
▁텐 544
▁폭염 544
공사는 544
일본 544
68 543
▁1998 543
▁감안해 543
▁곳곳에서 543
▁내리는 543
▁대안 543
▁대학교 543
▁바라는 543
▁부호화 543
▁비준 543
▁소켓 543
▁요구가 543
▁위해선 543
▁이어갈 543
▁재료를 543
▁펼칠 543
▁확인해 543
▁힘들다 543
감도 543
병원이 543
시로 543
원인 543
▁99 542
▁구상 542
▁기술개발 542
▁김지 542
▁내용에 542
▁닮 542
▁대략 542
▁사랑의 542
▁사물인터넷 542
▁사이에는 542
▁시작할 542
▁아프 542
▁압도 542
▁오지 542
▁의혹이 542
▁이산화탄소 542
▁준비하는 542
▁즐겁게 542
▁지원금 542
▁펼치고 542
▁확보하는 542
반을 542
수요 542
저가 542
ut 541
▁대부 541
▁바람직 541
▁뿌리 541
▁사업자가 541
▁수목드라마 541
▁시달 541
▁유튜버 541
▁전산 541
▁태양전지 541
▁핫 541
▁현대차그룹 541
딜 541
un 540
▁공간으로 540
▁만기가 540
▁모자 540
▁받았고 540
▁불가능하다 540
▁엔딩 540
▁오리 540
▁우버 540
▁이뤄지고 540
▁주시는 540
▁증진 540
▁직원의 540
▁촬영을 540
▁파이 540
▁팽창 540
▁펼 540
각이 540
너의 540
바위 540
회사의 540
▁개선하여 539
▁규정하고 539
▁말았다 539
▁여론 539
▁온갖 539
▁웹사이트 539
▁인원 539
▁전자가 539
▁코나 539
▁학교가 539
륨 539
해왔 539
75 538
▁과세 538
▁나타내고 538
▁발사 538
▁불거 538
▁숫 538
▁측에 538
▁클럭 538
▁펀 538
▁하청 538
▁현상은 538
▁화면에 538
금에 538
어린이 538
우스 538
유플러스가 538
▁뚜렷 537
▁모습과 537
▁목표다 537
▁부당한 537
▁생기 537
▁손으로 537
▁시속 537
▁전국의 537
▁전염병 537
▁정산 537
▁찾지 537
▁합격 537
▁행사가 537
용을 537
▁OTT 536
▁공감을 536
▁관계에 536
▁근로자들의 536
▁당국이 536
▁멋 536
▁방안도 536
▁않았다고 536
▁알고리즘을 536
▁어르신 536
▁원소 536
▁적고 536
▁지리 536
▁진주 536
▁한눈에 536
▁호평을 536
교육의 536
되었다고 536
사고를 536
센터에 536
프가 536
▁근로자는 535
▁블로그 535
▁사로잡 535
▁서비스와 535
▁여지가 535
▁의무를 535
▁작업에 535
▁주의를 535
공간을 535
교육에 535
질로 535
프의 535
7000 534
▁머물 534
▁문서 534
▁사용된 534
▁저항을 534
▁체불 534
▁테이프 534
시한 534
적이었다 534
정신 534
▁2.0 533
▁RF 533
▁개정안이 533
▁거울 533
▁꼽히는 533
▁남해 533
▁들어온 533
▁불어 533
▁싶었다 533
▁어긋 533
▁연초 533
▁최소한의 533
▁프로그램이다 533
▁환자에게 533
늄 533
란이 533
월드 533
피해 533
em 532
▁관람객 532
▁대다수 532
▁데이트 532
▁두께를 532
▁드라이브 532
▁떡 532
▁복직 532
▁안테나를 532
▁알지 532
▁요구된다 532
▁재건축 532
▁적자 532
▁체결했다 532
▁팔아 532
▁흐름이 532
델 532
시청 532
참여 532
트럭 532
▁강도를 531
▁맺은 531
▁벌어진 531
▁산책 531
▁삼아 531
▁업체인 531
▁이밖에 531
▁인물이 531
▁정수 531
▁주민들의 531
▁측정하는 531
▁하는지 531
우와 531
준의 531
하듯 531
39 530
▁360 530
▁개발과 530
▁남쪽에 530
▁남쪽으로는 530
▁둘레 530
▁로그 530
▁산업을 530
▁양측 530
▁제공하고자 530
봇 530
온라인 530
웰 530
전달 530
▁개념이 529
▁기구 529
▁나눈 529
▁달러를 529
▁대단히 529
▁메신저 529
▁버전 529
▁버튼을 529
▁생산할 529
▁속으로 529
▁썼다 529
▁이미지가 529
▁퍼져 529
기업에 529
부에는 529
자유 529
PR 528
▁고려해야 528
▁공개한다 528
▁기능은 528
▁노조와 528
▁다운로드 528
▁닭 528
▁밸브 528
▁상품에 528
▁수주 528
▁여신 528
▁자동차부품 528
▁진단했다 528
▁첫날 528
▁투과 528
▁후면 528
▁후문이다 528
렸다는 528
주파 528
▁LCD 527
▁과열 527
▁넘어섰다 527
▁담았다 527
▁도로를 527
▁도약 527
▁레이싱 527
▁명칭 527
▁발원한 527
▁사진이 527
▁숭 527
▁약간의 527
▁온실가스 527
▁인근에 527
▁저가 527
▁준중형 527
▁중첩 527
▁처리할 527
▁추산 527
밀한 527
바다 527
서다 527
수당을 527
왜 527
줬 527
첩 527
▁가능합니다 526
▁간호사 526
▁경제에 526
▁국회에서 526
▁도시의 526
▁레드 526
▁법을 526
▁인체 526
▁입장이 526
▁저소득층 526
▁학습을 526
계층 526
▁네티즌 525
▁들어오는 525
▁번의 525
▁부드러운 525
▁시작된다 525
▁얻는다 525
▁이었다 525
▁진출을 525
벽을 525
았습니다 525
업체의 525
자동차가 525
하시어 525
▁반영된 524
▁자체적으로 524
▁최대의 524
▁포함하고 524
께서 524
비스 524
시스 524
열이 524
원한 524
자연 524
켓 524
▁결정에 523
▁고분 523
▁구형 523
▁극대 523
▁낸다 523
▁농경 523
▁바라며 523
▁분야는 523
▁셈 523
▁영역의 523
▁오른쪽 523
▁용이하고 523
▁인접한 523
▁자본주의 523
▁조건으로 523
▁증가로 523
긴다 523
나무는 523
디자인 523
만으로는 523
반응 523
조작 523
종은 523
황을 523
34 522
▁갈아 522
▁강화할 522
▁개성 522
▁것인 522
▁구멍 522
▁기본으로 522
▁노력하겠다 522
▁달리는 522
▁당연 522
▁대결 522
▁대주주 522
▁무척 522
▁문제다 522
▁외부의 522
▁요구에 522
▁원칙을 522
▁유엔 522
▁의미하는 522
▁일으킬 522
▁일체 522
라고도 522
리한 522
있어 522
집니다 522
하였으나 522
흐 522
▁거래소 521
▁더블 521
▁도덕 521
▁비타민 521
▁빵 521
▁얻기 521
▁일정하게 521
▁임상시험 521
▁지키는 521
▁차입 521
▁참여한다 521
▁치료가 521
▁컴퓨팅 521
롭고 521
중학교 521
큰 521
▁머릿 520
▁명확한 520
▁부근 520
▁아직까지 520
▁엇갈 520
▁온천 520
▁우대 520
▁월화드라마 520
▁장소를 520
▁평탄 520
▁확실 520
병원은 520
항을 520
SDI 519
▁광고가 519
▁국방 519
▁내리 519
▁느낀 519
▁물량을 519
▁바람에 519
▁성장하는 519
▁수명이 519
▁순으로 519
▁어두운 519
▁예정이며 519
▁워싱턴 519
▁의원이 519
▁이기 519
▁전교 519
▁지구의 519
▁지능형 519
▁찍은 519
▁텍스트 519
내에서 519
맵 519
옹 519
전지를 519
▁공간은 518
▁기준금리를 518
▁라이프 518
▁속하는 518
▁수명 518
▁이름은 518
▁인식을 518
▁잭 518
▁전화번호 518
▁키우는 518
▁파악됐다 518
석에 518
수업 518
월말 518
치며 518
한을 518
▁논쟁 517
▁느끼 517
▁대중교통 517
▁등장한다 517
▁리스 517
▁반면에 517
▁비유 517
▁안정을 517
▁열차 517
▁영업이익이 517
▁우승 517
▁이외에 517
▁한국타이어 517
▁형식으로 517
순위 517
역으로 517
장치에서 517
훈은 517
ri 516
▁개구 516
▁그에게 516
▁근본적인 516
▁드디어 516
▁마련할 516
▁면적 516
▁번도 516
▁인터넷을 516
▁일명 516
▁제조용 516
▁주목할 516
▁지키기 516
▁참고하시기 516
▁책은 516
▁품목 516
▁흡착 516
게이트 516
호와 516
활동에 516
▁1500 515
▁가령 515
▁걸렸다 515
▁그러다 515
▁나눌 515
▁늘리고 515
▁도쿄 515
▁모범 515
▁변수 515
▁시의 515
▁아이들을 515
▁일으킨 515
▁제조방법 515
▁제조할 515
▁조항 515
▁탁월한 515
▁확보했다 515
▁활발 515
개인 515
렀 515
려가 515
로서는 515
자로부터 515
-1 514
▁8, 514
▁느끼고 514
▁되므로 514
▁되었고 514
▁드러내 514
▁음극선관의 514
▁전제 514
▁증가에 514
▁최적화 514
▁편안한 514
기사 514
솔루션 514
인도 514
짐을 514
PI 513
▁교통안전 513
▁그녀가 513
▁김재 513
▁끝이 513
▁발표된 513
▁선두 513
▁설치되는 513
▁시흥 513
▁업계가 513
▁이모 513
격이 513
어링 513
웃 513
표준 513
하겠습니다 513
▁내부에서 512
▁발견된 512
▁배우가 512
▁브랜드가 512
▁사용자는 512
▁상실 512
▁서울의 512
▁성별 512
▁영상의 512
▁원자력 512
▁인간은 512
▁장려 512
▁저렴 512
▁전무 512
▁주시고 512
▁지형이 512
▁테러 512
▁학부모님들께 512
라운 512
맞 512
앞으로 512
월의 512
잘 512
ES 511
▁1995 511
▁감소하고 511
▁곤 511
▁기관의 511
▁기술력을 511
▁높다고 511
▁둘러싸고 511
▁말미 511
▁멜 511
▁미세먼 511
▁사모 511
▁상가 511
▁올해의 511
▁종영 511
▁주의가 511
▁주택담보대출 511
▁혁 511
▁현대차와 511
라이트 511
미와 511
받는다 511
진료 511
패널 511
▁감소하는 510
▁과제를 510
▁다룬 510
▁발주 510
▁변화와 510
▁상황에서도 510
▁성분이 510
▁수수료를 510
▁연기가 510
▁한진그룹 510
량으로 510
리얼 510
붙 510
살이 510
시에서 510
오가 510
전류 510
쩍 510
처는 510
치게 510
함은 510
황이 510
▁갓 509
▁겪은 509
▁기후변 509
▁대부분을 509
▁돌파했다 509
▁떠오 509
▁랜 509
▁부작용 509
▁세미나 509
▁업체들은 509
▁요약 509
▁유망 509
▁장착한 509
▁정상적으로 509
▁폭을 509
▁해체 509
감으로 509
결과를 509
업계가 509
텔레콤이 509
▁글이 508
▁나라의 508
▁남편이 508
▁대통령의 508
▁데이 508
▁듯하다 508
▁설명하는 508
▁요구하며 508
▁유치원 508
▁이지 508
▁전원이 508
▁필요성을 508
▁한도 508
국으로 508
덩 508
만원씩 508
음의 508
차별 508
▁IB 507
▁공제 507
▁내용이다 507
▁무산 507
▁밀어 507
▁상승을 507
▁영상은 507
▁이뤄진다 507
▁작성하여 507
▁집안 507
▁코어 507
▁테이블 507
문제 507
성한 507
심은 507
엑스 507
자금을 507
4000 506
▁개선하는 506
▁공장의 506
▁디스크 506
▁떨어지고 506
▁방침을 506
▁빨간 506
▁실린더 506
▁싫 506
▁원리 506
▁이득 506
▁일일이 506
▁입소 506
▁중견 506
▁지도를 506
▁참여하여 506
▁철저한 506
▁포함돼 506
▁해수 506
▁화소 506
▁환자들이 506
곳을 506
방안 506
워크 506
전시 506
졌으며 506
즘 506
900 505
▁광고의 505
▁기아차의 505
▁모양으로 505
▁발견한 505
▁북부 505
▁분이 505
▁썼 505
▁않는다면 505
▁올해도 505
▁의미에서 505
▁재능 505
▁전이 505
▁정도는 505
▁크리스 505
▁프랑 505
공항 505
어졌다 505
역과 505
욕을 505
혔 505
▁결정한 504
▁공약 504
▁릴레이 504
▁마이너스 504
▁베이 504
▁부재 504
▁불완전판매 504
▁시스템으로 504
▁올릴 504
▁올해부터 504
▁원료 504
▁정서 504
▁최적화된 504
▁폭로 504
▁행위가 504
▁협의를 504
륙 504
센서 504
엔진 504
훈의 504
CO 503
▁MS 503
▁간단히 503
▁감상 503
▁공사가 503
▁낭 503
▁동쪽에 503
▁만이다 503
▁범위가 503
▁시청자들을 503
▁유입되는 503
▁이스라엘 503
▁자산운용 503
▁전신 503
▁틈 503
이미 503
청년 503
활성 503
흡 503
▁강좌 502
▁구축하고 502
▁그와 502
▁단계에서 502
▁뒤늦게 502
▁마세라티 502
▁만화 502
▁보고서를 502
▁사항은 502
▁살펴보시고 502
▁어린이들의 502
▁엘리 502
▁연구에서 502
▁유족 502
▁자신감을 502
▁초소형 502
골은 502
른다 502
문은 502
사례 502
소자를 502
제공 502
차게 502
타워 502
팅을 502
∼10 501
▁기능과 501
▁당한 501
▁억제하는 501
▁운영한다 501
▁전자파 501
▁중대 501
▁평범한 501
○○ 501
계에서 501
레이터 501
지난 501
패스 501
하므로써 501
▁그러자 500
▁그로 500
▁기다리고 500
▁내게 500
▁대용량 500
▁더해져 500
▁로봇은 500
▁무조건 500
▁분석하고 500
▁설명을 500
▁수여 500
▁어깨 500
▁을 500
▁이용자의 500
▁전문가들이 500
▁초등학생 500
▁캐리어 500
▁통증 500
▁플랫폼이 500
▁학생과 500
▁해석된다 500
▁확진자는 500
렀다 500
31 499
▁금융사 499
▁뉴스를 499
▁동양 499
▁보게 499
▁아마도 499
▁왼쪽 499
▁자기가 499
▁조현 499
▁파티 499
▁홈페이지를 499
립을 499
지원을 499
▁'3 498
▁간부 498
▁감사드리며 498
▁달라진 498
▁달라질 498
▁되기를 498
▁불가피한 498
▁빌딩 498
▁성공을 498
▁세제 498
▁슬로 498
▁시작되는 498
▁양을 498
▁연기로 498
▁오고 498
▁의학 498
▁지방자치단체 498
▁체험을 498
▁탓 498
▁프리랜서 498
▁하천이 498
돌이 498
분기에 498
빔 498
함으로 498
6, 497
▁OLED 497
▁겨우 497
▁고소 497
▁국정 497
▁두루 497
▁루프 497
▁명품 497
▁모듈을 497
▁미세한 497
▁밝혀졌다 497
▁색다른 497
▁유럽의 497
▁자동차산업 497
▁자동차와 497
▁초음파 497
▁캘리포니아 497
▁트랜스 497
맞춤 497
섰다 497
우주 497
이런 497
지도록 497
8000 496
▁84 496
▁고용노동부는 496
▁넥슨 496
▁높아지는 496
▁분석도 496
▁성과가 496
▁스위 496
▁신선 496
▁실력을 496
▁압전 496
▁역으로 496
▁일련의 496
▁저장된 496
▁직접고용 496
달라고 496
분으로 496
암은 496
워서 496
위원회에 496
▁3% 495
▁개발할 495
▁개시된 495
▁걸친 495
▁공개해 495
▁구매할 495
▁기동 495
▁기둥 495
▁김상 495
▁낮출 495
▁뒤집 495
▁멈춰 495
▁본질 495
▁사망자가 495
▁안전자산 495
▁연구진이 495
▁우울 495
▁인식하고 495
▁잔류 495
▁장소에 495
▁주한미군 495
▁줄어들고 495
농협 495
됐기 495
업은 495
잎 495
▁강도가 494
▁귀가 494
▁내놓을 494
▁늘릴 494
▁신호가 494
▁앙 494
▁앞으로의 494
▁재규어 494
▁최소한 494
▁흐르 494
년째 494
빈이 494
속도 494
수리 494
▁고용유지 493
▁기기의 493
▁깨달 493
▁달간 493
▁박정 493
▁수혜 493
▁이윤 493
▁자유를 493
▁지난해보다 493
▁쿠팡 493
▁타이틀 493
▁함양 493
멀 493
형과 493
85 492
ICT 492
▁금융위는 492
▁북쪽에 492
▁산업재해 492
▁수익률을 492
▁적당한 492
▁최근에 492
▁타이어를 492
▁특례 492
▁파이프 492
▁플라 492
신탁 492
통이 492
▁LTE 491
▁가산 491
▁낮춰 491
▁다하겠다 491
▁물질의 491
▁부모가 491
▁생명을 491
▁소진 491
▁양호 491
▁엔지니어 491
▁여부가 491
▁요건을 491
▁의지 491
▁일상생활 491
▁중심이 491
▁체납 491
▁초기에 491
▁카리스마 491
▁평행 491
▁혼잡 491
기만 491
대행 491
복합 491
였으며 491
촬영 491
해야만 491
▁69 490
▁날짜 490
▁낫 490
▁단계에 490
▁대법 490
▁마을이다 490
▁무게를 490
▁미소를 490
▁분담 490
▁사운드 490
▁살려 490
▁성범죄 490
▁수익성이 490
▁시뮬레이션 490
▁인터뷰에서 490
▁저해 490
▁조만간 490
▁중심에 490
미스터 490
였는데 490
적일 490
축을 490
출이 490
▁7, 489
▁기대되는 489
▁나오면서 489
▁멈추 489
▁방향의 489
▁스웨덴 489
▁일일 489
▁임진왜란 489
▁재활용 489
▁조종 489
▁팝 489
▁호랑 489
사이트 489
전쟁 489
중심 489
투자자 489
∼5 488
▁EBS 488
▁간다 488
▁공정에 488
▁국회의 488
▁근로자들이 488
▁기업은행 488
▁끝내 488
▁달린 488
▁대중의 488
▁밀폐 488
▁바뀐 488
▁방정 488
▁사진에는 488
▁스토리를 488
▁실직 488
▁엑스 488
▁유독 488
▁인간과 488
▁중소기업의 488
▁톨게이트 488
바닥 488
산면 488
아를 488
적이라는 488
중이다 488
협회가 488
▁경상북도 487
▁농민 487
▁밖에도 487
▁섀 487
▁선택하는 487
▁승강 487
▁월급 487
▁윈 487
▁인테리어 487
▁전체에 487
▁직선 487
▁철강 487
▁최장 487
▁포럼 487
▁해가 487
▁해변 487
▁확보하기 487
개에 487
난을 487
묵 487
병을 487
온이 487
이니 487
∼8 486
▁기온 486
▁들어갔 486
▁메모 486
▁바위가 486
▁성격이 486
▁양식 486
▁이곳은 486
▁잃 486
▁정보기술 486
▁카메라가 486
▁필요합니다 486
▁한시적으로 486
▁했으나 486
▁확보가 486
고에 486
주차 486
파는 486
형에 486
94 485
AT 485
HD 485
▁AS 485
▁강동 485
▁개가 485
▁개선한 485
▁공정의 485
▁기법 485
▁기한 485
▁도요타는 485
▁반환 485
▁이용자들이 485
▁젖 485
▁즐기 485
▁체질 485
▁탓이다 485
▁협력해 485
공유 485
리다 485
방식을 485
세와 485
시에는 485
▁HDC 484
▁고용노동부가 484
▁김현 484
▁맞았다 484
▁명확하게 484
▁북쪽으로는 484
▁불량을 484
▁사회에서 484
▁수행한다 484
▁쌍용자동차가 484
▁앞세워 484
▁에코 484
▁이영 484
▁점등 484
▁치과 484
▁패밀리 484
간이 484
MP 483
▁경량 483
▁구성원 483
▁모두의 483
▁수사를 483
▁지원금을 483
▁크로스 483
▁형성함으로써 483
지요 483
책이 483
▁900 482
▁국내에서도 482
▁사이를 482
▁쉴 482
▁안재 482
▁얹 482
▁완전한 482
▁재료의 482
▁재미있는 482
▁조직을 482
▁직장인 482
▁컴퓨터를 482
▁크리에이터 482
▁팰리세이드 482
▁햇빛 482
▁화이트 482
고의 482
끈 482
념을 482
떨 482
수수 482
연합회 482
청의 482
▁가죽 481
▁개인정보를 481
▁경감 481
▁고향 481
▁곤란 481
▁구름 481
▁내놓고 481
▁눈으로 481
▁당국은 481
▁바닥에 481
▁밸 481
▁시민들의 481
▁이용한다 481
▁잠복 481
▁주택을 481
▁지급한다 481
▁지키고 481
▁투자해 481
▁편안 481
▁평가하는 481
▁형성한다 481
▁확대되고 481
계획에 481
변을 481
토가 481
▁경매 480
▁극복을 480
▁노란 480
▁당시의 480
▁밖 480
▁번역 480
▁브라질 480
▁비로소 480
▁생산하고 480
▁유쾌한 480
▁전파를 480
▁조절하는 480
▁지나지 480
▁팬들이 480
▁합동 480
댐 480
유니 480
컴퓨터 480
▁3∼4 479
▁가끔 479
▁것이기 479
▁결정이 479
▁경보 479
▁곁 479
▁구축을 479
▁넷플릭스 479
▁밀봉 479
▁발현 479
▁보충 479
▁복구 479
▁사례다 479
▁서쪽에 479
▁셰 479
▁신중 479
▁유산 479
▁적용을 479
▁중국에 479
▁집단감염 479
▁찾는다 479
▁한참 479
▁현대모비스는 479
는지를 479
등에 479
레벨 479
시트 479
주지 479
지원금 479
캠프 479
▁대본 478
▁로봇을 478
▁로봇의 478
▁물건 478
▁산으로 478
▁서남 478
▁손해를 478
▁스위치를 478
▁신선한 478
▁알리 478
▁의무가 478
▁제외하면 478
▁커넥터 478
▁하수 478
생은 478
설계 478
업과 478
여명 478
이동 478
지부 478
팀은 478
▁건전 477
▁공유하고 477
▁눈물 477
▁다르 477
▁레이더 477
▁마약 477
▁말부터 477
▁몰래 477
▁미국에 477
▁변속기 477
▁사정이 477
▁송금 477
▁시험을 477
▁신속 477
▁아인슈타 477
▁역동적인 477
▁전압이 477
▁제조업체 477
▁집값 477
▁처음부터 477
▁친구들과 477
만원까지 477
현장 477
활동이 477
DLF 476
▁감사하겠습니다 476
▁거세 476
▁범람 476
▁설치하고 476
▁송가 476
▁스트레스 476
▁쌍용 476
▁이진 476
▁주를 476
▁진단을 476
▁짧 476
▁탐구 476
들께 476
장한 476
협의회 476
▁그렇기 475
▁논란을 475
▁다이오 475
▁매칭 475
▁멤버들이 475
▁모습에 475
▁미래에 475
▁불만을 475
▁스페인 475
▁심리적 475
▁위험에 475
▁유명하다 475
▁이전의 475
▁장수 475
▁지난해부터 475
▁퇴직연금 475
▁해외에서 475
▁확산되고 475
선거 475
수단 475
직장 475
희망 475
▁고사 474
▁교회 474
▁도전성 474
▁때문이라고 474
▁보건복지 474
▁부부의 474
▁사업주 474
▁세무 474
▁쓰러 474
▁연일 474
▁오브 474
▁이어가 474
▁장점 474
▁전략이다 474
▁체험할 474
▁축구 474
▁카피 474
▁파업이 474
▁하겠습니다 474
▁해를 474
리도 474
방으로 474
업의 474
자동 474
재산 474
▁DC 473
▁가까 473
▁가입을 473
▁경제를 473
▁공화 473
▁내륙 473
▁넘어선 473
▁많을 473
▁부양 473
▁불만이 473
▁산업혁 473
▁승진 473
▁않다고 473
▁이야기는 473
▁익숙 473
렴 473
림의 473
위원회에서 473
재해 473
▁구성하고 472
▁마크 472
▁말도 472
▁목소 472
▁복사 472
▁부작용이 472
▁선보이고 472
▁설명한다 472
▁연평균 472
▁자녀들의 472
▁저하를 472
▁좁 472
▁좋게 472
▁지지하는 472
▁축제 472
▁편이 472
▁펼쳐질 472
▁형성방법에 472
네트워크 472
시면 472
핏 472
▁119 471
▁가입할 471
▁경제성장 471
▁급격하게 471
▁깔 471
▁다층 471
▁대표적 471
▁독려 471
▁벌인 471
▁생각합니다 471
▁속출 471
▁외부에서 471
▁이렇듯 471
▁전해액 471
▁주신 471
▁촬영한 471
나고 471
도체 471
섯 471
자동차의 471
패턴 471
▁경작 470
▁국무 470
▁다각 470
▁단체협약 470
▁등록된 470
▁바가 470
▁부른 470
▁부분변경 470
▁서구 470
▁엉 470
▁이루며 470
▁이원 470
▁일찍 470
▁전송하는 470
▁지원사업 470
▁초록 470
▁크기는 470
▁트리 470
▁희망을 470
셈 470
채를 470
현상을 470
ET 469
▁가득하시길 469
▁가져올 469
▁그룹의 469
▁금융당국이 469
▁기대했다 469
▁나이가 469
▁배우들의 469
▁보장하는 469
▁비판을 469
▁사업이다 469
▁세계가 469
▁싱 469
▁알아야 469
▁언덕 469
▁연안 469
▁왕복 469
▁이슈가 469
▁임금이 469
▁자리잡 469
▁한국이 469
▁핸들 469
라마 469
▁결합한 468
▁깨끗한 468
▁모호 468
▁불가피 468
▁사랑과 468
▁상승한 468
▁아픈 468
▁자발적으로 468
▁전국적으로 468
▁제품으로 468
▁조사가 468
▁직접적으로 468
▁크루즈 468
▁합의했다 468
▁환원 468
▁놀라게 467
▁만료 467
▁무리 467
▁박지 467
▁수확 467
▁신앙 467
▁쏘울 467
▁약을 467
▁얇은 467
▁연인 467
▁유권 467
▁줄고 467
▁최우수 467
▁취업자 467
▁합금 467
▁휴양 467
교섭 467
본부는 467
봉사 467
신한 467
77 466
▁DB 466
▁구성한 466
▁김기 466
▁모험 466
▁벌금 466
▁보건소 466
▁봉쇄 466
▁성사 466
▁소하 466
▁예전에 466
▁우리를 466
▁위원장이 466
▁유지하기 466
▁작가가 466
▁전작 466
▁정유 466
▁정책의 466
▁주위 466
▁줄을 466
그래 466
나게 466
맥이 466
스럽 466
식에서 466
연구원은 466
정책을 466
SK 465
▁내보 465
▁마켓 465
▁세우고 465
▁스핀 465
▁아내가 465
▁인덕 465
▁전문가가 465
▁지역과 465
▁챙겨 465
▁촬영이 465
▁파산 465
▁해결하는 465
▁활용될 465
▁훈 465
기나 465
심에 465
함으로서 465
해서는 465
▁AP 464
▁검찰이 464
▁남쪽에는 464
▁노동시간 464
▁반해 464
▁산의 464
▁서스펜션 464
▁세척 464
▁용역 464
▁인장 464
▁전자의 464
▁차종에 464
▁태어나 464
▁평택 464
간을 464
반의 464
조치를 464
▁경험할 463
▁기분이 463
▁끓 463
▁당신 463
▁돋보 463
▁마케팅을 463
▁붐 463
▁성장하고 463
▁아이콘 463
▁영남 463
▁유형의 463
▁자본시장 463
▁적다 463
▁전사 463
▁태어난 463
▁파리 463
DS 462
▁구체 462
▁그런가 462
▁그럼 462
▁디자이너 462
▁리듬 462
▁부산시 462
▁생체 462
▁업체를 462
▁여성은 462
▁연이어 462
▁위주의 462
▁접촉한 462
▁진실을 462
▁첨 462
▁펼치는 462
▁학교생활 462
▁한달 462
닷컴 462
듬 462
웠던 462
타이어 462
협약 462
▁격차가 461
▁노하우를 461
▁대응이 461
▁메가 461
▁배부 461
▁보이지만 461
▁서북 461
▁수준에서 461
▁스피 461
▁워크 461
▁적용이 461
▁집중할 461
▁차원 461
▁측면이 461
▁평생교육 461
▁활용하고 461
기아차 461
껏 461
다이 461
대인 461
램프 461
오스 461
op 460
us 460
▁6000 460
▁감사를 460
▁게임의 460
▁관리하고 460
▁구성되는 460
▁그림을 460
▁높이가 460
▁다이오드 460
▁답을 460
▁무거운 460
▁법령 460
▁변조 460
▁생태계를 460
▁소요되는 460
▁실질 460
▁예수 460
▁이동통신단말 460
▁접근할 460
▁지그 460
▁지문 460
▁최첨단 460
▁추정되는 460
▁캐릭터가 460
▁투기 460
▁티브이 460
▁표현을 460
▁희망퇴직 460
뉴스 460
밴 460
소프트 460
전선 460
쿼 460
▁d 459
▁관객을 459
▁구조는 459
▁균형을 459
▁기증 459
▁단락 459
▁봐도 459
▁사라지고 459
▁사측은 459
▁소비자를 459
▁수출이 459
▁시기가 459
▁일시적으로 459
▁자구 459
▁적절 459
▁추모 459
▁출연을 459
구매 459
당과 459
일리 459
홀에서 459
.” 458
▁7000 458
▁감소로 458
▁꾸며 458
▁내용과 458
▁넘겨 458
▁매출액 458
▁양육 458
▁업무가 458
▁열애 458
▁오해 458
▁원인은 458
▁있는지를 458
▁작용할 458
▁주장하고 458
▁콘텐츠의 458
▁팽 458
▁활발히 458
였다고 458
였으나 458
자에게는 458
콤 458
84 457
▁XC 457
▁가능해진다 457
▁가상현실 457
▁규격 457
▁금융시장 457
▁대의 457
▁더구나 457
▁모양을 457
▁부사장은 457
▁브라운 457
▁실질적으로 457
▁알파 457
▁왼 457
▁이어지면서 457
▁일본이 457
▁작게 457
▁전망도 457
▁파는 457
▁펼쳐진다 457
▁플래 457
규가 457
방전 457
밴드 457
뱅킹 457
통계 457
퓨 457
활용 457
IB 456
lo 456
▁공급되는 456
▁뭉 456
▁상처를 456
▁세로 456
▁압력을 456
▁오가는 456
▁올리 456
▁전문가들의 456
▁절약 456
▁주연 456
▁클래 456
▁탑재해 456
공장은 456
▁LS 455
▁개그맨 455
▁구글이 455
▁단단 455
▁면모를 455
▁밀접한 455
▁사측 455
▁살피 455
▁영업을 455
▁영입 455
▁인용 455
경과 455
넘 455
막에 455
속을 455
저축 455
정비 455
천에 455
▁110 454
▁79 454
▁PCB 454
▁결합된 454
▁구현하는 454
▁단지가 454
▁대두 454
▁도서관 454
▁수반 454
▁어쩔 454
▁여기에는 454
▁예측할 454
▁용량이 454
▁울릉 454
▁중앙에 454
▁코란도 454
▁파티클 454
년생 454
님을 454
다른 454
대회를 454
수입 454
운송 454
전류를 454
친구 454
한이 454
36 453
CP 453
▁61 453
▁감독과 453
▁노선 453
▁농경지가 453
▁뷰 453
▁시동을 453
▁지지를 453
▁찾아볼 453
▁티비 453
가스를 453
끝 453
사실 453
포트 453
▁ETF 452
▁가능성에 452
▁가설 452
▁그랜드 452
▁동영상을 452
▁되었 452
▁많았고 452
▁뻔 452
▁서면 452
▁선사할 452
▁선포 452
▁실효 452
▁연상 452
▁예상치 452
▁작품은 452
▁재판에 452
▁정신을 452
▁충격에 452
▁행태 452
기보다는 452
디가 452
손실 452
수소 452
▁77 451
▁귀국 451
▁급속히 451
▁대치 451
▁로맨스 451
▁마련하고 451
▁비만 451
▁수목 451
▁순매수 451
▁시야 451
▁자체의 451
▁주최 451
▁활동의 451
병이 451
에게서 451
회로의 451
MI 450
▁갱신 450
▁그렇다 450
▁높지 450
▁단계로 450
▁도움 450
▁디자인은 450
▁무단 450
▁부회장 450
▁아무것도 450
▁업체와 450
▁열이 450
▁유저 450
▁종로구 450
▁죽음을 450
▁지원과 450
▁직격탄을 450
▁차트 450
▁처방 450
▁킹 450
▁팀이 450
▁파동 450
▁환급 450
갤럭시 450
과정을 450
달라 450
야말로 450
을지 450
ack 449
▁CPU 449
▁각국 449
▁겨 449
▁기온이 449
▁길고 449
▁끝나는 449
▁남겼다 449
▁새해 449
▁식사를 449
▁여력이 449
▁역대급 449
▁유지하면서 449
▁작품에 449
▁저온 449
▁적용하여 449
▁점거 449
▁조세 449
▁조치로 449
▁즐겨 449
▁참여가 449
▁튀 449
▁특화 449
▁패드 449
▁플로 449
▁환영 449
▁회로의 449
개는 449
긋 449
셉 449
식에는 449
아트 449
주도 449
터널 449
▁가리 448
▁걱정이 448
▁모터를 448
▁비중 448
▁사이로 448
▁이외의 448
▁자녀들이 448
▁최소화하기 448
마을이 448
38 447
▁1996 447
▁데이터베이스 447
▁박진 447
▁방사선 447
▁살던 447
▁소지 447
▁유관 447
▁유럽에서 447
▁유익한 447
▁적절하게 447
▁조기에 447
▁중요하게 447
▁진행한다고 447
▁투자할 447
▁형제 447
▁혹시 447
곳의 447
님은 447
재난 447
쾌 447
▁140 446
▁고효율 446
▁대표이사 446
▁따뜻 446
▁보험금 446
▁비교할 446
▁사태에 446
▁연임 446
▁이익이 446
▁인디 446
▁점수를 446
▁직원들에게 446
▁치료에 446
▁화합 446
▁휘발유 446
기관에 446
렐 446
보험은 446
준은 446
▁경험과 445
▁계절에 445
▁고민을 445
▁공인 445
▁남한 445
▁둘러싸여 445
▁드러난 445
▁면적을 445
▁바꾼 445
▁보상을 445
▁불균 445
▁사흘 445
▁수상한 445
▁시키 445
▁역설 445
▁원형 445
▁전설이 445
▁제안한 445
▁짙은 445
▁해석이 445
샷 445
주민 445
퉁 445
∼9 444
▁72 444
▁공조 444
▁관계로 444
▁관하여 444
▁구조조정이 444
▁낚시 444
▁넷마블 444
▁닛산은 444
▁무엇 444
▁벌이는 444
▁보고서는 444
▁부러 444
▁시청자들에게 444
▁아랫 444
▁월평균 444
▁자사의 444
▁지역에서는 444
▁커진다 444
▁컨버 444
▁태국 444
돌봄 444
분쯤 444
우기 444
집에 444
해지 444
협회는 444
▁강성 443
▁고객들의 443
▁기조 443
▁넣고 443
▁생각하면 443
▁수업이 443
▁어렵 443
▁얼굴이 443
▁운영되고 443
▁이별 443
▁이해가 443
▁익숙한 443
▁인턴 443
▁칭 443
▁컷 443
▁티켓 443
고용노동 443
공이 443
기본 443
르며 443
링크 443
버튼 443
소득이 443
속에서 443
잇 443
자료를 443
지다 443
ell 442
→ 442
▁1950 442
▁고전압 442
▁공산 442
▁되찾 442
▁물체 442
▁밝혔 442
▁변하는 442
▁보내주 442
▁사람들과 442
▁사로잡는다 442
▁서울시교육청 442
▁서울시는 442
▁섬세한 442
▁시청자 442
▁어우러져 442
▁외부에 442
▁우편 442
▁이듬해 442
▁정통 442
▁조정을 442
▁지수가 442
▁커넥 442
▁투싼 442
▁파일 442
▁패턴의 442
▁하나금융 442
▁한강 442
▁한양 442
▁현저히 442
냅 442
and 441
▁가사 441
▁기록하고 441
▁기장 441
▁동쪽에는 441
▁맞추어 441
▁맥락 441
▁받으면서 441
▁수분 441
▁역학 441
▁쟁의 441
▁전보다 441
▁차의 441
▁추억을 441
▁평판 441
산리 441
숲 441
스런 441
적이지 441
절연 441
출력 441
하시는 441
▁2.5 440
▁거기에 440
▁과다 440
▁극의 440
▁꽃이 440
▁낯선 440
▁다임러 440
▁마리 440
▁미래차 440
▁부분의 440
▁얘기를 440
▁자연스러운 440
▁정보에 440
▁청와 440
▁체계적인 440
▁표시하는 440
▁프린 440
▁향상시킨 440
▁형성된다 440
▁환경의 440
골이 440
베이 440
위인 440
지나 440
카드가 440
▁구비하여 439
▁마이크 439
▁명령을 439
▁발생이 439
▁밝히 439
▁부문의 439
▁부착된 439
▁불안정 439
▁사랑이 439
▁생각에 439
▁쌓여 439
▁알림 439
▁이룰 439
▁이보다 439
▁입금 439
▁작품의 439
▁접근이 439
▁제작진은 439
▁짓는 439
▁촉발 439
▁투입해 439
▁판단하고 439
▁현대차그룹은 439
▁호응을 439
견이 439
만원에서 439
상품을 439
시기를 439
이거나 439
창을 439
회사인 439
PG 438
ir 438
▁고시 438
▁과도하게 438
▁구할 438
▁날씨 438
▁무대가 438
▁발견했다 438
▁발언을 438
▁생산에 438
▁숨어 438
▁시행한 438
▁실력 438
▁암컷 438
▁연구소 438
▁자국 438
▁전국에서 438
▁참가를 438
▁최선의 438
▁패키지를 438
▁포즈를 438
▁해결을 438
▁화학적 438
미한 438
벳 438
보로 438
요금 438
자고 438
장기 438
측은 438
▁걸고 437
▁결성 437
▁과거에는 437
▁관절 437
▁교사가 437
▁깨끗 437
▁변동이 437
▁보호할 437
▁사망자 437
▁성공적인 437
▁심층 437
▁아이들 437
▁염두에 437
▁영웅 437
▁음성으로 437
▁인수합병 437
▁전시장 437
▁조언했다 437
▁지역이다 437
▁판단할 437
▁현실적으로 437
말이 437
서에서 437
슴 437
▁간이 436
▁강조하는 436
▁경상남도 436
▁고민이 436
▁근처 436
▁남원 436
▁노동자는 436
▁독감 436
▁따져 436
▁마을에서 436
▁민감 436
▁부사장 436
▁사각지대에 436
▁스태프 436
▁연구진은 436
▁조건에 436
▁한일 436
개소 436
란을 436
▁감동 435
▁강화된 435
▁경증 435
▁기간은 435
▁러브 435
▁뱀 435
▁산업은 435
▁서쪽에는 435
▁설립된 435
▁수컷 435
▁시너지 435
▁시너지를 435
▁신탁 435
▁실습 435
▁의식을 435
▁재편 435
▁줌 435
▁찰 435
▁체제 435
▁친구가 435
▁푸조 435
▁픽업트럭 435
▁허브 435
▁홀더 435
▁회장을 435
신종 435
위원장은 435
학회 435
혁이 435
▁78 434
▁CT 434
▁강수 434
▁개선하고 434
▁김경 434
▁김승 434
▁노사정 434
▁매출을 434
▁사건은 434
▁삶이 434
▁상태의 434
▁세련된 434
▁신속하고 434
▁안성 434
▁유용 434
▁일어났 434
▁잡지 434
▁제공한 434
▁중국과 434
▁충격이 434
▁행사에는 434
▁헬스케어 434
▁확인이 434
▁획기적으로 434
대리 434
뮤직 434
분리 434
지주 434
▁권유 433
▁귀여운 433
▁낮추는 433
▁도입해 433
▁록 433
▁멘 433
▁실제로는 433
▁영화에 433
▁조율 433
▁탈출 433
▁파급 433
▁편리하다 433
나눔 433
려야 433
머리 433
방에서 433
빈의 433
살을 433
자동차는 433
케어 433
od 432
▁공격적인 432
▁구축하는 432
▁근로자와 432
▁물고 432
▁불과했다 432
▁장거리 432
▁전하 432
▁중소기업이 432
▁타이밍 432
▁표현의 432
그램 432
물질의 432
장치와 432
중한 432
▁개념은 431
▁경사가 431
▁구로구 431
▁나타내 431
▁네이 431
▁됐다고 431
▁문자를 431
▁미디어를 431
▁미디어의 431
▁보고서 431
▁본부 431
▁분야가 431
▁사물 431
▁세월 431
▁일하고 431
▁절차에 431
▁프로세스 431
▁협박 431
▁호기 431
▁흐름에 431
꿈 431
뜸 431
류와 431
선택 431
슈퍼 431
일반 431
천만 431
OC 430
▁게이 430
▁구성이 430
▁규정에 430
▁근로계약 430
▁금융상품 430
▁드리오니 430
▁리얼 430
▁볼트 430
▁불확실 430
▁소스 430
▁숫자 430
▁아르 430
▁연차 430
▁인상과 430
▁인성 430
▁일본은 430
▁일선 430
▁장기적으로 430
▁제시하고 430
▁주당 430
▁차에 430
▁크레 430
▁파라 430
▁훔 430
변에 430
사건 430
시하는 430
적의 430
티를 430
파워 430
하였을 430
▁귀를 429
▁내용으로 429
▁넷플릭 429
▁노출된 429
▁마쳤다 429
▁안의 429
▁와이 429
▁의료진이 429
▁이론을 429
▁이외 429
▁제한된 429
▁주류 429
▁청정 429
▁흥미로운 429
기업인 429
및 429
버린 429
자리를 429
작업을 429
제약 429
졌습니다 429
형성 429
▁고마 428
▁너머 428
▁동월 428
▁마찬가지 428
▁방지한다 428
▁삼성전자와 428
▁연구팀이 428
▁자랑한다 428
▁정당한 428
▁조성된 428
▁주가는 428
▁지은 428
▁집중된다 428
▁짧아 428
▁타깃 428
▁필요에 428
▁흰색 428
비한 428
사회의 428
약한 428
오지 428
철은 428
EM 427
▁SA 427
▁괜찮 427
▁구조조정에 427
▁기능도 427
▁끼워 427
▁말하며 427
▁사안 427
▁생애 427
▁선정한 427
▁알려주는 427
▁인원이 427
▁자존 427
▁잡는 427
▁제기되고 427
▁조직이 427
▁직원들은 427
▁춤 427
▁판단에 427
▁폭풍 427
상승 427
어버 427
장인 427
전극을 427
투쟁 427
)· 426
▁구성하여 426
▁대행 426
▁몫 426
▁문화의 426
▁물의 426
▁미소 426
▁부사장이 426
▁비평 426
▁성질 426
▁슬픔 426
▁안드로이드 426
▁앞에는 426
▁예방할 426
▁위대한 426
▁자택 426
▁정도에 426
▁정합 426
냐는 426
드리오니 426
발표 426
본부가 426
사랑의 426
실장 426
이션 426
하기에는 426
호인 426
▁0.1 425
▁교섭을 425
▁끝으로 425
▁내몰 425
▁부추 425
▁사례도 425
▁사회안전망 425
▁속도는 425
▁아닌가 425
▁업체들의 425
▁예상보다 425
▁예상하고 425
▁외모 425
▁요구한 425
▁의사소통 425
▁이통 425
▁진행해 425
▁하드 425
굿 425
몸 425
보았다 425
젓 425
7, 424
▁것인가 424
▁다행히 424
▁당신의 424
▁방송이 424
▁볼륨 424
▁비용으로 424
▁세분 424
▁시원한 424
▁시일 424
▁안양 424
▁않거나 424
▁앤이 424
▁움 424
▁전환이 424
▁정체성을 424
▁지급할 424
▁촉구 424
▁튜브 424
계열 424
듀 424
운다 424
회사를 424
ov 423
▁0.2 423
▁경향을 423
▁구는 423
▁권선 423
▁긍정 423
▁나타 423
▁논란에 423
▁당첨 423
▁메르스 423
▁바람직한 423
▁산성 423
▁선별진료 423
▁시원 423
▁위장 423
▁인수한 423
▁자라는 423
▁전면에 423
▁전지용 423
▁점유율을 423
▁제조사 423
▁집회를 423
▁참고하여 423
▁플러그인 423
▁해당된다 423
▁확보해 423
기까지 423
소자에 423
시다 423
윗 423
▁검찰에 422
▁공정에서 422
▁근거를 422
▁나타나지 422
▁당시에는 422
▁대체할 422
▁벌써 422
▁법원은 422
▁빅데이터를 422
▁서지 422
▁숨졌다 422
▁암호 422
▁앨 422
▁어머니는 422
▁예능프로그램 422
▁의견도 422
▁있었으며 422
▁전속 422
▁전자식 422
▁점심 422
▁증가하면서 422
계에서는 422
광을 422
뱅 422
진흥원 422
측으로 422
측의 422
환경이 422
▁강화에 421
▁공개될 421
▁기관은 421
▁나쁘 421
▁단점이 421
▁땅을 421
▁똑같이 421
▁말하고 421
▁무릎 421
▁성숙 421
▁소년 421
▁수행하고 421
▁앓 421
▁영역이 421
▁위치하며 421
▁이어갔다 421
▁이재갑 421
▁잇따 421
▁제품과 421
▁조정할 421
▁중요성이 421
▁지침을 421
▁질을 421
▁짐작 421
▁취지다 421
▁학문 421
▁핵심이다 421
싼 421
해주고 421
49 420
9000 420
▁"1 420
▁건전한 420
▁관객들의 420
▁깊게 420
▁되어야 420
▁딥러닝 420
▁메시지가 420
▁문제와 420
▁받았던 420
▁서울특별시 420
▁소성 420
▁숲이 420
▁예로 420
▁이은 420
▁적자를 420
▁전년보다 420
▁증가가 420
▁판매된 420
▁포맷 420
▁프레 420
▁홈페이지에 420
국인 420
당에서 420
배에 420
아동 420
요한 420
퇴직 420
현실 420
현장에서 420
▁가맹점 419
▁구조적 419
▁김씨는 419
▁대학의 419
▁라임자산운용 419
▁막고 419
▁부지 419
▁서울에서 419
▁선점 419
▁실현할 419
▁오름 419
▁이겨 419
▁일할 419
▁작품이다 419
▁줄기 419
▁증가를 419
▁카카오뱅크 419
▁하루에 419
▁호남 419
꽃이 419
만명의 419
미로 419
비용이 419
스팅 419
억원에서 419
하는지 419
4, 418
▁350 418
▁가지로 418
▁골짜 418
▁극심한 418
▁끼고 418
▁났 418
▁따르는 418
▁멤버들의 418
▁변화의 418
▁부회장은 418
▁분위기다 418
▁사라졌다 418
▁사용에 418
▁살펴볼 418
▁설문조사 418
▁소비가 418
▁스마트시티 418
▁쏟 418
▁어려웠다 418
▁오류가 418
▁인간을 418
▁자갈 418
▁자동변속 418
▁작품으로 418
▁직원은 418
▁카본 418
▁트래 418
라인을 418
부처 418
섰 418
아와 418
하였다고 418
▁1·4 417
▁가족을 417
▁기인 417
▁내면 417
▁단말기에서 417
▁더한다 417
▁발표할 417
▁상황과 417
▁소아 417
▁소자에 417
▁암석 417
▁얻게 417
▁외관 417
▁우량 417
▁자동적으로 417
▁질소 417
▁초고속 417
▁피고 417
▁협업을 417
▁확인하기 417
▁희망하시는 417
데도 417
두는 417
렸을 417
매체 417
수한 417
숭 417
없다 417
연에 417
찮 417
투자가 417
33 416
ur 416
▁결렬 416
▁규칙을 416
▁되길 416
▁두뇌 416
▁땀 416
▁면허 416
▁모두에게 416
▁역사가 416
▁연소 416
▁임의로 416
▁있었을 416
▁전동화 416
▁증가해 416
▁직관 416
▁패러 416
▁포트폴리오 416
▁합산 416
▁호전 416
라이브 416
연장 416
키를 416
티가 416
.”" 415
ED 415
IF 415
im 415
▁160 415
▁Si 415
▁긍정적으로 415
▁기법을 415
▁년간 415
▁노총 415
▁됐다는 415
▁드림 415
▁많아서 415
▁배를 415
▁벌였다 415
▁보람 415
▁부분이다 415
▁빠졌다 415
▁선언했다 415
▁소통을 415
▁안타깝 415
▁여전 415
▁우회 415
▁이후로 415
▁잡을 415
▁재택근무 415
▁중에서는 415
▁쫓 415
▁흔적이 415
보의 415
조사에 415
측정 415
행위를 415
▁급성 414
▁노동계는 414
▁단순화 414
▁모드를 414
▁배후 414
▁북쪽에는 414
▁불어넣 414
▁비용은 414
▁생기면 414
▁섞 414
▁아닙니다 414
▁알리고 414
▁앤은 414
▁외출 414
▁유가증권 414
▁유적 414
▁집회 414
▁체류 414
▁파악하는 414
▁펀드는 414
▁편지를 414
▁합리적 414
겔 414
답게 414
동물 414
료는 414
리드 414
비트 414
운이 414
전지의 414
지원금을 414
해줄 414
MD 413
z 413
▁곰 413
▁김선 413
▁꿀 413
▁댄스 413
▁써야 413
▁완성도를 413
▁우연히 413
▁읽는 413
▁전기적으로 413
▁정신적 413
▁중요하다고 413
▁탄력 413
▁특이 413
녀가 413
되었는데 413
랙 413
수급 413
용차 413
인지를 413
작용 413
종목 413
▁x 412
▁권력 412
▁김소 412
▁끝나고 412
▁눌러 412
▁대상에서 412
▁독보적인 412
▁메시 412
▁멸 412
▁본사에서 412
▁사법 412
▁산재보험 412
▁소위 412
▁원자핵 412
▁윤종 412
▁일어나지 412
▁잃고 412
▁자금조달 412
▁절벽 412
▁출신의 412
▁표현한 412
▁환경과 412
▁훌쩍 412
국도 412
기준을 412
넌 412
론에 412
변화 412
▁권한을 411
▁노조에 411
▁누군가 411
▁불순 411
▁사업체 411
▁산은 411
▁술을 411
▁신의 411
▁연결하여 411
▁위치가 411
▁전제로 411
▁지정되어 411
▁판매할 411
▁패널을 411
▁후배 411
기존 411
여부를 411
용의 411
있게 411
펙 411
평균 411
험 411
▁갯 410
▁경신 410
▁구직급여 410
▁득 410
▁못하도록 410
▁박차를 410
▁발달되어 410
▁방향에 410
▁설치한 410
▁설치할 410
▁수당 410
▁시기는 410
▁안정성이 410
▁암호화 410
▁어쩌면 410
▁여건 410
▁장이 410
▁적용하고 410
▁찾아가는 410
▁촌 410
▁촬상 410
▁특별연장근로 410
▁핵심은 410
▁활용이 410
가능한 410
쏘 410
업체들이 410
유통 410
전으로 410
타입 410
항이 410
art 409
▁강행 409
▁근로감독 409
▁금융감독원 409
▁기체 409
▁미생 409
▁미쳤다 409
▁바람을 409
▁법원이 409
▁병렬 409
▁부유 409
▁야구 409
▁이해관계 409
▁일과 409
▁접어들 409
▁제외하고는 409
▁종속 409
▁주행이 409
▁체온 409
▁하류 409
공장을 409
데이터를 409
맘 409
컷 409
(5 408
= 408
ity 408
▁간격을 408
▁강화해 408
▁개발자 408
▁구성으로 408
▁냄새 408
▁메커니즘 408
▁붙잡 408
▁씨의 408
▁역사상 408
▁제작하는 408
▁주도하는 408
▁준비가 408
▁지정한 408
▁지혜 408
▁진술 408
▁차례로 408
▁채팅 408
▁척추 408
▁컸 408
기술이 408
뮤 408
했었다 408
48 407
▁고혈압 407
▁교내 407
▁나서야 407
▁다리를 407
▁단어 407
▁됐고 407
▁미스터 407
▁바뀌었다 407
▁배울 407
▁부합 407
▁쉼 407
▁신경을 407
▁악용 407
▁형성되었다 407
▁회생 407
라면서 407
문화를 407
컵 407
▁같다고 406
▁관행 406
▁내놓았다 406
▁늘리 406
▁받아들이 406
▁세상의 406
▁시점에서 406
▁신세계 406
▁아끼지 406
▁우위를 406
▁유도하는 406
▁이끌고 406
▁재활 406
▁전도성 406
▁제출해주시기 406
▁진실 406
▁체결했다고 406
▁칩을 406
▁트위터 406
대구 406
로만 406
모터쇼에서 406
방과 406
방출 406
사업의 406
수업을 406
품질 406
학은 406
▁가지를 405
▁그들 405
▁기반이 405
▁기소 405
▁늦게 405
▁다음에 405
▁달에 405
▁메탈 405
▁상주 405
▁석회 405
▁식이다 405
▁어디에 405
▁완벽 405
▁우려했다 405
▁이마트 405
▁이슬람 405
▁자극한다 405
▁전류의 405
▁집값이 405
▁집이 405
▁차단하는 405
▁판단이다 405
▁펀드를 405
간다는 405
라이프 405
림은 405
센터와 405
수출 405
신호가 405
여름 405
웨 405
키는 405
타는 405
TE 404
▁결합해 404
▁공장은 404
▁그릇 404
▁기획재정부 404
▁넷째 404
▁리어 404
▁마이크로소프트 404
▁무급 404
▁상당수 404
▁상을 404
▁선제적으로 404
▁설정된 404
▁시행된 404
▁안방극장을 404
▁알기 404
▁용산 404
▁잦은 404
▁전환하는 404
▁정보보호 404
▁제공을 404
▁제작에 404
▁조화 404
▁편하게 404
▁하나씩 404
▁한진 404
기인 404
니를 404
믹 404
보며 404
비전 404
카가 404
▁95 403
▁개선하기 403
▁누구도 403
▁된다면 403
▁며느 403
▁벌어졌다 403
▁살해 403
▁생산된 403
▁소극 403
▁쇄 403
▁아니냐 403
▁예방접종을 403
▁오너 403
▁오디션 403
▁이후의 403
▁일대에 403
▁정동 403
▁제조된 403
▁체포 403
▁포인트를 403
▁협력사 403
구조가 403
기자 403
네트웍 403
이어야 403
인구 403
정부의 403
트랙 403
ct 402
▁강조한다 402
▁고의 402
▁공고 402
▁구릉성 402
▁금액은 402
▁급여를 402
▁나누고 402
▁만들어야 402
▁민감한 402
▁사례로 402
▁선생님께 402
▁수습 402
▁시민단체 402
▁아나운서 402
▁인수를 402
▁작성한 402
▁장소로 402
▁점화 402
▁정원 402
▁지명 402
▁필리핀 402
▁한동안 402
▁회로기판 402
과학기술 402
늘 402
위치 402
처리를 402
카드를 402
▁가늠 401
▁급속 401
▁당국의 401
▁반대하는 401
▁불공정 401
▁비닐 401
▁성장에 401
▁소프트웨어를 401
▁연말까지 401
▁용도로 401
▁운명 401
▁장치와 401
▁적용돼 401
▁제한하는 401
▁조용 401
▁천재 401
▁청송 401
▁품고 401
▁허락 401
문학 401
봉을 401
설비 401
파트너 401
▁가격으로 400
▁계획이라고 400
▁공유할 400
▁나오면 400
▁답답 400
▁당연한 400
▁동화 400
▁르노삼성차 400
▁무상으로 400
▁발달한 400
▁분석하는 400
▁선택하여 400
▁설계를 400
▁아름다 400
▁임직 400
▁잇달아 400
▁있어서의 400
▁조성을 400
▁중간에 400
▁천천히 400
▁태블릿 400
▁퍼포먼 400
▁포지 400
▁플립 400
▁하천의 400
▁학기 400
되더라도 400
스러워 400
운동을 400
포가 400
1' 399
97 399
▁88 399
▁CES 399
▁ILO 399
▁In 399
▁감소할 399
▁개소 399
▁고용유지지원금 399
▁과장 399
▁구역 399
▁기다리는 399
▁기록이 399
▁데이터에 399
▁모르고 399
▁문화재 399
▁물가 399
▁바디 399
▁발령 399
▁성장한 399
▁성폭력 399
▁세상이 399
▁시스템이다 399
▁어레이 399
▁오빠 399
▁이루어졌다 399
▁이사장은 399
▁인정하고 399
▁장애가 399
▁판단해 399
▁현실화 399
▁후손 399
▁흘러내 399
니의 399
라스 399
미국 399
바퀴 399
발광 399
예산 399
하우 399
향에 399
▁62 398
▁가입이 398
▁감당 398
▁계급 398
▁계획은 398
▁관계는 398
▁교정 398
▁꼴 398
▁론칭 398
▁무효 398
▁발생하여 398
▁보여줬다 398
▁빈번 398
▁시장으로 398
▁아버지의 398
▁어렵다고 398
▁요건 398
▁인정하는 398
▁일고 398
▁처리가 398
물이다 398
영과 398
▁근본적으로 397
▁렉서 397
▁만족감을 397
▁물은 397
▁삽 397
▁설명하고 397
▁소비자는 397
▁않자 397
▁운전석 397
▁작가의 397
▁조치다 397
▁주파수를 397
▁펄스 397
▁피드백 397
▁행복을 397
▁현장이 397
▁활용되고 397
로이 397
백을 397
최저임금 397
카드는 397
행동 397
호텔에서 397
66 396
?' 396
CM 396
Hz 396
he 396
▁CB 396
▁강연 396
▁구체적 396
▁기념해 396
▁몸의 396
▁본체 396
▁부장 396
▁부평 396
▁살펴보고 396
▁예방에 396
▁일대의 396
▁지켜야 396
▁최저임금이 396
▁캠프 396
▁펭 396
▁향상시켜 396
▁화순 396
란드 396
받기 396
아서 396
요소 396
턱 396
해고 396
▁곡으로 395
▁도모할 395
▁되었다고 395
▁매뉴얼 395
▁박나래 395
▁방송통신 395
▁법무부 395
▁보호하고 395
▁산란 395
▁이동이 395
▁인포테인먼트 395
▁일상을 395
▁진안 395
▁토요일 395
▁합법 395
▁활동은 395
감시 395
낮 395
년여 395
렌터카 395
릇 395
문으로 395
사이드 395
설명 395
셔야 395
자와의 395
침을 395
해외 395
환자가 395
▁'5 394
▁겨울방학 394
▁그곳 394
▁극중 394
▁기가 394
▁달성할 394
▁딸이 394
▁모순 394
▁무의 394
▁법무 394
▁분포한다 394
▁살아가 394
▁서비스도 394
▁스케줄 394
▁씽큐 394
▁억울 394
▁이상한 394
▁족 394
▁중대한 394
▁중저가 394
▁짚 394
▁차종은 394
▁특허를 394
▁포착됐다 394
꼴 394
망과 394
블록 394
위원은 394
처벌 394
OD 393
RP 393
TA 393
▁CGV 393
▁가계대출 393
▁거다 393
▁곳곳 393
▁공백 393
▁교직 393
▁구축할 393
▁기금 393
▁대표와 393
▁뜻으로 393
▁방문객 393
▁벤츠는 393
▁선보여 393
▁성장세를 393
▁수단이 393
▁스마트폰으로 393
▁시간당 393
▁안에는 393
▁장소에서 393
▁콘셉트 393
▁통과하는 393
▁활약을 393
▁회신 393
는가 393
되었으나 393
들에서 393
보유 393
복이 393
센터의 393
스럽다 393
아직 393
종에 393
학부모 393
▁개인정보보호 392
▁결혼을 392
▁그려져 392
▁급증하고 392
▁노동계의 392
▁노즐 392
▁브랜드로 392
▁비극 392
▁상쇄 392
▁생략 392
▁서명 392
▁실업자 392
▁안겼다 392
▁애초 392
▁양상을 392
▁의성 392
▁이식 392
▁잊지 392
▁자리가 392
▁전자부품 392
▁조정이 392
▁조직의 392
▁종합적으로 392
▁콤 392
▁키우고 392
▁토로했다 392
▁표현이 392
단에서 392
띠 392
민과 392
업계에 392
였습니다 392
지막 392
취업 392
판과 392
▁'2018 391
▁교직원 391
▁구축해 391
▁김진 391
▁넓고 391
▁노조원 391
▁대세 391
▁동향 391
▁물체의 391
▁바람직하다 391
▁열려 391
▁예전에는 391
▁외곽 391
▁용의 391
▁일방적으로 391
▁자라고 391
▁주시 391
▁중국인 391
▁치고 391
▁털어놨다 391
▁판단한 391
▁표면을 391
▁합리 391
높 391
르트 391
보지 391
역학 391
연수 391
우지 391
입력 391
전용 391
창업 391
통제 391
ss 390
▁8000 390
▁87 390
▁거리두 390
▁기각 390
▁기다려 390
▁떨어진다 390
▁목표는 390
▁무더 390
▁믿을 390
▁버티 390
▁상급 390
▁상품으로 390
▁슬라이드 390
▁시행할 390
▁양방향 390
▁음식점 390
▁일어난다 390
▁작용을 390
▁점유 390
▁제목 390
▁지속되고 390
▁화장실 390
▁화폐 390
▁활동하는 390
감사 390
계곡 390
기기의 390
로그 390
로드 390
변경 390
시마 390
증명 390
팜 390
휴가를 390
19) 389
II 389
▁가지며 389
▁게임에 389
▁기쁨 389
▁다이어 389
▁대응에 389
▁돕 389
▁미안 389
▁발표하고 389
▁부족해 389
▁세트 389
▁소개한다 389
▁소장 389
▁심의를 389
▁안정적 389
▁오면 389
▁위치한다 389
▁일반인 389
▁정상화 389
▁줄줄이 389
▁지역경제 389
▁출시가 389
▁특집 389
▁퍼포먼스 389
▁회사에서 389
▁휴대폰의 389
게도 389
마리 389
스트로 389
에프 389
중소기업 389
특히 389
FC 388
▁BNK 388
▁계기판 388
▁광고에 388
▁넓혀 388
▁늘어난다 388
▁대항 388
▁데이터는 388
▁뒤에는 388
▁들지 388
▁손가락 388
▁싶다는 388
▁여파 388
▁연결해 388
▁연수를 388
▁유한 388
▁인프라를 388
▁일으켜 388
▁차질 388
▁키폰 388
▁편의점 388
▁향상시키기 388
감의 388
닥터 388
듐 388
비아 388
시설이 388
영을 388
우리가 388
의사 388
이든 388
정상 388
중을 388
지수가 388
쾌한 388
MO 387
▁곤충 387
▁곳의 387
▁공기를 387
▁규명 387
▁근본 387
▁나지 387
▁노사관계 387
▁드러낸다 387
▁뜻하는 387
▁만났다 387
▁문제도 387
▁밀도가 387
▁발간 387
▁배제할 387
▁보냈 387
▁보조금을 387
▁사건에 387
▁선사한다 387
▁성장과 387
▁스테 387
▁않았기 387
▁일체로 387
▁자신과 387
▁접촉을 387
▁체결한 387
▁패널에 387
▁학부모회 387
냥 387
블랙 387
빌딩 387
▁거리두기 386
▁고가의 386
▁국한 386
▁국회에 386
▁극복하기 386
▁기점으로 386
▁내년에 386
▁다듬 386
▁동아 386
▁두려워 386
▁르노삼성자동차가 386
▁방문하여 386
▁법제 386
▁부여하는 386
▁삶에 386
▁센서가 386
▁소중 386
▁신천 386
▁운전자에게 386
▁자연의 386
▁접촉자 386
▁정성 386
▁텔레 386
▁형성되고 386
가정 386
들인 386
리자 386
병원에 386
수술 386
스키 386
증은 386
▁ID 385
▁가파른 385
▁눈빛 385
▁마모 385
▁많은데 385
▁살기 385
▁속한다 385
▁순수한 385
▁여부는 385
▁온실 385
▁인류의 385
▁자발적 385
▁장면은 385
▁제한이 385
▁차량으로 385
▁차질을 385
▁페스티벌 385
▁확대와 385
커가 385
▁0.5 384
▁각별한 384
▁교차로 384
▁높아지면서 384
▁단절 384
▁도망 384
▁모를 384
▁모아진다 384
▁방향이 384
▁배분 384
▁사정 384
▁설렘 384
▁아들을 384
▁악영향을 384
▁앞을 384
▁언론의 384
▁연속적으로 384
▁육박 384
▁의거 384
▁이하인 384
▁있느냐 384
▁줬다 384
▁폭넓은 384
▁행동이 384
▁현대자동차가 384
군으로 384
년만에 384
락에 384
우를 384
원장 384
월이 384
이야 384
이프 384
일보 384
투표 384
풍을 384
▁4,000 383
▁9, 383
▁OCN 383
▁가뭄 383
▁가압 383
▁굵 383
▁그해 383
▁나라를 383
▁나무가 383
▁네트워크의 383
▁되기도 383
▁물과 383
▁미만의 383
▁스쿨 383
▁스텝 383
▁스포티 383
▁않더라도 383
▁없었 383
▁없었고 383
▁여기에서 383
▁예쁜 383
▁움직일 383
▁임기 383
▁체험학습 383
▁콰트로 383
▁튼튼 383
▁파고 383
거리에서 383
기관과 383
레이드 383
인권 383
인터 383
파일 383
판은 383
EA 382
▁가급적 382
▁간격으로 382
▁강의를 382
▁강하다 382
▁관계자들이 382
▁단계적으로 382
▁둥 382
▁들어선 382
▁뛰어넘 382
▁배우고 382
▁살짝 382
▁셔 382
▁아직은 382
▁얼어붙 382
▁연다 382
▁열릴 382
▁영향은 382
▁운전자는 382
▁이어서 382
▁인구의 382
▁자리한 382
▁참관 382
▁펀드의 382
▁한국은행이 382
▁한미 382
▁해수욕 382
아웃 382
압을 382
전문가 382
쪽의 382
타를 382
템 382
퍼센 382
de 381
▁가족돌봄 381
▁것들을 381
▁고양이 381
▁날개 381
▁다르지 381
▁다름이 381
▁덜어 381
▁명에 381
▁벤츠의 381
▁빌린 381
▁사무실 381
▁산다 381
▁소식에 381
▁순식간에 381
▁올림픽 381
▁이루어지지 381
▁일어났다 381
▁전자는 381
▁중소형 381
▁지질 381
▁짙 381
▁특성과 381
▁파란 381
▁패키지의 381
▁현장체험학습을 381
렸지만 381
시키면서 381
엇 381
오를 381
전동 381
주일 381
킴 381
▁간척 380
▁국회의원 380
▁그녀 380
▁대대적인 380
▁델 380
▁들어가면 380
▁목소리도 380
▁백악 380
▁부르게 380
▁아이들은 380
▁은행권 380
▁일어나고 380
▁치유 380
▁털 380
▁포스트 380
▁하다가 380
▁혼란을 380
▁확대가 380
▁활물질 380
▁흘러나 380
노조가 380
바람 380
속도를 380
언을 380
열에 380
주주 380
탱 380
할수록 380
▁ENM 379
▁가로막 379
▁감소를 379
▁강화한 379
▁객관 379
▁그러니까 379
▁금정 379
▁돌이 379
▁북쪽의 379
▁서킷 379
▁소금 379
▁시동 379
▁압력이 379
▁유지했다 379
▁잠을 379
▁제안을 379
▁제안한다 379
▁존재를 379
▁차종의 379
▁추진해 379
▁투자자의 379
▁포르 379
▁하나하나 379
▁확정했다 379
▁활력을 379
가에서 379
광이 379
리츠 379
성이나 379
임은 379
저수 379
촉진 379
▁넥센타이어 378
▁담당하고 378
▁두는 378
▁르 378
▁무리가 378
▁부진한 378
▁살균 378
▁수차례 378
▁신동 378
▁안정성 378
▁알려지면서 378
▁엄격한 378
▁업무상 378
▁연락이 378
▁오르면 378
▁원활 378
▁의류 378
▁이끈 378
▁이르렀다 378
▁읽을 378
▁주차장 378
▁펌프 378
▁플랫폼으로 378
▁하기도 378
감염병 378
그러나 378
딧 378
모든 378
있고 378
CI 377
▁76 377
▁교육은 377
▁대표의 377
▁디자인의 377
▁디자인이 377
▁맞고 377
▁배경을 377
▁부식 377
▁분야로 377
▁비수 377
▁시상식 377
▁신생 377
▁은행에 377
▁있는가 377
▁조사에서 377
▁참조 377
▁처분을 377
▁커패시 377
▁투쟁을 377
▁파악하기 377
▁팩시밀리 377
▁풀이 377
▁환율이 377
뚝 377
롭다 377
생태 377
유플러스는 377
줌 377
카를 377
화했다 377
FM 376
TM 376
▁게임은 376
▁급증했다 376
▁꽉 376
▁내기 376
▁다짐 376
▁달라진다 376
▁대상자 376
▁말뚝 376
▁모양새다 376
▁밖의 376
▁발행한 376
▁부대 376
▁뷰티 376
▁비교하여 376
▁시위 376
▁시행하는 376
▁안테나의 376
▁애플의 376
▁요소로 376
▁정숙 376
▁주요한 376
▁출시될 376
▁출품 376
▁페라리 376
목적 376
비율이 376
빗 376
사한 376
았기 376
카는 376
텔레콤은 376
튜브 376
학이 376
회사에 376
▁82 375
▁86 375
▁KEB 375
▁그루 375
▁길은 375
▁내일 375
▁돕고 375
▁묻자 375
▁수소전기 375
▁스마트폰의 375
▁알뜰폰 375
▁음주 375
▁전라 375
▁정교 375
▁지나면서 375
▁지름 375
▁횟 375
상황을 375
시켜야 375
왕이 375
튜 375
팀을 375
iv 374
▁내리고 374
▁널 374
▁대신에 374
▁대칭 374
▁동아리 374
▁명칭이 374
▁바뀌는 374
▁바뀔 374
▁받도록 374
▁부피 374
▁서술 374
▁세계로 374
▁소수의 374
▁숙지 374
▁숨겨진 374
▁어플리케이션 374
▁용융 374
▁이가 374
▁일제히 374
▁정하는 374
▁주제를 374
▁중에도 374
▁층간 374
▁컴퓨터가 374
네요 374
돈을 374
시간으로 374
주의를 374
증폭 374
~6 373
▁73 373
▁가창 373
▁갤럭시노트 373
▁겪었다 373
▁계류 373
▁다녀온 373
▁렉스턴 373
▁발휘할 373
▁부분에서 373
▁부족으로 373
▁승리 373
▁알레르기 373
▁의미는 373
▁전화번호를 373
▁좀더 373
▁주변을 373
▁주위에 373
▁중이며 373
▁충당 373
▁테스트를 373
▁특수한 373
▁현실적인 373
▁힘들어 373
되었다는 373
여자 373
자다 373
지니 373
진한 373
피아 373
합을 373
AC 372
▁거둔 372
▁공급하고 372
▁광화문 372
▁내장된 372
▁느껴진다 372
▁늘어났 372
▁라인을 372
▁만들어지는 372
▁모아지고 372
▁비하인드 372
▁셀토 372
▁열전 372
▁온다 372
▁컨셉트카 372
▁태도 372
▁피하기 372
고정 372
교육과 372
너는 372
렌즈 372
암으로 372
월을 372
제일 372
카카오 372
타운 372
판으로 372
▁갭 371
▁것인데 371
▁구조다 371
▁구체적으로는 371
▁날을 371
▁다리가 371
▁많기 371
▁밑에 371
▁브라 371
▁스트레스를 371
▁시작하면서 371
▁시켜 371
▁실시했다 371
▁영암 371
▁원이 371
▁있기를 371
▁자회사인 371
▁줬 371
▁지급을 371
▁토요 371
▁포도 371
남동 371
문과 371
수행 371
스쿨 371
어난 371
작으로 371
적으로도 371
퀸 371
평야 371
46 370
GB 370
IoT 370
▁개인적인 370
▁개장 370
▁골라 370
▁공개하며 370
▁김유 370
▁뛰어들 370
▁맞물려 370
▁발표하는 370
▁생각하지 370
▁선정해 370
▁성장률 370
▁소개하는 370
▁수축 370
▁식약 370
▁심해 370
▁아이들에게 370
▁있기에 370
▁저임금 370
▁전라남도 370
▁주춤 370
▁지자 370
▁차지한 370
▁트로 370
▁판매량을 370
권으로 370
단기 370
만명에 370
불을 370
워드 370
자율주행 370
철을 370
▁강세를 369
▁격벽 369
▁광범위한 369
▁금방 369
▁급증한 369
▁길이는 369
▁깎 369
▁나타낸 369
▁대피 369
▁마시 369
▁사망했다 369
▁사설 369
▁사운 369
▁시급한 369
▁시선이 369
▁업계에선 369
▁이념 369
▁이용을 369
▁일본차 369
▁자원봉사 369
▁조원태 369
▁케이블을 369
▁퀴 369
▁통화정책 369
▁함께한 369
▁해저 369
▁해준다 369
경험 369
공장의 369
봉산 369
신청을 369
양성 369
여야 369
전자의 369
지난해 369
포럼 369
학자 369
▁CI 368
▁간편결제 368
▁갖도록 368
▁견해 368
▁결정했다고 368
▁구성해 368
▁기존에는 368
▁느꼈 368
▁등극 368
▁떠났다 368
▁불거진 368
▁불러일으 368
▁선택이 368
▁스테이 368
▁아기 368
▁앞장서 368
▁애정을 368
▁약속을 368
▁예방하기 368
▁오프로드 368
▁우선적으로 368
▁원으로 368
▁위법 368
▁이끌었다 368
▁이렇다 368
▁일대는 368
▁읽어보시고 368
▁있어서는 368
▁전국민주노동조합총연맹 368
▁정기적으로 368
▁제품이다 368
▁텐데 368
▁통찰 368
▁포털사이트 368
▁호소했다 368
▁후보자 368
도서 368
방법은 368
인간 368
처분 368
하고도 368
▁450 367
▁건수가 367
▁계측 367
▁끝나면 367
▁네이버가 367
▁시민의 367
▁실사 367
▁어울리는 367
▁완만한 367
▁이선 367
▁적용한다 367
▁전달되는 367
▁중이던 367
▁타워크레인 367
▁탈락 367
▁파업으로 367
▁펼쳤다 367
▁폭증 367
▁핑 367
▁행하는 367
▁허리 367
▁화를 367
▁확진환자가 367
▁흡입 367
냐고 367
보에 367
사리 367
환은 367
TF 366
▁개설되어 366
▁계획하고 366
▁과감한 366
▁도금 366
▁도입했다 366
▁맛이 366
▁미니앨범 366
▁미연에 366
▁방과후 366
▁분쟁조정 366
▁불렀 366
▁삼척 366
▁서쪽은 366
▁성과급 366
▁수소전기차 366
▁신예 366
▁안전에 366
▁연락을 366
▁오르고 366
▁월간 366
▁유럽연합 366
▁유발하는 366
▁임계 366
▁장성 366
▁접어 366
▁줄어든다 366
▁차지한다 366
▁총파업 366
▁최우선 366
▁키울 366
▁통화를 366
▁폐암 366
▁한지 366
▁핵심협약 366
▁활용하면 366
녕 366
배당 366
ul 365
▁가져다 365
▁감소가 365
▁거칠 365
▁기억을 365
▁깎아 365
▁더한 365
▁돕는다 365
▁떠올랐다 365
▁만들어졌다 365
▁만하다 365
▁목적에 365
▁물려 365
▁보다는 365
▁북극 365
▁비정규직의 365
▁않아서 365
▁없으나 365
▁에피소 365
▁외장 365
▁일정이 365
▁제공함으로써 365
▁주민등록 365
▁침식 365
▁향상시킨다 365
▁협상이 365
▁확대로 365
됨 365
레는 365
부모 365
장도 365
지역에 365
항에 365
▁1,500 364
▁결정적인 364
▁경제적인 364
▁대상의 364
▁돌아오는 364
▁만남을 364
▁매진 364
▁부터 364
▁불린다 364
▁서양 364
▁서초 364
▁소비를 364
▁쇼케이스 364
▁써서 364
▁여건이 364
▁옵션 364
▁우라늄 364
▁이날부터 364
▁자신들이 364
▁점유율이 364
▁정면 364
▁지었다 364
▁지역별 364
▁진동을 364
▁취지로 364
▁칩의 364
▁털이 364
▁파장이 364
▁학교와 364
▁향상에 364
▁헤어 364
뒀 364
라를 364
메이션 364
열의 364
청에서 364
▁가난한 363
▁개정안은 363
▁구글의 363
▁길이를 363
▁방식과 363
▁생산라인 363
▁서류를 363
▁서울시가 363
▁수은 363
▁아닐까 363
▁앓고 363
▁열정 363
▁예정이라고 363
▁이용되는 363
▁입자의 363
▁장비의 363
▁제치고 363
▁직결 363
▁통하는 363
▁퇴근 363
▁펼쳐지는 363
▁화면이 363
▁확인하였다 363
값은 363
새가 363
세포가 363
전과 363
조립 363
▁건강하고 362
▁골든 362
▁교수의 362
▁기억이 362
▁도입된 362
▁동력을 362
▁리스크가 362
▁마련을 362
▁매력으로 362
▁발효 362
▁배급 362
▁버퍼 362
▁병원이 362
▁승소 362
▁실시한다고 362
▁아버지는 362
▁안전과 362
▁언제든 362
▁인명 362
▁저비용 362
▁제네바 362
▁주민들은 362
▁최근의 362
▁최다 362
▁캠핑 362
▁프로모션을 362
▁힌 362
기업과 362
대기 362
됐으나 362
러리 362
매는 362
사무소 362
앞 362
점이다 362
타이 362
해수욕 362
92 361
▁각국의 361
▁나라가 361
▁넘지 361
▁모이는 361
▁무기한 361
▁복제 361
▁사실에 361
▁손해보험 361
▁수월 361
▁시가총액 361
▁영향력이 361
▁응시 361
▁이동할 361
▁자격을 361
▁조사하고 361
▁필요는 361
기업을 361
동작 361
드릴 361
베르 361
시키도록 361
이버 361
텍은 361
호흡 361
▁: 360
▁갑질 360
▁결정된다 360
▁고객과 360
▁공기가 360
▁동서로 360
▁리튬이온 360
▁멈 360
▁메리츠 360
▁모델과 360
▁벌써부터 360
▁생산되는 360
▁숨을 360
▁스쿨뱅킹 360
▁심각하게 360
▁심하게 360
▁여기는 360
▁연계해 360
▁은행과 360
▁이곳을 360
▁작동하는 360
▁전자제품 360
▁터뜨 360
▁턱 360
▁특고 360
▁판단하는 360
▁프로그래밍 360
▁하단 360
▁행보를 360
▁확산이 360
노사 360
들여 360
시대에 360
자격 360
하였는데 360
ac 359
▁2019' 359
▁ATM 359
▁GDP 359
▁GPS 359
▁기뻐 359
▁농도가 359
▁비슷하다 359
▁색깔 359
▁서해 359
▁습득 359
▁실시합니다 359
▁엄마가 359
▁오픈뱅킹 359
▁일용직 359
▁입력되는 359
▁전쟁이 359
▁중앙방역대책 359
▁짧게 359
▁프라이 359
▁학사 359
▁효과도 359
움에 359
이온 359
이익이 359
점인 359
토를 359
파업 359
현상이 359
효율이 359
ip 358
um 358
▁고정된 358
▁동영 358
▁만났 358
▁맞물 358
▁박사는 358
▁박스 358
▁반박 358
▁보살 358
▁불과한 358
▁빈곤 358
▁상부에 358
▁스카 358
▁이전에는 358
▁자료가 358
▁정립 358
▁지대 358
▁최종적으로 358
▁취할 358
▁플랫폼에 358
▁피해자가 358
기아차의 358
름의 358
맥을 358
시키면 358
특성 358
82 357
▁MBN 357
▁SF 357
▁간담회 357
▁갈색 357
▁공정한 357
▁국토부는 357
▁그다지 357
▁그들을 357
▁근로기준 357
▁기반한 357
▁눈치 357
▁땐 357
▁무역전쟁 357
▁발견됐다 357
▁보건복지부 357
▁부족하다 357
▁뽑아 357
▁사료 357
▁서둘러 357
▁안다 357
▁액정 357
▁이르러 357
▁이산화탄 357
▁임의 357
▁자부 357
▁저수 357
▁전화기의 357
▁존재가 357
▁존재할 357
▁좀처럼 357
▁주어진다 357
▁집중하고 357
▁컵 357
▁탭 357
▁파워트레 357
▁합의가 357
▁화상을 357
기관을 357
나가는 357
랭크 357
번호를 357
슨은 357
쓴 357
지역에서 357
친화 357
현과 357
TR 356
▁1.6 356
▁간소 356
▁과수 356
▁교보 356
▁교육부가 356
▁대법원은 356
▁대표이 356
▁동행 356
▁듯이 356
▁모닝 356
▁변압 356
▁생방송 356
▁수요에 356
▁시술 356
▁신성 356
▁아산 356
▁연못 356
▁일곱 356
▁입구에 356
▁장벽 356
▁전자를 356
▁중점을 356
▁질화 356
▁파기 356
▁필터를 356
▁휴대폰을 356
기며 356
상생 356
우면 356
으려고 356
조한 356
▁"3 355
▁in 355
▁건물을 355
▁결제가 355
▁구간이 355
▁구청 355
▁금융감독 355
▁기준은 355
▁꽂 355
▁높을 355
▁달할 355
▁때문이라는 355
▁라우 355
▁르노삼성자동차 355
▁모뎀 355
▁목소리로 355
▁생산과 355
▁설명한 355
▁소비자들은 355
▁신청하면 355
▁쓰인다 355
▁악플 355
▁양지 355
▁업무협약을 355
▁에프 355
▁연계하여 355
▁이유에서다 355
▁제어를 355
▁코믹 355
▁파생결합펀드 355
▁품질이 355
▁확정된 355
궤 355
금액이 355
성에서 355
스토어 355
이노 355
치료를 355
휴업 355
8, 354
▁HD 354
▁IPTV 354
▁NHN 354
▁개선과 354
▁고객들에게 354
▁기아차가 354
▁다해 354
▁돌아가는 354
▁때와 354
▁말과 354
▁뭔가 354
▁방통 354
▁브이 354
▁사업장에 354
▁성장했다 354
▁소매 354
▁스트레 354
▁실종 354
▁싹 354
▁쌍용자동차 354
▁안보 354
▁없어도 354
▁우주의 354
▁운동이 354
▁으 354
▁인식하는 354
▁자체에 354
▁재벌 354
▁주인 354
▁차가운 354
▁친화 354
▁침수 354
▁컴팩트 354
▁하차 354
▁향상과 354
▁활동으로 354
▁후방 354
놈 354
라이언 354
루는 354
만대로 354
변이 354
손해보험 354
왔습니다 354
증권은 354
헬 354
CB 353
▁3.0 353
▁IBK 353
▁간단하고 353
▁감염을 353
▁감탄 353
▁결정된 353
▁공개하고 353
▁다행 353
▁담보로 353
▁도널드 353
▁문턱 353
▁번식 353
▁순매도 353
▁스티 353
▁역할은 353
▁윤리 353
▁전망을 353
▁중대형 353
▁치명 353
▁콘크리트 353
▁타격이 353
노래 353
만원이다 353
분간 353
뿔 353
속으로 353
PP 352
▁220 352
▁간격 352
▁건물이 352
▁공간과 352
▁내재 352
▁넉넉한 352
▁당뇨 352
▁대원 352
▁레저 352
▁무엇일지 352
▁생활에 352
▁시작되었다 352
▁않으므로 352
▁엘리베이터 352
▁외에는 352
▁유아 352
▁재차 352
▁전기차의 352
▁제도적 352
▁제작할 352
▁지역에는 352
▁통지 352
▁페이스 352
▁표정을 352
▁풍요 352
드림 352
블리 352
사이클 352
조리 352
주인 352
CS 351
▁1991 351
▁1·2 351
▁개량 351
▁경제성 351
▁금호타이어 351
▁도덕적 351
▁땅에 351
▁밀도 351
▁발전과 351
▁보육 351
▁비전을 351
▁사측이 351
▁소프트 351
▁소형화 351
▁아파트를 351
▁압도적인 351
▁얘 351
▁연예인 351
▁원자로 351
▁원화 351
▁이용해서 351
▁접근성이 351
▁정도였다 351
▁주변에서 351
▁중앙방역대책본부는 351
▁차종이 351
▁출생 351
▁카운 351
▁표출 351
내야 351
담이 351
됐는데 351
무는 351
벌이 351
빵 351
소리가 351
패를 351
표가 351
▁CD 350
▁감소시켜 350
▁개정안을 350
▁개최했다 350
▁계정 350
▁구입할 350
▁노동조합이 350
▁달성하기 350
▁당뇨병 350
▁몬 350
▁발생했을 350
▁수산 350
▁슬롯 350
▁심어 350
▁이야기다 350
▁이해와 350
▁중국을 350
▁증가시킬 350
▁청풍 350
▁통증이 350
▁폭의 350
▁화질 350
곡리 350
내용 350
대책을 350
메시 350
섬유 350
하길 350
회사는 350
EU 349
ig 349
ine 349
▁계승 349
▁권한 349
▁김혜 349
▁까닭 349
▁대선 349
▁돋 349
▁마포구 349
▁방대한 349
▁불만 349
▁세입 349
▁수당을 349
▁신화 349
▁안테나에 349
▁완충 349
▁원에 349
▁이루어지도록 349
▁이상은 349
▁이온주입 349
▁조국 349
▁주의해야 349
▁중요합니다 349
▁지배구조 349
▁지칭 349
▁진출한 349
▁창건 349
▁출간 349
▁허가를 349
가면 349
공무원 349
기념 349
담한 349
명했다 349
배로 349
시스템은 349
조건을 349
하게도 349
-2 348
9, 348
ive 348
▁Al 348
▁결심 348
▁겹쳐 348
▁경영진 348
▁고립 348
▁규정이 348
▁김준 348
▁노벨 348
▁당당 348
▁때만 348
▁리더십 348
▁미친다 348
▁사생활 348
▁상세 348
▁신발 348
▁예고한 348
▁위안 348
▁위치하여 348
▁인터뷰를 348
▁있다가 348
▁전송할 348
▁전직 348
▁정말로 348
▁죽을 348
▁지낸 348
▁쪽에 348
▁찬반 348
▁초등 348
▁크로스오버 348
▁통신망 348
▁확대됐다 348
댄 348
로스 348
린다는 348
멜 348
병원을 348
안과 348
지이다 348
짐이 348
IV 347
th 347
▁강화하기 347
▁경고했다 347
▁경험한 347
▁계속되고 347
▁기울이고 347
▁남양 347
▁노트 347
▁달러의 347
▁동쪽은 347
▁되돌아 347
▁드러낸 347
▁마을과 347
▁목소리 347
▁배기가스 347
▁산간 347
▁생성된 347
▁설치하는 347
▁알려지지 347
▁약화 347
▁양보 347
▁어댑 347
▁이것에 347
▁이르고 347
▁전자빔 347
▁절반을 347
▁정보통신기술 347
▁중징 347
▁차량과 347
▁창의적인 347
▁취약계층에게 347
▁컨텐츠 347
▁키코 347
▁타는 347
▁확진자와 347
▁힐링 347
느라 347
두가 347
로나 347
본은 347
부재를 347
사도 347
팡 347
획 347
▁MP 346
▁강점 346
▁개별적으로 346
▁경기침 346
▁공개할 346
▁기록해 346
▁꿈과 346
▁남자가 346
▁내구 346
▁모듈에 346
▁미성년 346
▁본교의 346
▁분석에 346
▁비자 346
▁사고의 346
▁역전 346
▁영역으로 346
▁오로지 346
▁이어지며 346
▁전시회 346
▁전일 346
▁제작해 346
▁주문했다 346
▁출동 346
▁탄생한 346
▁팀을 346
▁해명했다 346
▁했으며 346
▁행위는 346
▁흐르며 346
洞 346
개월이 346
검진을 346
교대 346
균이 346
기업으로 346
나이 346
목에 346
사다 346
프라 346
▁가스를 345
▁건강하게 345
▁계속될 345
▁고집적 345
▁권위 345
▁금융위원회 345
▁대주 345
▁덩 345
▁무덤 345
▁받아들일 345
▁번째는 345
▁범용 345
▁수출입 345
▁스파이 345
▁시각이 345
▁시각적 345
▁신고를 345
▁이메일 345
▁이미지와 345
▁인과 345
▁정자 345
▁정형 345
▁주목하고 345
▁초기에는 345
▁커넥터를 345
▁클래식 345
▁폴더 345
▁항의 345
▁해방 345
▁해석을 345
가공 345
감지 345
떡 345
온도 345
작은 345
작을 345
체제 345
커머스 345
폭력 345
▁197 344
▁가지게 344
▁것만 344
▁결정한다 344
▁공사를 344
▁공직 344
▁근절 344
▁노동자들을 344
▁마음의 344
▁모금 344
▁무게가 344
▁방안에 344
▁부진이 344
▁사업주가 344
▁성분을 344
▁스마트폰에 344
▁영화제 344
▁우리나라에서 344
▁운항 344
▁유대 344
▁인하를 344
▁임의의 344
▁지식재산 344
▁통계를 344
▁파악해 344
▁판매대 344
▁표면의 344
▁프레스 344
▁한반 344
▁회사와 344
곱 344
님께 344
랑이 344
론적 344
물질이 344
보험료 344
운을 344
졌는데 344
지사 344
채용 344
협동조합 344
78 343
▁"5 343
▁1988 343
▁PB 343
▁가처분 343
▁개정을 343
▁검토할 343
▁광주형 343
▁그걸 343
▁그치지 343
▁남쪽의 343
▁네트워크에 343
▁달이 343
▁대내외 343
▁마련되어 343
▁모방 343
▁반도체장치의 343
▁법이 343
▁보드 343
▁솔더 343
▁쉬워 343
▁스파크 343
▁실망 343
▁아크 343
▁위상을 343
▁유령 343
▁인종 343
▁임금은 343
▁접하고 343
▁제약이 343
▁제작을 343
▁주인이 343
▁지난다 343
▁체계적으로 343
▁초에 343
▁횡단 343
▁힐 343
롯 343
물인 343
미니 343
설에 343
저장 343
터에서 343
▁고강도 342
▁구글은 342
▁구조와 342
▁나무를 342
▁냉장고 342
▁다양하고 342
▁당산 342
▁드라마를 342
▁배우의 342
▁살았다 342
▁성향 342
▁소송에서 342
▁시작을 342
▁실어 342
▁쌓은 342
▁온몸 342
▁전원공급 342
▁제공하며 342
▁지는 342
▁착공 342
▁캐릭터의 342
▁토끼 342
▁트랜지스터를 342
▁폭탄 342
▁한국투자증권 342
단자 342
뜰 342
받게 342
분은 342
신호에 342
운드 342
인력을 342
차선 342
해달라고 342
회관 342
▁가세 341
▁감싸 341
▁개시되어 341
▁구매하는 341
▁기능에 341
▁낚 341
▁누워 341
▁다이얼 341
▁데려 341
▁떠나는 341
▁뚝 341
▁롱 341
▁리서치 341
▁마비 341
▁무사히 341
▁무엇보다도 341
▁벗어난 341
▁변경을 341
▁불황 341
▁비하면 341
▁사각 341
▁시티 341
▁여부와 341
▁예산이 341
▁웃음이 341
▁임대료 341
▁클리 341
▁프레젠테이션 341
강과 341
기관인 341
동향 341
로부터의 341
미스터트롯 341
식당 341
압이 341
업체에 341
오면서 341
LA 340
id 340
▁간략 340
▁걸음 340
▁견디 340
▁김씨 340
▁내외의 340
▁다툼 340
▁많습니다 340
▁무리한 340
▁바꾸어 340
▁발견하고 340
▁보고서에 340
▁복수개의 340
▁산업용 340
▁숙련 340
▁스타트업이 340
▁스펙트럼 340
▁시인 340
▁어셈블 340
▁요구할 340
▁원자의 340
▁의심되는 340
▁일로 340
▁젠 340
▁증가와 340
▁지식과 340
▁출시한다 340
▁치명적인 340
▁프로듀서 340
▁활동하고 340
▁회전자 340
과장은 340
안내 340
원자 340
유로 340
자마자 340
제도가 340
4' 339
▁l 339
▁고유한 339
▁금감원이 339
▁넘은 339
▁달리고 339
▁미흡 339
▁반도체장치 339
▁발표를 339
▁변호사는 339
▁사용했다 339
▁선제 339
▁앞뒤 339
▁역학조사 339
▁오랜만에 339
▁윌 339
▁이준 339
▁일이었다 339
▁재가 339
▁정하고 339
▁중단된 339
▁지급하고 339
▁추첨 339
▁틈새 339
▁픽업 339
▁한가운데 339
▁호환 339
▁화면의 339
똥 339
분해 339
정치 339
조원에 339
홀딩 339
if 338
▁과학자들은 338
▁기록할 338
▁끝날 338
▁댄 338
▁덩어 338
▁로마 338
▁만들어낸 338
▁모르겠다 338
▁미루 338
▁부모의 338
▁사연을 338
▁상징하는 338
▁설치해 338
▁완성된 338
▁의거하여 338
▁이게 338
▁주체가 338
▁처벌을 338
▁최상위 338
▁패턴이 338
▁회의에서 338
딸 338
리던 338
막과 338
쁜 338
신과 338
약품 338
임대 338
정부는 338
창출 338
흔 338
76 337
▁DLS 337
▁가치는 337
▁구간을 337
▁국산차 337
▁기후변화 337
▁네가 337
▁대수 337
▁만나게 337
▁말라 337
▁몰라 337
▁반박했다 337
▁부품이 337
▁불편함을 337
▁사립 337
▁서비스업 337
▁싼 337
▁아쉬 337
▁얽 337
▁오락 337
▁적외선 337
▁지인 337
▁채권을 337
▁철거 337
▁체제를 337
▁카드사 337
▁티볼 337
▁프론트 337
▁한정된 337
▁행동에 337
명령 337
산업은 337
왕의 337
음식 337
적이라고 337
천면 337
철의 337
텔레 337
플랜 337
해달라 337
▁83 336
▁개념으로 336
▁곡을 336
▁관광객이 336
▁구매를 336
▁급성장 336
▁넓어 336
▁대화가 336
▁독창 336
▁밀양 336
▁배운 336
▁부작용을 336
▁브랜드는 336
▁사람들도 336
▁사전계약 336
▁안락 336
▁어딘 336
▁어릴 336
▁언어를 336
▁옆으로 336
▁위촉 336
▁이용된다 336
▁있어요 336
▁재료로 336
▁정책은 336
▁즐겁고 336
▁합의에 336
▁화보 336
▁확인되었다 336
▁휘도 336
里 336
구간 336
동백꽃 336
변의 336
봉은 336
상태가 336
스럽고 336
스레 336
암의 336
웹 336
전원 336
증과 336
춤 336
탄소 336
프린 336
▁가기 335
▁거북 335
▁검정 335
▁골짜기 335
▁광양 335
▁구멍이 335
▁금융당국은 335
▁노동자와 335
▁사적 335
▁설립을 335
▁성명을 335
▁안겨 335
▁요청을 335
▁용어 335
▁우려되는 335
▁위를 335
▁좁아 335
▁좋습니다 335
▁채널의 335
▁초부터 335
▁텔레그램 335
▁하얀 335
▁흔적 335
감한 335
시스템이 335
운행 335
율과 335
인프라 335
전극의 335
증으로 335
86 334
In 334
▁1987 334
▁1∼3 334
▁4% 334
▁거시 334
▁경계가 334
▁국세 334
▁드러나는 334
▁방문하는 334
▁뱅킹 334
▁북쪽은 334
▁분수 334
▁생기고 334
▁숏 334
▁수율을 334
▁여유가 334
▁연구하는 334
▁위임 334
▁유리하다 334
▁잠깐 334
▁전쟁을 334
▁중산 334
▁착탈 334
▁파격적인 334
▁펼친 334
▁평가할 334
▁할아버 334
▁항목을 334
▁해소하기 334
▁행위에 334
가들이 334
강사 334
급식 334
년간의 334
두산 334
속의 334
어머니 334
유치 334
CN 333
RI 333
VD 333
▁96 333
▁ELS 333
▁가정에서는 333
▁계단 333
▁끄는 333
▁날씨가 333
▁내실 333
▁넘쳐 333
▁농도 333
▁도로의 333
▁반도체소자의 333
▁병을 333
▁비춰 333
▁사람으로 333
▁산화물 333
▁상무 333
▁속해 333
▁손꼽 333
▁수소연료전지 333
▁수요는 333
▁스펙 333
▁알코올 333
▁업무협약 333
▁없거나 333
▁엔진에 333
▁역동 333
▁연세대 333
▁인정했다 333
▁제니 333
▁주민의 333
▁통과한 333
▁페이스북이 333
▁현상이다 333
겹 333
라우 333
리라는 333
번이 333
엔터테인먼트는 333
하늘 333
하루 333
▁LA 332
▁감염자가 332
▁고기 332
▁곳도 332
▁과시 332
▁과학기술정보통신 332
▁관객이 332
▁광범위하게 332
▁구매한 332
▁구성할 332
▁내걸 332
▁동남아 332
▁드라마의 332
▁드리고자 332
▁멸종 332
▁밥을 332
▁백화점 332
▁베를린 332
▁분석됐다 332
▁분포하는 332
▁사용함으로써 332
▁시행에 332
▁애플은 332
▁없이는 332
▁이동을 332
▁장학 332
▁정례 332
▁제공하여 332
▁제한을 332
▁주도한 332
▁지갑 332
▁파장 332
▁표정으로 332
놀이 332
밋 332
액에 332
우선 332
팀의 332
!' 331
▁공개하는 331
▁공존 331
▁나가겠다 331
▁내열 331
▁대목이다 331
▁로딩 331
▁많지만 331
▁몰고 331
▁법원의 331
▁변화로 331
▁부호 331
▁사건으로 331
▁성질이 331
▁소득을 331
▁의무화 331
▁전문의 331
▁절삭 331
▁조선시대 331
▁조향 331
▁중소기업에 331
▁컴퓨터의 331
▁튜 331
▁펼쳐진 331
▁펼친다 331
▁픽 331
▁화제 331
다시 331
봉과 331
브의 331
속이 331
오니 331
율의 331
지로서 331
플래 331
▁1200 330
▁강조하고 330
▁건네 330
▁것임을 330
▁고생 330
▁고집 330
▁나간 330
▁늦은 330
▁단위의 330
▁답변을 330
▁매번 330
▁미스 330
▁발휘한다 330
▁방수 330
▁벌어지고 330
▁분명한 330
▁사태의 330
▁산기슭 330
▁수용할 330
▁오피스텔 330
▁의외 330
▁이벤 330
▁인센티브 330
▁잔여 330
▁전략은 330
▁전해져 330
▁중심을 330
▁한두 330
국장은 330
다니 330
더의 330
링이 330
물류 330
옷 330
이러한 330
재생 330
펄 330
하시길 330
▁1994 329
▁개를 329
▁검체 329
▁과일 329
▁관제 329
▁나고 329
▁단단한 329
▁되게 329
▁두산중공업 329
▁레인지로버 329
▁로보 329
▁마음껏 329
▁매각을 329
▁미쓰비시 329
▁발생된 329
▁사유로 329
▁소개하고 329
▁어디서나 329
▁엿 329
▁원유 329
▁유혹 329
▁의문을 329
▁인민 329
▁자녀와 329
▁장점이다 329
▁주장은 329
▁철수 329
▁콘덴서 329
▁페이지 329
▁피복 329
▁휴식을 329
겠어요 329
공학과 329
문제를 329
소리를 329
업계에서는 329
오의 329
케이스 329
학급 329
ra 328
▁개봉을 328
▁개인투자 328
▁검진을 328
▁구하는 328
▁대표를 328
▁말아야 328
▁부인이 328
▁불완전 328
▁비즈니 328
▁비틀 328
▁사연이 328
▁상당수가 328
▁스택 328
▁스페이스 328
▁어드 328
▁연중 328
▁와인 328
▁욕구를 328
▁위치와 328
▁입지를 328
▁자꾸 328
▁자진 328
▁지방의 328
▁진흥 328
▁차이로 328
▁참가해 328
▁추세를 328
▁쿼 328
▁투자의 328
▁표방 328
교와 328
량도 328
말로 328
일에도 328
전담 328
전에서 328
주의적 328
코더 328
하지도 328
행사를 328
pp 327
▁결함이 327
▁곡이다 327
▁급속도로 327
▁느티나무 327
▁다큐멘터리 327
▁두께가 327
▁막내 327
▁보험금을 327
▁부풀 327
▁불평 327
▁상단 327
▁소비자들에게 327
▁시계 327
▁신용평가 327
▁신원 327
▁아래에는 327
▁외의 327
▁입자가 327
▁전달한다 327
▁정교한 327
▁제시할 327
▁지적한다 327
▁진행을 327
▁첨부 327
▁최저임금의 327
▁커서 327
▁하겠다는 327
▁한국은행 327
▁환경부 327
관리에 327
당에 327
모의 327
모터쇼 327
뭇 327
방역 327
뽕 327
사업이 327
여명을 327
연으로 327
우리는 327
트로닉 327
평등 327
(3 326
▁가구가 326
▁건물의 326
▁경쟁에 326
▁경제사회노동위원회 326
▁고찰 326
▁나머지는 326
▁남는 326
▁노력할 326
▁닮은 326
▁데에는 326
▁드러난다 326
▁래퍼 326
▁마련하는 326
▁만나볼 326
▁선택의 326
▁소유한 326
▁스페이 326
▁신혼 326
▁이론은 326
▁이유에 326
▁있음에도 326
▁장의 326
▁제거하여 326
▁초월 326
▁출하 326
▁콘셉 326
▁특화된 326
▁프랑스의 326
▁현실이다 326
갱 326
군에서 326
궐 326
금리를 326
되었음을 326
라운드 326
리트 326
봉의 326
분류 326
트릭 326
펫 326
▁가구의 325
▁강화했다 325
▁개선될 325
▁경우에만 325
▁고등 325
▁권고했다 325
▁규제에 325
▁기판과 325
▁낮추고 325
▁드러내는 325
▁반복적으로 325
▁보이스 325
▁부위에 325
▁블룸버그 325
▁서초구 325
▁선물을 325
▁설정할 325
▁수수 325
▁시장점유 325
▁안방 325
▁에지 325
▁의미의 325
▁이재용 325
▁인생을 325
▁자유한국당 325
▁전문성을 325
▁전폭 325
▁정은경 325
▁조절이 325
▁종사하는 325
▁준비해 325
▁클러스 325
▁트윈 325
▁특이한 325
▁판매되는 325
▁하락세를 325
갈색 325
개와 325
다니는 325
대까지 325
동산 325
빨리 325
사고가 325
상황에 325
센트 325
손실을 325
스틱 325
ow 324
▁가마 324
▁극우 324
▁대시 324
▁덕에 324
▁만족도를 324
▁발생하기 324
▁베르 324
▁생각은 324
▁스타일을 324
▁습관 324
▁심사위원 324
▁업계에서 324
▁역할에 324
▁이력 324
▁인물이다 324
▁자세를 324
▁전라북도 324
▁정책과 324
▁중립 324
▁증정 324
▁진천 324
▁충청 324
▁콘솔 324
▁크롬 324
▁특성은 324
▁한자 324
▁활성화에 324
검진 324
난이 324
버트 324
석으로 324
즉 324
했음을 324
후의 324
NS 323
▁강다니엘 323
▁개방형 323
▁국가에서 323
▁기록하는 323
▁나타낼 323
▁달성했다 323
▁되돌 323
▁물품을 323
▁바탕 323
▁백색 323
▁블루투스 323
▁사고는 323
▁신청해 323
▁알람 323
▁알았다 323
▁앞의 323
▁어찌 323
▁역사의 323
▁예로부터 323
▁이경 323
▁인재를 323
▁주장도 323
▁직원들을 323
▁체계가 323
▁표정 323
▁행할 323
▁확인되지 323
▁힘으로 323
곡면 323
돔 323
둑 323
렵 323
롭지 323
번방 323
법률 323
시장에서는 323
일까 323
정도 323
픈 323
횡 323
IM 322
SW 322
ate 322
▁가라앉 322
▁가정을 322
▁개최한다 322
▁견고 322
▁공매 322
▁근처에 322
▁기쁘 322
▁기업가 322
▁남지 322
▁다가오는 322
▁발원 322
▁시점이 322
▁실질적 322
▁아가 322
▁어우러진 322
▁여론이 322
▁열화 322
▁원활히 322
▁잡기 322
▁전락 322
▁전세가 322
▁제도의 322
▁종류가 322
▁지나며 322
▁초대형 322
▁카메라의 322
▁폐업 322
▁해운 322
▁헐 322
▁화제다 322
기업은 322
리그 322
매의 322
미네 322
바람이 322
방울 322
청구 322
체적 322
하였던 322
▁가능해졌다 321
▁경제활동 321
▁고창 321
▁광대역 321
▁구간은 321
▁구멍을 321
▁궁극적으로 321
▁기를 321
▁껍 321
▁다하고 321
▁대단 321
▁데리고 321
▁동남아시아 321
▁뛰어넘는 321
▁라이프스타 321
▁마련해야 321
▁멘토 321
▁모습도 321
▁바다로 321
▁불안감이 321
▁성공할 321
▁소음을 321
▁소재의 321
▁수치를 321
▁실시예에 321
▁아니며 321
▁않기로 321
▁애플리케이션을 321
▁여는 321
▁완만 321
▁요청한 321
▁응답자의 321
▁인상에 321
▁자는 321
▁주파 321
▁증가한다 321
▁지킬 321
▁청각 321
▁최고치를 321
▁포토레지스트 321
▁폴더블폰 321
▁풍성한 321
▁한데 321
▁헨 321
▁형태는 321
고속 321
리라고 321
린이 321
선수 321
장에서는 321
중은 321
창의 321
책으로 321
챔버 321
품으로 321
하느냐 321
홍보 321
▁4∼5 320
▁KTX 320
▁개관 320
▁개조 320
▁거쳐야 320
▁경직 320
▁구혜 320
▁권력을 320
▁나사 320
▁남을 320
▁내려온 320
▁냉장 320
▁농사를 320
▁다양하다 320
▁라이트 320
▁메이 320
▁무력 320
▁발생시키는 320
▁버리고 320
▁법안이 320
▁부자 320
▁불규칙 320
▁산을 320
▁살면서 320
▁수업에 320
▁수학적 320
▁완료된 320
▁원격수업 320
▁일요일 320
▁있겠지만 320
▁자성 320
▁잠금 320
▁저수지가 320
▁전국에 320
▁전달하고 320
▁전자총 320
▁제휴를 320
▁증발 320
▁지점에서 320
▁창의적 320
▁툴 320
▁활동과 320
길에 320
길은 320
대상은 320
돋 320
문에서 320
물가 320
월에도 320
으려 320
퍼런 320
IG 319
▁1/ 319
▁71 319
▁CO 319
▁감기 319
▁감염증으로 319
▁개발했다고 319
▁검사에서 319
▁검색어 319
▁꼼꼼히 319
▁내로 319
▁댓글을 319
▁등장하고 319
▁띠고 319
▁라이더 319
▁릴 319
▁반발하고 319
▁버려 319
▁비밀을 319
▁사항이 319
▁사회보험 319
▁시행을 319
▁아람 319
▁얇 319
▁에너 319
▁역은 319
▁음반 319
▁정부에서 319
▁제조공정 319
▁좋다고 319
▁지났 319
▁지속가능 319
▁집배 319
▁출시한다고 319
▁커져 319
▁힙합 319
강은 319
개사가 319
경남 319
누리 319
비디오 319
실습 319
쪽은 319
청과 319
층에서 319
헬로 319
▁6,000 318
▁가속화 318
▁갑작스러운 318
▁걸린다 318
▁과도 318
▁규제로 318
▁깜 318
▁놀랍 318
▁능선 318
▁당신은 318
▁대비한 318
▁대안으로 318
▁보장을 318
▁샘플 318
▁생산량이 318
▁시간대 318
▁시작하였다 318
▁안전성이 318
▁외래 318
▁용기 318
▁있겠 318
▁재량 318
▁주재 318
▁지급한 318
▁찾아온 318
▁최고급 318
▁크기에 318
▁해결해야 318
▁혁명 318
▁형성을 318
▁확인을 318
까요 318
따라서 318
상한 318
샵 318
스크린 318
연구원이 318
였을 318
으니까 318
익이 318
잼 318
첫 318
플라 318
▁1,0 317
▁EL 317
▁감추지 317
▁같다는 317
▁개인과 317
▁겁 317
▁공룡 317
▁기자회견 317
▁나뭇 317
▁넘었다 317
▁눈물이 317
▁독립적으로 317
▁막혀 317
▁면역력이 317
▁미적 317
▁바다를 317
▁벌어질 317
▁보닛 317
▁산악 317
▁세상에서 317
▁솔직 317
▁신이 317
▁양적 317
▁얘기가 317
▁업체로 317
▁의정부 317
▁이야기에 317
▁입증했다 317
▁적도 317
▁차관은 317
▁캐패시터 317
▁크로 317
▁포함되지 317
▁하교 317
▁한국영화 317
▁항만 317
▁항생제 317
▁현실에 317
▁형국 317
▁확진자의 317
교육청은 317
도서관 317
리나 317
모터쇼에 317
서버 317
종인 317
투어 317
펀 317
흑 317
55 316
kWh 316
▁1989 316
▁LP 316
▁검은색 316
▁공인인증 316
▁관측도 316
▁극복할 316
▁기기에 316
▁늙 316
▁당해 316
▁도로와 316
▁마이너 316
▁머신러닝 316
▁멜로 316
▁모듈의 316
▁뮤지션 316
▁바쁜 316
▁배경에는 316
▁배양 316
▁빚을 316
▁사냥 316
▁시점을 316
▁양해 316
▁음란 316
▁이스타항공 316
▁중재 316
▁증빙 316
▁지옥 316
▁진상 316
▁케미 316
▁파생 316
▁하도급 316
▁회사로 316
대금 316
산성 316
시키게 316
테일 316
폭포 316
▁3·4 315
▁94 315
▁USB 315
▁공격을 315
▁공헌 315
▁군도 315
▁길러 315
▁노조를 315
▁도체 315
▁메디 315
▁미달 315
▁바이러스에 315
▁베스트셀링 315
▁새마을 315
▁수신된 315
▁인공지능이 315
▁잘라 315
▁잡음 315
▁제조에 315
▁조사는 315
▁주행성능 315
▁중앙은행 315
▁직영 315
▁케어 315
▁펀드에 315
▁한은이 315
▁횡령 315
검색 315
박이 315
업체와 315
젝 315
출산 315
췄 315
커넥 315
GA 314
▁CC 314
▁가전제품 314
▁가져야 314
▁구축한 314
▁나서면서 314
▁남성은 314
▁내놓는 314
▁단어를 314
▁단점을 314
▁만남이 314
▁말합니다 314
▁목적이다 314
▁바이러스를 314
▁발동 314
▁분비 314
▁사용하였다 314
▁산지로 314
▁성수 314
▁숫자가 314
▁시도가 314
▁안타까운 314
▁언제든지 314
▁여성을 314
▁운영이 314
▁인스타그램에 314
▁작용했다 314
▁제작진이 314
▁주도권을 314
▁준대형 314
▁참고로 314
▁최고출력 314
▁카니발 314
▁크다고 314
▁클래스 314
▁탈퇴 314
▁터져 314
▁파워트레인 314
▁필연 314
▁한라 314
▁항생 314
▁했기 314
관리가 314
률과 314
머스 314
버스를 314
서야 314
수산 314
여행을 314
추가 314
코어 314
피를 314
행복 314
j 313
▁갖췄 313
▁갯벌 313
▁거둘 313
▁공단 313
▁과거와 313
▁논문을 313
▁대를 313
▁더욱더 313
▁도입이 313
▁동대문 313
▁띈다 313
▁뭔 313
▁변형을 313
▁부부는 313
▁사진과 313
▁상이한 313
▁생기지 313
▁수탁 313
▁시연 313
▁신한은행 313
▁앞당 313
▁업황 313
▁엔지니 313
▁연구위원은 313
▁영동 313
▁영상으로 313
▁예술의 313
▁윌리엄 313
▁이내로 313
▁전문기업 313
▁주위의 313
▁코드를 313
▁쿨 313
▁탄산 313
▁펠 313
▁확산될 313
가면서 313
놔 313
빛이 313
톨 313
2,000 312
▁3.5 312
▁QR 312
▁고용이 312
▁국내의 312
▁낮춘 312
▁데도 312
▁먹으면 312
▁무용 312
▁믹 312
▁발표한다 312
▁백종 312
▁법조 312
▁보시고 312
▁설정한 312
▁수준은 312
▁시멘트 312
▁시작하여 312
▁심리가 312
▁운전을 312
▁인류가 312
▁인정한 312
▁참여와 312
▁찾아야 312
▁찾아와 312
▁체인 312
▁쳐 312
▁추경 312
▁캘 312
▁필수적인 312
▁환산 312
▁회동 312
그래서 312
대학원 312
률도 312
림과 312
사항이 312
스트의 312
신경 312
애가 312
외과 312
윤이 312
장에게 312
저축은행 312
지침 312
틸 312
MF 311
▁FM 311
▁감지하여 311
▁감추 311
▁것일 311
▁경기를 311
▁규모에 311
▁넘는다 311
▁다문화 311
▁도입하는 311
▁뜨거 311
▁람보르기니 311
▁레버 311
▁마그네트 311
▁만들어진다 311
▁먹지 311
▁문자메시 311
▁미국에서는 311
▁사면 311
▁생산한 311
▁선언한 311
▁아홉 311
▁안방극장에 311
▁연결되고 311
▁유가 311
▁일각에선 311
▁재개발 311
▁정신건강 311
▁지식이 311
▁청원 311
▁출시했다고 311
▁친근 311
▁캐시 311
▁탑재했다 311
▁푸르 311
▁하나도 311
▁현실이 311
기술의 311
닛 311
랫 311
부진 311
붕 311
워즈 311
인사 311
취를 311
평가를 311
▁가치와 310
▁광복 310
▁근무를 310
▁날로 310
▁내다 310
▁대응해 310
▁때에도 310
▁몰딩 310
▁반도체를 310
▁불행 310
▁스승 310
▁에러 310
▁연계한 310
▁우려된다 310
▁원자가 310
▁유상증 310
▁이용에 310
▁장군 310
▁제작이 310
▁집중하는 310
▁컨테이너 310
▁쾌적한 310
▁패러다임 310
▁펀드가 310
경으로 310
는다는 310
마한 310
모는 310
민들이 310
브랜드 310
하긴 310
72 309
▁Mnet 309
▁a 309
▁계도 309
▁교통의 309
▁데이터와 309
▁명확 309
▁무선전화 309
▁무지 309
▁미끄러 309
▁벌여 309
▁상승에 309
▁서귀포 309
▁수입이 309
▁스마트폰이 309
▁쓰기 309
▁아이디 309
▁연결이 309
▁연구와 309
▁올해로 309
▁와중에 309
▁응력 309
▁찍어 309
▁체력 309
▁치아 309
▁하려면 309
▁한반도 309
▁해고를 309
▁향상된다 309
▁후기 309
가요 309
두를 309
등과 309
료의 309
만개 309
배달 309
소방 309
용량 309
정보통신 309
천여 309
코드를 309
퀴 309
화재 309
32 308
ag 308
ess 308
μ 308
▁OECD 308
▁간담회를 308
▁근로자에 308
▁기생 308
▁기소된 308
▁남쪽은 308
▁내년에는 308
▁노예 308
▁높기 308
▁대부분이다 308
▁맡는다 308
▁목록 308
▁몰리는 308
▁미국을 308
▁바라보고 308
▁받았지만 308
▁백운 308
▁분실 308
▁설치가 308
▁섬세 308
▁스프 308
▁신종코로나 308
▁안전관리 308
▁어머니의 308
▁에디션 308
▁우수하고 308
▁운영해 308
▁일체형 308
▁장애를 308
▁정권 308
▁조용히 308
▁주기적으로 308
▁중소기업과 308
▁초과하는 308
▁키우 308
▁픽셀 308
▁형상의 308
▁화재가 308
다만 308
두리 308
드라 308
라와 308
매틱 308
상태에 308
역사 308
처로 308
19' 307
RC 307
▁8% 307
▁97 307
▁HEV 307
▁PHEV 307
▁겪을 307
▁계곡을 307
▁그리하여 307
▁넘으면 307
▁는 307
▁대신해 307
▁들어올 307
▁민속 307
▁반짝 307
▁배치된 307
▁뻗 307
▁사각지대 307
▁상기한 307
▁승용 307
▁시각을 307
▁안을 307
▁영상에는 307
▁영원히 307
▁올라가는 307
▁왔던 307
▁이건 307
▁인상이 307
▁자체는 307
▁장치에서 307
▁적힌 307
▁주민이 307
▁집행유예 307
▁통보를 307
▁프린트 307
▁하려고 307
▁학교로 307
▁호르몬 307
▁홈쇼핑 307
공무 307
나와 307
늑 307
매출 307
서비스가 307
수화 307
지정 307
편으로 307
하셨 307
▁IBM 306
▁가정용 306
▁구성의 306
▁구축에 306
▁그룹이 306
▁내포 306
▁냉동 306
▁네이버는 306
▁달러에 306
▁대남 306
▁떠오른 306
▁맘 306
▁매출은 306
▁바꾸고 306
▁보니까 306
▁보험료가 306
▁선택해 306
▁솟 306
▁스위스 306
▁시골 306
▁신용등급이 306
▁싶지 306
▁아이는 306
▁에너지의 306
▁은행은 306
▁인격 306
▁장기적인 306
▁주장에 306
▁줄인 306
▁징수 306
▁참가한 306
▁촘촘 306
▁퀴즈 306
▁틀림 306
▁학교교육 306
▁해당되는 306
▁홈페이지에서 306
경보 306
공단은 306
공정이 306
구멍 306
내지 306
리즘 306
본을 306
사지 306
성모 306
성하게 306
소비자 306
속도가 306
위원장이 306
자금이 306
트에서 306
했거나 306
▁1992 305
▁규탄 305
▁글로 305
▁기회로 305
▁동맹 305
▁등장할 305
▁마련에 305
▁매스 305
▁블록체 305
▁어렵지 305
▁이차전지 305
▁장동 305
▁전임 305
▁주인공이 305
▁지명이 305
▁참여하지 305
▁채소 305
▁투자은행 305
▁판결했다 305
개정 305
객들이 305
건설이 305
결이 305
녀의 305
답을 305
산지 305
숙한 305
안정자금 305
이제 305
저항을 305
지연 305
탭 305
▁강렬 304
▁개학이 304
▁검역 304
▁공식적으로 304
▁공용 304
▁공정으로 304
▁그늘 304
▁모시고 304
▁모터에 304
▁무관하게 304
▁미쳤 304
▁밤에 304
▁버린 304
▁벡 304
▁분포를 304
▁상반기에 304
▁세팅 304
▁소셜미디어 304
▁스포티한 304
▁시작했고 304
▁아이디어가 304
▁열쇠 304
▁영위 304
▁왕래 304
▁위험성이 304
▁음료 304
▁전자상거래 304
▁준비했다 304
▁중단을 304
▁치러 304
▁필요해 304
겁 304
대사 304
마루 304
바로 304
병원으로 304
부품을 304
브레이 304
심한 304
였기 304
오픈 304
잖아요 304
주며 304
지어 304
처에 304
폴리 304
화면 304
희와 304
96 303
ist 303
▁89 303
▁g 303
▁가리지 303
▁계정을 303
▁고안에서는 303
▁고추 303
▁공동주택 303
▁공작 303
▁공주 303
▁기여한 303
▁꾸려 303
▁노동계가 303
▁노면 303
▁뜨겁게 303
▁마땅 303
▁민주노총이 303
▁바둑 303
▁부분적으로 303
▁불가피할 303
▁브랜드인 303
▁비정 303
▁소지가 303
▁수준까지 303
▁실천할 303
▁아니기 303
▁엿볼 303
▁유기발광 303
▁유죄 303
▁입었다 303
▁자율적으로 303
▁저항이 303
▁적합하다 303
▁전문적인 303
▁정도이다 303
▁측면에 303
▁필요했다 303
▁행장은 303
▁확대한다 303
▁흔적을 303
가락 303
들만 303
초가 303
초를 303
항은 303
▁'20 302
▁공부를 302
▁권리가 302
▁그야말로 302
▁금오 302
▁넣은 302
▁눌 302
▁대안을 302
▁리스크를 302
▁불이익을 302
▁빛나는 302
▁섞인 302
▁시대에는 302
▁시판 302
▁식량 302
▁식중독 302
▁이유도 302
▁이직 302
▁장르의 302
▁전단 302
▁전문가의 302
▁전성 302
▁제공했다 302
▁제보 302
▁차분 302
▁카이 302
▁카테고 302
▁크라이슬러 302
▁통신사 302
간접 302
걸음 302
급의 302
는지는 302
능력이 302
드라이브 302
뜻 302
반이 302
배나 302
사원 302
아니 302
어스 302
제품을 302
종사 302
즐 302
GS 301
▁1930 301
▁DJ 301
▁ON 301
▁간식 301
▁개학을 301
▁견고하게 301
▁근무하고 301
▁까다 301
▁다룰 301
▁돌아갈 301
▁멜로디 301
▁뮤직 301
▁밖에서 301
▁상무는 301
▁수만 301
▁얼마든지 301
▁얼음 301
▁없으므로 301
▁예정이 301
▁외환위기 301
▁원통 301
▁자산이 301
▁자식 301
▁주최하고 301
▁책의 301
▁최대주주 301
▁출시되는 301
▁털어 301
▁털어놓 301
▁판독 301
▁포착돼 301
▁하늘을 301
▁회귀 301
▁효율성 301
깔 301
독한 301
딱 301
또한 301
렇게 301
발이 301
불교 301
세포를 301
시설에 301
을수록 301
일째 301
재단이 301
절차 301
타다 301
폼 301
ure 300
▁170 300
▁가능하다고 300
▁감광 300
▁같아요 300
▁개인용 300
▁결과와 300
▁골자다 300
▁그래핀 300
▁녹여 300
▁달라지는 300
▁링크를 300
▁박원 300
▁번거로 300
▁봤을 300
▁사업과 300
▁서정 300
▁소통하는 300
▁쇠퇴 300
▁쌍용차의 300
▁아동의 300
▁야심 300
▁양사는 300
▁엮 300
▁일들이 300
▁자체로 300
▁전통적 300
▁전화기 300
▁전환할 300
▁점검하고 300
▁제법 300
▁종업 300
▁주시길 300
▁줄기가 300
▁충청북도 300
▁콘텐츠는 300
▁타원 300
▁탐사 300
▁트레일블레이저 300
▁트렌드를 300
▁하였 300
▁행사에서 300
거를 300
기부 300
나를 300
년경 300
등한 300
심리 300
암과 300
업무를 300
외국인 300
중소 300
지검 300
해볼 300
호에 300
훈과 300
ce 299
▁강력하게 299
▁넘어서는 299
▁노동자에게 299
▁돼야 299
▁명명 299
▁모드로 299
▁발전소 299
▁배터리가 299
▁부르고 299
▁브러 299
▁상승이 299
▁서낭 299
▁수시 299
▁수행하기 299
▁습관을 299
▁신개념 299
▁쓰레기 299
▁여느 299
▁우리나라가 299
▁위와 299
▁유럽과 299
▁장관을 299
▁종전 299
▁최소화하는 299
▁텔루라이 299
▁틀을 299
▁프로젝 299
▁해소를 299
▁혁신이 299
▁현직 299
▁후보로 299
▁휴대폰에 299
라디오스타 299
문화가 299
민을 299
빈은 299
시대의 299
야만 299
업체를 299
유입 299
이한 299
정리 299
하시면 299
IST 298
× 298
▁6% 298
▁고군분투 298
▁관악 298
▁구분할 298
▁구비한다 298
▁금융감독원이 298
▁금토드라마 298
▁낙하 298
▁낮아진 298
▁띄는 298
▁마침 298
▁만난다 298
▁무제한 298
▁번호를 298
▁변해 298
▁분명하다 298
▁불매 298
▁브라운관의 298
▁비치 298
▁사정으로 298
▁산록 298
▁설비의 298
▁습식 298
▁시킬 298
▁식의 298
▁쏟아져 298
▁아니오라 298
▁아쉬운 298
▁엄격 298
▁영화에서 298
▁예쁘 298
▁오늘날의 298
▁완성했다 298
▁의문 298
▁이미지는 298
▁전복 298
▁접속이 298
▁제기된 298
▁중국산 298
▁지나가는 298
▁직원에게 298
▁집착 298
▁차선 298
▁청사 298
▁캐릭터에 298
▁토큰 298
▁통과하고 298
▁튜너 298
▁프로듀 298
▁해소할 298
▁현상으로 298
▁확인하시고 298
▁휴대단말 298
들까지 298
브가 298
술한 298
융 298
저를 298
주면 298
프레임 298
000 297
▁교육복지 297
▁근로자로 297
▁근린 297
▁김병 297
▁내려오는 297
▁내역을 297
▁넥 297
▁노동부는 297
▁도로는 297
▁머무 297
▁멍 297
▁반도체소자 297
▁배전 297
▁변경하여 297
▁삼고 297
▁서울과 297
▁업로드 297
▁여자가 297
▁온전히 297
▁이란 297
▁잔존 297
▁장착했다 297
▁전기가 297
▁전력이 297
▁절친 297
▁정리해 297
▁존재하고 297
▁표지 297
▁헤드램프 297
▁현금을 297
▁현상에 297
▁확대했다 297
갓 297
격에 297
나마 297
노인 297
막으로 297
목은 297
시켜서 297
유를 297
적금 297
카페 297
티비 297
하러 297
환경에 297
os 296
▁겨냥한 296
▁경영에 296
▁고급스러운 296
▁과태료 296
▁김모 296
▁김포 296
▁노하우 296
▁다녔 296
▁돌아와 296
▁매각이 296
▁못했다는 296
▁몽골 296
▁무주 296
▁물질로 296
▁믿는 296
▁방탄소년단 296
▁비서 296
▁솔직한 296
▁스키 296
▁시뮬 296
▁유발한다 296
▁은성수 296
▁인피니티 296
▁잠재적 296
▁전년대비 296
▁전화기에 296
▁정무 296
▁정보화 296
▁제목의 296
▁제어가 296
▁증강현실 296
▁지리산 296
▁파일럿 296
▁포커스 296
▁한국형 296
강도 296
공단이 296
러에 296
많은 296
모델을 296
벅 296
뼈 296
사업은 296
시간의 296
씬 296
으로만 296
지지만 296
켈 296
펀드는 296
ee 295
▁가깝 295
▁감독을 295
▁감상할 295
▁고려하지 295
▁관점 295
▁괴롭 295
▁교수와 295
▁금속노조 295
▁대가로 295
▁동의서를 295
▁마련이다 295
▁문의가 295
▁미생물 295
▁반응은 295
▁받아들이지 295
▁발생하면서 295
▁방법도 295
▁사람에 295
▁사이즈 295
▁삶과 295
▁상대방의 295
▁생성하는 295
▁샤워 295
▁수치가 295
▁승려 295
▁안팎의 295
▁암시 295
▁연결을 295
▁예정돼 295
▁유기전계발광 295
▁유연한 295
▁의미와 295
▁일으키고 295
▁일환 295
▁있듯이 295
▁장비가 295
▁전적으로 295
▁접할 295
▁제도는 295
▁조지 295
▁주머니 295
▁증가세를 295
▁진학 295
▁집중시켰다 295
▁집필 295
▁총선 295
▁쿠폰 295
▁크기와 295
▁트랜 295
▁헌법 295
▁회상 295
▁휴가를 295
▁흔한 295
고와 295
곳에서 295
기로부터 295
년에도 295
년은 295
리거나 295
사업부 295
상인 295
성능을 295
치면 295
펀드가 295
향후 295
화학은 295
age 294
▁& 294
▁IMF 294
▁TOP 294
▁가결 294
▁강화한다 294
▁경쟁에서 294
▁금요일 294
▁마니아 294
▁몰린 294
▁문헌 294
▁밀접 294
▁불평등 294
▁선착순 294
▁신비 294
▁실수 294
▁외신 294
▁유역 294
▁이방 294
▁잇따르고 294
▁잎이 294
▁전기차와 294
▁정책으로 294
▁제어방법에 294
▁지적을 294
▁챗봇 294
▁축조 294
▁키를 294
▁타입의 294
▁표정이 294
▁하에 294
▁한도를 294
▁호평 294
▁확인한다 294
근로제 294
나노 294
남도 294
들보다 294
앉 294
영역을 294
카이 294
통과 294
해준 294
행성 294
87 293
ont 293
▁"4 293
▁2023 293
▁개념이다 293
▁과정의 293
▁구부 293
▁그레이 293
▁근속 293
▁네트워크가 293
▁노출되는 293
▁문장 293
▁미디어가 293
▁번씩 293
▁병이 293
▁브로 293
▁사랑에 293
▁생각한 293
▁소문이 293
▁신뢰할 293
▁염려 293
▁운영되는 293
▁윈도우 293
▁의사결정 293
▁자외선 293
▁재미있게 293
▁저수지 293
▁주면 293
▁주위를 293
▁중이라고 293
▁채용을 293
▁철저하게 293
▁청산 293
▁총재는 293
▁추첨을 293
▁콘텐츠로 293
▁클라우 293
▁피의 293
디아 293
물리학 293
상대 293
스톤 293
시간은 293
실장은 293
이었다고 293
정원 293
지원이 293
총괄 293
투를 293
▁92 292
▁95% 292
▁CNN 292
▁SO 292
▁관전 292
▁그보다 292
▁극복하고 292
▁극한 292
▁날카로운 292
▁눈앞에 292
▁들어왔다 292
▁등에게 292
▁맵 292
▁면이 292
▁모른다는 292
▁미션 292
▁민사 292
▁붉 292
▁비어 292
▁샌 292
▁서식하는 292
▁성장률이 292
▁실적에 292
▁실현하는 292
▁아침에 292
▁알아서 292
▁알찬 292
▁여러분의 292
▁염증 292
▁오피스 292
▁육아휴직을 292
▁자의 292
▁재산을 292
▁적혀 292
▁정부를 292
▁정전기 292
▁정준 292
▁정체가 292
▁조치에 292
▁지선 292
▁지키지 292
▁청량 292
▁출연했다 292
▁표적 292
▁해명 292
▁행보에 292
▁후의 292
공인 292
과거 292
날을 292
대출을 292
레일 292
오면 292
움의 292
인트 292
좋 292
지므로 292
채가 292
했다며 292
현동 292
화되면서 292
MW 291
▁가격의 291
▁가지의 291
▁건강이 291
▁것에서 291
▁관련해서는 291
▁교사의 291
▁기관과 291
▁남성의 291
▁내며 291
▁내세운 291
▁농산물 291
▁누르면 291
▁민첩 291
▁방송은 291
▁법원에 291
▁사회는 291
▁설사 291
▁승합 291
▁실태조사 291
▁어지 291
▁유동성을 291
▁유틸리티 291
▁일본에 291
▁자산관리 291
▁조그 291
▁타인의 291
▁표현했다 291
▁향토 291
▁혐오 291
▁협회 291
▁효과에 291
▁휩쓸 291
겨울 291
공의 291
년에서 291
수석 291
안심 291
언이 291
염을 291
으려는 291
졌으나 291
지에는 291
측이 291
투자를 291
LC 290
▁결함을 290
▁고려대 290
▁광산 290
▁교량 290
▁만족도가 290
▁못한다는 290
▁발행하는 290
▁벗어나지 290
▁봉화 290
▁부문에 290
▁불안한 290
▁상품이다 290
▁생태계가 290
▁시간도 290
▁안녕 290
▁에스엔에스 290
▁올라갈 290
▁요인을 290
▁용담 290
▁유무 290
▁유지를 290
▁잔뜩 290
▁저렴하게 290
▁제때 290
▁증가함에 290
▁창출을 290
▁투자는 290
▁판별 290
▁편리하고 290
▁프레임의 290
▁플랫폼은 290
▁합류한다 290
▁향하는 290
▁훈훈한 290
감소 290
거리로 290
꺼 290
네이버 290
대다 290
메이커 290
범이 290
벽이 290
보험에 290
악한 290
왔고 290
주었다 290
팍 290
BI 289
▁갈래 289
▁거리는 289
▁거치지 289
▁결정은 289
▁결합을 289
▁과정과 289
▁권익 289
▁금속의 289
▁김주 289
▁도둑 289
▁돌고 289
▁마라 289
▁받던 289
▁받침 289
▁볼보자동차 289
▁사우 289
▁산업과 289
▁솜 289
▁아내는 289
▁아내의 289
▁아트 289
▁약속했다 289
▁연관된 289
▁오류를 289
▁의존도가 289
▁이미지로 289
▁전략으로 289
▁지체 289
▁집단감염이 289
▁집중시킨다 289
▁총파업에 289
▁출범한 289
▁키가 289
▁테마파크 289
▁투사 289
▁페달 289
▁프로젝트는 289
▁학과 289
▁허용하는 289
▁훈련을 289
구동 289
년차 289
단체가 289
만큼이나 289
뿐이다 289
시즌 289
여대 289
연도 289
올림픽 289
조사가 289
ab 288
▁가입자의 288
▁각도 288
▁계통 288
▁국민들이 288
▁국토교통부 288
▁근무한 288
▁나오기 288
▁단기간에 288
▁매출액이 288
▁발생하게 288
▁밸런 288
▁변경될 288
▁사유가 288
▁산지의 288
▁서비스인 288
▁송정 288
▁쓴다 288
▁아닌지 288
▁영향에 288
▁예고하고 288
▁인근의 288
▁자립 288
▁적었다 288
▁제출했다 288
▁쳐다 288
▁콘셉트카 288
▁테슬라는 288
▁팬들과 288
▁확산되면서 288
경제가 288
곶 288
기관으로 288
되었지만 288
되지는 288
방은 288
불가 288
상공 288
실태 288
품의 288
하우스 288
호선을 288
LO 287
PD 287
▁1.2 287
▁감소에 287
▁개최한 287
▁경향 287
▁끄 287
▁나에게 287
▁디자인에 287
▁말레이시아 287
▁말하자면 287
▁밝히고 287
▁벗어날 287
▁사육 287
▁사이트에 287
▁산불 287
▁상태였다 287
▁손보 287
▁승계 287
▁안심하고 287
▁앵 287
▁오정 287
▁오존 287
▁웃돌 287
▁인하가 287
▁일한 287
▁임기가 287
▁전과 287
▁점검을 287
▁층을 287
▁카카오페이 287
농사가 287
단계로 287
달라는 287
땅 287
라기 287
보수 287
소송을 287
지던 287
필름 287
홈쇼핑 287
확산 287
∼19 286
▁6·25 286
▁거래일 286
▁계좌를 286
▁공략에 286
▁그란 286
▁기초자산 286
▁깔려 286
▁대국민 286
▁모터쇼에서 286
▁무급휴직을 286
▁묶어 286
▁문화체육관광 286
▁미시 286
▁민주당 286
▁범위에서 286
▁변하지 286
▁부담으로 286
▁분리된 286
▁비아 286
▁사이트를 286
▁사회적으로 286
▁상승할 286
▁상정 286
▁선택적 286
▁소련 286
▁아이들과 286
▁운동에 286
▁이자를 286
▁자외 286
▁재구성 286
▁정의선 286
▁제작진 286
▁조류 286
▁지고 286
▁지류 286
▁질환을 286
▁참가할 286
▁처음에 286
▁촛 286
▁커지자 286
▁폭발적으로 286
▁프로젝트의 286
▁하우스 286
▁학생들과 286
▁한류 286
▁힌지 286
그런 286
껴 286
남의 286
니어 286
설비의 286
약이 286
의료원 286
저수지 286
접종 286
조원이 286
증권이 286
펌프 286
프로듀스 286
학원 286
회복 286
▁75% 285
▁가상의 285
▁거라는 285
▁그리는 285
▁놀랐다 285
▁떨어지면 285
▁마련이 285
▁반복되는 285
▁배터리팩 285
▁법규 285
▁부도 285
▁불꽃 285
▁산업은행 285
▁상품성을 285
▁생각된다 285
▁설문조사를 285
▁센서의 285
▁스토리가 285
▁승무 285
▁알아보고 285
▁업종별 285
▁여야 285
▁여타 285
▁외국계 285
▁장기화로 285
▁재사용 285
▁전선을 285
▁조정하는 285
▁중요하다는 285
▁타협 285
▁함소 285
▁회복을 285
계로 285
공사의 285
그라 285
덱 285
론과 285
모습 285
부부의 285
쓸 285
았으나 285
재정 285
치면서 285
커녕 285
트롯 285
프라이 285
▁"2 284
▁가벼 284
▁경관이 284
▁국민들의 284
▁기사가 284
▁나갔다 284
▁나뉘 284
▁능력과 284
▁다닐 284
▁대명 284
▁대학이 284
▁도시계획 284
▁둥근 284
▁들어서면서 284
▁무선호출 284
▁빚어 284
▁사업장에서 284
▁상온 284
▁새도우마스크 284
▁스캐 284
▁신호로 284
▁아우디의 284
▁어느새 284
▁어둠 284
▁엄청나게 284
▁예의 284
▁오차 284
▁올라왔다 284
▁웨이퍼에 284
▁유성 284
▁의무적으로 284
▁인버터 284
▁작사 284
▁중력 284
▁캠페 284
▁케미를 284
▁테라 284
▁특성의 284
▁팔을 284
▁팬데믹 284
▁필요하지 284
구성 284
기기를 284
례가 284
막은 284
시장과 284
암을 284
움은 284
작업이 284
주의의 284
항의 284
▁7% 283
▁RV 283
▁경제는 283
▁고속으로 283
▁낭비 283
▁논의했다 283
▁대유 283
▁도매 283
▁동쪽의 283
▁드럼 283
▁뚫고 283
▁만들어내는 283
▁무서운 283
▁물체가 283
▁박준 283
▁불투명 283
▁사퇴 283
▁삼성의 283
▁상해 283
▁상황에서는 283
▁상황으로 283
▁악화로 283
▁알린 283
▁역사와 283
▁유발할 283
▁이연 283
▁일상적인 283
▁자사주 283
▁잠실 283
▁전자기기 283
▁절대로 283
▁접점 283
▁정밀하게 283
▁조속히 283
▁주최하는 283
▁증정한다 283
▁키패 283
▁톰 283
▁프레임을 283
▁학부모의 283
▁핵심적인 283
기한 283
농업 283
들이는 283
새로운 283
선물 283
시키는데 283
자영업 283
태가 283
.... 282
3,000 282
▁93 282
▁St 282
▁가옥 282
▁강북 282
▁개인위생 282
▁거슬러 282
▁계속되는 282
▁고충 282
▁교통은 282
▁기간보다 282
▁기관에 282
▁긴급재난지원금 282
▁도모하는 282
▁도와주는 282
▁도착한 282
▁둘러싸인 282
▁많았던 282
▁명백 282
▁모형을 282
▁부문을 282
▁살이 282
▁상임 282
▁상품과 282
▁수에 282
▁시청자의 282
▁어색 282
▁없음을 282
▁엽 282
▁자기자본 282
▁차별화 282
▁최강 282
▁트렌드 282
▁팔린 282
▁프로젝트가 282
▁해외여행 282
기능이 282
기다 282
담보 282
림으로 282
성분 282
손실이 282
수칙 282
운전자 282
적용 282
질과 282
포스트 282
휠 282
히지 282
▁AC 281
▁CS 281
▁r 281
▁가능하여 281
▁가능했다 281
▁가이드라인을 281
▁가져온 281
▁거짓말 281
▁결석 281
▁계기를 281
▁남구 281
▁높아져 281
▁다시금 281
▁도급 281
▁돼지 281
▁발견할 281
▁보복 281
▁보험사가 281
▁사업장의 281
▁선생님이 281
▁수소차 281
▁슬립 281
▁시행한다 281
▁실시예는 281
▁쏟아지는 281
▁아미 281
▁영업이익은 281
▁외국인과 281
▁용기를 281
▁이다 281
▁이세 281
▁인물의 281
▁일대에서 281
▁재계 281
▁전략에 281
▁좌석 281
▁지속되는 281
▁출력하는 281
▁커패시터 281
▁케이블의 281
▁티볼리 281
▁패키 281
▁폴더블 281
▁퓨즈 281
▁학부모님께서 281
▁함안 281
▁헌혈 281
기업들이 281
되었기 281
레이션을 281
르면서 281
리안 281
리적 281
병에 281
세탁 281
엣 281
주에서 281
지대 281
후가 281
▁게스트로 280
▁격자 280
▁공연이 280
▁광장 280
▁구성한다 280
▁구해 280
▁국토교통 280
▁내구성이 280
▁달러로 280
▁돈으로 280
▁동산 280
▁딸을 280
▁떼어 280
▁무작 280
▁바뀌고 280
▁변수가 280
▁분야에서는 280
▁불필요 280
▁비슷하게 280
▁비용과 280
▁성적을 280
▁소속된 280
▁수수료가 280
▁스폰서 280
▁시장과 280
▁신체적 280
▁애로 280
▁앨범을 280
▁영감을 280
▁올라가면 280
▁이뤄져야 280
▁재판을 280
▁조치는 280
▁종류에 280
▁코레일 280
▁코스피가 280
▁펼쳐졌다 280
▁해커 280
▁향상되고 280
▁현대의 280
가리 280
공정의 280
그는 280
기억 280
는데도 280
님과 280
생물 280
셔널 280
소설 280
전지에 280
직업 280
추진 280
71 279
∼200 279
▁가슴이 279
▁그리드 279
▁극단적인 279
▁기와 279
▁꿈꾸는 279
▁끌어올렸다 279
▁나가고 279
▁넘을 279
▁놓았다 279
▁다할 279
▁도입에 279
▁드문 279
▁멤버십 279
▁명목으로 279
▁미사 279
▁볼보는 279
▁붙었다 279
▁비상장 279
▁사실과 279
▁생산량을 279
▁소용 279
▁수몰 279
▁식민 279
▁약속한 279
▁어려 279
▁유흥 279
▁일본과 279
▁전지로 279
▁젊은이 279
▁주변으로 279
▁줄면서 279
▁철폐 279
▁취향 279
▁카메라에 279
▁코인 279
▁클러스터 279
▁텅스텐 279
▁팔렸다 279
▁팩스 279
▁폭넓게 279
▁프로젝트에 279
▁프리미 279
▁하루가 279
▁합류하는 279
▁해치백 279
▁혈관 279
▁호응 279
결핵 279
근이 279
르의 279
미술 279
생존 279
수수료 279
시쯤 279
예를 279
조와 279
중공업 279
지역을 279
창이 279
채는 279
콕 279
평을 279
푸드 279
환의 279
OR 278
WS 278
▁ESS 278
▁간과 278
▁거점 278
▁달라는 278
▁드라마가 278
▁마디 278
▁맺었다 278
▁머물러 278
▁배틀 278
▁보류 278
▁부근에 278
▁분출 278
▁불편이 278
▁비대칭 278
▁비상이 278
▁생활임금 278
▁세계대전 278
▁소형차 278
▁손잡 278
▁시청률을 278
▁쌓인 278
▁약정 278
▁우리은행이 278
▁웨이퍼가 278
▁위기의 278
▁은평 278
▁자유로 278
▁작업은 278
▁적격 278
▁정량 278
▁주행할 278
▁지구를 278
▁지위 278
▁최상의 278
▁충실 278
▁캄보디아 278
▁콜로라도 278
▁투명한 278
▁판넬 278
▁평가는 278
▁프로브 278
▁하락을 278
▁한국어 278
그래피 278
나무와 278
님께서 278
덩이 278
사회에 278
실업 278
에너지를 278
잡을 278
특허 278
해서도 278
GDP 277
RT 277
▁202 277
▁240 277
▁경영을 277
▁김형 277
▁낙관 277
▁느꼈다 277
▁다수개의 277
▁단면 277
▁달해 277
▁문제점 277
▁발전할 277
▁방향과 277
▁분쟁이 277
▁불안감을 277
▁상여 277
▁상태는 277
▁선정했다 277
▁스피커를 277
▁신뢰도를 277
▁아메리카 277
▁연출을 277
▁인용해 277
▁장윤 277
▁장치로 277
▁재학생 277
▁전자담배 277
▁중으로 277
▁지원했다 277
▁집주 277
▁캐릭터로 277
▁클린 277
▁평형 277
▁한편으로는 277
▁행렬 277
▁현장에서는 277
극을 277
돼지 277
들에게도 277
만명으로 277
묘한 277
세기에 277
크에 277
호화 277
혹한 277
▁1920 276
▁20∼30 276
▁BTS 276
▁가난 276
▁결합하여 276
▁고교 276
▁국부 276
▁기자가 276
▁김명환 276
▁남산 276
▁대동 276
▁도입할 276
▁만전을 276
▁박재 276
▁부패 276
▁붕 276
▁사라지는 276
▁상승으로 276
▁상에서 276
▁생각보다 276
▁서로에게 276
▁성장해 276
▁수증 276
▁수치다 276
▁슬라이딩 276
▁승차감을 276
▁썸 276
▁에너지는 276
▁원칙으로 276
▁음성인식 276
▁이용하지 276
▁인체에 276
▁일원 276
▁저지른 276
▁정세 276
▁증거를 276
▁지나친 276
▁질이 276
▁착안 276
▁철도가 276
▁추운 276
▁케이스에 276
▁투자자들은 276
▁팀의 276
▁파생상품 276
▁피아노 276
▁하나님의 276
▁한국경제 276
▁합의한 276
水 276
숍 276
쑤 276
운트 276
이체 276
토는 276
협약을 276
▁가볍게 275
▁가슴을 275
▁것과는 275
▁것이므로 275
▁금융지원 275
▁나눴다 275
▁나라에서 275
▁낙엽 275
▁내어 275
▁당국 275
▁도시를 275
▁메르세데스벤츠 275
▁바다에 275
▁바닥을 275
▁부친 275
▁불가피하다 275
▁사업장을 275
▁설비를 275
▁순위가 275
▁여학생 275
▁영상에 275
▁옵 275
▁위태 275
▁일상이 275
▁입점 275
▁점과 275
▁접하는 275
▁조금이라도 275
▁주행거리 275
▁진행되며 275
▁채로 275
▁추격 275
▁출혈 275
▁친구들이 275
▁패키지에 275
▁학생들 275
▁효능 275
▁휠을 275
▁힘은 275
광주 275
냈고 275
뚜 275
주파수 275
증상이 275
찍 275
큘 275
LL 274
NG 274
ort 274
▁가능케 274
▁가족들이 274
▁간소화 274
▁갖지 274
▁고개가 274
▁광전 274
▁그것이다 274
▁그곳에서 274
▁냄새가 274
▁다이내믹 274
▁단편 274
▁도박 274
▁들어서는 274
▁만족할 274
▁맑고 274
▁목요일 274
▁몸과 274
▁방지하도록 274
▁베타 274
▁보도가 274
▁부위 274
▁비동기 274
▁상태이다 274
▁서서 274
▁서쪽의 274
▁설명이 274
▁소상공인과 274
▁소프트뱅크 274
▁시행되는 274
▁쏟아졌다 274
▁아우르는 274
▁아파트가 274
▁역량이 274
▁요청이 274
▁울창한 274
▁위반한 274
▁이시 274
▁자원이 274
▁적을 274
▁정밀한 274
▁제천시 274
▁죽어 274
▁중단했다 274
▁중시 274
▁증세가 274
▁질병관리본 274
▁차지할 274
▁콘서 274
▁튀어나 274
▁평가된다 274
▁폭은 274
▁표준화 274
교육이 274
남부 274
능한 274
딕 274
런트 274
본부장 274
상황이 274
선한 274
셰 274
손이 274
스트림 274
시킴 274
연속 274
유동 274
인베스트먼트 274
저수지가 274
지수는 274
집단 274
패드 274
함께 274
AV 273
▁걷는 273
▁것만으로도 273
▁경영권을 273
▁내구성을 273
▁눈높 273
▁맡게 273
▁목포 273
▁무대에서 273
▁물체를 273
▁보호에 273
▁불편함이 273
▁사태와 273
▁생활이 273
▁소음이 273
▁속도와 273
▁쇼트 273
▁시상식에서 273
▁시설로 273
▁연성 273
▁예방과 273
▁우뚝 273
▁월세 273
▁이야기로 273
▁일간 273
▁장안 273
▁전하며 273
▁전환에 273
▁정문 273
▁지원하기로 273
▁진한 273
▁최소화하고 273
▁춤을 273
▁측면을 273
▁코오롱 273
▁핸 273
▁홍수 273
▁확인돼 273
개월로 273
경고 273
드리고 273
박사 273
방송을 273
부족 273
석유 273
수요가 273
습관 273
시킴과 273
인재 273
줍니다 273
탬 273
특수 273
▁BJ 272
▁간담 272
▁과정으로 272
▁금리인하 272
▁뉴런 272
▁도구를 272
▁리드프레임 272
▁리얼리티 272
▁마시고 272
▁명으로 272
▁모으 272
▁문화와 272
▁배수 272
▁벤틀 272
▁복잡하고 272
▁북한의 272
▁분말 272
▁분양가 272
▁사서 272
▁상담이 272
▁설계된 272
▁세력 272
▁시키는 272
▁여덟 272
▁연결할 272
▁열리고 272
▁영업점 272
▁운문 272
▁주셔서 272
▁지급된다 272
▁지급해야 272
▁질적 272
▁총리는 272
▁판매하고 272
▁포용 272
▁프랑크푸르트 272
▁피사 272
▁할머니가 272
▁해산 272
▁현지에서 272
▁화석연료 272
▁확진환자 272
▁효율성이 272
만원대 272
메이 272
명도 272
뮬 272
벌레 272
볶 272
숨 272
연료 272
욱이 272
쪽에서 272
켰 272
클라우드 272
텔레콤과 272
펑 272
피스 272
Ah 271
▁1993 271
▁개발은 271
▁경사노 271
▁고착 271
▁골자로 271
▁금리는 271
▁기록했다고 271
▁남편의 271
▁내용도 271
▁돋보인다 271
▁드나 271
▁마스크의 271
▁맞추는 271
▁반영하는 271
▁번거 271
▁베스트 271
▁사용자들이 271
▁산줄 271
▁스포츠유틸리티차 271
▁시선 271
▁실시해 271
▁어느덧 271
▁우세 271
▁운영합니다 271
▁위치하는 271
▁응모 271
▁이전보다 271
▁저장하는 271
▁전까지는 271
▁전위 271
▁제작사 271
▁주소를 271
▁줄어들었다 271
▁지향하는 271
▁채용한 271
▁충격적인 271
▁칼슘 271
▁콘트롤 271
▁크리스마스 271
▁통신이 271
▁판타지 271
▁표시되는 271
▁한국노총은 271
▁현대자동차의 271
▁형식의 271
▁환기 271
▁활용한다 271
▁흩어져 271
공정에 271
라임 271
레드 271
력발전 271
븐 271
빽 271
사업으로 271
아리 271
웨이는 271
음으로써 271
제동 271
촌이 271
코스 271
페이지 271
89 270
ak 270
og 270
pe 270
▁SS 270
▁감성이 270
▁같아서 270
▁개선해 270
▁것일까 270
▁끊어 270
▁대표로 270
▁동안의 270
▁등급을 270
▁때면 270
▁로그인 270
▁마포 270
▁만나고 270
▁만들어져 270
▁모른 270
▁목표가 270
▁방사성 270
▁백성 270
▁사항에 270
▁생존을 270
▁선택에 270
▁세대가 270
▁신년 270
▁실내는 270
▁심도 270
▁원자력발전 270
▁인쇄회로기판의 270
▁일조 270
▁자세로 270
▁적극적 270
▁전파가 270
▁제고를 270
▁제재를 270
▁조작이 270
▁진전 270
▁추론 270
▁침묵 270
▁탱 270
▁파인 270
▁퍼포먼스를 270
▁평가에서 270
▁하나이다 270
광역시 270
마로 270
맥의 270
벽에 270
부채 270
실적이 270
웍 270
전압이 270
집행 270
코가 270
클리 270
툴 270
ne 269
▁320 269
▁구하기 269
▁근거리 269
▁덧 269
▁드라이 269
▁때를 269
▁뜻이 269
▁마르 269
▁맛을 269
▁메세 269
▁면적이 269
▁몹시 269
▁발생시 269
▁백신을 269
▁변신한 269
▁비율로 269
▁비트코인 269
▁빠질 269
▁사업부 269
▁사업장은 269
▁신뢰도가 269
▁아주머니 269
▁어리 269
▁엎 269
▁에디 269
▁유전자를 269
▁이순 269
▁인물로 269
▁인천광역시 269
▁재료는 269
▁전극과 269
▁전망하고 269
▁정책적 269
▁제거하기 269
▁조개 269
▁출격 269
▁출원 269
▁터를 269
▁튀는 269
▁한결 269
▁확대된 269
▁회복이 269
▁히터 269
그렇 269
노동자의 269
도전 269
둬 269
력도 269
병원의 269
산업을 269
썸 269
씨에 269
원이다 269
킬로 269
타가 269
협회에 269
화물 269
44 268
▁0.5% 268
▁81 268
▁LFP 268
▁감소와 268
▁거버넌 268
▁건식 268
▁고리 268
▁과제가 268
▁구급 268
▁남의 268
▁내부로 268
▁대기업의 268
▁등록을 268
▁디젤엔 268
▁마음대로 268
▁모의 268
▁발전이 268
▁변모 268
▁변신을 268
▁부회 268
▁불안정한 268
▁생각과 268
▁생산해 268
▁성장세가 268
▁수질 268
▁알맞은 268
▁액세스 268
▁언급하며 268
▁우리나라에서는 268
▁의사의 268
▁임직원이 268
▁잡힌 268
▁장착되는 268
▁전셋 268
▁정상에 268
▁좋았다 268
▁캐소드 268
▁팁 268
▁피서 268
▁흑자 268
규정 268
렉터 268
션은 268
스프 268
에어 268
오던 268
온은 268
일에서 268
진구 268
추는 268
펀드의 268
하기보다는 268
88 267
TI 267
TP 267
WD 267
ard 267
▁FTA 267
▁KAIST 267
▁경제학 267
▁관료 267
▁구성돼 267
▁국가와 267
▁긴장감이 267
▁나뉜다 267
▁노동을 267
▁누구보다 267
▁단숨에 267
▁데이터로 267
▁라운 267
▁미디어는 267
▁박형 267
▁발명을 267
▁비밀번호 267
▁사고에 267
▁사라질 267
▁설렘을 267
▁세우 267
▁소리로 267
▁식품의약품안전 267
▁쏟아지고 267
▁없었기 267
▁연기한 267
▁용이하다 267
▁원시 267
▁유의미한 267
▁이체 267
▁장인 267
▁저도 267
▁주주가 267
▁줄였다 267
▁커넥터에 267
▁코링크 267
▁테이 267
▁퍼스널 267
▁편에 267
▁플랫폼의 267
▁하중 267
▁화합물 267
▁활용을 267
가루 267
구조의 267
긍 267
껍 267
니스트 267
단위 267
러와 267
려서 267
만큼은 267
모와 267
발전을 267
벨트 267
사자 267
사장 267
원도 267
음성 267
쟁이 267
적이지만 267
전략을 267
전지는 267
지배 267
캐피털 267
해요 267
]. 266
est 266
▁감소시키는 266
▁건지 266
▁것의 266
▁구분된다 266
▁국적 266
▁그러던 266
▁금속을 266
▁깊어 266
▁느낀다 266
▁담당한다 266
▁덤 266
▁덴 266
▁독자적인 266
▁무대로 266
▁버렸다 266
▁변경이 266
▁변경할 266
▁상승세가 266
▁수료 266
▁수출규제 266
▁순간에 266
▁시작될 266
▁심상치 266
▁안면 266
▁영광 266
▁영재 266
▁운수 266
▁운전자를 266
▁원칙에 266
▁이용하기 266
▁장례 266
▁적용하면 266
▁제도로 266
▁증가세가 266
▁차단할 266
▁터키 266
▁텔레비 266
▁플랫폼인 266
▁피난 266
▁피어 266
▁하락으로 266
▁훌륭 266
가장 266
깡 266
내를 266
든가 266
략 266
배기 266
배출 266
분부터 266
사업장 266
신뢰 266
토스 266
현상 266
·16 265
▁가르쳐 265
▁값은 265
▁강점을 265
▁건보 265
▁김구 265
▁김명 265
▁납세 265
▁논의할 265
▁누리 265
▁단정 265
▁대기업이 265
▁도전하는 265
▁돌연 265
▁동성 265
▁딥 265
▁맞벌이 265
▁먹은 265
▁뮤 265
▁반성 265
▁방역당 265
▁부족하다는 265
▁분석하여 265
▁분석할 265
▁불확실성 265
▁비대 265
▁상고 265
▁상승하는 265
▁섭 265
▁성명 265
▁숫자를 265
▁안전보건 265
▁연비를 265
▁옥외 265
▁우정 265
▁원칙적으로 265
▁유쾌 265
▁이달부터 265
▁일산 265
▁임금체불 265
▁자리잡고 265
▁주기로 265
▁책이 265
▁판매했다 265
▁폭스바겐은 265
가게 265
갔고 265
공장이 265
기관에서 265
대역 265
링의 265
밀리 265
보험을 265
손해 265
유산 265
이에요 265
입자 265
전국 265
좋은 265
준호 265
진흥원이 265
카의 265
AMG 264
∼50 264
▁'2 264
▁가용 264
▁강제로 264
▁개발로 264
▁공식적인 264
▁구조물 264
▁구현하기 264
▁궁금해 264
▁기슭 264
▁남자의 264
▁낮았다 264
▁내부통제 264
▁네트 264
▁높이를 264
▁누락 264
▁던져 264
▁뒤따 264
▁등교를 264
▁디자인으로 264
▁리셋 264
▁무엇인 264
▁밑으로 264
▁박해 264
▁방향성을 264
▁보이그룹 264
▁불순물 264
▁생육 264
▁선제적 264
▁시리즈의 264
▁시민사회 264
▁시청률이 264
▁않겠다는 264
▁언론에 264
▁얼굴에 264
▁여파가 264
▁외형 264
▁요금제 264
▁웃음과 264
▁유진 264
▁이력이 264
▁작동하지 264
▁적자가 264
▁전지와 264
▁절반이 264
▁증언 264
▁충전이 264
▁취약계층과 264
▁퀄컴 264
▁투자와 264
▁프리미어 264
▁호수 264
모로 264
밀히 264
밑 264
방문 264
세이 264
앤이 264
업소 264
이라서 264
임에 264
자녀 264
찾 264
처의 264
▁OS 263
▁개인적으로 263
▁건수는 263
▁검출하여 263
▁경제적으로 263
▁고갈 263
▁고쳐 263
▁과학기술정보통신부가 263
▁관심은 263
▁그중에서도 263
▁기능성 263
▁기초생활 263
▁단독으로 263
▁대회를 263
▁디테 263
▁또래 263
▁망가 263
▁미치고 263
▁보름 263
▁부문은 263
▁설정하고 263
▁씨앗 263
▁영상과 263
▁요청에 263
▁유일 263
▁윤곽 263
▁의료기기 263
▁인원은 263
▁자기의 263
▁전기차는 263
▁정차 263
▁제거하고 263
▁지내는 263
▁지대가 263
▁집약 263
▁카메라와 263
▁퇴직금 263
▁트롯 263
▁특수고용직 263
▁팬들을 263
▁풍력 263
▁프로그램과 263
▁하기로 263
▁한국산업 263
▁한혜 263
▁활기 263
▁활약이 263
걸이 263
구리 263
그동안 263
남에 263
방법이 263
병은 263
분석을 263
세스 263
유닛 263
지능 263
축에 263
축의 263
탱크 263
프로그램을 263
현을 263
-4 262
EX 262
RO 262
▁간직 262
▁견고한 262
▁계산을 262
▁고액 262
▁과학기술정보통신부 262
▁국가는 262
▁국토교통부는 262
▁귀족 262
▁규범 262
▁기대와 262
▁대도시 262
▁동물의 262
▁메이저 262
▁모르게 262
▁미미 262
▁베뉴 262
▁사륜구동 262
▁셀토스 262
▁손이 262
▁수신되는 262
▁썩 262
▁아파 262
▁알바 262
▁양은 262
▁어디까지 262
▁어디서 262
▁에버 262
▁역임 262
▁오른다 262
▁외국인의 262
▁우려의 262
▁웬 262
▁음력 262
▁인연을 262
▁인터넷에 262
▁입는 262
▁전하고 262
▁정신이 262
▁증설 262
▁쪼개 262
▁탑재됐다 262
▁페라 262
▁하였습니다 262
▁헛 262
▁형상이 262
▁활짝 262
▁회화 262
大 262
관절 262
글로 262
다의 262
망은 262
블루 262
워진 262
젼 262
티드 262
47 261
▁h 261
▁가만히 261
▁강호 261
▁걸러 261
▁경인 261
▁경화 261
▁공장에 261
▁그것도 261
▁근로시간을 261
▁내려다 261
▁넘어설 261
▁노출되어 261
▁논문에서는 261
▁다이애 261
▁더하고 261
▁떠오르고 261
▁많다고 261
▁물질은 261
▁발표가 261
▁부총리는 261
▁브리핑에서 261
▁비공 261
▁설정하는 261
▁세대의 261
▁수거 261
▁수년 261
▁스카우트 261
▁실재 261
▁않던 261
▁앞장 261
▁어쨌든 261
▁역사는 261
▁연출한 261
▁원격제어 261
▁원주 261
▁이득을 261
▁이상적인 261
▁인정받아 261
▁작곡가 261
▁점령 261
▁제어하기 261
▁준비에 261
▁줘야 261
▁지속해서 261
▁컨버터블 261
▁코란 261
▁페이스북은 261
▁포트 261
▁폭스바겐의 261
▁플랫폼에서 261
▁혼자서 261
▁흠 261
▁희망퇴직을 261
구청장은 261
기기에 261
기면 261
기면서 261
너스 261
목의 261
분쟁 261
소년 261
수용 261
안보 261
일인 261
장치로 261
편은 261
했음에도 261
현황 261
WHO 260
▁'4 260
▁PDP 260
▁TF 260
▁WHO 260
▁감안할 260
▁고용률은 260
▁공영 260
▁그녀를 260
▁글쓰 260
▁긴밀한 260
▁길로 260
▁눈부 260
▁다목적 260
▁달걀 260
▁드러내고 260
▁만인 260
▁많으며 260
▁몰랐다 260
▁무엇일까 260
▁미용 260
▁밝히는 260
▁보라 260
▁부당해고 260
▁부합하는 260
▁비롯된 260
▁비탈 260
▁상암 260
▁생중계 260
▁소홀 260
▁소환 260
▁시도를 260
▁시위를 260
▁신호에 260
▁어렵기 260
▁어린이가 260
▁용암 260
▁웨어러블 260
▁유용하게 260
▁음악이 260
▁이미지의 260
▁인버 260
▁인식할 260
▁작가는 260
▁전기자 260
▁주장한 260
▁쥐고 260
▁지리적 260
▁질병을 260
▁착한 260
▁템 260
▁화석 260
▁확대된다 260
개사 260
거래가 260
공원이 260
규모가 260
깨 260
명씩 260
반응을 260
방식으로 260
성이다 260
아이돌 260
업체는 260
오프라인 260
장관 260
쥬 260
퍼스 260
학술 260
ice 259
▁IM 259
▁of 259
▁관계자들은 259
▁국가에 259
▁군집 259
▁기운이 259
▁김우 259
▁나루 259
▁낮다는 259
▁누군 259
▁느끼지 259
▁단체교섭 259
▁당시에 259
▁대림 259
▁대학원 259
▁도입으로 259
▁동구 259
▁든든한 259
▁디바이스의 259
▁디스플레이를 259
▁뚜렷하게 259
▁매체의 259
▁발달하여 259
▁보건당 259
▁불러일으키 259
▁비행기 259
▁상처가 259
▁서버를 259
▁알렉 259
▁액상 259
▁양국 259
▁없는데 259
▁에너지로 259
▁엔씨소프트 259
▁오피 259
▁워크숍 259
▁은행에서 259
▁이론이 259
▁이벤트가 259
▁일컫 259
▁임대주택 259
▁있어서도 259
▁전진 259
▁접한 259
▁제네시스는 259
▁증가하여 259
▁착수했다 259
▁창출하는 259
▁찾아내 259
▁체제로 259
▁탐방 259
▁탱크 259
▁폴리실리콘 259
▁현실에서 259
金 259
드시 259
또는 259
로에서 259
보전 259
사에게 259
손을 259
시킨다는 259
오름 259
잖아 259
절차를 259
정수 259
찬을 259
첨 259
포스 259
act 258
ode 258
up 258
▁감원 258
▁고도가 258
▁고맙 258
▁관리자 258
▁구성됐다 258
▁기아자동차는 258
▁다가올 258
▁대상인 258
▁땅이 258
▁떠오르는 258
▁멈춘 258
▁바쁘시더라도 258
▁박막트랜지스터 258
▁받기도 258
▁방향은 258
▁부동 258
▁부탁드리며 258
▁비영리 258
▁색을 258
▁섞여 258
▁성능에 258
▁수집한 258
▁순간이 258
▁시민이 258
▁우려로 258
▁우려하고 258
▁인생의 258
▁있더라도 258
▁작용하고 258
▁잣 258
▁장르를 258
▁장착해 258
▁제반 258
▁종목은 258
▁증권사가 258
▁증기 258
▁지원은 258
▁추가했다 258
▁콘센 258
▁투어 258
▁푹 258
▁피해는 258
▁한마디 258
▁해외에 258
▁흐르면서 258
그를 258
년보다 258
룰 258
법원 258
보고서 258
사회복지 258
월로 258
임으로써 258
전기차 258
혁의 258
4,000 257
▁고민하는 257
▁극단 257
▁금통 257
▁기능으로 257
▁기원하며 257
▁김연 257
▁꽃을 257
▁대안이 257
▁둘이 257
▁때문이 257
▁똑똑 257
▁로터 257
▁르노삼성의 257
▁리브 257
▁미래에셋대우 257
▁바쁘 257
▁방송의 257
▁산업에서 257
▁세단의 257
▁세웠 257
▁수사에 257
▁순차 257
▁순천 257
▁신뢰가 257
▁아이덴티 257
▁연관이 257
▁연장근로 257
▁오르며 257
▁와이파이 257
▁운용사 257
▁운용하는 257
▁유동성이 257
▁은폐 257
▁이례 257
▁이용자들의 257
▁정화 257
▁조절하여 257
▁주변은 257
▁증식 257
▁지수는 257
▁지원으로 257
▁질서 257
▁찢 257
▁참석하고 257
▁창출할 257
▁파헤 257
▁팬들은 257
▁해외로 257
▁화려 257
▁회색 257
더스 257
마력의 257
마에 257
미스 257
뱉 257
버그 257
베스트 257
않 257
윙 257
으론 257
제도의 257
쳤고 257
품은 257
DB 256
▁9000 256
▁강하고 256
▁개최된 256
▁기술도 256
▁기업이다 256
▁늘린 256
▁능력은 256
▁대리점 256
▁디트로이트 256
▁룰 256
▁받아들 256
▁뱅크 256
▁부산지역 256
▁빠짐없이 256
▁산업안전보건 256
▁상용화를 256
▁순간을 256
▁쉬는 256
▁앤드 256
▁영화와 256
▁운행을 256
▁위축된 256
▁유력한 256
▁이뤘다 256
▁익혀 256
▁일본인 256
▁입력하면 256
▁줘 256
▁지급하지 256
▁지점을 256
▁출시하는 256
▁친척 256
▁콧 256
▁파손을 256
▁한방 256
▁핸드오버 256
▁형평 256
▁효과로 256
갈등 256
거리에 256
구하고 256
놀로지 256
변동 256
시행 256
주의가 256
체제를 256
축이 256
킹을 256
하청 256
확진 256
KB 255
ME 255
▁NCM 255
▁가깝다 255
▁강구 255
▁검거 255
▁고백했다 255
▁공급한다 255
▁과금 255
▁국경 255
▁금전 255
▁기대하는 255
▁꿰 255
▁다가가 255
▁대응하고 255
▁대형마트 255
▁등록한 255
▁미쓰 255
▁받았다는 255
▁부르며 255
▁브라운관 255
▁서식하고 255
▁선호도가 255
▁소상공인의 255
▁순위를 255
▁신세 255
▁압수수색 255
▁여럿 255
▁예부터 255
▁옹성 255
▁원청 255
▁의문이 255
▁이현 255
▁인건 255
▁인원을 255
▁인접해 255
▁인정하지 255
▁제외된다 255
▁종양 255
▁중시하는 255
▁지중 255
▁차원이 255
▁최상 255
▁컸던 255
▁크루 255
▁풍력발전 255
▁해석할 255
▁홍보를 255
▁흩 255
겸 255
권에서 255
노무 255
링은 255
매각 255
박물 255
보도 255
싱을 255
에이치 255
으려면 255
킬로미터 255
태평양 255
퍼를 255
포르 255
하세요 255
학년은 255
해의 255
회사와 255
∼12 254
▁7,000 254
▁91 254
▁98 254
▁MMORPG 254
▁VIP 254
▁WSJ 254
▁가로지 254
▁가정통신 254
▁계발 254
▁과학의 254
▁관리와 254
▁국제표준 254
▁그려진 254
▁나오자 254
▁내밀 254
▁놀이터 254
▁뇌의 254
▁대량으로 254
▁드물 254
▁러닝 254
▁링컨 254
▁매물 254
▁맥락에서 254
▁변화하고 254
▁살리기 254
▁상대방 254
▁소나무가 254
▁어려움에 254
▁용산구 254
▁위치에서 254
▁유지하며 254
▁인하에 254
▁재단 254
▁재원 254
▁저마다 254
▁전소 254
▁정규직화 254
▁줄곧 254
▁지표가 254
▁직장을 254
▁집권 254
▁초보 254
▁추가됐다 254
▁출국 254
▁출력되는 254
▁파악한 254
▁호소하는 254
▁호의 254
▁확대되는 254
▁확산되는 254
谷 254
년식 254
대형 254
사회가 254
세트 254
소유 254
아침 254
종과 254
축제 254
플렉 254
IA 253
TO 253
pl 253
▁CBS 253
▁감각적인 253
▁개인적 253
▁구축했다 253
▁규모다 253
▁금지하는 253
▁기능의 253
▁단말의 253
▁닿지 253
▁대처할 253
▁등에도 253
▁만만치 253
▁미처 253
▁배경이 253
▁배워 253
▁뱃 253
▁보도에 253
▁사슬 253
▁상회 253
▁세대를 253
▁실현하기 253
▁아끼 253
▁영등포 253
▁이들에 253
▁이벤트는 253
▁지난해에는 253
▁지시를 253
▁최대주 253
▁출시하고 253
▁팀장은 253
▁피가 253
▁획기적인 253
길로 253
나도 253
느냐는 253
대면 253
분사 253
생들이 253
스튜디오 253
식물 253
월은 253
임금을 253
천리 253
후보 253
43 252
▁개발의 252
▁견딜 252
▁곡선 252
▁과거를 252
▁과학자 252
▁구성은 252
▁군데 252
▁군락 252
▁늘었고 252
▁다루고 252
▁대인 252
▁델루나 252
▁돈은 252
▁레인 252
▁르노삼성차는 252
▁린 252
▁박막을 252
▁범행 252
▁복리후생 252
▁사이에서는 252
▁생겨난 252
▁성산 252
▁세계보건기구 252
▁센터페시아 252
▁송파구 252
▁실적은 252
▁실패한 252
▁아우디폭스바겐 252
▁어디에서 252
▁연결하고 252
▁열화를 252
▁영천 252
▁예측이 252
▁익스플로 252
▁일렉트릭 252
▁일주 252
▁잃게 252
▁진지하게 252
▁측정한 252
▁컴퓨터에 252
▁학교운영 252
▁형광체 252
가을 252
끄러운 252
나무를 252
네가 252
단체의 252
대교 252
될지 252
두의 252
들였다 252
마일 252
먹는 252
소득세 252
스탠 252
슨이 252
승이 252
열과 252
운수 252
이었다는 252
있던 252
자라는 252
직은 252
터링 252
턴스 252
필터 252
7,000 251
FA 251
▁걷고 251
▁교장 251
▁구성했다 251
▁구속영 251
▁그러니 251
▁기조가 251
▁노동부 251
▁농가 251
▁누군가가 251
▁대기업과 251
▁더해진 251
▁돌입한 251
▁되었다는 251
▁매물이 251
▁매장을 251
▁무엇인가 251
▁밀도를 251
▁베일을 251
▁변경된 251
▁분석하였다 251
▁생계를 251
▁셔틀 251
▁수백만 251
▁수와 251
▁수입을 251
▁신중하게 251
▁실험에 251
▁싫어 251
▁쓰일 251
▁않겠 251
▁않았으나 251
▁액정표시 251
▁어려웠 251
▁어우러 251
▁업무의 251
▁온도에 251
▁우월 251
▁의존하는 251
▁인상으로 251
▁전문성 251
▁젊 251
▁조성한 251
▁주저 251
▁중소벤처기업 251
▁짠 251
▁쪽이 251
▁콘텐츠에 251
▁파트너십을 251
▁한은은 251
▁행운이 251
▁협의해 251
▁형성하기 251
▁확고 251
▁효과와 251
가입자 251
강화 251
규는 251
느냐에 251
드린다 251
망에서 251
부착 251
왕을 251
장비를 251
잭 251
존중 251
주의는 251
집은 251
침해 251
특성이 251
42 250
oc 250
▁가꾸 250
▁강아 250
▁격차를 250
▁계면 250
▁넘긴 250
▁만들지 250
▁발원하여 250
▁발전하고 250
▁방문을 250
▁별개로 250
▁보이기 250
▁사소한 250
▁사실도 250
▁속성을 250
▁수년간 250
▁실루엣 250
▁업종에 250
▁없애고 250
▁엔진오일 250
▁용도 250
▁움직임에 250
▁위협하는 250
▁유지한다 250
▁잘못을 250
▁재능을 250
▁저널리즘의 250
▁전극에 250
▁정관 250
▁정영 250
▁조건에서 250
▁조금만 250
▁중단하고 250
▁초래할 250
▁초점이 250
▁총파업을 250
▁충청남도 250
▁토크쇼 250
▁편견 250
▁평상 250
▁피부에 250
▁화웨이가 250
가격은 250
격리 250
금리로 250
넣 250
레버 250
마크 250
맥스 250
모니 250
무선 250
부분에 250
시키므로 250
인공지능 250
젯 250
주에게 250
중앙회 250
즈와 250
지원센터 250
현대산업개발 250
혜의 250
orm 249
▁가상화폐 249
▁개최하고 249
▁겸용 249
▁골짜기가 249
▁귀한 249
▁기록된 249
▁뜻에서 249
▁레스토랑 249
▁마땅한 249
▁마트 249
▁박근혜 249
▁법적으로 249
▁벽에 249
▁보여주며 249
▁사라져 249
▁산소가 249
▁상장사 249
▁성장의 249
▁소재가 249
▁손상이 249
▁수출은 249
▁스포티지 249
▁신념 249
▁신흥국 249
▁아버지를 249
▁업종의 249
▁왓 249
▁원래의 249
▁익명 249
▁인프라가 249
▁잦아 249
▁접해 249
▁정서적 249
▁제네시 249
▁존경 249
▁주고받는 249
▁증가율이 249
▁직면한 249
▁직원과 249
▁콘택홀 249
▁키즈 249
▁학업 249
▁항소 249
▁허물 249
▁현미 249
▁형식을 249
국대 249
너무 249
더를 249
르크 249
박을 249
연하게 249
제도는 249
집에서 249
토로 249
패턴을 249
하기만 249
AA 248
HE 248
▁가해지는 248
▁걸었다 248
▁고도의 248
▁고성 248
▁관객들이 248
▁교과서 248
▁금융당국의 248
▁금융사가 248
▁기업에서 248
▁담배를 248
▁대학에서 248
▁데뷔한 248
▁따서 248
▁런 248
▁리프트 248
▁메탄 248
▁명칭을 248
▁미만인 248
▁발목을 248
▁벅 248
▁본다면 248
▁삼성이 248
▁설치를 248
▁셀프 248
▁스며 248
▁않으나 248
▁열람 248
▁유지해 248
▁자격이 248
▁자란 248
▁잠수 248
▁전개에 248
▁전구 248
▁정신질환 248
▁제사를 248
▁증거가 248
▁지구가 248
▁채널이 248
▁추가된 248
▁취한 248
▁캐비 248
▁표현해 248
▁하락할 248
▁하반기에 248
▁활용하기 248
고등 248
긴급 248
년부터는 248
방식의 248
승을 248
에요 248
여덟 248
환자의 248
ers 247
▁감각을 247
▁경쟁사 247
▁골드 247
▁구현한 247
▁기피 247
▁나라는 247
▁난방 247
▁넘어섰 247
▁농성 247
▁대금 247
▁대성 247
▁대중에게 247
▁따라서는 247
▁매체는 247
▁뭘 247
▁반려 247
▁발전기 247
▁법안을 247
▁보호자 247
▁불복 247
▁브랜드에 247
▁비관 247
▁뻗은 247
▁산자 247
▁산지를 247
▁살펴본 247
▁생성되는 247
▁서울중앙 247
▁앰 247
▁운전면허 247
▁유증상 247
▁음극선 247
▁이리 247
▁이전부터 247
▁일찍부터 247
▁자석 247
▁저의 247
▁전반의 247
▁전의 247
▁정부도 247
▁좁혀 247
▁주방 247
▁증가했고 247
▁지탱 247
▁탄생을 247
▁토스 247
▁특수고용 247
▁판매한다 247
▁포트폴리오를 247
▁행사로 247
▁호텔에서 247
▁화질을 247
검출 247
고기 247
그룹과 247
근을 247
대전 247
시키거나 247
심으로 247
악산 247
언스 247
입을 247
줍 247
지역으로 247
폐쇄 247
하기까지 247
하에서 247
ub 246
▁RS 246
▁가톨릭 246
▁강탈 246
▁개념의 246
▁경사노위 246
▁계곡이 246
▁고령자 246
▁국가적 246
▁기울여 246
▁꼽혔다 246
▁끼어 246
▁낱 246
▁내성 246
▁넉넉 246
▁넣는 246
▁네덜란드 246
▁노동법 246
▁노력하는 246
▁높을수록 246
▁돌발 246
▁레전드 246
▁못했고 246
▁문구가 246
▁불법파견 246
▁사태는 246
▁삼국 246
▁성주 246
▁세계는 246
▁소개한 246
▁속을 246
▁숲을 246
▁시멘 246
▁신차가 246
▁알리기 246
▁알츠하이머 246
▁언니 246
▁연관성이 246
▁예방하는 246
▁예측하는 246
▁옛날에 246
▁요즘은 246
▁이데올로 246
▁이름과 246
▁일제강점기 246
▁자료는 246
▁자세하게는 246
▁장중 246
▁전압의 246
▁전화가 246
▁정체를 246
▁좌절 246
▁주도하고 246
▁주장하며 246
▁지난해에 246
▁직진 246
▁짐작할 246
▁집은 246
▁징계를 246
▁짧고 246
▁초전도 246
▁출력이 246
▁취하는 246
▁파운드리 246
▁판정이 246
▁플렉 246
▁하구 246
▁효자 246
녹두 246
룻 246
르노 246
변조 246
스페이스 246
억여 246
조차도 246
터미널 246
투자는 246
티의 246
350 245
▁가파르게 245
▁간섭을 245
▁개미 245
▁개발됐다 245
▁골고루 245
▁관점을 245
▁금성 245
▁금융지주 245
▁기숙 245
▁기억에 245
▁남용 245
▁노래가 245
▁농업용 245
▁단호 245
▁덕분이다 245
▁되지만 245
▁마릴 245
▁맞다 245
▁뭉클 245
▁발탁 245
▁방송에는 245
▁변형이 245
▁볼보의 245
▁부산항 245
▁부엌 245
▁부임 245
▁사장과 245
▁상이 245
▁서해안 245
▁세그먼트 245
▁손님이 245
▁신청은 245
▁실리콘밸 245
▁연루 245
▁요금을 245
▁웅진 245
▁워터 245
▁육상 245
▁육성을 245
▁융자 245
▁재밌 245
▁전형 245
▁점유율은 245
▁정월 245
▁지나가고 245
▁창고 245
▁충원 245
▁클립 245
▁통학 245
▁파격 245
▁패키징 245
▁한자로 245
▁향상될 245
겨진 245
곳으로 245
교육지원청 245
기간은 245
단지가 245
루프 245
목표 245
물량 245
방정 245
브는 245
석에서 245
센터로 245
수칙을 245
쉽 245
위생 245
으면서도 245
제이 245
플러그 245
회의는 245
▁API 244
▁XT 244
▁같고 244
▁국산화 244
▁권역 244
▁기계가 244
▁기대에 244
▁김광 244
▁늪 244
▁다스 244
▁리콜을 244
▁마리가 244
▁무기계약직 244
▁보건의료 244
▁부응 244
▁불특정 244
▁사건과 244
▁사업장이 244
▁사원 244
▁산에 244
▁생명보험 244
▁생일 244
▁서사 244
▁송전 244
▁시작하면 244
▁신도시 244
▁실업자가 244
▁안타까움을 244
▁올라간다 244
▁옮기는 244
▁인지하고 244
▁장관의 244
▁재래 244
▁적법 244
▁전반을 244
▁주무 244
▁죽음 244
▁취약계층이 244
▁캐리 244
▁편향요 244
▁평가에 244
▁한국거래 244
▁협력이 244
▁확대되면서 244
▁확인해야 244
▁활기를 244
각각 244
고령 244
더는 244
됐습니다 244
들며 244
디는 244
메이트 244
무늬 244
사법 244
애를 244
왕은 244
정산 244
주의에 244
지노 244
층에는 244
치다 244
태를 244
할인 244
현장의 244
▁0.3 243
▁가격과 243
▁가족은 243
▁경우다 243
▁곡저 243
▁구경 243
▁기획재 243
▁김천시 243
▁깨고 243
▁꼬집었다 243
▁다룬다 243
▁단층 243
▁달을 243
▁되었을 243
▁드레 243
▁렌털 243
▁리뷰 243
▁마을에는 243
▁머리카 243
▁민생 243
▁바다가 243
▁박영 243
▁백제 243
▁부진을 243
▁사랑스러운 243
▁사업자의 243
▁산업통상자원부 243
▁선명 243
▁여겨진다 243
▁원전 243
▁입출 243
▁입출력 243
▁자동응답 243
▁장미 243
▁접속을 243
▁지침에 243
▁최하 243
▁판단한다 243
▁팬들에게 243
▁평가하고 243
▁하강 243
▁함유된 243
▁해결해 243
▁핸즈 243
▁현실과 243
▁회사들이 243
국민은행 243
당국은 243
더가 243
산업에 243
수영 243
여건 243
운동이 243
유도 243
자리가 243
작가 243
재단은 243
협정 243
화하기 243
API 242
▁BBC 242
▁감찰 242
▁공표 242
▁근래 242
▁금호타이어는 242
▁꼬리 242
▁납땜 242
▁노사민정 242
▁놀란 242
▁농도를 242
▁동조 242
▁레이아웃 242
▁막상 242
▁메이크 242
▁멤버들은 242
▁무성 242
▁법인세 242
▁부산에서 242
▁분석과 242
▁사용해야 242
▁샤오 242
▁서버에 242
▁세월이 242
▁수칙을 242
▁식재 242
▁신청했다 242
▁실생활 242
▁실현을 242
▁알을 242
▁앱이 242
▁연대기 242
▁우울증 242
▁운영된다 242
▁의결권 242
▁이뤄져 242
▁이산화탄소를 242
▁이후부터 242
▁전동기의 242
▁접근하는 242
▁존재한다는 242
▁중추 242
▁추가해 242
▁치료하는 242
▁턴 242
▁학습에 242
▁항공사 242
▁환경노동위원회 242
규칙 242
그것이 242
기게 242
내용을 242
리조 242
습니까 242
예측 242
정보가 242
카르 242
컨설팅 242
토의 242
퍼의 242
하이닉스 242
MG 241
▁CNBC 241
▁간선 241
▁감싸고 241
▁개인별 241
▁거꾸로 241
▁결합하는 241
▁공감대를 241
▁국토교통부가 241
▁그런데도 241
▁급감한 241
▁급식을 241
▁기술인 241
▁낸드 241
▁대기오염 241
▁도핑 241
▁딱딱 241
▁뜬 241
▁리니지 241
▁무상점검 241
▁바르게 241
▁보편적인 241
▁분노를 241
▁사천 241
▁산학 241
▁상승률이 241
▁생산량 241
▁순이었다 241
▁식민지 241
▁앱은 241
▁엠블럼 241
▁연기하는 241
▁영역은 241
▁온라인에서 241
▁왕이 241
▁운동은 241
▁전기차가 241
▁전기차에 241
▁중단한 241
▁챔피언 241
▁취지 241
▁태안 241
▁트와이스 241
▁포화 241
▁표했다 241
▁풍화 241
▁플렉시블 241
▁하락이 241
▁핵심인 241
▁행동은 241
▁후보가 241
▁휨 241
값에 241
국립 241
기관은 241
더블 241
반에 241
변화에 241
상태로 241
염이 241
중고 241
중단 241
츠는 241
코노미 241
퀘 241
킴이 241
택트 241
테마 241
통신은 241
폭은 241
혁명 241
MOU 240
ide 240
▁HP 240
▁고등학생 240
▁구입한 240
▁국제노동기구 240
▁급기야 240
▁끝을 240
▁내놓는다 240
▁내려와 240
▁내부를 240
▁내세워 240
▁놓치지 240
▁다음주 240
▁띤 240
▁램 240
▁모니터의 240
▁모으는 240
▁문이 240
▁밝고 240
▁방송될 240
▁벨로스터 240
▁복무 240
▁부가가치 240
▁부회장의 240
▁브레이크를 240
▁빠지는 240
▁속도에 240
▁수호 240
▁슬림 240
▁신사 240
▁안무 240
▁예매 240
▁완성도 240
▁용이하도록 240
▁이론적 240
▁이병 240
▁인연이 240
▁일시적 240
▁재규 240
▁재해석 240
▁정확도를 240
▁조수 240
▁종로 240
▁좌표 240
▁주인공으로 240
▁줄어들어 240
▁증가는 240
▁증가했다고 240
▁진영 240
▁차려 240
▁카카오가 240
▁케이뱅크 240
▁특급 240
▁파트 240
▁팔려 240
▁팩시밀 240
▁플래시 240
▁하이퍼 240
▁행복하게 240
▁혼란이 240
▁혼재 240
▁회전하는 240
떼 240
리학 240
링에 240
배의 240
브로드밴 240
억원과 240
왔지만 240
용역 240
하였다는 240
효가 240
▁1600 239
▁갑작 239
▁경찰청 239
▁국가를 239
▁급한 239
▁기관투자가 239
▁김제 239
▁내에는 239
▁노동정책 239
▁단자를 239
▁달릴 239
▁대규모로 239
▁되었으며 239
▁랭 239
▁몰입도를 239
▁묵직한 239
▁바이어 239
▁부드럽게 239
▁사과했다 239
▁사이가 239
▁사장의 239
▁산과 239
▁삶은 239
▁상황이었다 239
▁숨은 239
▁스마트폰과 239
▁시설과 239
▁시청할 239
▁앱으로 239
▁여기서는 239
▁연기에 239
▁오르면서 239
▁옴 239
▁운행이 239
▁원할 239
▁유전자가 239
▁육군 239
▁응답이 239
▁이어가는 239
▁인정받았다 239
▁인정할 239
▁잃지 239
▁임용 239
▁저를 239
▁절실 239
▁제주항공 239
▁조언을 239
▁주식회사 239
▁지부 239
▁캐패시 239
▁키운 239
▁파나 239
▁펀딩 239
▁표시하여 239
▁한국토 239
▁확정됐다 239
건설은 239
기판의 239
렬한 239
무진 239
병원과 239
센터장은 239
솥 239
시설의 239
이도 239
조각 239
주시면 239
팀장은 239
하겠지만 239
79 238
▁8,000 238
▁KDB 238
▁MOS 238
▁PEF 238
▁TDI 238
▁TSMC 238
▁검증을 238
▁경계로 238
▁경계에 238
▁고용노동부에 238
▁날씨에 238
▁너비 238
▁노동자에 238
▁다르기 238
▁다르다는 238
▁단말기가 238
▁답한 238
▁닷 238
▁독립된 238
▁돌아오 238
▁따른다 238
▁뜨겁다 238
▁를 238
▁바인더 238
▁반도 238
▁밝히지 238
▁법칙을 238
▁보건당국은 238
▁보였던 238
▁사정에 238
▁상세한 238
▁속이 238
▁스위치의 238
▁신영 238
▁양측은 238
▁어업 238
▁오케스트라 238
▁의사와 238
▁이르렀 238
▁인공지능을 238
▁일정에 238
▁일차 238
▁자연을 238
▁전현 238
▁정신과 238
▁정확하고 238
▁지루 238
▁취업규칙 238
▁트렌치 238
▁파일을 238
▁플루 238
▁하반기부터 238
▁한마디로 238
▁한복 238
▁해결하고 238
▁헬스 238
▁회사인 238
기구를 238
디스크 238
블록체인 238
설정 238
안테나 238
연예 238
울을 238
응답 238
조사는 238
청을 238
카드의 238
테스트 238
lect 237
▁105 237
▁1984 237
▁2500 237
▁270 237
▁BC 237
▁w 237
▁가깝게 237
▁같지만 237
▁관건 237
▁금연 237
▁급속한 237
▁노동시장의 237
▁노이즈를 237
▁눈과 237
▁대지 237
▁딸의 237
▁라디에이터 237
▁만의 237
▁몰랐 237
▁문서를 237
▁배터 237
▁보내주시기 237
▁사용하게 237
▁산업통상자원 237
▁상반 237
▁서울에 237
▁성격의 237
▁셀의 237
▁수성 237
▁시총 237
▁신청하여 237
▁실수를 237
▁쓰면 237
▁얻어진다 237
▁얼룩 237
▁완료되면 237
▁이용자는 237
▁인상적인 237
▁잃을 237
▁임금의 237
▁입자를 237
▁잡혀 237
▁창구 237
▁출연진 237
▁토크를 237
▁한숨을 237
▁휠과 237
▁휩싸 237
경비 237
그런데 237
능을 237
드래곤 237
로코 237
모터의 237
반기 237
산화물 237
섹 237
슈머 237
애플 237
얀 237
억원어치를 237
었는지 237
중계 237
코리아의 237
토리 237
해서다 237
홀딩스 237
▁가구에 236
▁건강관리 236
▁겨울을 236
▁공동연구 236
▁공익위원 236
▁교무 236
▁굴절 236
▁근로복지 236
▁급증하는 236
▁기관을 236
▁긴급재난 236
▁나서서 236
▁낮아질 236
▁다뤄 236
▁더는 236
▁독립적인 236
▁등장으로 236
▁미지급 236
▁박서 236
▁보인다고 236
▁보태 236
▁보행자 236
▁분명하게 236
▁뿜어 236
▁살았던 236
▁상술한 236
▁상표 236
▁생명의 236
▁생필 236
▁선순환 236
▁스스로를 236
▁승부 236
▁실체 236
▁싶다고 236
▁열풍 236
▁용해 236
▁월요일 236
▁은행을 236
▁의문의 236
▁인물을 236
▁자극하는 236
▁재무적 236
▁전문가는 236
▁전지에서 236
▁조형 236
▁좁고 236
▁진단이 236
▁차지하며 236
▁착각 236
▁체결하고 236
▁추상 236
▁탄탈 236
▁토종 236
▁투표를 236
▁표시할 236
▁하루를 236
▁학부모님과 236
▁헝 236
▁현장학습 236
龍 236
되기를 236
드레 236
릅니다 236
방해 236
수익을 236
실히 236
어나는 236
율로 236
중지 236
쳤던 236
쿵 236
태원 236
파로 236
포장 236
6,000 235
SE 235
▁1900 235
▁1~2 235
▁LH 235
▁개선되고 235
▁개정된 235
▁거는 235
▁걱정을 235
▁고령화 235
▁곤두 235
▁관찰할 235
▁구매가 235
▁기생충 235
▁까닭에 235
▁늦어 235
▁대공 235
▁도전을 235
▁되살 235
▁무증상 235
▁받아들이는 235
▁변속기를 235
▁보이면서 235
▁보편적 235
▁부담하는 235
▁부산국제 235
▁분주 235
▁블랙홀 235
▁사직 235
▁성능은 235
▁소비자와 235
▁속성 235
▁수석부회 235
▁안쪽 235
▁어촌 235
▁억제하여 235
▁없었지만 235
▁오염을 235
▁완전변경 235
▁원동 235
▁유니콘 235
▁유류 235
▁음악적 235
▁이해하지 235
▁인사가 235
▁임산 235
▁자료로 235
▁전시장을 235
▁전한 235
▁정반 235
▁지닌다 235
▁채굴 235
▁채널에 235
▁추세가 235
▁크랙 235
▁클로 235
▁협업해 235
결한 235
기아차가 235
넨 235
모터스 235
사회를 235
아래 235
어떤 235
으로부터의 235
의학과 235
전체 235
책임자 235
체계가 235
ge 234
▁2·4 234
▁5∼6 234
▁CF 234
▁감지하는 234
▁경우의 234
▁고급차 234
▁광주시 234
▁기초로 234
▁길에 234
▁닛산의 234
▁다크 234
▁대체하는 234
▁대학에 234
▁도우 234
▁돌아온다 234
▁두번째 234
▁뛰어나다 234
▁매개로 234
▁목욕 234
▁무서 234
▁반영하여 234
▁발길이 234
▁변하고 234
▁비스 234
▁사과를 234
▁생활치료 234
▁수식 234
▁슬러 234
▁신용대출 234
▁실험이 234
▁알려준다 234
▁얽힌 234
▁없었다고 234
▁엑소 234
▁엔지니어링 234
▁연계된 234
▁이름의 234
▁이혜 234
▁인정받은 234
▁일상에서 234
▁장내 234
▁접촉이 234
▁중량 234
▁진단검사를 234
▁참가하는 234
▁참고하셔서 234
▁최소화하여 234
▁출신인 234
▁태어 234
▁팬미팅 234
▁표면이 234
▁학계 234
▁한발 234
▁해임 234
▁화물차 234
▁화학과 234
▁확인하여 234
교수 234
권도 234
등은 234
마자 234
사관 234
사항에 234
실적을 234
안정을 234
옵 234
와이 234
이드를 234
절감 234
중개 234
턴트 234
틱스 234
판에서 234
VC 233
▁가리킨다 233
▁개최되는 233
▁객관적 233
▁견제 233
▁교외 233
▁구비하고 233
▁기독교 233
▁기밀 233
▁낮아지는 233
▁단체가 233
▁되풀이 233
▁리모컨 233
▁맞을 233
▁머리가 233
▁면밀히 233
▁목재 233
▁미래형 233
▁반영하고 233
▁버리는 233
▁변속기는 233
▁부위를 233
▁부인은 233
▁사장을 233
▁설계한 233
▁신규한 233
▁쓰레 233
▁아쉽 233
▁아픔을 233
▁알아차 233
▁양자역학 233
▁억제하고 233
▁없었다는 233
▁에피 233
▁열광 233
▁염색 233
▁외관은 233
▁요동 233
▁요청하는 233
▁우려하는 233
▁이서 233
▁인정받고 233
▁전환했다 233
▁제임스 233
▁조지아 233
▁주행성능을 233
▁질서를 233
▁출전 233
▁충무 233
▁취미 233
▁터트 233
▁테슬라의 233
▁표현하고 233
▁프로그래머 233
▁필름을 233
▁필요하고 233
▁하셨 233
▁해외금리 233
▁화학은 233
▁훈훈 233
▁힘써 233
경색 233
림에 233
박물관 233
분께 233
야구 233
정부와 233
종사자 233
주들이 233
진다는 233
체크 233
티스 233
환을 233
8,000 232
nm 232
▁UN 232
▁감염증이 232
▁감자 232
▁건강검진 232
▁관습 232
▁국토부 232
▁근원 232
▁김원 232
▁노동관계 232
▁단계의 232
▁도시가 232
▁돌을 232
▁동명 232
▁디스커버리 232
▁마그네슘 232
▁마련하기 232
▁막강한 232
▁머리에 232
▁물가상승 232
▁버스를 232
▁범위에 232
▁병원의 232
▁부근에서 232
▁분지 232
▁상호작용을 232
▁색상 232
▁세일즈 232
▁소통이 232
▁수술이 232
▁신고가 232
▁안심전환대출 232
▁애틋한 232
▁애프터 232
▁양면 232
▁양재 232
▁업무는 232
▁에릭 232
▁여성들이 232
▁연구원 232
▁유지될 232
▁의장 232
▁인위 232
▁임영웅 232
▁작품에서 232
▁적정한 232
▁접근을 232
▁정재 232
▁제안하는 232
▁제조원 232
▁조합이 232
▁차은 232
▁채택했다 232
▁추가적으로 232
▁추진한 232
▁탈취 232
▁포드는 232
▁하시 232
▁하청업체 232
▁학부모님들께서는 232
▁학부모위원 232
▁해고된 232
▁현실의 232
검찰 232
기서 232
노조의 232
다이오 232
다중 232
란은 232
류로 232
사진 232
스바 232
옴 232
와도 232
지점 232
톰 232
하곤 232
하이브리드 232
-3 231
▁AWD 231
▁Pro 231
▁간절 231
▁갑작스럽게 231
▁강소 231
▁결정되는 231
▁결정하고 231
▁계신 231
▁곳에는 231
▁관객들을 231
▁구분하여 231
▁구축이 231
▁꿈이 231
▁농산 231
▁담임선생님 231
▁대표되는 231
▁도구로 231
▁뒤에도 231
▁들어온다 231
▁등장하면서 231
▁똑같 231
▁로드맵 231
▁마다 231
▁맞출 231
▁문자로 231
▁반지 231
▁발광소자 231
▁밤을 231
▁보입니다 231
▁사옥 231
▁사정을 231
▁샌드 231
▁서대문 231
▁설명해 231
▁세우는 231
▁소요된다 231
▁실려 231
▁아우디는 231
▁않겠다고 231
▁알릴 231
▁앞다퉈 231
▁언더 231
▁얽혀 231
▁오래전부터 231
▁와이어링 231
▁유물 231
▁이번주 231
▁일으킨다 231
▁집적회로 231
▁차례에 231
▁철새 231
▁청렴 231
▁최대토크 231
▁타이포그래피 231
▁톡톡히 231
▁패스 231
▁패터닝 231
▁편안하게 231
▁평지가 231
▁하이브리드카 231
▁함량이 231
▁햇볕 231
▁혁신의 231
▁형태에 231
寺 231
경화 231
끈한 231
느러 231
립니다 231
방사 231
베이스 231
비행 231
었어요 231
엉 231
영어 231
율도 231
제철 231
폰의 231
피는 231
헬스 231
▁YG 230
▁감염증의 230
▁굵은 230
▁김보 230
▁깊고 230
▁노무현 230
▁단축할 230
▁던진 230
▁띄게 230
▁레지스트 230
▁말리 230
▁박용 230
▁발레 230
▁방에 230
▁법에 230
▁병원은 230
▁보낸다 230
▁부모님의 230
▁부총리 230
▁불매운동 230
▁사은 230
▁상대적 230
▁생생한 230
▁선정됐다고 230
▁선택하고 230
▁성폭 230
▁셧다운 230
▁수소를 230
▁시스템에서의 230
▁시작되자 230
▁시청자들이 230
▁신용정보 230
▁심리를 230
▁아래에서 230
▁역할도 230
▁영향력 230
▁올해보다 230
▁우측 230
▁웃었다 230
▁웹드라마 230
▁의회 230
▁일대에는 230
▁잦 230
▁정경 230
▁제약을 230
▁조항을 230
▁주제에 230
▁직업을 230
▁충방전 230
▁팀은 230
▁하였으며 230
▁한가 230
▁현재도 230
▁현존 230
▁혐의가 230
▁형성에 230
▁후진 230
각은 230
구니 230
년물 230
레이트 230
목과 230
반은 230
버렸다 230
부인 230
사각 230
상공회의소 230
숙박 230
언론 230
예금 230
워치 230
이하 230
작이 230
장비의 230
전압의 230
제거 230
중견 230
질에 230
파업을 230
파에 230
폐기 230
하나은행 230
함의 230
1,000 229
63 229
▁가능하기 229
▁가입자를 229
▁강해 229
▁개성을 229
▁거치면서 229
▁고부가 229
▁공정위는 229
▁관성 229
▁국제적 229
▁궁극 229
▁눈빛으로 229
▁도장 229
▁둔다 229
▁디바이스를 229
▁딴 229
▁때문인 229
▁머니 229
▁몸은 229
▁물줄 229
▁바뀐다 229
▁밝히며 229
▁사인 229
▁삼성증권 229
▁선택하면 229
▁송강 229
▁스케일 229
▁스크린을 229
▁시그널 229
▁시내버스 229
▁시장에서도 229
▁아빠가 229
▁악순환 229
▁열정을 229
▁오픈소스 229
▁용량의 229
▁운동의 229
▁운영과 229
▁위협을 229
▁유연하게 229
▁이번엔 229
▁인센티브를 229
▁일반적이다 229
▁일으켰다 229
▁자원의 229
▁작용한다 229
▁재료가 229
▁절대적인 229
▁제작발표회에 229
▁조명을 229
▁조상 229
▁종의 229
▁주간주행 229
▁주문이 229
▁주식형 229
▁지자체가 229
▁처리에 229
▁체중 229
▁총력을 229
▁칼럼 229
▁크기로 229
▁탑재돼 229
▁하였고 229
▁한경 229
▁합창 229
▁항복 229
▁후발 229
▁후퇴 229
가지로 229
냈다고 229
당국이 229
라서 229
무늬가 229
보살 229
억원대 229
전류가 229
지법 229
지원사업 229
질수록 229
캐스트 229
테이션 229
팀과 229
93 228
RE 228
WM 228
▁1800 228
▁각도를 228
▁공기의 228
▁구사 228
▁넘나 228
▁농축 228
▁닛 228
▁다르지만 228
▁당하는 228
▁당했다 228
▁덧붙여 228
▁로컬 228
▁맡겨 228
▁매체를 228
▁목사 228
▁반응하는 228
▁발달로 228
▁배로 228
▁산줄기가 228
▁선명한 228
▁스님 228
▁앉은 228
▁알고리즘이 228
▁어렵지만 228
▁에드 228
▁연료를 228
▁연예계 228
▁영화로 228
▁오토바이 228
▁올라온 228
▁울진 228
▁의상 228
▁의혹에 228
▁이상에서 228
▁일방 228
▁전통을 228
▁접종을 228
▁주택이 228
▁질량 228
▁챌린지 228
▁측과 228
▁측정을 228
▁캐피 228
▁커넥티드 228
▁케이스의 228
▁토로 228
▁통화가 228
▁투자하고 228
▁함을 228
▁현금으로 228
▁활용도가 228
곽 228
교과 228
내려 228
동원 228
론이다 228
모스 228
범위 228
봉에서 228
연히 228
오염 228
완화 228
의학 228
인원 228
진짜 228
취약계층 228
컴퍼니 228
품과 228
했듯이 228
98 227
DP 227
ob 227
▁ABS 227
▁OF 227
▁가득하시기를 227
▁거창 227
▁고출력 227
▁공정챔버 227
▁관계자가 227
▁국민청 227
▁그칠 227
▁기술력이 227
▁기여하고 227
▁능력에 227
▁떨어진다는 227
▁로밍 227
▁리그 227
▁말의 227
▁무궁 227
▁무장 227
▁물리적인 227
▁미래가 227
▁배경에 227
▁베어 227
▁봉수 227
▁사측의 227
▁산업으로 227
▁색이 227
▁생명이 227
▁성남시 227
▁수두 227
▁스페 227
▁스피드 227
▁신청자 227
▁아버 227
▁안티 227
▁언론은 227
▁열흘 227
▁옆에서 227
▁예견 227
▁예배 227
▁오염된 227
▁위원회 227
▁의의가 227
▁이강 227
▁이럴 227
▁이슈를 227
▁인간에게 227
▁자격증 227
▁절곡 227
▁주상 227
▁주시기를 227
▁줄기세포 227
▁증가시켜 227
▁진행하며 227
▁찾아왔다 227
▁충전할 227
▁컵스카우트 227
▁탈바꿈 227
▁통계에 227
▁하려는 227
거운 227
공시 227
닷 227
뚱 227
락의 227
련이 227
리즈 227
문화재 227
사업자가 227
션의 227
아스달 227
연구소가 227
오리 227
와이어 227
위성 227
은은 227
인트로 227
축으로 227
커스 227
코딩 227
했어요 227
회로는 227
~4 226
▁1914 226
▁260 226
▁거기서 226
▁건전성 226
▁경우와 226
▁계수 226
▁고민하고 226
▁관객의 226
▁국민은행 226
▁굴곡 226
▁금감원의 226
▁나타나기 226
▁동작이 226
▁르노삼성이 226
▁마그네 226
▁마산 226
▁멈추지 226
▁명백한 226
▁못하다 226
▁벤치 226
▁부가가 226
▁분석은 226
▁사교육 226
▁산세가 226
▁생기기 226
▁설이 226
▁세퍼 226
▁스릴러 226
▁스토리지 226
▁시료 226
▁시리즈를 226
▁시행한다고 226
▁실손 226
▁실업급여를 226
▁않아야 226
▁여자친 226
▁운명을 226
▁원어민 226
▁위험성을 226
▁은행들은 226
▁이대 226
▁인건비를 226
▁일부러 226
▁일찌감치 226
▁저장하고 226
▁저조 226
▁저희가 226
▁절감을 226
▁중점 226
▁증권사들이 226
▁지날 226
▁진행하고자 226
▁집단의 226
▁쪽은 226
▁추세에 226
▁추월 226
▁커뮤니케이션을 226
▁클라 226
▁탄탄 226
▁판단에서다 226
▁포스 226
▁프로세스를 226
▁하락하는 226
▁헌신 226
▁확진된 226
대상자 226
돈이 226
렸습니다 226
마와 226
발달 226
불량을 226
캔 226
커를 226
툰 226
화학이 226
회관에서 226
▁거뒀다 225
▁고심 225
▁고용보험에 225
▁고취 225
▁공급하기 225
▁공유경제 225
▁교육비 225
▁규모와 225
▁기록되어 225
▁꿈꾸 225
▁낙찰 225
▁납득 225
▁늘렸다 225
▁동원해 225
▁먼지 225
▁반응에 225
▁받았으며 225
▁방면으로 225
▁불교의 225
▁산화막 225
▁성폭행 225
▁성향을 225
▁유지한 225
▁음이온 225
▁의사결 225
▁이론에 225
▁일반적 225
▁있으면서 225
▁저격 225
▁저속 225
▁전기에너 225
▁접수된 225
▁지역별로 225
▁지원받을 225
▁차급 225
▁추정하고 225
▁카메라로 225
▁콜라 225
▁콤팩트 225
▁트립 225
▁판매됐다 225
▁폭언 225
▁프로그램인 225
가야 225
국장 225
권익 225
남이 225
라인의 225
루스 225
분양 225
쏘나타 225
운데 225
월부터는 225
이익을 225
지출 225
초에 225
혈관 225
환자는 225
BMW 224
▁SKT 224
▁간편한 224
▁감염자 224
▁개간 224
▁걸리지 224
▁결국은 224
▁결론이 224
▁경지 224
▁곳이라 224
▁과언이 224
▁구현한다 224
▁내구성 224
▁농작 224
▁다방 224
▁달랐다 224
▁뒤집어 224
▁말하지 224
▁물로 224
▁바늘 224
▁봅니다 224
▁부담해야 224
▁분석한다 224
▁분열 224
▁브랜 224
▁비선형 224
▁서장 224
▁소유하고 224
▁시스템인 224
▁신문은 224
▁신청자가 224
▁아내를 224
▁아름답고 224
▁애를 224
▁약세를 224
▁약수 224
▁연습을 224
▁유래한 224
▁유일하다 224
▁음극선관용 224
▁음압 224
▁의식이 224
▁임무를 224
▁입시 224
▁장래 224
▁주름 224
▁주며 224
▁중요하지만 224
▁지금까지는 224
▁지친 224
▁콘센트에 224
▁텔레비전의 224
▁통계청 224
▁틀어 224
▁호흡이 224
▁확진판정을 224
결혼 224
나무의 224
동력 224
랠 224
사나 224
쎄 224
영역의 224
창고 224
칵 224
화학적 224
?” 223
ult 223
▁1,6 223
▁125 223
▁1945 223
▁CN 223
▁v 223
▁간병 223
▁강력히 223
▁강서 223
▁갱 223
▁결정될 223
▁경영진이 223
▁공론 223
▁구분하는 223
▁근로조건 223
▁김대 223
▁김사 223
▁남아있는 223
▁노출될 223
▁단어가 223
▁대가를 223
▁대구에서 223
▁대목 223
▁동일하다 223
▁뒤에서 223
▁등에서는 223
▁뚜껑 223
▁롤스로이스 223
▁만성질환 223
▁맞추고 223
▁명칭은 223
▁모하비 223
▁발표하면서 223
▁변함 223
▁보고서에서 223
▁불쾌 223
▁비하 223
▁사로잡을 223
▁상품권 223
▁세워져 223
▁시프트 223
▁언어로 223
▁원내대표 223
▁원하지 223
▁이르게 223
▁인가되는 223
▁일삼 223
▁일하던 223
▁임금협상 223
▁적용되고 223
▁정격 223
▁정보로 223
▁제출하면 223
▁조심스럽게 223
▁조작을 223
▁종목이 223
▁지금보다 223
▁지원한 223
▁집중된 223
▁초창 223
▁추종 223
▁취지의 223
▁치킨 223
▁코일의 223
▁팟캐스트 223
▁편의성이 223
▁핑크 223
▁한계에 223
▁현재와 223
▁환경은 223
기보다 223
년대부터 223
버스가 223
부재의 223
붓 223
새로 223
세다 223
시나 223
의무 223
일부 223
타의 223
퍼레이션 223
프리카 223
협상 223
kW 222
∼11 222
▁1.5% 222
▁SC 222
▁개선됐다 222
▁개선했다 222
▁건물에 222
▁결핍 222
▁고르게 222
▁곳에서는 222
▁과감 222
▁까다로운 222
▁나타나며 222
▁낡은 222
▁낭만 222
▁누나 222
▁도입하고 222
▁모노 222
▁모인다 222
▁무한히 222
▁미만으로 222
▁민주노총의 222
▁부하를 222
▁빈번하게 222
▁사양을 222
▁생각하며 222
▁성찰 222
▁스위치에 222
▁아이오닉 222
▁온도는 222
▁웃으며 222
▁음성이 222
▁이러 222
▁이집 222
▁있기도 222
▁자궁 222
▁정제 222
▁죽는 222
▁중고차를 222
▁지금처럼 222
▁지속가능한 222
▁지원도 222
▁직교 222
▁진입을 222
▁친구를 222
▁터라 222
▁투자자들에게 222
▁필터링 222
▁하겠다고 222
▁혁신금융 222
▁형태다 222
▁화학물질 222
▁활용되는 222
고개가 222
매수 222
송금 222
시경 222
역량 222
자문 222
잣 222
저는 222
핍 222
훼 222
56 221
St 221
ight 221
▁EQ 221
▁ET 221
▁GLC 221
▁게스트 221
▁공원이 221
▁과정이다 221
▁관객들에게 221
▁관심도 221
▁남대 221
▁놀라움을 221
▁다주택 221
▁대표적으로 221
▁대화의 221
▁더할 221
▁덧붙 221
▁동안에 221
▁떨어지면서 221
▁뜻깊은 221
▁램프의 221
▁마음은 221
▁마지막까지 221
▁미군 221
▁미묘한 221
▁바다와 221
▁반도체의 221
▁반영할 221
▁본선 221
▁봄을 221
▁부적절한 221
▁불가피하게 221
▁비누 221
▁살리 221
▁상자 221
▁생동 221
▁선사하는 221
▁소문 221
▁수집하고 221
▁순이익 221
▁식품을 221
▁실명 221
▁싶을 221
▁양측이 221
▁에어로 221
▁예상한다 221
▁움직임은 221
▁의료비 221
▁이화 221
▁자가격 221
▁작업의 221
▁장벽을 221
▁지도에 221
▁지방자치 221
▁지형을 221
▁쫓아 221
▁추천하는 221
▁클라이언 221
▁탁월 221
▁프로덕 221
▁프린팅 221
▁플랫폼과 221
▁하나은행 221
▁해줄 221
▁형식은 221
▁환자들의 221
값의 221
개월을 221
공연 221
나라가 221
렸는데 221
룡산 221
룬 221
만대에 221
맞게 221
맞이 221
분과 221
서비스는 221
서비스에 221
스위치 221
일부터는 221
창조 221
크루 221
터리 221
티넨탈 221
▁1,200 220
▁AB 220
▁간혹 220
▁갖추게 220
▁경로가 220
▁고난 220
▁고용한 220
▁공개하지 220
▁구현이 220
▁극단적 220
▁금융회사가 220
▁기업이나 220
▁나이에 220
▁내측 220
▁대덕 220
▁도난 220
▁따르 220
▁랜드 220
▁마이클 220
▁메르 220
▁명성을 220
▁무한한 220
▁문화에 220
▁믿는다 220
▁바뀌면서 220
▁법과 220
▁부과된다 220
▁서울시의 220
▁손태승 220
▁수석부 220
▁스루 220
▁스카이 220
▁슬픈 220
▁시어머니 220
▁시퀀 220
▁신뢰도 220
▁않았습니다 220
▁유료방송 220
▁이관 220
▁이루어지며 220
▁인터페이스를 220
▁임금과 220
▁잠정합의 220
▁적당 220
▁정직 220
▁제어하여 220
▁지녔 220
▁초기의 220
▁출시로 220
▁커넥티드카 220
▁크리에이티브 220
▁평소에 220
▁포함되는 220
▁학습이 220
▁한국자동차산업 220
▁행사할 220
▁현저하게 220
▁형광램프 220
경제적 220
곡으로 220
르가 220
면적을 220
백신 220
아무 220
앨 220
웹툰 220
위원이 220
유리 220
즈에 220
풋 220
하이닉 220
all 219
▁0.7 219
▁1986 219
▁감쇠 219
▁강화와 219
▁개봉한 219
▁객관적인 219
▁고소득 219
▁골짜기를 219
▁구인 219
▁근로소득 219
▁기차 219
▁나뉘어 219
▁내다보고 219
▁놓아 219
▁느슨 219
▁다녀간 219
▁다음은 219
▁달고 219
▁도로로 219
▁등지에서 219
▁떠났 219
▁맥도 219
▁모션 219
▁반려동물 219
▁발맞춰 219
▁보러 219
▁부피가 219
▁비단 219
▁비은행 219
▁비정상 219
▁사연 219
▁사용하던 219
▁생산량은 219
▁수사가 219
▁시급하다 219
▁신기술을 219
▁신재생 219
▁앱에서 219
▁예방하고 219
▁외식 219
▁요청할 219
▁울타 219
▁유병 219
▁이견이 219
▁이바지 219
▁읽기 219
▁재학 219
▁저평가 219
▁적색 219
▁절대적으로 219
▁책에서 219
▁총수 219
▁출장 219
▁캠코더 219
▁콘크리 219
▁패스트 219
▁프랜차이즈 219
▁필두로 219
▁하소 219
▁해식 219
▁현대자동차는 219
▁형태와 219
▁활용된다 219
▁후보에 219
▁흐른 219
가량이 219
계산 219
곰 219
공화 219
란의 219
뤘 219
분포 219
스토리 219
쯔 219
탄이 219
팥 219
GI 218
ev 218
ia 218
▁SE 218
▁각인 218
▁간접적으로 218
▁겪어 218
▁결혼식 218
▁경관을 218
▁과실 218
▁국외 218
▁규정한 218
▁그라운드 218
▁금형 218
▁기술적인 218
▁끝났 218
▁넘겼다 218
▁논의하는 218
▁느껴졌다 218
▁동기를 218
▁모여서 218
▁몰두 218
▁무수 218
▁무언가를 218
▁무이자 218
▁믿음 218
▁바뀌어 218
▁바우 218
▁받아서 218
▁배경이다 218
▁부품업체 218
▁불리한 218
▁사용자를 218
▁사회주의 218
▁생산은 218
▁선택된 218
▁소변 218
▁소비하는 218
▁소집 218
▁수출을 218
▁시나리오를 218
▁심은 218
▁싸움 218
▁아름답게 218
▁않겠다 218
▁얼른 218
▁없지 218
▁엘리트 218
▁여성과 218
▁연이 218
▁온라인을 218
▁올레드 218
▁올리며 218
▁요리를 218
▁요소다 218
▁용어를 218
▁우호 218
▁운영하며 218
▁움직이고 218
▁유도할 218
▁유사하다 218
▁유튜브를 218
▁응답자 218
▁일치하는 218
▁자동차로 218
▁자를 218
▁제공한다고 218
▁조장 218
▁주행에 218
▁지수를 218
▁질의 218
▁질환이 218
▁충실히 218
▁티브 218
▁할머니는 218
▁해결하고자 218
▁햇 218
石 218
공원은 218
기준에 218
냈다는 218
노트 218
돗 218
딤 218
발의 218
비에스 218
삿 218
서리 218
술이 218
아빠 218
옵니다 218
인구가 218
조회 218
주신 218
히며 218
힘을 218
▁가량의 217
▁가르치는 217
▁개인은 217
▁객실 217
▁검증된 217
▁경차 217
▁경품 217
▁고문 217
▁그랜저는 217
▁급감했다 217
▁기여하는 217
▁기자간담 217
▁김건 217
▁남게 217
▁남는다 217
▁논란은 217
▁대승 217
▁도로에서 217
▁마련한다 217
▁마스크가 217
▁막힌 217
▁방안으로 217
▁변성 217
▁봄철 217
▁사람이다 217
▁상기의 217
▁수익성을 217
▁시그니처 217
▁억압 217
▁없어요 217
▁여름에 217
▁움직이지 217
▁유학 217
▁응답한 217
▁이륜 217
▁이밖에도 217
▁이에따라 217
▁자발적인 217
▁자신도 217
▁작용한 217
▁전략의 217
▁정리가 217
▁제기돼 217
▁제조방법이 217
▁좋다는 217
▁주목받는 217
▁준다는 217
▁증대시킬 217
▁충분하다 217
▁충성 217
▁취향에 217
▁칠곡 217
▁팩시밀리의 217
▁페달을 217
▁포기하고 217
▁학생에게 217
▁한도가 217
궈 217
그린 217
단자를 217
령은 217
린은 217
마을의 217
보게 217
보험이 217
사업체 217
숭아 217
시절 217
아산 217
어드 217
언어 217
여러 217
읍의 217
주시는 217
타르 217
펀드를 217
OA 216
▁1~ 216
▁3.3 216
▁가다 216
▁거부하는 216
▁것이라며 216
▁격상 216
▁결정적 216
▁고품질의 216
▁교도 216
▁그릴과 216
▁글과 216
▁금리인 216
▁기계를 216
▁깨닫게 216
▁남편은 216
▁드레인 216
▁루머 216
▁마구 216
▁메시지의 216
▁목적의 216
▁몰리면서 216
▁못했다고 216
▁바로잡 216
▁변한다 216
▁본연의 216
▁부동산을 216
▁부속 216
▁브라우 216
▁사용되었다 216
▁생각이다 216
▁서울을 216
▁세울 216
▁싶었던 216
▁악화된 216
▁애써 216
▁얻지 216
▁원장 216
▁이동통신단말기의 216
▁임직원들이 216
▁자녀에게 216
▁적발됐다 216
▁정정 216
▁제공이 216
▁제시된 216
▁주문을 216
▁주휴 216
▁질문이 216
▁초당 216
▁충분하지 216
▁측면에서는 216
▁컴퓨터로 216
▁코리아는 216
▁택지 216
▁통해서도 216
▁판결에 216
▁페이스북에 216
▁해군 216
▁행복과 216
가상 216
나라의 216
도로가 216
드리며 216
든다 216
반으로 216
사양 216
암에 216
얄 216
인들을 216
임과 216
자리에 216
정보의 216
차고 216
훈을 216
119 215
▁AT 215
▁SR 215
▁계산할 215
▁공시가격 215
▁교감 215
▁대금을 215
▁던졌다 215
▁도중에 215
▁르노삼성자동차는 215
▁무죄 215
▁문장을 215
▁바이러스의 215
▁발걸 215
▁발전하는 215
▁상세히 215
▁서울로 215
▁세심한 215
▁송파 215
▁시청자가 215
▁실링 215
▁안내하는 215
▁앵커 215
▁양호하게 215
▁엘이디 215
▁연달아 215
▁영역과 215
▁오스트리아 215
▁의도를 215
▁인터넷전문은행 215
▁자극을 215
▁잔액이 215
▁전년동기 215
▁전역에 215
▁접점을 215
▁정했다 215
▁졸업앨범 215
▁지나가 215
▁짐을 215
▁착취 215
▁축적된 215
▁키워드 215
▁투약 215
▁항체 215
▁활동할 215
▁활약에 215
▁회원이 215
▁흥행에 215
곡동 215
너를 215
놓는 215
달러를 215
댕 215
리퍼 215
면세 215
방식에 215
백화점 215
불량 215
센서를 215
셸 215
소형 215
스틴 215
율에 215
장려 215
장려금 215
ha 214
▁3∼5 214
▁PSA 214
▁거센 214
▁걸림돌 214
▁고용노동 214
▁공중보건 214
▁과징금 214
▁교사는 214
▁그다음 214
▁근로자들은 214
▁글래 214
▁금융소비자 214
▁네트워크에서 214
▁다들 214
▁도로공사 214
▁동향을 214
▁동호 214
▁듣지 214
▁디젤엔진 214
▁로맨 214
▁로맨틱 214
▁림 214
▁마무리했다 214
▁맛있는 214
▁모바일게임 214
▁못지않게 214
▁밀어붙 214
▁발달하였다 214
▁배우로 214
▁법무법인 214
▁벨트 214
▁보물 214
▁보합 214
▁복합적으로 214
▁부담은 214
▁부착하여 214
▁비난을 214
▁사측과 214
▁상식 214
▁상업용 214
▁설계가 214
▁소결 214
▁소망 214
▁소실 214
▁시가총 214
▁시대적 214
▁식물이 214
▁신용보증 214
▁신중한 214
▁암호화폐를 214
▁약물을 214
▁요구한다 214
▁원조 214
▁윈도 214
▁이병헌 214
▁이상이면 214
▁이씨는 214
▁일상생활에서 214
▁임금피크제 214
▁자산에 214
▁작년에 214
▁종가가 214
▁중금속 214
▁즐기고 214
▁지장이 214
▁진지한 214
▁참견 214
▁취지를 214
▁테일 214
▁통계청이 214
▁통치 214
▁플러그를 214
▁함부로 214
▁해결에 214
▁해독 214
▁해온 214
▁행정안전 214
가스가 214
가전 214
개월의 214
교사가 214
교에 214
기술과 214
모티브 214
법인이 214
비밀 214
빈과 214
샐 214
열은 214
요타 214
위원회와 214
채무 214
쿨 214
팸 214
포털 214
하시기를 214
회장은 214
UN 213
▁101 213
▁1979 213
▁FCA 213
▁갇 213
▁강변 213
▁강서구 213
▁구비되는 213
▁극에 213
▁근로제 213
▁금융권의 213
▁금천 213
▁급변하는 213
▁기관으로 213
▁기쁨을 213
▁기업도 213
▁끼칠 213
▁도달할 213
▁돌려보 213
▁두께의 213
▁둥글 213
▁마힌드라 213
▁매료 213
▁먹거리 213
▁문턱을 213
▁묻고 213
▁반포 213
▁발견돼 213
▁발라드 213
▁변환하는 213
▁보이스피싱 213
▁보험에 213
▁사무총 213
▁세미 213
▁세포가 213
▁센서는 213
▁시간적 213
▁실행할 213
▁언론사 213
▁역할과 213
▁예정으로 213
▁유지되는 213
▁인입 213
▁입장에선 213
▁잘하는 213
▁장사 213
▁전고 213
▁전후로 213
▁접속하는 213
▁종목을 213
▁주택의 213
▁지구에 213
▁지배하는 213
▁취득한 213
▁태평양 213
▁트랩 213
▁포드의 213
▁프레임에 213
▁피드백을 213
▁환자에 213
▁황제 213
▁휘어 213
▁힘들게 213
거든 213
덜 213
박스를 213
받으며 213
비율을 213
우한 213
자산이 213
충돌 213
항공사 213
회장이 213
SC 212
▁7∼8 212
▁k 212
▁같지 212
▁게임과 212
▁경관 212
▁경기도가 212
▁계열사인 212
▁공기업 212
▁구글과 212
▁그곳에 212
▁금지하고 212
▁내려가 212
▁내비 212
▁넓히고 212
▁노동자로 212
▁높지만 212
▁누전 212
▁답이 212
▁당기순 212
▁대출은 212
▁데이타를 212
▁독특 212
▁동아시아 212
▁맞이한 212
▁맥주 212
▁면을 212
▁묶여 212
▁민원이 212
▁바르 212
▁발달이 212
▁발표에 212
▁발표했으며 212
▁발휘하는 212
▁방호 212
▁변압기 212
▁브래 212
▁브러시 212
▁뺀 212
▁생각했던 212
▁서늘 212
▁설레 212
▁수중 212
▁스태 212
▁시작하고 212
▁시장에서의 212
▁악의 212
▁안쪽에 212
▁앞당겨 212
▁애매 212
▁양치 212
▁없애는 212
▁에서 212
▁엔드 212
▁엔터 212
▁우세하다 212
▁유일의 212
▁이곳의 212
▁이찬 212
▁인터넷이 212
▁일렉 212
▁일찍이 212
▁잃어버 212
▁장례식 212
▁장소가 212
▁재생에너지 212
▁전략과 212
▁전화로 212
▁접속할 212
▁지켜보는 212
▁진입하는 212
▁진흙 212
▁참가자 212
▁춘천 212
▁치열하게 212
▁트레일 212
▁판촉 212
▁폐차 212
▁프로젝션 212
▁하천을 212
▁한시 212
▁할까 212
▁히틀 212
겨져 212
더라고 212
되오니 212
라미 212
미안 212
벡 212
선생님 212
수단이 212
숙이 212
식별 212
아이가 212
에셋 212
유전 212
조정을 212
지시 212
컴퍼 212
키의 212
토론 212
파트너스 212
했으면 212
희를 212
73 211
ILO 211
▁"' 211
▁0. 211
▁330 211
▁가장자리 211
▁간신 211
▁감속 211
▁같은데 211
▁고기를 211
▁관통하는 211
▁구호 211
▁국회를 211
▁그건 211
▁그것에 211
▁그로부터 211
▁극대화할 211
▁급증하면서 211
▁기성 211
▁기자회견에서 211
▁늘리기 211
▁다수가 211
▁단연 211
▁드라마로 211
▁등으로부터 211
▁디테일 211
▁라인이 211
▁만다 211
▁매회 211
▁먹어 211
▁바라보며 211
▁바에 211
▁발전기의 211
▁방법의 211
▁벌일 211
▁보도자료 211
▁보호와 211
▁봄이 211
▁부분으로 211
▁불안이 211
▁선고했다 211
▁세션 211
▁소상공인을 211
▁실물경제 211
▁아이템을 211
▁아픔 211
▁어시스트 211
▁얼굴로 211
▁에이치 211
▁역의 211
▁연화 211
▁외국어 211
▁외로 211
▁우리나라에 211
▁원하시는 211
▁위협이 211
▁음악과 211
▁의도적으로 211
▁이더리 211
▁이번에도 211
▁이씨 211
▁인가를 211
▁인터랙 211
▁잔액 211
▁장점은 211
▁전가 211
▁접속된 211
▁정몽 211
▁제출합니다 211
▁조업 211
▁종교적 211
▁주먹 211
▁주역 211
▁지적에 211
▁차종으로 211
▁추진을 211
▁측에서 211
▁치료제가 211
▁컨퍼런스 211
▁턱없이 211
▁테크놀로 211
▁평탄화 211
▁헬륨 211
그리 211
내면 211
랍 211
로써 211
먼트를 211
벼 211
변수 211
보험의 211
순이 211
시도 211
실리콘 211
위기를 211
이너 211
인들에게 211
전극과 211
토피 211
트론 211
팩토리 211
9,000 210
IR 210
~5 210
▁0.1% 210
▁0.4 210
▁거부하고 210
▁겪게 210
▁경기도는 210
▁경영상 210
▁곁에 210
▁공개를 210
▁관광객들이 210
▁교란 210
▁구석 210
▁굳건 210
▁그룹은 210
▁극소 210
▁근로자들을 210
▁금융당국 210
▁금융위원회가 210
▁끼를 210
▁날인 210
▁노년 210
▁논산 210
▁다이어트 210
▁단원 210
▁단조 210
▁대해서만 210
▁도시로 210
▁독성 210
▁리틀 210
▁망설 210
▁무작위 210
▁박명 210
▁본원 210
▁분류된다 210
▁사망자는 210
▁사물을 210
▁사용하며 210
▁산소를 210
▁상승하고 210
▁생각도 210
▁성향이 210
▁소득주도 210
▁숨겨 210
▁실시하여 210
▁씨를 210
▁아들의 210
▁여건을 210
▁완벽히 210
▁외상 210
▁우수하다 210
▁유학생 210
▁인수하는 210
▁자회사로 210
▁전환한 210
▁절제 210
▁주부 210
▁지도해 210
▁지적한 210
▁청소년의 210
▁출시해 210
▁캠페인은 210
▁특혜 210
▁파장을 210
▁팔고 210
▁편리성을 210
▁표현한다 210
▁풍수지 210
▁프로세서 210
▁피크 210
▁함수 210
▁화합물을 210
▁휘말 210
가인 210
공사와 210
관리법 210
교육은 210
리기도 210
발적으로 210
부상 210
분기부터 210
이기에 210
짖 210
테크노 210
혐 210
화장 210
OF 209
▁18650 209
▁1982 209
▁35% 209
▁Cu 209
▁가격도 209
▁가능하지만 209
▁가입하는 209
▁감소시키고 209
▁개정으로 209
▁검출하는 209
▁경연 209
▁공장과 209
▁교환기의 209
▁구간에 209
▁국악 209
▁국지 209
▁국책 209
▁금융위원회는 209
▁기르고 209
▁김호 209
▁끼친 209
▁나트륨 209
▁남았다 209
▁낯설 209
▁네티즌들은 209
▁농림 209
▁누리꾼 209
▁느린 209
▁당사자 209
▁대웅 209
▁도시에서 209
▁명문 209
▁묘한 209
▁무색 209
▁뭉쳐 209
▁바이어스 209
▁박사가 209
▁발굴해 209
▁배타 209
▁병상 209
▁본사를 209
▁비효율 209
▁사출 209
▁상반된 209
▁생산직 209
▁생활의 209
▁서울지방 209
▁소규모의 209
▁시작한다고 209
▁시청자를 209
▁쌍둥이 209
▁에어크로 209
▁엔트리 209
▁여과 209
▁오렌지 209
▁올린다 209
▁워너 209
▁원격으로 209
▁이곳에는 209
▁이보 209
▁자신은 209
▁전해지고 209
▁제언 209
▁제지 209
▁종일 209
▁주식시장 209
▁출시에 209
▁퇴사 209
▁투입되는 209
▁팀장 209
▁환전 209
▁효과적이다 209
▁후유 209
▁흘려 209
공동체 209
광고의 209
교실을 209
금액을 209
급을 209
다양한 209
루미 209
멜로가 209
민간 209
뿌 209
송이 209
었음을 209
왔다는 209
요일 209
의원 209
일로부터 209
있었다 209
저우 209
적이면서도 209
하자고 209
행위가 209
행위에 209
혁은 209
화합 209
KT 208
▁2020' 208
▁가늘 208
▁가면서 208
▁강우 208
▁경영난 208
▁공간이다 208
▁공통적으로 208
▁교육활동에 208
▁국민에게 208
▁굶 208
▁규제와 208
▁그들에게 208
▁날은 208
▁노숙 208
▁다이나믹 208
▁돔 208
▁뒤인 208
▁마그 208
▁마스크와 208
▁메뉴를 208
▁모바일로 208
▁못했을 208
▁바라보 208
▁방역을 208
▁방위비 208
▁보였고 208
▁빈도가 208
▁삼은 208
▁서스펜 208
▁선로 208
▁선박의 208
▁섰다 208
▁성을 208
▁소프트웨어가 208
▁시스템도 208
▁신촌 208
▁양자역 208
▁예다 208
▁오늘도 208
▁오목 208
▁원스톱 208
▁원자는 208
▁위급 208
▁위함이다 208
▁유지보수 208
▁은혜 208
▁음식물 208
▁음압병 208
▁음의 208
▁음주운전 208
▁장만 208
▁재치 208
▁전달하기 208
▁점진적으로 208
▁조성에 208
▁조직에 208
▁주가를 208
▁중앙을 208
▁지구와 208
▁투영 208
▁폐기물 208
▁포인트가 208
▁피하는 208
▁학력 208
▁한국노동조합총연맹 208
▁후회 208
강남 208
광의 208
금융이 208
기술에 208
기초 208
끄 208
나루 208
냈던 208
롯데 208
면역 208
버스는 208
부하 208
분배 208
사기 208
사회에서 208
산인 208
슈퍼맨이 208
슘 208
신청서를 208
인데도 208
지식 208
짱 208
캄 208
코는 208
크와 208
학에 208
▁가입자는 207
▁감염에 207
▁감탄을 207
▁거래량은 207
▁결합되어 207
▁공사는 207
▁국회가 207
▁그었다 207
▁기존보다 207
▁날개를 207
▁노동의 207
▁노력했다 207
▁돌아올 207
▁둥지를 207
▁뒤처 207
▁들어가지 207
▁룸 207
▁리조 207
▁매니지먼트 207
▁머무는 207
▁메모리에 207
▁명지 207
▁못하면서 207
▁밝혀진 207
▁법의 207
▁보통의 207
▁부상을 207
▁비정질 207
▁사업에서 207
▁설정을 207
▁스코 207
▁스테이지 207
▁시공간 207
▁시대로 207
▁식료 207
▁아세안 207
▁양측의 207
▁어려웠던 207
▁요소는 207
▁원자재 207
▁유적으로는 207
▁음성을 207
▁전기차로 207
▁정상화를 207
▁정할 207
▁조금이나마 207
▁주주총 207
▁준법감시 207
▁중소기업을 207
▁중앙노동위원회 207
▁지내고 207
▁찍고 207
▁청년들이 207
▁총출동 207
▁치우 207
▁텍 207
▁통보했다 207
▁팽팽한 207
▁포함될 207
▁플랫폼이다 207
▁한전 207
▁합류한 207
▁해발고도 207
▁해설 207
▁화요일 207
▁확연히 207
▁회복에 207
개선을 207
건조 207
경로 207
경쟁력 207
그럼 207
니까요 207
뒤 207
라인이 207
명이었다 207
발진 207
북도 207
불법 207
사망 207
슨의 207
시험을 207
식각 207
앗 207
인수 207
자산을 207
지하철 207
첼 207
클로 207
하진 207
▁PP 206
▁강화될 206
▁검토해 206
▁결합이 206
▁고갯 206
▁고도화 206
▁공효 206
▁국내에선 206
▁급하게 206
▁김강 206
▁낳고 206
▁노리는 206
▁높이의 206
▁느려 206
▁대법원이 206
▁대산 206
▁대우조선해양 206
▁도시락 206
▁동선을 206
▁두었다 206
▁듣기 206
▁따뜻하게 206
▁라스베이거 206
▁로이터 206
▁발라 206
▁밭이 206
▁배신 206
▁브랜드와 206
▁살게 206
▁상승폭이 206
▁상한제 206
▁상황도 206
▁선정하고 206
▁송중 206
▁수화 206
▁승리를 206
▁시장인 206
▁실수로 206
▁언젠가 206
▁예민 206
▁올라와 206
▁이루어져야 206
▁이미지에 206
▁인문 206
▁일깨 206
▁일시적인 206
▁일자리는 206
▁정승 206
▁조건은 206
▁조망 206
▁죄송 206
▁증폭되고 206
▁촉구하는 206
▁투명하게 206
▁투자자에게 206
▁판교 206
▁패소 206
▁편지 206
▁한국에서는 206
▁한마음 206
▁해결책을 206
▁형상으로 206
氏 206
금액은 206
남서 206
민들의 206
본이 206
생과 206
설치 206
액과 206
원에게 206
조치가 206
증후군 206
지속 206
질병 206
킵 206
탕을 206
통령 206
펌 206
프라임 206
[...]
